{"version":"1.0","truncation":null,"padding":null,"added_tokens":[{"id":0,"special":true,"content":"<unk>","single_word":false,"lstrip":false,"rstrip":false,"normalized":false},{"id":1,"special":true,"content":"[CLS]","single_word":false,"lstrip":false,"rstrip":false,"normalized":false},{"id":2,"special":true,"content":"[SEP]","single_word":false,"lstrip":false,"rstrip":false,"normalized":false},{"id":3,"special":true,"content":"[PAD]","single_word":false,"lstrip":false,"rstrip":false,"normalized":false},{"id":4,"special":true,"content":"[MASK]","single_word":false,"lstrip":false,"rstrip":false,"normalized":false},{"id":5,"special":true,"content":"<en>","single_word":false,"lstrip":false,"rstrip":false,"normalized":false},{"id":6,"special":true,"content":"<num>","single_word":false,"lstrip":false,"rstrip":false,"normalized":false},{"id":7,"special":true,"content":"<per0>","single_word":false,"lstrip":false,"rstrip":false,"normalized":false},{"id":8,"special":true,"content":"<per1>","single_word":false,"lstrip":false,"rstrip":false,"normalized":false},{"id":9,"special":true,"content":"<per2>","single_word":false,"lstrip":false,"rstrip":false,"normalized":false},{"id":10,"special":true,"content":"<per3>","single_word":false,"lstrip":false,"rstrip":false,"normalized":false},{"id":11,"special":true,"content":"<per4>","single_word":false,"lstrip":false,"rstrip":false,"normalized":false},{"id":12,"special":true,"content":"<per5>","single_word":false,"lstrip":false,"rstrip":false,"normalized":false},{"id":13,"special":true,"content":"<per6>","single_word":false,"lstrip":false,"rstrip":false,"normalized":false},{"id":14,"special":true,"content":"<per7>","single_word":false,"lstrip":false,"rstrip":false,"normalized":false},{"id":15,"special":true,"content":"<per8>","single_word":false,"lstrip":false,"rstrip":false,"normalized":false},{"id":16,"special":true,"content":"<per9>","single_word":false,"lstrip":false,"rstrip":false,"normalized":false},{"id":17,"special":true,"content":"<org0>","single_word":false,"lstrip":false,"rstrip":false,"normalized":false},{"id":18,"special":true,"content":"<org1>","single_word":false,"lstrip":false,"rstrip":false,"normalized":false},{"id":19,"special":true,"content":"<org2>","single_word":false,"lstrip":false,"rstrip":false,"normalized":false},{"id":20,"special":true,"content":"<org3>","single_word":false,"lstrip":false,"rstrip":false,"normalized":false},{"id":21,"special":true,"content":"<org4>","single_word":false,"lstrip":false,"rstrip":false,"normalized":false},{"id":22,"special":true,"content":"<org5>","single_word":false,"lstrip":false,"rstrip":false,"normalized":false},{"id":23,"special":true,"content":"<org6>","single_word":false,"lstrip":false,"rstrip":false,"normalized":false},{"id":24,"special":true,"content":"<org7>","single_word":false,"lstrip":false,"rstrip":false,"normalized":false},{"id":25,"special":true,"content":"<org8>","single_word":false,"lstrip":false,"rstrip":false,"normalized":false},{"id":26,"special":true,"content":"<org9>","single_word":false,"lstrip":false,"rstrip":false,"normalized":false},{"id":27,"special":true,"content":"<loc0>","single_word":false,"lstrip":false,"rstrip":false,"normalized":false},{"id":28,"special":true,"content":"<loc1>","single_word":false,"lstrip":false,"rstrip":false,"normalized":false},{"id":29,"special":true,"content":"<loc2>","single_word":false,"lstrip":false,"rstrip":false,"normalized":false},{"id":30,"special":true,"content":"<loc3>","single_word":false,"lstrip":false,"rstrip":false,"normalized":false},{"id":31,"special":true,"content":"<loc4>","single_word":false,"lstrip":false,"rstrip":false,"normalized":false},{"id":32,"special":true,"content":"<loc5>","single_word":false,"lstrip":false,"rstrip":false,"normalized":false},{"id":33,"special":true,"content":"<loc6>","single_word":false,"lstrip":false,"rstrip":false,"normalized":false},{"id":34,"special":true,"content":"<loc7>","single_word":false,"lstrip":false,"rstrip":false,"normalized":false},{"id":35,"special":true,"content":"<loc8>","single_word":false,"lstrip":false,"rstrip":false,"normalized":false},{"id":36,"special":true,"content":"<loc9>","single_word":false,"lstrip":false,"rstrip":false,"normalized":false}],"normalizer":null,"pre_tokenizer":{"type":"Whitespace"},"post_processor":null,"decoder":null,"model":{"type":"BPE","dropout":null,"unk_token":"<unk>","continuing_subword_prefix":null,"end_of_word_suffix":null,"fuse_unk":false,"vocab":{"<unk>":0,"[CLS]":1,"[SEP]":2,"[PAD]":3,"[MASK]":4,"<en>":5,"<num>":6,"<per0>":7,"<per1>":8,"<per2>":9,"<per3>":10,"<per4>":11,"<per5>":12,"<per6>":13,"<per7>":14,"<per8>":15,"<per9>":16,"<org0>":17,"<org1>":18,"<org2>":19,"<org3>":20,"<org4>":21,"<org5>":22,"<org6>":23,"<org7>":24,"<org8>":25,"<org9>":26,"<loc0>":27,"<loc1>":28,"<loc2>":29,"<loc3>":30,"<loc4>":31,"<loc5>":32,"<loc6>":33,"<loc7>":34,"<loc8>":35,"<loc9>":36,"\b":37,"\u001c":38,"\u001d":39,"!":40,"\"":41,"#":42,"$":43,"%":44,"&":45,"'":46,"(":47,")":48,"*":49,"+":50,",":51,"-":52,".":53,"/":54,"0":55,"1":56,"2":57,"3":58,"4":59,"5":60,"6":61,"7":62,"8":63,"9":64,":":65,";":66,"<":67,"=":68,">":69,"?":70,"@":71,"E":72,"P":73,"S":74,"[":75,"\\":76,"]":77,"^":78,"_":79,"`":80,"c":81,"e":82,"g":83,"k":84,"l":85,"m":86,"n":87,"o":88,"p":89,"r":90,"u":91,"{":92,"|":93,"}":94,"~":95,"":96,"¡":97,"£":98,"§":99,"©":100,"«":101,"¬":102,"­":103,"®":104,"°":105,"±":106,"·":107,"»":108,"×":109,"÷":110,"ˇ":111,"ˊ":112,"ˋ":113,"ˍ":114,"́":115,"̇":116,"̊":117,"̍":118,"͟":119,"͵":120,"Β":121,"Δ":122,"Σ":123,"α":124,"β":125,"γ":126,"δ":127,"ε":128,"η":129,"θ":130,"μ":131,"π":132,"ω":133,"Ѕ":134,"В":135,"З":136,"М":137,"Н":138,"П":139,"Т":140,"а":141,"в":142,"г":143,"д":144,"е":145,"з":146,"и":147,"й":148,"к":149,"л":150,"м":151,"н":152,"о":153,"р":154,"с":155,"т":156,"у":157,"ч":158,"ы":159,"ь":160,"я":161,"ё":162,"ا":163,"ت":164,"ج":165,"ر":166,"ع":167,"ف":168,"ل":169,"م":170,"ن":171,"ي":172,"ं":173,"इ":174,"ई":175,"ए":176,"क":177,"ग":178,"च":179,"ज":180,"ट":181,"ण":182,"त":183,"न":184,"प":185,"फ":186,"भ":187,"म":188,"य":189,"र":190,"ल":191,"ष":192,"स":193,"ह":194,"़":195,"ा":196,"ि":197,"ी":198,"े":199,"ै":200,"ो":201,"ौ":202,"्":203,"ก":204,"ข":205,"ค":206,"ง":207,"จ":208,"ช":209,"ซ":210,"ญ":211,"ณ":212,"ด":213,"ต":214,"ถ":215,"ท":216,"น":217,"บ":218,"ป":219,"ผ":220,"พ":221,"ฟ":222,"ภ":223,"ม":224,"ย":225,"ร":226,"ล":227,"ว":228,"ศ":229,"ส":230,"ห":231,"อ":232,"ะ":233,"ั":234,"า":235,"ิ":236,"ี":237,"ื":238,"ุ":239,"ู":240,"เ":241,"แ":242,"โ":243,"ใ":244,"ไ":245,"็":246,"่":247,"้":248,"๊":249,"๋":250,"์":251,"ᗩ":252,"​":253,"‌":254,"‍":255,"‎":256,"‐":257,"–":258,"—":259,"―":260,"‘":261,"’":262,"“":263,"”":264,"•":265,"‧":266,"‪":267,"‬":268,"‭":269,"‰":270,"′":271,"‵":272,"※":273,"⁦":274,"⁩":275,"€":276,"⃣":277,"Ↄ":278,"←":279,"↑":280,"→":281,"↓":282,"↘":283,"⇒":284,"∀":285,"∕":286,"∞":287,"∴":288,"∶":289,"∼":290,"≈":291,"≠":292,"≤":293,"≦":294,"≧":295,"⋯":296,"⏩":297,"⏰":298,"─":299,"│":300,"╭":301,"╮":302,"╯":303,"╰":304,"╱":305,"╲":306,"╳":307,"▌":308,"▍":309,"▎":310,"■":311,"▪":312,"▲":313,"△":314,"▶":315,"▷":316,"▸":317,"►":318,"▼":319,"◀":320,"◆":321,"◉":322,"○":323,"◎":324,"●":325,"◢":326,"◤":327,"☀":328,"★":329,"☆":330,"☐":331,"☑":332,"☘":333,"☞":334,"☠":335,"☺":336,"♀":337,"♂":338,"♥":339,"♪":340,"♬":341,"♻":342,"♾":343,"⚠":344,"⚡":345,"⛔":346,"⛸":347,"⛽":348,"✋":349,"✎":350,"✓":351,"✕":352,"✥":353,"✨":354,"❄":355,"❌":356,"❗":357,"❘":358,"❣":359,"❤":360,"❶":361,"❷":362,"❸":363,"➡":364,"➤":365,"⠀":366,"⬇":367,"⭐":368,"⭕":369,"⺠":370,"⻄":371,"⻑":372,"、":373,"。":374,"々":375,"〇":376,"〈":377,"〉":378,"《":379,"》":380,"「":381,"」":382,"『":383,"』":384,"【":385,"】":386,"〒":387,"〔":388,"〕":389,"〜":390,"〝":391,"〞":392,"〡":393,"゚":394,"ー":395,"ㄅ":396,"ㄆ":397,"ㄇ":398,"ㄈ":399,"ㄉ":400,"ㄊ":401,"ㄋ":402,"ㄌ":403,"ㄍ":404,"ㄎ":405,"ㄏ":406,"ㄐ":407,"ㄑ":408,"ㄒ":409,"ㄓ":410,"ㄔ":411,"ㄕ":412,"ㄖ":413,"ㄗ":414,"ㄘ":415,"ㄚ":416,"ㄛ":417,"ㄜ":418,"ㄝ":419,"ㄞ":420,"ㄟ":421,"ㄠ":422,"ㄡ":423,"ㄢ":424,"ㄣ":425,"ㄤ":426,"ㄥ":427,"ㄦ":428,"ㄧ":429,"ㄨ":430,"ㄩ":431,"㑹":432,"㖔":433,"㗎":434,"㩦":435,"㹴":436,"䄜":437,"䅲":438,"䕶":439,"䠷":440,"䡗":441,"䴉":442,"一":443,"丁":444,"七":445,"丅":446,"万":447,"丈":448,"三":449,"上":450,"下":451,"不":452,"与":453,"丐":454,"丑":455,"且":456,"丕":457,"世":458,"丘":459,"丙":460,"东":461,"丞":462,"丟":463,"丢":464,"严":465,"並":466,"丨":467,"个":468,"丫":469,"中":470,"丰":471,"串":472,"临":473,"丶":474,"丸":475,"丹":476,"为":477,"主":478,"丼":479,"丽":480,"丿":481,"乃":482,"久":483,"么":484,"之":485,"乍":486,"乎":487,"乏":488,"乑":489,"乒":490,"乓":491,"乖":492,"乗":493,"乘":494,"乙":495,"九":496,"乞":497,"也":498,"乩":499,"乱":500,"乳":501,"乾":502,"亀":503,"亁":504,"亂":505,"了":506,"亇":507,"予":508,"争":509,"事":510,"二":511,"于":512,"云":513,"互":514,"亓":515,"五":516,"井":517,"亙":518,"些":519,"亜":520,"亞":521,"亟":522,"亡":523,"亢":524,"交":525,"亥":526,"亦":527,"亨":528,"享":529,"京":530,"亭":531,"亮":532,"亲":533,"亳":534,"人":535,"亻":536,"什":537,"仁":538,"仄":539,"仆":540,"仇":541,"仉":542,"今":543,"介":544,"仍":545,"从":546,"仏":547,"仔":548,"仕":549,"他":550,"仗":551,"付":552,"仙":553,"仟":554,"代":555,"令":556,"以":557,"仨":558,"们":559,"仰":560,"仲":561,"仳":562,"件":563,"价":564,"任":565,"份":566,"仿":567,"企":568,"伃":569,"伉":570,"伊":571,"伍":572,"伎":573,"伏":574,"伐":575,"休":576,"伕":577,"众":578,"伙":579,"会":580,"伝":581,"伦":582,"伯":583,"估":584,"伴":585,"伶":586,"伸":587,"伺":588,"似":589,"伽":590,"佃":591,"但":592,"佇":593,"佈":594,"位":595,"低":596,"住":597,"佐":598,"佑":599,"体":600,"佔":601,"何":602,"佘":603,"余":604,"佚":605,"佛":606,"作":607,"佝":608,"你":609,"佢":610,"佣":611,"佩":612,"佬":613,"佮":614,"佯":615,"佰":616,"佳":617,"併":618,"佶":619,"佻":620,"佼":621,"佾":622,"使":623,"侃":624,"侄":625,"來":626,"侈":627,"例":628,"侍":629,"侏":630,"侑":631,"侖":632,"侗":633,"供":634,"依":635,"価":636,"侣":637,"侮":638,"侯":639,"侵":640,"侶":641,"侷":642,"便":643,"俁":644,"係":645,"促":646,"俄":647,"俊":648,"俋":649,"俎":650,"俏":651,"俐":652,"俑":653,"俓":654,"俗":655,"俘":656,"俚":657,"保":658,"俞":659,"俟":660,"俠":661,"信":662,"俢":663,"俣":664,"俥":665,"修":666,"俯":667,"俱":668,"俳":669,"俵":670,"俸":671,"俺":672,"俾":673,"倀":674,"倆":675,"倉":676,"個":677,"倌":678,"倍":679,"倏":680,"們":681,"倒":682,"倔":683,"倖":684,"倘":685,"候":686,"倚":687,"倜":688,"借":689,"倡":690,"倢":691,"値":692,"倥":693,"倦":694,"倨":695,"倩":696,"倪":697,"倫":698,"倭":699,"倰":700,"值":701,"偃":702,"假":703,"偈":704,"偉":705,"偌":706,"偎":707,"偏":708,"偒":709,"偕":710,"做":711,"停":712,"健":713,"偲":714,"側":715,"偵":716,"偶":717,"偷":718,"偽":719,"傀":720,"傅":721,"傍":722,"傑":723,"傘":724,"備":725,"傚":726,"傢":727,"傣":728,"催":729,"傭":730,"傯":731,"傱":732,"傲":733,"傳":734,"債":735,"傷":736,"傻":737,"傾":738,"僂":739,"僅":740,"僊":741,"像":742,"僑":743,"僕":744,"僚":745,"僥":746,"僧":747,"僭":748,"僮":749,"僱":750,"僵":751,"價":752,"僻":753,"儀":754,"儂":755,"億":756,"儆":757,"儉":758,"儋":759,"儒":760,"儔":761,"儕":762,"儘":763,"償":764,"儡":765,"儣":766,"優":767,"儲":768,"儷":769,"儸":770,"儻":771,"儼":772,"儿":773,"兀":774,"允":775,"元":776,"兄":777,"充":778,"兆":779,"兇":780,"先":781,"光":782,"克":783,"兌":784,"免":785,"児":786,"兑":787,"兒":788,"兔":789,"兗":790,"党":791,"兜":792,"兢":793,"入":794,"內":795,"全":796,"兩":797,"八":798,"公":799,"六":800,"兮":801,"共":802,"关":803,"兴":804,"兵":805,"其":806,"具":807,"典":808,"兹":809,"养":810,"兼":811,"冀":812,"内":813,"円":814,"冇":815,"冉":816,"冊":817,"冋":818,"再":819,"冏":820,"冒":821,"冓":822,"冕":823,"冗":824,"写":825,"冚":826,"军":827,"冠":828,"冤":829,"冥":830,"冧":831,"冪":832,"冬":833,"冰":834,"冲":835,"决":836,"冴":837,"况":838,"冶":839,"冷":840,"冽":841,"凃":842,"凅":843,"准":844,"凈":845,"凉":846,"凊":847,"凋":848,"凌":849,"凍":850,"减":851,"凑":852,"凖":853,"凜":854,"凝":855,"几":856,"凡":857,"凪":858,"凰":859,"凱":860,"凳":861,"凶":862,"凸":863,"凹":864,"出":865,"击":866,"函":867,"刀":868,"刁":869,"刃":870,"分":871,"切":872,"刈":873,"刊":874,"刎":875,"刑":876,"划":877,"刖":878,"列":879,"初":880,"删":881,"刣":882,"判":883,"別":884,"刨":885,"利":886,"刪":887,"别":888,"刮":889,"到":890,"制":891,"刷":892,"券":893,"刺":894,"刻":895,"剁":896,"剃":897,"則":898,"剉":899,"削":900,"剋":901,"剌":902,"前":903,"剎":904,"剔":905,"剖":906,"剛":907,"剝":908,"剥":909,"剩":910,"剪":911,"剮":912,"副":913,"割":914,"創":915,"剷":916,"剽":917,"剿":918,"劃":919,"劇":920,"劈":921,"劉":922,"劊":923,"劍":924,"劏":925,"劑":926,"力":927,"办":928,"功":929,"加":930,"劣":931,"动":932,"助":933,"努":934,"劫":935,"劬":936,"劭":937,"労":938,"劵":939,"効":940,"劼":941,"劾":942,"势":943,"勁":944,"勃":945,"勇":946,"勉":947,"勍":948,"勑":949,"勒":950,"動":951,"勗":952,"勘":953,"務":954,"勛":955,"勝":956,"勞":957,"募":958,"勢":959,"勤":960,"勧":961,"勳":962,"勵":963,"勸":964,"勺":965,"勻":966,"勾":967,"勿":968,"包":969,"匆":970,"匈":971,"匍":972,"匏":973,"匐":974,"匕":975,"化":976,"北":977,"匙":978,"匝":979,"匠":980,"匡":981,"匣":982,"匪":983,"匭":984,"匯":985,"匱":986,"匹":987,"医":988,"匾":989,"匿":990,"區":991,"十":992,"千":993,"卅":994,"升":995,"午":996,"卉":997,"半":998,"卌":999,"卍":1000,"卑":1001,"卒":1002,"卓":1003,"協":1004,"单":1005,"卖":1006,"南":1007,"博":1008,"卜":1009,"占":1010,"卡":1011,"卦":1012,"卫":1013,"卯":1014,"印":1015,"危":1016,"即":1017,"却":1018,"卵":1019,"卷":1020,"卸":1021,"卹":1022,"卻":1023,"卿":1024,"厄":1025,"厉":1026,"压":1027,"厓":1028,"厘":1029,"厚":1030,"厝":1031,"原":1032,"厠":1033,"厥":1034,"厦":1035,"厨":1036,"厭":1037,"厲":1038,"厳":1039,"厶":1040,"去":1041,"叁":1042,"参":1043,"參":1044,"又":1045,"叉":1046,"及":1047,"友":1048,"双":1049,"反":1050,"収":1051,"发":1052,"叔":1053,"取":1054,"受":1055,"变":1056,"叛":1057,"叠":1058,"叡":1059,"叢":1060,"口":1061,"古":1062,"句":1063,"另":1064,"叨":1065,"叩":1066,"只":1067,"叫":1068,"召":1069,"叭":1070,"叮":1071,"可":1072,"台":1073,"叱":1074,"史":1075,"右":1076,"叵":1077,"号":1078,"司":1079,"叻":1080,"叼":1081,"吁":1082,"吃":1083,"各":1084,"吆":1085,"合":1086,"吉":1087,"吊":1088,"吋":1089,"同":1090,"名":1091,"后":1092,"吏":1093,"吐":1094,"向":1095,"吒":1096,"吔":1097,"吗":1098,"君":1099,"吝":1100,"吞":1101,"吟":1102,"吠":1103,"否":1104,"吧":1105,"吩":1106,"含":1107,"吭":1108,"吮":1109,"吰":1110,"吱":1111,"吳":1112,"吵":1113,"吶":1114,"吸":1115,"吹":1116,"吻":1117,"吼":1118,"吾":1119,"吿":1120,"呀":1121,"呂":1122,"呃":1123,"呄":1124,"呆":1125,"呈":1126,"呉":1127,"告":1128,"呋":1129,"呎":1130,"呐":1131,"员":1132,"呢":1133,"呤":1134,"呦":1135,"周":1136,"呱":1137,"味":1138,"呵":1139,"呷":1140,"呸":1141,"呻":1142,"呼":1143,"命":1144,"咀":1145,"咁":1146,"咄":1147,"咆":1148,"咋":1149,"和":1150,"咎":1151,"咐":1152,"咒":1153,"咔":1154,"咕":1155,"咖":1156,"咗":1157,"咘":1158,"咚":1159,"咤":1160,"咥":1161,"咦":1162,"咧":1163,"咨":1164,"咩":1165,"咪":1166,"咫":1167,"咬":1168,"咯":1169,"咱":1170,"咲":1171,"咳":1172,"咸":1173,"咻":1174,"咽":1175,"咾":1176,"哀":1177,"品":1178,"哂":1179,"哄":1180,"哆":1181,"哇":1182,"哈":1183,"哉":1184,"哋":1185,"响":1186,"哎":1187,"哏":1188,"哐":1189,"哒":1190,"哖":1191,"哞":1192,"哟":1193,"員":1194,"哥":1195,"哦":1196,"哧":1197,"哨":1198,"哩":1199,"哪":1200,"哭":1201,"哮":1202,"哲":1203,"哺":1204,"哼":1205,"哽":1206,"唁":1207,"唄":1208,"唆":1209,"唇":1210,"唉":1211,"唏":1212,"唐":1213,"唑":1214,"唔":1215,"唦":1216,"唧":1217,"唬":1218,"唭":1219,"售":1220,"唯":1221,"唰":1222,"唱":1223,"唳":1224,"唷":1225,"唸":1226,"唾":1227,"啃":1228,"啄":1229,"商":1230,"啉":1231,"啊":1232,"問":1233,"啓":1234,"啕":1235,"啖":1236,"啜":1237,"啞":1238,"啟":1239,"啡":1240,"啣":1241,"啤":1242,"啥":1243,"啦":1244,"啪":1245,"啱":1246,"啲":1247,"啵":1248,"啷":1249,"啻":1250,"啼":1251,"啾":1252,"喀":1253,"喂":1254,"喃":1255,"善":1256,"喆":1257,"喇":1258,"喉":1259,"喊":1260,"喋":1261,"喎":1262,"喔":1263,"喘":1264,"喙":1265,"喚":1266,"喜":1267,"喝":1268,"喧":1269,"喪":1270,"喫":1271,"喬":1272,"單":1273,"喱":1274,"喲":1275,"喳":1276,"喵":1277,"喹":1278,"喺":1279,"喻":1280,"嗄":1281,"嗅":1282,"嗆":1283,"嗇":1284,"嗎":1285,"嗑":1286,"嗓":1287,"嗔":1288,"嗖":1289,"嗚":1290,"嗜":1291,"嗝":1292,"嗟":1293,"嗡":1294,"嗣":1295,"嗤":1296,"嗦":1297,"嗨":1298,"嗩":1299,"嗯":1300,"嗰":1301,"嗲":1302,"嗶":1303,"嗷":1304,"嗽":1305,"嘀":1306,"嘅":1307,"嘆":1308,"嘈":1309,"嘉":1310,"嘌":1311,"嘍":1312,"嘎":1313,"嘔":1314,"嘖":1315,"嘗":1316,"嘛":1317,"嘜":1318,"嘞":1319,"嘟":1320,"嘣":1321,"嘩":1322,"嘮":1323,"嘯":1324,"嘰":1325,"嘱":1326,"嘲":1327,"嘴":1328,"嘶":1329,"嘸":1330,"嘹":1331,"嘻":1332,"嘿":1333,"噁":1334,"噌":1335,"噍":1336,"噎":1337,"噓":1338,"噔":1339,"噗":1340,"噘":1341,"噚":1342,"噠":1343,"噢":1344,"噤":1345,"噥":1346,"器":1347,"噩":1348,"噪":1349,"噬":1350,"噯":1351,"噱":1352,"噴":1353,"噶":1354,"噸":1355,"噹":1356,"噻":1357,"嚀":1358,"嚅":1359,"嚇":1360,"嚎":1361,"嚏":1362,"嚐":1363,"嚓":1364,"嚕":1365,"嚙":1366,"嚟":1367,"嚥":1368,"嚦":1369,"嚨":1370,"嚮":1371,"嚴":1372,"嚶":1373,"嚷":1374,"嚼":1375,"囁":1376,"囂":1377,"囈":1378,"囉":1379,"囊":1380,"囌":1381,"囍":1382,"囑":1383,"囓":1384,"囔":1385,"囗":1386,"囘":1387,"囚":1388,"四":1389,"囝":1390,"回":1391,"囟":1392,"因":1393,"囡":1394,"囤":1395,"囧":1396,"囪":1397,"囫":1398,"困":1399,"囱":1400,"図":1401,"囹":1402,"固":1403,"国":1404,"图":1405,"囿":1406,"圃":1407,"圄":1408,"圇":1409,"圈":1410,"國":1411,"圍":1412,"圏":1413,"園":1414,"圓":1415,"圖":1416,"團":1417,"圜":1418,"土":1419,"在":1420,"圭":1421,"圮":1422,"圯":1423,"地":1424,"圳":1425,"圾":1426,"址":1427,"坂":1428,"均":1429,"坊":1430,"坍":1431,"坎":1432,"坏":1433,"坐":1434,"坑":1435,"坡":1436,"坢":1437,"坣":1438,"坤":1439,"坦":1440,"坨":1441,"坪":1442,"坯":1443,"坳":1444,"坵":1445,"坷":1446,"垂":1447,"垃":1448,"型":1449,"垛":1450,"垜":1451,"垠":1452,"垢":1453,"垣":1454,"垮":1455,"垵":1456,"垻":1457,"埀":1458,"埂":1459,"埃":1460,"埆":1461,"埈":1462,"埋":1463,"城":1464,"埏":1465,"埒":1466,"埔":1467,"埕":1468,"埗":1469,"域":1470,"埠":1471,"埡":1472,"埤":1473,"埨":1474,"埭":1475,"執":1476,"埸":1477,"培":1478,"基":1479,"埼":1480,"堀":1481,"堂":1482,"堃":1483,"堅":1484,"堆":1485,"堇":1486,"堉":1487,"堊":1488,"堡":1489,"堤":1490,"堪":1491,"堯":1492,"堰":1493,"報":1494,"場":1495,"堵":1496,"堺":1497,"堿":1498,"塊":1499,"塌":1500,"塍":1501,"塏":1502,"塑":1503,"塔":1504,"塗":1505,"塘":1506,"塚":1507,"塞":1508,"塡":1509,"塢":1510,"塩":1511,"填":1512,"塭":1513,"塱":1514,"塲":1515,"塵":1516,"塹":1517,"塾":1518,"墀":1519,"境":1520,"墅":1521,"墉":1522,"墊":1523,"墓":1524,"増":1525,"墘":1526,"墜":1527,"增":1528,"墟":1529,"墨":1530,"墩":1531,"墮":1532,"墳":1533,"墶":1534,"墻":1535,"墾":1536,"壁":1537,"壅":1538,"壇":1539,"壑":1540,"壓":1541,"壕":1542,"壘":1543,"壞":1544,"壟":1545,"壠":1546,"壢":1547,"壤":1548,"壩":1549,"士":1550,"壬":1551,"壮":1552,"壯":1553,"声":1554,"売":1555,"壶":1556,"壹":1557,"壺":1558,"壼":1559,"壽":1560,"夀":1561,"夃":1562,"夆":1563,"変":1564,"复":1565,"夏":1566,"夑":1567,"夔":1568,"夕":1569,"外":1570,"夙":1571,"多":1572,"夜":1573,"够":1574,"夠":1575,"夢":1576,"夥":1577,"大":1578,"天":1579,"太":1580,"夫":1581,"夭":1582,"央":1583,"夯":1584,"失":1585,"夲":1586,"头":1587,"夷":1588,"夸":1589,"夾":1590,"奄":1591,"奇":1592,"奈":1593,"奉":1594,"奎":1595,"奏":1596,"奐":1597,"契":1598,"奔":1599,"奕":1600,"套":1601,"奚":1602,"奠":1603,"奢":1604,"奥":1605,"奧":1606,"奨":1607,"奪":1608,"奬":1609,"奮":1610,"女":1611,"奴":1612,"奶":1613,"奸":1614,"她":1615,"奻":1616,"奼":1617,"好":1618,"妁":1619,"如":1620,"妃":1621,"妄":1622,"妊":1623,"妍":1624,"妏":1625,"妒":1626,"妓":1627,"妖":1628,"妘":1629,"妙":1630,"妝":1631,"妞":1632,"妡":1633,"妣":1634,"妤":1635,"妥":1636,"妨":1637,"妮":1638,"妯":1639,"妲":1640,"妳":1641,"妹":1642,"妺":1643,"妻":1644,"妽":1645,"妾":1646,"姆":1647,"姈":1648,"姊":1649,"始":1650,"姍":1651,"姐":1652,"姑":1653,"姓":1654,"委":1655,"姘":1656,"姚":1657,"姜":1658,"姝":1659,"姣":1660,"姥":1661,"姦":1662,"姨":1663,"姪":1664,"姬":1665,"姵":1666,"姻":1667,"姿":1668,"威":1669,"娃":1670,"娌":1671,"娑":1672,"娓":1673,"娗":1674,"娘":1675,"娛":1676,"娜":1677,"娟":1678,"娠":1679,"娣":1680,"娥":1681,"娩":1682,"娪":1683,"娶":1684,"娼":1685,"婀":1686,"婁":1687,"婆":1688,"婉":1689,"婊":1690,"婕":1691,"婚":1692,"婞":1693,"婢":1694,"婦":1695,"婪":1696,"婭":1697,"婴":1698,"婷":1699,"婿":1700,"媄":1701,"媒":1702,"媗":1703,"媚":1704,"媛":1705,"媜":1706,"媧":1707,"媲":1708,"媳":1709,"媽":1710,"嫁":1711,"嫂":1712,"嫉":1713,"嫌":1714,"嫖":1715,"嫗":1716,"嫘":1717,"嫚":1718,"嫡":1719,"嫣":1720,"嫦":1721,"嫩":1722,"嫰":1723,"嫲":1724,"嫵":1725,"嫻":1726,"嬅":1727,"嬈":1728,"嬉":1729,"嬋":1730,"嬌":1731,"嬛":1732,"嬢":1733,"嬤":1734,"嬪":1735,"嬰":1736,"嬲":1737,"嬴":1738,"嬷":1739,"嬸":1740,"嬿":1741,"孀":1742,"孃":1743,"子":1744,"孑":1745,"孓":1746,"孔":1747,"孕":1748,"字":1749,"存":1750,"孙":1751,"孚":1752,"孛":1753,"孜":1754,"孝":1755,"孟":1756,"孢":1757,"季":1758,"孤":1759,"孥":1760,"学":1761,"孩":1762,"孫":1763,"孬":1764,"孰":1765,"孱":1766,"孳":1767,"孵":1768,"學":1769,"孺":1770,"孽":1771,"孿":1772,"宀":1773,"它":1774,"宅":1775,"宇":1776,"守":1777,"安":1778,"宋":1779,"完":1780,"宏":1781,"宕":1782,"宗":1783,"官":1784,"宙":1785,"定":1786,"宛":1787,"宜":1788,"宝":1789,"实":1790,"実":1791,"审":1792,"客":1793,"宣":1794,"室":1795,"宥":1796,"宦":1797,"宫":1798,"宮":1799,"宰":1800,"害":1801,"宴":1802,"宵":1803,"家":1804,"宸":1805,"容":1806,"宿":1807,"寂":1808,"寃":1809,"寄":1810,"寅":1811,"密":1812,"寇":1813,"富":1814,"寐":1815,"寒":1816,"寓":1817,"寗":1818,"寛":1819,"寞":1820,"察":1821,"寡":1822,"寢":1823,"寥":1824,"實":1825,"寧":1826,"寨":1827,"審":1828,"寫":1829,"寬":1830,"寮":1831,"寰":1832,"寵":1833,"寶":1834,"寸":1835,"对":1836,"寺":1837,"导":1838,"対":1839,"寿":1840,"封":1841,"専":1842,"尃":1843,"射":1844,"将":1845,"將":1846,"專":1847,"尉":1848,"尊":1849,"尋":1850,"對":1851,"導":1852,"小":1853,"少":1854,"尖":1855,"尙":1856,"尚":1857,"尛":1858,"尤":1859,"尪":1860,"尬":1861,"就":1862,"尷":1863,"尸":1864,"尹":1865,"尺":1866,"尻":1867,"尼":1868,"尽":1869,"尾":1870,"尿":1871,"局":1872,"屁":1873,"层":1874,"居":1875,"屆":1876,"屈":1877,"届":1878,"屋":1879,"屌":1880,"屍":1881,"屎":1882,"屏":1883,"屐":1884,"屑":1885,"展":1886,"屜":1887,"属":1888,"屠":1889,"屢":1890,"屣":1891,"層":1892,"履":1893,"屬":1894,"屯":1895,"山":1896,"屹":1897,"岀":1898,"岌":1899,"岐":1900,"岑":1901,"岔":1902,"岛":1903,"岡":1904,"岩":1905,"岬":1906,"岱":1907,"岳":1908,"岷":1909,"岸":1910,"峇":1911,"峋":1912,"峒":1913,"峙":1914,"峠":1915,"峨":1916,"峪":1917,"峭":1918,"峮":1919,"峯":1920,"峰":1921,"峴":1922,"島":1923,"峻":1924,"峽":1925,"崁":1926,"崇":1927,"崎":1928,"崐":1929,"崑":1930,"崔":1931,"崖":1932,"崗":1933,"崙":1934,"崛":1935,"崢":1936,"崧":1937,"崩":1938,"崴":1939,"崵":1940,"崽":1941,"嵂":1942,"嵄":1943,"嵋":1944,"嵌":1945,"嵎":1946,"嵐":1947,"嵓":1948,"嵙":1949,"嵜":1950,"嵩":1951,"嵬":1952,"嵵":1953,"嵿":1954,"嶂":1955,"嶄":1956,"嶇":1957,"嶋":1958,"嶙":1959,"嶸":1960,"嶺":1961,"嶼":1962,"嶽":1963,"巂":1964,"巋":1965,"巍":1966,"巒":1967,"巔":1968,"巖":1969,"川":1970,"州":1971,"巡":1972,"巢":1973,"工":1974,"左":1975,"巧":1976,"巨":1977,"巫":1978,"差":1979,"己":1980,"已":1981,"巳":1982,"巴":1983,"巷":1984,"巻":1985,"巽":1986,"巾":1987,"巿":1988,"市":1989,"布":1990,"帆":1991,"师":1992,"希":1993,"帑":1994,"帔":1995,"帕":1996,"帖":1997,"帙":1998,"帚":1999,"帛":2000,"帝":2001,"帥":2002,"带":2003,"師":2004,"席":2005,"帯":2006,"帰":2007,"帳":2008,"帶":2009,"帷":2010,"常":2011,"帽":2012,"幀":2013,"幄":2014,"幅":2015,"幇":2016,"幌":2017,"幔":2018,"幕":2019,"幗":2020,"幛":2021,"幟":2022,"幡":2023,"幢":2024,"幣":2025,"幫":2026,"干":2027,"平":2028,"年":2029,"并":2030,"幸":2031,"幹":2032,"幻":2033,"幼":2034,"幽":2035,"幾":2036,"庁":2037,"庂":2038,"広":2039,"庄":2040,"庇":2041,"床":2042,"序":2043,"庒":2044,"底":2045,"庖":2046,"店":2047,"庚":2048,"府":2049,"庠":2050,"度":2051,"座":2052,"庫":2053,"庭":2054,"庲":2055,"庵":2056,"庶":2057,"康":2058,"庸":2059,"庹":2060,"庻":2061,"廁":2062,"廂":2063,"廃":2064,"廈":2065,"廉":2066,"廊":2067,"廋":2068,"廍":2069,"廓":2070,"廔":2071,"廖":2072,"廚":2073,"廝":2074,"廟":2075,"廠":2076,"廡":2077,"廢":2078,"廣":2079,"廨":2080,"廬":2081,"廳":2082,"廵":2083,"延":2084,"廷":2085,"廸":2086,"建":2087,"廼":2088,"廿":2089,"异":2090,"弄":2091,"弈":2092,"弊":2093,"弋":2094,"弌":2095,"式":2096,"弒":2097,"弓":2098,"弔":2099,"引":2100,"弗":2101,"弘":2102,"弛":2103,"弟":2104,"弥":2105,"弦":2106,"弧":2107,"弩":2108,"弭":2109,"弱":2110,"張":2111,"強":2112,"强":2113,"弼":2114,"彆":2115,"彈":2116,"彊":2117,"彌":2118,"彎":2119,"当":2120,"彗":2121,"彙":2122,"彚":2123,"彜":2124,"彝":2125,"彡":2126,"形":2127,"彣":2128,"彤":2129,"彥":2130,"彦":2131,"彩":2132,"彪":2133,"彬":2134,"彭":2135,"彰":2136,"影":2137,"彵":2138,"彷":2139,"役":2140,"彼":2141,"彿":2142,"往":2143,"征":2144,"待":2145,"徇":2146,"很":2147,"徉":2148,"徊":2149,"律":2150,"後":2151,"徐":2152,"徑":2153,"徒":2154,"得":2155,"徘":2156,"徙":2157,"徜":2158,"從":2159,"徠":2160,"御":2161,"徧":2162,"徨":2163,"復":2164,"循":2165,"徬":2166,"微":2167,"徳":2168,"徴":2169,"徵":2170,"德":2171,"徹":2172,"徽":2173,"徿":2174,"心":2175,"忄":2176,"必":2177,"忌":2178,"忍":2179,"忐":2180,"忑":2181,"忖":2182,"志":2183,"忘":2184,"忙":2185,"応":2186,"忝":2187,"忠":2188,"忡":2189,"忤":2190,"忪":2191,"快":2192,"忱":2193,"念":2194,"忸":2195,"忻":2196,"忽":2197,"忿":2198,"怀":2199,"怎":2200,"怏":2201,"怒":2202,"怔":2203,"怕":2204,"怖":2205,"怙":2206,"怜":2207,"思":2208,"怠":2209,"怡":2210,"急":2211,"怦":2212,"性":2213,"怨":2214,"怩":2215,"怪":2216,"怫":2217,"怯":2218,"怱":2219,"怵":2220,"恁":2221,"恂":2222,"恃":2223,"恆":2224,"恊":2225,"恋":2226,"恍":2227,"恐":2228,"恒":2229,"恕":2230,"恙":2231,"恢":2232,"恣":2233,"恤":2234,"恥":2235,"恨":2236,"恩":2237,"恪":2238,"恫":2239,"恬":2240,"恭":2241,"息":2242,"恰":2243,"恵":2244,"恾":2245,"恿":2246,"悄":2247,"悅":2248,"悉":2249,"悌":2250,"悍":2251,"悔":2252,"悖":2253,"悚":2254,"悛":2255,"悟":2256,"悠":2257,"患":2258,"悦":2259,"悧":2260,"您":2261,"悩":2262,"悪":2263,"悲":2264,"悴":2265,"悵":2266,"悶":2267,"悸":2268,"悻":2269,"悼":2270,"悽":2271,"情":2272,"惆":2273,"惇":2274,"惋":2275,"惑":2276,"惕":2277,"惘":2278,"惚":2279,"惜":2280,"惟":2281,"惠":2282,"惡":2283,"惢":2284,"惦":2285,"惰":2286,"惱":2287,"想":2288,"惴":2289,"惶":2290,"惹":2291,"惺":2292,"惻":2293,"愁":2294,"愆":2295,"愈":2296,"愉":2297,"愎":2298,"意":2299,"愓":2300,"愕":2301,"愚":2302,"愛":2303,"愜":2304,"感":2305,"愣":2306,"愧":2307,"愫":2308,"愴":2309,"愷":2310,"愾":2311,"愿":2312,"慄":2313,"慈":2314,"慉":2315,"態":2316,"慌":2317,"慍":2318,"慎":2319,"慕":2320,"慘":2321,"慚":2322,"慜":2323,"慟":2324,"慢":2325,"慣":2326,"慤":2327,"慧":2328,"慨":2329,"慫":2330,"慬":2331,"慮":2332,"慰":2333,"慳":2334,"慵":2335,"慶":2336,"慷":2337,"慽":2338,"慾":2339,"憂":2340,"憊":2341,"憋":2342,"憎":2343,"憐":2344,"憑":2345,"憒":2346,"憓":2347,"憔":2348,"憚":2349,"憝":2350,"憤":2351,"憧":2352,"憨":2353,"憩":2354,"憫":2355,"憬":2356,"憲":2357,"憶":2358,"憾":2359,"懂":2360,"懇":2361,"懈":2362,"應":2363,"懊":2364,"懋":2365,"懐":2366,"懟":2367,"懣":2368,"懦":2369,"懨":2370,"懲":2371,"懵":2372,"懶":2373,"懷":2374,"懸":2375,"懺":2376,"懼":2377,"懾":2378,"懿":2379,"戀":2380,"戈":2381,"戊":2382,"戌":2383,"戍":2384,"戎":2385,"成":2386,"我":2387,"戒":2388,"戕":2389,"或":2390,"戚":2391,"戛":2392,"戞":2393,"戟":2394,"戡":2395,"戢":2396,"戦":2397,"截":2398,"戮":2399,"戯":2400,"戰":2401,"戲":2402,"戳":2403,"戴":2404,"戶":2405,"户":2406,"戸":2407,"戻":2408,"戽":2409,"戾":2410,"房":2411,"所":2412,"扁":2413,"扇":2414,"扈":2415,"扉":2416,"手":2417,"才":2418,"扎":2419,"扑":2420,"扒":2421,"打":2422,"扔":2423,"托":2424,"扛":2425,"扞":2426,"扣":2427,"扭":2428,"扮":2429,"扯":2430,"扰":2431,"扳":2432,"扶":2433,"批":2434,"扺":2435,"扼":2436,"找":2437,"承":2438,"技":2439,"抄":2440,"抉":2441,"把":2442,"抑":2443,"抒":2444,"抓":2445,"投":2446,"抖":2447,"抗":2448,"折":2449,"抚":2450,"抛":2451,"抜":2452,"抝":2453,"报":2454,"抨":2455,"披":2456,"抬":2457,"抱":2458,"抵":2459,"抹":2460,"抺":2461,"押":2462,"抽":2463,"抿":2464,"拂":2465,"拄":2466,"担":2467,"拆":2468,"拇":2469,"拈":2470,"拉":2471,"拊":2472,"拋":2473,"拌":2474,"拍":2475,"拎":2476,"拐":2477,"拑":2478,"拒":2479,"拓":2480,"拔":2481,"拖":2482,"拗":2483,"拘":2484,"拙":2485,"拚":2486,"招":2487,"拜":2488,"括":2489,"拭":2490,"拮":2491,"拯":2492,"拱":2493,"拳":2494,"拴":2495,"拷":2496,"拼":2497,"拽":2498,"拾":2499,"拿":2500,"持":2501,"挂":2502,"指":2503,"挈":2504,"按":2505,"挑":2506,"挖":2507,"挙":2508,"挨":2509,"挪":2510,"挫":2511,"振":2512,"挵":2513,"挷":2514,"挹":2515,"挺":2516,"挽":2517,"挾":2518,"挿":2519,"捂":2520,"捅":2521,"捆":2522,"捉":2523,"捋":2524,"捌":2525,"捍":2526,"捎":2527,"捏":2528,"捐":2529,"捕":2530,"捜":2531,"损":2532,"换":2533,"捧":2534,"捨":2535,"捩":2536,"捫":2537,"捭":2538,"据":2539,"捱":2540,"捲":2541,"捶":2542,"捷":2543,"捺":2544,"捻":2545,"掀":2546,"掂":2547,"掃":2548,"掄":2549,"掇":2550,"授":2551,"掉":2552,"掌":2553,"掍":2554,"掏":2555,"掐":2556,"排":2557,"掖":2558,"掘":2559,"掙":2560,"掛":2561,"掠":2562,"採":2563,"探":2564,"掣":2565,"接":2566,"掦":2567,"控":2568,"推":2569,"掩":2570,"措":2571,"掬":2572,"掮":2573,"掰":2574,"揀":2575,"揄":2576,"揆":2577,"揉":2578,"揍":2579,"描":2580,"提":2581,"插":2582,"揖":2583,"揚":2584,"換":2585,"揠":2586,"握":2587,"揢":2588,"揣":2589,"揩":2590,"揪":2591,"揭":2592,"揮":2593,"援":2594,"揶":2595,"揸":2596,"揹":2597,"揺":2598,"損":2599,"搏":2600,"搐":2601,"搓":2602,"搔":2603,"搖":2604,"搗":2605,"搜":2606,"搞":2607,"搡":2608,"搥":2609,"搦":2610,"搧":2611,"搪":2612,"搬":2613,"搭":2614,"搵":2615,"搶":2616,"携":2617,"搾":2618,"摀":2619,"摃":2620,"摇":2621,"摍":2622,"摑":2623,"摒":2624,"摔":2625,"摘":2626,"摜":2627,"摞":2628,"摟":2629,"摧":2630,"摨":2631,"摩":2632,"摯":2633,"摰":2634,"摳":2635,"摷":2636,"摸":2637,"摹":2638,"摺":2639,"摻":2640,"撂":2641,"撃":2642,"撇":2643,"撈":2644,"撐":2645,"撒":2646,"撓":2647,"撕":2648,"撘":2649,"撙":2650,"撞":2651,"撢":2652,"撣":2653,"撤":2654,"撥":2655,"撩":2656,"撫":2657,"撬":2658,"播":2659,"撮":2660,"撰":2661,"撲":2662,"撸":2663,"撻":2664,"撼":2665,"撿":2666,"擀":2667,"擁":2668,"擂":2669,"擄":2670,"擅":2671,"擇":2672,"擊":2673,"擋":2674,"操":2675,"擎":2676,"擒":2677,"擔":2678,"擘":2679,"據":2680,"擠":2681,"擢":2682,"擣":2683,"擤":2684,"擦":2685,"擧":2686,"擬":2687,"擰":2688,"擱":2689,"擲":2690,"擴":2691,"擷":2692,"擺":2693,"擻":2694,"擼":2695,"擾":2696,"攀":2697,"攆":2698,"攉":2699,"攏":2700,"攔":2701,"攘":2702,"攙":2703,"攜":2704,"攝":2705,"攞":2706,"攢":2707,"攣":2708,"攤":2709,"攪":2710,"攫":2711,"攬":2712,"支":2713,"攰":2714,"收":2715,"攸":2716,"改":2717,"攻":2718,"放":2719,"政":2720,"故":2721,"效":2722,"敍":2723,"敎":2724,"敏":2725,"救":2726,"敕":2727,"敖":2728,"敗":2729,"敘":2730,"教":2731,"敝":2732,"敞":2733,"敢":2734,"散":2735,"敦":2736,"敬":2737,"数":2738,"敲":2739,"整":2740,"敵":2741,"敷":2742,"數":2743,"敻":2744,"斂":2745,"斃":2746,"文":2747,"斌":2748,"斐":2749,"斑":2750,"斕":2751,"斗":2752,"料":2753,"斛":2754,"斜":2755,"斟":2756,"斡":2757,"斤":2758,"斥":2759,"斧":2760,"斬":2761,"断":2762,"斯":2763,"新":2764,"斲":2765,"斷":2766,"方":2767,"於":2768,"施":2769,"旁":2770,"旂":2771,"旅":2772,"旋":2773,"旌":2774,"旎":2775,"族":2776,"旖":2777,"旗":2778,"无":2779,"既":2780,"日":2781,"旦":2782,"旨":2783,"早":2784,"旬":2785,"旭":2786,"旮":2787,"旯":2788,"旱":2789,"旳":2790,"时":2791,"旺":2792,"旻":2793,"旼":2794,"昀":2795,"昂":2796,"昆":2797,"昇":2798,"昊":2799,"昌":2800,"昍":2801,"明":2802,"昏":2803,"易":2804,"昔":2805,"昕":2806,"昜":2807,"昝":2808,"星":2809,"映":2810,"春":2811,"昧":2812,"昨":2813,"昫":2814,"昭":2815,"是":2816,"昱":2817,"昴":2818,"昶":2819,"昼":2820,"晁":2821,"時":2822,"晃":2823,"晉":2824,"晌":2825,"晏":2826,"晒":2827,"晗":2828,"晚":2829,"晛":2830,"晝":2831,"晟":2832,"晤":2833,"晦":2834,"晧":2835,"晨":2836,"晩":2837,"普":2838,"景":2839,"晰":2840,"晳":2841,"晴":2842,"晶":2843,"智":2844,"晾":2845,"暁":2846,"暄":2847,"暇":2848,"暈":2849,"暉":2850,"暌":2851,"暐":2852,"暑":2853,"暖":2854,"暗":2855,"暘":2856,"暝":2857,"暠":2858,"暢":2859,"暦":2860,"暨":2861,"暫":2862,"暮":2863,"暱":2864,"暳":2865,"暴":2866,"暸":2867,"暹":2868,"暻":2869,"曁":2870,"曄":2871,"曆":2872,"曇":2873,"曈":2874,"曉":2875,"曕":2876,"曖":2877,"曙":2878,"曚":2879,"曜":2880,"曝":2881,"曠":2882,"曦":2883,"曨":2884,"曩":2885,"曬":2886,"曰":2887,"曲":2888,"曳":2889,"更":2890,"曷":2891,"書":2892,"曹":2893,"曺":2894,"曼":2895,"曽":2896,"曾":2897,"替":2898,"最":2899,"會":2900,"月":2901,"有":2902,"朋":2903,"服":2904,"朔":2905,"朕":2906,"朗":2907,"望":2908,"朝":2909,"期":2910,"朦":2911,"朧":2912,"木":2913,"未":2914,"末":2915,"本":2916,"札":2917,"朮":2918,"朱":2919,"朴":2920,"朵":2921,"机":2922,"朽":2923,"杀":2924,"杆":2925,"杉":2926,"李":2927,"杏":2928,"材":2929,"村":2930,"杓":2931,"杖":2932,"杙":2933,"杜":2934,"杞":2935,"束":2936,"来":2937,"杭":2938,"杮":2939,"杯":2940,"杰":2941,"東":2942,"杳":2943,"杵":2944,"杷":2945,"松":2946,"板":2947,"枇":2948,"枉":2949,"枋":2950,"析":2951,"枕":2952,"林":2953,"枘":2954,"枚":2955,"果":2956,"枝":2957,"枬":2958,"枯":2959,"枰":2960,"枱":2961,"枳":2962,"枴":2963,"架":2964,"枷":2965,"枸":2966,"枻":2967,"柄":2968,"柊":2969,"柏":2970,"某":2971,"柑":2972,"柒":2973,"染":2974,"柔":2975,"柘":2976,"柙":2977,"柚":2978,"柢":2979,"查":2980,"柩":2981,"柬":2982,"柯":2983,"柱":2984,"柳":2985,"柴":2986,"柵":2987,"柺":2988,"査":2989,"柾":2990,"柿":2991,"栃":2992,"栓":2993,"栖":2994,"栗":2995,"栞":2996,"校":2997,"栢":2998,"栩":2999,"株":3000,"核":3001,"根":3002,"格":3003,"栽":3004,"桀":3005,"桁":3006,"桂":3007,"桃":3008,"桅":3009,"框":3010,"案":3011,"桉":3012,"桌":3013,"桎":3014,"桐":3015,"桑":3016,"桓":3017,"桔":3018,"桖":3019,"桜":3020,"桮":3021,"桶":3022,"桷":3023,"桿":3024,"梁":3025,"梃":3026,"梅":3027,"梆":3028,"梏":3029,"梓":3030,"梔":3031,"梗":3032,"條":3033,"梟":3034,"梠":3035,"梢":3036,"梣":3037,"梦":3038,"梧":3039,"梨":3040,"梭":3041,"梯":3042,"械":3043,"梳":3044,"梵":3045,"棄":3046,"棆":3047,"棉":3048,"棋":3049,"棍":3050,"棒":3051,"棕":3052,"棗":3053,"棘":3054,"棚":3055,"棟":3056,"棠":3057,"棣":3058,"棧":3059,"棪":3060,"森":3061,"棱":3062,"棲":3063,"棵":3064,"棺":3065,"棻":3066,"椅":3067,"椋":3068,"植":3069,"椎":3070,"椏":3071,"椒":3072,"検":3073,"椪":3074,"椬":3075,"椰":3076,"椴":3077,"椽":3078,"椿":3079,"楂":3080,"楊":3081,"楓":3082,"楔":3083,"楙":3084,"楚":3085,"楝":3086,"楞":3087,"楠":3088,"楣":3089,"楦":3090,"楫":3091,"業":3092,"極":3093,"楷":3094,"楹":3095,"楽":3096,"概":3097,"榆":3098,"榊":3099,"榔":3100,"榕":3101,"榖":3102,"榘":3103,"榚":3104,"榛":3105,"榜":3106,"榨":3107,"榫":3108,"榭":3109,"榮":3110,"榴":3111,"榶":3112,"榷":3113,"榻":3114,"槁":3115,"槃":3116,"構":3117,"槌":3118,"槍":3119,"槐":3120,"槓":3121,"様":3122,"槤":3123,"槨":3124,"槳":3125,"槺":3126,"槽":3127,"槿":3128,"樁":3129,"樂":3130,"樊":3131,"樋":3132,"樑":3133,"樓":3134,"標":3135,"樞":3136,"樟":3137,"模":3138,"樣":3139,"横":3140,"樸":3141,"樹":3142,"樺":3143,"樽":3144,"橄":3145,"橇":3146,"橈":3147,"橋":3148,"橍":3149,"橘":3150,"橙":3151,"機":3152,"橡":3153,"橢":3154,"橫":3155,"橾":3156,"檀":3157,"檄":3158,"檎":3159,"檐":3160,"檔":3161,"檜":3162,"檞":3163,"檢":3164,"檨":3165,"檬":3166,"檯":3167,"檳":3168,"檸":3169,"檻":3170,"櫂":3171,"櫃":3172,"櫈":3173,"櫓":3174,"櫚":3175,"櫛":3176,"櫟":3177,"櫥":3178,"櫪":3179,"櫫":3180,"櫬":3181,"櫳":3182,"櫸":3183,"櫺":3184,"櫻":3185,"欄":3186,"欉":3187,"權":3188,"欐":3189,"欒":3190,"欖":3191,"欠":3192,"次":3193,"欣":3194,"欲":3195,"欸":3196,"欹":3197,"欺":3198,"欽":3199,"款":3200,"歆":3201,"歇":3202,"歉":3203,"歌":3204,"歎":3205,"歐":3206,"歛":3207,"歡":3208,"止":3209,"正":3210,"此":3211,"步":3212,"武":3213,"歧":3214,"歩":3215,"歪":3216,"歬":3217,"歯":3218,"歲":3219,"歳":3220,"歴":3221,"歷":3222,"歸":3223,"歹":3224,"死":3225,"歿":3226,"殁":3227,"殂":3228,"殃":3229,"殆":3230,"殉":3231,"殊":3232,"残":3233,"殖":3234,"殘":3235,"殞":3236,"殤":3237,"殫":3238,"殭":3239,"殮":3240,"殯":3241,"殲":3242,"段":3243,"殷":3244,"殺":3245,"殻":3246,"殼":3247,"殿":3248,"毀":3249,"毁":3250,"毅":3251,"毆":3252,"毋":3253,"毌":3254,"母":3255,"毎":3256,"每":3257,"毐":3258,"毒":3259,"毓":3260,"比":3261,"毖":3262,"毗":3263,"毛":3264,"毫":3265,"毯":3266,"毽":3267,"氂":3268,"氈":3269,"氏":3270,"民":3271,"氓":3272,"气":3273,"氖":3274,"気":3275,"氙":3276,"氚":3277,"氛":3278,"氟":3279,"氣":3280,"氤":3281,"氦":3282,"氧":3283,"氨":3284,"氪":3285,"氫":3286,"氬":3287,"氮":3288,"氯":3289,"氰":3290,"水":3291,"永":3292,"氹":3293,"氺":3294,"氽":3295,"氾":3296,"汀":3297,"汁":3298,"求":3299,"汆":3300,"汉":3301,"汎":3302,"汐":3303,"汔":3304,"汕":3305,"汖":3306,"汗":3307,"汙":3308,"汚":3309,"汛":3310,"汝":3311,"汞":3312,"江":3313,"池":3314,"污":3315,"汪":3316,"汫":3317,"汯":3318,"汰":3319,"汱":3320,"汲":3321,"汴":3322,"汶":3323,"決":3324,"汽":3325,"汾":3326,"沁":3327,"沂":3328,"沃":3329,"沅":3330,"沆":3331,"沈":3332,"沉":3333,"沌":3334,"沐":3335,"沒":3336,"沓":3337,"沖":3338,"沙":3339,"沛":3340,"没":3341,"沢":3342,"沫":3343,"沬":3344,"沮":3345,"沱":3346,"河":3347,"沸":3348,"油":3349,"治":3350,"沼":3351,"沽":3352,"沾":3353,"沿":3354,"況":3355,"泄":3356,"泉":3357,"泊":3358,"泌":3359,"泐":3360,"泓":3361,"法":3362,"泗":3363,"泛":3364,"泡":3365,"波":3366,"泣":3367,"泥":3368,"注":3369,"泩":3370,"泪":3371,"泫":3372,"泮":3373,"泯":3374,"泰":3375,"泱":3376,"泳":3377,"泵":3378,"洄":3379,"洋":3380,"洐":3381,"洑":3382,"洗":3383,"洛":3384,"洞":3385,"洢":3386,"津":3387,"洨":3388,"洩":3389,"洪":3390,"洱":3391,"洲":3392,"洵":3393,"洶":3394,"洺":3395,"活":3396,"洽":3397,"派":3398,"流":3399,"浄":3400,"浙":3401,"浚":3402,"浜":3403,"浣":3404,"浤":3405,"浥":3406,"浦":3407,"浩":3408,"浪":3409,"浬":3410,"浮":3411,"浯":3412,"浴":3413,"海":3414,"浸":3415,"浹":3416,"涂":3417,"涅":3418,"涇":3419,"消":3420,"涉":3421,"涌":3422,"涎":3423,"涓":3424,"涔":3425,"涕":3426,"涪":3427,"涮":3428,"涯":3429,"液":3430,"涵":3431,"涸":3432,"涼":3433,"淀":3434,"淂":3435,"淄":3436,"淅":3437,"淆":3438,"淇":3439,"淋":3440,"淌":3441,"淍":3442,"淑":3443,"淒":3444,"淖":3445,"淘":3446,"淚":3447,"淞":3448,"淡":3449,"淢":3450,"淤":3451,"淦":3452,"淨":3453,"淩":3454,"淪":3455,"淫":3456,"淬":3457,"淮":3458,"淯":3459,"深":3460,"淳":3461,"淵":3462,"淶":3463,"混":3464,"淸":3465,"淹":3466,"淺":3467,"添":3468,"清":3469,"渉":3470,"渙":3471,"減":3472,"渝":3473,"渟":3474,"渠":3475,"渡":3476,"渣":3477,"渤":3478,"渥":3479,"渦":3480,"温":3481,"測":3482,"渭":3483,"港":3484,"渲":3485,"渴":3486,"游":3487,"渺":3488,"渼":3489,"渽":3490,"渾":3491,"湃":3492,"湄":3493,"湉":3494,"湊":3495,"湍":3496,"湖":3497,"湘":3498,"湛":3499,"湟":3500,"湧":3501,"湮":3502,"湯":3503,"湳":3504,"湶":3505,"湾":3506,"満":3507,"溉":3508,"溏":3509,"源":3510,"準":3511,"溜":3512,"溝":3513,"溟":3514,"溢":3515,"溥":3516,"溪":3517,"溫":3518,"溯":3519,"溱":3520,"溴":3521,"溶":3522,"溺":3523,"溼":3524,"滁":3525,"滂":3526,"滄":3527,"滅":3528,"滇":3529,"滉":3530,"滋":3531,"滌":3532,"滎":3533,"滑":3534,"滔":3535,"滕":3536,"滙":3537,"滚":3538,"满":3539,"滬":3540,"滯":3541,"滲":3542,"滴":3543,"滷":3544,"滸":3545,"滾":3546,"滿":3547,"漁":3548,"漂":3549,"漆":3550,"漉":3551,"漏":3552,"漓":3553,"演":3554,"漠":3555,"漢":3556,"漣":3557,"漥":3558,"漧":3559,"漩":3560,"漪":3561,"漫":3562,"漬":3563,"漯":3564,"漱":3565,"漲":3566,"漳":3567,"漸":3568,"漾":3569,"漿":3570,"潁":3571,"潄":3572,"潑":3573,"潔":3574,"潘":3575,"潛":3576,"潞":3577,"潟":3578,"潢":3579,"潤":3580,"潦":3581,"潭":3582,"潮":3583,"潯":3584,"潰":3585,"潸":3586,"潺":3587,"潼":3588,"潾":3589,"澀":3590,"澄":3591,"澆":3592,"澇":3593,"澈":3594,"澍":3595,"澎":3596,"澐":3597,"澔":3598,"澗":3599,"澟":3600,"澡":3601,"澤":3602,"澧":3603,"澱":3604,"澳":3605,"澹":3606,"激":3607,"濁":3608,"濃":3609,"濕":3610,"濘":3611,"濛":3612,"濟":3613,"濠":3614,"濡":3615,"濤":3616,"濫":3617,"濬":3618,"濯":3619,"濰":3620,"濱":3621,"濶":3622,"濺":3623,"濾":3624,"瀁":3625,"瀅":3626,"瀆":3627,"瀉":3628,"瀋":3629,"瀏":3630,"瀑":3631,"瀕":3632,"瀚":3633,"瀛":3634,"瀜":3635,"瀝":3636,"瀞":3637,"瀟":3638,"瀣":3639,"瀦":3640,"瀧":3641,"瀨":3642,"瀬":3643,"瀰":3644,"瀲":3645,"瀾":3646,"灃":3647,"灌":3648,"灑":3649,"灒":3650,"灕":3651,"灘":3652,"灜":3653,"灣":3654,"灧":3655,"灩":3656,"火":3657,"灯":3658,"灰":3659,"灶":3660,"灸":3661,"灼":3662,"災":3663,"炆":3664,"炉":3665,"炊":3666,"炎":3667,"炒":3668,"炔":3669,"炖":3670,"炘":3671,"炙":3672,"炤":3673,"炫":3674,"炬":3675,"炭":3676,"炮":3677,"炯":3678,"炳":3679,"炷":3680,"炸":3681,"点":3682,"為":3683,"烈":3684,"烊":3685,"烏":3686,"烘":3687,"烙":3688,"烚":3689,"烝":3690,"烟":3691,"烤":3692,"热":3693,"烯":3694,"烱":3695,"烴":3696,"烷":3697,"烹":3698,"烽":3699,"焉":3700,"焊":3701,"焌":3702,"焗":3703,"焙":3704,"焚":3705,"無":3706,"焢":3707,"焦":3708,"焮":3709,"焯":3710,"焰":3711,"焱":3712,"然":3713,"焼":3714,"煉":3715,"煊":3716,"煌":3717,"煎":3718,"煒":3719,"煕":3720,"煙":3721,"煜":3722,"煞":3723,"煤":3724,"煥":3725,"煦":3726,"照":3727,"煨":3728,"煩":3729,"煬":3730,"煮":3731,"煲":3732,"煸":3733,"煽":3734,"熄":3735,"熈":3736,"熊":3737,"熏":3738,"熒":3739,"熔":3740,"熖":3741,"熙":3742,"熜":3743,"熟":3744,"熠":3745,"熨":3746,"熬":3747,"熱":3748,"熹":3749,"熾":3750,"燁":3751,"燃":3752,"燄":3753,"燈":3754,"燉":3755,"燊":3756,"燎":3757,"燐":3758,"燒":3759,"燕":3760,"燙":3761,"燜":3762,"營":3763,"燠":3764,"燥":3765,"燦":3766,"燧":3767,"燬":3768,"燭":3769,"燮":3770,"燴":3771,"燻":3772,"燼":3773,"燿":3774,"爀":3775,"爆":3776,"爈":3777,"爌":3778,"爍":3779,"爐":3780,"爚":3781,"爛":3782,"爨":3783,"爪":3784,"爬":3785,"爭":3786,"爰":3787,"爱":3788,"爲":3789,"爵":3790,"父":3791,"爸":3792,"爹":3793,"爺":3794,"爻":3795,"爽":3796,"爾":3797,"牀":3798,"牂":3799,"牆":3800,"片":3801,"版":3802,"牌":3803,"牒":3804,"牖":3805,"牘":3806,"牙":3807,"牛":3808,"牟":3809,"牠":3810,"牡":3811,"牢":3812,"牧":3813,"物":3814,"牯":3815,"牲":3816,"牴":3817,"特":3818,"牽":3819,"犀":3820,"犁":3821,"犄":3822,"犇":3823,"犒":3824,"犛":3825,"犠":3826,"犡":3827,"犢":3828,"犧":3829,"犬":3830,"犮":3831,"犯":3832,"狀":3833,"狂":3834,"狄":3835,"狎":3836,"狐":3837,"狒":3838,"狗":3839,"狙":3840,"狛":3841,"狠":3842,"狡":3843,"狨":3844,"狩":3845,"独":3846,"狸":3847,"狹":3848,"狺":3849,"狼":3850,"狽":3851,"猁":3852,"猊":3853,"猖":3854,"猗":3855,"猙":3856,"猛":3857,"猜":3858,"猝":3859,"猞":3860,"猥":3861,"猩":3862,"猪":3863,"猫":3864,"猬":3865,"猴":3866,"猶":3867,"猷":3868,"猾":3869,"猿":3870,"獁":3871,"獄":3872,"獅":3873,"獎":3874,"獒":3875,"獗":3876,"獠":3877,"獨":3878,"獫":3879,"獬":3880,"獮":3881,"獰":3882,"獲":3883,"獴":3884,"獵":3885,"獷":3886,"獸":3887,"獺":3888,"獻":3889,"獼":3890,"獾":3891,"玄":3892,"玆":3893,"率":3894,"玉":3895,"王":3896,"玖":3897,"玟":3898,"玠":3899,"玢":3900,"玥":3901,"玧":3902,"玨":3903,"玩":3904,"玫":3905,"环":3906,"现":3907,"玲":3908,"玳":3909,"玷":3910,"玹":3911,"玻":3912,"玼":3913,"珀":3914,"珂":3915,"珅":3916,"珈":3917,"珉":3918,"珊":3919,"珍":3920,"珠":3921,"珥":3922,"珩":3923,"班":3924,"珮":3925,"珺":3926,"珽":3927,"現":3928,"琁":3929,"球":3930,"琄":3931,"琅":3932,"理":3933,"琇":3934,"琉":3935,"琊":3936,"琋":3937,"琚":3938,"琛":3939,"琢":3940,"琥":3941,"琦":3942,"琨":3943,"琪":3944,"琮":3945,"琲":3946,"琳":3947,"琴":3948,"琵":3949,"琶":3950,"琹":3951,"琺":3952,"瑀":3953,"瑁":3954,"瑄":3955,"瑈":3956,"瑋":3957,"瑒":3958,"瑕":3959,"瑙":3960,"瑚":3961,"瑛":3962,"瑜":3963,"瑞":3964,"瑟":3965,"瑠":3966,"瑢":3967,"瑣":3968,"瑤":3969,"瑧":3970,"瑨":3971,"瑩":3972,"瑪":3973,"瑯":3974,"瑰":3975,"瑱":3976,"瑾":3977,"璀":3978,"璁":3979,"璃":3980,"璇":3981,"璉":3982,"璋":3983,"璐":3984,"璘":3985,"璜":3986,"璞":3987,"璟":3988,"璣":3989,"璦":3990,"璧":3991,"璨":3992,"璩":3993,"環":3994,"璽":3995,"瓈":3996,"瓊":3997,"瓏":3998,"瓔":3999,"瓜":4000,"瓠":4001,"瓢":4002,"瓣":4003,"瓤":4004,"瓦":4005,"瓩":4006,"瓴":4007,"瓶":4008,"瓷":4009,"甄":4010,"甌":4011,"甍":4012,"甕":4013,"甘":4014,"甚":4015,"甜":4016,"生":4017,"甡":4018,"產":4019,"産":4020,"甥":4021,"甦":4022,"用":4023,"甩":4024,"甪":4025,"甫":4026,"甬":4027,"甭":4028,"甯":4029,"田":4030,"由":4031,"甲":4032,"申":4033,"男":4034,"甸":4035,"町":4036,"画":4037,"畀":4038,"畇":4039,"界":4040,"畏":4041,"畑":4042,"畔":4043,"留":4044,"畚":4045,"畜":4046,"畝":4047,"畢":4048,"略":4049,"畦":4050,"番":4051,"畫":4052,"畬":4053,"畯":4054,"異":4055,"畲":4056,"當":4057,"畸":4058,"畹":4059,"畿":4060,"疆":4061,"疇":4062,"疊":4063,"疋":4064,"疏":4065,"疑":4066,"疔":4067,"疙":4068,"疚":4069,"疝":4070,"疣":4071,"疤":4072,"疫":4073,"疰":4074,"疱":4075,"疲":4076,"疴":4077,"疵":4078,"疸":4079,"疹":4080,"疼":4081,"疽":4082,"疾":4083,"痂":4084,"病":4085,"症":4086,"痊":4087,"痍":4088,"痔":4089,"痕":4090,"痘":4091,"痙":4092,"痛":4093,"痞":4094,"痠":4095,"痢":4096,"痣":4097,"痤":4098,"痧":4099,"痰":4100,"痱":4101,"痲":4102,"痴":4103,"痹":4104,"痺":4105,"痼":4106,"痾":4107,"痿":4108,"瘀":4109,"瘁":4110,"瘋":4111,"瘍":4112,"瘓":4113,"瘜":4114,"瘟":4115,"瘠":4116,"瘡":4117,"瘤":4118,"瘦":4119,"瘧":4120,"瘩":4121,"瘮":4122,"瘴":4123,"瘸":4124,"瘻":4125,"瘼":4126,"癀":4127,"療":4128,"癆":4129,"癇":4130,"癌":4131,"癒":4132,"癖":4133,"癘":4134,"癟":4135,"癡":4136,"癢":4137,"癥":4138,"癩":4139,"癬":4140,"癮":4141,"癰":4142,"癱":4143,"癲":4144,"癸":4145,"発":4146,"登":4147,"發":4148,"白":4149,"百":4150,"皂":4151,"的":4152,"皆":4153,"皇":4154,"皈":4155,"皎":4156,"皐":4157,"皓":4158,"皖":4159,"皙":4160,"皚":4161,"皪":4162,"皮":4163,"皰":4164,"皴":4165,"皺":4166,"皿":4167,"盂":4168,"盃":4169,"盅":4170,"盆":4171,"盈":4172,"益":4173,"盍":4174,"盎":4175,"监":4176,"盒":4177,"盔":4178,"盗":4179,"盙":4180,"盛":4181,"盜":4182,"盞":4183,"盟":4184,"盡":4185,"監":4186,"盤":4187,"盥":4188,"盧":4189,"盪":4190,"目":4191,"盯":4192,"盱":4193,"盲":4194,"直":4195,"相":4196,"盹":4197,"盼":4198,"盾":4199,"省":4200,"眈":4201,"眉":4202,"看":4203,"県":4204,"眛":4205,"眞":4206,"真":4207,"眠":4208,"眨":4209,"眩":4210,"眭":4211,"眯":4212,"眶":4213,"眷":4214,"眸":4215,"眺":4216,"眼":4217,"眾":4218,"着":4219,"睇":4220,"睏":4221,"睒":4222,"睛":4223,"睜":4224,"睞":4225,"睡":4226,"睢":4227,"督":4228,"睥":4229,"睦":4230,"睨":4231,"睪":4232,"睫":4233,"睬":4234,"睹":4235,"睽":4236,"睾":4237,"睿":4238,"瞄":4239,"瞅":4240,"瞇":4241,"瞌":4242,"瞎":4243,"瞑":4244,"瞓":4245,"瞞":4246,"瞟":4247,"瞠":4248,"瞥":4249,"瞧":4250,"瞪":4251,"瞬":4252,"瞭":4253,"瞰":4254,"瞳":4255,"瞻":4256,"瞼":4257,"瞿":4258,"矇":4259,"矍":4260,"矓":4261,"矗":4262,"矚":4263,"矛":4264,"矜":4265,"矢":4266,"矣":4267,"知":4268,"矧":4269,"矩":4270,"矬":4271,"短":4272,"矮":4273,"矯":4274,"石":4275,"矸":4276,"矻":4277,"矽":4278,"砂":4279,"砌":4280,"砍":4281,"砒":4282,"研":4283,"砝":4284,"砣":4285,"砥":4286,"砦":4287,"砧":4288,"砭":4289,"砰":4290,"砲":4291,"破":4292,"砵":4293,"砷":4294,"砸":4295,"硃":4296,"硅":4297,"硏":4298,"硐":4299,"硒":4300,"硝":4301,"硫":4302,"硬":4303,"确":4304,"硯":4305,"硼":4306,"碁":4307,"碇":4308,"碉":4309,"碌":4310,"碎":4311,"碑":4312,"碓":4313,"碗":4314,"碘":4315,"碚":4316,"碟":4317,"碧":4318,"碩":4319,"碰":4320,"碲":4321,"碳":4322,"碴":4323,"碸":4324,"確":4325,"碼":4326,"碾":4327,"磁":4328,"磅":4329,"磊":4330,"磋":4331,"磐":4332,"磕":4333,"磚":4334,"磡":4335,"磨":4336,"磯":4337,"磷":4338,"磺":4339,"礁":4340,"礎":4341,"礑":4342,"礒":4343,"礙":4344,"礡":4345,"礦":4346,"礪":4347,"礫":4348,"礴":4349,"示":4350,"社":4351,"祀":4352,"祁":4353,"祂":4354,"祇":4355,"祈":4356,"祉":4357,"祐":4358,"祓":4359,"祕":4360,"祖":4361,"祗":4362,"祚":4363,"祛":4364,"祜":4365,"祝":4366,"神":4367,"祟":4368,"祠":4369,"祢":4370,"祥":4371,"票":4372,"祭":4373,"祺":4374,"祼":4375,"祿":4376,"禀":4377,"禁":4378,"禊":4379,"禍":4380,"禎":4381,"福":4382,"禓":4383,"禕":4384,"禛":4385,"禤":4386,"禦":4387,"禧":4388,"禩":4389,"禪":4390,"禮":4391,"禰":4392,"禱":4393,"禳":4394,"禹":4395,"禽":4396,"禾":4397,"禿":4398,"秀":4399,"私":4400,"秃":4401,"秉":4402,"秋":4403,"秏":4404,"秐":4405,"科":4406,"秒":4407,"秘":4408,"秞":4409,"租":4410,"秣":4411,"秤":4412,"秦":4413,"秧":4414,"秩":4415,"秸":4416,"移":4417,"稀":4418,"稅":4419,"稈":4420,"稉":4421,"程":4422,"稍":4423,"税":4424,"稔":4425,"稕":4426,"稗":4427,"稚":4428,"稜":4429,"稞":4430,"稟":4431,"稠":4432,"種":4433,"稱":4434,"稲":4435,"稷":4436,"稻":4437,"稼":4438,"稽":4439,"稿":4440,"穀":4441,"穆":4442,"穌":4443,"積":4444,"穎":4445,"穏":4446,"穗":4447,"穠":4448,"穢":4449,"穩":4450,"穫":4451,"穴":4452,"究":4453,"穹":4454,"空":4455,"穿":4456,"突":4457,"窄":4458,"窈":4459,"窒":4460,"窓":4461,"窕":4462,"窖":4463,"窗":4464,"窘":4465,"窟":4466,"窠":4467,"窣":4468,"窩":4469,"窪":4470,"窮":4471,"窯":4472,"窳":4473,"窴":4474,"窸":4475,"窺":4476,"窿":4477,"竄":4478,"竅":4479,"竇":4480,"竈":4481,"竉":4482,"竊":4483,"立":4484,"竑":4485,"站":4486,"竜":4487,"竟":4488,"章":4489,"竣":4490,"童":4491,"竪":4492,"竫":4493,"竭":4494,"端":4495,"競":4496,"竸":4497,"竹":4498,"竺":4499,"竽":4500,"竿":4501,"笅":4502,"笆":4503,"笈":4504,"笏":4505,"笑":4506,"笙":4507,"笛":4508,"笠":4509,"符":4510,"笨":4511,"笫":4512,"第":4513,"筆":4514,"等":4515,"筊":4516,"筋":4517,"筍":4518,"筏":4519,"筐":4520,"筑":4521,"筒":4522,"答":4523,"策":4524,"筠":4525,"筢":4526,"筧":4527,"筱":4528,"筲":4529,"筴":4530,"筵":4531,"筶":4532,"筷":4533,"箇":4534,"箋":4535,"箍":4536,"箎":4537,"箏":4538,"箔":4539,"箕":4540,"算":4541,"箝":4542,"管":4543,"箬":4544,"箭":4545,"箱":4546,"箴":4547,"箸":4548,"節":4549,"範":4550,"篆":4551,"篇":4552,"築":4553,"篙":4554,"篝":4555,"篠":4556,"篡":4557,"篤":4558,"篩":4559,"篳":4560,"篷":4561,"簇":4562,"簌":4563,"簍":4564,"簏":4565,"簑":4566,"簞":4567,"簡":4568,"簣":4569,"簧":4570,"簫":4571,"簷":4572,"簸":4573,"簽":4574,"簾":4575,"簿":4576,"籃":4577,"籌":4578,"籍":4579,"籐":4580,"籓":4581,"籟":4582,"籠":4583,"籤":4584,"籬":4585,"籮":4586,"籲":4587,"米":4588,"籽":4589,"籾":4590,"粄":4591,"粉":4592,"粑":4593,"粒":4594,"粕":4595,"粗":4596,"粘":4597,"粙":4598,"粛":4599,"粟":4600,"粥":4601,"粧":4602,"粮":4603,"粱":4604,"粲":4605,"粵":4606,"粹":4607,"粼":4608,"粽":4609,"精":4610,"粿":4611,"糅":4612,"糊":4613,"糍":4614,"糕":4615,"糖":4616,"糗":4617,"糙":4618,"糜":4619,"糞":4620,"糟":4621,"糠":4622,"糢":4623,"糥":4624,"糧":4625,"糨":4626,"糬":4627,"糯":4628,"糰":4629,"糴":4630,"糶":4631,"糸":4632,"系":4633,"糾":4634,"紀":4635,"紂":4636,"約":4637,"紅":4638,"紆":4639,"紇":4640,"紉":4641,"紊":4642,"紋":4643,"納":4644,"紐":4645,"紓":4646,"純":4647,"紕":4648,"紗":4649,"紘":4650,"紙":4651,"級":4652,"紛":4653,"紜":4654,"素":4655,"紡":4656,"索":4657,"紫":4658,"紮":4659,"累":4660,"細":4661,"紳":4662,"紹":4663,"紺":4664,"絀":4665,"終":4666,"絃":4667,"組":4668,"絆":4669,"経":4670,"結":4671,"絕":4672,"絛":4673,"絜":4674,"絞":4675,"絡":4676,"絢":4677,"給":4678,"絨":4679,"絮":4680,"統":4681,"絲":4682,"絳":4683,"絶":4684,"絹":4685,"綁":4686,"綉":4687,"綏":4688,"綑":4689,"經":4690,"継":4691,"続":4692,"綜":4693,"綠":4694,"綢":4695,"綣":4696,"綫":4697,"綬":4698,"維":4699,"綰":4700,"綱":4701,"網":4702,"綳":4703,"綴":4704,"綵":4705,"綸":4706,"綹":4707,"綺":4708,"綻":4709,"綽":4710,"綾":4711,"綿":4712,"緃":4713,"緊":4714,"緋":4715,"総":4716,"緑":4717,"緒":4718,"緖":4719,"緘":4720,"線":4721,"緝":4722,"緞":4723,"締":4724,"緣":4725,"編":4726,"緩":4727,"緬":4728,"緯":4729,"緱":4730,"緲":4731,"練":4732,"緹":4733,"緻":4734,"縄":4735,"縈":4736,"縉":4737,"縊":4738,"縐":4739,"縛":4740,"縝":4741,"縣":4742,"縧":4743,"縫":4744,"縭":4745,"縮":4746,"縱":4747,"縴":4748,"縷":4749,"縹":4750,"總":4751,"績":4752,"繁":4753,"繃":4754,"繆":4755,"繋":4756,"繒":4757,"織":4758,"繕":4759,"繚":4760,"繞":4761,"繡":4762,"繩":4763,"繪":4764,"繫":4765,"繭":4766,"繳":4767,"繹":4768,"繼":4769,"繽":4770,"繾":4771,"纂":4772,"纇":4773,"續":4774,"纍":4775,"纏":4776,"纓":4777,"纔":4778,"纖":4779,"纘":4780,"纜":4781,"红":4782,"级":4783,"纪":4784,"纯":4785,"纳":4786,"纷":4787,"纸":4788,"纾":4789,"组":4790,"细":4791,"终":4792,"经":4793,"结":4794,"给":4795,"统":4796,"续":4797,"绰":4798,"缅":4799,"缐":4800,"缓":4801,"缘":4802,"缝":4803,"缷":4804,"缸":4805,"缺":4806,"缽":4807,"罄":4808,"罈":4809,"罌":4810,"罍":4811,"罐":4812,"网":4813,"罔":4814,"罕":4815,"罘":4816,"罝":4817,"罟":4818,"罣":4819,"罨":4820,"罩":4821,"罪":4822,"置":4823,"罰":4824,"署":4825,"罵":4826,"罷":4827,"罹":4828,"羅":4829,"羆":4830,"羈":4831,"羊":4832,"羋":4833,"羌":4834,"美":4835,"羔":4836,"羚":4837,"羞":4838,"羡":4839,"羣":4840,"群":4841,"羥":4842,"羧":4843,"羨":4844,"義":4845,"羮":4846,"羯":4847,"羲":4848,"羶":4849,"羸":4850,"羹":4851,"羼":4852,"羽":4853,"羿":4854,"翀":4855,"翁":4856,"翅":4857,"翊":4858,"翌":4859,"翎":4860,"習":4861,"翔":4862,"翟":4863,"翠":4864,"翡":4865,"翩":4866,"翬":4867,"翰":4868,"翱":4869,"翹":4870,"翻":4871,"翼":4872,"耀":4873,"老":4874,"考":4875,"耄":4876,"者":4877,"耆":4878,"耊":4879,"耋":4880,"而":4881,"耍":4882,"耐":4883,"耕":4884,"耗":4885,"耘":4886,"耙":4887,"耦":4888,"耳":4889,"耶":4890,"耽":4891,"耿":4892,"聆":4893,"聊":4894,"聎":4895,"聒":4896,"联":4897,"聖":4898,"聘":4899,"聚":4900,"聞":4901,"聡":4902,"聯":4903,"聰":4904,"聲":4905,"聳":4906,"聴":4907,"聶":4908,"職":4909,"聼":4910,"聽":4911,"聾":4912,"聿":4913,"肄":4914,"肅":4915,"肆":4916,"肇":4917,"肉":4918,"肋":4919,"肌":4920,"肓":4921,"肖":4922,"肘":4923,"肚":4924,"肛":4925,"肝":4926,"股":4927,"肢":4928,"肥":4929,"肩":4930,"肪":4931,"肫":4932,"肯":4933,"肱":4934,"育":4935,"肴":4936,"肺":4937,"肽":4938,"胃":4939,"胄":4940,"胆":4941,"背":4942,"胎":4943,"胖":4944,"胗":4945,"胚":4946,"胛":4947,"胜":4948,"胝":4949,"胞":4950,"胡":4951,"胤":4952,"胥":4953,"胭":4954,"胯":4955,"胰":4956,"胱":4957,"胳":4958,"胴":4959,"胸":4960,"胺":4961,"胼":4962,"能":4963,"脂":4964,"脅":4965,"脆":4966,"脇":4967,"脈":4968,"脉":4969,"脊":4970,"脖":4971,"脘":4972,"脚":4973,"脛":4974,"脢":4975,"脣":4976,"脧":4977,"脩":4978,"脫":4979,"脯":4980,"脱":4981,"脲":4982,"脹":4983,"脾":4984,"腆":4985,"腈":4986,"腋":4987,"腎":4988,"腐":4989,"腑":4990,"腓":4991,"腔":4992,"腕":4993,"腠":4994,"腥":4995,"腦":4996,"腩":4997,"腫":4998,"腮":4999,"腰":5000,"腱":5001,"腳":5002,"腴":5003,"腸":5004,"腹":5005,"腺":5006,"腻":5007,"腿":5008,"膀":5009,"膈":5010,"膊":5011,"膏":5012,"膕":5013,"膚":5014,"膛":5015,"膜":5016,"膝":5017,"膠":5018,"膨":5019,"膩":5020,"膳":5021,"膴":5022,"膺":5023,"膻":5024,"膽":5025,"膾":5026,"膿":5027,"臀":5028,"臂":5029,"臃":5030,"臆":5031,"臉":5032,"臊":5033,"臍":5034,"臏":5035,"臓":5036,"臗":5037,"臘":5038,"臚":5039,"臟":5040,"臠":5041,"臣":5042,"臥":5043,"臧":5044,"臨":5045,"自":5046,"臬":5047,"臭":5048,"至":5049,"致":5050,"臺":5051,"臻":5052,"臼":5053,"臾":5054,"舀":5055,"舅":5056,"舆":5057,"與":5058,"興":5059,"舉":5060,"舊":5061,"舌":5062,"舍":5063,"舐":5064,"舒":5065,"舔":5066,"舖":5067,"舗":5068,"舘":5069,"舛":5070,"舜":5071,"舞":5072,"舟":5073,"舢":5074,"舨":5075,"航":5076,"般":5077,"舵":5078,"舶":5079,"舷":5080,"船":5081,"舺":5082,"艇":5083,"艉":5084,"艋":5085,"艏":5086,"艘":5087,"艙":5088,"艤":5089,"艦":5090,"艮":5091,"良":5092,"艱":5093,"色":5094,"艶":5095,"艷":5096,"艸":5097,"艾":5098,"芃":5099,"芊":5100,"芋":5101,"芍":5102,"芎":5103,"芒":5104,"芙":5105,"芛":5106,"芝":5107,"芠":5108,"芡":5109,"芢":5110,"芥":5111,"芧":5112,"芩":5113,"芫":5114,"芬":5115,"芭":5116,"芮":5117,"芯":5118,"花":5119,"芳":5120,"芷":5121,"芸":5122,"芹":5123,"芻":5124,"芽":5125,"苑":5126,"苒":5127,"苓":5128,"苔":5129,"苖":5130,"苗":5131,"苙":5132,"苛":5133,"苜":5134,"苞":5135,"苟":5136,"苡":5137,"苣":5138,"若":5139,"苦":5140,"苧":5141,"苯":5142,"英":5143,"苳":5144,"苴":5145,"苷":5146,"苺":5147,"苿":5148,"茁":5149,"茂":5150,"范":5151,"茄":5152,"茅":5153,"茉":5154,"茗":5155,"茜":5156,"茨":5157,"茫":5158,"茭":5159,"茯":5160,"茱":5161,"茲":5162,"茴":5163,"茵":5164,"茶":5165,"茸":5166,"茹":5167,"茼":5168,"荀":5169,"荃":5170,"荅":5171,"草":5172,"荊":5173,"荏":5174,"荐":5175,"荒":5176,"荔":5177,"荖":5178,"荳":5179,"荷":5180,"荸":5181,"荻":5182,"荼":5183,"荽":5184,"莆":5185,"莉":5186,"莊":5187,"莎":5188,"莒":5189,"莓":5190,"莖":5191,"莘":5192,"莛":5193,"莞":5194,"莠":5195,"莢":5196,"莧":5197,"莩":5198,"莪":5199,"莫":5200,"莱":5201,"获":5202,"莽":5203,"莿":5204,"菀":5205,"菁":5206,"菅":5207,"菇":5208,"菈":5209,"菉":5210,"菊":5211,"菌":5212,"菏":5213,"菓":5214,"菖":5215,"菘":5216,"菜":5217,"菟":5218,"菠":5219,"菩":5220,"華":5221,"菰":5222,"菱":5223,"菲":5224,"菸":5225,"萁":5226,"萃":5227,"萄":5228,"萊":5229,"萌":5230,"萍":5231,"萎":5232,"萓":5233,"萜":5234,"萣":5235,"萩":5236,"萬":5237,"萱":5238,"萵":5239,"萼":5240,"落":5241,"葆":5242,"葉":5243,"葑":5244,"著":5245,"葚":5246,"葛":5247,"葡":5248,"董":5249,"葦":5250,"葩":5251,"葫":5252,"葬":5253,"葭":5254,"葯":5255,"葱":5256,"葳":5257,"葵":5258,"葷":5259,"葺":5260,"蒂":5261,"蒐":5262,"蒔":5263,"蒙":5264,"蒜":5265,"蒞":5266,"蒟":5267,"蒡":5268,"蒲":5269,"蒸":5270,"蒻":5271,"蒼":5272,"蒽":5273,"蒿":5274,"蓀":5275,"蓁":5276,"蓄":5277,"蓆":5278,"蓉":5279,"蓊":5280,"蓋":5281,"蓓":5282,"蓬":5283,"蓮":5284,"蓴":5285,"蓿":5286,"蔑":5287,"蔓":5288,"蔔":5289,"蔗":5290,"蔘":5291,"蔚":5292,"蔞":5293,"蔡":5294,"蔣":5295,"蔥":5296,"蔦":5297,"蔫":5298,"蔬":5299,"蔭":5300,"蔴":5301,"蔻":5302,"蔽":5303,"蕁":5304,"蕃":5305,"蕈":5306,"蕉":5307,"蕊":5308,"蕎":5309,"蕓":5310,"蕗":5311,"蕙":5312,"蕞":5313,"蕨":5314,"蕩":5315,"蕪":5316,"蕫":5317,"蕭":5318,"蕯":5319,"蕷":5320,"蕾":5321,"薄":5322,"薇":5323,"薈":5324,"薊":5325,"薏":5326,"薑":5327,"薔":5328,"薛":5329,"薦":5330,"薨":5331,"薩":5332,"薪":5333,"薫":5334,"薯":5335,"薰":5336,"薺":5337,"薾":5338,"藉":5339,"藍":5340,"藏":5341,"藐":5342,"藕":5343,"藜":5344,"藝":5345,"藤":5346,"藥":5347,"藩":5348,"藪":5349,"藴":5350,"藷":5351,"藹":5352,"藺":5353,"藻":5354,"藼":5355,"藿":5356,"蘆":5357,"蘇":5358,"蘊":5359,"蘋":5360,"蘑":5361,"蘚":5362,"蘭":5363,"蘸":5364,"蘿":5365,"虌":5366,"虎":5367,"虐":5368,"虔":5369,"處":5370,"虚":5371,"虛":5372,"虜":5373,"虞":5374,"號":5375,"虢":5376,"虧":5377,"虫":5378,"虬":5379,"虯":5380,"虱":5381,"虹":5382,"虻":5383,"蚊":5384,"蚋":5385,"蚌":5386,"蚓":5387,"蚜":5388,"蚣":5389,"蚤":5390,"蚪":5391,"蚯":5392,"蚰":5393,"蚱":5394,"蚴":5395,"蚵":5396,"蚶":5397,"蛀":5398,"蛄":5399,"蛆":5400,"蛇":5401,"蛋":5402,"蛔":5403,"蛙":5404,"蛛":5405,"蛞":5406,"蛟":5407,"蛤":5408,"蛭":5409,"蛹":5410,"蛻":5411,"蛾":5412,"蜀":5413,"蜂":5414,"蜆":5415,"蜇":5416,"蜈":5417,"蜉":5418,"蜊":5419,"蜍":5420,"蜑":5421,"蜒":5422,"蜓":5423,"蜘":5424,"蜚":5425,"蜜":5426,"蜢":5427,"蜥":5428,"蜱":5429,"蜴":5430,"蜷":5431,"蜻":5432,"蜿":5433,"蝌":5434,"蝎":5435,"蝓":5436,"蝕":5437,"蝗":5438,"蝙":5439,"蝞":5440,"蝟":5441,"蝠":5442,"蝣":5443,"蝦":5444,"蝨":5445,"蝮":5446,"蝲":5447,"蝴":5448,"蝶":5449,"蝸":5450,"蝽":5451,"螂":5452,"螃":5453,"螄":5454,"螈":5455,"融":5456,"螞":5457,"螟":5458,"螢":5459,"螨":5460,"螫":5461,"螭":5462,"螯":5463,"螳":5464,"螺":5465,"螻":5466,"蟀":5467,"蟄":5468,"蟆":5469,"蟋":5470,"蟎":5471,"蟑":5472,"蟒":5473,"蟠":5474,"蟬":5475,"蟲":5476,"蟳":5477,"蟹":5478,"蟻":5479,"蟾":5480,"蠃":5481,"蠅":5482,"蠊":5483,"蠍":5484,"蠎":5485,"蠑":5486,"蠓":5487,"蠔":5488,"蠕":5489,"蠟":5490,"蠡":5491,"蠢":5492,"蠣":5493,"蠱":5494,"蠵":5495,"蠶":5496,"蠻":5497,"血":5498,"衆":5499,"衊":5500,"行":5501,"衍":5502,"術":5503,"街":5504,"衙":5505,"衛":5506,"衝":5507,"衞":5508,"衡":5509,"衢":5510,"衣":5511,"表":5512,"衩":5513,"衪":5514,"衫":5515,"衰":5516,"衷":5517,"衹":5518,"袁":5519,"袂":5520,"袃":5521,"袈":5522,"袋":5523,"袍":5524,"袒":5525,"袓":5526,"袖":5527,"袞":5528,"袤":5529,"袪":5530,"被":5531,"袱":5532,"裁":5533,"裂":5534,"装":5535,"裇":5536,"裊":5537,"裎":5538,"裏":5539,"裔":5540,"裕":5541,"裘":5542,"裙":5543,"補":5544,"裝":5545,"裟":5546,"裡":5547,"裨":5548,"裩":5549,"裬":5550,"裱":5551,"裳":5552,"裴":5553,"裵":5554,"裸":5555,"裹":5556,"製":5557,"裾":5558,"褂":5559,"複":5560,"褐":5561,"褒":5562,"褓":5563,"褔":5564,"褕":5565,"褚":5566,"褥":5567,"褪":5568,"褫":5569,"褲":5570,"褵":5571,"褶":5572,"褸":5573,"褺":5574,"褻":5575,"襁":5576,"襄":5577,"襖":5578,"襝":5579,"襟":5580,"襠":5581,"襤":5582,"襪":5583,"襬":5584,"襯":5585,"襲":5586,"西":5587,"要":5588,"覆":5589,"覇":5590,"見":5591,"規":5592,"覓":5593,"視":5594,"覚":5595,"覦":5596,"覧":5597,"親":5598,"覬":5599,"覲":5600,"覷":5601,"覺":5602,"覻":5603,"覽":5604,"觀":5605,"见":5606,"观":5607,"规":5608,"视":5609,"角":5610,"觔":5611,"解":5612,"觥":5613,"觴":5614,"觸":5615,"言":5616,"訂":5617,"訃":5618,"計":5619,"訊":5620,"訌":5621,"討":5622,"訐":5623,"訓":5624,"訕":5625,"訖":5626,"託":5627,"記":5628,"訛":5629,"訝":5630,"訟":5631,"訢":5632,"訣":5633,"訥":5634,"訪":5635,"設":5636,"許":5637,"訴":5638,"訶":5639,"診":5640,"註":5641,"証":5642,"訾":5643,"詆":5644,"詎":5645,"詐":5646,"詑":5647,"詒":5648,"詔":5649,"評":5650,"詛":5651,"詞":5652,"詠":5653,"詡":5654,"詢":5655,"詣":5656,"試":5657,"詩":5658,"詫":5659,"詬":5660,"詭":5661,"詮":5662,"詰":5663,"話":5664,"該":5665,"詳":5666,"詹":5667,"詼":5668,"誅":5669,"誆":5670,"誇":5671,"誌":5672,"認":5673,"誒":5674,"誓":5675,"誔":5676,"誕":5677,"誘":5678,"語":5679,"誠":5680,"誡":5681,"誣":5682,"誤":5683,"誥":5684,"誦":5685,"誨":5686,"說":5687,"説":5688,"読":5689,"誰":5690,"課":5691,"誹":5692,"誼":5693,"調":5694,"諂":5695,"諄":5696,"談":5697,"諉":5698,"請":5699,"諒":5700,"論":5701,"諗":5702,"諛":5703,"諜":5704,"諠":5705,"諡":5706,"諢":5707,"諦":5708,"諧":5709,"諫":5710,"諭":5711,"諮":5712,"諱":5713,"諳":5714,"諴":5715,"諶":5716,"諷":5717,"諸":5718,"諺":5719,"諼":5720,"諾":5721,"謀":5722,"謁":5723,"謂":5724,"謄":5725,"謅":5726,"謊":5727,"謎":5728,"謐":5729,"謔":5730,"謖":5731,"謗":5732,"謙":5733,"講":5734,"謝":5735,"謠":5736,"謢":5737,"謦":5738,"謨":5739,"謫":5740,"謬":5741,"謳":5742,"謹":5743,"謾":5744,"譁":5745,"證":5746,"譎":5747,"譏":5748,"識":5749,"譙":5750,"譚":5751,"譜":5752,"譟":5753,"警":5754,"譬":5755,"譭":5756,"譯":5757,"議":5758,"譲":5759,"譴":5760,"護":5761,"譽":5762,"讀":5763,"讃":5764,"讉":5765,"變":5766,"讒":5767,"讓":5768,"讖":5769,"讚":5770,"讞":5771,"计":5772,"议":5773,"讯":5774,"讲":5775,"许":5776,"评":5777,"诉":5778,"诊":5779,"话":5780,"询":5781,"说":5782,"谈":5783,"谓":5784,"谢":5785,"谷":5786,"谿":5787,"豁":5788,"豆":5789,"豇":5790,"豈":5791,"豉":5792,"豊":5793,"豌":5794,"豎":5795,"豐":5796,"豔":5797,"豕":5798,"豚":5799,"象":5800,"豢":5801,"豪":5802,"豫":5803,"豬":5804,"豸":5805,"豹":5806,"豺":5807,"貂":5808,"貅":5809,"貉":5810,"貌":5811,"貍":5812,"貎":5813,"貓":5814,"貔":5815,"貘":5816,"貝":5817,"貞":5818,"負":5819,"財":5820,"貢":5821,"貧":5822,"貨":5823,"販":5824,"貪":5825,"貫":5826,"責":5827,"貯":5828,"貲":5829,"貳":5830,"貴":5831,"貶":5832,"買":5833,"貸":5834,"費":5835,"貼":5836,"貽":5837,"貿":5838,"賀":5839,"賁":5840,"賂":5841,"賃":5842,"賄":5843,"賅":5844,"資":5845,"賈":5846,"賊":5847,"賑":5848,"賒":5849,"賓":5850,"賚":5851,"賛":5852,"賜":5853,"賞":5854,"賠":5855,"賡":5856,"賢":5857,"賣":5858,"賤":5859,"賦":5860,"賧":5861,"質":5862,"賬":5863,"賭":5864,"賴":5865,"賸":5866,"賺":5867,"購":5868,"賽":5869,"贅":5870,"贈":5871,"贊":5872,"贋":5873,"贍":5874,"贏":5875,"贓":5876,"贖":5877,"贗":5878,"财":5879,"货":5880,"资":5881,"赢":5882,"赤":5883,"赦":5884,"赧":5885,"赫":5886,"赭":5887,"走":5888,"赳":5889,"赴":5890,"起":5891,"趁":5892,"超":5893,"越":5894,"趐":5895,"趕":5896,"趙":5897,"趟":5898,"趣":5899,"趨":5900,"足":5901,"趴":5902,"趾":5903,"跆":5904,"跋":5905,"跌":5906,"跎":5907,"跑":5908,"跘":5909,"跚":5910,"跛":5911,"距":5912,"跟":5913,"跡":5914,"跣":5915,"跤":5916,"跨":5917,"跩":5918,"跪":5919,"路":5920,"跳":5921,"跺":5922,"踅":5923,"踉":5924,"踊":5925,"踏":5926,"踐":5927,"踝":5928,"踞":5929,"踢":5930,"踨":5931,"踩":5932,"踪":5933,"踫":5934,"踮":5935,"踰":5936,"踱":5937,"踴":5938,"踵":5939,"踹":5940,"蹂":5941,"蹄":5942,"蹇":5943,"蹈":5944,"蹉":5945,"蹊":5946,"蹋":5947,"蹌":5948,"蹓":5949,"蹕":5950,"蹚":5951,"蹟":5952,"蹣":5953,"蹤":5954,"蹦":5955,"蹧":5956,"蹩":5957,"蹬":5958,"蹭":5959,"蹲":5960,"蹴":5961,"蹶":5962,"蹺":5963,"蹼":5964,"躁":5965,"躄":5966,"躇":5967,"躉":5968,"躊":5969,"躋":5970,"躍":5971,"躑":5972,"躡":5973,"躥":5974,"躦":5975,"躪":5976,"身":5977,"躬":5978,"躲":5979,"躺":5980,"軀":5981,"車":5982,"軋":5983,"軌":5984,"軍":5985,"軒":5986,"軔":5987,"軚":5988,"軛":5989,"軟":5990,"転":5991,"軫":5992,"軮":5993,"軰":5994,"軸":5995,"軻":5996,"軼":5997,"軽":5998,"軾":5999,"較":6000,"載":6001,"輊":6002,"輒":6003,"輓":6004,"輔":6005,"輕":6006,"輚":6007,"輛":6008,"輜":6009,"輝":6010,"輟":6011,"輦":6012,"輩":6013,"輪":6014,"輯":6015,"輸":6016,"輻":6017,"輾":6018,"輿":6019,"轂":6020,"轄":6021,"轅":6022,"轆":6023,"轉":6024,"轍":6025,"轎":6026,"轟":6027,"车":6028,"载":6029,"辛":6030,"辜":6031,"辟":6032,"辣":6033,"辦":6034,"辧":6035,"辨":6036,"辭":6037,"辮":6038,"辯":6039,"辰":6040,"辱":6041,"農":6042,"辶":6043,"辺":6044,"辻":6045,"込":6046,"达":6047,"迂":6048,"迄":6049,"迅":6050,"过":6051,"迌":6052,"迎":6053,"运":6054,"近":6055,"迓":6056,"返":6057,"还":6058,"这":6059,"进":6060,"迢":6061,"迥":6062,"迦":6063,"迨":6064,"迪":6065,"迫":6066,"迭":6067,"述":6068,"迴":6069,"迷":6070,"迸":6071,"迹":6072,"迺":6073,"追":6074,"退":6075,"送":6076,"逃":6077,"逅":6078,"逆":6079,"逍":6080,"透":6081,"逐":6082,"递":6083,"途":6084,"逕":6085,"逗":6086,"這":6087,"通":6088,"逛":6089,"逝":6090,"逞":6091,"速":6092,"造":6093,"逡":6094,"逢":6095,"連":6096,"逭":6097,"逮":6098,"週":6099,"進":6100,"逵":6101,"逸":6102,"逹":6103,"逼":6104,"逾":6105,"遁":6106,"遂":6107,"遅":6108,"遇":6109,"遊":6110,"運":6111,"遍":6112,"過":6113,"遏":6114,"遐":6115,"遑":6116,"道":6117,"達":6118,"違":6119,"遙":6120,"遛":6121,"遜":6122,"遝":6123,"遞":6124,"遠":6125,"遢":6126,"遣":6127,"遥":6128,"遨":6129,"適":6130,"遭":6131,"遮":6132,"遲":6133,"遴":6134,"遵":6135,"遶":6136,"遷":6137,"選":6138,"遺":6139,"遼":6140,"遽":6141,"避":6142,"邀":6143,"邁":6144,"邂":6145,"邃":6146,"還":6147,"邇":6148,"邈":6149,"邉":6150,"邊":6151,"邋":6152,"邏":6153,"邑":6154,"邕":6155,"邙":6156,"邡":6157,"邢":6158,"那":6159,"邦":6160,"邨":6161,"邪":6162,"邯":6163,"邰":6164,"邱":6165,"邳":6166,"邵":6167,"邸":6168,"郁":6169,"郊":6170,"郎":6171,"郗":6172,"郝":6173,"郡":6174,"郤":6175,"部":6176,"郭":6177,"郵":6178,"郷":6179,"都":6180,"鄂":6181,"鄆":6182,"鄉":6183,"鄒":6184,"鄕":6185,"鄙":6186,"鄞":6187,"鄧":6188,"鄭":6189,"鄰":6190,"鄲":6191,"鄴":6192,"鄺":6193,"酆":6194,"酈":6195,"酉":6196,"酊":6197,"酋":6198,"酌":6199,"配":6200,"酐":6201,"酒":6202,"酗":6203,"酚":6204,"酣":6205,"酥":6206,"酩":6207,"酪":6208,"酬":6209,"酮":6210,"酯":6211,"酰":6212,"酵":6213,"酶":6214,"酷":6215,"酸":6216,"醂":6217,"醃":6218,"醇":6219,"醉":6220,"醋":6221,"醌":6222,"醍":6223,"醐":6224,"醒":6225,"醖":6226,"醛":6227,"醜":6228,"醞":6229,"醡":6230,"醣":6231,"醫":6232,"醬":6233,"醮":6234,"醯":6235,"醱":6236,"醴":6237,"醸":6238,"醺":6239,"釀":6240,"釁":6241,"采":6242,"釉":6243,"釋":6244,"里":6245,"重":6246,"野":6247,"量":6248,"釐":6249,"金":6250,"釓":6251,"釔":6252,"釕":6253,"釗":6254,"釘":6255,"釜":6256,"針":6257,"釣":6258,"釤":6259,"釦":6260,"釧":6261,"釨":6262,"釩":6263,"釵":6264,"釹":6265,"鈀":6266,"鈄":6267,"鈅":6268,"鈈":6269,"鈉":6270,"鈊":6271,"鈍":6272,"鈎":6273,"鈐":6274,"鈑":6275,"鈔":6276,"鈕":6277,"鈞":6278,"鈣":6279,"鈥":6280,"鈦":6281,"鈧":6282,"鈰":6283,"鈴":6284,"鈷":6285,"鈺":6286,"鈽":6287,"鈾":6288,"鈿":6289,"鉀":6290,"鉄":6291,"鉅":6292,"鉈":6293,"鉉":6294,"鉍":6295,"鉑":6296,"鉕":6297,"鉗":6298,"鉚":6299,"鉛":6300,"鉢":6301,"鉤":6302,"鉬":6303,"鉭":6304,"鉸":6305,"鉺":6306,"鉻":6307,"鉾":6308,"銀":6309,"銃":6310,"銅":6311,"銑":6312,"銓":6313,"銖":6314,"銘":6315,"銜":6316,"銠":6317,"銥":6318,"銦":6319,"銨":6320,"銩":6321,"銪":6322,"銫":6323,"銬":6324,"銲":6325,"銳":6326,"銷":6327,"銹":6328,"銻":6329,"銼":6330,"鋁":6331,"鋃":6332,"鋅":6333,"鋇":6334,"鋉":6335,"鋌":6336,"鋏":6337,"鋐":6338,"鋒":6339,"鋕":6340,"鋤":6341,"鋪":6342,"鋯":6343,"鋰":6344,"鋱":6345,"鋸":6346,"鋼":6347,"錄":6348,"錆":6349,"錐":6350,"錘":6351,"錙":6352,"錚":6353,"錛":6354,"錞":6355,"錠":6356,"錡":6357,"錢":6358,"錤":6359,"錦":6360,"錨":6361,"錩":6362,"錫":6363,"錬":6364,"錮":6365,"錯":6366,"録":6367,"錳":6368,"錶":6369,"錸":6370,"錼":6371,"鍊":6372,"鍋":6373,"鍍":6374,"鍘":6375,"鍚":6376,"鍛":6377,"鍜":6378,"鍥":6379,"鍬":6380,"鍰":6381,"鍵":6382,"鍶":6383,"鍾":6384,"鎂":6385,"鎊":6386,"鎌":6387,"鎏":6388,"鎔":6389,"鎖":6390,"鎗":6391,"鎘":6392,"鎚":6393,"鎢":6394,"鎦":6395,"鎧":6396,"鎩":6397,"鎮":6398,"鎯":6399,"鎰":6400,"鎳":6401,"鎵":6402,"鏃":6403,"鏈":6404,"鏑":6405,"鏖":6406,"鏗":6407,"鏘":6408,"鏞":6409,"鏟":6410,"鏡":6411,"鏢":6412,"鏤":6413,"鏽":6414,"鐐":6415,"鐔":6416,"鐘":6417,"鐠":6418,"鐡":6419,"鐧":6420,"鐫":6421,"鐮":6422,"鐲":6423,"鐵":6424,"鐶":6425,"鐸":6426,"鐹":6427,"鐺":6428,"鐿":6429,"鑄":6430,"鑊":6431,"鑌":6432,"鑑":6433,"鑒":6434,"鑛":6435,"鑠":6436,"鑢":6437,"鑣":6438,"鑫":6439,"鑭":6440,"鑰":6441,"鑲":6442,"鑴":6443,"鑷":6444,"鑼":6445,"鑽":6446,"鑾":6447,"鑿":6448,"钟":6449,"钾":6450,"银":6451,"锆":6452,"错":6453,"镁":6454,"镇":6455,"镜":6456,"镶":6457,"長":6458,"长":6459,"門":6460,"閃":6461,"閆":6462,"閉":6463,"開":6464,"閎":6465,"閏":6466,"閑":6467,"閒":6468,"間":6469,"閔":6470,"閘":6471,"閡":6472,"関":6473,"閣":6474,"閤":6475,"閥":6476,"閨":6477,"閩":6478,"閭":6479,"閱":6480,"閲":6481,"閵":6482,"閹":6483,"閻":6484,"閾":6485,"闆":6486,"闇":6487,"闈":6488,"闊":6489,"闌":6490,"闓":6491,"闔":6492,"闕":6493,"闖":6494,"闗":6495,"關":6496,"闞":6497,"闡":6498,"闢":6499,"门":6500,"问":6501,"阜":6502,"阠":6503,"阡":6504,"阪":6505,"阮":6506,"阱":6507,"防":6508,"阻":6509,"阿":6510,"陀":6511,"陂":6512,"陃":6513,"附":6514,"陋":6515,"陌":6516,"降":6517,"限":6518,"陔":6519,"陛":6520,"陜":6521,"陝":6522,"陞":6523,"陡":6524,"院":6525,"陣":6526,"除":6527,"险":6528,"陪":6529,"陰":6530,"陲":6531,"陳":6532,"陵":6533,"陶":6534,"陷":6535,"陸":6536,"陽":6537,"隅":6538,"隆":6539,"隈":6540,"隊":6541,"隋":6542,"隍":6543,"階":6544,"随":6545,"隔":6546,"隕":6547,"隘":6548,"隙":6549,"際":6550,"障":6551,"隠":6552,"隣":6553,"隧":6554,"隨":6555,"險":6556,"隰":6557,"隱":6558,"隴":6559,"隷":6560,"隸":6561,"隻":6562,"隼":6563,"难":6564,"雀":6565,"雁":6566,"雃":6567,"雄":6568,"雅":6569,"集":6570,"雇":6571,"雉":6572,"雋":6573,"雌":6574,"雍":6575,"雕":6576,"雖":6577,"雙":6578,"雛":6579,"雜":6580,"雞":6581,"離":6582,"難":6583,"雨":6584,"雩":6585,"雪":6586,"雫":6587,"雯":6588,"雲":6589,"零":6590,"雷":6591,"雹":6592,"電":6593,"需":6594,"霄":6595,"霆":6596,"震":6597,"霈":6598,"霉":6599,"霊":6600,"霍":6601,"霎":6602,"霏":6603,"霑":6604,"霓":6605,"霖":6606,"霙":6607,"霜":6608,"霞":6609,"霧":6610,"霰":6611,"露":6612,"霸":6613,"霹":6614,"霾":6615,"靂":6616,"靄":6617,"靈":6618,"青":6619,"靖":6620,"静":6621,"靚":6622,"靛":6623,"靜":6624,"非":6625,"靠":6626,"靡":6627,"面":6628,"靣":6629,"靦":6630,"靨":6631,"革":6632,"靭":6633,"靱":6634,"靳":6635,"靴":6636,"靶":6637,"靼":6638,"鞄":6639,"鞅":6640,"鞋":6641,"鞍":6642,"鞏":6643,"鞕":6644,"鞘":6645,"鞠":6646,"鞣":6647,"鞦":6648,"鞭":6649,"韁":6650,"韃":6651,"韆":6652,"韋":6653,"韌":6654,"韓":6655,"韙":6656,"韜":6657,"韭":6658,"音":6659,"韶":6660,"韻":6661,"韾":6662,"響":6663,"頁":6664,"頂":6665,"頃":6666,"項":6667,"順":6668,"頇":6669,"須":6670,"頌":6671,"頎":6672,"預":6673,"頑":6674,"頒":6675,"頓":6676,"頔":6677,"頗":6678,"領":6679,"頜":6680,"頡":6681,"頤":6682,"頦":6683,"頭":6684,"頰":6685,"頷":6686,"頸":6687,"頹":6688,"頻":6689,"頼":6690,"頽":6691,"顆":6692,"題":6693,"額":6694,"顎":6695,"顏":6696,"顔":6697,"顗":6698,"願":6699,"顛":6700,"類":6701,"顢":6702,"顥":6703,"顧":6704,"顫":6705,"顯":6706,"顰":6707,"顱":6708,"顳":6709,"顴":6710,"项":6711,"顾":6712,"领":6713,"题":6714,"额":6715,"風":6716,"颮":6717,"颯":6718,"颱":6719,"颳":6720,"颶":6721,"颼":6722,"飄":6723,"飆":6724,"飇":6725,"飊":6726,"飛":6727,"食":6728,"飢":6729,"飧":6730,"飩":6731,"飪":6732,"飭":6733,"飯":6734,"飲":6735,"飴":6736,"飼":6737,"飽":6738,"飾":6739,"餃":6740,"餅":6741,"養":6742,"餌":6743,"餐":6744,"餑":6745,"餒":6746,"餓":6747,"餔":6748,"餘":6749,"餚":6750,"餛":6751,"餞":6752,"餡":6753,"館":6754,"餬":6755,"餵":6756,"餽":6757,"餾":6758,"餿":6759,"饀":6760,"饅":6761,"饈":6762,"饉":6763,"饋":6764,"饌":6765,"饍":6766,"饑":6767,"饒":6768,"饕":6769,"饗":6770,"饞":6771,"馆":6772,"首":6773,"馗":6774,"馘":6775,"香":6776,"馥":6777,"馨":6778,"馬":6779,"馭":6780,"馮":6781,"馱":6782,"馳":6783,"馴":6784,"駁":6785,"駄":6786,"駅":6787,"駐":6788,"駑":6789,"駒":6790,"駕":6791,"駙":6792,"駛":6793,"駝":6794,"駟":6795,"駡":6796,"駢":6797,"駭":6798,"駱":6799,"駸":6800,"駿":6801,"騁":6802,"騅":6803,"騎":6804,"騏":6805,"騒":6806,"騖":6807,"騙":6808,"騫":6809,"騰":6810,"騷":6811,"騾":6812,"驀":6813,"驁":6814,"驃":6815,"驅":6816,"驊":6817,"驍":6818,"驒":6819,"驕":6820,"驗":6821,"驚":6822,"驛":6823,"驟":6824,"驢":6825,"驤":6826,"驥":6827,"驪":6828,"驫":6829,"骨":6830,"骯":6831,"骰":6832,"骷":6833,"骸":6834,"骺":6835,"骼":6836,"髂":6837,"髃":6838,"髄":6839,"髋":6840,"髎":6841,"髏":6842,"髒":6843,"髓":6844,"體":6845,"髕":6846,"髖":6847,"高":6848,"髙":6849,"髦":6850,"髪":6851,"髭":6852,"髮":6853,"髯":6854,"髻":6855,"鬃":6856,"鬆":6857,"鬍":6858,"鬚":6859,"鬟":6860,"鬢":6861,"鬣":6862,"鬥":6863,"鬧":6864,"鬨":6865,"鬩":6866,"鬰":6867,"鬱":6868,"鬼":6869,"魁":6870,"魂":6871,"魃":6872,"魄":6873,"魅":6874,"魍":6875,"魏":6876,"魔":6877,"魕":6878,"魘":6879,"魚":6880,"魛":6881,"魟":6882,"魠":6883,"魨":6884,"魩":6885,"魯":6886,"魷":6887,"鮋":6888,"鮐":6889,"鮑":6890,"鮟":6891,"鮪":6892,"鮫":6893,"鮭":6894,"鮮":6895,"鯃":6896,"鯉":6897,"鯊":6898,"鯓":6899,"鯔":6900,"鯖":6901,"鯛":6902,"鯡":6903,"鯢":6904,"鯤":6905,"鯧":6906,"鯨":6907,"鯪":6908,"鯰":6909,"鯷":6910,"鯽":6911,"鰆":6912,"鰈":6913,"鰍":6914,"鰓":6915,"鰛":6916,"鰡":6917,"鰣":6918,"鰤":6919,"鰥":6920,"鰩":6921,"鰭":6922,"鰱":6923,"鰲":6924,"鰹":6925,"鰺":6926,"鰻":6927,"鱂":6928,"鱅":6929,"鱇":6930,"鱈":6931,"鱉":6932,"鱒":6933,"鱔":6934,"鱗":6935,"鱘":6936,"鱝":6937,"鱟":6938,"鱧":6939,"鱪":6940,"鱲":6941,"鱷":6942,"鱸":6943,"鱺":6944,"鱻":6945,"鲁":6946,"鲍":6947,"鲭":6948,"鲵":6949,"鳥":6950,"鳧":6951,"鳩":6952,"鳯":6953,"鳳":6954,"鳴":6955,"鳶":6956,"鴆":6957,"鴇":6958,"鴉":6959,"鴐":6960,"鴒":6961,"鴕":6962,"鴛":6963,"鴝":6964,"鴞":6965,"鴟":6966,"鴦":6967,"鴨":6968,"鴯":6969,"鴴":6970,"鴻":6971,"鴿":6972,"鵑":6973,"鵜":6974,"鵝":6975,"鵟":6976,"鵠":6977,"鵡":6978,"鵪":6979,"鵬":6980,"鵯":6981,"鵰":6982,"鵲":6983,"鶉":6984,"鶓":6985,"鶘":6986,"鶩":6987,"鶯":6988,"鶲":6989,"鶴":6990,"鶻":6991,"鶼":6992,"鶿":6993,"鷂":6994,"鷄":6995,"鷈":6996,"鷗":6997,"鷠":6998,"鷥":6999,"鷦":7000,"鷲":7001,"鷴":7002,"鷸":7003,"鷹":7004,"鷺":7005,"鷿":7006,"鸕":7007,"鸚":7008,"鸛":7009,"鸝":7010,"鸞":7011,"鹵":7012,"鹹":7013,"鹼":7014,"鹽":7015,"鹿":7016,"麂":7017,"麈":7018,"麋":7019,"麒":7020,"麓":7021,"麗":7022,"麝":7023,"麟":7024,"麥":7025,"麩":7026,"麴":7027,"麵":7028,"麻":7029,"麼":7030,"麽":7031,"麾":7032,"黃":7033,"黄":7034,"黍":7035,"黎":7036,"黏":7037,"黑":7038,"黒":7039,"黔":7040,"默":7041,"黛":7042,"黜":7043,"黝":7044,"點":7045,"黠":7046,"黥":7047,"黦":7048,"黨":7049,"黯":7050,"黴":7051,"黷":7052,"鼇":7053,"鼎":7054,"鼐":7055,"鼓":7056,"鼠":7057,"鼩":7058,"鼬":7059,"鼯":7060,"鼻":7061,"鼽":7062,"鼾":7063,"齁":7064,"齊":7065,"齋":7066,"齎":7067,"齒":7068,"齜":7069,"齟":7070,"齡":7071,"齣":7072,"齦":7073,"齧":7074,"齪":7075,"齬":7076,"齲":7077,"齷":7078,"龄":7079,"龍":7080,"龎":7081,"龐":7082,"龔":7083,"龕":7084,"龜":7085,"龥":7086,"":7087,"":7088,"":7089,"":7090,"":7091,"":7092,"":7093,"":7094,"﨑":7095,"︎":7096,"️":7097,"﹅":7098,"﻿":7099,"￼":7100,"🆚":7101,"🇨":7102,"🇮":7103,"🇯":7104,"🇰":7105,"🇱":7106,"🇲":7107,"🇳":7108,"🇵":7109,"🇷":7110,"🇺":7111,"🇾":7112,"🌇":7113,"🌊":7114,"🌎":7115,"🌏":7116,"🌞":7117,"🌟":7118,"🌨":7119,"🌱":7120,"🌶":7121,"🌸":7122,"🌹":7123,"🌺":7124,"🌻":7125,"🌼":7126,"🍀":7127,"🍋":7128,"🍒":7129,"🍗":7130,"🍜":7131,"🍞":7132,"🍥":7133,"🍩":7134,"🎉":7135,"🎬":7136,"🎮":7137,"🎵":7138,"🏓":7139,"🏝":7140,"🏻":7141,"🏼":7142,"🐇":7143,"🐤":7144,"🐰":7145,"🐱":7146,"🐳":7147,"🐻":7148,"🐼":7149,"🐾":7150,"👀":7151,"👇":7152,"👉":7153,"👋":7154,"👍":7155,"👏":7156,"👘":7157,"👭":7158,"👸":7159,"👼":7160,"💁":7161,"💉":7162,"💋":7163,"💎":7164,"💔":7165,"💕":7166,"💖":7167,"💙":7168,"💚":7169,"💥":7170,"💦":7171,"💩":7172,"💪":7173,"💫":7174,"💰":7175,"📢":7176,"📷":7177,"📸":7178,"📺":7179,"📼":7180,"🔍":7181,"🔎":7182,"🔒":7183,"🔞":7184,"🔥":7185,"🔦":7186,"🔭":7187,"🔺":7188,"🗣":7189,"🗿":7190,"😁":7191,"😂":7192,"😄":7193,"😅":7194,"😇":7195,"😉":7196,"😊":7197,"😋":7198,"😍":7199,"😎":7200,"😏":7201,"😐":7202,"😗":7203,"😘":7204,"😙":7205,"😚":7206,"😛":7207,"😜":7208,"😝":7209,"😢":7210,"😤":7211,"😩":7212,"😫":7213,"😭":7214,"😰":7215,"😱":7216,"😳":7217,"😷":7218,"😿":7219,"🙃":7220,"🙄":7221,"🙅":7222,"🙇":7223,"🙏":7224,"🚃":7225,"🟡":7226,"🟨":7227,"🤍":7228,"🤎":7229,"🤔":7230,"🤖":7231,"🤢":7232,"🤣":7233,"🤨":7234,"🤪":7235,"🤯":7236,"🥇":7237,"🥊":7238,"🥕":7239,"🥰":7240,"🥳":7241,"🥴":7242,"🥺":7243,"🦁":7244,"🦄":7245,"🦊":7246,"🦋":7247,"🦦":7248,"🦩":7249,"🦵":7250,"🧚":7251,"🧠":7252,"🧡":7253,"🧧":7254,"𠽾":7255,"𡚒":7256,"𢭃":7257,"𣡊":7258,"𥌓":7259,"𥚃":7260,"𥴊":7261,"𨑨":7262,"𩻸":7263,"er":7264,"per":7265,"or":7266,"org":7267,"en":7268,"EP":7269,"SEP":7270,"per0":7271,"org0":7272,",<":7273,"per1":7274,"org1":7275,"。<":7276,"表示":7277,"nu":7278,"num":7279,"20":7280,"(<":7281,"per2":7282,"台灣":7283,">)":7284,"00":7285,"」,":7286,"org2":7287,"報導":7288,"疫情":7289,"10":7290,"」、":7291,"」、「":7292,"新聞":7293,"。」":7294,",「":7295,"、<":7296,"per3":7297,">,":7298,"沒有":7299,"更多":7300,"lo":7301,"loc":7302,"中國":7303,"11":7304,"美國":7305,"自己":7306,"疫苗":7307,"19":7308,"防疫":7309,"民眾":7310,"」。":7311,"]<":7312,"org3":7313,"可以":7314,"目前":7315,":「":7316,"網友":7317,"12":7318,"因為":7319,"。(":7320,"確診":7321,"可能":7322,"指出":7323,"中心":7324,"今天":7325,"。[":7326,"我們":7327,">、<":7328,"loc0":7329,"進行":7330,"政府":7331,"per4":7332,"活動":7333,"相關":7334,"一個":7335,"不過":7336,">(<":7337,"記者":7338,"今年":7339,"提供":7340,"就是":7341,"><":7342,"時間":7343,"北市":7344,"30":7345,"..":7346,"指揮":7347,"已經":7348,"認為":7349,"工作":7350,"人員":7351,"發現":7352,"第一":7353,"org4":7354,"學生":7355,"公司":7356,"出現":7357,"影響":7358,"發生":7359,"問題":7360,"持續":7361,"使用":7362,"因此":7363,"希望":7364,"日本":7365,"「<":7366,">:":7367,"現在":7368,"他們":7369,"其中":7370,"新冠":7371,"14":7372,"去年":7373,"15":7374,"開始":7375,"指揮中心":7376,"21":7377,"不是":7378,"接種":7379,"國家":7380,"感染":7381,"警方":7382,"。▲":7383,"per5":7384,"口罩":7385,"印度":7386,"13":7387,"肺炎":7388,"一名":7389,"以及":7390,"安全":7391,">-":7392,"其他":7393,"總統":7394,"大家":7395,"透過":7396,"還有":7397,"16":7398,"調查":7399,"什麼":7400,"包括":7401,"臉書":7402,"22":7403,"這樣":7404,"要求":7405,"這個":7406,"還是":7407,"全球":7408,"國際":7409,"許多":7410,"如果":7411,"部分":7412,"未來":7413,"50":7414,"不會":7415,"無法":7416,"今日":7417,"%,":7418,"宣布":7419,"18":7420,"翻攝":7421,"服務":7422,">、":7423,"合作":7424,"成為":7425,"同時":7426,"最後":7427,"/<":7428,"健康":7429,"都是":7430,"針對":7431,"org5":7432,"真的":7433,"對於":7434,"除了":7435,"甚至":7436,"日前":7437,"學校":7438,"男子":7439,"根據":7440,"看到":7441,"相當":7442,"是否":7443,"17":7444,"的人":7445,"通知":7446,"也有":7447,"台北":7448,"造成":7449,"也是":7450,"超過":7451,"生活":7452,"雖然":7453,"病毒":7454,"市場":7455,"機師":7456,"啟動":7457,"運動":7458,"強調":7459,"世界":7460,"手機":7461,"!<":7462,"所以":7463,"發展":7464,"地區":7465,"新冠肺炎":7466,"不少":7467,"萬元":7468,"高雄":7469,"狀況":7470,"需要":7471,"公布":7472,"媒體":7473,"增加":7474,"為了":7475,"應該":7476,"一次":7477,"支持":7478,"本土":7479,"代表":7480,"母親":7481,"台中":7482,"重大":7483,"結果":7484,":<":7485,"地方":7486,"接觸":7487,"社會":7488,"非常":7489,"經濟":7490,"計畫":7491,"過去":7492,"國內":7493,"進入":7494,"一起":7495,"重要":7496,"當時":7497,"下午":7498,"這些":7499,"事件":7500,"per6":7501,"另外":7502,"關係":7503,"對此":7504,"機會":7505,"現場":7506,"知道":7507,"個月":7508,"億元":7509,"措施":7510,"由於":7511,"資料":7512,"提醒":7513,">」":7514,"員工":7515,"000":7516,"期間":7517,"媽媽":7518,"方式":7519,"完成":7520,"投資":7521,"台北市":7522,"醫師":7523,"處理":7524,"25":7525,">》":7526,"人的":7527,"說明":7528,"第二":7529,"特別":7530,"醫院":7531,"推出":7532,"分享":7533,"不要":7534,"每日":7535,"之後":7536,"《<":7537,"症狀":7538,"網路":7539,"嚴重":7540,"曝光":7541,"比賽":7542,"28":7543,"中央":7544,"系統":7545,"管理":7546,"翻攝自":7547,"所有":7548,"40":7549,"接受":7550,"社區":7551,"以上":7552,"教育":7553,"的是":7554,"採檢":7555,">(":7556,"不同":7557,"其實":7558,"影片":7559,"個案":7560,">/":7561,"回應":7562,"美元":7563,"朋友":7564,"24":7565,"討論":7566,"這是":7567,"立委":7568,"小時":7569,"設計":7570,"建議":7571,"參與":7572,"孩子":7573,"導致":7574,"決定":7575,"個人":7576,"),":7577,"直接":7578,"新增":7579,"覺得":7580,"檢疫":7581,"協助":7582,"染疫":7583,"研究":7584,"情況":7585,"29":7586,"環境":7587,"規定":7588,"大陸":7589,"27":7590,"必須":7591,"很多":7592,"不能":7593,"風險":7594,"執行":7595,"緊急":7596,"面對":7597,"隔離":7598,"受到":7599,"比較":7600,"?」":7601,"政策":7602,"業者":7603,"企業":7604,"最新":7605,"23":7606,"消毒":7607,"org6":7608,"一定":7609,"2021":7610,"開放":7611,"桃園":7612,"表現":7613,"200":7614,"!」":7615,"獲得":7616,"通過":7617,"推播":7618,"只是":7619,"成長":7620,"加入":7621,"提升":7622,"新聞通知":7623,"重大新聞通知":7624,"每日重大新聞通知":7625,"議員":7626,"顯示":7627,"畫面":7628,"起來":7629,"新聞網":7630,"加上":7631,"只有":7632,"舉辦":7633,"醫療":7634,"原因":7635,"想到":7636,"準備":7637,"群聚":7638,"照片":7639,"參加":7640,"這次":7641,"至於":7642,"提出":7643,"全台":7644,"產業":7645,"內容":7646,"疑似":7647,"擴大":7648,"。」<":7649,"專家":7650,"發文":7651,"呼籲":7652,"26":7653,"?<":7654,"引發":7655,"病例":7656,")<":7657,"都有":7658,"110":7659,"需求":7660,"選擇":7661,"申請":7662,"只要":7663,"時候":7664,"自己的":7665,"預計":7666,"了解":7667,"報告":7668,"一直":7669,"死亡":7670,"上午":7671,"最高":7672,"戴口罩":7673,"出來":7674,"單位":7675,"per7":7676,"怎麼":7677,"教練":7678,"一樣":7679,"繼續":7680,"最大":7681,"案11":7682,"前往":7683,"會議":7684,"通報":7685,"產品":7686,"...":7687,"紀錄":7688,"飯店":7689,"loc1":7690,"一步":7691,"台幣":7692,"100":7693,"科技":7694,"主要":7695,"政治":7696,"資訊":7697,"安打":7698,"行動":7699,"技術":7700,"停電":7701,"透露":7702,"任何":7703,"近日":7704,"消費":7705,"治療":7706,"新北市":7707,"在臉書":7708,"家人":7709,"舉行":7710,"功能":7711,"共同":7712,"不到":7713,"保護":7714,"施打":7715,"此外":7716,"距離":7717,"大學":7718,"的一":7719,"也會":7720,"都會":7721,"5月":7722,"關鍵":7723,"人數":7724,"第三":7725,"消息":7726,"台股":7727,"沒想到":7728,"身體":7729,"則是":7730,"綜合":7731,"市長":7732,"委員":7733,"完全":7734,"成功":7735,"4月":7736,"不斷":7737,"台南":7738,"先發":7739,"全國":7740,"近期":7741,"過程":7742,"但是":7743,"2020":7744,"方面":7745,"以來":7746,"提到":7747,"維持":7748,"60":7749,"居家":7750,"行為":7751,"香港":7752,"努力":7753,"一下":7754,"分別":7755,"年的":7756,"對方":7757,"因應":7758,"人民":7759,"紛紛":7760,"駕駛":7761,"母親節":7762,"他的":7763,"平台":7764,"分析":7765,"上的":7766,"機組":7767,"英國":7768,"好的":7769,"電影":7770,"能力":7771,"數據":7772,"作為":7773,"目標":7774,"重點":7775,"加強":7776,"攝影":7777,"新聞報導":7778,"全面":7779,"警察":7780,"當地":7781,"也不":7782,"日起":7783,"就會":7784,"避免":7785,"如何":7786,"兩人":7787,"有人":7788,"人士":7789,"歷史":7790,"2019":7791,"注意":7792,"旅遊":7793,"歲的":7794,"//":7795,"分鐘":7796,"記者會":7797,"不僅":7798,"董事":7799,"粉絲":7800,"整理":7801,"團隊":7802,"下來":7803,"電子":7804,"配合":7805,"而且":7806,"公開":7807,"意外":7808,"女兒":7809,"貼文":7810,"經過":7811,"包含":7812,"爆發":7813,"才能":7814,"女性":7815,"工程":7816,"國中":7817,"積極":7818,"主席":7819,"就醫":7820,"安排":7821,"新台幣":7822,"新高":7823,"旅館":7824,"進一步":7825,"。▲<":7826,"穩定":7827,"中的":7828,"昨天":7829,"傳出":7830,">「":7831,"原本":7832,"至少":7833,"足跡":7834,"三立":7835,"擔任":7836,"晚間":7837,"聯盟":7838,"就有":7839,"流行":7840,"階段":7841,"雙方":7842,"優惠":7843,"能夠":7844,"宜蘭":7845,"org7":7846,"女子":7847,"老師":7848,"聲明":7849,"關注":7850,"掌握":7851,"發言":7852,"留言":7853,"擔心":7854,")[":7855,"文化":7856,"發表":7857,"正式":7858,"保持":7859,"兒子":7860,"系列":7861,"感謝":7862,"事故":7863,"專業":7864,"挑戰":7865,"壓力":7866,"學習":7867,"這種":7868,"推動":7869,"有一":7870,"」<":7871,"專線":7872,"確定":7873,"調整":7874,"之前":7875,"三立新聞網":7876,"節目":7877,"年輕":7878,"文章":7879,"員警":7880,"減少":7881,"球員":7882,"再度":7883,"萬人":7884,"家庭":7885,"品牌":7886,"球隊":7887,"發布":7888,"蘋果":7889,"最近":7890,"引起":7891,"一般":7892,"之一":7893,"年來":7894,";<":7895,"疫情指揮中心":7896,"了一":7897,"負責":7898,"1922":7899,"大的":7900,"取得":7901,"有多":7902,"37":7903,"500":7904,"實施":7905,"正在":7906,"交通":7907,"訓練":7908,"per8":7909,"質疑":7910,"富特":7911,"諾富特":7912,"外界":7913,"用戶":7914,"自由":7915,"外交":7916,"落實":7917,"或是":7918,"解決":7919,"觀察":7920,"容易":7921,"主動":7922,"價格":7923,"組織":7924,"連續":7925,"正常":7926,"選手":7927,"幫助":7928,"攻擊":7929,"連結":7930,"議題":7931,"恢復":7932,"80":7933,"第2":7934,"36":7935,"突然":7936,"電話":7937,"這麼":7938,"結束":7939,"線上":7940,"投手":7941,"邀請":7942,"主管":7943,"附近":7944,"是在":7945,"智慧":7946,"升溫":7947,"根本":7948,">.":7949,"遊戲":7950,"兄弟":7951,"35":7952,"方案":7953,"立即":7954,"召開":7955,"指數":7956,"聯合":7957,"規劃":7958,"家長":7959,"將在":7960,"成立":7961,"一次看":7962,">。":7963,"小孩":7964,">),":7965,"升級":7966,"70":7967,"利用":7968,"不明":7969,"經驗":7970,"空間":7971,"辦理":7972,"然而":7973,"2020年":7974,"日在":7975,"只能":7976,"來自":7977,"機車":7978,"事情":7979,"餐廳":7980,"並且":7981,"800":7982,"澳洲":7983,"」。<":7984,"衛生":7985,"擁有":7986,"最終":7987,"出席":7988,"台灣的":7989,"會有":7990,"公投":7991,"營收":7992,"」[":7993,"追蹤":7994,"高中":7995,"3月":7996,">:「":7997,"打擊":7998,"90":7999,"讓他":8000,"一度":8001,"有關":8002,"管制":8003,"團體":8004,"務必":8005,">://":8006,"接觸者":8007,"長期":8008,"提高":8009,"交易":8010,"至今":8011,"明顯":8012,"喜歡":8013,"發言人":8014,"改善":8015,"規模":8016,"市府":8017,"網站":8018,"作業":8019,"這樣的":8020,"區域":8021,"疾病":8022,"機構":8023,"訊息":8024,"鋒面":8025,"更新":8026,"這一":8027,"生產":8028,"立刻":8029,"冠軍":8030,"陸續":8031,"新北":8032,"開發":8033,"畢業":8034,"每天":8035,"民主":8036,"入境":8037,"責任":8038,"年前":8039,"2人":8040,"的時候":8041,"姓男子":8042,"詢問":8043,"證實":8044,"來說":8045,"危險":8046,"情形":8047,"價值":8048,"編輯":8049,"吸引":8050,"資源":8051,"另一":8052,"南部":8053,"不適":8054,"供應":8055,"老闆":8056,"拿下":8057,"符合":8058,"統計":8059,"後續":8060,"期待":8061,"的話":8062,"成績":8063,"身分":8064,"評估":8065,"各地":8066,"45":8067,"指揮官":8068,"也在":8069,"感染源":8070,"商品":8071,"確實":8072,"局長":8073,"案例":8074,"本季":8075,"標準":8076,"官方":8077,"設備":8078,"達到":8079,"疫苗接種":8080,"成員":8081,"隨著":8082,"我的":8083,"在地":8084,"檢查":8085,"限制":8086,"尤其":8087,"一些":8088,"離開":8089,"製造":8090,"感覺":8091,"%。":8092,"降雨":8093,"音樂":8094,"更是":8095,"基本":8096,"水庫":8097,"綜合報導":8098,"生命":8099,"後來":8100,"搭乘":8101,"遭到":8102,"先前":8103,"如今":8104,"公共":8105,"控制":8106,"一年":8107,"監視":8108,"公尺":8109,"幾乎":8110,"。「":8111,"億美元":8112,"順利":8113,"看這":8114,"展開":8115,"推薦":8116,"告知":8117,"第3":8118,"得到":8119,"男童":8120,"購買":8121,"民視":8122,"將於":8123,"會考":8124,"銀行":8125,"對象":8126,"體驗":8127,"以為":8128,"我國":8129,"將會":8130,"照顧":8131,"動物":8132,"課程":8133,"清楚":8134,"送醫":8135,"當天":8136,"航空":8137,"消防":8138,"看更多":8139,"自主":8140,"打造":8141,"不滿":8142,"取消":8143,"實際":8144,"太空":8145,"確認":8146,"大眾":8147,"表達":8148,"辦法":8149,"預期":8150,"陰性":8151,"晶片":8152,"必要":8153,"重新":8154,"了嗎":8155,"家屬":8156,"來到":8157,"同樣":8158,"檢驗":8159,"整體":8160,"不得":8161,"警戒":8162,"受傷":8163,"委員會":8164,"營運":8165,"官員":8166,"之外":8167,"場所":8168,"來源":8169,"考生":8170,"鼓勵":8171,"為何":8172,"想要":8173,"找到":8174,"釐清":8175,"選舉":8176,"奧運":8177,"主任":8178,"衝突":8179,"社交":8180,"改變":8181,"帶來":8182,"34":8183,"第1":8184,"事實":8185,"危機":8186,"的大":8187,"高達":8188,"首度":8189,"法院":8190,"終於":8191,"他說":8192,"營業":8193,"消費者":8194,"勞工":8195,"感到":8196,"一點":8197,"都不":8198,"平均":8199,"東西":8200,"影音":8201,"年度":8202,"相關新聞":8203,"33":8204,"讓人":8205,"閱讀":8206,"金融":8207,"運輸":8208,"再次":8209,"採取":8210,"提醒您":8211,"./":8212,"外送":8213,"業務":8214,"確保":8215,"結婚":8216,"有效":8217,"有些":8218,"1100":8219,"反應":8220,"數位":8221,"嘉義":8222,"竟然":8223,"患者":8224,"99":8225,"到底":8226,"董事長":8227,"如此":8228,"傳統":8229,"新的":8230,"知名":8231,"辦公":8232,"per9":8233,"軍事":8234,"還要":8235,"回家":8236,"狀態":8237,"酒駕":8238,"傳播":8239,"最多":8240,"集團":8241,"面臨":8242,"變成":8243,"東京":8244,"暫停":8245,"公里":8246,"最佳":8247,"快速":8248,"國人":8249,"凌晨":8250,"男友":8251,"防疫旅館":8252,"行政":8253,"降低":8254,"機關":8255,"流行疫情指揮中心":8256,"案件":8257,"](<":8258,"態度":8259,"派出":8260,"電腦":8261,"願意":8262,"機場":8263,"累計":8264,"300":8265,"領域":8266,"敲出":8267,"藝術":8268,"一天":8269,"北部":8270,"接著":8271,"14天":8272,"相信":8273,"戴上":8274,"之間":8275,"月底":8276,"電動":8277,"基隆":8278,"左右":8279,"2019年":8280,"受訪":8281,"」(<":8282,"漫畫":8283,"展現":8284,"電視":8285,"才會":8286,"考試":8287,"儘管":8288,"專案":8289,"考量":8290,"所長":8291,"傳染":8292,"範圍":8293,"讀書":8294,"拍攝":8295,"org8":8296,"校園":8297,"中華":8298,"像是":8299,"撥打":8300,"禁止":8301,"而是":8302,"大量":8303,"反對":8304,"今日新聞":8305,"多歲":8306,"讓她":8307,"人口":8308,"山區":8309,"科學":8310,"都在":8311,"事後":8312,"機組員":8313,"公告":8314,"的情況":8315,"自行":8316,"中央流行疫情指揮中心":8317,"武漢":8318,"就能":8319,"也將":8320,"收到":8321,"還在":8322,"確診者":8323,"遇到":8324,"境外":8325,"做好":8326,"31":8327,"支援":8328,"競爭":8329,"經營":8330,"自然":8331,"爭議":8332,"方向":8333,"120":8334,"離婚":8335,"批評":8336,"38":8337,"登場":8338,"三立新聞網報導":8339,"更多三立新聞網報導":8340,"檢測":8341,"此次":8342,"應用":8343,"天氣":8344,"教學":8345,"羅斯":8346,"陽性":8347,"的問題":8348,"開心":8349,"北京":8350,"廠商":8351,"原來":8352,"3人":8353,"nk":8354,"unk":8355,"先生":8356,"到場":8357,"洗手":8358,"結合":8359,"事業":8360,"領先":8361,"首次":8362,"以下":8363,"同意":8364,"整理包":8365,"統一":8366,"整個":8367,"時代":8368,"她的":8369,"男性":8370,"授權":8371,"疫情升溫":8372,"解釋":8373,"直到":8374,"令人":8375,"衝刺":8376,"紫色":8377,"意圖":8378,"彰化":8379,"違反":8380,"補助":8381,"退休":8382,"店家":8383,"儘速":8384,"作品":8385,"新竹":8386,"名單":8387,"告訴":8388,"5大":8389,"監視器":8390,"威脅":8391,"產生":8392,"任務":8393,"各科":8394,"幫忙":8395,"年增":8396,"地點":8397,"來看":8398,"金額":8399,">://./":8400,"關心":8401,"韓國":8402,"不用":8403,"免費":8404,"發出":8405,"上班":8406,"條件":8407,"防疫措施":8408,"縣市":8409,"隨後":8410,"是一":8411,"汽車":8412,"直呼":8413,"直播":8414,"他也":8415,"到了":8416,"教師":8417,"。(<":8418,"生涯":8419,"停車":8420,"嫌犯":8421,"父親":8422,"小組":8423,"一出":8424,"2年":8425,"戴上口罩":8426,"法律":8427,"39":8428,"也讓":8429,"花蓮":8430,"同學":8431,"俄羅斯":8432,"兩個":8433,"匡列":8434,"完整":8435,"車輛":8436,"意見":8437,"當然":8438,"拒絕":8439,"65":8440,"截至":8441,"每年":8442,"然後":8443,"不可":8444,"」。[":8445,"88":8446,"旅客":8447,"建立":8448,"不足":8449,"精神":8450,"原始":8451,"妻子":8452,"客戶":8453,"動作":8454,"回到":8455,"防疫專線":8456,"似乎":8457,"有網友":8458,"做出":8459,"那麼":8460,"也要":8461,"機制":8462,"保障":8463,"各種":8464,"全部":8465,"資格":8466,"不只":8467,"印尼":8468,"排除":8469,"製作":8470,")。":8471,"多數":8472,"並未":8473,"十分":8474,"就在":8475,"後的":8476,"![":8477,"人才":8478,"日電":8479,"發燒":8480,"投入":8481,"屏東":8482,"居家隔離":8483,"1萬":8484,"不知道":8485,"2名":8486,"抗議":8487,"這名":8488,"武漢肺炎":8489,"肯定":8490,"基金":8491,"台中市":8492,"老公":8493,"30秒":8494,"新冠肺炎疫情":8495,"父母":8496,"球場":8497,"為主":8498,"絕對":8499,"尚未":8500,"承諾":8501,"搭配":8502,"爸爸":8503,"居民":8504,"主持":8505,"2018":8506,"園區":8507,"6月":8508,"晚上":8509,"加碼":8510,"可能會":8511,"女友":8512,"高雄市":8513,"銷售":8514,"社交距離":8515,"公園":8516,"小心":8517,"社團":8518,"日下午":8519,"這項":8520,"就業":8521,"萬華":8522,"強化":8523,"公車":8524,"球迷":8525,"0800":8526,"溝通":8527,"犯罪":8528,"上市":8529,"間學校":8530,"變化":8531,"三振":8532,"偷看":8533,"歡迎":8534,"職業":8535,"和平":8536,"日晚間":8537,"校長":8538,"緊張":8539,"手術":8540,"程序":8541,"必考":8542,"城市":8543,"停止":8544,"傷害":8545,"社群":8546,"證明":8547,"下一":8548,"多元":8549,"的新":8550,"主委":8551,"集中":8552,"在台灣":8553,"重點一次看":8554,"品質":8555,"在家":8556,"大補":8557,"台北報導":8558,"2021年":8559,"職棒":8560,"股價":8561,"模式":8562,"必考重點一次看":8563,"獲利":8564,"舒壓":8565,"一路":8566,"下的":8567,"▪【":8568,"累了嗎":8569,"1年":8570,"故事":8571,"裡面":8572,"勞動":8573,"呈現":8574,"」!":8575,"這場":8576,"大樓":8577,"經理":8578,"48":8579,"▲<":8580,"呼吸":8581,"有機會":8582,"為什麼":8583,"一位":8584,"不好":8585,"大補帖":8586,"多次":8587,"修正":8588,"各科必考重點一次看":8589,"有多鬧":8590,"看這間學校":8591,"漫畫舒壓":8592,"讀書累了嗎":8593,"衝刺大補帖":8594,"30秒偷看":8595,"看這間學校有多鬧":8596,"漫畫舒壓一下":8597,"30秒偷看漫畫舒壓一下":8598,"32":8599,"3年":8600,"咖啡":8601,"也能":8602,"鏡頭":8603,"他在":8604,"你們":8605,"接獲":8606,"條例":8607,"49":8608,"採用":8609,"部長":8610,"毒品":8611,"超級":8612,"冠狀":8613,"即將":8614,"演出":8615,"屬於":8616,"這裡":8617,"賽事":8618,"▪<":8619,"半年":8620,"逮捕":8621,"全力":8622,"國外":8623,"例本土":8624,"公斤":8625,"司機":8626,"開車":8627,"loc2":8628,"大幅":8629,"嚴峻":8630,"教育會考":8631,"內部":8632,"大型":8633,"研發":8634,"籃板":8635,"保險":8636,"律師":8637,"第一次":8638,"位置":8639,"爭取":8640,"的方式":8641,"國中教育會考":8642,"角色":8643,"過程中":8644,"基礎":8645,"熱議":8646,"曾經":8647,"接種疫苗":8648,"德國":8649,"已有":8650,"電信":8651,"原始連結":8652,"以前":8653,"來越":8654,"坦言":8655,"累積":8656,"族群":8657,"觀眾":8658,"崩潰":8659,"尋找":8660,"黨部":8661,"都要":8662,"疑似症狀":8663,"突破":8664,"並不":8665,"建設":8666,"來的":8667,"交流":8668,"導體":8669,"越來越":8670,"半導體":8671,"購物":8672,"並非":8673,"上漲":8674,"各國":8675,"食物":8676,"改革":8677,"工具":8678,"000元":8679,"中國大陸":8680,"冠狀病毒":8681,")、":8682,"的民眾":8683,"壘打":8684,"延長":8685,"位於":8686,"維護":8687,"考慮":8688,"審查":8689,"防護":8690,"供電":8691,"5年":8692,"室內":8693,"紐約":8694,"原則":8695,"初步":8696,"影像":8697,"直言":8698,"教授":8699,"創辦":8700,"出賽":8701,"師生":8702,"示意圖":8703,"就要":8704,"監測":8705,"樂天":8706,"黑衣":8707,"千萬":8708,"仍有":8709,"等人":8710,"收入":8711,"社區感染":8712,"據了解":8713,"預估":8714,"飲食":8715,"權益":8716,"存在":8717,"馬上":8718,"報名":8719,"一定要":8720,"加油":8721,"類似":8722,"創新":8723,"認識":8724,"操作":8725,"官網":8726,"勇士":8727,"當中":8728,"力量":8729,"項目":8730,"國中教育會考衝刺大補帖":8731,"內的":8732,"單日":8733,"檢討":8734,"日上午":8735,"速度":8736,"110國中教育會考衝刺大補帖":8737,"抗體":8738,"護理":8739,"分區":8740,"更加":8741,"法國":8742,"女星":8743,"局上":8744,"電廠":8745,"55":8746,"休息":8747,"對手":8748,"工廠":8749,"機率":8750,"說法":8751,"可能是":8752,"有的":8753,"觀光":8754,"動態":8755,"per10":8756,"即日起":8757,"達成":8758,"數量":8759,"創作":8760,"下去":8761,"制度":8762,"」,<":8763,"戰略":8764,"例如":8765,"好奇":8766,"隨即":8767,"共有":8768,"用餐":8769,"001922":8770,"好吃":8771,"當局":8772,"三分":8773,"相對":8774,"短暫":8775,"起訴":8776,"不住":8777,"婚姻":8778,"能源":8779,"人生":8780,"利率":8781,"法官":8782,"登記":8783,"困難":8784,"昨日":8785,"客人":8786,"推特":8787,"2018年":8788,"唯一":8789,"下降":8790,"周邊":8791,"我們的":8792,"蟑螂":8793,"尊重":8794,"還沒":8795,"爆料":8796,"真相":8797,"逐漸":8798,"派出所":8799,"訪問":8800,"公務":8801,"史上":8802,"效果":8803,"旅行":8804,"都沒有":8805,"一段":8806,"執政":8807,"夫妻":8808,"局部":8809,"以色":8810,"》,":8811,"兒童":8812,"以色列":8813,"109":8814,">[":8815,"依照":8816,"工業":8817,"鳳梨":8818,"遊客":8819,"協議":8820,"的小":8821,"住民":8822,"暴力":8823,"道路":8824,"當場":8825,"百萬":8826,"股票":8827,"org9":8828,"同期":8829,"成本":8830,"接下來":8831,"延燒":8832,"協會":8833,"習慣":8834,"局下":8835,"並沒有":8836,"資料照":8837,"的地方":8838,"一張":8839,"嚴格":8840,"開賣":8841,"作戰":8842,"規範":8843,"年齡":8844,"不管":8845,"救援":8846,"時期":8847,"性的":8848,"黑道":8849,"值得":8850,"對話":8851,"恐怕":8852,"營養":8853,"道歉":8854,"車禍":8855,"人在":8856,"利益":8857,"氣候":8858,"清潔":8859,"不但":8860,"不錯":8861,"高度":8862,"建築":8863,"立場":8864,"特殊":8865,"的時間":8866,"創辦人":8867,"互動":8868,"國小":8869,"青年":8870,"因素":8871,"指示":8872,"簡單":8873,"貢獻":8874,"獅子":8875,"衝擊":8876,"地球":8877,"住院":8878,"報稅":8879,"轉型":8880,"一場":8881,"居家檢疫":8882,"44":8883,"防範":8884,"堅持":8885,"方便":8886,"是因為":8887,"校方":8888,"泰國":8889,"部門":8890,"1分":8891,"中午":8892,"勤洗手":8893,"程度":8894,"聲音":8895,"資金":8896,"英文":8897,"快新聞":8898,"難以":8899,"即使":8900,"娛樂":8901,"設置":8902,"該名":8903,"騎士":8904,"1名":8905,"75":8906,"一家":8907,"1人":8908,"具有":8909,"經常":8910,">,<":8911,"最低":8912,"黑衣人":8913,"乘客":8914,"廣告":8915,"2萬":8916,"環保":8917,"預算":8918,"旅遊史":8919,"捷運":8920,"進口":8921,"看了":8922,"基地":8923,"各項":8924,"自動":8925,"工作人員":8926,"優先":8927,"出口":8928,"放棄":8929,"預約":8930,"帶動":8931,"排名":8932,"更多民視":8933,"人權":8934,"第4":8935,"生態":8936,"2分":8937,"律賓":8938,"菲律賓":8939,"更多民視新聞報導":8940,"辦公室":8941,"夥伴":8942,"也說":8943,"出爐":8944,"加速":8945,"測試":8946,"8年":8947,"策略":8948,"在20":8949,"]「":8950,"變種":8951,"土地":8952,"是不是":8953,"延伸":8954,"身上":8955,"移入":8956,"案12":8957,"檢察":8958,"高溫":8959,"重視":8960,"形象":8961,"有沒有":8962,"螢幕":8963,"1例":8964,"空軍":8965,"53":8966,"?[":8967,"助攻":8968,"重要的":8969,"典禮":8970,"參選":8971,"每股":8972,"都能":8973,"2月":8974,"10年":8975,"中部":8976,"出的":8977,"支安打":8978,"超商":8979,"方法":8980,"保送":8981,"當下":8982,"給予":8983,"領導":8984,"藉由":8985,"於是":8986,"美食":8987,"同仁":8988,"擴散":8989,"會在":8990,"不敢":8991,"物資":8992,"明年":8993,"趨勢":8994,"中國的":8995,"聽到":8996,"視訊":8997,"偵辦":8998,"夢想":8999,"飛行":9000,"👉<":9001,"創下":9002,"涉嫌":9003,"開幕":9004,"老婆":9005,"大眾運輸":9006,"加入風":9007,"加入風運動":9008,"比例":9009,"獨立":9010,"停辦":9011,"就可以":9012,"火箭":9013,"目的":9014,"主題":9015,"的狀況":9016,"對外":9017,"拜登":9018,"辛苦":9019,"體育":9020,"看起來":9021,"你的":9022,"76":9023,"太多":9024,"身為":9025,"一切":9026,"帶著":9027,"成果":9028,"會長":9029,"詐騙":9030,"都很":9031,"違規":9032,"路上":9033,"合約":9034,"....":9035,"決議":9036,"採購":9037,"稍早":9038,"可望":9039,"接近":9040,"支付":9041,"真正":9042,"婦人":9043,"就算":9044,"涉及":9045,"貿易":9046,"錄取":9047,"得知":9048,"的事":9049,"投資人":9050,"以後":9051,"即可":9052,"情緒":9053,"費用":9054,"來台":9055,"輕鬆":9056,"的心":9057,"也沒有":9058,"才是":9059,"指控":9060,"百分":9061,"發揮":9062,"成交":9063,"納入":9064,"反而":9065,"時表示":9066,"預購":9067,"5人":9068,"國籍":9069,"醫學":9070,"工會":9071,"院長":9072,"本來":9073,"共識":9074,"明天":9075,"相同":9076,"真實":9077,"列車":9078,"好好":9079,"飲料":9080,"運用":9081,"身材":9082,"主場":9083,"其實是":9084,"全場":9085,"公社":9086,"出國":9087,"全程":9088,"半部":9089,"不少人":9090,"64":9091,"回來":9092,"親自":9093,"現金":9094,"申辦":9095,"破壞":9096,"部隊":9097,"悍將":9098,"協調":9099,"告知醫師":9100,"有點":9101,"無奈":9102,"自我":9103,"蘆洲":9104,"邊境":9105,"3天":9106,"優勢":9107,"核心":9108,"」:":9109,"聯繫":9110,"境外移入":9111,"救護":9112,"得分":9113,"兩岸":9114,"全壘打":9115,"民國":9116,"版本":9117,"3名":9118,"味全":9119,"判決":9120,"法人":9121,"股市":9122,"作用":9123,"意識":9124,"臨時":9125,"輪流":9126,"無論":9127,"臺灣":9128,"很難":9129,"外送員":9130,"補充":9131,"抵達":9132,"]【":9133,"秘書":9134,"裝置":9135,"無人":9136,"電動車":9137,"曾在":9138,"的重要":9139,"暫時":9140,"56":9141,"國民":9142,"理由":9143,"投票":9144,"這段":9145,"提前":9146,"整合":9147,"醫生":9148,"打疫苗":9149,"3萬":9150,"產能":9151,",「<":9152,"54":9153,"各界":9154,"健康管理":9155,"婆婆":9156,"認定":9157,"車站":9158,"-<":9159,"南韓":9160,"越南":9161,"美國總統":9162,"最大的":9163,"魯閣":9164,"友人":9165,"12日":9166,"的水":9167,"軍方":9168,"關閉":9169,"年輕人":9170,"藥物":9171,"00萬":9172,"亞裔":9173,"網紅":9174,"許多人":9175,"之下":9176,"他表示":9177,"警告":9178,"幾天":9179,"太魯閣":9180,"看見":9181,"議會":9182,"者的":9183,"苗栗":9184,"翻攝畫面":9185,"感情":9186,"病患":9187,"雲林":9188,"醫護":9189,"儘速就醫":9190,"77":9191,"加坡":9192,"多少":9193,"執行長":9194,"台東":9195,"拿到":9196,"付費":9197,"早上":9198,"軟體":9199,"實在":9200,"可愛":9201,">」,":9202,"縣長":9203,"對抗":9204,"不想":9205,"受害":9206,"趕緊":9207,"同步":9208,"檢方":9209,"人民幣":9210,"報案":9211,"還會":9212,"賣場":9213,"下跌":9214,"說是":9215,"通常":9216,"第四":9217,"3日":9218,"明星":9219,"紀念":9220,"58":9221,"7月":9222,"事發":9223,"遊藝":9224,"告知醫師旅遊史":9225,"傻眼":9226,"南投":9227,"仍然":9228,"應變":9229,"79":9230,"多人":9231,"2個":9232,"丈夫":9233,"信心":9234,"外籍":9235,"失控":9236,"出局":9237,"少年":9238,"頭殼":9239,"家中":9240,"飛彈":9241,"兩天":9242,"懷疑":9243,"媽祖":9244,"海洋":9245,"酒精":9246,"身體不適":9247,"不夠":9248,"不再":9249,"緬甸":9250,"4年":9251,"事務":9252,"新頭殼":9253,"處分":9254,">)、":9255,"00元":9256,"每個":9257,"密切":9258,"證據":9259,"那個":9260,"一同":9261,"全新":9262,"46":9263,"排放":9264,"理事":9265,"新加坡":9266,"冠狀病毒疾病":9267,"意義":9268,"遊藝場":9269,"中信":9270,"提案":9271,"日的":9272,"藝人":9273,"也被":9274,"適合":9275,"還能":9276,"希望能":9277,"修法":9278,"安心":9279,"78":9280,"人物":9281,"移送":9282,"設施":9283,"也很":9284,"時中":9285,"他們的":9286,"變種病毒":9287,"也表示":9288,"負擔":9289,"%、":9290,"午後":9291,"民調":9292,"幼兒":9293,"上升":9294,"依據":9295,"的好":9296,"依法":9297,"回國":9298,"日表示":9299,"95":9300,"概念":9301,"阿嬤":9302,"指定":9303,"預防":9304,"學者":9305,"體溫":9306,"per11":9307,"專頁":9308,"當年":9309,"保持社交距離":9310,"如有":9311,"近年":9312,"報警":9313,"薪資":9314,"實驗":9315,"外野":9316,"為止":9317,"房屋":9318,"空氣":9319,"85":9320,"持有":9321,"經歷":9322,"錯誤":9323,"。※":9324,"依舊":9325,"太陽":9326,"海軍":9327,"國防":9328,"創造":9329,"志工":9330,"茶藝":9331,"會員":9332,"大概":9333,"謝謝":9334,"總教練":9335,"在台":9336,"全民":9337,"徒刑":9338,"草案":9339,"諾富特飯店":9340,"總經理":9341,"真的很":9342,"即時":9343,"4人":9344,"而言":9345,"背景":9346,"言論":9347,"團結":9348,"經典":9349,"並在":9350,"最快":9351,"原始連結更多":9352,"別人":9353,"曝光後":9354,"同事":9355,"演員":9356,"不良":9357,"市民":9358,"更有":9359,"失分":9360,"網路上":9361,"紛紛留言":9362,"顧問":9363,"帶領":9364,"放在":9365,"藻礁":9366,"限電":9367,"食品":9368,"訂單":9369,"66":9370,"也就是":9371,"被害":9372,"第一季":9373,"不治":9374,"大停電":9375,"小姐":9376,"生物":9377,"跟著":9378,"檢察官":9379,"大使":9380,"茶藝館":9381,"戰爭":9382,"商業":9383,"大會":9384,"都沒":9385,"在這":9386,"深夜":9387,"正確":9388,"民間":9389,"法案":9390,"但他":9391,"所謂":9392,"擊敗":9393,"終場":9394,"30分":9395,"最新報導":9396,"血清":9397,"公民":9398,"的高":9399,"頻道":9400,"3分":9401,"一開始":9402,"路口":9403,"自主健康管理":9404,"仍在":9405,"獲報":9406,"懷孕":9407,"確診病例":9408,"47":9409,"案120":9410,"11日":9411,"3個":9412,"使用者":9413,"參考":9414,"不知":9415,"第一時間":9416,"回歸":9417,"靠著":9418,"台灣人":9419,"表演":9420,"資深":9421,"疫調":9422,"電池":9423,"並無":9424,"召集":9425,"笑說":9426,"幸福":9427,"人潮":9428,"店員":9429,"中職":9430,"感動":9431,"疑慮":9432,"自身":9433,"鎖定":9434,"」。(":9435,"瞬間":9436,"群聚感染":9437,"廢水":9438,"2019冠狀病毒疾病":9439,"96":9440,"運作":9441,"公分":9442,"17年":9443,"返台":9444,"自費":9445,"但在":9446,"明確":9447,"每次":9448,"三立新聞網提醒您":9449,"力的":9450,"縣府":9451,"形成":9452,"夜市":9453,"電梯":9454,"澄清":9455,"」;":9456,"宣傳":9457,"打開":9458,"很大":9459,"特色":9460,"競賽":9461,"便宜":9462,"失去":9463,"診所":9464,"隨時":9465,"導演":9466,"發電":9467,"上一":9468,"場比賽":9469,"大選":9470,"知識":9471,"小朋友":9472,"永續":9473,"移動":9474,"經費":9475,"詳細":9476,"轉載":9477,"迅速":9478,"人類":9479,"爆出":9480,"的機會":9481,"陳時中":9482,"棒球":9483,"移工":9484,"預測":9485,"門口":9486,"或許":9487,"大約":9488,"新疆":9489,"高層":9490,"現象":9491,"同住":9492,"搶救":9493,"氧氣":9494,"出門":9495,"否認":9496,"7年":9497,"件事":9498,"國內外":9499,"二軍":9500,"組成":9501,"資產":9502,"遊行":9503,"陣雨":9504,"來了":9505,"打算":9506,"垃圾":9507,"北韓":9508,"等等":9509,"違法":9510,"14天內":9511,"攜手":9512,"約新台幣":9513,"創意":9514,"警局":9515,"名的":9516,"房間":9517,"守護":9518,"路線":9519,"可能性":9520,"150":9521,"16年":9522,"全數":9523,"出生":9524,"計劃":9525,"金門":9526,"org10":9527,"1月":9528,"或者":9529,"申報":9530,"剛好":9531,"豐富":9532,"職場":9533,"篩檢":9534,"時刻":9535,"中信兄弟":9536,"回饋":9537,"白色":9538,"股東":9539,"海域":9540,"的前":9541,"桃園市":9542,"不了":9543,"這位":9544,"》<":9545,"就連":9546,"。」[":9547,"否則":9548,"論壇":9549,"季後":9550,"延續":9551,"連署":9552,"定期":9553,"純益":9554,"餐飲":9555,"連勝":9556,"一口":9557,"有所":9558,"高的":9559,"黨主席":9560,"也可以":9561,"也沒":9562,"學測":9563,"站在":9564,"兩名":9565,"擊出":9566,"粉絲專頁":9567,"計算":9568,"不少網友":9569,"台北市長":9570,"戶外":9571,"本身":9572,"確診個案":9573,"應該是":9574,"陷入":9575,"人力":9576,"意願":9577,"結構":9578,"57":9579,"富邦":9580,"黨員":9581,"事實上":9582,"外出":9583,"女網友":9584,"不及":9585,"主動通報":9586,"我覺得":9587,"是否有":9588,"尋求":9589,"肥皂":9590,"次三振":9591,"認證":9592,"藉此":9593,"轎車":9594,"多年":9595,"而在":9596,"等待":9597,"獎金":9598,"回憶":9599,"發文表示":9600,"台商":9601,"寫下":9602,"公益":9603,"很快":9604,"具體":9605,"湖人":9606,"台南市":9607,"可見":9608,"戰機":9609,"充滿":9610,"逆轉":9611,"長照":9612,"今天表示":9613,"搭乘大眾運輸":9614,"3個月":9615,"興趣":9616,"疫情影響":9617,"全聯":9618,"的照片":9619,"強制":9620,"熱門":9621,"促進":9622,"及時":9623,"解除":9624,"電力":9625,"就好":9626,"快訊":9627,"目前已":9628,"一個月":9629,"心理":9630,"隊友":9631,"一間":9632,"29日":9633,"損失":9634,"平常":9635,"航班":9636,"1000":9637,"大批":9638,"女生":9639,"貼出":9640,"賠償":9641,"一半":9642,"提告":9643,"相較":9644,"肇事":9645,"免疫":9646,"宣導":9647,"簽署":9648,"變得":9649,"推廣":9650,"旗下":9651,"病人":9652,"神經":9653,"28日":9654,"防禦":9655,"施打疫苗":9656,"參賽":9657,"不當":9658,"痛批":9659,"平時":9660,"有限":9661,"的部分":9662,"缺水":9663,"料理":9664,"老人":9665,"質詢":9666,"模擬":9667,"原住民":9668,"恐怖":9669,"接到":9670,"現代":9671,"出現疑似症狀":9672,"不多":9673,"能量":9674,"外國":9675,"微博":9676,"不見":9677,"賽後":9678,"障礙":9679,"內行":9680,"機師染疫":9681,"合理":9682,"一旦":9683,"上場":9684,"出面":9685,"部署":9686,"分別為":9687,"42":9688,"反映":9689,"攻下":9690,"演唱":9691,"近來":9692,"一名網友":9693,"地下":9694,"很好":9695,"請先":9696,"飛機":9697,"封鎖":9698,"搭載":9699,"保證":9700,"執法":9701,"售價":9702,"收在":9703,"精彩":9704,"區的":9705,"宣告":9706,"世代":9707,"儀式":9708,"免付費":9709,"抱怨":9710,"8月":9711,"便利":9712,"數字":9713,"水情":9714,"開罰":9715,"也都":9716,"就讀":9717,"在美國":9718,"所幸":9719,"柔道":9720,"基因":9721,"行業":9722,"強烈":9723,"早餐":9724,"籃球":9725,"組合":9726,"公費":9727,"將持續":9728,"當初":9729,"介紹":9730,"打點":9731,"解鎖":9732,"也有人":9733,"思考":9734,"檢視":9735,"盤中":9736,"過的":9737,"廁所":9738,"上任":9739,"忍不住":9740,"黑色":9741,"出發":9742,"出貨":9743,"留下":9744,"首季":9745,"消失":9746,"是要":9747,"健保":9748,"破口":9749,"今晚":9750,"觀看":9751,"課綱":9752,"同時也":9753,"受影響":9754,"業績":9755,"59":9756,"]▲":9757,"上網":9758,"視為":9759,"。《<":9760,"拍照":9761,"畢竟":9762,"滿足":9763,"13日":9764,"武器":9765,"漲幅":9766,"太魯閣號":9767,"刪除":9768,"5萬":9769,"主義":9770,"調查中":9771,"設立":9772,"領袖":9773,"下載":9774,"印象":9775,"記憶":9776,"輔導":9777,"騷擾":9778,"判斷":9779,"幾年":9780,"延期":9781,"試試":9782,"關懷":9783,"點多":9784,"實現":9785,"承認":9786,"通訊":9787,"全案":9788,"惡化":9789,"特定":9790,"52":9791,"86":9792,"海外":9793,"被問":9794,"梅雨":9795,"而已":9796,"交往":9797,"不論":9798,"本次":9799,"現身":9800,"時許":9801,"路邊":9802,"秘書長":9803,"撥打防疫專線":9804,"我是":9805,"擔憂":9806,"日公布":9807,"診斷":9808,"不太":9809,"所得":9810,"日常":9811,"有可能":9812,"諮詢":9813,"賽季":9814,"關於":9815,"合法":9816,"的事情":9817,"去過":9818,"行程":9819,"務必告知醫師旅遊史":9820,"印度疫情":9821,"延後":9822,"那些":9823,"廣播":9824,"先發投手":9825,"去年同期":9826,"分局":9827,"加拿":9828,"平安":9829,"管道":9830,"試圖":9831,"免付費防疫專線":9832,"下車":9833,"遶境":9834,"開季":9835,"背後":9836,"享受":9837,"連假":9838,"三大":9839,"全身":9840,"帳號":9841,"看好":9842,"國軍":9843,"綠色":9844,"驚見":9845,"10月":9846,"肥皂勤洗手":9847,"愛的":9848,"5日":9849,"掀起":9850,"發生在":9851,"人工":9852,"於今日":9853,"大雨":9854,"房子":9855,"星期":9856,"若身體不適":9857,"多的":9858,"監督":9859,"車上":9860,"一看":9861,"深厚":9862,"集會":9863,"出去":9864,"人氣":9865,"2022":9866,"喊話":9867,"峰會":9868,"咳嗽":9869,"好像":9870,"過來":9871,"12紫色":9872,"處理器":9873,"2天":9874,"並戴上口罩":9875,"此事":9876,"糾紛":9877,"創新高":9878,"請主動通報":9879,"新冠疫情":9880,"不同的":9881,"回國若身體不適":9882,"14天內出現疑似症狀":9883,"請先撥打防疫專線":9884,"並戴上口罩儘速就醫":9885,"回國若身體不適請主動通報":9886,"14天內出現疑似症狀請先撥打防疫專線":9887,"一人":9888,"主辦":9889,"新功能":9890,"獅子會":9891,"女神":9892,"穿著":9893,"主張":9894,"68":9895,"異常":9896,"」。▲":9897,"基層":9898,"外資":9899,"罕見":9900,"大規模":9901,"2日":9902,"健身":9903,"想法":9904,"110050":9905,"等到":9906,"加碼送":9907,"家的":9908,"性別":9909,"看法":9910,"蛋糕":9911,"這起":9912,"封面":9913,"開會":9914,"財產":9915,"恐慌":9916,"都可以":9917,"的情況下":9918,"等級":9919,"請撥打":9920,"地方政府":9921,"9月":9922,"少女":9923,"規格":9924,"?」、「":9925,"子女":9926,"熱烈":9927,"現行":9928,"防範新冠肺炎":9929,"例行":9930,"年代":9931,"權利":9932,"門市":9933,"第1季":9934,"勝利":9935,"立法":9936,"用水":9937,"用的":9938,"開打":9939,"1個":9940,"制裁":9941,"就像":9942,"想像":9943,"細節":9944,"上傳":9945,"進度":9946,"延伸閱讀":9947,"一波":9948,"若是":9949,"超前":9950,"下雨":9951,"折起":9952,"43":9953,"常見":9954,"清晨":9955,"警報":9956,"超越":9957,"退場":9958,"造型":9959,"重症":9960,"的原因":9961,"重返":9962,"實聯":9963,"顧客":9964,"中南部":9965,"他是":9966,"兩年":9967,"逃逸":9968,"全世界":9969,"並將":9970,"只見":9971,"移除":9972,"上課":9973,"地位":9974,"大利":9975,"查詢":9976,"隊長":9977,"新冠疫苗":9978,"5大電信":9979,"有局部":9980,"物品":9981,"7日":9982,"會不會":9983,"她說":9984,"東森":9985,"的國家":9986,"故障":9987,"國安":9988,"表態":9989,"輝瑞":9990,"群聚案":9991,"基於":9992,"女孩":9993,"出入":9994,"居住":9995,"水果":9996,"紅燈":9997,"美中":9998,"開啟":9999,"371":10000,"多名":10001,"實力":10002,"彼此":10003,"指導":10004,"指標":10005,"加拿大":10006,"依然":10007,"的工作":10008,"遺體":10009,"申辦優惠":10010,"面試":10011,"理事長":10012,"實聯制":10013,"介入":10014,"以外":10015,"兩國":10016,"泡麵":10017,"合併":10018,"總計":10019,"東京奧運":10020,"身心":10021,"進場":10022,"司法":10023,"新北市長":10024,"急診":10025,"應對":10026,"15年":10027,"月底開賣":10028,"申辦優惠加碼送":10029,"他認為":10030,"幾個":10031,"一輛":10032,"時的":10033,"他人":10034,"將近":10035,"指考":10036,"一種":10037,"心情":10038,"黃金":10039,"5大電信預購":10040,"並於":10041,"病房":10042,"許多網友":10043,"聯絡":10044,"重申":10045,"血清抗體":10046,"機器":10047,"趕快":10048,"這也是":10049,"外媒":10050,"生育":10051,"長輩":10052,"卻被":10053,"喝酒":10054,"大部分":10055,"感受":10056,"保育":10057,"力挺":10058,"供應鏈":10059,"專屬":10060,"成了":10061,"../":10062,"壓力大":10063,"情勢":10064,"東半部":10065,"週刊":10066,"黨內":10067,"就送":10068,"或無法":10069,"今天在":10070,"紅色":10071,"4萬":10072,"住戶":10073,"圖片":10074,"中時":10075,"不佳":10076,"稅後":10077,"良好":10078,"從事":10079,"網友們":10080,"受困":10081,"想用":10082,"文件":10083,"第5":10084,"驚人":10085,"多歲男性":10086,"施工":10087,"歌手":10088,"常常":10089,"發動":10090,"看看":10091,"多個":10092,"眼睛":10093,"美方":10094,"點名":10095,"分析師":10096,"12紫色月底開賣":10097,"上述":10098,"列為":10099,"玻璃":10100,"一片":10101,"千元":10102,"弱勢":10103,"撞上":10104,"貼文一出":10105,"出動":10106,"只好":10107,"應使用":10108,"2例":10109,"上海":10110,"財報":10111,"遵守":10112,"快樂":10113,"記得":10114,"2次":10115,"家裡":10116,"配戴口罩":10117,"最後一":10118,"盡快":10119,"桃猿":10120,"學院":10121,"務必戴上口罩":10122,"合照":10123,"進步":10124,"很多人":10125,"季後賽":10126,"其餘":10127,"保持社交距離時":10128,"協商":10129,"則表示":10130,"吃到":10131,"最好的":10132,"眾人":10133,"句話":10134,"地震":10135,"衣服":10136,"搭乘大眾運輸或無法":10137,"應使用肥皂勤洗手":10138,"搭乘大眾運輸或無法保持社交距離時":10139,"上訴":10140,"在此":10141,"大多":10142,"落後":10143,"感染源不明":10144,"發射":10145,"好友":10146,"細胞":10147,"鋼鐵":10148,"伊朗":10149,"少數":10150,"6年":10151,"不然":10152,"期徒刑":10153,"強勁":10154,"羅東":10155,"兩位":10156,"程式":10157,"不起":10158,"人以上":10159,"理念":10160,"認同":10161,"防治":10162,"檢疫所":10163,"不建議":10164,"天使":10165,"慶祝":10166,"停車場":10167,"6日":10168,"入住":10169,"的影響":10170,"67":10171,"二壘":10172,"同志":10173,"名字":10174,"鄰居":10175,"重啟":10176,"長達":10177,"關切":10178,"政黨":10179,"起火":10180,"味全龍":10181,"被害人":10182,"就被":10183,"航運":10184,"大生":10185,"總是":10186,"意思":10187,"per12":10188,"進而":10189,"10日":10190,"主角":10191,"戰力":10192,"旁邊":10193,"的關係":10194,"可是":10195,"容量":10196,"形式":10197,"國道":10198,"實體":10199,"歧視":10200,"祝福":10201,"真的是":10202,"評論":10203,"保留":10204,"一旁":10205,"拿出":10206,"稱為":10207,"政府的":10208,"生日":10209,"你這樣":10210,"決賽":10211,"失誤":10212,"最好":10213,"理解":10214,"設定":10215,"疫情警戒":10216,"14年":10217,"!「":10218,"充電":10219,"打者":10220,"本人":10221,"用於":10222,"陪伴":10223,"出軌":10224,"在今年":10225,"可惜":10226,"打完":10227,"2017年":10228,"國務":10229,"稽查":10230,"練習":10231,"逐步":10232,"本國籍":10233,"發起":10234,"面的":10235,"她也":10236,"期盼":10237,"長的":10238,"慢慢":10239,"顏色":10240,"2000":10241,"薪水":10242,"西亞":10243,"本土病例":10244,"才發現":10245,"提早":10246,"的風險":10247,"能在":10248,"錄影":10249,"一定會":10250,"哪裡":10251,"變異":10252,"培育":10253,"淵源":10254,"入黨":10255,"短短":10256,"第一個":10257,"粉專":10258,"號碼":10259,"應該要":10260,"一致":10261,"外推":10262,"很有":10263,"loc3":10264,"另有":10265,"有望":10266,"追查":10267,"販售":10268,"!」<":10269,"9日":10270,"刊登":10271,"研判":10272,"行銷":10273,"%;":10274,"即便":10275,"對戰":10276,"帶你":10277,"400":10278,"官兵":10279,"按照":10280,"行經":10281,"案10":10282,"焦點":10283,"里長":10284,"百分點":10285,"付出":10286,"固定":10287,"核酸":10288,"中間":10289,"現任":10290,"26日":10291,"管制措施":10292,"4名":10293,"專訪":10294,"計程":10295,"釋出":10296,"總理":10297,"規則":10298,"壓制":10299,"犯案":10300,"若有":10301,"複雜":10302,"以往":10303,"信用":10304,"加州":10305,"報到":10306,"首先":10307,"受惠":10308,"移民":10309,"聯邦":10310,"動力":10311,"土耳":10312,"按摩":10313,"松山":10314,"留意":10315,"相比":10316,"滿滿":10317,"竟是":10318,"記錄":10319,"認真":10320,"飲酒":10321,"尤其是":10322,"主持人":10323,"2點":10324,"使得":10325,"排隊":10326,"福利":10327,"面積":10328,"中華職棒":10329,"不一樣":10330,"中和":10331,"不願":10332,"偏愛":10333,"罪嫌":10334,"貨幣":10335,"不可能":10336,"恐嚇":10337,"護理師":10338,"土耳其":10339,"不如":10340,"從小":10341,"代表處":10342,"做到":10343,"實習":10344,"對台灣":10345,"防止":10346,"改為":10347,"入圍":10348,"教官":10349,"們的":10350,"大戰":10351,"199":10352,"12月":10353,"計程車":10354,"僅有":10355,"坦承":10356,"舞台":10357,"農民":10358,"面板":10359,"2016年":10360,"回答":10361,"提及":10362,"罹難":10363,"公平":10364,"培養":10365,"婦女":10366,"法規":10367,"球團":10368,"級警戒":10369,"69":10370,"眾多":10371,"短缺":10372,"電影票":10373,"優質":10374,"演習":10375,"的防疫":10376,"7天":10377,"核四":10378,"的美":10379,"匯流":10380,"數學":10381,"訴求":10382,"都被":10383,"長者":10384,"美國的":10385,"會中":10386,"賽前":10387,"89":10388,"互相":10389,"巴西":10390,"警覺":10391,"財務":10392,"41":10393,"也有網友":10394,"名額":10395,"帳戶":10396,"救護車":10397,"種族":10398,"今天下午":10399,"委託":10400,"是一個":10401,"繳出":10402,"農業":10403,"三分球":10404,"五月":10405,"宗教":10406,"投出":10407,"是由":10408,"風暴":10409,"體壇":10410,"在臉書社團":10411,"正面":10412,"30日":10413,">!":10414,"半場":10415,"氣象":10416,"戴口罩解鎖":10417,"召集人":10418,"上前":10419,"封城":10420,"黨籍":10421,"幼兒園":10422,"又有":10423,"話題":10424,"還說":10425,"再抽":10426,"10萬":10427,"上路":10428,"允許":10429,"在於":10430,"在中國":10431,"決心":10432,"難道":10433,"風格":10434,"4日":10435,"還是要":10436,"民視新聞":10437,"試驗":10438,"體系":10439,">)<":10440,"上週":10441,"化的":10442,"視察":10443,"車主":10444,"追蹤尋找":10445,"你想用":10446,"快更新":10447,"快試試":10448,"推5大":10449,"替代":10450,"不建議你這樣":10451,"追蹤尋找什麼":10452,"不建議你這樣用":10453,"5推5大":10454,"大小":10455,"的機率":10456,"空中":10457,"街頭":10458,"推薦影音":10459,"快試試戴口罩解鎖":10460,"5推5大新功能":10461,"6人":10462,"嘗試":10463,"每月":10464,"禮物":10465,"身邊":10466,">。<":10467,"讓民眾":10468,"於今日確診":10469,"聯賽":10470,"足夠":10471,"透明":10472,"她在":10473,"打出":10474,"歲以上":10475,"停機":10476,"成年":10477,"已在":10478,"永遠":10479,"深厚淵源":10480,"困擾":10481,"是有":10482,"臨床":10483,"疫苗的":10484,"87":10485,"海上":10486,"家族":10487,"專題":10488,"投球":10489,"遠距":10490,"偏愛色":10491,"深厚淵源曝光":10492,"新莊":10493,"這波":10494,"媒體報導":10495,"昨晚":10496,"泡泡":10497,"等於":10498,"外長":10499,"好手":10500,"接連":10501,"送往":10502,"喜愛":10503,"房價":10504,"演唱會":10505,"隔天":10506,"84":10507,">▪":10508,"低於":10509,"同一":10510,"已經有":10511,"航空公司":10512,"充分":10513,"名為":10514,"查獲":10515,"規畫":10516,"不幸":10517,"形容":10518,"當事":10519,"血栓":10520,"51":10521,"也曾":10522,"談到":10523,"年紀":10524,"貨車":10525,"下班":10526,"是什麼":10527,"上周":10528,"下週":10529,"克蘭":10530,"前後":10531,"只剩":10532,"合計":10533,"返回":10534,"進去":10535,"味道":10536,"引來":10537,"心的":10538,"現有":10539,"考場":10540,"路段":10541,"路人":10542,"還好":10543,"限量":10544,"高壓":10545,"在一起":10546,"火力":10547,"相關的":10548,"23日":10549,"答案":10550,"住宅":10551,"心臟":10552,"理想":10553,"的行為":10554,"統一獅":10555,"一隻":10556,"水準":10557,")、<":10558,"放寬":10559,"近年來":10560,"代理":10561,"前總統":10562,"天宮":10563,"斯坦":10564,"照護":10565,"處於":10566,"新冠病毒":10567,"調閱":10568,"隊伍":10569,"新品":10570,"火警":10571,"百貨":10572,"車道":10573,"org11":10574,"談判":10575,"跌幅":10576,"再增":10577,"祭出":10578,"停課":10579,"單場":10580,"東部":10581,"爆炸":10582,"公所":10583,"填就送":10584,"捐贈":10585,"清真":10586,"處長":10587,"高級":10588,"退休壓力大":10589,"再抽電影票":10590,"退休壓力大調查":10591,"打破":10592,"危害":10593,"天然":10594,"注射":10595,"玩家":10596,"」、「<":10597,"具備":10598,"失敗":10599,"寶寶":10600,"死者":10601,"觀念":10602,"還沒有":10603,"24小時":10604,"掌握更多":10605,"再加上":10606,"當前":10607,"震盪":10608,"也不會":10609,"做的":10610,"博士":10611,"反彈":10612,"愛情":10613,"案110":10614,"老翁":10615,"1次":10616,"3點":10617,"闖入":10618,"龍頭":10619,"2021退休壓力大調查":10620,"一事":10621,"一大":10622,"也可":10623,"有助":10624,"正妹":10625,"直升":10626,"送到":10627,"不排除":10628,"會談":10629,"詐欺":10630,"防禦率":10631,"殺人":10632,"跡象":10633,"醫護人員":10634,"上有":10635,"之際":10636,"北海":10637,"嚴選":10638,"奇摩":10639,"生意":10640,"生的":10641,"這款":10642,"風波":10643,"召開記者會":10644,"主播":10645,"缺乏":10646,"許可":10647,"27日":10648,"不在":10649,"優秀":10650,"搜索":10651,"阿公":10652,"4個":10653,"原文":10654,"50萬":10655,"三個":10656,"帶回":10657,"晶圓":10658,"13年":10659,"加入風運動粉絲專頁":10660,"國內外體壇":10661,"帶你掌握更多":10662,"國內外體壇動態":10663,"帶你掌握更多國內外體壇動態":10664,"做法":10665,"兩大":10666,"正義":10667,"水量":10668,"觀點":10669,"資本":10670,"門檻":10671,"非法":10672,"只會":10673,"角度":10674,">@":10675,"一邊":10676,"第一線":10677,"主要是":10678,"助理":10679,"熱情":10680,"盡量":10681,"8萬":10682,"在外":10683,"財經":10684,"5000":10685,"激烈":10686,"估計":10687,"對台":10688,"鏡週刊":10689,"曾到":10690,"浪費":10691,":「<":10692,"接觸史":10693,"一口氣":10694,"不慎":10695,"級分":10696,"最新數據":10697,"作者":10698,"差異":10699,"結帳":10700,"境內":10701,"完美":10702,"法辦":10703,"語言":10704,"開出":10705,"到案":10706,"後方":10707,"發行":10708,"門票":10709,"但仍":10710,"坐在":10711,"還原":10712,"酒店":10713,"罷免":10714,"哪些":10715,"展示":10716,"森林":10717,"的學生":10718,"研議":10719,"追求":10720,"開除":10721,"顯然":10722,"劑疫苗":10723,"增長":10724,"一個人":10725,"歷史新高":10726,"中華民國":10727,"檢舉":10728,"目擊":10729,"興建":10730,"董事會":10731,"負責人":10732,"!」、「":10733,"工人":10734,"該公司":10735,"清真寺":10736,"中方":10737,"何時":10738,"數十":10739,"重挫":10740,"仔細":10741,"監控":10742,"打電話":10743,"看來":10744,"各大":10745,"所需":10746,"打數":10747,"防疫升級":10748,"憂心":10749,"我想":10750,"核廢水":10751,"三接":10752,"友善":10753,"普遍":10754,"的目標":10755,"1日":10756,"實名":10757,"防衛":10758,"個性":10759,"的態度":10760,"皮膚":10761,"之亂":10762,"大讚":10763,"禮拜":10764,"不容易":10765,"便當":10766,"失蹤":10767,"手段":10768,"更好":10769,"限定":10770,"住在":10771,"害怕":10772,"急救":10773,"演藝":10774,"警消":10775,"過度":10776,"20年":10777,">)。":10778,"受訪時":10779,"亮眼":10780,"沒人":10781,"夢想家":10782,"服員":10783,"頭部":10784,"61":10785,"74":10786,"包裝":10787,"命中":10788,"公布的":10789,"?」<":10790,"室外":10791,"聲稱":10792,"記者會上":10793,"對決":10794,"疼痛":10795,"美股":10796,"聊天":10797,"的生活":10798,"主管機關":10799,"8人":10800,"口味":10801,"阿富":10802,"打擊率":10803,"座位":10804,"日期":10805,"時30分":10806,"迄今":10807,">)[":10808,"雜誌":10809,"太空人":10810,"在場":10811,"寵物":10812,"每個人":10813,"無失分":10814,"屆時":10815,"早已":10816,"興奮":10817,"警員":10818,"進香":10819,"居然":10820,"狗狗":10821,"美日":10822,"11月":10823,"專利":10824,"卻是":10825,"本週":10826,"進帳":10827,"文字":10828,"比特":10829,"的比賽":10830,"疫情監測":10831,"發表會":10832,"阿富汗":10833,"分手":10834,"刺激":10835,"有民眾":10836,"假日":10837,"商店":10838,"我就":10839,"潛艦":10840,"83":10841,"不對":10842,"主權":10843,"差距":10844,"世紀":10845,"人們":10846,"中壢":10847,"戰績":10848,"下令":10849,"肌肉":10850,"上面":10851,"不動":10852,"分數":10853,"學年度":10854,"的外":10855,"皆為":10856,"第五":10857,"腫瘤":10858,"雙北":10859,"72":10860,"誇張":10861,"候選":10862,"人妻":10863,"分局長":10864,"司令":10865,"大麻":10866,"義大利":10867,"身亡":10868,"適當":10869,"食材":10870,"馬來":10871,"球星":10872,"遭遇":10873,"分區輪流":10874,"培訓":10875,"聚會":10876,"火腿":10877,"英雄":10878,"高齡":10879,"8日":10880,"三星":10881,"大廠":10882,"與中國":10883,"日報":10884,"有趣":10885,"洋基":10886,"自家":10887,"雞蛋":10888,"高於":10889,"因應新冠肺炎疫情":10890,"分配":10891,"好幾":10892,"定位":10893,"的她":10894,"黨團":10895,"再生":10896,"本周":10897,"高階":10898,"哥哥":10899,"植物":10900,"吃飯":10901,"好文":10902,"市值":10903,"樂觀":10904,"的活動":10905,"休旅":10906,"弟弟":10907,"烏克蘭":10908,"11004":10909,"3000":10910,"啟用":10911,"裝備":10912,"零星":10913,"例確診":10914,"秩序":10915,"致力":10916,"行車":10917,"嚴重的":10918,"下周":10919,"婚禮":10920,"徹底":10921,"退出":10922,"一條":10923,"場域":10924,"部落":10925,"景點":10926,"國家的":10927,"不停":10928,"回收":10929,"最強":10930,"7人":10931,"做了":10932,"哪個":10933,"深入":10934,"院所":10935,"全校":10936,"試場":10937,"年底":10938,"把握":10939,"嚴選好文":10940,"嚴選好文一次看":10941,"一份":10942,"債務":10943,"完工":10944,"平衡":10945,"這件事":10946,"邊境管制措施":10947,"直升機":10948,"」?":10949,"不出":10950,"修復":10951,"先進":10952,"挑選":10953,"但也":10954,"巡邏":10955,"親友":10956,"飾演":10957,"抗疫":10958,"民生":10959,"登上":10960,"新型":10961,"的表現":10962,"見面":10963,"類股":10964,"上演":10965,"不久":10966,"是個":10967,"車的":10968,"年級":10969,"白天":10970,"重建":10971,"信任":10972,"幸運":10973,"攻勢":10974,"沒辦法":10975,"玩笑":10976,"一軍":10977,"女童":10978,"學童":10979,"小三":10980,"度過":10981,"興達":10982,"這邊":10983,"開設":10984,"作法":10985,"一代":10986,"五一":10987,"槍擊":10988,"教室":10989,"第6":10990,"英語":10991,"譴責":10992,"之間的":10993,"並不是":10994,"出了":10995,"分為":10996,"量測":10997,"3成":10998,"原先":10999,"大聯盟":11000,"1個月":11001,"傷勢":11002,"內湖":11003,"回覆":11004,"筆電":11005,"罹患":11006,"就是要":11007,"][":11008,"入學":11009,"共機":11010,"的支持":11011,"部會":11012,"太太":11013,"期滿":11014,"洛杉":11015,"癌症":11016,"進駐":11017,",(":11018,"有著":11019,"標示":11020,"與會":11021,"與邊境管制措施":11022,"疫情監測與邊境管制措施":11023,"攜帶":11024,"讓大家":11025,"仇恨":11026,"循環":11027,"7局":11028,"獨家":11029,"台北市黨部":11030,"洛杉磯":11031,"不小心":11032,"職務":11033,"表明":11034,"評委":11035,">/<":11036,"男女":11037,"知情":11038,"給我":11039,"軍人":11040,"基金會":11041,"馬來西亞":11042,"不料":11043,"捍衛":11044,"軌道":11045,"30萬":11046,"模樣":11047,"車子":11048,"》、":11049,"搜尋":11050,"滿意":11051,"過往":11052,"限時":11053,"單純":11054,"測驗":11055,"三壘":11056,"毫無":11057,"16日":11058,"22日":11059,"7歲":11060,"事態":11061,"的不":11062,"象徵":11063,"集中檢疫所":11064,"5天":11065,"個百分點":11066,"小學":11067,"展望":11068,"早期":11069,"模範":11070,"全台大停電":11071,"時常":11072,"推出的":11073,">。(":11074,"三重":11075,"但因":11076,"分別是":11077,"一處":11078,"不應":11079,"多久":11080,"意味":11081,"信用卡":11082,"3次":11083,"4分":11084,"公路":11085,"復甦":11086,"通緝":11087,"首都":11088,"在疫情":11089,"妨害":11090,"查看":11091,"為此":11092,"連敗":11093,"高鐵":11094,">-)":11095,"600":11096,"位在":11097,"效率":11098,"電商":11099,"嚇壞":11100,"招生":11101,"漂亮":11102,"麻煩":11103,"】<":11104,"傷亡":11105,"共計":11106,"建置":11107,"搭機":11108,"有利":11109,"聚集":11110,"通通":11111,"才知道":11112,"化學":11113,"卻在":11114,"此舉":11115,"的疫苗":11116,"瞭解":11117,"藍色":11118,"餐點":11119,"事宜":11120,"到現在":11121,"惡意":11122,"民意":11123,"阻止":11124,"全體":11125,"時尚":11126,"萊豬":11127,"車廂":11128,"金曲":11129,"勞動節":11130,"並表示":11131,"偵查":11132,"溫度":11133,"職缺":11134,"讓你":11135,"始終":11136,"是為了":11137,"權力":11138,"毛利率":11139,"變遷":11140,"這兩":11141,"支持台灣":11142,"5名":11143,"一週":11144,"尷尬":11145,"流程":11146,"條款":11147,"的台灣":11148,"適用":11149,"今天上午":11150,"則說":11151,"填就送奇摩":11152,"填就送奇摩值":11153,"多雲":11154,"她們":11155,"歷經":11156,"6萬":11157,"中美":11158,"將是":11159,"20萬":11160,"出現在":11161,"大家都":11162,"冷氣":11163,"空服員":11164,"送辦":11165,"110年":11166,"授權轉載":11167,"前進":11168,"回報":11169,"的關鍵":11170,"等症狀":11171,"霸凌":11172,"下殺":11173,"房務":11174,"看過":11175,"私人":11176,"簡訊":11177,"24日":11178,"下滑":11179,"能否":11180,"跟我":11181,"地區的":11182,"同住家人":11183,"未能":11184,"短期":11185,"約有":11186,"聯手":11187,"保存":11188,"扮演":11189,"超市":11190,"雲端":11191,"3例":11192,"女王":11193,"早就":11194,"污染":11195,"秘密":11196,"開盤":11197,"是否會":11198,"結束後":11199,"多歲女性":11200,"寫道":11201,"當日":11202,"舒服":11203,"有什麼":11204,"了一個":11205,"期望":11206,"派員":11207,"選民":11208,"野生":11209,"驚傳":11210,"副作用":11211,"星座":11212,"長大":11213,"妹妹":11214,"才剛":11215,"故意":11216,"新人":11217,"活動史":11218,"出版":11219,"動員":11220,"採訪":11221,"施壓":11222,"出手":11223,"子的":11224,"有期徒刑":11225,"示威":11226,"經紀":11227,"被問到":11228,"2局":11229,"一壘":11230,"入境後":11231,"身分證":11232,"5元":11233,"取代":11234,"新生":11235,"旗艦":11236,"核准":11237,"熟悉":11238,"燃煤":11239,"相機":11240,"21日":11241,"在網路上":11242,"撞擊":11243,"的確":11244,"總共":11245,"取自":11246,"證券":11247,"選項":11248,"首位":11249,"實名制":11250,"5局":11251,"不需要":11252,"用品":11253,"日本政府":11254,"了吧":11255,"人家":11256,"排行":11257,"次長":11258,"給他":11259,"賺錢":11260,"更多新頭殼":11261,"呼籲民眾":11262,"更多新頭殼報導":11263,"太大":11264,"捐款":11265,"陸軍":11266,"25日":11267,"傳播鏈":11268,"兩次":11269,"平等":11270,"海巡":11271,"的他":11272,"11年":11273,"住家":11274,"姓女子":11275,"表揚":11276,"靠近":11277,"比特幣":11278,"大漲":11279,"包商":11280,"審理":11281,"局勢":11282,"會被":11283,"說道":11284,"2成":11285,"仍是":11286,"引擎":11287,"校內":11288,"洋將":11289,"落在":11290,"per13":11291,"30年":11292,"工作的":11293,"傍晚":11294,"治安":11295,"算是":11296,"截至目前":11297,"後再":11298,"籃網":11299,"通膨":11300,"暴增":11301,"頻率":11302,"6局":11303,"引述":11304,"涉案":11305,"瘋狂":11306,"還可以":11307,"防守":11308,"拍下":11309,"行駛":11310,"過世":11311,"頒獎":11312,"新聞稿":11313,"12年":11314,"即日起至":11315,"定序":11316,"蛋白":11317,"受害者":11318,"是他":11319,"火星":11320,"紓困":11321,"老實":11322,"以免":11323,"列入":11324,"加盟":11325,"步驟":11326,"民宅":11327,"無關":11328,"見到":11329,"使用的":11330,"也希望":11331,"全館":11332,"廣場":11333,"有許多":11334,"當沖":11335,"辨識":11336,"驚呼":11337,"中表示":11338,"出售":11339,"讓我":11340,"乾淨":11341,"創業":11342,"升高":11343,"義務":11344,"企圖":11345,"判刑":11346,"手套":11347,"百年":11348,"雨量":11349,"鏡週刊報導":11350,"前的":11351,"大多數":11352,"幸好":11353,"血管":11354,"首相":11355,"98":11356,"事項":11357,"在去年":11358,"游泳":11359,"要有":11360,"候選人":11361,"將由":11362,"會後":11363,"營造":11364,"開槍":11365,"偏鄉":11366,"氣溫":11367,"讓台灣":11368,"隱私":11369,"更多鏡週刊報導":11370,"案1203":11371,"塑膠":11372,"前來":11373,"所屬":11374,"氣氛":11375,"犧牲":11376,"下半年":11377,"但這":11378,"一堆":11379,"不容":11380,"商機":11381,"支出":11382,"貸款":11383,"更多東森":11384,">:<":11385,"國務卿":11386,"94":11387,"副總統":11388,"巨蛋":11389,"發聲":11390,"訂閱":11391,"第二級":11392,"在臉書發文":11393,"勢力":11394,"的朋友":11395,"的說法":11396,"訊後":11397,"陪同":11398,"體重":11399,"才有":11400,"的就是":11401,"的東西":11402,"看完":11403,"連鎖":11404,"空域":11405,"美麗":11406,"保養":11407,"各自":11408,"很高":11409,"性感":11410,"收費":11411,"演說":11412,"科醫師":11413,"總裁":11414,"刑事":11415,"西武":11416,"大跌":11417,"還不":11418,"預告":11419,"本土疫情":11420,"嬌生":11421,"案發":11422,"八大":11423,"為本國籍":11424,"現階段":11425,"裡的":11426,"貨櫃":11427,"人體":11428,"工地":11429,"批准":11430,"相關新聞影音":11431,"中文":11432,"有意":11433,"條文":11434,"發病":11435,"1億":11436,"執勤":11437,"天的":11438,"笑翻":11439,"連環":11440,"交給":11441,"學長":11442,"對中國":11443,"有一名":11444,"電子股":11445,"%。<":11446,"兩隊":11447,"大阪":11448,"就不":11449,"布局":11450,"百人":11451,"同性":11452,"日子":11453,"間的":11454,"驚喜":11455,"周年":11456,"我要":11457,"房地":11458,"期限":11459,"火勢":11460,"這就是":11461,"頭痛":11462,"其他人":11463,"性能":11464,"打線":11465,"智庫":11466,"男人":11467,"究竟":11468,"鄰近":11469,"今日推薦影音":11470,"全都":11471,"在內":11472,"我也":11473,"演練":11474,"率先":11475,"近況":11476,"國內新增":11477,"副所長":11478,"協定":11479,"此時":11480,"現況":11481,"衛星":11482,"露出":11483,"馬路":11484,"10名":11485,"對流":11486,"的可能性":11487,"舉動":11488,"虧損":11489,"一項":11490,"上下":11491,"專輯":11492,"普通":11493,"電競":11494,"支持者":11495,"房東":11496,"相互":11497,"嘉義縣":11498,"底下":11499,"痛苦":11500,"首長":11501,"共享":11502,"據悉":11503,"騎車":11504,"北海道":11505,"做為":11506,"火車":11507,"男生":11508,"登山":11509,"撞死":11510,"最重要的":11511,"留在":11512,"蔓延":11513,"難度":11514,"國際社會":11515,"修改":11516,"派遣":11517,"獎勵":11518,"05":11519,"但她":11520,"無限":11521,"買房":11522,"都市":11523,"雞排":11524,"緊急狀態":11525,"主因":11526,"全年":11527,"午餐":11528,"差點":11529,"繁星":11530,"贏球":11531,"並以":11532,"傳媒":11533,"的影片":11534,"致詞":11535,"較為":11536,"舉辦的":11537,"當事人":11538,"則有":11539,"圖書":11540,"我會":11541,"被告":11542,"遺憾":11543,"隊員":11544,"預定":11545,"收盤":11546,"深刻":11547,"澎湖":11548,"生肖":11549,"等地":11550,"群組":11551,"與台灣":11552,"資安":11553,"報導指出":11554,"樂天桃猿":11555,"刻意":11556,"輸入":11557,"到的":11558,"忘記":11559,"拿著":11560,"爸媽":11561,"當選":11562,"org12":11563,"上限":11564,"及其":11565,"多位":11566,"春季":11567,"是台灣":11568,"而非":11569,"親子":11570,"不受":11571,"北港":11572,"過了":11573,"工程師":11574,"探索":11575,"漲價":11576,"美女":11577,"地說":11578,"巨大":11579,"廢棄":11580,"得以":11581,"機械":11582,"全家":11583,"宿舍":11584,"愛心":11585,"8點":11586,"回去":11587,"情侶":11588,"敏感":11589,"材料":11590,"溫暖":11591,"組長":11592,"虛擬":11593,"防堵":11594,"孩子的":11595,"蘋果不建議你這樣用":11596,"3大":11597,"主人":11598,"後面":11599,"明明":11600,"62":11601,"82":11602,"宣稱":11603,"提名":11604,"新制":11605,"上千":11606,"各式":11607,"和解":11608,"審議":11609,"很大的":11610,"感受到":11611,"現實":11612,"華盛":11613,"製程":11614,"身份":11615,"疫情嚴峻":11616,"自己是":11617,"國產":11618,"漏洞":11619,"羈押":11620,"國家安全":11621,"冠軍賽":11622,"單季":11623,"找不到":11624,"看著":11625,"題目":11626,"200萬":11627,"......":11628,"華盛頓":11629,"優異":11630,"堅定":11631,"正是":11632,"集結":11633,"相關單位":11634,"佩戴口罩":11635,"因而":11636,"多種":11637,"決策":11638,"酒吧":11639,"高速":11640,"50元":11641,"人死亡":11642,"後就":11643,"搶購":11644,"效力":11645,"機組人員":11646,"反擊":11647,"市議員":11648,"據點":11649,"驅逐":11650,"案1120":11651,"也因此":11652,"十年":11653,"哈哈":11654,"單身":11655,"多了":11656,"效能":11657,"西方":11658,"疫苗施打":11659,"宜蘭縣":11660,"但卻":11661,"處置":11662,"蘋果創辦人":11663,"其實是蘋果創辦人":11664,"將有":11665,"戀愛":11666,"提醒民眾":11667,"住宿":11668,"大專":11669,"時機":11670,"租屋":11671,"驚訝":11672,"基本上":11673,"營養師":11674,"63":11675,"國會":11676,"差不多":11677,"幹部":11678,"每人":11679,"簽約":11680,"說要":11681,"進攻":11682,"重創":11683,"一時":11684,"下旬":11685,"守備":11686,"此役":11687,"踴躍":11688,"2014年":11689,"小時候":11690,"公共場所":11691,"短暫陣雨":11692,"仍未":11693,"光是":11694,"求償":11695,"總部":11696,"14日":11697,"指揮中心表示":11698,"不必":11699,"外觀":11700,"性侵":11701,"會再":11702,"讓他們":11703,"進出":11704,"隊史":11705,"多項":11706,"失智":11707,"已於":11708,"罰金":11709,"一帶":11710,"戲劇":11711,"次數":11712,"。▼":11713,"」(":11714,"傷口":11715,"情報":11716,"歌曲":11717,"比照":11718,"罰款":11719,"解答":11720,"離職":11721,"網友熱議":11722,"研究所":11723,"92":11724,"不禁":11725,"以利":11726,"出血":11727,"成就":11728,"花了":11729,"印度的":11730,"備詢":11731,"手法":11732,"推文":11733,"本月":11734,"水電":11735,"請大家":11736,"讓學生":11737,"豬肉":11738,"位數":11739,"為台灣":11740,"環團":11741,"說話":11742,"豆腐":11743,"財政":11744,"自行車":11745,"不管是":11746,"不該":11747,"予以":11748,"備受":11749,"分流":11750,"占比":11751,"另一個":11752,"的相關":11753,"自稱":11754,"警示":11755,">)、<":11756,"署長":11757,"的感覺":11758,"肚子":11759,"可以看到":11760,"熱烈討論":11761,"以北":11762,"震驚":11763,"颱風":11764,"》、《":11765,"人確診":11766,"被打":11767,"部份":11768,"01":11769,"下台":11770,"罰鍰":11771,"食用":11772,"稅後純益":11773,"9年":11774,"中斷":11775,"季增":11776,"氣炸":11777,"訴訟":11778,"防空":11779,"在全球":11780,"廚房":11781,"有很多":11782,"類型":11783,"風景":11784,"傳遞":11785,"彈性":11786,"登錄":11787,"終止":11788,"自治":11789,"金牌":11790,"不要再":11791,"凸顯":11792,"精準":11793,"100萬":11794,"人事":11795,"承擔":11796,"被迫":11797,"雇主":11798,"預警":11799,"受到影響":11800,"中旬":11801,"又是":11802,"打氣":11803,"昏迷":11804,"股利":11805,"表情":11806,"02":11807,"將他":11808,"此案":11809,"特地":11810,"而不是":11811,"聯名":11812,"本土案例":11813,"以上的":11814,"公佈":11815,"為例":11816,"牛肉":11817,"玩具":11818,"的貼文":11819,"足球":11820,"其中有":11821,"氣候變遷":11822,"南下":11823,"福島":11824,"現在的":11825,"衛生單位":11826,"如有疑似症狀":11827,"下修":11828,"洋投":11829,"108":11830,"三天":11831,"更為":11832,"湧入":11833,"的安全":11834,"裁判":11835,"識別":11836,"5分":11837,"中火":11838,"商圈":11839,"防制":11840,"震撼":11841,"面上":11842,"網友在":11843,"火鍋":11844,"盡速":11845,"疫情爆發":11846,"專案小組":11847,"97":11848,"人為":11849,"個資":11850,"升至":11851,"揭露":11852,"轉移":11853,"過後":11854,"奇怪":11855,"幫派":11856,"曾有":11857,"當作":11858,"前夕":11859,"成效":11860,"打席":11861,"最重要":11862,"有時":11863,"球季":11864,"高中生":11865,"休旅車":11866,"三年":11867,"停在":11868,"心中":11869,"眼鏡":11870,"陌生":11871,"強勢":11872,"慘遭":11873,"要在":11874,"請勿":11875,"迎接":11876,"進入社區感染":11877,"彰化縣":11878,"入侵":11879,"新款":11880,"爆紅":11881,"競選":11882,"通路":11883,"半夜":11884,"日至":11885,"這對":11886,"更多東森新聞報導":11887,"公頃":11888,"小型":11889,"是以":11890,"集體":11891,"不易":11892,"報復":11893,"待釐清":11894,"更好的":11895,"樣的":11896,"訂定":11897,"雙語":11898,"甚至還":11899,"打了":11900,"技能":11901,"的消息":11902,"綠營":11903,"致死":11904,"雷達":11905,"怎麼辦":11906,"人選":11907,"俄國":11908,"入場":11909,"援助":11910,"首勝":11911,"180":11912,"台美":11913,"多達":11914,"新鮮":11915,"爆怨":11916,"物理":11917,"美味":11918,"隱形":11919,"11005":11920,"2個月":11921,"元的":11922,"探視":11923,"推進":11924,"終結":11925,"追平":11926,"傳產":11927,"其次":11928,"可怕":11929,"專門":11930,"緩解":11931,"考驗":11932,"頻頻":11933,"馬祖":11934,"今年的":11935,"公司的":11936,"提出的":11937,"公眾":11938,"日媒":11939,"酒測":11940,"上線":11941,"將與":11942,"展覽":11943,"徵才":11944,"找出":11945,"有了":11946,"比重":11947,"用電":11948,"睡眠":11949,"稍微":11950,"讓原":11951,"一周":11952,"利亞":11953,"大火":11954,"女學生":11955,"小的":11956,"拍到":11957,"上映":11958,"但因為":11959,"和其他":11960,"幅度":11961,"對上":11962,"早在":11963,"6名":11964,"發放":11965,"看出":11966,"維修":11967,"高風險":11968,"出戰":11969,"前方":11970,"大賽":11971,"拉警報":11972,"繳納":11973,"以為是":11974,"也已":11975,"出遊":11976,"後才":11977,"檢警":11978,"耳機":11979,"與人":11980,"公務員":11981,"公文":11982,"守住":11983,"縮短":11984,"都已經":11985,"住處":11986,"就可":11987,"找來":11988,"淨利":11989,"2015年":11990,"15日":11991,"一顆":11992,"不法":11993,"到來":11994,"商務":11995,"業界":11996,"用來":11997,"私下":11998,"聚焦":11999,"第二季":12000,"緊急事態":12001,"則在":12002,"勇敢":12003,"此戰":12004,"翻譯":12005,"過失":12006,"在臉書上":12007,"7萬":12008,"查核":12009,"聲請":12010,"買了":12011,"遊覽":12012,"睡覺":12013,"這份":12014,"部位":12015,"重量":12016,"死亡人數":12017,"第三級":12018,"回台":12019,"因疫情":12020,"就已經":12021,"時程":12022,"會上":12023,"有一個":12024,"比數":12025,"04":12026,"作家":12027,"全美":12028,"拍賣":12029,"正當":12030,"鐵路":12031,"確診案例":12032,"動能":12033,"各縣市":12034,"嚴防":12035,"女大生":12036,"庫存":12037,"西哥":12038,"貓咪":12039,"。」▲":12040,"沒有任何":12041,"旅遊泡泡":12042,">&":12043,">;":12044,"宣示":12045,"富豪":12046,"從未":12047,"旱象":12048,"求助":12049,"裁定":12050,"談話":12051,"特別是":12052,"冷凍":12053,"單一":12054,"學年":12055,"戰鬥":12056,"更大":12057,"未經":12058,"響應":12059,"麵包":12060,"所有人":12061,"中央流行疫情指揮中心今":12062,"監視器畫面":12063,"9點":12064,"@<":12065,"不合":12066,"動手":12067,"版權":12068,"點出":12069,"台灣是":12070,"交換":12071,"依規定":12072,"墨西哥":12073,"宣佈":12074,"將以":12075,"日後":12076,"贏得":12077,"表示自己":12078,"實際上":12079,">]":12080,"到現場":12081,"口感":12082,"德里":12083,"毫米":12084,"災害":12085,"發票":12086,"的需求":12087,"第7":12088,"認知":12089,"青少年":12090,"所謂的":12091,"6例":12092,"一件":12093,"樣子":12094,"求職":12095,"波及":12096,"飼主":12097,"700":12098,"中有":12099,"時段":12100,"會持續":12101,"檔案":12102,"的健康":12103,"註冊":12104,"電網":12105,"生活中心":12106,"高雄市長":12107,"不大":12108,"倫敦":12109,"出身":12110,"可達":12111,"契約":12112,"有時候":12113,"無力":12114,"確診的":12115,"日本土":12116,"經濟成長":12117,">()":12118,"也提到":12119,"夏天":12120,"嬰兒":12121,"搜救":12122,"文學":12123,"週年":12124,"額外":12125,"再來":12126,"完畢":12127,"效益":12128,"台灣大":12129,"」,「":12130,"乾旱":12131,"初期":12132,"在野":12133,"往往":12134,"新機":12135,"遭受":12136,"餐敘":12137,"一名男子":12138,"本土個案":12139,"台北市議員":12140,"公寓":12141,"原料":12142,"無線":12143,"日前在":12144,"獲報後":12145,"91":12146,"列居家隔離":12147,"實質":12148,"小客":12149,"放心":12150,"日宣布":12151,"金屬":12152,"40萬":12153,"封面圖":12154,"》(<":12155,"大氣":12156,"既然":12157,"相隔":12158,"缺席":12159,"行的":12160,"走向":12161,"群聚事件":12162,"這場比賽":12163,"孩童":12164,"深度":12165,"藍營":12166,"較去年同期":12167,"更多相關新聞":12168,"1局":12169,"客運":12170,"核定":12171,"下架":12172,"多年來":12173,"男星":12174,"盟友":12175,"行徑":12176,"安全的":12177,"不懂":12178,"到過":12179,"四大":12180,"尺寸":12181,"校友":12182,"求救":12183,"目前的":12184,"還有人":12185,"分子":12186,"家電":12187,"500元":12188,"外型":12189,"大爆發":12190,"復出":12191,"架構":12192,"要不要":12193,"車內":12194,"首例":12195,"影響力":12196,"說明會":12197,"優於":12198,"完善":12199,"有無":12200,"板橋":12201,"民族":12202,"船員":12203,"第2季":12204,"出道":12205,"北投":12206,"型態":12207,"感恩":12208,"搶先":12209,"福建":12210,"繳稅":12211,"職員":12212,"除此":12213,"未來的":12214,"一審":12215,"兼顧":12216,"力道":12217,"獨特":12218,"雨勢":12219,">+":12220,"中獎":12221,"交手":12222,"物料":12223,"班機":12224,"紅包":12225,"進展":12226,"陽春":12227,"不只是":12228,"人心":12229,"吃的":12230,"技巧":12231,"開玩笑":12232,"降至":12233,"一陣":12234,"如同":12235,"宣言":12236,"挑釁":12237,"會是":12238,"梅花":12239,"大盤":12240,"成的":12241,"日出現":12242,"豪宅":12243,"不少民眾":12244,"並依":12245,"他指出":12246,"抗爭":12247,"長官":12248,"顯著":12249,"所有的":12250,"代言":12251,"入口":12252,"副市長":12253,"撤銷":12254,"下方":12255,"中正":12256,"主力":12257,"吃緊":12258,"大師":12259,"成熟":12260,"日職":12261,"東北":12262,"比起":12263,"的那":12264,"的情形":12265,"腦死":12266,"偶像":12267,"台獨":12268,"感嘆":12269,"晉級":12270,"欣賞":12271,"殘骸":12272,"驗出":12273,"73":12274,"大甲":12275,"為由":12276,"相處":12277,"與其他":12278,"負面":12279,"71":12280,"來不及":12281,"子宮":12282,"導入":12283,"很久":12284,"性騷擾":12285,"是誰":12286,"瘋傳":12287,"血壓":12288,"短暫雨":12289,"刊登於":12290,"各校":12291,"溫馨":12292,"站上":12293,"讓網友":12294,"迎戰":12295,"陳情":12296,"一早":12297,"之中":12298,"來愈":12299,"有個":12300,"當成":12301,"關聯":12302,"傷者":12303,"專區":12304,"悲劇":12305,"時報":12306,"量體溫":12307,"驗證":12308,"認為是":12309,"18歲":12310,"中山":12311,"制定":12312,"度的":12313,"涵蓋":12314,"登板":12315,"賓士":12316,"10點":12317,"檢驗陰性":12318,"罹難者":12319,"原訂":12320,"眼淚":12321,"科系":12322,"跑到":12323,"長時間":12324,"一律":12325,"全市":12326,"困境":12327,"拿來":12328,"發佈":12329,"連接":12330,"低調":12331,"台語":12332,"愈來愈":12333,"憲法":12334,"成人":12335,"或0800":12336,"領航":12337,"遊覽車":12338,"』,":12339,"代工":12340,"參議員":12341,"國的":12342,"宮廟":12343,"過量":12344,"也指出":12345,"全隊":12346,"場地":12347,"滑手機":12348,"賣超":12349,"通車":12350,"我們會":12351,"造成的":12352,"必須要":12353,"一段時間":12354,"的重要性":12355,"是我":12356,"棒球場":12357,"輔助":12358,"不實":12359,"可說是":12360,"大三":12361,"打到":12362,"最美":12363,"漲停":12364,"獎項":12365,"盤查":12366,"親王":12367,"身穿":12368,"邊緣":12369,"17日":12370,"打臉":12371,"月薪":12372,"漁船":12373,"班牙":12374,"說的":12375,"販毒":12376,"返家":12377,"選秀":12378,"無論是":12379,"不變":12380,"大消毒":12381,"捕手":12382,"西蘭":12383,"西班牙":12384,"高峰":12385,"如果有":12386,"資格賽":12387,"大方":12388,"大關":12389,"擴張":12390,"政權":12391,"犯嫌":12392,"貨機":12393,"賣壓":12394,"骨折":12395,"5個":12396,"81":12397,"93":12398,"中常":12399,"治理":12400,"連任":12401,"長榮":12402,"疫情持續":12403,"一對":12404,"廣泛":12405,"歷程":12406,"祈福":12407,"總整理":12408,"花費":12409,"請求":12410,"謹慎":12411,"鄉民":12412,"3局":12413,"下場":12414,"對應":12415,"手上":12416,"挹注":12417,"期貨":12418,"酒後":12419,"13例":12420,"領導人":12421,"動線":12422,"十大":12423,"太平":12424,"店內":12425,"極端":12426,"用途":12427,"荷蘭":12428,"華航":12429,"那邊":12430,"沒有人":12431,"1922專線":12432,"上台":12433,"加護":12434,"場面":12435,"失聯":12436,"藝文":12437,"讀者":12438,"除此之外":12439,"上壘":12440,"房市":12441,"的經驗":12442,"紐西蘭":12443,"黑幫":12444,"出來的":12445,"每股純益":12446,"停業":12447,"千人":12448,"大運":12449,"大學生":12450,"平權":12451,"暫緩":12452,"譯者":12453,"途中":12454,"都將":12455,"更多的":12456,"5月底":12457,"中繼":12458,"剛剛":12459,"增強":12460,"審慎":12461,"左投":12462,"座談":12463,"推測":12464,"東奧":12465,"爆廢":12466,"舒適":12467,"這類":12468,"傳染病":12469,"不便":12470,"不讓":12471,"專注":12472,"志願":12473,"排黑":12474,"有一些":12475,"啦啦":12476,"水源":12477,"真是":12478,"連線":12479,"大人":12480,"智能":12481,"提供的":12482,"第一名":12483,"9人":12484,"太過":12485,"從來":12486,"查緝":12487,"洗衣":12488,"盈餘":12489,"請辭":12490,"自己在":12491,"4000":12492,"不行":12493,"獲授權轉載":12494,"駐印度":12495,"20分":12496,"休閒":12497,"收購":12498,"燃燒":12499,"訊號":12500,"迎來":12501,"警方表示":12502,"合作媒體":12503,"。》":12504,"【<":12505,"不利":12506,"也強調":12507,"保全":12508,"加密":12509,"演講":12510,"監獄":12511,"落差":12512,"4點":12513,"抵制":12514,"招募":12515,"支撐":12516,"甜點":12517,"萬噸":12518,"頻繁":12519,"警方調查":12520,"一一":12521,"失業":12522,"層級":12523,"德州":12524,"撤離":12525,"為期":12526,"總監":12527,"號召":12528,"被發現":12529,"原文刊登於":12530,"原文刊登於合作媒體":12531,"上個月":12532,"不上":12533,"偷渡":12534,"命令":12535,"損害":12536,"的車":12537,"都已":12538,"也可能":12539,"嚇得":12540,"行情":12541,"補習":12542,"外電":12543,"煞車":12544,"還是會":12545,">.)":12546,"上門":12547,"加劇":12548,"勒斯坦":12549,"媳婦":12550,"巴勒斯坦":12551,"台灣時間":12552,"回應了":12553,"一再":12554,"伴侶":12555,"充足":12556,"名人":12557,"戶數":12558,"確幸":12559,"語音":12560,"20日":12561,"5折起":12562,"嚇到":12563,"的政治":12564,"補貼":12565,"觸控":12566,"目前已經":12567,"聯合聲明":12568,"://":12569,"供水":12570,"多處":12571,"王子":12572,"的能力":12573,"直擊":12574,"重傷":12575,"聯合新聞網":12576,"呼吸道":12577,"例行賽":12578,"」「":12579,"二十":12580,"前會長":12581,"大聲":12582,"深受":12583,"清空":12584,"與美國":12585,"進到":12586,"鬆懈":12587,"一群":12588,"假期":12589,"對他":12590,"對待":12591,"林口":12592,"華裔":12593,"販賣":12594,"跌破":12595,"2022年":12596,"核酸檢測":12597,"上次":12598,"亮相":12599,"動機":12600,"失望":12601,"奪冠":12602,"女人":12603,"奶奶":12604,"提問":12605,"美金":12606,"青春":12607,"消防局":12608,"主嫌":12609,"拆除":12610,"海底":12611,"稅率":12612,"遊樂":12613,"遠離":12614,"還被":12615,"雙邊":12616,"面向":12617,"loc4":12618,"口角":12619,"場景":12620,"的聲音":12621,"私立":12622,"稱讚":12623,"請問":12624,"轉換":12625,"發展的":12626,"倒數":12627,"地面":12628,"華人":12629,"送餐":12630,"重摔":12631,"關節":12632,"頭髮":12633,">..":12634,"克力":12635,"制止":12636,"安裝":12637,"新興":12638,"視覺":12639,"情況下":12640,"衛生紙":12641,"電視台":12642,"科學家":12643,"演藝圈":12644,"受理":12645,"往前":12646,"成分":12647,"攀升":12648,"更高":12649,"水氣":12650,"監管":12651,"處罰":12652,"印尼籍":12653,"4大":12654,"一台":12655,"加班":12656,"她表示":12657,"引進":12658,"更換":12659,"減輕":12660,"討厭":12661,"10人":12662,"160":12663,"屏東縣":12664,"一日":12665,"加工":12666,"受邀":12667,"外帶":12668,"心裡":12669,"招牌":12670,"融入":12671,"1元":12672,"。◎":12673,"也因為":12674,"先是":12675,"到處":12676,"厲害":12677,"未料":12678,"汙染":12679,"生氣":12680,"重複":12681,"今年3月":12682,"最高的":12683,"也成為":12684,"在大":12685,"學術":12686,"景氣":12687,"珍惜":12688,"40歲":12689,"6個月":12690,"一整":12691,"內政":12692,"女方":12693,"就曾":12694,"戰術":12695,"服飾":12696,"見狀":12697,"達人":12698,"駭客":12699,"16例本土":12700,"一舉":12701,"博物":12702,"改造":12703,"放鬆":12704,"清水":12705,"炎熱":12706,"獲選":12707,"講話":12708,"轉播":12709,"配備":12710,"無人機":12711,"外電報導":12712,"判處":12713,"小確幸":12714,"居檢":12715,"服役":12716,"潛在":12717,"為題":12718,"立院":12719,"進來":12720,"除非":12721,"隧道":12722,"去年底":12723,"畢業生":12724,"5成":12725,"9時":12726,"原物料":12727,"找回":12728,"拍板":12729,"收容":12730,"時事":12731,"比率":12732,"滅火":12733,"登陸":12734,"配置":12735,"關卡":12736,"零售":12737,"經濟學":12738,"享有":12739,"災難":12740,"花東":12741,"要去":12742,"發生一起":12743,"附近的":12744,"亮點":12745,"偽造":12746,"自信":12747,"補償":12748,"送給":12749,"難得":12750,"per14":12751,"儲存":12752,"劈腿":12753,"就怕":12754,"無罪":12755,"黃色":12756,"二審":12757,"場先發":12758,"存款":12759,"早盤":12760,"水位":12761,"藥品":12762,"重回":12763,"org13":12764,"不明感染源":12765,"執政黨":12766,"圖書館":12767,"。《":12768,"入選":12769,"吞下":12770,"姓名":12771,"對比":12772,"巫師":12773,"復健":12774,"開轟":12775,"25年":12776,"南投縣":12777,"命中率":12778,"出色":12779,"參觀":12780,"給付":12781,"群眾":12782,"如果是":12783,"另一方面":12784,"及接觸史":12785,"國文":12786,"外線":12787,"平日":12788,"自從":12789,"葡萄":12790,"3時":12791,"並與":12792,"冷靜":12793,"我在":12794,"西半部":12795,"該校":12796,"這回":12797,"運送":12798,"銷量":12799,"隱藏":12800,"30歲":12801,"帶來的":12802,"一共":12803,"但現在":12804,"偵測":12805,"再見":12806,"名稱":12807,"子彈":12808,"它的":12809,"我不":12810,"指責":12811,"無症狀":12812,"租金":12813,"高等":12814,"網友紛紛":12815,"大流行":12816,"得很":12817,"效應":12818,"輩子":12819,"頭的":12820,"日報報導":12821,"動畫":12822,"地圖":12823,"夫婦":12824,"慢性":12825,"毆打":12826,"福原":12827,"主辦單位":12828,"傳聞":12829,"商家":12830,"後發現":12831,"查證":12832,"滿壘":12833,"獨自":12834,"這時":12835,"不分":12836,"吸收":12837,"所在":12838,"播放":12839,"走勢":12840,"門診":12841,"隔板":12842,"保護力":12843,"興達電廠":12844,"冰箱":12845,"單日本土":12846,"好了":12847,"好轉":12848,"引導":12849,"怎樣":12850,"描述":12851,"果然":12852,"氧化":12853,"碰到":12854,"穿上":12855,"議長":12856,"轄區":12857,"體操":12858,")▲":12859,">'":12860,"剩下":12861,"衝撞":12862,"軍隊":12863,"還得":12864,"開學":12865,"影片中":12866,"案1153":12867,"機器人":12868,"]▲<":12869,"天天":12870,"會讓":12871,"校慶":12872,"獲准":12873,"網上":12874,"贊助":12875,"遲遲":12876,"台灣在":12877,"可以在":12878,"桃園市長":12879,"動物園":12880,"消防員":12881,"變異株":12882,"不動產":12883,"也不是":12884,"出一":12885,"勤務":12886,"各個":12887,"名譽":12888,"有感":12889,"較高":12890,"國內疫情":12891,"梅雨季":12892,"2時":12893,"不已":12894,"大增":12895,"大獎":12896,"少了":12897,"毀損":12898,"的畫面":12899,"看似":12900,"這張":12901,"集會活動":12902,"匯流新聞網":12903,"之子":12904,"引爆":12905,"拉開":12906,"指稱":12907,"有1":12908,"模糊":12909,"球衣":12910,"科目":12911,"退役":12912,"--":12913,"保單":12914,"婚後":12915,"屋主":12916,"擦撞":12917,"清消":12918,"燃料":12919,"燈號":12920,"親密":12921,"設有":12922,"駐日":12923,"2024":12924,"10時":12925,"任內":12926,"回顧":12927,"就開始":12928,"朝野":12929,"流傳":12930,"的中國":12931,"案1129":12932,"不應該":12933,"各方":12934,"指引":12935,"縮小":12936,"舉例":12937,"調度":12938,"不會有":12939,"機師確診":12940,"博物館":12941,"他強調":12942,"任職":12943,"元素":12944,"大門":12945,"幾個月":12946,"浴佛":12947,"熱心":12948,"生存":12949,"群體":12950,"請見":12951,"車頭":12952,"類的":12953,"19日":12954,"綜合外電報導":12955,"足跡總整理":12956,"詐騙集團":12957,"人工智慧":12958,"吃到飽":12959,"領航猿":12960,"定義":12961,"我嚴防":12962,"打球":12963,"是最":12964,"派系":12965,"浪漫":12966,":「(":12967,"啦啦隊":12968,"一面":12969,"印地":12970,"很少":12971,"我都":12972,"本文":12973,"橡皮":12974,"熱愛":12975,"示警":12976,"自助":12977,"警力":12978,"走出":12979,"還是有":12980,"看這裡":12981,"受訪時表示":12982,"07":12983,"受損":12984,"施政":12985,"期許":12986,"物質":12987,"等相關":12988,"蒐集":12989,"要把":12990,"走到":12991,"隨便":12992,"難免":12993,"一名女網友":12994,"富邦悍將":12995,"不穩定":12996,"侵犯":12997,"停水":12998,"備戰":12999,"勝投":13000,"旅宿":13001,"洗澡":13002,"病床":13003,"第六":13004,"過於":13005,"競爭力":13006,"茶藝館群聚案":13007,"內心":13008,"汽油":13009,"津貼":13010,"非裔":13011,"加護病房":13012,"是很":13013,"每位":13014,"每週":13015,"生育率":13016,"上了":13017,"但目前":13018,"寫著":13019,"射擊":13020,"專欄":13021,"拜託":13022,"有2":13023,"模組":13024,"火燒":13025,"用心":13026,"船隻":13027,"不清楚":13028,"這次的":13029,"舉行的":13030,"也宣布":13031,"四個":13032,"東區":13033,"氛圍":13034,"的第一":13035,"被敲":13036,"返國":13037,">」、「":13038,"下半":13039,"不舒服":13040,"到醫院":13041,"復興":13042,"拉斯":13043,"搶修":13044,"最愛":13045,"激增":13046,"火災":13047,"熱量":13048,"市場的":13049,"運動會":13050,"供應商":13051,"常見的":13052,"不堪":13053,"人包":13054,"各位":13055,"往來":13056,"機密":13057,"西區":13058,"基因定序":13059,"嬌生疫苗":13060,"全廠":13061,"另一名":13062,"投訴":13063,"茶室":13064,"見證":13065,"雷雨":13066,"更多世界":13067,"合作的":13068,"成交量":13069,"上架":13070,"就以":13071,"未滿":13072,"的手":13073,"追問":13074,"未來將":13075,"長照機構":13076,"福原愛":13077,"侵害":13078,"夜間":13079,"強力":13080,"的特":13081,"聲量":13082,"運動員":13083,"300萬":13084,"更多世界日報報導":13085,"主導":13086,"之處":13087,"例境外移入":13088,"喉嚨":13089,"最危險":13090,"理論":13091,"綠能":13092,"賽車":13093,"軍艦":13094,"提高警覺":13095,"巧克力":13096,"我愛":13097,"試題":13098,"暫停營業":13099,"我嚴防新冠肺炎":13100,"合一":13101,"婚宴":13102,"心疼":13103,"機型":13104,"檢出":13105,"牛棚":13106,"腳步":13107,"當時的":13108,"場館":13109,"干擾":13110,"憤怒":13111,"探病":13112,"播出":13113,"百科":13114,"評價":13115,"跟他":13116,"限水":13117,"已經在":13118,"萬華區":13119,"印地安":13120,"去做":13121,"懲處":13122,"熱鬧":13123,"獅隊":13124,"調漲":13125,"首戰":13126,",《":13127,"主打":13128,"傳承":13129,"將來":13130,"小吃":13131,"或其他":13132,"搶1":13133,"給你":13134,"落網":13135,"陽明":13136,"難過":13137,"國際組織":13138,"智慧型":13139,"2公社":13140,"加快":13141,"加重":13142,"獲獎":13143,"的發展":13144,"直指":13145,"相似":13146,"行列":13147,"買賣":13148,"這間":13149,"還需要":13150,"唱歌":13151,"廟方":13152,"強大":13153,"的美國":13154,"阿姨":13155,"媒體人":13156,"老實說":13157,"之所以":13158,"在日本":13159,"心跳":13160,"軍機":13161,"過敏":13162,"更多人":13163,"社群媒體":13164,"一連":13165,"但我":13166,"保守":13167,"十足":13168,"周遭":13169,"國立":13170,"均為":13171,"市區":13172,"幕後":13173,"得點":13174,"燃氣":13175,"的過程":13176,"號誌":13177,"買超":13178,"連帶":13179,"。」「":13180,"因為疫情":13181,"影響到":13182,"最新的":13183,"警察局":13184,"這段時間":13185,"已被":13186,"有錢":13187,"管控":13188,"輿論":13189,"10分":13190,"排行榜":13191,"已達":13192,"案的":13193,"督導":13194,"聲援":13195,"爆怨2公社":13196,"內野":13197,"尼亞":13198,"已是":13199,"轉向":13200,"遼寧":13201,"孩子們":13202,"##":13203,"先後":13204,"勢必":13205,"在哪":13206,"孕婦":13207,"強迫":13208,"牛奶":13209,"的故事":13210,"硬體":13211,"能讓":13212,"南港":13213,"可透過":13214,"帛琉":13215,"被視為":13216,"要讓":13217,"學生的":13218,"也許":13219,"傳奇":13220,"囂張":13221,"掉了":13222,"救治":13223,"武裝":13224,"穿越":13225,"老舊":13226,"運算":13227,"領取":13228,"首席":13229,"分區輪流停電":13230,"1天":13231,"全大運":13232,"前一天":13233,"包機":13234,"情事":13235,"我方":13236,"轉為":13237,"40分":13238,"政治人物":13239,"鋒面通過":13240,"連環爆":13241,"實務":13242,"小弟":13243,"新任":13244,"核電廠":13245,"西瓜":13246,"119":13247,"分享的貼文":13248,"修正草案":13249,"聯合新聞網獲授權轉載":13250,"久的":13251,"沒事":13252,"在台北":13253,"地上":13254,"場合":13255,"屍體":13256,"心態":13257,"提議":13258,"每一":13259,"的一個":13260,"蔬菜":13261,"變電":13262,"這不是":13263,"可能有":13264,"一中":13265,"上月":13266,"出院":13267,"同行":13268,"帶給":13269,"截圖":13270,"產學":13271,"融資":13272,"超前部署":13273,"中崙":13274,"也對":13275,"交接":13276,"公職":13277,"在這個":13278,"大礙":13279,"學會":13280,"搖頭":13281,"羽球":13282,"講座":13283,"5點":13284,"7例本土":13285,"不確定":13286,"交保":13287,"但有":13288,"劇情":13289,"手中":13290,"核稿":13291,"淡水":13292,"激勵":13293,"的媽媽":13294,"釣出":13295,"點此":13296,"1500":13297,"兆元":13298,"可在":13299,"喪命":13300,"姊妹":13301,"換上":13302,"新創":13303,"日益":13304,"某些":13305,"法令":13306,"關說":13307,"雙雙":13308,"數據顯示":13309,"密碼":13310,"會面":13311,"級的":13312,"檢疫期滿":13313,"1小時":13314,"不去":13315,"兩種":13316,"奈米":13317,"審核":13318,"無出國":13319,"牛排":13320,"舞蹈":13321,"藍綠":13322,"輸出":13323,"適時":13324,"網友紛紛留言":13325,"發表聲明":13326,"全廠停機":13327,"也呼籲":13328,"代價":13329,"又被":13330,"單月":13331,"多樣":13332,"永和":13333,"育兒":13334,"詭異":13335,"雙城":13336,"駁回":13337,"高檔":13338,"19歲":13339,"上去":13340,"也相當":13341,"堪稱":13342,"投書":13343,"抱歉":13344,"讓我們":13345,"這家":13346,"美國輝瑞":13347,"今天宣布":13348,"萬元的":13349,"士頓":13350,"密集":13351,"持股":13352,"理賠":13353,"眉角":13354,"神秘":13355,"聚餐":13356,"解析":13357,"註明":13358,"北市府":13359,"基隆市":13360,"8成":13361,"主投":13362,"單車":13363,"快艇":13364,"網頁":13365,"中國政府":13366,">、、":13367,"申請納入":13368,"這麼多":13369,"老闆娘":13370,"公務人員":13371,"移送法辦":13372,"天然氣":13373,"!(":13374,"2樓":13375,"九二":13376,"判定":13377,"媽咪":13378,"客場":13379,"早日":13380,"校院":13381,"波疫情":13382,"減肥":13383,"論文":13384,"這也":13385,"錦標":13386,"接受媒體":13387,"負責任":13388,"必要的":13389,"人流":13390,"假訊息":13391,"工資":13392,"收益":13393,"滅證":13394,"瓦斯":13395,"產量":13396,"若要":13397,"請假":13398,"7名":13399,"下一個":13400,"不敵":13401,"入海":13402,"學子":13403,"層樓":13404,"憲兵":13405,"打卡":13406,"的角色":13407,"簽訂":13408,"目前在":13409,"確診人數":13410,"第一階段":13411,"持續疫情監測與邊境管制措施":13412,"希望大家":13413,"公開賽":13414,"追蹤報導":13415,"信義":13416,"的球員":13417,"雙手":13418,"風傳媒":13419,"20歲":13420,"苗栗縣":13421,"雲林縣":13422,"房屋稅":13423,"7成":13424,"一款":13425,"巨人":13426,"帶有":13427,"心聲":13428,"授課":13429,"時任":13430,"網絡":13431,"趁著":13432,"預報":13433,"資料顯示":13434,"設計的":13435,"梅花座":13436,"6點":13437,"奪下":13438,"應考":13439,"法說":13440,"石門":13441,"萬劑":13442,"說出":13443,"釋放":13444,"年齡下修":13445,"一句":13446,"不願意":13447,"供給":13448,"北上":13449,"大隊":13450,"宛如":13451,"廟宇":13452,"強度":13453,"擬申請納入":13454,"送出":13455,"遊艇":13456,"更多新聞":13457,"發生的":13458,"根本是":13459,"下次":13460,"乾脆":13461,"他就":13462,"大喊":13463,"很重要":13464,"時光":13465,"殺害":13466,"氣得":13467,"深化":13468,"適應":13469,"覺得很":13470,"國中會考":13471,"。★":13472,"則為":13473,"多家":13474,"廣大":13475,"恐懼":13476,"提起":13477,"看得":13478,"萬美元":13479,"走了":13480,"通風":13481,"陣營":13482,"健康監測":13483,"250":13484,"__":13485,"信徒":13486,"奶茶":13487,"建商":13488,"忘了":13489,"承受":13490,"救災":13491,"本案":13492,"無緣":13493,"男方":13494,"百家":13495,"的合作":13496,"都去過":13497,"已經是":13498,"新型冠狀病毒":13499,"停留":13500,"傾向":13501,"懶人包":13502,"新一代":13503,"率領":13504,"辦事":13505,"這幾天":13506,"金山":13507,"更多追蹤報導":13508,"相當於":13509,"完全沒有":13510,"解決問題":13511,"再增13例":13512,"橡皮艇":13513,"擬申請納入緊急狀態":13514,"8時":13515,"參訪":13516,"學期":13517,"脂肪":13518,"致歉":13519,"近距離":13520,"10天":13521,"不同意":13522,"疫苗接種年齡下修":13523,"109年":13524,"廢棄物":13525,"4局":13526,"三讀":13527,"供稱":13528,"四月":13529,"按讚":13530,"接收":13531,"武力":13532,"漢堡":13533,"激動":13534,"的內容":13535,"考題":13536,"追究":13537,"銀河":13538,"18日":13539,"確定病例":13540,"有助於":13541,"單日本土再增13例":13542,"茶藝館群聚案都去過":13543,"茶藝館群聚案都去過哪":13544,"如期":13545,"果粉":13546,"被警方":13547,"許多民眾":13548,"不符":13549,"也紛紛":13550,"再創":13551,"大哥":13552,"委會":13553,"少子":13554,"歷年":13555,"盤點":13556,"碰上":13557,"碰撞":13558,"配件":13559,"感染風險":13560,"有些人":13561,"中央流行疫情指揮中心指揮官":13562,"加油站":13563,"宣告不治":13564,"北海道擬申請納入緊急狀態":13565,"再起":13566,"刑法":13567,"多月":13568,"服裝":13569,"減煤":13570,"的設計":13571,"禁令":13572,"股權":13573,"臉部":13574,">》<":13575,"恢復供電":13576,"消防人員":13577,"社群平台":13578,"倒地":13579,"別再":13580,"安置":13581,"將其":13582,"我認為":13583,"碼頭":13584,"秉持":13585,"羨慕":13586,"轉變":13587,"里程":13588,"錄音":13589,"照片中":13590,"季節":13591,"有3":13592,"混亂":13593,"爺爺":13594,"笑稱":13595,"研究員":13596,"6分":13597,"7點":13598,"不下去":13599,"往返":13600,"從去年":13601,"有4":13602,"案情":13603,"構成":13604,"的環境":13605,"買到":13606,"鑑定":13607,"總統府":13608,"一直在":13609,"檢驗中":13610,"錦標賽":13611,"1點":13612,"交付":13613,"流量":13614,"發炎":13615,"的位置":13616,"部桃":13617,"」。▲<":13618,"確診機師":13619,"真正的":13620,"2億":13621,"依賴":13622,"名嘴":13623,"在內的":13624,"大膽":13625,"妥善":13626,"放大":13627,"游擊":13628,"病情":13629,"等罪":13630,"自殺":13631,"跑者":13632,"跑道":13633,"雙重":13634,"10萬元":13635,"上班族":13636,"匡列接觸者":13637,"娛樂中心":13638,"休假":13639,"兩棲":13640,"回頭":13641,"娃娃":13642,"綜藝":13643,"罷工":13644,"脫困":13645,">」(<":13646,"不捨":13647,"主流":13648,"就這樣":13649,"強的":13650,"彷彿":13651,"折扣":13652,"滾地球":13653,"等問題":13654,"自小客":13655,"通行":13656,"選出":13657,"金錢":13658,"陣容":13659,"防疫規定":13660,"相關報導":13661,"世界上":13662,"藝術家":13663,"知情人士":13664,"二級":13665,"個股":13666,"在他":13667,"大道":13668,"幹嘛":13669,"明日":13670,"的三":13671,"空污":13672,"200元":13673,"化解":13674,"天量":13675,"學員":13676,"已掌握":13677,"很容易":13678,"打壓":13679,"活躍":13680,"的母親":13681,"輪限電":13682,"2013年":13683,"民眾的":13684,"。▲▼":13685,"甚至是":13686,"9元":13687,"不像":13688,"展出":13689,"抓到":13690,"更能":13691,"的方法":13692,"結局":13693,"媽媽的":13694,"比較好":13695,"件事情":13696,"已完成":13697,"想說":13698,"手指":13699,"接手":13700,"發送":13701,"維吾":13702,"網址":13703,"財富":13704,"嘉義市":13705,"檢驗陰性報告":13706,"人次":13707,"場均":13708,"如下":13709,"局面":13710,"年初":13711,"攻城":13712,"暴動":13713,"曾於":13714,"櫃檯":13715,"研擬":13716,"第8":13717,"管線":13718,"美式":13719,"能見":13720,"指揮中心指出":13721,"越來越多":13722,"美國輝瑞疫苗接種年齡下修":13723,"九二共識":13724,"維吾爾":13725,"不出來":13726,"信眾":13727,"台新":13728,"張貼":13729,"戴好":13730,"收藏":13731,"會計":13732,"現今":13733,"的政策":13734,"的主要":13735,"要注意":13736,"長征":13737,"降到":13738,"198":13739,"%,<":13740,"全文":13741,"公升":13742,"火車站":13743,"獨行":13744,"的3":13745,"都不會":13746,"驚呆":13747,"注意到":13748,"1萬元":13749,"?」,":13750,"並要求":13751,"前面":13752,"精進":13753,"而來":13754,"肆虐":13755,"進行採檢":13756,"大家一起":13757,"雞排妹":13758,"2位":13759,"一支":13760,"好消息":13761,"年薪":13762,"接任":13763,"的說":13764,"老鼠":13765,"更多新聞推薦":13766,"克服":13767,"匯率":13768,"大考":13769,"女士":13770,"振興":13771,"每周":13772,"的國際":13773,"簽下":13774,"聯網":13775,"送上":13776,"霸氣":13777,"第二次":13778,"聯合品牌":13779,"大三元":13780,"下秒":13781,"做得":13782,"墜落":13783,"我有":13784,"持刀":13785,"標籤":13786,"流浪":13787,"的決定":13788,"的責任":13789,"終身":13790,"號的":13791,"解讀":13792,"變更":13793,"零件":13794,"30分鐘":13795,"90元":13796,"太空站":13797,"3日內":13798,"駐印度代表處":13799,"印地安人":13800,"2大":13801,"一系列":13802,"作出":13803,"佳績":13804,"嚴謹":13805,"外面":13806,"天后":13807,"幕僚":13808,"有不少":13809,"的中":13810,"高點":13811,"鮭魚":13812,"受訪表示":13813,"應用程式":13814,"記憶體":13815,"6搶1":13816,"交由":13817,"份子":13818,"圖為":13819,"常態":13820,"後悔":13821,"日到":13822,"警界":13823,"113":13824,"採檢結果":13825,"陽春砲":13826,"請見諒":13827,"上看":13828,"並由":13829,"屋內":13830,"強硬":13831,"彩券":13832,"手部":13833,"新娘":13834,"死刑":13835,"的天氣":13836,"美豬":13837,"肢體":13838,"艦隊":13839,"視角":13840,"跌倒":13841,"輕微":13842,"勒索":13843,"明白":13844,"有問題":13845,"海岸":13846,"清理":13847,"的疫情":13848,"自製":13849,"臺北":13850,"貨物":13851,"面前":13852,"指揮中心指揮官":13853,"相較於":13854,"來做":13855,"則以":13856,"南非":13857,"巴黎":13858,"扣除":13859,"朝天宮":13860,"瑞士":13861,"的男子":13862,"逼近":13863,"錯過":13864,"疫情的":13865,"預計在":13866,"時代力量":13867,"上任後":13868,"不定":13869,"偷拍":13870,"優化":13871,"大於":13872,"捕捉":13873,"榮獲":13874,"眼神":13875,"防疫工作":13876,"外交部":13877,"音樂會":13878,"必要時":13879,"的孩子":13880,"睽違":13881,"笑容":13882,"緊密":13883,"跨國":13884,"闖紅燈":13885,"實驗室":13886,"野生動物":13887,">《":13888,"並強調":13889,"區間":13890,"卻沒有":13891,"卻發現":13892,"場次":13893,"就沒有":13894,"建構":13895,"我很":13896,"流出":13897,"熱潮":13898,"現狀":13899,"甜蜜":13900,"綠燈":13901,"總量":13902,"裁罰":13903,"遇上":13904,"進行消毒":13905,"為了讓":13906,"任何人":13907,"在野黨":13908,"4成":13909,"9萬":13910,"又要":13911,"周末":13912,"將從":13913,"待遇":13914,"改成":13915,"比對":13916,"無安打":13917,"不適症狀":13918,"也提醒":13919,"涉毒":13920,"臨檢":13921,"辣椒":13922,"還可":13923,"首波":13924,"per15":13925,"12人":13926,"其他地區":13927,"另一半":13928,"原來是":13929,"6成":13930,"一生":13931,"乖乖":13932,"傳真":13933,"在印度":13934,"的網友":13935,"經由":13936,"航母":13937,"重的":13938,"今年2月":13939,"原本的":13940,"能見度":13941,"地理":13942,"大力":13943,"天母":13944,"官媒":13945,"打工":13946,"探討":13947,"查出":13948,"石頭":13949,"碩士":13950,"示範":13951,"簡直":13952,"重心":13953,"確診者足跡":13954,"中時新聞網":13955,">?":13956,"保健":13957,"共和":13958,"出處":13959,"反覆":13960,"增設":13961,"天下":13962,"機種":13963,"甜美":13964,"的努力":13965,"該如何":13966,"通話":13967,"近期無出國":13968,"太陽能":13969,"健保卡":13970,"2度":13971,"2小時":13972,"不時":13973,"人人":13974,"在推特":13975,"巡迴":13976,"思維":13977,"格局":13978,"海鮮":13979,"港口":13980,"珍貴":13981,"翻轉":13982,"角落":13983,"請點此":13984,"目前正在":13985,"傳說":13986,"夏季":13987,"寶貝":13988,"理財":13989,"瑞典":13990,"生理":13991,"約為":13992,"警訊":13993,"買的":13994,"開刀":13995,"電源":13996,"疫情期間":13997,"民眾說":13998,"輕鬆報稅":13999,"阿公店":14000,"緊急事態宣言":14001,"06":14002,"信託":14003,"報考":14004,"師傅":14005,"帶頭":14006,"魅力":14007,"]《":14008,"光電":14009,"右外野":14010,"式的":14011,"源頭":14012,"火速":14013,"的兒子":14014,"目睹":14015,"節奏":14016,"總體":14017,"跳機":14018,"開門":14019,"10億":14020,"今天的":14021,"活動的":14022,"運動影音":14023,"製造業":14024,"全明星":14025,"姓教練":14026,"心動":14027,"手臂":14028,"田徑":14029,"聰明":14030,"超標":14031,"選票":14032,"全球疫情":14033,"精彩運動影音":14034,"獨行俠":14035,"03":14036,"09":14037,"依序":14038,"傳達":14039,"劇中":14040,"募款":14041,"原定":14042,"情感":14043,"截止":14044,"此前":14045,"破裂":14046,"蓄水":14047,"財運":14048,"體制":14049,"今年1月":14050,"持續加強":14051,"外媒報導":14052,"停工":14053,"公噸":14054,"國營":14055,"投保":14056,"產檢":14057,"的同時":14058,"起飛":14059,"趨緩":14060,"台灣旅行":14061,"其中包括":14062,"擴大採檢":14063,"6個":14064,"一級":14065,"上岸":14066,"兩者":14067,"前3日內":14068,"嚴正":14069,"大谷":14070,"車廠":14071,"希望透過":14072,"發布的":14073,");":14074,"5萬元":14075,"上半場":14076,"不開放":14077,"公然":14078,"創立":14079,"外洩":14080,"帶走":14081,"情人":14082,"日舉行":14083,"未成年":14084,"票房":14085,"貼心":14086,"飼養":14087,"體內":14088,"org14":14089,"個人申請":14090,"2008年":14091,"4天":14092,"也特別":14093,"刷新":14094,"媒合":14095,"客家":14096,"對著":14097,"抗旱":14098,"更重要":14099,"槍枝":14100,"無預警":14101,"紅襪":14102,"自來":14103,"工作者":14104,"就醫採檢":14105,"評委召集人":14106,"兩度":14107,"壟斷":14108,"得獎":14109,"新建":14110,"結論":14111,"美髮":14112,"至醫院":14113,"難怪":14114,"自己也":14115,"19疫苗":14116,"發現有":14117,"關鍵字":14118,"再生能源":14119,"8名":14120,"不高":14121,"六都":14122,"實境":14123,"撞到":14124,"擺脫":14125,"方公尺":14126,"最有":14127,"漸漸":14128,"落地":14129,"行人":14130,"車用":14131,"選戰":14132,"驅離":14133,"時間點":14134,"所有眉角":14135,"中部以北":14136,"意味著":14137,"新制小確幸":14138,"滑手機輕鬆報稅":14139,"所有眉角看這裡":14140,"中止":14141,"的產品":14142,"祈求":14143,"首場":14144,"提升至":14145,"補習班":14146,"不完":14147,"例外":14148,"僅剩":14149,"樂團":14150,"步道":14151,"男的":14152,"砲轟":14153,"第七":14154,"遺產":14155,"和平穩定":14156,"日常生活":14157,"匯流排":14158,"下水":14159,"不代表":14160,"分布":14161,"控訴":14162,"收治":14163,"曾與":14164,"會將":14165,"白沙":14166,"素養":14167,"西門":14168,"輪胎":14169,"大使館":14170,"二壘安打":14171,"攻城獅":14172,"5億":14173,"6000":14174,"主演":14175,"家園":14176,"對策":14177,"應援":14178,"戰場":14179,"拓展":14180,"殖利率":14181,"的女":14182,"盡力":14183,"訪台":14184,"陽台":14185,"過去的":14186,"解決方案":14187,"少子化":14188,"半小時":14189,"地址":14190,"潛水":14191,"的立場":14192,"著手":14193,"128":14194,"紀錄片":14195,"持有搭機":14196,"前3日內檢驗陰性報告":14197,"他還":14198,"副院長":14199,"天數":14200,"照曝光":14201,"爵士":14202,"生技":14203,"足以":14204,"顯得":14205,"美國人":14206,"這些人":14207,"台灣旅行趣":14208,"內幕":14209,"本屆":14210,"材質":14211,"猜測":14212,"種種":14213,"給了":14214,"表決":14215,"評審":14216,"贊成":14217,"相關規定":14218,"指揮中心提供":14219,"準備好":14220,"是一種":14221,"三人":14222,"八卦":14223,"在國際":14224,"堅決":14225,"外包商":14226,"教訓":14227,"機身":14228,"的精神":14229,"色彩":14230,"討債":14231,"龍蝦":14232,"教練團":14233,"08":14234,"上季":14235,"向上":14236,"含有":14237,"廠房":14238,"的狀態":14239,"短時間":14240,"聽見":14241,"首日":14242,"畢業後":14243,"即刻":14244,"投稿":14245,"養成":14246,"如果你":14247,"報告指出":14248,"不論是":14249,"身心障礙":14250,"主機":14251,"事先":14252,"兵力":14253,"包圍":14254,"在網路":14255,"平板":14256,"年金":14257,"數百":14258,"王牌":14259,"產地":14260,"的結果":14261,"約談":14262,"共軍":14263,"到達":14264,"啤酒":14265,"想起":14266,"暗示":14267,"油價":14268,"理性":14269,"的公司":14270,"的經濟":14271,"被控":14272,"量產":14273,"青睞":14274,"...<":14275,"就有網友":14276,"製造商":14277,"基礎建設":14278,"但由於":14279,"小米":14280,"槍手":14281,"比利":14282,"王室":14283,"疏失":14284,"走進":14285,"10分鐘":14286,"國內疫情升溫":14287,"槍擊案":14288,"通緝犯":14289,"大考中心":14290,"不等":14291,"信息":14292,"型的":14293,"普及":14294,"格式":14295,"融合":14296,"聲明中":14297,"假的":14298,"北北":14299,"周圍":14300,"實踐":14301,"心力":14302,"應試":14303,"掉落":14304,"普篩":14305,"減碳":14306,"簽證":14307,"育嬰":14308,"超夯":14309,"大家的":14310,"?「":14311,"二代":14312,"前年":14313,"卡在":14314,"及其他":14315,"口號":14316,"安平":14317,"完封":14318,"攝取":14319,"是對":14320,"災情":14321,"能不能":14322,"龐大":14323,"美國政府":14324,"引發熱議":14325,"智慧型手機":14326,"持有搭機前3日內檢驗陰性報告":14327,"、「":14328,"五年":14329,"兩個月":14330,"外海":14331,"將依":14332,"市集":14333,"新店":14334,"曾任":14335,"生效":14336,"用了":14337,"科長":14338,"纖維":14339,"自撞":14340,"致敬":14341,"艦艇":14342,"萬七":14343,"適逢":14344,"都相當":14345,"離岸":14346,"11點":14347,"持續延燒":14348,"單日新增":14349,"上一軍":14350,"變電所":14351,"也未":14352,"但其實":14353,"口水":14354,"基法":14355,"政變":14356,"格蘭":14357,"模仿":14358,"看待":14359,"績效":14360,"罰單":14361,"老虎":14362,"親戚":14363,"防線":14364,"2023":14365,"不得不":14366,"三名":14367,"上車":14368,"乳癌":14369,"卡片":14370,"對我":14371,"海運":14372,"約1":14373,"要做":14374,"開了":14375,"頻傳":14376,"因為他":14377,"5分鐘":14378,"7時":14379,"二度":14380,"國王":14381,"就很":14382,"後仍":14383,"抹黑":14384,"改名":14385,"救出":14386,"檢調":14387,"美術":14388,"視野":14389,"路過":14390,"陣子":14391,"範圍內":14392,"3度":14393,"也無法":14394,"來得":14395,"函送":14396,"原廠":14397,"就把":14398,"就說":14399,"抱著":14400,"無數":14401,"無辜":14402,"種植":14403,"觀測":14404,"請民眾":14405,"遭移除":14406,"預料":14407,"防疫破口":14408,"恢復正常":14409,"一年多":14410,"不怕":14411,"也不能":14412,"來講":14413,"地的":14414,"它們":14415,"手感":14416,"投信":14417,"查扣":14418,"清查":14419,"為陰性":14420,"落跑":14421,"這讓":14422,"還未":14423,"高市":14424,"新竹縣":14425,"室內100":14426,"。【":14427,"一館":14428,"名列":14429,"執照":14430,"失守":14431,"捷克":14432,"敲安":14433,"文創":14434,"沒什麼":14435,"爭執":14436,"翻覆":14437,"老年":14438,"邀集":14439,"第二階段":14440,"也與":14441,"及早":14442,"四處":14443,"將可":14444,"景象":14445,"清零":14446,"物價":14447,"老饕":14448,"觀賞":14449,"進軍":14450,"遭逮":14451,"完整的":14452,"9名":14453,"他會":14454,"代謝":14455,"十二":14456,"名義":14457,"姐姐":14458,"後備":14459,"教士":14460,"更在":14461,"沿海":14462,"浴室":14463,"稱的":14464,"空姐":14465,"糖尿":14466,"網購":14467,"總召":14468,"與其":14469,"航行":14470,"芒果":14471,"誤會":14472,"送回":14473,"隔壁":14474,"140":14475,"生命危險":14476,"並依指示":14477,"5次":14478,"亞洲":14479,"但還是":14480,"光芒":14481,"器材":14482,"天王":14483,"日圓":14484,"更要":14485,"槍斃":14486,"篩選":14487,"繼承":14488,"轉戰":14489,"這部":14490,"英國變異株":14491,"個別":14492,"台電":14493,"各類":14494,"吵架":14495,"回升":14496,"差別":14497,"序列":14498,"斯特":14499,"施行":14500,"每個月":14501,"玉米":14502,"而出":14503,"身高":14504,"陽光":14505,"黨派":14506,"接種後":14507,"社會大眾":14508,"60萬":14509,"外交官":14510,"及時診斷":14511,"姊姊":14512,"對台灣的":14513,"文中":14514,"有零星":14515,"比如":14516,"的兩":14517,"的要求":14518,"筆記":14519,"腦部":14520,"落幕":14521,"週四":14522,"阻擋":14523,"首轟":14524,"駕車":14525,"全面消毒":14526,"上百":14527,"不安":14528,"中市":14529,"二壘打":14530,"元件":14531,"內衣":14532,"增添":14533,"壽司":14534,"情境":14535,"戴著":14536,"揭曉":14537,"沒了":14538,"沒多久":14539,"的醫療":14540,"能有":14541,"襲擊":14542,"邁入":14543,"首局":14544,"馬拉":14545,"防疫物資":14546,"現在是":14547,"例本土病例":14548,"圖片來源":14549,"商場":14550,"失1分":14551,"暑假":14552,"正值":14553,"法庭":14554,"炸雞":14555,"當晚":14556,"破千":14557,"聲浪":14558,"被捕":14559,"護照":14560,"變動":14561,"館長":14562,"目前為止":14563,"4月底":14564,"集中在":14565,"2元":14566,"。「<":14567,"一把":14568,"三級":14569,"副局長":14570,"南區":14571,"就不會":14572,"就知道":14573,"影劇":14574,"微笑":14575,"政院":14576,"現年":14577,"隻蟑螂":14578,"無法接受":14579,"體育館":14580,"滿滿的":14581,"匯流排故障":14582,"也認為":14583,"婚變":14584,"攤商":14585,"牠們":14586,"突發":14587,"網球":14588,"車手":14589,"較低":14590,"追加":14591,"遭人":14592,"確診數":14593,"99元":14594,"新竹市":14595,"自我健康監測":14596,"豐富的":14597,"致力於":14598,"到期":14599,"嚇傻":14600,"實地":14601,"州長":14602,"工商":14603,"標的":14604,"約會":14605,"走路":14606,"鑰匙":14607,"原因是":14608,"不良事件":14609,"內行人":14610,"白沙屯":14611,"5時":14612,"不顧":14613,"中小":14614,"也透露":14615,"來回":14616,"吃了":14617,"幽默":14618,"的訊息":14619,"諷刺":14620,"讓自己":14621,"選區":14622,"持續擴大":14623,"其中一名":14624,"外界質疑":14625,"藻礁公投":14626,"仇恨犯罪":14627,"%[":14628,"博覽":14629,"告別":14630,"多起":14631,"收視":14632,"暴露":14633,"添加":14634,"滿額":14635,"焦慮":14636,"男孩":14637,"研討":14638,"總冠軍賽":14639,"證書":14640,"預售":14641,"體力":14642,"今天公布":14643,"設計師":14644,"消息人士":14645,"節目中":14646,"五股":14647,"劇本":14648,"勞基法":14649,"大致":14650,"學金":14651,"度以上":14652,"控管":14653,"甄選":14654,"繁殖":14655,"聲響":14656,"表面":14657,"其他國家":14658,"真的有":14659,"員工確診":14660,"110學年度":14661,"紐約市":14662,"://./":14663,"糖尿病":14664,"1女":14665,"但若":14666,"卻不":14667,"嚴厲":14668,"姓女":14669,"學家":14670,"後果":14671,"擾台":14672,"改進":14673,"清單":14674,"種類":14675,"童年":14676,"縮減":14677,"總數":14678,"萬一":14679,"要到":14680,"配套":14681,"阿拉":14682,"飛球":14683,"11時":14684,"室外500":14685,"也為":14686,"但如果":14687,"既有":14688,"要先":14689,"賣出":14690,"超跑":14691,"遊玩":14692,"那種":14693,"2出局":14694,"7例":14695,"加大":14696,"圖擷":14697,"在當地":14698,"大安":14699,"子公司":14700,"家暴":14701,"專用":14702,"抑制":14703,"挺台":14704,"景觀":14705,"神明":14706,"陰影":14707,"關係的":14708,"以來的":14709,"一句話":14710,"他與":14711,"作收":14712,"奇蹟":14713,"將成為":14714,"推升":14715,"約3":14716,"舅舅":14717,"裡頭":14718,"解放":14719,"附上":14720,"離譜":14721,"順序":14722,"安全帽":14723,"桃園機場":14724,"母親節快樂":14725,"自來水":14726,"不下":14727,"交代":14728,"奧斯":14729,"會造成":14730,"犯行":14731,"終盤":14732,"給她":14733,"腳踏":14734,"跟你":14735,"題材":14736,"我們也":14737,"東半部地區":14738,"駐日代表":14739,"套房":14740,"安慰":14741,"康復":14742,"把關":14743,"環評":14744,"病逝":14745,"百度":14746,"的錢":14747,"的成績":14748,"省水":14749,"藍牙":14750,"賽程":14751,"邏輯":14752,"願景":14753,"房地產":14754,"也已經":14755,"偶爾":14756,"初選":14757,"加權":14758,"同胞":14759,"嫌疑":14760,"收集":14761,"日進行":14762,"滯留":14763,"滾動":14764,"的價格":14765,"的想法":14766,"目的是":14767,"萬名":14768,"要是":14769,"諸多":14770,"跑去":14771,"跳舞":14772,"首批":14773,"高端":14774,"這樣子":14775,"確實有":14776,"北部地區":14777,"花蓮縣":14778,"也應":14779,"以3":14780,"出租":14781,"到位":14782,"勇氣":14783,"口腔":14784,"有超過":14785,"潛力":14786,"物流":14787,"的規定":14788,"的行動":14789,"的空間":14790,"該案":14791,"超高":14792,"闖進":14793,"更多社會":14794,"出現了":14795,"排黑條款":14796,"130":14797,"3號":14798,"任期":14799,"公報":14800,"動保":14801,"夢幻":14802,"大媽":14803,"有線":14804,"核電":14805,"獲勝":14806,"畫素":14807,"美容":14808,"而這":14809,"自拍":14810,"調高":14811,"路竹":14812,"50萬元":14813,"案1136":14814,"身體狀況":14815,"在地上":14816,"7分":14817,"900":14818,"他和":14819,"保住":14820,"大數據":14821,"姿勢":14822,"德基":14823,"房客":14824,"擴充":14825,"是因":14826,"暴龍":14827,"替補":14828,"有興趣":14829,"水資源":14830,"活力":14831,"組件":14832,"繳交":14833,"缺失":14834,"脫離":14835,"舊金山":14836,"被人":14837,"負荷":14838,"跟進":14839,"跨越":14840,"運勢":14841,"日本的":14842,"注意的是":14843,"貼文曝光後":14844,"臨床試驗":14845,"原價":14846,"很開心":14847,"我家":14848,"拿起":14849,"斯拉":14850,"流感":14851,"率為":14852,"珍珠":14853,"看不到":14854,"隨意":14855,"頂尖":14856,"病毒株":14857,"個案接觸者":14858,"的一部分":14859,"因應疫情":14860,">,「":14861,"分裂":14862,"器官":14863,"好禮":14864,"工時":14865,"投進":14866,"模特":14867,"無效":14868,"班級":14869,"相近":14870,"精緻":14871,"脖子":14872,"較去年":14873,"途徑":14874,"。」▲<":14875,"黨部主委":14876,"#<":14877,"。」,":14878,"之餘":14879,"傳言":14880,"同日":14881,"很可能":14882,"曬出":14883,"次的":14884,"種子":14885,"胸部":14886,"菜鳥":14887,"謠言":14888,"逐年":14889,"開賽":14890,"電費":14891,"感染者":14892,"下一代":14893,"到台灣":14894,"善意":14895,"專機":14896,"履歷":14897,"巴拉":14898,"擴增":14899,"最早":14900,"水餃":14901,"漁民":14902,"濃度":14903,"致命":14904,"人民的":14905,"宜蘭遊藝場":14906,"三個月":14907,"前一":14908,"報請":14909,"女的":14910,"學位":14911,"客服":14912,"拉麵":14913,"撲滅":14914,"樓梯":14915,"正好":14916,"男網友":14917,"真心":14918,"詮釋":14919,"週末":14920,"駕照":14921,"一般人":14922,"拜登政府":14923,"傑出":14924,"反觀":14925,"壓迫":14926,"多加":14927,"多頭":14928,"往年":14929,"得主":14930,"挨轟":14931,"春訓":14932,"服用":14933,"此一":14934,"流動":14935,"照常":14936,"籌備":14937,"車款":14938,"過年":14939,"更多生活":14940,"禁止飲食":14941,"!▲":14942,"4個月":14943,"上半":14944,"不喜歡":14945,"好事":14946,"布魯":14947,"建造":14948,"最為":14949,"最重":14950,"機動":14951,"的研究":14952,"西南":14953,"贈送":14954,"驅動":14955,"其他網友":14956,"上來":14957,"上衣":14958,"嗆聲":14959,"專長":14960,"改裝":14961,"文書":14962,"水區":14963,"營區":14964,"第10":14965,"驚險":14966,"百分之":14967,"博覽會":14968,"更多社會相關新聞":14969,"交出":14970,"出沒":14971,"加以":14972,"匿名":14973,"外傳":14974,"將繼續":14975,"從中":14976,"抨擊":14977,"接送":14978,"有必要":14979,"比亞":14980,"溫泉":14981,"濃煙":14982,"餐會":14983,"首爾":14984,"分享自己":14985,"最多的":14986,"過來人":14987,"更多生活相關新聞":14988,"上空":14989,"也開始":14990,"付款":14991,"全中":14992,"出事":14993,"制服":14994,"大都會":14995,"女主角":14996,"就學":14997,"情節":14998,"慈善":14999,"憂鬱":15000,"櫃台":15001,"的對象":15002,"經貿":15003,"缺電":15004,"自責":15005,"血糖":15006,"超高壓":15007,"逃離":15008,"過多":15009,"電線":15010,"頭獎":15011,"2012年":15012,"疫情擴散":15013,"50分":15014,"所以我們":15015,"生命跡象":15016,"實在太":15017,"一方面":15018,"你是":15019,"前所長":15020,"四年":15021,"多年的":15022,"市政":15023,"幹事":15024,"廠區":15025,"方位":15026,"日凌晨":15027,"最少":15028,"無視":15029,"華語":15030,"被逮":15031,"被網友":15032,"邊坡":15033,"重機":15034,"離去":15035,"難關":15036,"首要":15037,"沒有辦法":15038,"工作室":15039,"發生了":15040,"案1112":15041,"100元":15042,"在家中":15043,"空氣品質":15044,"全新的":15045,"公約":15046,"各級":15047,"戰隊":15048,"有任何":15049,"海報":15050,"準則":15051,"瀏覽":15052,"他們在":15053,"甚至有":15054,"資料庫":15055,"永續發展":15056,"原住民族":15057,"下單":15058,"五大":15059,"分隊":15060,"劇烈":15061,"大腿":15062,"影視":15063,"教導":15064,"書記":15065,"為避免":15066,"無須":15067,"車隊":15068,"追撞":15069,"2011年":15070,">,)":15071,"染疫機師":15072,"信仰":15073,"區塊":15074,"卻有":15075,"台日":15076,"同婚":15077,"在現場":15078,"外部":15079,"季減":15080,"年減":15081,"慰問":15082,"榮譽":15083,"約2":15084,"這隻":15085,"量能":15086,"手機報稅":15087,"以此":15088,"兩周":15089,"再添":15090,"出示":15091,"北台灣":15092,"埃及":15093,"場的":15094,"外的":15095,"天堂":15096,"觸身":15097,"說自己":15098,"騎兵":15099,"科技股":15100,"辦事處":15101,"並列":15102,"及相關":15103,"工藝":15104,"心靈":15105,"想過":15106,"抵台":15107,"政務":15108,"日開始":15109,"樂園":15110,"珊瑚":15111,"當街":15112,"皇帝":15113,"職涯":15114,"與前":15115,"被依":15116,"金塊":15117,"金馬":15118,"隨機":15119,"10元":15120,"1號":15121,"不成":15122,"及通報":15123,"同框":15124,"墾丁":15125,"牙齒":15126,"狂飆":15127,"的老":15128,"的投資":15129,"致電":15130,"入境後至":15131,"9成":15132,"你要":15133,"公衛":15134,"多萬":15135,"學歷":15136,"有名":15137,"極為":15138,"波動":15139,"清晰":15140,"的專業":15141,"簡報":15142,"維生":15143,"而他":15144,"胎兒":15145,"被敲出":15146,"那是":15147,"阿伯":15148,"院方":15149,">://../":15150,"模範母親":15151,"爆廢公社":15152,"比利時":15153,"一來":15154,"來臨":15155,"偷偷":15156,"匯款":15157,"忽略":15158,"放榜":15159,"整備":15160,"的概念":15161,"精品":15162,"行使":15163,"謊言":15164,"那裡":15165,"間接":15166,"驕傲":15167,"15分":15168,"嚴重影響":15169,"並依指示配戴口罩":15170,"中風":15171,"切除":15172,"動脈":15173,"太久":15174,"好評":15175,"緊繃":15176,"荷包":15177,"號稱":15178,"覆蓋":15179,"跳電":15180,"離島":15181,"12萬":15182,"住院隔離":15183,"黑衣人闖入":15184,"上榜":15185,"但也有":15186,"勸導":15187,"向來":15188,"孫子":15189,"對她":15190,"徵收":15191,"手續":15192,"放置":15193,"民宿":15194,"汐止":15195,"洗車":15196,"登入":15197,"約定":15198,"車牌":15199,"輸球":15200,"週五":15201,"雨水":15202,"飛官":15203,"鬆口":15204,"醫療院所":15205,"第三級警戒":15206,"37分":15207,"外野手":15208,"太魯閣號事故":15209,"調閱監視器":15210,">」。":15211,"不符合":15212,"人間":15213,"就此":15214,"快篩":15215,"改採":15216,"比1":15217,"演技":15218,"術後":15219,"試辦":15220,"轉彎":15221,"農曆":15222,"週六":15223,"開工":15224,"疫情擴大":15225,"受訪者":15226,"或者是":15227,"出貨量":15228,"以利及時診斷":15229,"4次":15230,"之路":15231,"倡議":15232,"分發":15233,"前科":15234,"升學":15235,"好處":15236,"威權":15237,"師資":15238,"死因":15239,"每一個":15240,"洗錢":15241,"營利":15242,"百元":15243,"的員工":15244,"禁見":15245,"自爆":15246,"至6":15247,"蓄水量":15248,"血液":15249,"這幾":15250,"麗菜":15251,"目前正":15252,"指揮中心公布":15253,"三接外推":15254,"一家人":15255,"上發文":15256,"人行":15257,"利潤":15258,"吃完":15259,"定調":15260,"對岸":15261,"新住民":15262,"是非常":15263,"版的":15264,"的2":15265,"籌碼":15266,"缺貨":15267,"藥廠":15268,"負起":15269,"遺失":15270,"閉門":15271,"顏值":15272,"中國在":15273,"因此在":15274,"安全性":15275,"!」[":15276,"不僅是":15277,"為主題":15278,"5歲":15279,"8元":15280,"先行":15281,"外套":15282,"小小":15283,"機能":15284,"淇淋":15285,"火辣":15286,"考上":15287,"過關":15288,"隨身":15289,"可以說是":15290,"170":15291,"一直是":15292,"東森新聞":15293,"飲酒過量":15294,"百家樂":15295,"8分":15296,"8000":15297,"兩家":15298,"就已":15299,"市占":15300,"曾是":15301,"會場":15302,"棒的":15303,"民代":15304,"氣勢":15305,"派對":15306,"混合":15307,"減緩":15308,"熱絡":15309,"身影":15310,"邊界":15311,"釀成":15312,"降溫":15313,"飆升":15314,"指揮部":15315,"的人生":15316,"也太":15317,"五號":15318,"兌換":15319,"公鹿":15320,"刺青":15321,"卻遭":15322,"反駁":15323,"台海":15324,"命理":15325,"地板":15326,"手槍":15327,"整起":15328,"會以":15329,"會出現":15330,"滿貫":15331,"當機":15332,"的事件":15333,"肺癌":15334,"自救":15335,"藥局":15336,"跌停":15337,"遭爆":15338,"開箱":15339,"頂級":15340,"108年":15341,"50歲":15342,"加密貨幣":15343,"持續加強疫情監測與邊境管制措施":15344,"一座":15345,"刷卡":15346,"受歡迎":15347,"吐司":15348,"吞敗":15349,"品項":15350,"安定":15351,"放下":15352,"比去年":15353,"滅絕":15354,"的報導":15355,"草莓":15356,"被擊出":15357,"複製":15358,"訂購":15359,"躺在":15360,"關門":15361,"麥克":15362,"同時主動":15363,"畢業典禮":15364,"基本面":15365,"質詢時":15366,"7歲男童":15367,"並依指示配戴口罩儘速就醫":15368,"以利及時診斷及通報":15369,"!!":15370,"7個":15371,">$":15372,"不算":15373,"出境":15374,"加熱":15375,"卻因":15376,"向警方":15377,"命運":15378,"掌控":15379,"新秀":15380,"暖心":15381,"歡慶":15382,"男大生":15383,"穩健":15384,"評鑑":15385,"較多":15386,"這輛":15387,"鬧事":15388,"12系列":15389,"本土擴散":15390,"一樣的":15391,"輪流停電":15392,"影劇新聞":15393,"在高雄":15394,"奉獻":15395,"封閉":15396,"春節":15397,"更大的":15398,"款項":15399,"正視":15400,"混住":15401,"熱點":15402,"的可能":15403,"的壓力":15404,"簽名":15405,"護國":15406,"陪考":15407,"不過在":15408,"調查結果":15409,"旅行社":15410,"飲料店":15411,"遭移除請見諒":15412,"超高壓變電所":15413,"觸身球":15414,"不需":15415,"並指出":15416,"伯斯":15417,"備用":15418,"地主":15419,"尋獲":15420,"崛起":15421,"派人":15422,"犯規":15423,"的服務":15424,"皆有":15425,"耶路":15426,"腸胃":15427,"衍生":15428,"貨運":15429,"路透":15430,"這部分":15431,"運河":15432,"錢包":15433,"雙位數":15434,"類別":15435,"駐處":15436,"loc5":15437,"提供給":15438,"臉書社團":15439,"第三方":15440,"婚姻平權":15441,"開幕戰":15442,"便利商店":15443,"模特兒":15444,"不可以":15445,"停靠":15446,"則認為":15447,"吸睛":15448,"委屈":15449,"實用":15450,"年僅":15451,"必備":15452,"慶生":15453,"房貸":15454,"擅自":15455,"會前":15456,"極限":15457,"的愛":15458,"的資訊":15459,"總額":15460,"開口":15461,"開球":15462,"風向":15463,"默默":15464,"台灣鳳梨":15465,"翻攝自百度":15466,"作者為":15467,"頒獎典禮":15468,"兆美元":15469,"可用":15470,"可行":15471,"尼泊":15472,"已將":15473,"帥氣":15474,"循線":15475,"心碎":15476,"股份":15477,"處所":15478,"被稱為":15479,"裝潢":15480,"讓媽媽":15481,"豪華":15482,"運轉":15483,"酥雞":15484,"鈔票":15485,"驚覺":15486,"有多少":15487,"航空器":15488,"滿意度":15489,"金曲獎":15490,"尼泊爾":15491,"一輩子":15492,"三十":15493,"其它":15494,"前提":15495,"嚴肅":15496,"套餐":15497,"州的":15498,"撕裂":15499,"樹林":15500,"淪為":15501,"深耕":15502,"生下":15503,"生前":15504,"的速度":15505,"花旗":15506,"這條":15507,"這筆":15508,"更多影劇新聞":15509,"36例":15510,"重啟核四":15511,"支持台灣參與":15512,"巴拉圭":15513,"他對":15514,"分組":15515,"姓員警":15516,"就近":15517,"性質":15518,"想不到":15519,"抄截":15520,"是從":15521,"晚餐":15522,"海邊":15523,"滲透":15524,"的功能":15525,"的女性":15526,"的決心":15527,"起跳":15528,"軍售":15529,"開庭":15530,"出現發燒":15531,"萬華茶藝館":15532,"創作者":15533,"蛋白質":15534,"近期無出國史":15535,"且有":15536,"兼任":15537,"包包":15538,"可上訴":15539,"有心":15540,"檳榔":15541,"民俗":15542,"的理由":15543,"短線":15544,"答應":15545,"編列":15546,"義警":15547,"虐待":15548,"警政":15549,"走在":15550,"都說":15551,"關稅":15552,"零組件":15553,"雷陣雨":15554,"東京都":15555,"65歲以上":15556,"有網友在":15557,"中午12":15558,"這段期間":15559,"](":15560,"一塊":15561,"二館":15562,"出海":15563,"天文":15564,"學系":15565,"急速":15566,"柴油":15567,"沙發":15568,"特斯拉":15569,"的看法":15570,"網曝":15571,"跑步":15572,"還將":15573,"降落":15574,"離世":15575,"難題":15576,"領土":15577,"之一的":15578,"初步掌握":15579,"遠距教學":15580,"介面":15581,"低潮":15582,"卸任":15583,"取締":15584,"合適":15585,"外流":15586,"很好的":15587,"披薩":15588,"本壘":15589,"為人":15590,"玫瑰":15591,"等罪嫌":15592,"舉重":15593,"船長":15594,"衝進":15595,"豪門":15596,"院會":15597,"電台":15598,"風味":15599,"影片來源":15600,"引起網友":15601,"落實防疫":15602,"公投案":15603,"第4季":15604,"()":15605,"一向":15606,"也以":15607,"介於":15608,"出任":15609,"噁心":15610,"局處":15611,"忘錄":15612,"氣球":15613,"法定":15614,"波蘭":15615,"海面":15616,"的過程中":15617,"統治":15618,"請註明":15619,"資費":15620,"長年":15621,"營業場所":15622,"酒精消毒":15623,"5公尺":15624,"6億":15625,"一線":15626,"以確保":15627,"備忘錄":15628,"公主":15629,"再爆":15630,"包裹":15631,"北方":15632,"名學生":15633,"多半":15634,"實作":15635,"幾次":15636,"後援":15637,"拘役":15638,"滿月":15639,"生長":15640,"等候":15641,"認了":15642,"財神":15643,"鄉長":15644,"重罰":15645,"黨中央":15646,"相關人員":15647,"增加了":15648,"經驗老實說":15649,"事發後":15650,"上揚":15651,"也因":15652,"他有":15653,"列出":15654,"反制":15655,"她是":15656,"床上":15657,"從沒":15658,"改選":15659,"氣憤":15660,"決勝":15661,"炸彈":15662,"疑惑":15663,"的現象":15664,"茶葉":15665,"謀殺":15666,"超音":15667,"身價":15668,"過馬路":15669,"首選":15670,"更多國際":15671,"工程車":15672,"諾富特案":15673,"告知醫師旅遊史及接觸史":15674,"轉載請註明":15675,"組成的":15676,"量測體溫":15677,"同時主動告知醫師旅遊史及接觸史":15678,"轉載請註明出處":15679,"2號":15680,"530":15681,"不穩":15682,"只想":15683,"在台中":15684,"家鄉":15685,"書面":15686,"核廢":15687,"椅子":15688,"發電廠":15689,"的1":15690,"的方向":15691,"的力量":15692,"罪名":15693,"誠意":15694,"走上":15695,"那就是":15696,"可能在":15697,"一個中國":15698,"一直以來":15699,"不聽":15700,"伺服":15701,"兩人的":15702,"散播":15703,"日正式":15704,"是全球":15705,"最初":15706,"發問":15707,"的動作":15708,"私校":15709,"等方式":15710,"遊騎兵":15711,"達標":15712,"活動中心":15713,"360":15714,"不孕":15715,"公關":15716,"化妝":15717,"合格":15718,"射手":15719,"年華":15720,"撒冷":15721,"極大":15722,"歐元":15723,"的歷史":15724,"確切":15725,"神奇":15726,"貼圖":15727,"跳出來":15728,"這篇":15729,"首輪":15730,"服務的":15731,"資料圖":15732,"40多歲男性":15733,"一定是":15734,"消息一出":15735,"成交值":15736,"耶路撒冷":15737,"4時":15738,"又在":15739,"可疑":15740,"大大":15741,"左轉":15742,"已超過":15743,"德納":15744,"特報":15745,"直說":15746,"等因素":15747,"賈伯斯":15748,"跳脫":15749,"辭職":15750,"鋼琴":15751,"鑾轎":15752,"頒發":15753,"第二波":15754,"感染源待釐清":15755,"傳輸":15756,"別人的":15757,"勞保":15758,"往上":15759,"披露":15760,"揚言":15761,"文一出":15762,"書展":15763,"業的":15764,"用藥":15765,"輕易":15766,"輪值":15767,"這群":15768,"金牛":15769,"鑽石":15770,"台灣人民":15771,"我們在":15772,"系統的":15773,"2009年":15774,"文章轉載請註明出處":15775,"南部地區":15776,"76人":15777,"合併營收":15778,">。[":15779,"保母":15780,"周三":15781,"外科":15782,"把他":15783,"掃黑":15784,"於19":15785,"會先":15786,"聽聞":15787,"馬達":15788,"是否為":15789,"至少有":15790,"宜蘭羅東":15791,"視訊會議":15792,"只剩下":15793,"司令部":15794,"銀河百家樂":15795,"1出局":15796,"2億元":15797,"8億":15798,"一部":15799,"三月":15800,"到6":15801,"學弟":15802,"寶座":15803,"展演":15804,"收押":15805,"日文":15806,"期的":15807,"為確保":15808,"的路":15809,"良好的":15810,"辛勞":15811,"邁向":15812,"開展":15813,"鞋款":15814,"醫療口罩":15815,"串流":15816,"之內":15817,"僅次":15818,"分成":15819,"導師":15820,"抵抗":15821,"新低":15822,"會館":15823,"為準":15824,"的父親":15825,"筆錄":15826,"節能":15827,"美好":15828,"要怎麼":15829,"超狂":15830,"輕忽":15831,"農場":15832,"週三":15833,"遍布":15834,"鄉親":15835,"鄉鎮":15836,"魔術":15837,"工業區":15838,"診所就醫":15839,"種族歧視":15840,"八大行業":15841,"賈伯斯偏愛色":15842,"!」,":15843,"2件":15844,"仍以":15845,"促成":15846,"僅供":15847,"公教":15848,"各有":15849,"單獨":15850,"外銷":15851,"大廳":15852,"法第":15853,"漁港":15854,"潮流":15855,"澳門":15856,"火葬":15857,"特性":15858,"這兩天":15859,"運氣":15860,"都需要":15861,"開的":15862,"開跑":15863,"開辦":15864,"今天是":15865,"希望可以":15866,"日本首相":15867,">》(<":15868,"邀請函":15869,"多雲到":15870,"經紀人":15871,"並提供":15872,"呼應":15873,"國手":15874,"專責":15875,"後衛":15876,"我真的":15877,"拉克":15878,"攔截":15879,"海峽":15880,"烘焙":15881,"空汙":15882,"美景":15883,"花錢":15884,"該怎麼":15885,"證件":15886,"轉機":15887,"20分鐘":15888,"社會的":15889,"免疫力":15890,"翻攝自百度百科":15891,"3千":15892,"也跟著":15893,"享用":15894,"人命":15895,"促使":15896,"做什麼":15897,"公會":15898,"友邦":15899,"因事故":15900,"在19":15901,"就診":15902,"打撈":15903,"標誌":15904,"潑灑":15905,"等同":15906,"網民":15907,"繁榮":15908,"螞蟻":15909,"賞花":15910,"進行的":15911,"調查釐清":15912,"護理人員":15913,"2萬元":15914,"3場":15915,"5000元":15916,"內閣":15917,"劇場":15918,"友好":15919,"合體":15920,"好物":15921,"急性":15922,"把它":15923,"換新":15924,"散布":15925,"有更多":15926,"消化":15927,"的選擇":15928,"自去年":15929,"變數":15930,"閨密":15931,"靈活":15932,"101":15933,"發生後":15934,"粉絲團":15935,"傳出有":15936,"不清":15937,"並進行":15938,"俗稱":15939,"吃法":15940,"喇叭":15941,"在意":15942,"士兵":15943,"操控":15944,"清洗":15945,"療癒":15946,"的樣子":15947,"簡稱":15948,"臉上":15949,"莫德納":15950,"讓孩子":15951,"載著":15952,"連日":15953,"111":15954,"100萬元":15955,"時代的":15956,"延長賽":15957,"案1102":15958,"氧化碳":15959,"5場":15960,"入園":15961,"同場":15962,"報酬":15963,"大法官":15964,"她認為":15965,"接見":15966,"最長":15967,"樂部":15968,"牙醫":15969,"申訴":15970,"的原":15971,"稅額":15972,"節水":15973,"股息":15974,"通勤":15975,"長打":15976,"2025年":15977,"產業的":15978,"...[":15979,"2場":15980,"之意":15981,"之虞":15982,"周四":15983,"大愛":15984,"契機":15985,"幼稚":15986,"救人":15987,"朝聖":15988,"溺水":15989,"積分":15990,"若能":15991,"起初":15992,"較少":15993,"早餐店":15994,"立法委員":15995,"伺服器":15996,",,":15997,"1架":15998,"9例":15999,"不服":16000,"卻又":16001,"台大":16002,"在2019年":16003,"堅強":16004,"填寫":16005,"外國人":16006,"夜店":16007,"姓婦人":16008,"延誤":16009,"往後":16010,"放入":16011,"是中國":16012,"板凳":16013,"滋味":16014,"的數據":16015,"缺口":16016,"職災":16017,"花園":16018,"道德":16019,"都無法":16020,"醫事":16021,"飆漲":16022,"鬆綁":16023,"總統大選":16024,"這樣做":16025,"3月底":16026,"保證金":16027,"多雲到晴":16028,"之旅":16029,"俱樂部":16030,"到貨":16031,"前立委":16032,"專心":16033,"戰備":16034,"收下":16035,"海南":16036,"濫用":16037,"疏忽":16038,"發光":16039,"的時刻":16040,"續航":16041,"耐心":16042,"辱罵":16043,"美國國務卿":16044,"攝影師":16045,"正常的":16046,"喜歡的":16047,"2支安打":16048,"下半場":16049,"仲介":16050,"但要":16051,"去買":16052,"大同":16053,"從此":16054,"擁擠":16055,"有能力":16056,"法制":16057,"神器":16058,"竊取":16059,"絕不":16060,"聽取":16061,"被撞":16062,"證照":16063,"賭場":16064,"路北":16065,"造訪":16066,"高科技":16067,"因為有":16068,"比賽中":16069,"身體健康":16070,"日公布國內新增":16071,"所得稅":16072,"阿拉伯":16073,"圖擷自":16074,"事前":16075,"人與":16076,"前線":16077,"吃過":16078,"學科":16079,"小說":16080,"掃描":16081,"氣質":16082,"漲勢":16083,"空調":16084,"肉品":16085,"葬禮":16086,"說謊":16087,"賭博":16088,"遵循":16089,"龍象":16090,"目前有":16091,".../":16092,"聲明表示":16093,"萬人次":16094,"午後山區":16095,"觸控的":16096,"輪限電時間":16097,"更多國際相關新聞":16098,"3位":16099,"8次":16100,"口氣":16101,"均有":16102,"平手":16103,"往下":16104,"是被":16105,"桌球":16106,"衰退":16107,"豈料":16108,"身障":16109,"軍演":16110,"輕生":16111,"運量":16112,"隊的":16113,"per16":16114,"防疫作為":16115,"台中市長":16116,"60歲":16117,">.<":16118,"發出後":16119,"6大":16120,"】[":16121,"一號":16122,"並向":16123,"串聯":16124,"之1":16125,"侮辱":16126,"反潛":16127,"受疫情影響":16128,"堅守":16129,"層面":16130,"是一名":16131,"會的":16132,"條規定":16133,"殉職":16134,"清除":16135,"猶豫":16136,"生病":16137,"的挑戰":16138,"社福":16139,"聽完":16140,"解渴":16141,"都必須":16142,"長賜":16143,"革命":16144,"順暢":16145,"高喊":16146,"高興":16147,"2010年":16148,"是否能":16149,"的人數":16150,"?」[":16151,"駕駛座":16152,"梅雨鋒面":16153,"健身房":16154,"他命":16155,"傳喚":16156,"問到":16157,"在校":16158,"大腸":16159,"將大":16160,"廣東":16161,"惡劣":16162,"有位":16163,"查明":16164,"歌王":16165,"沒收":16166,"法治":16167,"現役":16168,"約4":16169,"結節":16170,"綠線":16171,"腹部":16172,"船上":16173,"街道":16174,"首節":16175,"更多財經":16176,"經紀公司":16177,"丹麥":16178,"人犯":16179,"依違反":16180,"修訂":16181,"則由":16182,"嘉賓":16183,"大橋":16184,"對不起":16185,"強大的":16186,"所致":16187,"曾被":16188,"用路人":16189,"痛哭":16190,"發明":16191,"的議題":16192,"衝上":16193,"視頻":16194,"車型":16195,"阿里":16196,"今年初":16197,"電子煙":16198,"一般民眾":16199,"自主管理":16200,"夫妻倆":16201,"參選人":16202,"五十":16203,"仍持續":16204,"他要":16205,"兒少":16206,"切勿":16207,"加薪":16208,"去看":16209,"土城":16210,"天空":16211,"安撫":16212,"崗位":16213,"巨頭":16214,"或雷雨":16215,"手搖":16216,"挖角":16217,"最慘":16218,"會比較":16219,"的做法":16220,"窗戶":16221,"第9":16222,"美的":16223,"膝蓋":16224,"論述":16225,"起跑":16226,"連霸":16227,"遍及":16228,"馬斯":16229,"不適合":16230,"商品經驗老實說":16231,"值得注意的是":16232,"如有發燒":16233,"替代役":16234,"2週":16235,"3億":16236,"可憐":16237,"台積":16238,"喊卡":16239,"回溯":16240,"增進":16241,"屋頂":16242,"愛上":16243,"最嚴重":16244,"核災":16245,"機的":16246,"比0":16247,"毫不":16248,"的5":16249,"目光":16250,"腎臟":16251,"說到":16252,"高麗菜":16253,"確診新冠肺炎":16254,"服務處":16255,"水電工":16256,"停擺":16257,"全額":16258,"全台灣":16259,"外遇":16260,"天價":16261,"將對":16262,"想知道":16263,"投顧":16264,"月亮":16265,"有信心":16266,"沒問題":16267,"球數":16268,"痕跡":16269,"竊盜":16270,"粉紅":16271,"較大":16272,"陷阱":16273,"11人":16274,"就是在":16275,"合作夥伴":16276,"同時也是":16277,"甚至在":16278,"學校的":16279,"緊急分區輪流停電":16280,"抗體陽性":16281,"不良反應":16282,"限電量":16283,"國安法":16284,"9分":16285,"一樓":16286,"中低":16287,"件數":16288,"來台灣":16289,"內有":16290,"全方位":16291,"大臣":16292,"建案":16293,"強賽":16294,"懂得":16295,"有礙":16296,"核能":16297,"灰色":16298,"甚麼":16299,"眼前":16300,"社工":16301,"驚悚":16302,"20人":16303,"如果沒有":16304,"到底是":16305,"防護衣":16306,"室內100人以上":16307,".<":16308,"6天":16309,"上半年":16310,"中等":16311,"低溫":16312,"傳單":16313,"出場":16314,"分泌":16315,"升空":16316,"反萊豬":16317,"台籍":16318,"多歲的":16319,"家具":16320,"思議":16321,"想辦法":16322,"撤軍":16323,"會對":16324,"無期徒刑":16325,"煩惱":16326,"的效果":16327,"破獲":16328,"精采":16329,"納稅":16330,"車身":16331,"雞肉":16332,"駁斥":16333,"確診再":16334,"其中1":16335,"酒測值":16336,"6時":16337,"在過去":16338,"就像是":16339,"店面":16340,"後者":16341,"接軌":16342,"樂見":16343,"石油":16344,"而被":16345,"腹瀉":16346,"費城":16347,"超大":16348,"返鄉":16349,"逃生":16350,"郵局":16351,"都非常":16352,"靈魂":16353,"不過他":16354,"其中一":16355,"經濟發展":16356,"外界關注":16357,"明顯的":16358,"96秒":16359,"僅供參考":16360,"1時":16361,"三度":16362,"三項":16363,"上廁所":16364,"人道":16365,"分開":16366,"受不了":16367,"幫他":16368,"於今":16369,"永久":16370,"的家人":16371,"矚目":16372,"自認":16373,"自願":16374,"調薪":16375,"證物":16376,"走高":16377,"都可":16378,"長相":16379,"預言":16380,"頭上":16381,"飛航":16382,"醫師表示":16383,"40年":16384,"全程配戴口罩":16385,"可愛的":16386,"餐飲業":16387,"2周":16388,"不平":16389,"內外":16390,"單親":16391,"在未來":16392,"寬鬆":16393,"斯科":16394,"日方":16395,"暴跌":16396,"母女":16397,"炒作":16398,"界的":16399,"百姓":16400,"的4":16401,"的世界":16402,"的手機":16403,"的足跡":16404,"精選":16405,"網驚":16406,"蒐證":16407,"街口":16408,"讓不少":16409,"邁進":16410,"錄製":16411,"org15":16412,"什麼事":16413,"翻攝自台灣旅行趣":16414,"案1145":16415,"消防隊":16416,"傳染力":16417,"其實是蘋果創辦人賈伯斯偏愛色":16418,"——":16419,"一提":16420,"不限":16421,"不雅":16422,"單局":16423,"後座":16424,"打得":16425,"推估":16426,"搭檔":16427,"撿到":16428,"放送":16429,"父子":16430,"用手":16431,"的紀錄":16432,"續約":16433,"胞胎":16434,"航線":16435,"裁決":16436,"該國":16437,"錦賽":16438,"順位":16439,"10個":16440,"台北清真寺":16441,"提升疫情警戒":16442,"引發網友":16443,"案1183":16444,"晶片短缺":16445,"路上觀察":16446,"咳嗽等":16447,"美髮師":16448,"中毒":16449,"之地":16450,"人夫":16451,"人文":16452,"做事":16453,"兒女":16454,"利多":16455,"嘉年華":16456,"在新":16457,"在這裡":16458,"好嗎":16459,"承辦":16460,"攝護":16461,"改寫":16462,"方男":16463,"死了":16464,"沒能":16465,"滅證據":16466,"發給":16467,"腦壓":16468,"財團":16469,"顯見":16470,"107":16471,"防疫政策":16472,"一直到":16473,"80元":16474,"這起事件":16475,"外長會議":16476,"自助餐":16477,"自小客車":16478,"攝護腺":16479,"但對":16480,"兌美元":16481,"公聽":16482,"劇組":16483,"協力":16484,"各單位":16485,"好不容易":16486,"對立":16487,"比分":16488,"砂石":16489,"等議題":16490,"美台":16491,"要看":16492,"通道":16493,"避開":16494,"領軍":16495,"鳥類":16496,"今日下午":16497,"那麼多":16498,"能源轉型":16499,"觀點投書":16500,"1200":16501,"主審":16502,"之戰":16503,"侵略":16504,"則貼文":16505,"劑量":16506,"反正":16507,"工讀":16508,"布袋":16509,"攤位":16510,"是不":16511,"櫻桃":16512,"總會":16513,"迷你":16514,"醬油":16515,"開戰":16516,"騎機車":16517,"黑暗":16518,"中國人":16519,"396":16520,"燃煤機組":16521,"2家":16522,">’":16523,">「<":16524,"之家":16525,"可處":16526,"定讞":16527,"就直接":16528,"後也":16529,"恭喜":16530,"悠遊":16531,"惡性":16532,"持槍":16533,"日於":16534,"發作":16535,"要將":16536,"買進":16537,"跟大家":16538,"鎮壓":16539,"鮪魚":16540,"美國職棒":16541,"警方在":16542,"外交部長":16543,"路上觀察學院":16544,",《<":16545,"備起來":16546,"參謀":16547,"場上":16548,"大意":16549,"專法":16550,"專班":16551,"懷念":16552,"會與":16553,"男嬰":16554,"的反":16555,"看護":16556,"祝賀":16557,"菜色":16558,"著重":16559,"調降":16560,"趴趴":16561,"風潮":16562,"首創":16563,"驚嚇":16564,"20萬元":16565,"190":16566,"30萬元":16567,"受到疫情影響":16568,"政策的":16569,"專業的":16570,"台東縣":16571,"解除隔離":16572,"目擊者":16573,"房務主管":16574,"1成":16575,"三倍":16576,"力拚":16577,"參拜":16578,"周五":16579,"嘲諷":16580,"基準":16581,"宣判":16582,"就職":16583,"挫傷":16584,"攸關":16585,"曖昧":16586,"淚崩":16587,"生殖":16588,"男1女":16589,"的案例":16590,"至5":16591,"警衛":16592,"躲避":16593,"都知道":16594,"地方法院":16595,"25歲":16596,"怎麼樣":16597,"貼文發出後":16598,"送醫後":16599,"自動駕駛":16600,"有局部短暫陣雨":16601,"航運股":16602,"一壘手":16603,"先馳":16604,"公有":16605,"冒險":16606,"到4":16607,"去了":16608,"在台北市":16609,"大勝":16610,"影展":16611,"忙碌":16612,"急忙":16613,"慘死":16614,"應是":16615,"抽獎":16616,"拜訪":16617,"掙扎":16618,"案子":16619,"皇家":16620,"說了":16621,"趁機":16622,"迴轉":16623,"遏止":16624,"醫藥":16625,"離奇":16626,"19確定病例":16627,"在臉書表示":16628,"先馳得點":16629,"並稱":16630,"也從":16631,"以6":16632,"但沒有":16633,"冰淇淋":16634,"務實":16635,"周六":16636,"因子":16637,"在2020年":16638,"容忍":16639,"對美國":16640,"小學生":16641,"態勢":16642,"打過":16643,"提報":16644,"會更":16645,"東方":16646,"無可":16647,"的言論":16648,"看診":16649,"輻射":16650,"食安":16651,"11分":16652,"網友看了":16653,"日本媒體":16654,"50人":16655,"本土疫情升溫":16656,"事務所":16657,"資深媒體人":16658,"2歲":16659,"◢👉":16660,"◢👉<":16661,"也非常":16662,"休養":16663,"侵入":16664,"倉庫":16665,"全被":16666,"加拉":16667,"將再":16668,"放射":16669,"棉花":16670,"的最大":16671,"自曝":16672,"那時候":16673,"險勝":16674,"維持在":16675,"不可思議":16676,"大型活動":16677,"清潔消毒":16678,"股東會":16679,"之道":16680,"南北":16681,"帳單":16682,"攻佔":16683,"格外":16684,"獨居":16685,"礁溪":16686,"縱火":16687,"說服":16688,"責失":16689,"買家":16690,"載運":16691,"長久":16692,"靠北":16693,"民眾在":16694,"256":16695,"高中職":16696,"38度":16697,"很高興":16698,"太平洋":16699,"石門水庫":16700,"在我":16701,"士氣":16702,"延遲":16703,"收取":16704,"改口":16705,"日止":16706,"會繼續":16707,"權的":16708,"的計畫":16709,"社宅":16710,"節省":16711,"與他人":16712,"追緝":16713,"台灣防疫":16714,"第一天":16715,"1400":16716,">」<":16717,"紛紛表示":16718,"路北超高壓變電所":16719,"2千":16720,"7000":16721,"公立":16722,"南市":16723,"吸毒":16724,"將進行":16725,"帶到":16726,"敦促":16727,"期刊":16728,"氣喘":16729,"產後":16730,"端午":16731,"聲押":16732,"職位":16733,"聽說":16734,"肥胖":16735,"民眾對":16736,"第一位":16737,"中央疫情指揮中心":16738,"保護自己":16739,"訪問時":16740,"機師染疫案":16741,"五一勞動節":16742,"妨害公務":16743,"貨機機師":16744,"燃氣機組":16745,"里程碑":16746,"龍象大戰":16747,")。<":16748,";「":16749,"仰賴":16750,"副組長":16751,"回溫":16752,"大事":16753,"房租":16754,"抽菸":16755,"新光":16756,"權責":16757,"泡沫":16758,"片段":16759,"猥褻":16760,"盜壘":16761,"研習":16762,"變形":16763,"超車":16764,"餅乾":16765,"所以我":16766,"醫療資源":16767,"第三節":16768,"方面的":16769,"兒子的":16770,"檢驗結果":16771,"一名網友在":16772,"血清抗體陽性":16773,"有礙健康":16774,"5億元":16775,"一百":16776,"個國家":16777,"嘴巴":16778,"在今天":16779,"將人":16780,"建物":16781,"救命":16782,"樂趣":16783,"為基礎":16784,"看傻":16785,"移轉":16786,"西部":16787,"要用":16788,"配戴":16789,"零食":16790,"非核":16791,"首發":16792,"產業發展":16793,"攝影機":16794,"當地的":16795,"絕對是":16796,"一頭":16797,"上方":16798,"凝聚":16799,"切割":16800,"同居":16801,"向法院":16802,"官司":16803,"惶惶":16804,"拍戲":16805,"旗下的":16806,"昔日":16807,"相親":16808,"神山":16809,"著作":16810,"行事":16811,"誠實":16812,"買一":16813,"電機":16814,"體諒":16815,"per17":16816,"相關資訊":16817,"人員的":16818,"透過臉書":16819,"怎麼會":16820,"另一位":16821,"行政區":16822,"敲出安打":16823,"格式化":16824,"以2":16825,"圍堵":16826,"大國":16827,"察覺":16828,"撻伐":16829,"擁抱":16830,"橫跨":16831,"獲取":16832,"的價值":16833,"的作品":16834,"茶館":16835,"這一次":16836,"速食":16837,"馬力":16838,"體質":16839,"健康狀況":16840,"另外還有":16841,"?」▲":16842,"優惠價":16843,"系列賽":16844,"開發者":16845,"傳染性":16846,"社群網站":16847,"印象深刻":16848,"一分":16849,"下手":16850,"不爽":16851,"也請":16852,"也要求":16853,"只不過":16854,"外表":16855,"尖峰":16856,"屁股":16857,"座椅":16858,"感測":16859,"放到":16860,"是美國":16861,"更快":16862,"校區":16863,"洲際":16864,"流失":16865,"清明":16866,"烏龍":16867,"無虞":16868,"產線":16869,"立體":16870,"聽證":16871,"被判":16872,"視力":16873,"調節":16874,"這點":16875,"目前仍":16876,"123":16877,"50年":16878,"生活的":16879,"市場需求":16880,"面對面":16881,"台股今":16882,"趴趴走":16883,"下了":16884,"不解":16885,"也出現":16886,"信號":16887,"修憲":16888,"兩場":16889,"冷血":16890,"半局":16891,"含量":16892,"大地":16893,"後疫情":16894,"想吃":16895,"擴展":16896,"旁的":16897,"曾表示":16898,"服刑":16899,"極度":16900,"為1":16901,"讓使用者":16902,"轉述":16903,"高三":16904,"19疫情":16905,"我們要":16906,"日前往":16907,"世界排名":16908,"社會責任":16909,"進一步指出":16910,"有一位":16911,"年前的":16912,"初步調查":16913,"本來就":16914,"救護人員":16915,"應變中心":16916,"也就是說":16917,"經濟成長率":16918,"並有":16919,"分店":16920,"卻突然":16921,"台鐵":16922,"回復":16923,"左手":16924,"平地":16925,"改判":16926,"是為":16927,"有別":16928,"標語":16929,"疑問":16930,"相驗":16931,"站出來":16932,"繳費":16933,"至第二級":16934,"處境":16935,"辯稱":16936,"道理":16937,"部機組":16938,"鑑於":16939,"高價":16940,"億美元的":16941,"打造的":16942,"原則上":16943,"千萬不要":16944,"中崙派出所":16945,"不忍":16946,"不開":16947,"今早":16948,"伊斯":16949,"低迷":16950,"優良":16951,"加持":16952,"在該":16953,"姐妹":16954,"富商":16955,"引用":16956,"扭曲":16957,"抖音":16958,"時發現":16959,"甄試":16960,"番茄":16961,"的網路":16962,"節約":16963,"紅線":16964,"買單":16965,"軍公教":16966,"北市黨部":16967,"進一步表示":16968,"專案報告":16969,"地下水":16970,"咳嗽等不適症狀":16971,"上頭":16972,"人頭":16973,"兩款":16974,"共犯":16975,"則回應":16976,"同台":16977,"外匯":16978,"席次":16979,"平面":16980,"怒嗆":16981,"意志":16982,"我還":16983,"改建":16984,"敵人":16985,"日召開":16986,"校舍":16987,"水瓶":16988,"注重":16989,"準確":16990,"痠痛":16991,"的軍事":16992,"相約":16993,"缺點":16994,"舒緩":16995,"莫斯科":16996,"訪談":16997,"辯論":16998,"這天":16999,"郵件":17000,"鍵盤":17001,"陣中":17002,"養殖":17003,"生活中":17004,"對此表示":17005,"投資者":17006,"幫助球隊":17007,"機場防疫旅館":17008,"德基水庫":17009,"幼稚園":17010,")」":17011,"下個":17012,"分離":17013,"前妻":17014,"創歷史新高":17015,"卻因為":17016,"叫做":17017,"周一":17018,"喝水":17019,"外包":17020,"尊嚴":17021,"尖叫":17022,"干涉":17023,"掃蕩":17024,"校外":17025,"湧現":17026,"熱度":17027,"發的":17028,"的女兒":17029,"緩慢":17030,"警紀":17031,"這支":17032,"飆出":17033,"高血壓":17034,"台灣參與":17035,"106":17036,"1980":17037,"168":17038,"健康的":17039,"在臉書發文表示":17040,"都會有":17041,"能力不足":17042,"官員表示":17043,"產生的":17044,"建築物":17045,"分區輪流供電":17046,"一帶一路":17047,"奧斯卡":17048,"火葬場":17049,"一併":17050,"不合理":17051,"位居":17052,"冷戰":17053,"列席":17054,"副教授":17055,"升到":17056,"受限":17057,"口袋":17058,"在大陸":17059,"大罵":17060,"實戰":17061,"救印度":17062,"時就":17063,"樓層":17064,"腳踝":17065,"被爆":17066,"超強":17067,"這件事情":17068,"領隊":17069,"105":17070,"什麼時候":17071,"顯示器":17072,"領域的":17073,"88折":17074,"室外500人以上":17075,"更多財經相關新聞":17076,"4件":17077,"──":17078,"不影響":17079,"不希望":17080,"代打":17081,"侵擾":17082,"內戰":17083,"兩黨":17084,"化名":17085,"區公所":17086,"在哪裡":17087,"密度":17088,"對中":17089,"康乃":17090,"後將":17091,"技職":17092,"挪威":17093,"新版":17094,"月租":17095,"未見":17096,"珍愛":17097,"的標準":17098,"花生":17099,"被動":17100,"補強":17101,"詳情":17102,"麻痺":17103,"點心":17104,"出現的":17105,"甚至連":17106,"分享了":17107,"行動支付":17108,"公里處":17109,"意識到":17110,"一面倒":17111,"2023年":17112,"3萬元":17113,"9局":17114,"不准":17115,"勇於":17116,"半數":17117,"右側":17118,"已成為":17119,"廟會":17120,"怒批":17121,"捲入":17122,"搞笑":17123,"改編":17124,"案109":17125,"歹徒":17126,"無疑":17127,"自嘲":17128,"買氣":17129,"防曬":17130,"集水區":17131,"靈感":17132,"網友留言":17133,"指揮中心發言人":17134,"一名女子":17135,"研究團隊":17136,"飛行員":17137,"案1202":17138,"被問及":17139,"驅逐艦":17140,"失智症":17141,"7局上":17142,"」!<":17143,"兩週":17144,"副總":17145,"和他":17146,"喪失":17147,"大遊行":17148,"左外野":17149,"幼童":17150,"性命":17151,"性格":17152,"恰恰":17153,"成品":17154,"我沒有":17155,"旺季":17156,"更具":17157,"最具":17158,"桌上":17159,"歡樂":17160,"民法":17161,"活化":17162,"獎學金":17163,"異動":17164,"盡可能":17165,"真人":17166,"競技":17167,"糟糕":17168,"背包":17169,"與家人":17170,"視線":17171,"說他":17172,"這座":17173,"頓時":17174,"可以透過":17175,"25分":17176,"死亡率":17177,"死亡病例":17178,"大學指考":17179,"外送平台":17180,"3元":17181,"上銬":17182,"並請":17183,"也必須":17184,"再現":17185,"前輩":17186,"命名":17187,"國旗":17188,"多國":17189,"好投":17190,"好球":17191,"姓主嫌":17192,"張照片":17193,"患有":17194,"懲罰":17195,"所稅":17196,"控球":17197,"有機":17198,"某天":17199,"氣體":17200,"活潑":17201,"相繼":17202,"等單位":17203,"被封":17204,"親人":17205,"選在":17206,"金控":17207,"開齋":17208,"黑白":17209,"防疫人員":17210,"防疫懶人包":17211,"臉書粉專":17212,"今日上午":17213,"發文指出":17214,"70歲":17215,"第四節":17216,"電梯受困":17217,"來賓":17218,"回台灣":17219,"地鐵":17220,"拓荒":17221,"收斂":17222,"有過":17223,"標題":17224,"模型":17225,"特種":17226,"的食物":17227,"綁架":17228,"美照":17229,"配偶":17230,"開高":17231,"點擊":17232,"點餐":17233,"希望在":17234,"16例":17235,"世界盃":17236,">.+":17237,"知名度":17238,"缺水危機":17239,"僅次於":17240,"下一步":17241,"共餐":17242,"前景":17243,"包容":17244,"單價":17245,"干預":17246,"快閃":17247,"恐有":17248,"最嚴重的":17249,"為首":17250,"熱火":17251,"爭奪":17252,"的承諾":17253,"移植":17254,"議論":17255,"道奇":17256,"本土確診":17257,"環境消毒":17258,"27次":17259,"獅子會前會長":17260,"一連串":17261,"遼寧號":17262,"中醫":17263,"中指出":17264,"之星":17265,"借錢":17266,"克斯":17267,"卡車":17268,"去世":17269,"夜晚":17270,"失事":17271,"學費":17272,"已婚":17273,"抱持":17274,"攝氏":17275,"死傷":17276,"測量":17277,"溫柔":17278,"罹癌":17279,"處女":17280,"這兩個":17281,"點的":17282,"20元":17283,"今天新增":17284,"就是因為":17285,"17分":17286,"第二個":17287,"一定的":17288,"母親節前夕":17289,"至今已":17290,"高度關注":17291,"全程佩戴口罩":17292,"馬拉松":17293,"一番":17294,"以便":17295,"南向":17296,"同為":17297,"學士":17298,"房仲":17299,"投案":17300,"折疊":17301,"熱帶":17302,"熱銷":17303,"特權":17304,"的日子":17305,"直至":17306,"細菌":17307,"聯訪":17308,"要如何":17309,"試吃":17310,"貼近":17311,"退伍":17312,"都不能":17313,"點數":17314,"日本職棒":17315,"一起來":17316,"提升到":17317,"提升守護":17318,"全台各地":17319,"只要有":17320,"4月初":17321,"日起至":17322,"根本沒":17323,"呼吸器":17324,"值得一提":17325,"物資救印度":17326,"的心情":17327,"風景區":17328,"提升守護力":17329,"並透過":17330,"偷吃":17331,"公正":17332,"善用":17333,"國策":17334,"客製":17335,"廣角":17336,"有成":17337,"校系":17338,"水分":17339,"水的":17340,"淨空":17341,"火線":17342,"為自己":17343,"的遊戲":17344,"短片":17345,"芝加":17346,"誤解":17347,"輕傷":17348,"那就":17349,"香蕉":17350,"體能":17351,"希望能夠":17352,"真的太":17353,"國內累計":17354,"24分":17355,"機車騎士":17356,"鋒面接近":17357,"不好意思":17358,"相隔3個月":17359,"伊斯蘭":17360,"3倍":17361,"5倍":17362,"。』":17363,"主計":17364,"付錢":17365,"出包":17366,"卻沒":17367,"同年":17368,"均衡":17369,"奶油":17370,"接力":17371,"整個人":17372,"斷層":17373,"會晤":17374,"杜絕":17375,"款這裡":17376,"的資料":17377,"約5":17378,"臺北市":17379,"蘭嶼":17380,"褲子":17381,"課題":17382,"軍團":17383,"長得":17384,"關頭":17385,"疫情指揮中心指揮官":17386,"成員國":17387,"多種醫療口罩":17388,"超夯款這裡":17389,"防疫懶人包備起來":17390,"超夯款這裡挑選":17391,"七大":17392,"不一":17393,"不倫":17394,"主治":17395,"傷重":17396,"出勤":17397,"十五":17398,"好運":17399,"存活":17400,"從業":17401,"急著":17402,"推車":17403,"攻堅":17404,"教材":17405,"斥資":17406,"會影響":17407,"水域":17408,"深感":17409,"潑蟑":17410,"火化":17411,"牆壁":17412,"病變":17413,"的技術":17414,"結石":17415,"萬張":17416,"薯條":17417,"疫情衝擊":17418,"進行調查":17419,"照片來源":17420,"了一些":17421,"民視新聞網":17422,"東京相隔3個月":17423,"上市櫃":17424,"各國急":17425,"過失致死":17426,"座談會":17427,"人行道":17428,"芝加哥":17429,"1至":17430,"4例":17431,"5折":17432,"上游":17433,"不被":17434,"任意":17435,"傳給":17436,"副主委":17437,"勞資":17438,"北區":17439,"小編":17440,"巨大的":17441,"手錶":17442,"捐物資救印度":17443,"放過":17444,"漁業":17445,"產值":17446,"的電影":17447,"矛盾":17448,"碎片":17449,"聖火":17450,"聽了":17451,"連連":17452,"違停":17453,"台灣疫情":17454,"去年12月":17455,"警方到場":17456,"這個問題":17457,"管理局":17458,"這是一個":17459,"醫療體系":17460,"產品的":17461,"分區停電":17462,"黑道入黨":17463,"航空器感染":17464,"確診再破千":17465,"東京相隔3個月確診再破千":17466,"各國急捐物資救印度":17467,"9天":17468,"上陣":17469,"不來":17470,"串連":17471,"交叉":17472,"分工":17473,"化身":17474,"姓嫌犯":17475,"將提供":17476,"左營":17477,"忙著":17478,"是指":17479,"是真的":17480,"水車":17481,"為空":17482,"熱身":17483,"的意見":17484,"總價":17485,"購屋":17486,"項鍊":17487,"餘元":17488,"首富":17489,"美國與":17490,"發生過":17491,"還有網友":17492,"第三階段":17493,"數位轉型":17494,"一旁的":17495,":『":17496,"?)":17497,"一筆":17498,"反問":17499,"合影":17500,"姓駕駛":17501,"小巨蛋":17502,"感冒":17503,"拿去":17504,"搶下":17505,"明定":17506,"水平":17507,"無需":17508,"物體":17509,"率達":17510,"皇后":17511,"空品":17512,"網笑":17513,"陸媒":17514,"震怒":17515,"197":17516,"國家主席":17517,"共同努力":17518,"台南市長":17519,"還要再":17520,"確診個案中":17521,"1樓":17522,"600元":17523,"三角":17524,"不方便":17525,"不公平":17526,"並不會":17527,"偉大":17528,"六月":17529,"友誼":17530,"只需":17531,"善款":17532,"團員":17533,"官邸":17534,"寫真":17535,"小聯盟":17536,"新手":17537,"日舉辦":17538,"用地":17539,"發聲明":17540,"的比例":17541,"的模樣":17542,"組副組長":17543,"緩和":17544,"美學":17545,"自菲律賓":17546,"與他":17547,"英里":17548,"證人":17549,"護欄":17550,"起床":17551,"除役":17552,"雖有":17553,"驚慌":17554,"台灣有":17555,"因為我":17556,"意外發現":17557,"至少要":17558,"感到相當":17559,"北港朝天宮":17560,"衛生單位安排":17561,"1100513":17562,"5號":17563,"不認識":17564,"分歧":17565,"功夫":17566,"卻未":17567,"叔叔":17568,"吃起來":17569,"哭了":17570,"失靈":17571,"女將":17572,"審判":17573,"就沒":17574,"影城":17575,"拖延":17576,"救難":17577,"更改":17578,"更容易":17579,"榮耀":17580,"滑落":17581,"瑕疵":17582,"白人":17583,"百億":17584,"翻身":17585,"考區":17586,"肉粽":17587,"車速":17588,"軍政府":17589,"除罪":17590,"可以用":17591,"今天凌晨":17592,"進一步說明":17593,"公共危險":17594,"製作人":17595,"同期新高":17596,"大專校院":17597,"自治條例":17598,"人心惶惶":17599,"-)":17600,"4億":17601,"一組":17602,"人群":17603,"他將":17604,"份量":17605,"包庇":17606,"在美":17607,"居留":17608,"悄悄":17609,"搜出":17610,"攔查":17611,"消除":17612,"牛結節":17613,"珠寶":17614,"界線":17615,"異議":17616,"疏導":17617,"的核心":17618,"的權利":17619,"看板":17620,"祈禱":17621,"秘訣":17622,"被抓":17623,"角逐":17624,"身兼":17625,"這3":17626,"過境":17627,"離家":17628,"餵食":17629,"首款":17630,"騎乘":17631,"30多歲男性":17632,"其中包含":17633,"去年10月":17634,"還有待":17635,"期間並無":17636,"關鍵時刻":17637,"重點整理":17638,"電視劇":17639,"作戰區":17640,"有限公司":17641,"匯流新聞網記者":17642,"總量管制":17643,"低估":17644,"入獄":17645,"再擴大":17646,"划算":17647,"剩餘":17648,"和美國":17649,"回嗆":17650,"國造":17651,"士林":17652,"字頭":17653,"導覽":17654,"小龍":17655,"復發":17656,"手持":17657,"拉高":17658,"會把":17659,"期程":17660,"桐花":17661,"特徵":17662,"科罰金":17663,"莫名":17664,"萬戶":17665,"蘇聯":17666,"袋子":17667,"裝設":17668,"轉身":17669,"鐵道":17670,"面目":17671,"顆三分球":17672,"高出":17673,"競爭對手":17674,"半導體產業":17675,"外籍機師":17676,"成年人":17677,"公共場所活動史":17678,"核廢料":17679,"上學":17680,"也向":17681,"也持續":17682,"伊拉克":17683,"倒是":17684,"值班":17685,"副董事長":17686,"各家":17687,"天花":17688,"廣達":17689,"復活":17690,"忽視":17691,"惡煞":17692,"接續":17693,"握手":17694,"旅程":17695,"明尼":17696,"曾說":17697,"樣貌":17698,"流水":17699,"畫作":17700,"綁定":17701,"般的":17702,"艱難":17703,"製品":17704,"要多":17705,"調味":17706,"轄內":17707,"迫使":17708,"還不錯":17709,"都得":17710,"頭皮":17711,"政府應":17712,"指揮中心統計":17713,"必須在":17714,"案1217":17715,"主場迎戰":17716,"氧氣瓶":17717,"上將":17718,"之爭":17719,"保有":17720,"做成":17721,"兩地":17722,"兼具":17723,"到一半":17724,"動向":17725,"國泰":17726,"地緣":17727,"左側":17728,"忍痛":17729,"思想":17730,"新課綱":17731,"未知":17732,"正向":17733,"測謊":17734,"為他":17735,"特區":17736,"當兵":17737,"疏散":17738,"站的":17739,"笑話":17740,"緩起訴":17741,"衣物":17742,"見過":17743,"讓粉絲":17744,"追逐":17745,"開著":17746,"阻礙":17747,"陳男":17748,"難民":17749,"頁面":17750,"預賽":17751,"鼻子":17752,"人才培育":17753,"2例航空器感染":17754,"一手":17755,"佈局":17756,"前述":17757,"十三":17758,"圓滿":17759,"大王":17760,"女警":17761,"悲痛":17762,"憑藉":17763,"日式":17764,"村民":17765,"歌迷":17766,"深圳":17767,"火山":17768,"片中":17769,"狩獵":17770,"留學":17771,"看的":17772,"眾議員":17773,"硬碟":17774,"自有":17775,"藍委":17776,"補選":17777,"購入":17778,"走入":17779,"辦案":17780,"醜聞":17781,"靠山":17782,"預訂":17783,"全球經濟":17784,"小時後":17785,"?」「":17786,"引發討論":17787,"目標是":17788,"不僅如此":17789,"交通工具":17790,"狗狗幣":17791,"海底撈":17792,"產學合作":17793,"台積電":17794,"一到":17795,"一團":17796,"但我們":17797,"僅是":17798,"勇奪":17799,"又以":17800,"壽命":17801,"定案":17802,"就想":17803,"待在":17804,"接駁":17805,"推行":17806,"擬定":17807,"文末":17808,"水中":17809,"為因應":17810,"的你":17811,"的重點":17812,"解散":17813,"邀約":17814,"靜脈":17815,"頸部":17816,"高架":17817,"美國和":17818,"12天":17819,"緊急送醫":17820,"畫面中":17821,"有效的":17822,"登場的":17823,"以下有期徒刑":17824,"好吃的":17825,"就好了":17826,"研討會":17827,"值得一提的是":17828,"6歲":17829,":(":17830,"亮麗":17831,"保密":17832,"則會":17833,"動用":17834,"地獄":17835,"對峙":17836,"已向":17837,"形態":17838,"攻防":17839,"日將":17840,"止血":17841,"淪陷":17842,"特點":17843,"老鷹":17844,"要選":17845,"這塊":17846,"逝世":17847,"防災":17848,"駐外":17849,"體會":17850,"今天說":17851,"13分":17852,"第二劑":17853,"影片請點此":17854,"27歲":17855,"案1134":17856,"分別在":17857,"知名的":17858,"酒駕撞死":17859,"1例不明":17860,"變種病毒株":17861,"急診室":17862,"房務部":17863,"防空識別":17864,")「":17865,"上節目":17866,"不忘":17867,"來襲":17868,"偏高":17869,"僑民":17870,"勞團":17871,"地形":17872,"地雷":17873,"對自己":17874,"就表示":17875,"慈濟":17876,"戀情":17877,"拉扯":17878,"教頭":17879,"日曾":17880,"日間":17881,"歸隊":17882,"湮滅證據":17883,"的未來":17884,"的學校":17885,"的最新":17886,"的基礎":17887,"空襲":17888,"考古":17889,"行李":17890,"起司":17891,"違背":17892,"那時":17893,"開局":17894,"阿嬌":17895,"雷射":17896,"世界各地":17897,"系統供電":17898,"研究中心":17899,"召開臨時":17900,"加油打氣":17901,"種族滅絕":17902,"晶圓代工":17903,"長征五號":17904,"清零計畫":17905,"路竹路北超高壓變電所":17906,"5局上":17907,"上街":17908,"你有":17909,"假設":17910,"前瞻":17911,"受益":17912,"妨礙":17913,"小黃":17914,"愛國":17915,"掛牌":17916,"本地":17917,"殺出":17918,"無意":17919,"牽涉":17920,"的最佳":17921,"記載":17922,"警車":17923,"趕到現場":17924,"路面":17925,"轉發":17926,"還曾":17927,"還算":17928,"雙殺":17929,"鞭炮":17930,"117":17931,"今天也":17932,"甚至還有":17933,"比較多":17934,"舉行記者會":17935,"現金股利":17936,"移除為空":17937,"布魯克":17938,"麥克風":17939,"牛結節疹":17940,"期間並無症狀":17941,"6月底":17942,"不小":17943,"中外野":17944,"也引起":17945,"你會":17946,"出征":17947,"另1例":17948,"可樂":17949,"同業":17950,"奠定":17951,"戰局":17952,"推翻":17953,"提交":17954,"框架":17955,"無照":17956,"究竟是":17957,"草叢":17958,"被騙":17959,"製氧":17960,"要他":17961,"觸及":17962,"質問":17963,"跟蹤":17964,"那樣":17965,"都不是":17966,"中國疫苗":17967,"結果顯示":17968,"280":17969,"醫療應變":17970,"則是在":17971,"500萬":17972,"70萬":17973,"最終以":17974,"這一切":17975,"公共衛生":17976,"鼓勵民眾":17977,"當然是":17978,"為什麼要":17979,"購物中心":17980,"拓荒者":17981,"移除為空號":17982,"一棟":17983,"也都是":17984,"以巴":17985,"前幾天":17986,"升值":17987,"反而是":17988,"巴基":17989,"店的":17990,"拉長":17991,"校務":17992,"案530":17993,"檔期":17994,"燃油":17995,"的選手":17996,"眼看":17997,"科興":17998,"竹苗":17999,"螺絲":18000,"親民":18001,"逃亡":18002,"造假":18003,"除名":18004,"陸戰隊":18005,"進行了":18006,"運動中心":18007,"電影院":18008,"來自於":18009,"8個":18010,"下挫":18011,"下課":18012,"交友":18013,"全是":18014,"前陣子":18015,"喊出":18016,"囤房":18017,"圓夢":18018,"報價":18019,"外星":18020,"天蠍":18021,"履行":18022,"怒轟":18023,"我知道":18024,"我相信":18025,"探測":18026,"搭車":18027,"晴朗":18028,"毅力":18029,"猛獅":18030,"視障":18031,"認可":18032,"路旁":18033,"逃跑":18034,"錯了":18035,"長髮":18036,"16分":18037,">(@":18038,"降雨量":18039,"終於在":18040,"夥伴關係":18041,"通訊軟體":18042,"游泳池":18043,"隱形傳播鏈":18044,"共和國":18045,"公聽會":18046,":◎":18047,"不打":18048,"並對":18049,"企劃":18050,"再升級":18051,"吸入":18052,"善盡":18053,"增多":18054,"夫人":18055,"她和":18056,"學業":18057,"將至":18058,"巡防":18059,"市價":18060,"幫你":18061,"幫我":18062,"彌補":18063,"後又":18064,"愛吃":18065,"戰車":18066,"救濟":18067,"曾文":18068,"末節":18069,"樣本":18070,"玩命":18071,"球賽":18072,"甲狀":18073,"發全壘打":18074,"的意思":18075,"職籃":18076,"親屬":18077,"路徑":18078,"那天":18079,"今日娛樂":18080,"100人":18081,"香港的":18082,"新台幣兌美元":18083,"發布新聞稿":18084,"300元":18085,"不對勁":18086,"今日娛樂推薦影音":18087,"3折起":18088,"了許多":18089,"二次":18090,"仍待":18091,"休士頓":18092,"併發":18093,"倘若":18094,"同一個":18095,"圖案":18096,"增雨":18097,"孟加拉":18098,"彈藥":18099,"找尋":18100,"新德里":18101,"日是":18102,"無所":18103,"犯下":18104,"結盟":18105,"與國際":18106,"船舶":18107,"言之":18108,"試著":18109,"農村":18110,"新冠肺炎疫苗":18111,"資料來源":18112,"近日在":18113,"下來的":18114,"必要性":18115,"接獲通報":18116,"回來了":18117,"密切接觸者":18118,"送往醫院":18119,"腳踏車":18120,"主治醫師":18121,"巴基斯坦":18122,"一杯":18123,"一艘":18124,"並說":18125,"但他們":18126,"典範":18127,"刑警":18128,"到5":18129,"原諒":18130,"喬治":18131,"巨蟹":18132,"惹議":18133,"機上":18134,"瞄準":18135,"蒙古":18136,"認罪":18137,"迴響":18138,"配息":18139,"10大":18140,"我們是":18141,"我們都":18142,"已經被":18143,"學生們":18144,"去年11月":18145,"接觸者採檢":18146,"超音波":18147,"砂石車":18148,"5例":18149,"但從":18150,"作答":18151,"例子":18152,"公公":18153,"共4":18154,"勝出":18155,"國土":18156,"國有":18157,"小貨車":18158,"屏幕":18159,"已無":18160,"很像":18161,"憑證":18162,"拉回":18163,"搭上":18164,"整修":18165,"會同":18166,"此項":18167,"波鋒面":18168,"猛烈":18169,"生小孩":18170,"症候":18171,"翻倍":18172,"色的":18173,"逆向":18174,"邦交":18175,"都府":18176,"顏面":18177,"鹿港":18178,"日本人":18179,"現在就":18180,"媽媽們":18181,"透露自己":18182,"調整為":18183,"史上最":18184,"自費接種":18185,"現代人":18186,"進香團":18187,"3家":18188,"做過":18189,"吸菸":18190,"字樣":18191,"就得":18192,"徒步":18193,"微信":18194,"拍片":18195,"招標":18196,"指令":18197,"換算":18198,"更進一步":18199,"有在":18200,"檸檬":18201,"權值":18202,"歌唱":18203,"秘境":18204,"稅務":18205,"縣內":18206,"聖誕":18207,"認養":18208,"開唱":18209,"雙向":18210,"風電":18211,"疫情延燒":18212,"雖然有":18213,"下午3時":18214,"企業的":18215,"作業系統":18216,"科學園區":18217,"咖啡廳":18218,"成交金額":18219,"兩岸關係":18220,"]【<":18221,"有趣的是":18222,"護國神山":18223,"甲狀腺":18224,"三次":18225,"並呼籲":18226,"仍會":18227,"但沒想到":18228,"你可以":18229,"傷兵":18230,"公安":18231,"制憲":18232,"動工":18233,"在臺":18234,"多多":18235,"將她":18236,"拿出來":18237,"操演":18238,"會很":18239,"比2":18240,"注入":18241,"誕生":18242,"貴的":18243,"質感":18244,"送至":18245,"隔年":18246,"可以讓":18247,"已經開始":18248,"15歲":18249,"16歲":18250,"宣布將":18251,"都是在":18252,"為了避免":18253,"資料照片":18254,"三大法人":18255,"傳染病防治":18256,"呼吸道症狀":18257,"2024年":18258,"新型冠狀病毒肺炎":18259,"不著":18260,"中鋒":18261,"亞軍":18262,"債券":18263,"區內":18264,"售票":18265,"回事":18266,"失掉":18267,"季中":18268,"完了":18269,"山東":18270,"應有":18271,"拳擊":18272,"數月":18273,"有兩":18274,"有需要":18275,"止痛":18276,"淘汰":18277,"稅收":18278,"組別":18279,"職權":18280,"與此":18281,"菁英":18282,"蘿蔔":18283,"處的":18284,"被罵":18285,"要價":18286,"豬腳":18287,"贏家":18288,"透天":18289,"這句話":18290,"遭撞":18291,"騎樓":18292,"的一些":18293,"有一天":18294,"800萬":18295,"全力配合":18296,"時期的":18297,"3000元":18298,"3支安打":18299,"6萬元":18300,"也提供":18301,"但對於":18302,"促轉":18303,"店長":18304,"恐龍":18305,"攤販":18306,"曼谷":18307,"濕地":18308,"牛隻":18309,"特價":18310,"現蹤":18311,"發酵":18312,"的家庭":18313,"符號":18314,"雙贏":18315,"飛往":18316,"食道":18317,"飽受":18318,"高低":18319,"希望他":18320,"18分":18321,"保護法":18322,"的話題":18323,"日晚間在":18324,"爆料公社":18325,"黑衣人闖":18326,"百貨公司":18327,"大阪府":18328,"醫療應變組副組長":18329,")。」":18330,"一千":18331,"不一定":18332,"亞太":18333,"人染疫":18334,"偏低":18335,"八點":18336,"刑責":18337,"加薩":18338,"幾位":18339,"心血管":18340,"投下":18341,"朝向":18342,"櫻花":18343,"洩漏":18344,"洽談":18345,"減重":18346,"琉球":18347,"的後":18348,"的事實":18349,"禮貌":18350,"荒謬":18351,"這幾年":18352,"過大":18353,"間諜":18354,"頂樓":18355,"20至":18356,"104":18357,"第一劑":18358,"是否要":18359,"特別的":18360,"研究人員":18361,"國外入境後":18362,"住院隔離中":18363,"開齋節":18364,"!」。":18365,"不吃":18366,"也針對":18367,"入手":18368,"共鳴":18369,"口服":18370,"天生":18371,"威力":18372,"完後":18373,"已要求":18374,"得好":18375,"應付":18376,"挨批":18377,"放進":18378,"有症狀":18379,"有意義":18380,"武肺":18381,"烤肉":18382,"環節":18383,"甘霖":18384,"的形象":18385,"科大":18386,"肌膚":18387,"西裝":18388,"言語":18389,"課本":18390,"買了一":18391,"轉帳":18392,"轟炸":18393,"這才":18394,"馬路上":18395,"高手":18396,"今年第1季":18397,"世界各國":18398,"!」▲":18399,"不斷更新":18400,"加強防疫":18401,"當地居民":18402,"成立的":18403,"數位化":18404,"呼吸心跳":18405,"皆為陰性":18406,"加權指數":18407,"國外入境後如有發燒":18408,"交道":18409,"凍結":18410,"則可":18411,"前天":18412,"剛開始":18413,"南方":18414,"寫作":18415,"戶籍":18416,"打進":18417,"指南":18418,"搶攻":18419,"擅長":18420,"數以":18421,"新郎":18422,"月球":18423,"槍砲":18424,"每公升":18425,"滑梯":18426,"熊熊":18427,"玉山":18428,"甜甜":18429,"疲勞":18430,"白襪":18431,"眼尖":18432,"突擊":18433,"紙本":18434,"註記":18435,"跑車":18436,"遠遠":18437,"隱匿":18438,"馬桶":18439,"點燃":18440,"如果要":18441,"台股今天":18442,"兩人在":18443,"大雨特報":18444,"陪同下":18445,"蓄水率":18446,"系統供電能力不足":18447,"]〈":18448,"三軍":18449,"估算":18450,"列印":18451,"即將在":18452,"場內":18453,"墊底":18454,"如遭移除請見諒":18455,"局數":18456,"廢除":18457,"復原":18458,"接替":18459,"是她":18460,"是我們":18461,"東北部":18462,"泌尿":18463,"濃厚":18464,"瀕臨":18465,"班次":18466,"男神":18467,"的討論":18468,"站票":18469,"締造":18470,"總處":18471,"美人":18472,"自強":18473,"軍官":18474,"配上":18475,"配發":18476,"院校":18477,"驚爆":18478,">-<":18479,"小時內":18480,"也不知道":18481,"觀察到":18482,"直播主":18483,"2分打點":18484,"每股盈餘":18485,"國防部長":18486,"公費接種":18487,"有局部短暫雨":18488,"不應求":18489,"人流管制":18490,"市占率":18491,"1張":18492,"7次":18493,"不起訴":18494,"丟掉":18495,"傳來":18496,"冒出":18497,"前鋒":18498,"創傷":18499,"南京":18500,"已初步掌握":18501,"年年":18502,"年終":18503,"影后":18504,"心中的":18505,"我自己":18506,"房產":18507,"扶養":18508,"旺盛":18509,"書中":18510,"最主要":18511,"有如":18512,"未獲":18513,"死於":18514,"民營":18515,"火節":18516,"燈光":18517,"笑死":18518,"自備":18519,"講述":18520,"讓許多":18521,"迴避":18522,"逆勢":18523,"重現":18524,"政府與":18525,"學生在":18526,"現在已經":18527,"14分":18528,"看到的":18529,"超過1":18530,"提醒大家":18531,"100天":18532,"研發的":18533,"排放量":18534,"體溫量測":18535,"足夠的":18536,"育嬰留":18537,"康乃馨":18538,"也都有":18539,"以致":18540,"儘快":18541,"到最後":18542,"得起":18543,"技藝":18544,"拘留":18545,"救助":18546,"桃花":18547,"步行":18548,"段時間":18549,"洽公":18550,"的有":18551,"監理":18552,"眼光":18553,"神情":18554,"票價":18555,"網美":18556,"聆聽":18557,"與否":18558,"蔬果":18559,"複賽":18560,"規避":18561,"買不到":18562,"購票":18563,"跨領域":18564,"身上的":18565,"退票":18566,"逛街":18567,"醒來":18568,"重疊":18569,"錯失":18570,"難忘":18571,"領養":18572,"鮮肉":18573,"目前沒有":18574,"15萬":18575,"22歲":18576,"媒體詢問":18577,"...」、「":18578,"施打率":18579,"也會有":18580,"不明原因":18581,"在家裡":18582,"簡單的":18583,"正確的":18584,"輝瑞疫苗":18585,"截至目前國內累計":18586,"短時間內":18587,"中年":18588,"之上":18589,"使館":18590,"供不應求":18591,"促銷":18592,"價差":18593,"克里":18594,"再由":18595,"刀械":18596,"反省":18597,"向前":18598,"字母":18599,"學霸":18600,"將針對":18601,"帶回家":18602,"常客":18603,"憾事":18604,"散步":18605,"染黑":18606,"民事":18607,"消耗":18608,"特蘭":18609,"球后":18610,"盛行":18611,"科主任":18612,"舞場":18613,"著名":18614,"蒸發":18615,"載具":18616,"遠傳":18617,"還包括":18618,"陳屍":18619,"2017":18620,"出現症狀":18621,"手機的":18622,"關係法":18623,"加強消毒":18624,"媽祖遶境":18625,"富邦勇士":18626,"印度疫情失控":18627,"罹難者家屬":18628,"匯流新聞網報導":18629,"國策顧問":18630,"症候群":18631,"2連勝":18632,"6元":18633,"一套":18634,"二手":18635,"信賴":18636,"出清":18637,"列管":18638,"到大":18639,"到校":18640,"包辦":18641,"哀悼":18642,"就將":18643,"摺疊":18644,"擺攤":18645,"熊貓":18646,"病故":18647,"的海":18648,"的任務":18649,"相差":18650,"租賃":18651,"線的":18652,"設廠":18653,"走低":18654,"走過":18655,"這2":18656,"遵照":18657,"霸主":18658,"沒有什麼":18659,"可能要":18660,"問題的":18661,"警方獲報":18662,"真的好":18663,"社區傳播":18664,"當地時間":18665,"至今仍":18666,"稅後淨利":18667,"國產疫苗":18668,"全中運":18669,"也不要":18670,"保佑":18671,"刀流":18672,"多款":18673,"寫的":18674,"少見":18675,"島嶼":18676,"店裡":18677,"悲傷":18678,"所提":18679,"手環":18680,"才被":18681,"早晚":18682,"旱災":18683,"有待":18684,"母子":18685,"深深":18686,"的10":18687,"秋冬":18688,"老大":18689,"背後的":18690,"自營":18691,"芝麻":18692,"萊劑":18693,"跑回":18694,"遇過":18695,"適度":18696,"都更":18697,"附加":18698,"院內":18699,"高教":18700,"。」(":18701,"美國在":18702,"服務業":18703,"朋友的":18704,"節目上":18705,"500人":18706,"尤其在":18707,"醫學系":18708,"但也有人":18709,"前任":18710,"各隊":18711,"和台灣":18712,"塞爾":18713,"就對":18714,"市政府":18715,"布里":18716,"平民":18717,"才不會":18718,"月光":18719,"氣的":18720,"炒房":18721,"的症狀":18722,"私密":18723,"肺部":18724,"行員":18725,"街上":18726,"製成":18727,"角力":18728,"讓外界":18729,"豆漿":18730,"貧窮":18731,"買下":18732,"趕抵":18733,"路況":18734,"道瓊":18735,"長程":18736,"驚艷":18737,"疫苗後":18738,"目前已有":18739,"國家公園":18740,"13日電":18741,"業者提供":18742,"23分":18743,"預計於":18744,"流行音樂":18745,"學習歷程":18746,"年齡層":18747,"7局下":18748,"並配合":18749,"優點":18750,"再以":18751,"再加":18752,"擴產":18753,"放話":18754,"族裔":18755,"殺手":18756,"流通":18757,"演奏":18758,"無匡列接觸者":18759,"獨裁":18760,"背部":18761,"變身":18762,"買盤":18763,"賣家":18764,"起駕":18765,"都以":18766,"都認為":18767,"集合":18768,"鳳山":18769,"今年第一季":18770,"交通事故":18771,"交流道":18772,"下降到":18773,"終場以":18774,"近況曝光":18775,"獨特的":18776,"三讀通過":18777,"因事故全廠停機":18778,"350":18779,"一架":18780,"一年的":18781,"上修":18782,"不好的":18783,"也無":18784,"了不少":18785,"修圖":18786,"公道":18787,"出水":18788,"女優":18789,"工安":18790,"您的":18791,"把自己":18792,"撫養":18793,"新一波":18794,"標章":18795,"沉默":18796,"海嘯":18797,"然大":18798,"砸電腦":18799,"紀律":18800,"約台幣":18801,"綠委":18802,"緊接著":18803,"腸道":18804,"自住":18805,"英鎊":18806,"複合":18807,"雷霆":18808,"org16":18809,"防疫旅宿":18810,"因為他們":18811,"進行檢疫":18812,"今年以來":18813,"指揮中心也":18814,"生活品質":18815,"世界紀錄":18816,"本土感染":18817,"飯店員工":18818,"的一種":18819,"民主國家":18820,"不滿意":18821,"表達對":18822,"的大型":18823,"授權提供":18824,"在2017年":18825,"地下室":18826,"植物人":18827,"3局上":18828,"不放棄":18829,"中學":18830,"低薪":18831,"借提":18832,"單節":18833,"圖像":18834,"在4月":18835,"地表":18836,"奇景":18837,"客訴":18838,"巷弄":18839,"戰士":18840,"所學校":18841,"接單":18842,"日因":18843,"榜首":18844,"特勤":18845,"畫家":18846,"盜刷":18847,"竄出":18848,"談論":18849,"負債":18850,"速球":18851,"重度":18852,"開場":18853,"鞋子":18854,"首歌":18855,"黨職":18856,"29歲":18857,"表現亮眼":18858,"預計今年":18859,"文章來源":18860,"幾乎是":18861,"暫停開放":18862,"轉型正義":18863,"房地合一":18864,"經濟學人":18865,"聯合品牌運動":18866,"1000元":18867,"8例":18868,">【":18869,"。●":18870,"。」、「":18871,"不肯":18872,"仍可":18873,"伴隨":18874,"供貨":18875,"取餐":18876,"受災":18877,"型號":18878,"城鎮":18879,"增至":18880,"天秤":18881,"引領":18882,"我沒":18883,"插管":18884,"有何":18885,"殊榮":18886,"水溝":18887,"爭吵":18888,"生了":18889,"異狀":18890,"痛心":18891,"的嗎":18892,"盛大":18893,"網軍":18894,"老家":18895,"藉口":18896,"裝飾":18897,"賦予":18898,"退貨":18899,"電纜":18900,"願望":18901,"19分":18902,"15人":18903,"接種率":18904,"調查後":18905,">》,":18906,"最新消息":18907,"綜合外媒報導":18908,"系列活動":18909,"一張照片":18910,"攜手合作":18911,"案1090":18912,"。▼▲":18913,"天花板":18914,"),<":18915,"8個月":18916,"也得":18917,"偵訊":18918,"兵庫":18919,"勝選":18920,"在2018年":18921,"多方":18922,"多點":18923,"大鬧":18924,"娘家":18925,"宇宙":18926,"導航":18927,"愛犬":18928,"拖吊":18929,"撤換":18930,"教務":18931,"教會":18932,"易科罰金":18933,"是用":18934,"最愛的":18935,"沉重":18936,"演訓":18937,"物聯網":18938,"異性":18939,"督察":18940,"破門":18941,"砸毀":18942,"突襲":18943,"等4":18944,"缺料":18945,"罰則":18946,"與社會":18947,"蛋黃":18948,"讓更多":18949,"跟隨":18950,
[...]
