{"version":"1.0","truncation":null,"padding":null,"added_tokens":[{"id":0,"special":true,"content":"<unk>","single_word":false,"lstrip":false,"rstrip":false,"normalized":false},{"id":1,"special":true,"content":"[CLS]","single_word":false,"lstrip":false,"rstrip":false,"normalized":false},{"id":2,"special":true,"content":"[SEP]","single_word":false,"lstrip":false,"rstrip":false,"normalized":false},{"id":3,"special":true,"content":"[PAD]","single_word":false,"lstrip":false,"rstrip":false,"normalized":false},{"id":4,"special":true,"content":"[MASK]","single_word":false,"lstrip":false,"rstrip":false,"normalized":false},{"id":5,"special":true,"content":"<en>","single_word":false,"lstrip":false,"rstrip":false,"normalized":false},{"id":6,"special":true,"content":"<num>","single_word":false,"lstrip":false,"rstrip":false,"normalized":false},{"id":7,"special":true,"content":"<per0>","single_word":false,"lstrip":false,"rstrip":false,"normalized":false},{"id":8,"special":true,"content":"<per1>","single_word":false,"lstrip":false,"rstrip":false,"normalized":false},{"id":9,"special":true,"content":"<per2>","single_word":false,"lstrip":false,"rstrip":false,"normalized":false},{"id":10,"special":true,"content":"<per3>","single_word":false,"lstrip":false,"rstrip":false,"normalized":false},{"id":11,"special":true,"content":"<per4>","single_word":false,"lstrip":false,"rstrip":false,"normalized":false},{"id":12,"special":true,"content":"<per5>","single_word":false,"lstrip":false,"rstrip":false,"normalized":false},{"id":13,"special":true,"content":"<per6>","single_word":false,"lstrip":false,"rstrip":false,"normalized":false},{"id":14,"special":true,"content":"<per7>","single_word":false,"lstrip":false,"rstrip":false,"normalized":false},{"id":15,"special":true,"content":"<per8>","single_word":false,"lstrip":false,"rstrip":false,"normalized":false},{"id":16,"special":true,"content":"<per9>","single_word":false,"lstrip":false,"rstrip":false,"normalized":false},{"id":17,"special":true,"content":"<org0>","single_word":false,"lstrip":false,"rstrip":false,"normalized":false},{"id":18,"special":true,"content":"<org1>","single_word":false,"lstrip":false,"rstrip":false,"normalized":false},{"id":19,"special":true,"content":"<org2>","single_word":false,"lstrip":false,"rstrip":false,"normalized":false},{"id":20,"special":true,"content":"<org3>","single_word":false,"lstrip":false,"rstrip":false,"normalized":false},{"id":21,"special":true,"content":"<org4>","single_word":false,"lstrip":false,"rstrip":false,"normalized":false},{"id":22,"special":true,"content":"<org5>","single_word":false,"lstrip":false,"rstrip":false,"normalized":false},{"id":23,"special":true,"content":"<org6>","single_word":false,"lstrip":false,"rstrip":false,"normalized":false},{"id":24,"special":true,"content":"<org7>","single_word":false,"lstrip":false,"rstrip":false,"normalized":false},{"id":25,"special":true,"content":"<org8>","single_word":false,"lstrip":false,"rstrip":false,"normalized":false},{"id":26,"special":true,"content":"<org9>","single_word":false,"lstrip":false,"rstrip":false,"normalized":false},{"id":27,"special":true,"content":"<loc0>","single_word":false,"lstrip":false,"rstrip":false,"normalized":false},{"id":28,"special":true,"content":"<loc1>","single_word":false,"lstrip":false,"rstrip":false,"normalized":false},{"id":29,"special":true,"content":"<loc2>","single_word":false,"lstrip":false,"rstrip":false,"normalized":false},{"id":30,"special":true,"content":"<loc3>","single_word":false,"lstrip":false,"rstrip":false,"normalized":false},{"id":31,"special":true,"content":"<loc4>","single_word":false,"lstrip":false,"rstrip":false,"normalized":false},{"id":32,"special":true,"content":"<loc5>","single_word":false,"lstrip":false,"rstrip":false,"normalized":false},{"id":33,"special":true,"content":"<loc6>","single_word":false,"lstrip":false,"rstrip":false,"normalized":false},{"id":34,"special":true,"content":"<loc7>","single_word":false,"lstrip":false,"rstrip":false,"normalized":false},{"id":35,"special":true,"content":"<loc8>","single_word":false,"lstrip":false,"rstrip":false,"normalized":false},{"id":36,"special":true,"content":"<loc9>","single_word":false,"lstrip":false,"rstrip":false,"normalized":false}],"normalizer":null,"pre_tokenizer":{"type":"Whitespace"},"post_processor":null,"decoder":null,"model":{"type":"BPE","dropout":null,"unk_token":"<unk>","continuing_subword_prefix":null,"end_of_word_suffix":null,"fuse_unk":false,"vocab":{"<unk>":0,"[CLS]":1,"[SEP]":2,"[PAD]":3,"[MASK]":4,"<en>":5,"<num>":6,"<per0>":7,"<per1>":8,"<per2>":9,"<per3>":10,"<per4>":11,"<per5>":12,"<per6>":13,"<per7>":14,"<per8>":15,"<per9>":16,"<org0>":17,"<org1>":18,"<org2>":19,"<org3>":20,"<org4>":21,"<org5>":22,"<org6>":23,"<org7>":24,"<org8>":25,"<org9>":26,"<loc0>":27,"<loc1>":28,"<loc2>":29,"<loc3>":30,"<loc4>":31,"<loc5>":32,"<loc6>":33,"<loc7>":34,"<loc8>":35,"<loc9>":36,"!":37,"+":38,",":39,"-":40,".":41,"/":42,"0":43,"1":44,"2":45,"3":46,"4":47,"5":48,"6":49,"7":50,"8":51,"9":52,":":53,"<":54,">":55,"?":56,"E":57,"P":58,"S":59,"[":60,"]":61,"c":62,"e":63,"g":64,"k":65,"l":66,"m":67,"n":68,"o":69,"p":70,"r":71,"u":72,"~":73,"、":74,"。":75,"《":76,"》":77,"「":78,"」":79,"㑹":80,"㕩":81,"㖔":82,"㖿":83,"㗎":84,"㙡":85,"㚬":86,"㝷":87,"㡳":88,"㢆":89,"㢬":90,"㤋":91,"㥁":92,"㦬":93,"㩒":94,"㩗":95,"㩦":96,"㮔":97,"㮶":98,"㵢":99,"㸆":100,"㹢":101,"㹴":102,"㺢":103,"㼈":104,"䁐":105,"䃼":106,"䄂":107,"䅲":108,"䆁":109,"䊢":110,"䏈":111,"䐟":112,"䒩":113,"䕶":114,"䗍":115,"䠷":116,"䡗":117,"䢌":118,"䥣":119,"䨝":120,"䨷":121,"䳍":122,"䴉":123,"一":124,"丁":125,"七":126,"丅":127,"万":128,"丈":129,"三":130,"上":131,"下":132,"不":133,"与":134,"丐":135,"丑":136,"专":137,"且":138,"丕":139,"世":140,"丘":141,"丙":142,"业":143,"丛":144,"东":145,"丝":146,"丞":147,"丟":148,"両":149,"丢":150,"两":151,"严":152,"並":153,"丧":154,"丨":155,"个":156,"丫":157,"中":158,"丰":159,"串":160,"临":161,"丶":162,"丸":163,"丹":164,"为":165,"主":166,"丼":167,"丽":168,"举":169,"丿":170,"乀":171,"乃":172,"久":173,"么":174,"义":175,"之":176,"乌":177,"乍":178,"乎":179,"乏":180,"乐":181,"乑":182,"乒":183,"乓":184,"乔":185,"乖":186,"乗":187,"乘":188,"乙":189,"乜":190,"九":191,"乞":192,"也":193,"习":194,"乡":195,"书":196,"乩":197,"乬":198,"买":199,"乱":200,"乳":201,"乾":202,"亀":203,"亁":204,"亂":205,"了":206,"予":207,"争":208,"事":209,"二":210,"于":211,"亏":212,"云":213,"互":214,"亓":215,"五":216,"井":217,"亘":218,"亙":219,"亚":220,"些":221,"亝":222,"亞":223,"亟":224,"亡":225,"亢":226,"交":227,"亥":228,"亦":229,"产":230,"亨":231,"亩":232,"享":233,"京":234,"亭":235,"亮":236,"亲":237,"亳":238,"人":239,"亻":240,"亿":241,"什":242,"仁":243,"仃":244,"仄":245,"仅":246,"仆":247,"仇":248,"今":249,"介":250,"仍":251,"从":252,"仏":253,"仔":254,"仕":255,"他":256,"仗":257,"付":258,"仙":259,"仝":260,"仟":261,"代":262,"令":263,"以":264,"仦":265,"仨":266,"仪":267,"仫":268,"们":269,"仰":270,"仱":271,"仲":272,"仵":273,"件":274,"价":275,"任":276,"仼":277,"份":278,"仿":279,"企":280,"伂":281,"伃":282,"伉":283,"伊":284,"伍":285,"伎":286,"伏":287,"伐":288,"休":289,"伕":290,"众":291,"优":292,"伙":293,"会":294,"伝":295,"伞":296,"伟":297,"传":298,"伤":299,"伦":300,"伯":301,"估":302,"伴":303,"伶":304,"伷":305,"伸":306,"伺":307,"似":308,"伽":309,"佀":310,"佁":311,"佃":312,"但":313,"佇":314,"佈":315,"位":316,"低":317,"住":318,"佐":319,"佑":320,"体":321,"佔":322,"何":323,"佗":324,"佘":325,"余":326,"佚":327,"佛":328,"作":329,"佝":330,"佞":331,"佟":332,"你":333,"佢":334,"佣":335,"佤":336,"佧":337,"佩":338,"佬":339,"佮":340,"佯":341,"佰":342,"佳":343,"佴":344,"併":345,"佶":346,"佷":347,"佻":348,"佼":349,"佾":350,"使":351,"侃":352,"侄":353,"來":354,"侈":355,"侊":356,"例":357,"侍":358,"侏":359,"侐":360,"侑":361,"侓":362,"侖":363,"侗":364,"侘":365,"供":366,"依":367,"侠":368,"価":369,"侣":370,"侥":371,"侧":372,"侨":373,"侮":374,"侯":375,"侳":376,"侵":377,"侶":378,"侷":379,"侹":380,"便":381,"俁":382,"係":383,"促":384,"俄":385,"俊":386,"俋":387,"俍":388,"俎":389,"俏":390,"俐":391,"俑":392,"俓":393,"俗":394,"俘":395,"俚":396,"俛":397,"保":398,"俞":399,"俟":400,"俠":401,"信":402,"俢":403,"俣":404,"俤":405,"俥":406,"俩":407,"俬":408,"修":409,"俯":410,"俱":411,"俳":412,"俵":413,"俸":414,"俺":415,"俾":416,"倀":417,"倂":418,"倆":419,"倉":420,"個":421,"倌":422,"倍":423,"倏":424,"們":425,"倒":426,"倔":427,"倖":428,"倘":429,"候":430,"倚":431,"倜":432,"倞":433,"借":434,"倡":435,"倢":436,"倣":437,"値":438,"倥":439,"倦":440,"倨":441,"倩":442,"倪":443,"倫":444,"倭":445,"倮":446,"倰":447,"倴":448,"债":449,"值":450,"倾":451,"偃":452,"假":453,"偈":454,"偉":455,"偌":456,"偎":457,"偏":458,"偑":459,"偒":460,"偕":461,"做":462,"停":463,"健":464,"偲":465,"側":466,"偵":467,"偶":468,"偷":469,"偽":470,"偿":471,"傀":472,"傅":473,"傈":474,"傋":475,"傍":476,"傎":477,"傑":478,"傘":479,"備":480,"傚":481,"傢":482,"傣":483,"储":484,"催":485,"傭":486,"傯":487,"傱":488,"傲":489,"傳":490,"債":491,"傷":492,"傻":493,"傾":494,"僂":495,"僅":496,"僊":497,"働":498,"像":499,"僑":500,"僕":501,"僖":502,"僚":503,"僞":504,"僥":505,"僧":506,"僭":507,"僮":508,"僱":509,"僳":510,"僵":511,"價":512,"僻":513,"儀":514,"儂":515,"億":516,"儅":517,"儆":518,"儇":519,"儈":520,"儉":521,"儋":522,"儍":523,"儎":524,"儒":525,"儔":526,"儕":527,"儘":528,"償":529,"儡":530,"儣":531,"優":532,"儱":533,"儲":534,"儷":535,"儸":536,"儺":537,"儻":538,"儼":539,"儿":540,"兀":541,"允":542,"元":543,"兄":544,"充":545,"兆":546,"兇":547,"先":548,"光":549,"克":550,"兌":551,"免":552,"兎":553,"児":554,"兑":555,"兒":556,"兔":557,"兗":558,"党":559,"兜":560,"兢":561,"入":562,"內":563,"全":564,"兩":565,"兪":566,"八":567,"公":568,"六":569,"兮":570,"兰":571,"共":572,"兲":573,"关":574,"兴":575,"兵":576,"其":577,"具":578,"典":579,"兹":580,"养":581,"兼":582,"冀":583,"冄":584,"内":585,"円":586,"冇":587,"冈":588,"冉":589,"冊":590,"冋":591,"册":592,"再":593,"冏":594,"冑":595,"冒":596,"冓":597,"冕":598,"冖":599,"冗":600,"写":601,"冚":602,"军":603,"农":604,"冠":605,"冢":606,"冤":607,"冥":608,"冧":609,"冨":610,"冪":611,"冬":612,"冮":613,"冰":614,"冲":615,"决":616,"冴":617,"况":618,"冶":619,"冷":620,"冻":621,"冼":622,"冽":623,"冾":624,"净":625,"凃":626,"凄":627,"凅":628,"准":629,"凈":630,"凉":631,"凊":632,"凋":633,"凌":634,"凍":635,"减":636,"凑":637,"凖":638,"凛":639,"凜":640,"凝":641,"凟":642,"几":643,"凡":644,"凤":645,"処":646,"凪":647,"凭":648,"凯":649,"凰":650,"凱":651,"凳":652,"凴":653,"凶":654,"凸":655,"凹":656,"出":657,"击":658,"凼":659,"函":660,"刀":661,"刁":662,"刂":663,"刃":664,"分":665,"切":666,"刈":667,"刊":668,"刋":669,"刎":670,"刑":671,"划":672,"刖":673,"列":674,"刘":675,"则":676,"刚":677,"创":678,"初":679,"删":680,"刣":681,"判":682,"別":683,"刨":684,"利":685,"刪":686,"别":687,"刮":688,"到":689,"制":690,"刷":691,"券":692,"刹":693,"刺":694,"刻":695,"刼":696,"剁":697,"剂":698,"剃":699,"則":700,"剉":701,"削":702,"剋":703,"剌":704,"前":705,"剎":706,"剑":707,"剔":708,"剖":709,"剛":710,"剜":711,"剝":712,"剣":713,"剤":714,"剥":715,"剧":716,"剩":717,"剪":718,"剮":719,"副":720,"剰":721,"割":722,"剴":723,"創":724,"剷":725,"剽":726,"剿":727,"劃":728,"劇":729,"劈":730,"劉":731,"劊":732,"劍":733,"劏":734,"劑":735,"力":736,"劝":737,"办":738,"功":739,"加":740,"务":741,"劣":742,"动":743,"助":744,"努":745,"劫":746,"劬":747,"劭":748,"励":749,"劲":750,"劳":751,"労":752,"劵":753,"効":754,"劼":755,"劾":756,"势":757,"勁":758,"勃":759,"勄":760,"勅":761,"勇":762,"勉":763,"勍":764,"勐":765,"勑":766,"勒":767,"動":768,"勖":769,"勗":770,"勘":771,"務":772,"勛":773,"勝":774,"勞":775,"募":776,"勢":777,"勣":778,"勤":779,"勥":780,"勦":781,"勧":782,"勱":783,"勲":784,"勳":785,"勵":786,"勸":787,"勺":788,"勻":789,"勾":790,"勿":791,"匀":792,"匂":793,"包":794,"匆":795,"匈":796,"匍":797,"匏":798,"匐":799,"匕":800,"化":801,"北":802,"匙":803,"匝":804,"匠":805,"匡":806,"匣":807,"匪":808,"匭":809,"匮":810,"匯":811,"匱":812,"匹":813,"区":814,"医":815,"匾":816,"匿":817,"區":818,"十":819,"千":820,"卄":821,"卅":822,"升":823,"午":824,"卉":825,"半":826,"卌":827,"卍":828,"华":829,"协":830,"卐":831,"卑":832,"卒":833,"卓":834,"協":835,"单":836,"卖":837,"南":838,"博":839,"卜":840,"卞":841,"卟":842,"占":843,"卡":844,"卢":845,"卦":846,"卧":847,"卫":848,"卯":849,"印":850,"危":851,"卲":852,"即":853,"却":854,"卵":855,"卷":856,"卸":857,"卹":858,"卻":859,"卿":860,"厂":861,"厄":862,"厅":863,"历":864,"厉":865,"压":866,"厓":867,"厘":868,"厚":869,"厛":870,"厝":871,"原":872,"厠":873,"厡":874,"厥":875,"厦":876,"厨":877,"厭":878,"厮":879,"厰":880,"厲":881,"厳":882,"厶":883,"去":884,"县":885,"叁":886,"参":887,"參":888,"叄":889,"又":890,"叉":891,"及":892,"友":893,"双":894,"反":895,"収":896,"发":897,"叔":898,"取":899,"受":900,"变":901,"叙":902,"叛":903,"叟":904,"叠":905,"叡":906,"叢":907,"口":908,"古":909,"句":910,"另":911,"叨":912,"叩":913,"只":914,"叫":915,"召":916,"叭":917,"叮":918,"可":919,"台":920,"叱":921,"史":922,"右":923,"叵":924,"叶":925,"号":926,"司":927,"叻":928,"叼":929,"吁":930,"吃":931,"各":932,"吆":933,"吇":934,"合":935,"吉":936,"吊":937,"吋":938,"同":939,"名":940,"后":941,"吏":942,"吐":943,"向":944,"吒":945,"吓":946,"吔":947,"吖":948,"吗":949,"君":950,"吝":951,"吞":952,"吟":953,"吠":954,"吡":955,"否":956,"吧":957,"吨":958,"吩":959,"含":960,"听":961,"吭":962,"吮":963,"启":964,"吱":965,"吲":966,"吳":967,"吴":968,"吵":969,"吶":970,"吸":971,"吹":972,"吻":973,"吼":974,"吽":975,"吾":976,"吿":977,"呀":978,"呂":979,"呃":980,"呆":981,"呇":982,"呈":983,"呉":984,"告":985,"呋":986,"呎":987,"呐":988,"呑":989,"呒":990,"呔":991,"员":992,"呟":993,"呢":994,"呤":995,"呦":996,"周":997,"呯":998,"呱":999,"呲":1000,"味":1001,"呵":1002,"呷":1003,"呸":1004,"呻":1005,"呼":1006,"命":1007,"咀":1008,"咁":1009,"咂":1010,"咄":1011,"咆":1012,"咋":1013,"和":1014,"咎":1015,"咏":1016,"咐":1017,"咒":1018,"咔":1019,"咕":1020,"咖":1021,"咗":1022,"咘":1023,"咚":1024,"咤":1025,"咥":1026,"咦":1027,"咧":1028,"咨":1029,"咩":1030,"咪":1031,"咫":1032,"咬":1033,"咭":1034,"咯":1035,"咱":1036,"咲":1037,"咳":1038,"咸":1039,"咻":1040,"咽":1041,"咾":1042,"咿":1043,"哀":1044,"品":1045,"哂":1046,"哄":1047,"哆":1048,"哇":1049,"哈":1050,"哉":1051,"哋":1052,"哌":1053,"响":1054,"哎":1055,"哏":1056,"哐":1057,"哒":1058,"哖":1059,"哗":1060,"哚":1061,"哞":1062,"哟":1063,"員":1064,"哥":1065,"哦":1066,"哧":1067,"哨":1068,"哩":1069,"哪":1070,"哭":1071,"哮":1072,"哲":1073,"哺":1074,"哼":1075,"哽":1076,"唁":1077,"唄":1078,"唅":1079,"唆":1080,"唇":1081,"唉":1082,"唎":1083,"唏":1084,"唐":1085,"唑":1086,"唔":1087,"唞":1088,"唤":1089,"唦":1090,"唧":1091,"唪":1092,"唬":1093,"唭":1094,"售":1095,"唯":1096,"唰":1097,"唱":1098,"唳":1099,"唵":1100,"唷":1101,"唸":1102,"唾":1103,"啁":1104,"啃":1105,"啄":1106,"啅":1107,"商":1108,"啉":1109,"啊":1110,"問":1111,"啓":1112,"啕":1113,"啖":1114,"啗":1115,"啜":1116,"啞":1117,"啟":1118,"啡":1119,"啣":1120,"啤":1121,"啥":1122,"啦":1123,"啪":1124,"啫":1125,"啱":1126,"啲":1127,"啵":1128,"啶":1129,"啷":1130,"啻":1131,"啼":1132,"啾":1133,"喀":1134,"喂":1135,"喃":1136,"善":1137,"喆":1138,"喇":1139,"喉":1140,"喊":1141,"喋":1142,"喎":1143,"喏":1144,"喑":1145,"喔":1146,"喘":1147,"喙":1148,"喚":1149,"喜":1150,"喝":1151,"喟":1152,"喧":1153,"喪":1154,"喫":1155,"喬":1156,"單":1157,"喰":1158,"喱":1159,"喲":1160,"喳":1161,"喴":1162,"喵":1163,"営":1164,"喷":1165,"喹":1166,"喺":1167,"喻":1168,"嗄":1169,"嗅":1170,"嗆":1171,"嗇":1172,"嗉":1173,"嗌":1174,"嗎":1175,"嗑":1176,"嗒":1177,"嗓":1178,"嗔":1179,"嗖":1180,"嗚":1181,"嗜":1182,"嗝":1183,"嗞":1184,"嗟":1185,"嗡":1186,"嗣":1187,"嗤":1188,"嗦":1189,"嗨":1190,"嗩":1191,"嗪":1192,"嗬":1193,"嗮":1194,"嗯":1195,"嗰":1196,"嗱":1197,"嗲":1198,"嗶":1199,"嗷":1200,"嗽":1201,"嘀":1202,"嘅":1203,"嘆":1204,"嘈":1205,"嘉":1206,"嘌":1207,"嘍":1208,"嘎":1209,"嘔":1210,"嘖":1211,"嘗":1212,"嘘":1213,"嘚":1214,"嘛":1215,"嘜":1216,"嘞":1217,"嘟":1218,"嘢":1219,"嘣":1220,"嘤":1221,"嘧":1222,"嘨":1223,"嘩":1224,"嘪":1225,"嘭":1226,"嘮":1227,"嘯":1228,"嘰":1229,"嘱":1230,"嘲":1231,"嘴":1232,"嘵":1233,"嘶":1234,"嘸":1235,"嘹":1236,"嘻":1237,"嘿":1238,"噁":1239,"噂":1240,"噆":1241,"噌":1242,"噍":1243,"噎":1244,"噏":1245,"噓":1246,"噔":1247,"噗":1248,"噘":1249,"噙":1250,"噚":1251,"噛":1252,"噠":1253,"噢":1254,"噤":1255,"噥":1256,"器":1257,"噩":1258,"噪":1259,"噬":1260,"噯":1261,"噱":1262,"噴":1263,"噶":1264,"噸":1265,"噹":1266,"噻":1267,"噼":1268,"嚀":1269,"嚄":1270,"嚅":1271,"嚇":1272,"嚎":1273,"嚏":1274,"嚐":1275,"嚓":1276,"嚕":1277,"嚗":1278,"嚙":1279,"嚞":1280,"嚟":1281,"嚥":1282,"嚦":1283,"嚨":1284,"嚮":1285,"嚳":1286,"嚴":1287,"嚶":1288,"嚷":1289,"嚼":1290,"囁":1291,"囂":1292,"囃":1293,"囇":1294,"囈":1295,"囉":1296,"囊":1297,"囌":1298,"囍":1299,"囑":1300,"囓":1301,"囔":1302,"囗":1303,"囘":1304,"囚":1305,"四":1306,"囝":1307,"回":1308,"囟":1309,"因":1310,"囡":1311,"团":1312,"団":1313,"囤":1314,"囧":1315,"囪":1316,"囫":1317,"园":1318,"囯":1319,"困":1320,"囱":1321,"囲":1322,"図":1323,"围":1324,"囹":1325,"固":1326,"国":1327,"图":1328,"囿":1329,"圃":1330,"圄":1331,"圆":1332,"圇":1333,"圈":1334,"國":1335,"圍":1336,"圏":1337,"園":1338,"圓":1339,"圖":1340,"團":1341,"圜":1342,"土":1343,"圣":1344,"圤":1345,"圧":1346,"在":1347,"圩":1348,"圭":1349,"圮":1350,"圯":1351,"地":1352,"圳":1353,"圴":1354,"场":1355,"圾":1356,"址":1357,"坂":1358,"均":1359,"坊":1360,"坌":1361,"坍":1362,"坎":1363,"坏":1364,"坐":1365,"坑":1366,"块":1367,"坚":1368,"坛":1369,"坝":1370,"坞":1371,"坠":1372,"坡":1373,"坢":1374,"坣":1375,"坤":1376,"坦":1377,"坨":1378,"坩":1379,"坪":1380,"坭":1381,"坯":1382,"坱":1383,"坳":1384,"坵":1385,"坷":1386,"坻":1387,"坽":1388,"垂":1389,"垃":1390,"垄":1391,"型":1392,"垒":1393,"垓":1394,"垛":1395,"垜":1396,"垟":1397,"垠":1398,"垢":1399,"垣":1400,"垫":1401,"垮":1402,"垵":1403,"垸":1404,"垻":1405,"埀":1406,"埁":1407,"埂":1408,"埃":1409,"埆":1410,"埇":1411,"埈":1412,"埋":1413,"城":1414,"埓":1415,"埔":1416,"埕":1417,"埗":1418,"埜":1419,"埝":1420,"域":1421,"埠":1422,"埡":1423,"埢":1424,"埤":1425,"埧":1426,"埨":1427,"埭":1428,"執":1429,"埸":1430,"培":1431,"基":1432,"埻":1433,"埼":1434,"堀":1435,"堂":1436,"堃":1437,"堅":1438,"堆":1439,"堇":1440,"堉":1441,"堊":1442,"堝":1443,"堞":1444,"堡":1445,"堤":1446,"堪":1447,"堯":1448,"堰":1449,"報":1450,"場":1451,"堵":1452,"堺":1453,"堿":1454,"塁":1455,"塊":1456,"塋":1457,"塌":1458,"塍":1459,"塏":1460,"塑":1461,"塔":1462,"塗":1463,"塘":1464,"塚":1465,"塞":1466,"塡":1467,"塢":1468,"塩":1469,"填":1470,"塬":1471,"塭":1472,"塱":1473,"塲":1474,"塵":1475,"塹":1476,"塼":1477,"塾":1478,"墀":1479,"境":1480,"墅":1481,"墉":1482,"墊":1483,"墓":1484,"増":1485,"墘":1486,"墙":1487,"墜":1488,"增":1489,"墟":1490,"墣":1491,"墨":1492,"墩":1493,"墬":1494,"墮":1495,"墳":1496,"墶":1497,"墻":1498,"墾":1499,"壁":1500,"壅":1501,"壆":1502,"壇":1503,"壊":1504,"壑":1505,"壓":1506,"壕":1507,"壘":1508,"壙":1509,"壞":1510,"壟":1511,"壠":1512,"壢":1513,"壤":1514,"壩":1515,"士":1516,"壬":1517,"壮":1518,"壯":1519,"声":1520,"壱":1521,"売":1522,"壶":1523,"壹":1524,"壺":1525,"壼":1526,"壽":1527,"夀":1528,"夂":1529,"夃":1530,"处":1531,"夆":1532,"备":1533,"変":1534,"夌":1535,"复":1536,"夏":1537,"夐":1538,"夑":1539,"夔":1540,"夕":1541,"外":1542,"夙":1543,"多":1544,"夜":1545,"够":1546,"夠":1547,"夢":1548,"夥":1549,"大":1550,"天":1551,"太":1552,"夫":1553,"夭":1554,"央":1555,"夯":1556,"失":1557,"夲":1558,"头":1559,"夷":1560,"夸":1561,"夹":1562,"夺":1563,"夼":1564,"夽":1565,"夾":1566,"奄":1567,"奇":1568,"奈":1569,"奉":1570,"奋":1571,"奎":1572,"奏":1573,"奐":1574,"契":1575,"奓":1576,"奔":1577,"奕":1578,"奖":1579,"套":1580,"奘":1581,"奚":1582,"奠":1583,"奡":1584,"奢":1585,"奥":1586,"奧":1587,"奨":1588,"奪":1589,"奫":1590,"奬":1591,"奭":1592,"奮":1593,"女":1594,"奴":1595,"奶":1596,"奷":1597,"奸":1598,"她":1599,"奼":1600,"好":1601,"妁":1602,"如":1603,"妃":1604,"妄":1605,"妇":1606,"妈":1607,"妊":1608,"妍":1609,"妏":1610,"妒":1611,"妓":1612,"妖":1613,"妘":1614,"妙":1615,"妝":1616,"妞":1617,"妡":1618,"妣":1619,"妤":1620,"妥":1621,"妨":1622,"妮":1623,"妯":1624,"妲":1625,"妳":1626,"妸":1627,"妹":1628,"妺":1629,"妻":1630,"妽":1631,"妾":1632,"姆":1633,"姈":1634,"姉":1635,"姊":1636,"始":1637,"姍":1638,"姐":1639,"姑":1640,"姓":1641,"委":1642,"姘":1643,"姚":1644,"姜":1645,"姝":1646,"姣":1647,"姥":1648,"姦":1649,"姨":1650,"姪":1651,"姫":1652,"姬":1653,"姵":1654,"姶":1655,"姸":1656,"姹":1657,"姻":1658,"姿":1659,"威":1660,"娃":1661,"娄":1662,"娉":1663,"娌":1664,"娑":1665,"娓":1666,"娗":1667,"娘":1668,"娛":1669,"娜":1670,"娟":1671,"娠":1672,"娣":1673,"娥":1674,"娩":1675,"娱":1676,"娶":1677,"娸":1678,"娼":1679,"婀":1680,"婁":1681,"婆":1682,"婉":1683,"婊":1684,"婌":1685,"婓":1686,"婕":1687,"婗":1688,"婚":1689,"婞":1690,"婠":1691,"婢":1692,"婦":1693,"婧":1694,"婪":1695,"婫":1696,"婭":1697,"婴":1698,"婷":1699,"婺":1700,"婻":1701,"婿":1702,"媃":1703,"媄":1704,"媒":1705,"媓":1706,"媗":1707,"媚":1708,"媛":1709,"媜":1710,"媞":1711,"媧":1712,"媩":1713,"媲":1714,"媳":1715,"媺":1716,"媽":1717,"媾":1718,"嫁":1719,"嫂":1720,"嫄":1721,"嫆":1722,"嫉":1723,"嫌":1724,"嫑":1725,"嫖":1726,"嫗":1727,"嫘":1728,"嫚":1729,"嫡":1730,"嫣":1731,"嫦":1732,"嫩":1733,"嫰":1734,"嫲":1735,"嫵":1736,"嫺":1737,"嫻":1738,"嫿":1739,"嬅":1740,"嬈":1741,"嬉":1742,"嬋":1743,"嬌":1744,"嬗":1745,"嬙":1746,"嬛":1747,"嬡":1748,"嬢":1749,"嬤":1750,"嬪":1751,"嬬":1752,"嬰":1753,"嬲":1754,"嬴":1755,"嬷":1756,"嬸":1757,"嬿":1758,"孀":1759,"孃":1760,"孋":1761,"孌":1762,"子":1763,"孑":1764,"孓":1765,"孔":1766,"孕":1767,"孖":1768,"字":1769,"存":1770,"孙":1771,"孚":1772,"孛":1773,"孜":1774,"孝":1775,"孟":1776,"孢":1777,"季":1778,"孤":1779,"孥":1780,"学":1781,"孩":1782,"孫":1783,"孬":1784,"孭":1785,"孰":1786,"孱":1787,"孳":1788,"孵":1789,"學":1790,"孺":1791,"孻":1792,"孽":1793,"孿":1794,"宀":1795,"宁":1796,"它":1797,"宄":1798,"宅":1799,"宇":1800,"守":1801,"安":1802,"宋":1803,"完":1804,"宍":1805,"宏":1806,"宓":1807,"宕":1808,"宗":1809,"官":1810,"宙":1811,"定":1812,"宛":1813,"宜":1814,"宝":1815,"实":1816,"実":1817,"宠":1818,"审":1819,"客":1820,"宣":1821,"室":1822,"宥":1823,"宦":1824,"宪":1825,"宫":1826,"宬":1827,"宮":1828,"宰":1829,"害":1830,"宴":1831,"宵":1832,"家":1833,"宸":1834,"容":1835,"宽":1836,"宾":1837,"宿":1838,"寂":1839,"寃":1840,"寄":1841,"寅":1842,"密":1843,"寇":1844,"富":1845,"寐":1846,"寒":1847,"寓":1848,"寗":1849,"寛":1850,"寜":1851,"寝":1852,"寞":1853,"察":1854,"寡":1855,"寢":1856,"寤":1857,"寥":1858,"實":1859,"寧":1860,"寨":1861,"審":1862,"寫":1863,"寬":1864,"寮":1865,"寯":1866,"寰":1867,"寳":1868,"寵":1869,"寶":1870,"寸":1871,"对":1872,"寺":1873,"寻":1874,"导":1875,"対":1876,"寿":1877,"封":1878,"専":1879,"尃":1880,"射":1881,"将":1882,"將":1883,"專":1884,"尉":1885,"尊":1886,"尋":1887,"對":1888,"導":1889,"小":1890,"少":1891,"尓":1892,"尔":1893,"尕":1894,"尖":1895,"尘":1896,"尚":1897,"尛":1898,"尝":1899,"尤":1900,"尧":1901,"尪":1902,"尫":1903,"尬":1904,"就":1905,"尴":1906,"尷":1907,"尸":1908,"尹":1909,"尺":1910,"尻":1911,"尼":1912,"尽":1913,"尾":1914,"尿":1915,"局":1916,"屁":1917,"层":1918,"居":1919,"屆":1920,"屈":1921,"届":1922,"屋":1923,"屌":1924,"屍":1925,"屎":1926,"屏":1927,"屐":1928,"屑":1929,"展":1930,"屘":1931,"屙":1932,"屜":1933,"属":1934,"屠":1935,"屢":1936,"屣":1937,"層":1938,"履":1939,"屬":1940,"屯":1941,"山":1942,"屴":1943,"屹":1944,"屼":1945,"岀":1946,"岁":1947,"岂":1948,"岉":1949,"岌":1950,"岐":1951,"岑":1952,"岔":1953,"岕":1954,"岗":1955,"岚":1956,"岛":1957,"岜":1958,"岡":1959,"岩":1960,"岫":1961,"岬":1962,"岭":1963,"岱":1964,"岳":1965,"岷":1966,"岸":1967,"峁":1968,"峇":1969,"峋":1970,"峒":1971,"峙":1972,"峠":1973,"峡":1974,"峨":1975,"峪":1976,"峭":1977,"峮":1978,"峯":1979,"峰":1980,"峴":1981,"島":1982,"峻":1983,"峽":1984,"崁":1985,"崆":1986,"崇":1987,"崍":1988,"崎":1989,"崐":1990,"崑":1991,"崔":1992,"崖":1993,"崗":1994,"崙":1995,"崛":1996,"崠":1997,"崢":1998,"崧":1999,"崩":2000,"崮":2001,"崴":2002,"崵":2003,"崽":2004,"嵂":2005,"嵄":2006,"嵊":2007,"嵋":2008,"嵌":2009,"嵎":2010,"嵐":2011,"嵓":2012,"嵗":2013,"嵙":2014,"嵜":2015,"嵩":2016,"嵬":2017,"嵱":2018,"嵴":2019,"嵵":2020,"嵾":2021,"嵿":2022,"嶂":2023,"嶄":2024,"嶇":2025,"嶋":2026,"嶐":2027,"嶗":2028,"嶙":2029,"嶝":2030,"嶠":2031,"嶢":2032,"嶴":2033,"嶸":2034,"嶺":2035,"嶼":2036,"嶽":2037,"巂":2038,"巃":2039,"巄":2040,"巈":2041,"巉":2042,"巋":2043,"巍":2044,"巒":2045,"巔":2046,"巖":2047,"川":2048,"州":2049,"巟":2050,"巡":2051,"巢":2052,"工":2053,"左":2054,"巧":2055,"巨":2056,"巩":2057,"巫":2058,"差":2059,"巰":2060,"己":2061,"已":2062,"巳":2063,"巴":2064,"巷":2065,"巻":2066,"巽":2067,"巾":2068,"巿":2069,"币":2070,"市":2071,"布":2072,"帅":2073,"帆":2074,"师":2075,"帊":2076,"希":2077,"帐":2078,"帑":2079,"帔":2080,"帕":2081,"帖":2082,"帘":2083,"帙":2084,"帚":2085,"帛":2086,"帜":2087,"帝":2088,"帟":2089,"帥":2090,"带":2091,"師":2092,"席":2093,"帮":2094,"帯":2095,"帰":2096,"帳":2097,"帶":2098,"帷":2099,"常":2100,"帽":2101,"幀":2102,"幄":2103,"幅":2104,"幇":2105,"幌":2106,"幓":2107,"幔":2108,"幕":2109,"幗":2110,"幚":2111,"幛":2112,"幟":2113,"幡":2114,"幢":2115,"幣":2116,"幤":2117,"幪":2118,"幫":2119,"干":2120,"平":2121,"年":2122,"并":2123,"幷":2124,"幸":2125,"幹":2126,"幻":2127,"幼":2128,"幽":2129,"幾":2130,"广":2131,"庁":2132,"広":2133,"庄":2134,"庆":2135,"庇":2136,"床":2137,"序":2138,"庒":2139,"库":2140,"应":2141,"底":2142,"庖":2143,"店":2144,"庙":2145,"庚":2146,"府":2147,"废":2148,"庠":2149,"庥":2150,"度":2151,"座":2152,"庫":2153,"庭":2154,"庲":2155,"庵":2156,"庶":2157,"康":2158,"庸":2159,"庹":2160,"庻":2161,"庾":2162,"廁":2163,"廂":2164,"廃":2165,"廄":2166,"廇":2167,"廈":2168,"廉":2169,"廊":2170,"廋":2171,"廌":2172,"廍":2173,"廓":2174,"廔":2175,"廖":2176,"廚":2177,"廝":2178,"廟":2179,"廠":2180,"廡":2181,"廢":2182,"廣":2183,"廨":2184,"廩":2185,"廬":2186,"廰":2187,"廳":2188,"廴":2189,"廵":2190,"延":2191,"廷":2192,"廸":2193,"廹":2194,"建":2195,"廻":2196,"廿":2197,"开":2198,"弁":2199,"异":2200,"弃":2201,"弄":2202,"弈":2203,"弊":2204,"弋":2205,"弌":2206,"弎":2207,"式":2208,"弐":2209,"弒":2210,"弓":2211,"弔":2212,"引":2213,"弗":2214,"弘":2215,"弛":2216,"弟":2217,"张":2218,"弥":2219,"弦":2220,"弧":2221,"弩":2222,"弭":2223,"弱":2224,"張":2225,"強":2226,"弹":2227,"强":2228,"弼":2229,"弾":2230,"彅":2231,"彆":2232,"彈":2233,"彊":2234,"彌":2235,"彎":2236,"归":2237,"当":2238,"录":2239,"彗":2240,"彘":2241,"彙":2242,"彚":2243,"彜":2244,"彝":2245,"彡":2246,"形":2247,"彣":2248,"彤":2249,"彥":2250,"彦":2251,"彧":2252,"彩":2253,"彪":2254,"彫":2255,"彬":2256,"彭":2257,"彰":2258,"影":2259,"彳":2260,"彵":2261,"彷":2262,"役":2263,"彻":2264,"彼":2265,"彽":2266,"彿":2267,"往":2268,"征":2269,"径":2270,"待":2271,"徇":2272,"很":2273,"徉":2274,"徊":2275,"律":2276,"後":2277,"徏":2278,"徐":2279,"徑":2280,"徒":2281,"従":2282,"得":2283,"徘":2284,"徙":2285,"徛":2286,"徜":2287,"從":2288,"徠":2289,"御":2290,"徧":2291,"徨":2292,"復":2293,"循":2294,"徬":2295,"微":2296,"徳":2297,"徴":2298,"徵":2299,"德":2300,"徹":2301,"徽":2302,"心":2303,"忄":2304,"必":2305,"忆":2306,"忈":2307,"忌":2308,"忍":2309,"忐":2310,"忑":2311,"忒":2312,"忖":2313,"志":2314,"忘":2315,"忙":2316,"忚":2317,"応":2318,"忝":2319,"忞":2320,"忠":2321,"忡":2322,"忤":2323,"忧":2324,"忪":2325,"快":2326,"忮":2327,"忱":2328,"念":2329,"忸":2330,"忻":2331,"忽":2332,"忿":2333,"怀":2334,"态":2335,"怂":2336,"怍":2337,"怎":2338,"怏":2339,"怒":2340,"怔":2341,"怕":2342,"怖":2343,"怗":2344,"怙":2345,"怜":2346,"思":2347,"怠":2348,"怡":2349,"急":2350,"怦":2351,"性":2352,"怨":2353,"怩":2354,"怪":2355,"怫":2356,"怯":2357,"怱":2358,"怵":2359,"总":2360,"恁":2361,"恂":2362,"恃":2363,"恆":2364,"恊":2365,"恋":2366,"恍":2367,"恐":2368,"恒":2369,"恕":2370,"恙":2371,"恢":2372,"恣":2373,"恤":2374,"恥":2375,"恨":2376,"恩":2377,"恪":2378,"恫":2379,"恬":2380,"恭":2381,"息":2382,"恰":2383,"恵":2384,"恶":2385,"恾":2386,"恿":2387,"悁":2388,"悄":2389,"悅":2390,"悉":2391,"悌":2392,"悍":2393,"悔":2394,"悖":2395,"悚":2396,"悛":2397,"悟":2398,"悠":2399,"患":2400,"悦":2401,"悧":2402,"您":2403,"悩":2404,"悪":2405,"悬":2406,"悱":2407,"悲":2408,"悴":2409,"悵":2410,"悶":2411,"悸":2412,"悻":2413,"悼":2414,"悽":2415,"情":2416,"惆":2417,"惇":2418,"惊":2419,"惋":2420,"惑":2421,"惕":2422,"惘":2423,"惚":2424,"惜":2425,"惟":2426,"惠":2427,"惡":2428,"惢":2429,"惣":2430,"惦":2431,"惧":2432,"惨":2433,"惪":2434,"惯":2435,"惰":2436,"惱":2437,"惲":2438,"想":2439,"惴":2440,"惶":2441,"惹":2442,"惺":2443,"惻":2444,"愁":2445,"愄":2446,"愆":2447,"愈":2448,"愉":2449,"愎":2450,"意":2451,"愓":2452,"愔":2453,"愕":2454,"愚":2455,"愛":2456,"愜":2457,"感":2458,"愣":2459,"愤":2460,"愧":2461,"愨":2462,"愫":2463,"愯":2464,"愴":2465,"愷":2466,"愾":2467,"愿":2468,"慄":2469,"慇":2470,"慈":2471,"慉":2472,"態":2473,"慌":2474,"慍":2475,"慎":2476,"慓":2477,"慕":2478,"慘":2479,"慚":2480,"慜":2481,"慟":2482,"慢":2483,"慣":2484,"慤":2485,"慧":2486,"慨":2487,"慫":2488,"慬":2489,"慮":2490,"慰":2491,"慳":2492,"慵":2493,"慶":2494,"慷":2495,"慼":2496,"慽":2497,"慾":2498,"慿":2499,"憂":2500,"憊":2501,"憋":2502,"憎":2503,"憐":2504,"憑":2505,"憒":2506,"憓":2507,"憔":2508,"憚":2509,"憝":2510,"憟":2511,"憢":2512,"憤":2513,"憧":2514,"憨":2515,"憩":2516,"憫":2517,"憬":2518,"憲":2519,"憶":2520,"憾":2521,"懂":2522,"懃":2523,"懇":2524,"懈":2525,"應":2526,"懊":2527,"懋":2528,"懌":2529,"懍":2530,"懐":2531,"懞":2532,"懟":2533,"懣":2534,"懦":2535,"懨":2536,"懭":2537,"懮":2538,"懲":2539,"懵":2540,"懶":2541,"懷":2542,"懸":2543,"懺":2544,"懼":2545,"懾":2546,"懿":2547,"戀":2548,"戇":2549,"戈":2550,"戊":2551,"戌":2552,"戍":2553,"戎":2554,"戏":2555,"成":2556,"我":2557,"戒":2558,"戕":2559,"或":2560,"战":2561,"戚":2562,"戛":2563,"戞":2564,"戟":2565,"戡":2566,"戢":2567,"戦":2568,"戧":2569,"戩":2570,"截":2571,"戮":2572,"戯":2573,"戰":2574,"戱":2575,"戲":2576,"戳":2577,"戴":2578,"戶":2579,"户":2580,"戸":2581,"戻":2582,"戽":2583,"戾":2584,"房":2585,"所":2586,"扁":2587,"扆":2588,"扇":2589,"扈":2590,"扉":2591,"手":2592,"才":2593,"扎":2594,"扑":2595,"扒":2596,"打":2597,"扔":2598,"払":2599,"托":2600,"扛":2601,"扞":2602,"扣":2603,"扦":2604,"执":2605,"扩":2606,"扫":2607,"扬":2608,"扭":2609,"扮":2610,"扯":2611,"扰":2612,"扳":2613,"扶":2614,"批":2615,"扺":2616,"扼":2617,"扽":2618,"找":2619,"承":2620,"技":2621,"抄":2622,"抉":2623,"把":2624,"抑":2625,"抒":2626,"抓":2627,"抔":2628,"投":2629,"抖":2630,"抗":2631,"折":2632,"抚":2633,"抛":2634,"抜":2635,"抝":2636,"抢":2637,"护":2638,"报":2639,"抨":2640,"披":2641,"抬":2642,"抱":2643,"抵":2644,"抹":2645,"抺":2646,"抻":2647,"押":2648,"抽":2649,"抿":2650,"拂":2651,"拃":2652,"拄":2653,"担":2654,"拆":2655,"拇":2656,"拈":2657,"拉":2658,"拊":2659,"拋":2660,"拌":2661,"拍":2662,"拎":2663,"拏":2664,"拐":2665,"拑":2666,"拒":2667,"拓":2668,"拔":2669,"拖":2670,"拗":2671,"拘":2672,"拙":2673,"拚":2674,"招":2675,"拜":2676,"拝":2677,"拟":2678,"拡":2679,"拥":2680,"拦":2681,"拨":2682,"择":2683,"括":2684,"拭":2685,"拮":2686,"拯":2687,"拱":2688,"拳":2689,"拴":2690,"拶":2691,"拷":2692,"拼":2693,"拽":2694,"拾":2695,"拿":2696,"持":2697,"挂":2698,"指":2699,"挈":2700,"按":2701,"挍":2702,"挎":2703,"挑":2704,"挖":2705,"挙":2706,"挟":2707,"挠":2708,"挡":2709,"挤":2710,"挥":2711,"挨":2712,"挩":2713,"挪":2714,"挫":2715,"振":2716,"挰":2717,"挲":2718,"挳":2719,"挵":2720,"挷":2721,"挹":2722,"挺":2723,"挽":2724,"挾":2725,"挿":2726,"捂":2727,"捅":2728,"捆":2729,"捉":2730,"捋":2731,"捌":2732,"捍":2733,"捎":2734,"捏":2735,"捐":2736,"捕":2737,"捗":2738,"捜":2739,"捞":2740,"损":2741,"捡":2742,"换":2743,"捥":2744,"捧":2745,"捨":2746,"捩":2747,"捫":2748,"捭":2749,"据":2750,"捯":2751,"捱":2752,"捲":2753,"捶":2754,"捷":2755,"捺":2756,"捻":2757,"捼":2758,"捽":2759,"掀":2760,"掂":2761,"掃":2762,"掄":2763,"掇":2764,"授":2765,"掉":2766,"掌":2767,"掍":2768,"掏":2769,"掐":2770,"排":2771,"掖":2772,"掘":2773,"掙":2774,"掛":2775,"掟":2776,"掠":2777,"採":2778,"探":2779,"掣":2780,"掤":2781,"接":2782,"掦":2783,"控":2784,"推":2785,"掩":2786,"措":2787,"掬":2788,"掮":2789,"掰":2790,"掲":2791,"掷":2792,"掹":2793,"掺":2794,"揀":2795,"揄":2796,"揆":2797,"揉":2798,"揍":2799,"揎":2800,"描":2801,"提":2802,"揑":2803,"插":2804,"揖":2805,"揚":2806,"換":2807,"揠":2808,"握":2809,"揢":2810,"揣":2811,"揦":2812,"揩":2813,"揪":2814,"揭":2815,"揮":2816,"援":2817,"揶":2818,"揸":2819,"揹":2820,"揺":2821,"搅":2822,"搆":2823,"搋":2824,"損":2825,"搏":2826,"搐":2827,"搓":2828,"搔":2829,"搖":2830,"搗":2831,"搚":2832,"搜":2833,"搞":2834,"搡":2835,"搣":2836,"搥":2837,"搦":2838,"搧":2839,"搪":2840,"搬":2841,"搭":2842,"搵":2843,"搶":2844,"携":2845,"搽":2846,"搾":2847,"摀":2848,"摁":2849,"摃":2850,"摄":2851,"摆":2852,"摇":2853,"摊":2854,"摍":2855,"摑":2856,"摒":2857,"摔":2858,"摘":2859,"摛":2860,"摜":2861,"摞":2862,"摟":2863,"摣":2864,"摧":2865,"摩":2866,"摭":2867,"摯":2868,"摰":2869,"摳":2870,"摶":2871,"摷":2872,"摸":2873,"摹":2874,"摺":2875,"摻":2876,"摽":2877,"撂":2878,"撃":2879,"撅":2880,"撆":2881,"撇":2882,"撈":2883,"撋":2884,"撐":2885,"撑":2886,"撒":2887,"撓":2888,"撕":2889,"撗":2890,"撘":2891,"撙":2892,"撚":2893,"撞":2894,"撢":2895,"撣":2896,"撤":2897,"撥":2898,"撩":2899,"撫":2900,"撬":2901,"播":2902,"撮":2903,"撰":2904,"撲":2905,"撳":2906,"撸":2907,"撻":2908,"撼":2909,"撾":2910,"撿":2911,"擀":2912,"擁":2913,"擂":2914,"擃":2915,"擄":2916,"擅":2917,"擇":2918,"擊":2919,"擋":2920,"操":2921,"擎":2922,"擒":2923,"擔":2924,"擘":2925,"據":2926,"擠":2927,"擡":2928,"擢":2929,"擣":2930,"擤":2931,"擦":2932,"擧":2933,"擬":2934,"擭":2935,"擯":2936,"擰":2937,"擱":2938,"擲":2939,"擴":2940,"擷":2941,"擺":2942,"擻":2943,"擼":2944,"擾":2945,"攀":2946,"攄":2947,"攅":2948,"攆":2949,"攉":2950,"攏":2951,"攑":2952,"攔":2953,"攘":2954,"攙":2955,"攛":2956,"攜":2957,"攝":2958,"攞":2959,"攢":2960,"攣":2961,"攤":2962,"攥":2963,"攦":2964,"攪":2965,"攫":2966,"攬":2967,"支":2968,"攰":2969,"攲":2970,"收":2971,"攸":2972,"改":2973,"攻":2974,"放":2975,"政":2976,"敃":2977,"故":2978,"效":2979,"敌":2980,"敍":2981,"敎":2982,"敏":2983,"救":2984,"敕":2985,"敖":2986,"敗":2987,"敘":2988,"教":2989,"敝":2990,"敞":2991,"敢":2992,"散":2993,"敦":2994,"敫":2995,"敬":2996,"数":2997,"敲":2998,"整":2999,"敵":3000,"敷":3001,"數":3002,"敺":3003,"敻":3004,"斂":3005,"斃":3006,"文":3007,"斈":3008,"斉":3009,"斌":3010,"斎":3011,"斐":3012,"斑":3013,"斕":3014,"斗":3015,"料":3016,"斛":3017,"斜":3018,"斟":3019,"斡":3020,"斤":3021,"斥":3022,"斦":3023,"斧":3024,"斫":3025,"斬":3026,"断":3027,"斯":3028,"新":3029,"斲":3030,"斳":3031,"斷":3032,"方":3033,"於":3034,"施":3035,"旁":3036,"旂":3037,"旃":3038,"旅":3039,"旋":3040,"旌":3041,"旎":3042,"族":3043,"旖":3044,"旗":3045,"旛":3046,"无":3047,"既":3048,"日":3049,"旦":3050,"旧":3051,"旨":3052,"早":3053,"旬":3054,"旭":3055,"旮":3056,"旯":3057,"旱":3058,"旳":3059,"旴":3060,"时":3061,"旸":3062,"旺":3063,"旻":3064,"旼":3065,"旿":3066,"昀":3067,"昂":3068,"昅":3069,"昆":3070,"昇":3071,"昊":3072,"昌":3073,"昍":3074,"明":3075,"昏":3076,"昐":3077,"易":3078,"昔":3079,"昕":3080,"昜":3081,"昞":3082,"星":3083,"映":3084,"昤":3085,"春":3086,"昧":3087,"昨":3088,"昫":3089,"昭":3090,"是":3091,"昰":3092,"昱":3093,"昴":3094,"昵":3095,"昶":3096,"昺":3097,"昼":3098,"显":3099,"晁":3100,"時":3101,"晃":3102,"晉":3103,"晋":3104,"晌":3105,"晏":3106,"晒":3107,"晓":3108,"晕":3109,"晗":3110,"晙":3111,"晚":3112,"晛":3113,"晝":3114,"晞":3115,"晟":3116,"晢":3117,"晤":3118,"晦":3119,"晧":3120,"晨":3121,"晩":3122,"晫":3123,"普":3124,"景":3125,"晰":3126,"晳":3127,"晴":3128,"晶":3129,"晷":3130,"晸":3131,"智":3132,"晾":3133,"暁":3134,"暂":3135,"暄":3136,"暇":3137,"暈":3138,"暉":3139,"暌":3140,"暍":3141,"暏":3142,"暐":3143,"暑":3144,"暖":3145,"暗":3146,"暘":3147,"暝":3148,"暟":3149,"暢":3150,"暦":3151,"暨":3152,"暪":3153,"暫":3154,"暮":3155,"暱":3156,"暳":3157,"暴":3158,"暸":3159,"暹":3160,"暻":3161,"暼":3162,"暾":3163,"曁":3164,"曄":3165,"曆":3166,"曇":3167,"曈":3168,"曉":3169,"曌":3170,"曕":3171,"曖":3172,"曙":3173,"曚":3174,"曜":3175,"曝":3176,"曠":3177,"曡":3178,"曦":3179,"曨":3180,"曩":3181,"曬":3182,"曰":3183,"曱":3184,"曲":3185,"曳":3186,"更":3187,"曵":3188,"曷":3189,"書":3190,"曹":3191,"曺":3192,"曼":3193,"曽":3194,"曾":3195,"替":3196,"最":3197,"會":3198,"月":3199,"有":3200,"朋":3201,"服":3202,"朔":3203,"朕":3204,"朗":3205,"朘":3206,"望":3207,"朝":3208,"期":3209,"朦":3210,"朧":3211,"木":3212,"未":3213,"末":3214,"本":3215,"札":3216,"朮":3217,"术":3218,"朱":3219,"朴":3220,"朵":3221,"朶":3222,"机":3223,"朽":3224,"杀":3225,"杂":3226,"权":3227,"杆":3228,"杇":3229,"杈":3230,"杉":3231,"李":3232,"杏":3233,"材":3234,"村":3235,"杓":3236,"杖":3237,"杘":3238,"杙":3239,"杜":3240,"杞":3241,"束":3242,"杠":3243,"条":3244,"来":3245,"杨":3246,"杭":3247,"杮":3248,"杯":3249,"杰":3250,"東":3251,"杲":3252,"杳":3253,"杵":3254,"杷":3255,"松":3256,"板":3257,"极":3258,"构":3259,"枇":3260,"枉":3261,"枋":3262,"析":3263,"枒":3264,"枕":3265,"林":3266,"枚":3267,"果":3268,"枝":3269,"枡":3270,"枢":3271,"枪":3272,"枬":3273,"枯":3274,"枰":3275,"枱":3276,"枳":3277,"枴":3278,"架":3279,"枷":3280,"枸":3281,"枹":3282,"枻":3283,"柀":3284,"柄":3285,"柊":3286,"柏":3287,"某":3288,"柑":3289,"柒":3290,"染":3291,"柔":3292,"柘":3293,"柙":3294,"柚":3295,"柜":3296,"柠":3297,"柢":3298,"查":3299,"柩":3300,"柬":3301,"柯":3302,"柱":3303,"柳":3304,"柴":3305,"柵":3306,"柶":3307,"柷":3308,"柺":3309,"査":3310,"柾":3311,"柿":3312,"栃":3313,"栄":3314,"栅":3315,"栆":3316,"标":3317,"栏":3318,"树":3319,"栓":3320,"栖":3321,"栗":3322,"栚":3323,"栝":3324,"栞":3325,"栟":3326,"校":3327,"栢":3328,"栩":3329,"株":3330,"栱":3331,"栲":3332,"栳":3333,"样":3334,"核":3335,"根":3336,"格":3337,"栽":3338,"桀":3339,"桁":3340,"桂":3341,"桃":3342,"桅":3343,"框":3344,"案":3345,"桉":3346,"桌":3347,"桎":3348,"桐":3349,"桑":3350,"桓":3351,"桔":3352,"桕":3353,"桖":3354,"桜":3355,"桟":3356,"档":3357,"桥":3358,"桮":3359,"桶":3360,"桷":3361,"桿":3362,"梁":3363,"梃":3364,"梅":3365,"梆":3366,"梏":3367,"梓":3368,"梔":3369,"梗":3370,"條":3371,"梟":3372,"梠":3373,"梡":3374,"梢":3375,"梣":3376,"梦":3377,"梧":3378,"梨":3379,"梭":3380,"梯":3381,"械":3382,"梱":3383,"梳":3384,"梵":3385,"梶":3386,"检":3387,"棄":3388,"棆":3389,"棉":3390,"棋":3391,"棌":3392,"棍":3393,"棒":3394,"棓":3395,"棕":3396,"棖":3397,"棗":3398,"棘":3399,"棚":3400,"棟":3401,"棠":3402,"棣":3403,"棤":3404,"棧":3405,"棨":3406,"棪":3407,"森":3408,"棱":3409,"棲":3410,"棵":3411,"棹":3412,"棺":3413,"棻":3414,"棼":3415,"椁":3416,"椅":3417,"椇":3418,"椋":3419,"植":3420,"椎":3421,"椏":3422,"椒":3423,"椗":3424,"検":3425,"椪":3426,"椬":3427,"椰":3428,"椴":3429,"椹":3430,"椽":3431,"椿":3432,"楂":3433,"楊":3434,"楓":3435,"楔":3436,"楙":3437,"楚":3438,"楜":3439,"楝":3440,"楞":3441,"楠":3442,"楢":3443,"楣":3444,"楦":3445,"楨":3446,"楫":3447,"業":3448,"楮":3449,"楯":3450,"極":3451,"楷":3452,"楸":3453,"楹":3454,"楼":3455,"楽":3456,"榀":3457,"概":3458,"榃":3459,"榄":3460,"榆":3461,"榈":3462,"榊":3463,"榎":3464,"榔":3465,"榕":3466,"榖":3467,"榘":3468,"榚":3469,"榛":3470,"榜":3471,"榤":3472,"榥":3473,"榧":3474,"榨":3475,"榫":3476,"榭":3477,"榮":3478,"榴":3479,"榶":3480,"榷":3481,"榻":3482,"槁":3483,"槃":3484,"構":3485,"槌":3486,"槍":3487,"槐":3488,"槓":3489,"様":3490,"槙":3491,"槤":3492,"槨":3493,"槭":3494,"槲":3495,"槳":3496,"槴":3497,"槻":3498,"槽":3499,"槿":3500,"樁":3501,"樂":3502,"樅":3503,"樊":3504,"樋":3505,"樍":3506,"樑":3507,"樓":3508,"樘":3509,"標":3510,"樞":3511,"樟":3512,"模":3513,"樣":3514,"樨":3515,"権":3516,"横":3517,"樫":3518,"樱":3519,"樵":3520,"樸":3521,"樹":3522,"樺":3523,"樽":3524,"樾":3525,"橄":3526,"橇":3527,"橈":3528,"橋":3529,"橍":3530,"橘":3531,"橙":3532,"橚":3533,"橞":3534,"機":3535,"橡":3536,"橢":3537,"橦":3538,"橫":3539,"橾":3540,"檀":3541,"檄":3542,"檈":3543,"檉":3544,"檎":3545,"檐":3546,"檔":3547,"檜":3548,"檞":3549,"檡":3550,"檢":3551,"檨":3552,"檬":3553,"檯":3554,"檳":3555,"檸":3556,"檺":3557,"檻":3558,"櫂":3559,"櫃":3560,"櫈":3561,"櫓":3562,"櫗":3563,"櫚":3564,"櫛":3565,"櫞":3566,"櫟":3567,"櫥":3568,"櫨":3569,"櫪":3570,"櫫":3571,"櫬":3572,"櫱":3573,"櫳":3574,"櫸":3575,"櫺":3576,"櫻":3577,"欄":3578,"欅":3579,"欉":3580,"權":3581,"欌":3582,"欐":3583,"欒":3584,"欓":3585,"欖":3586,"欗":3587,"欠":3588,"次":3589,"欢":3590,"欣":3591,"欧":3592,"欲":3593,"欵":3594,"欷":3595,"欸":3596,"欹":3597,"欺":3598,"欽":3599,"款":3600,"歃":3601,"歆":3602,"歇":3603,"歉":3604,"歌":3605,"歎":3606,"歐":3607,"歓":3608,"歔":3609,"歘":3610,"歙":3611,"歛":3612,"歡":3613,"止":3614,"正":3615,"此":3616,"步":3617,"武":3618,"歧":3619,"歩":3620,"歪":3621,"歬":3622,"歭":3623,"歲":3624,"歳":3625,"歴":3626,"歷":3627,"歸":3628,"歹":3629,"死":3630,"歿":3631,"殁":3632,"殂":3633,"殃":3634,"殄":3635,"殆":3636,"殉":3637,"殊":3638,"残":3639,"殍":3640,"殖":3641,"殘":3642,"殛":3643,"殞":3644,"殡":3645,"殤":3646,"殫":3647,"殭":3648,"殮":3649,"殯":3650,"殲":3651,"殴":3652,"段":3653,"殷":3654,"殺":3655,"殻":3656,"殼":3657,"殽":3658,"殿":3659,"毀":3660,"毁":3661,"毅":3662,"毆":3663,"毋":3664,"毌":3665,"母":3666,"毎":3667,"每":3668,"毐":3669,"毒":3670,"毓":3671,"比":3672,"毕":3673,"毗":3674,"毘":3675,"毙":3676,"毛":3677,"毫":3678,"毬":3679,"毯":3680,"毽":3681,"氂":3682,"氈":3683,"氏":3684,"氐":3685,"民":3686,"氓":3687,"气":3688,"氕":3689,"氖":3690,"気":3691,"氘":3692,"氙":3693,"氚":3694,"氛":3695,"氟":3696,"氡":3697,"氣":3698,"氤":3699,"氦":3700,"氧":3701,"氨":3702,"氪":3703,"氫":3704,"氬":3705,"氮":3706,"氯":3707,"氰":3708,"氳":3709,"水":3710,"氷":3711,"永":3712,"氹":3713,"氺":3714,"氾":3715,"汀":3716,"汁":3717,"求":3718,"汆":3719,"汇":3720,"汈":3721,"汉":3722,"汊":3723,"汎":3724,"汐":3725,"汔":3726,"汕":3727,"汖":3728,"汗":3729,"汙":3730,"汚":3731,"汛":3732,"汜":3733,"汝":3734,"汞":3735,"江":3736,"池":3737,"污":3738,"汤":3739,"汨":3740,"汩":3741,"汪":3742,"汫":3743,"汰":3744,"汱":3745,"汲":3746,"汴":3747,"汶":3748,"汹":3749,"決":3750,"汽":3751,"汾":3752,"沁":3753,"沂":3754,"沃":3755,"沄":3756,"沅":3757,"沆":3758,"沈":3759,"沉":3760,"沌":3761,"沏":3762,"沐":3763,"沒":3764,"沓":3765,"沕":3766,"沖":3767,"沙":3768,"沛":3769,"沟":3770,"没":3771,"沢":3772,"沦":3773,"沧":3774,"沫":3775,"沬":3776,"沭":3777,"沮":3778,"沱":3779,"河":3780,"沸":3781,"油":3782,"沺":3783,"治":3784,"沼":3785,"沽":3786,"沾":3787,"沿":3788,"況":3789,"泄":3790,"泅":3791,"泉":3792,"泊":3793,"泌":3794,"泐":3795,"泓":3796,"法":3797,"泗":3798,"泛":3799,"泠":3800,"泡":3801,"波":3802,"泣":3803,"泥":3804,"注":3805,"泩":3806,"泪":3807,"泫":3808,"泮":3809,"泯":3810,"泰":3811,"泱":3812,"泳":3813,"泵":3814,"泼":3815,"泽":3816,"洀":3817,"洁":3818,"洄":3819,"洋":3820,"洐":3821,"洑":3822,"洒":3823,"洗":3824,"洙":3825,"洛":3826,"洞":3827,"洢":3828,"津":3829,"洧":3830,"洨":3831,"洩":3832,"洪":3833,"洮":3834,"洱":3835,"洲":3836,"洵":3837,"洶":3838,"洺":3839,"活":3840,"洼":3841,"洽":3842,"派":3843,"流":3844,"浄":3845,"浅":3846,"浉":3847,"测":3848,"济":3849,"浑":3850,"浓":3851,"浙":3852,"浚":3853,"浜":3854,"浞":3855,"浠":3856,"浡":3857,"浣":3858,"浤":3859,"浥":3860,"浦":3861,"浩":3862,"浪":3863,"浬":3864,"浮":3865,"浯":3866,"浱":3867,"浴":3868,"海":3869,"浸":3870,"浹":3871,"浿":3872,"涂":3873,"涅":3874,"涇":3875,"消":3876,"涉":3877,"涌":3878,"涎":3879,"涑":3880,"涓":3881,"涔":3882,"涕":3883,"涙":3884,"涛":3885,"涝":3886,"润":3887,"涨":3888,"涪":3889,"涬":3890,"涮":3891,"涯":3892,"液":3893,"涵":3894,"涷":3895,"涸":3896,"涼":3897,"涿":3898,"淀":3899,"淂":3900,"淃":3901,"淄":3902,"淅":3903,"淆":3904,"淇":3905,"淉":3906,"淊":3907,"淋":3908,"淌":3909,"淍":3910,"淏":3911,"淑":3912,"淒":3913,"淖":3914,"淘":3915,"淙":3916,"淚":3917,"淜":3918,"淞":3919,"淠":3920,"淡":3921,"淢":3922,"淤":3923,"淥":3924,"淦":3925,"淨":3926,"淩":3927,"淪":3928,"淫":3929,"淬":3930,"淮":3931,"淯":3932,"深":3933,"淳":3934,"淵":3935,"淶":3936,"混":3937,"淸":3938,"淹":3939,"淺":3940,"添":3941,"淽":3942,"清":3943,"済":3944,"渉":3945,"渋":3946,"渐":3947,"渓":3948,"渔":3949,"渗":3950,"渙":3951,"渚":3952,"減":3953,"渝":3954,"渟":3955,"渠":3956,"渡":3957,"渢":3958,"渣":3959,"渤":3960,"渥":3961,"渦":3962,"温":3963,"渫":3964,"測":3965,"渭":3966,"港":3967,"渲":3968,"渴":3969,"渶":3970,"游":3971,"渺":3972,"渼":3973,"渽":3974,"渾":3975,"湃":3976,"湄":3977,"湉":3978,"湊":3979,"湍":3980,"湎":3981,"湓":3982,"湖":3983,"湘":3984,"湛":3985,"湜":3986,"湞":3987,"湟":3988,"湡":3989,"湧":3990,"湮":3991,"湯":3992,"湳":3993,"湵":3994,"湶":3995,"湽":3996,"湾":3997,"湿":3998,"満":3999,"溃":4000,"溉":4001,"溋":4002,"溏":4003,"源":4004,"溔":4005,"準":4006,"溘":4007,"溜":4008,"溝":4009,"溟":4010,"溢":4011,"溥":4012,"溦":4013,"溧":4014,"溪":4015,"溫":4016,"溮":4017,"溯":4018,"溱":4019,"溴":4020,"溵":4021,"溶":4022,"溸":4023,"溺":4024,"溼":4025,"溽":4026,"滁":4027,"滂":4028,"滄":4029,"滅":4030,"滇":4031,"滉":4032,"滋":4033,"滌":4034,"滎":4035,"滑":4036,"滓":4037,"滔":4038,"滕":4039,"滘":4040,"滙":4041,"滚":4042,"滝":4043,"满":4044,"滥":4045,"滨":4046,"滩":4047,"滬":4048,"滯":4049,"滲":4050,"滴":4051,"滷":4052,"滸":4053,"滻":4054,"滾":4055,"滿":4056,"漁":4057,"漂":4058,"漆":4059,"漉":4060,"漏":4061,"漓":4062,"演":4063,"漕":4064,"漖":4065,"漚":4066,"漠":4067,"漢":4068,"漣":4069,"漥":4070,"漧":4071,"漩":4072,"漪":4073,"漫":4074,"漬":4075,"漯":4076,"漱":4077,"漲":4078,"漳":4079,"漵":4080,"漸":4081,"漹":4082,"漾":4083,"漿":4084,"潁":4085,"潄":4086,"潑":4087,"潔":4088,"潖":4089,"潘":4090,"潛":4091,"潜":4092,"潞":4093,"潟":4094,"潢":4095,"潤":4096,"潦":4097,"潭":4098,"潮":4099,"潯":4100,"潰":4101,"潴":4102,"潸":4103,"潺":4104,"潼":4105,"潾":4106,"澀":4107,"澄":4108,"澆":4109,"澇":4110,"澈":4111,"澍":4112,"澎":4113,"澐":4114,"澔":4115,"澕":4116,"澗":4117,"澜":4118,"澟":4119,"澠":4120,"澡":4121,"澤":4122,"澧":4123,"澪":4124,"澯":4125,"澱":4126,"澳":4127,"澴":4128,"澶":4129,"澹":4130,"激":4131,"濁":4132,"濂":4133,"濃":4134,"濆":4135,"濕":4136,"濘":4137,"濛":4138,"濞":4139,"濟":4140,"濠":4141,"濡":4142,"濤":4143,"濫":4144,"濬":4145,"濮":4146,"濯":4147,"濰":4148,"濱":4149,"濳":4150,"濵":4151,"濶":4152,"濺":4153,"濼":4154,"濾":4155,"瀁":4156,"瀅":4157,"瀆":4158,"瀉":4159,"瀋":4160,"瀍":4161,"瀏":4162,"瀑":4163,"瀓":4164,"瀕":4165,"瀘":4166,"瀚":4167,"瀛":4168,"瀜":4169,"瀝":4170,"瀞":4171,"瀟":4172,"瀠":4173,"瀣":4174,"瀦":4175,"瀧":4176,"瀨":4177,"瀬":4178,"瀰":4179,"瀲":4180,"瀹":4181,"瀾":4182,"灃":4183,"灌":4184,"灑":4185,"灒":4186,"灕":4187,"灘":4188,"灝":4189,"灞":4190,"灣":4191,"灤":4192,"灧":4193,"灩":4194,"火":4195,"灬":4196,"灭":4197,"灯":4198,"灰":4199,"灵":4200,"灶":4201,"灸":4202,"灼":4203,"災":4204,"灾":4205,"炅":4206,"炆":4207,"炉":4208,"炊":4209,"炎":4210,"炒":4211,"炔":4212,"炕":4213,"炖":4214,"炘":4215,"炙":4216,"炤":4217,"炫":4218,"炬":4219,"炭":4220,"炮":4221,"炯":4222,"炳":4223,"炷":4224,"炸":4225,"点":4226,"為":4227,"炼":4228,"烂":4229,"烈":4230,"烊":4231,"烋":4232,"烏":4233,"烔":4234,"烕":4235,"烘":4236,"烙":4237,"烚":4238,"烛":4239,"烜":4240,"烝":4241,"烟":4242,"烤":4243,"烧":4244,"热":4245,"烯":4246,"烱":4247,"烴":4248,"烷":4249,"烹":4250,"烽":4251,"烿":4252,"焄":4253,"焉":4254,"焊":4255,"焌":4256,"焗":4257,"焙":4258,"焚":4259,"焜":4260,"焠":4261,"無":4262,"焢":4263,"焦":4264,"焯":4265,"焰":4266,"焱":4267,"然":4268,"焼":4269,"焿":4270,"煂":4271,"煅":4272,"煇":4273,"煉":4274,"煊":4275,"煌":4276,"煎":4277,"煐":4278,"煒":4279,"煕":4280,"煙":4281,"煜":4282,"煞":4283,"煤":4284,"煥":4285,"煦":4286,"照":4287,"煨":4288,"煩":4289,"煬":4290,"煮":4291,"煱":4292,"煲":4293,"煳":4294,"煸":4295,"煺":4296,"煽":4297,"熄":4298,"熊":4299,"熏":4300,"熒":4301,"熔":4302,"熖":4303,"熗":4304,"熘":4305,"熙":4306,"熛":4307,"熜":4308,"熟":4309,"熠":4310,"熨":4311,"熬":4312,"熱":4313,"熵":4314,"熹":4315,"熼":4316,"熾":4317,"燁":4318,"燃":4319,"燄":4320,"燈":4321,"燉":4322,"燊":4323,"燎":4324,"燐":4325,"燒":4326,"燔":4327,"燕":4328,"燙":4329,"燜":4330,"營":4331,"燠":4332,"燡":4333,"燥":4334,"燦":4335,"燧":4336,"燨":4337,"燬":4338,"燭":4339,"燮":4340,"燴":4341,"燶":4342,"燻":4343,"燼":4344,"燿":4345,"爀":4346,"爆":4347,"爈":4348,"爌":4349,"爍":4350,"爐":4351,"爚":4352,"爛":4353,"爨":4354,"爪":4355,"爫":4356,"爬":4357,"爭":4358,"爰":4359,"爱":4360,"爲":4361,"爵":4362,"父":4363,"爷":4364,"爸":4365,"爹":4366,"爺":4367,"爻":4368,"爽":4369,"爾":4370,"爿":4371,"牀":4372,"牂":4373,"牆":4374,"片":4375,"版":4376,"牌":4377,"牒":4378,"牖":4379,"牘":4380,"牙":4381,"牛":4382,"牟":4383,"牠":4384,"牡":4385,"牢":4386,"牧":4387,"物":4388,"牬":4389,"牯":4390,"牲":4391,"牴":4392,"牵":4393,"特":4394,"牺":4395,"牽":4396,"牾":4397,"犀":4398,"犁":4399,"犂":4400,"犄":4401,"犇":4402,"犍":4403,"犒":4404,"犛":4405,"犟":4406,"犠":4407,"犡":4408,"犢":4409,"犧":4410,"犬":4411,"犮":4412,"犯":4413,"犰":4414,"状":4415,"犹":4416,"犽":4417,"狀":4418,"狂":4419,"狄":4420,"狍":4421,"狎":4422,"狐":4423,"狒":4424,"狓":4425,"狗":4426,"狙":4427,"狛":4428,"狠":4429,"狡":4430,"狨":4431,"狩":4432,"独":4433,"狮":4434,"狱":4435,"狳":4436,"狷":4437,"狸":4438,"狹":4439,"狺":4440,"狼":4441,"狽":4442,"猁":4443,"猊":4444,"猎":4445,"猖":4446,"猗":4447,"猘":4448,"猙":4449,"猛":4450,"猜":4451,"猝":4452,"猞":4453,"猢":4454,"猥":4455,"猩":4456,"猪":4457,"猫":4458,"猬":4459,"献":4460,"猴":4461,"猶":4462,"猷":4463,"猻":4464,"猾":4465,"猿":4466,"獁":4467,"獃":4468,"獄":4469,"獅":4470,"獍":4471,"獎":4472,"獏":4473,"獐":4474,"獒":4475,"獗":4476,"獠":4477,"獣":4478,"獨":4479,"獫":4480,"獬":4481,"獮":4482,"獰":4483,"獲":4484,"獴":4485,"獵":4486,"獷":4487,"獸":4488,"獺":4489,"獻":4490,"獼":4491,"獾":4492,"玀":4493,"玄":4494,"玆":4495,"率":4496,"玉":4497,"王":4498,"玎":4499,"玏":4500,"玓":4501,"玖":4502,"玗":4503,"玛":4504,"玟":4505,"玠":4506,"玢":4507,"玥":4508,"玧":4509,"玨":4510,"玩":4511,"玫":4512,"玬":4513,"环":4514,"现":4515,"玲":4516,"玳":4517,"玴":4518,"玵":4519,"玷":4520,"玹":4521,"玻":4522,"玼":4523,"珀":4524,"珂":4525,"珅":4526,"珈":4527,"珉":4528,"珊":4529,"珍":4530,"珐":4531,"珙":4532,"珞":4533,"珠":4534,"珣":4535,"珥":4536,"珩":4537,"珪":4538,"班":4539,"珮":4540,"珷":4541,"珺":4542,"珽":4543,"現":4544,"琁":4545,"球":4546,"琄":4547,"琅":4548,"理":4549,"琇":4550,"琉":4551,"琊":4552,"琋":4553,"琍":4554,"琚":4555,"琛":4556,"琝":4557,"琢":4558,"琣":4559,"琤":4560,"琥":4561,"琦":4562,"琨":4563,"琪":4564,"琬":4565,"琮":4566,"琲":4567,"琳":4568,"琴":4569,"琵":4570,"琶":4571,"琹":4572,"琺":4573,"琼":4574,"琿":4575,"瑀":4576,"瑁":4577,"瑂":4578,"瑄":4579,"瑈":4580,"瑋":4581,"瑍":4582,"瑕":4583,"瑗":4584,"瑙":4585,"瑚":4586,"瑛":4587,"瑜":4588,"瑝":4589,"瑞":4590,"瑟":4591,"瑠":4592,"瑢":4593,"瑣":4594,"瑤":4595,"瑧":4596,"瑨":4597,"瑩":4598,"瑪":4599,"瑭":4600,"瑯":4601,"瑰":4602,"瑳":4603,"瑶":4604,"瑼":4605,"瑾":4606,"璀":4607,"璁":4608,"璃":4609,"璄":4610,"璆":4611,"璇":4612,"璉":4613,"璋":4614,"璐":4615,"璘":4616,"璜":4617,"璞":4618,"璟":4619,"璠":4620,"璡":4621,"璣":4622,"璦":4623,"璧":4624,"璨":4625,"璩":4626,"環":4627,"璵":4628,"璷":4629,"璹":4630,"璽":4631,"璿":4632,"瓈":4633,"瓊":4634,"瓌":4635,"瓏":4636,"瓔":4637,"瓚":4638,"瓜":4639,"瓞":4640,"瓠":4641,"瓢":4642,"瓣":4643,"瓤":4644,"瓦":4645,"瓩":4646,"瓮":4647,"瓴":4648,"瓶":4649,"瓷":4650,"瓿":4651,"甄":4652,"甌":4653,"甍":4654,"甕":4655,"甘":4656,"甙":4657,"甚":4658,"甜":4659,"生":4660,"甡":4661,"產":4662,"産":4663,"甥":4664,"甦":4665,"用":4666,"甩":4667,"甪":4668,"甫":4669,"甬":4670,"甭":4671,"甯":4672,"田":4673,"由":4674,"甲":4675,"申":4676,"甴":4677,"电":4678,"男":4679,"甸":4680,"町":4681,"画":4682,"畀":4683,"畅":4684,"畇":4685,"畈":4686,"畊":4687,"界":4688,"畏":4689,"畑":4690,"畔":4691,"留":4692,"畚":4693,"畜":4694,"畝":4695,"畠":4696,"畢":4697,"略":4698,"畦":4699,"畧":4700,"番":4701,"畫":4702,"畬":4703,"畯":4704,"異":4705,"畲":4706,"畳":4707,"畴":4708,"當":4709,"畷":4710,"畸":4711,"畹":4712,"畿":4713,"疃":4714,"疆":4715,"疇":4716,"疊":4717,"疋":4718,"疏":4719,"疑":4720,"疔":4721,"疗":4722,"疙":4723,"疚":4724,"疝":4725,"疣":4726,"疤":4727,"疥":4728,"疪":4729,"疫":4730,"疮":4731,"疯":4732,"疰":4733,"疱":4734,"疲":4735,"疳":4736,"疴":4737,"疵":4738,"疸":4739,"疹":4740,"疼":4741,"疽":4742,"疾":4743,"痂":4744,"病":4745,"症":4746,"痊":4747,"痍":4748,"痒":4749,"痔":4750,"痕":4751,"痘":4752,"痙":4753,"痛":4754,"痞":4755,"痠":4756,"痢":4757,"痣":4758,"痤":4759,"痧":4760,"痪":4761,"痰":4762,"痱":4763,"痲":4764,"痴":4765,"痹":4766,"痺":4767,"痼":4768,"痾":4769,"痿":4770,"瘀":4771,"瘁":4772,"瘂":4773,"瘉":4774,"瘋":4775,"瘍":4776,"瘓":4777,"瘕":4778,"瘖":4779,"瘙":4780,"瘜":4781,"瘟":4782,"瘠":4783,"瘡":4784,"瘢":4785,"瘤":4786,"瘦":4787,"瘧":4788,"瘩":4789,"瘫":4790,"瘮":4791,"瘰":4792,"瘴":4793,"瘵":4794,"瘸":4795,"瘻":4796,"瘼":4797,"癀":4798,"療":4799,"癆":4800,"癇":4801,"癈":4802,"癌":4803,"癒":4804,"癔":4805,"癖":4806,"癘":4807,"癜":4808,"癟":4809,"癡":4810,"癢":4811,"癤":4812,"癥":4813,"癩":4814,"癬":4815,"癭":4816,"癮":4817,"癰":4818,"癱":4819,"癲":4820,"癸":4821,"発":4822,"登":4823,"發":4824,"白":4825,"百":4826,"皂":4827,"的":4828,"皆":4829,"皇":4830,"皈":4831,"皋":4832,"皎":4833,"皐":4834,"皓":4835,"皖":4836,"皙":4837,"皚":4838,"皣":4839,"皪":4840,"皮":4841,"皰":4842,"皴":4843,"皸":4844,"皺":4845,"皿":4846,"盂":4847,"盃":4848,"盅":4849,"盆":4850,"盈":4851,"益":4852,"盍":4853,"盎":4854,"盐":4855,"监":4856,"盒":4857,"盔":4858,"盖":4859,"盗":4860,"盘":4861,"盙":4862,"盛":4863,"盜":4864,"盞":4865,"盟":4866,"盡":4867,"監":4868,"盤":4869,"盥":4870,"盧":4871,"盪":4872,"目":4873,"盯":4874,"盱":4875,"盲":4876,"直":4877,"相":4878,"盹":4879,"盺":4880,"盼":4881,"盾":4882,"眀":4883,"省":4884,"眇":4885,"眈":4886,"眉":4887,"看":4888,"県":4889,"眙":4890,"眛":4891,"眞":4892,"真":4893,"眠":4894,"眥":4895,"眦":4896,"眨":4897,"眩":4898,"眭":4899,"眯":4900,"眶":4901,"眷":4902,"眸":4903,"眺":4904,"眼":4905,"眾":4906,"着":4907,"睇":4908,"睏":4909,"睐":4910,"睒":4911,"睛":4912,"睜":4913,"睞":4914,"睡":4915,"睢":4916,"督":4917,"睥":4918,"睦":4919,"睨":4920,"睩":4921,"睪":4922,"睫":4923,"睬":4924,"睭":4925,"睱":4926,"睹":4927,"睽":4928,"睾":4929,"睿":4930,"瞄":4931,"瞅":4932,"瞇":4933,"瞋":4934,"瞌":4935,"瞎":4936,"瞑":4937,"瞒":4938,"瞓":4939,"瞜":4940,"瞞":4941,"瞟":4942,"瞠":4943,"瞥":4944,"瞧":4945,"瞪":4946,"瞬":4947,"瞭":4948,"瞰":4949,"瞱":4950,"瞳":4951,"瞴":4952,"瞶":4953,"瞻":4954,"瞼":4955,"瞿":4956,"矅":4957,"矇":4958,"矍":4959,"矓":4960,"矗":4961,"矚":4962,"矛":4963,"矜":4964,"矞":4965,"矢":4966,"矣":4967,"知":4968,"矧":4969,"矩":4970,"矬":4971,"短":4972,"矮":4973,"矯":4974,"石":4975,"矶":4976,"矸":4977,"矻":4978,"矽":4979,"矿":4980,"码":4981,"砂":4982,"砌":4983,"砍":4984,"砒":4985,"研":4986,"砕":4987,"砝":4988,"砥":4989,"砦":4990,"砧":4991,"砩":4992,"砭":4993,"砰":4994,"砲":4995,"破":4996,"砵":4997,"砷":4998,"砸":4999,"础":5000,"硂":5001,"硃":5002,"硅":5003,"硌":5004,"硏":5005,"硐":5006,"硒":5007,"硓":5008,"硕":5009,"硘":5010,"硚":5011,"硝":5012,"硤":5013,"硦":5014,"硨":5015,"硫":5016,"硬":5017,"确":5018,"硯":5019,"硼":5020,"碁":5021,"碇":5022,"碉":5023,"碌":5024,"碍":5025,"碎":5026,"碑":5027,"碓":5028,"碗":5029,"碘":5030,"碚":5031,"碟":5032,"碣":5033,"碧":5034,"碩":5035,"碭":5036,"碰":5037,"碱":5038,"碲":5039,"碳":5040,"碴":5041,"碸":5042,"確":5043,"碼":5044,"碾":5045,"磁":5046,"磅":5047,"磊":5048,"磋":5049,"磐":5050,"磕":5051,"磗":5052,"磘":5053,"磚":5054,"磡":5055,"磧":5056,"磨":5057,"磬":5058,"磯":5059,"磲":5060,"磴":5061,"磷":5062,"磺":5063,"磿":5064,"礁":5065,"礄":5066,"礅":5067,"礎":5068,"礑":5069,"礙":5070,"礡":5071,"礦":5072,"礪":5073,"礫":5074,"礬":5075,"礮":5076,"礴":5077,"示":5078,"礼":5079,"社":5080,"祀":5081,"祁":5082,"祂":5083,"祇":5084,"祈":5085,"祉":5086,"祐":5087,"祓":5088,"祕":5089,"祖":5090,"祗":5091,"祚":5092,"祛":5093,"祜":5094,"祝":5095,"神":5096,"祟":5097,"祠":5098,"祡":5099,"祢":5100,"祤":5101,"祥":5102,"祧":5103,"票":5104,"祭":5105,"祷":5106,"祸":5107,"祺":5108,"祼":5109,"祿":5110,"禀":5111,"禁":5112,"禇":5113,"禊":5114,"禍":5115,"禎":5116,"福":5117,"禓":5118,"禕":5119,"禛":5120,"禜":5121,"禠":5122,"禢":5123,"禤":5124,"禦":5125,"禧":5126,"禩":5127,"禪":5128,"禮":5129,"禰":5130,"禱":5131,"禳":5132,"禸":5133,"禹":5134,"禺":5135,"离":5136,"禼":5137,"禽":5138,"禾":5139,"禿":5140,"秀":5141,"私":5142,"秃":5143,"秈":5144,"秉":5145,"秋":5146,"秌":5147,"种":5148,"秏":5149,"秐":5150,"科":5151,"秒":5152,"秘":5153,"秝":5154,"秞":5155,"租":5156,"秣":5157,"秤":5158,"秦":5159,"秧":5160,"秩":5161,"秫":5162,"秭":5163,"积":5164,"称":5165,"秸":5166,"移":5167,"稀":5168,"稅":5169,"稇":5170,"稈":5171,"稉":5172,"程":5173,"稍":5174,"税":5175,"稔":5176,"稕":5177,"稗":5178,"稚":5179,"稜":5180,"稞":5181,"稟":5182,"稠":5183,"種":5184,"稱":5185,"稲":5186,"稳":5187,"稷":5188,"稹":5189,"稻":5190,"稼":5191,"稽":5192,"稿":5193,"穀":5194,"穂":5195,"穆":5196,"穌":5197,"積":5198,"穎":5199,"穏":5200,"穗":5201,"穚":5202,"穜":5203,"穠":5204,"穡":5205,"穢":5206,"穩":5207,"穫":5208,"穭":5209,"穰":5210,"穱":5211,"穴":5212,"究":5213,"穷":5214,"穹":5215,"空":5216,"穿":5217,"突":5218,"窃":5219,"窄":5220,"窈":5221,"窑":5222,"窒":5223,"窓":5224,"窕":5225,"窖":5226,"窗":5227,"窘":5228,"窜":5229,"窟":5230,"窠":5231,"窣":5232,"窥":5233,"窦":5234,"窨":5235,"窩":5236,"窪":5237,"窮":5238,"窯":5239,"窰":5240,"窳":5241,"窴":5242,"窸":5243,"窺":5244,"窿":5245,"竂":5246,"竄":5247,"竅":5248,"竇":5249,"竈":5250,"竉":5251,"竊":5252,"立":5253,"竑":5254,"站":5255,"竜":5256,"竝":5257,"竞":5258,"竟":5259,"章":5260,"竣":5261,"童":5262,"竪":5263,"竫":5264,"竭":5265,"端":5266,"競":5267,"竸":5268,"竹":5269,"竺":5270,"竻":5271,"竽":5272,"竿":5273,"笄":5274,"笅":5275,"笆":5276,"笈":5277,"笋":5278,"笏":5279,"笐":5280,"笑":5281,"笔":5282,"笙":5283,"笛":5284,"笞":5285,"笠":5286,"笤":5287,"笥":5288,"符":5289,"笨":5290,"笫":5291,"第":5292,"笭":5293,"笱":5294,"笹":5295,"笼":5296,"筆":5297,"等":5298,"筊":5299,"筋":5300,"筌":5301,"筍":5302,"筏":5303,"筐":5304,"筑":5305,"筒":5306,"答":5307,"策":5308,"筠":5309,"筢":5310,"筧":5311,"筱":5312,"筲":5313,"筳":5314,"筴":5315,"筵":5316,"筶":5317,"筷":5318,"筻":5319,"签":5320,"简":5321,"箇":5322,"箋":5323,"箍":5324,"箎":5325,"箏":5326,"箐":5327,"箔":5328,"箕":5329,"算":5330,"箘":5331,"箜":5332,"箝":5333,"管":5334,"箬":5335,"箭":5336,"箱":5337,"箴":5338,"箸":5339,"節":5340,"篁":5341,"範":5342,"篆":5343,"篇":5344,"築":5345,"篋":5346,"篌":5347,"篏":5348,"篙":5349,"篛":5350,"篝":5351,"篠":5352,"篡":5353,"篤":5354,"篦":5355,"篩":5356,"篪":5357,"篮":5358,"篳":5359,"篷":5360,"篾":5361,"簇":5362,"簋":5363,"簌":5364,"簍":5365,"簏":5366,"簑":5367,"簒":5368,"簝":5369,"簞":5370,"簡":5371,"簣":5372,"簧":5373,"簪":5374,"簫":5375,"簷":5376,"簸":5377,"簽":5378,"簾":5379,"簿":5380,"籂":5381,"籃":5382,"籌":5383,"籍":5384,"籐":5385,"籓":5386,"籗":5387,"籙":5388,"籛":5389,"籟":5390,"籠":5391,"籤":5392,"籬":5393,"籮":5394,"籲":5395,"米":5396,"类":5397,"籽":5398,"籾":5399,"粂":5400,"粄":5401,"粉":5402,"粋":5403,"粑":5404,"粒":5405,"粕":5406,"粗":5407,"粘":5408,"粙":5409,"粛":5410,"粟":5411,"粢":5412,"粤":5413,"粥":5414,"粧":5415,"粨":5416,"粩":5417,"粮":5418,"粱":5419,"粲":5420,"粳":5421,"粵":5422,"粹":5423,"粼":5424,"粽":5425,"精":5426,"粿":5427,"糀":5428,"糅":5429,"糉":5430,"糊":5431,"糋":5432,"糌":5433,"糍":5434,"糕":5435,"糖":5436,"糗":5437,"糙":5438,"糜":5439,"糞":5440,"糟":5441,"糠":5442,"糢":5443,"糥":5444,"糧":5445,"糨":5446,"糬":5447,"糭":5448,"糯":5449,"糰":5450,"糴":5451,"糶":5452,"糸":5453,"糹":5454,"糺":5455,"系":5456,"糾":5457,"紀":5458,"紂":5459,"約":5460,"紅":5461,"紆":5462,"紇":5463,"紈":5464,"紉":5465,"紊":5466,"紋":5467,"納":5468,"紐":5469,"紓":5470,"純":5471,"紕":5472,"紗":5473,"紘":5474,"紙":5475,"級":5476,"紛":5477,"紜":5478,"紝":5479,"素":5480,"紡":5481,"索":5482,"紥":5483,"紧":5484,"紫":5485,"紬":5486,"紮":5487,"累":5488,"細":5489,"紳":5490,"紹":5491,"紺":5492,"紿":5493,"絀":5494,"終":5495,"絃":5496,"組":5497,"絆":5498,"経":5499,"絎":5500,"結":5501,"絕":5502,"絛":5503,"絜":5504,"絝":5505,"絞":5506,"絡":5507,"絢":5508,"給":5509,"絨":5510,"絪":5511,"絮":5512,"統":5513,"絲":5514,"絳":5515,"絵":5516,"絶":5517,"絹":5518,"綁":5519,"綃":5520,"綉":5521,"綏":5522,"綐":5523,"綑":5524,"經":5525,"継":5526,"続":5527,"綜":5528,"綝":5529,"綠":5530,"綢":5531,"綣":5532,"綦":5533,"綫":5534,"綬":5535,"維":5536,"綰":5537,"綱":5538,"網":5539,"綳":5540,"綴":5541,"綵":5542,"綷":5543,"綸":5544,"綹":5545,"綺":5546,"綻":5547,"綽":5548,"綾":5549,"綿":5550,"緃":5551,"緄":5552,"緊":5553,"緋":5554,"総":5555,"緑":5556,"緒":5557,"緘":5558,"線":5559,"緝":5560,"緞":5561,"締":5562,"緣":5563,"編":5564,"緩":5565,"緬":5566,"緯":5567,"緱":5568,"緲":5569,"練":5570,"緹":5571,"緻":5572,"縂":5573,"縄":5574,"縈":5575,"縉":5576,"縊":5577,"縐":5578,"縕":5579,"縛":5580,"縝":5581,"縞":5582,"縟":5583,"縠":5584,"縢":5585,"縣":5586,"縦":5587,"縧":5588,"縫":5589,"縭":5590,"縮":5591,"縱":5592,"縲":5593,"縴":5594,"縵":5595,"縷":5596,"縹":5597,"總":5598,"績":5599,"繁":5600,"繃":5601,"繄":5602,"繅":5603,"繆":5604,"繇":5605,"繈":5606,"繋":5607,"織":5608,"繕":5609,"繙":5610,"繚":5611,"繞":5612,"繡":5613,"繢":5614,"繩":5615,"繪":5616,"繫":5617,"繭":5618,"繮":5619,"繰":5620,"繳":5621,"繹":5622,"繻":5623,"繼":5624,"繽":5625,"繾":5626,"纂":5627,"纇":5628,"纈":5629,"續":5630,"纍":5631,"纎":5632,"纏":5633,"纒":5634,"纓":5635,"纔":5636,"纕":5637,"纖":5638,"纘":5639,"纜":5640,"红":5641,"纤":5642,"约":5643,"级":5644,"纪":5645,"纯":5646,"纱":5647,"纲":5648,"纳":5649,"纵":5650,"纷":5651,"纸":5652,"纹":5653,"纽":5654,"纾":5655,"线":5656,"练":5657,"组":5658,"细":5659,"织":5660,"终":5661,"绍":5662,"绎":5663,"经":5664,"绑":5665,"绒":5666,"结":5667,"绕":5668,"绗":5669,"给":5670,"络":5671,"绝":5672,"统":5673,"绣":5674,"继":5675,"绩":5676,"绪":5677,"续":5678,"绰":5679,"绳":5680,"维":5681,"绵":5682,"综":5683,"绽":5684,"绿":5685,"缄":5686,"缅":5687,"缆":5688,"缉":5689,"缐":5690,"缓":5691,"编":5692,"缘":5693,"缝":5694,"缩":5695,"缴":5696,"缶":5697,"缷":5698,"缸":5699,"缺":5700,"缼":5701,"缽":5702,"罄":5703,"罅":5704,"罈":5705,"罌":5706,"罍":5707,"罐":5708,"网":5709,"罔":5710,"罕":5711,"罗":5712,"罘":5713,"罚":5714,"罝":5715,"罟":5716,"罡":5717,"罣":5718,"罨":5719,"罩":5720,"罪":5721,"置":5722,"罰":5723,"署":5724,"罵":5725,"罷":5726,"罸":5727,"罹":5728,"羅":5729,"羆":5730,"羈":5731,"羉":5732,"羊":5733,"羋":5734,"羌":5735,"美":5736,"羓":5737,"羔":5738,"羚":5739,"羞":5740,"羡":5741,"羣":5742,"群":5743,"羥":5744,"羧":5745,"羨":5746,"義":5747,"羫":5748,"羮":5749,"羯":5750,"羰":5751,"羲":5752,"羶":5753,"羸":5754,"羹":5755,"羼":5756,"羽":5757,"羿":5758,"翀":5759,"翁":5760,"翃":5761,"翅":5762,"翊":5763,"翌":5764,"翎":5765,"習":5766,"翔":5767,"翟":5768,"翠":5769,"翡":5770,"翩":5771,"翫":5772,"翬":5773,"翮":5774,"翰":5775,"翱":5776,"翳":5777,"翹":5778,"翺":5779,"翻":5780,"翼":5781,"耀":5782,"老":5783,"考":5784,"耄":5785,"者":5786,"耆":5787,"耊":5788,"耋":5789,"而":5790,"耍":5791,"耐":5792,"耒":5793,"耕":5794,"耗":5795,"耘":5796,"耙":5797,"耦":5798,"耳":5799,"耵":5800,"耶":5801,"耷":5802,"耹":5803,"耻":5804,"耽":5805,"耿":5806,"聁":5807,"聆":5808,"聊":5809,"职":5810,"聎":5811,"聒":5812,"联":5813,"聖":5814,"聘":5815,"聚":5816,"聞":5817,"聡":5818,"聪":5819,"聮":5820,"聯":5821,"聰":5822,"聲":5823,"聳":5824,"聴":5825,"聵":5826,"聶":5827,"職":5828,"聹":5829,"聼":5830,"聽":5831,"聾":5832,"聿":5833,"肃":5834,"肄":5835,"肅":5836,"肆":5837,"肇":5838,"肉":5839,"肋":5840,"肌":5841,"肓":5842,"肕":5843,"肖":5844,"肘":5845,"肚":5846,"肛":5847,"肝":5848,"肟":5849,"肠":5850,"股":5851,"肢":5852,"肤":5853,"肥":5854,"肩":5855,"肪":5856,"肫":5857,"肯":5858,"肱":5859,"育":5860,"肴":5861,"肺":5862,"肼":5863,"肽":5864,"肾":5865,"肿":5866,"胀":5867,"胁":5868,"胃":5869,"胄":5870,"胆":5871,"胇":5872,"背":5873,"胍":5874,"胎":5875,"胖":5876,"胗":5877,"胚":5878,"胛":5879,"胜":5880,"胝":5881,"胞":5882,"胡":5883,"胤":5884,"胥":5885,"胭":5886,"胯":5887,"胰":5888,"胱":5889,"胳":5890,"胴":5891,"胸":5892,"胺":5893,"胼":5894,"能":5895,"脂":5896,"脄":5897,"脅":5898,"脆":5899,"脇":5900,"脈":5901,"脉":5902,"脊":5903,"脏":5904,"脑":5905,"脖":5906,"脗":5907,"脘":5908,"脚":5909,"脛":5910,"脢":5911,"脣":5912,"脧":5913,"脩":5914,"脫":5915,"脯":5916,"脱":5917,"脲":5918,"脳":5919,"脷":5920,"脸":5921,"脹":5922,"脾":5923,"腆":5924,"腈":5925,"腊":5926,"腋":5927,"腌":5928,"腎":5929,"腐":5930,"腑":5931,"腓":5932,"腔":5933,"腕":5934,"腚":5935,"腠":5936,"腥":5937,"腦":5938,"腧":5939,"腩":5940,"腫":5941,"腮":5942,"腰":5943,"腱":5944,"腳":5945,"腴":5946,"腸":5947,"腹":5948,"腺":5949,"腻":5950,"腾":5951,"腿":5952,"膀":5953,"膂":5954,"膈":5955,"膊":5956,"膏":5957,"膕":5958,"膘":5959,"膚":5960,"膛":5961,"膜":5962,"膝":5963,"膠":5964,"膦":5965,"膧":5966,"膨":5967,"膩":5968,"膳":5969,"膴":5970,"膺":5971,"膻":5972,"膽":5973,"膾":5974,"膿":5975,"臀":5976,"臂":5977,"臃":5978,"臆":5979,"臉":5980,"臊":5981,"臍":5982,"臏":5983,"臓":5984,"臖":5985,"臗":5986,"臘":5987,"臚":5988,"臝":5989,"臟":5990,"臠":5991,"臣":5992,"臥":5993,"臧":5994,"臨":5995,"自":5996,"臬":5997,"臭":5998,"至":5999,"致":6000,"臺":6001,"臻":6002,"臼":6003,"臾":6004,"舀":6005,"舂":6006,"舅":6007,"舆":6008,"與":6009,"興":6010,"舉":6011,"舊":6012,"舋":6013,"舌":6014,"舍":6015,"舎":6016,"舐":6017,"舒":6018,"舔":6019,"舕":6020,"舖":6021,"舗":6022,"舘":6023,"舛":6024,"舜":6025,"舞":6026,"舟":6027,"舠":6028,"舢":6029,"舨":6030,"航":6031,"舫":6032,"般":6033,"舯":6034,"舰":6035,"舱":6036,"舵":6037,"舶":6038,"舷":6039,"船":6040,"舺":6041,"艇":6042,"艉":6043,"艋":6044,"艏":6045,"艘":6046,"艙":6047,"艟":6048,"艤":6049,"艦":6050,"艮":6051,"良":6052,"艰":6053,"艱":6054,"色":6055,"艶":6056,"艷":6057,"艸":6058,"艺":6059,"艽":6060,"艾":6061,"节":6062,"芃":6063,"芊":6064,"芋":6065,"芍":6066,"芎":6067,"芒":6068,"芓":6069,"芘":6070,"芙":6071,"芛":6072,"芝":6073,"芠":6074,"芡":6075,"芢":6076,"芥":6077,"芦":6078,"芧":6079,"芩":6080,"芪":6081,"芫":6082,"芬":6083,"芭":6084,"芮":6085,"芯":6086,"花":6087,"芳":6088,"芶":6089,"芷":6090,"芸":6091,"芹":6092,"芻":6093,"芽":6094,"苅":6095,"苏":6096,"苑":6097,"苒":6098,"苓":6099,"苔":6100,"苖":6101,"苗":6102,"苙":6103,"苛":6104,"苜":6105,"苞":6106,"苟":6107,"苡":6108,"苣":6109,"苤":6110,"若":6111,"苦":6112,"苧":6113,"苫":6114,"苯":6115,"英":6116,"苳":6117,"苴":6118,"苷":6119,"苹":6120,"苺":6121,"苾":6122,"苿":6123,"茀":6124,"茁":6125,"茂":6126,"范":6127,"茄":6128,"茅":6129,"茈":6130,"茉":6131,"茌":6132,"茍":6133,"茖":6134,"茗":6135,"茜":6136,"茨":6137,"茫":6138,"茬":6139,"茭":6140,"茯":6141,"茱":6142,"茲":6143,"茴":6144,"茵":6145,"茶":6146,"茸":6147,"茹":6148,"茻":6149,"茼":6150,"荀":6151,"荃":6152,"荅":6153,"荆":6154,"草":6155,"荊":6156,"荏":6157,"荐":6158,"荒":6159,"荔":6160,"荖":6161,"药":6162,"荳":6163,"荷":6164,"荸":6165,"荻":6166,"荼":6167,"荽":6168,"莆":6169,"莉":6170,"莊":6171,"莎":6172,"莒":6173,"莓":6174,"莕":6175,"莖":6176,"莘":6177,"莛":6178,"莜":6179,"莞":6180,"莠":6181,"莢":6182,"莧":6183,"莨":6184,"莩":6185,"莪":6186,"莫":6187,"莱":6188,"莲":6189,"获":6190,"莽":6191,"莿":6192,"菀":6193,"菁":6194,"菂":6195,"菅":6196,"菇":6197,"菈":6198,"菉":6199,"菊":6200,"菌":6201,"菏":6202,"菓":6203,"菔":6204,"菖":6205,"菘":6206,"菜":6207,"菝":6208,"菟":6209,"菠":6210,"菡":6211,"菩":6212,"菪":6213,"菫":6214,"華":6215,"菰":6216,"菱":6217,"菲":6218,"菴":6219,"菸":6220,"菿":6221,"萁":6222,"萃":6223,"萄":6224,"萊":6225,"萌":6226,"萍":6227,"萎":6228,"萓":6229,"萘":6230,"萜":6231,"萝":6232,"萡":6233,"萣":6234,"营":6235,"萧":6236,"萨":6237,"萩":6238,"萬":6239,"萱":6240,"萳":6241,"萵":6242,"萸":6243,"萼":6244,"落":6245,"葆":6246,"葉":6247,"葎":6248,"葑":6249,"葒":6250,"著":6251,"葚":6252,"葛":6253,"葜":6254,"葡":6255,"董":6256,"葦":6257,"葧":6258,"葩":6259,"葫":6260,"葬":6261,"葭":6262,"葯":6263,"葱":6264,"葳":6265,"葵":6266,"葶":6267,"葷":6268,"葺":6269,"葽":6270,"蒂":6271,"蒄":6272,"蒐":6273,"蒒":6274,"蒔":6275,"蒙":6276,"蒜":6277,"蒝":6278,"蒞":6279,"蒟":6280,"蒡":6281,"蒨":6282,"蒯":6283,"蒲":6284,"蒴":6285,"蒸":6286,"蒺":6287,"蒻":6288,"蒼":6289,"蒽":6290,"蒿":6291,"蓀":6292,"蓁":6293,"蓄":6294,"蓆":6295,"蓉":6296,"蓊":6297,"蓋":6298,"蓑":6299,"蓒":6300,"蓓":6301,"蓖":6302,"蓝":6303,"蓬":6304,"蓮":6305,"蓯":6306,"蓳":6307,"蓴":6308,"蓼":6309,"蓿":6310,"蔆":6311,"蔑":6312,"蔓":6313,"蔔":6314,"蔗":6315,"蔘":6316,"蔚":6317,"蔞":6318,"蔡":6319,"蔣":6320,"蔥":6321,"蔦":6322,"蔫":6323,"蔬":6324,"蔭":6325,"蔴":6326,"蔵":6327,"蔻":6328,"蔽":6329,"蕁":6330,"蕃":6331,"蕈":6332,"蕉":6333,"蕊":6334,"蕍":6335,"蕎":6336,"蕓":6337,"蕗":6338,"蕘":6339,"蕙":6340,"蕞":6341,"蕥":6342,"蕨":6343,"蕩":6344,"蕪":6345,"蕫":6346,"蕭":6347,"蕯":6348,"蕷":6349,"蕾":6350,"薄":6351,"薅":6352,"薆":6353,"薇":6354,"薈":6355,"薊":6356,"薏":6357,"薑":6358,"薔":6359,"薗":6360,"薙":6361,"薛":6362,"薜":6363,"薟":6364,"薤":6365,"薦":6366,"薨":6367,"薩":6368,"薪":6369,"薫":6370,"薬":6371,"薯":6372,"薰":6373,"薷":6374,"薹":6375,"薺":6376,"薾":6377,"藁":6378,"藇":6379,"藉":6380,"藍":6381,"藎":6382,"藏":6383,"藐":6384,"藕":6385,"藜":6386,"藝":6387,"藤":6388,"藥":6389,"藩":6390,"藪":6391,"藳":6392,"藴":6393,"藷":6394,"藹":6395,"藺":6396,"藻":6397,"藿":6398,"蘄":6399,"蘅":6400,"蘆":6401,"蘇":6402,"蘊":6403,"蘋":6404,"蘑":6405,"蘖":6406,"蘚":6407,"蘞":6408,"蘢":6409,"蘩":6410,"蘭":6411,"蘵":6412,"蘸":6413,"蘺":6414,"蘼":6415,"蘿":6416,"虅":6417,"虌":6418,"虎":6419,"虐":6420,"虑":6421,"虓":6422,"虔":6423,"處":6424,"虚":6425,"虛":6426,"虜":6427,"虞":6428,"號":6429,"虢":6430,"虧":6431,"虫":6432,"虬":6433,"虯":6434,"虱":6435,"虹":6436,"虺":6437,"虻":6438,"虽":6439,"虾":6440,"蚀":6441,"蚁":6442,"蚂":6443,"蚊":6444,"蚋":6445,"蚌":6446,"蚓":6447,"蚜":6448,"蚝":6449,"蚣":6450,"蚤":6451,"蚧":6452,"蚩":6453,"蚪":6454,"蚯":6455,"蚰":6456,"蚱":6457,"蚴":6458,"蚵":6459,"蚶":6460,"蛀":6461,"蛄":6462,"蛆":6463,"蛇":6464,"蛉":6465,"蛋":6466,"蛔":6467,"蛙":6468,"蛛":6469,"蛞":6470,"蛟":6471,"蛤":6472,"蛭":6473,"蛸":6474,"蛹":6475,"蛺":6476,"蛻":6477,"蛾":6478,"蜀":6479,"蜂":6480,"蜃":6481,"蜆":6482,"蜇":6483,"蜈":6484,"蜉":6485,"蜊":6486,"蜍":6487,"蜒":6488,"蜓":6489,"蜘":6490,"蜙":6491,"蜚":6492,"蜜":6493,"蜞":6494,"蜢":6495,"蜣":6496,"蜥":6497,"蜮":6498,"蜱":6499,"蜴":6500,"蜷":6501,"蜻":6502,"蜿":6503,"蝌":6504,"蝍":6505,"蝎":6506,"蝓":6507,"蝕":6508,"蝗":6509,"蝙":6510,"蝞":6511,"蝟":6512,"蝠":6513,"蝣":6514,"蝥":6515,"蝦":6516,"蝨":6517,"蝮":6518,"蝰":6519,"蝲":6520,"蝴":6521,"蝶":6522,"蝸":6523,"蝻":6524,"蝽":6525,"螂":6526,"螃":6527,"螄":6528,"螅":6529,"螈":6530,"螊":6531,"融":6532,"螜":6533,"螞":6534,"螟":6535,"螢":6536,"螨":6537,"螫":6538,"螭":6539,"螯":6540,"螳":6541,"螺":6542,"螻":6543,"蟀":6544,"蟄":6545,"蟆":6546,"蟋":6547,"蟌":6548,"蟎":6549,"蟑":6550,"蟒":6551,"蟛":6552,"蟠":6553,"蟥":6554,"蟬":6555,"蟯":6556,"蟲":6557,"蟳":6558,"蟶":6559,"蟹":6560,"蟻":6561,"蟾":6562,"蠃":6563,"蠅":6564,"蠆":6565,"蠊":6566,"蠍":6567,"蠎":6568,"蠏":6569,"蠑":6570,"蠓":6571,"蠔":6572,"蠕":6573,"蠟":6574,"蠡":6575,"蠢":6576,"蠣":6577,"蠱":6578,"蠵":6579,"蠶":6580,"蠹":6581,"蠻":6582,"血":6583,"衄":6584,"衅":6585,"衆":6586,"衊":6587,"行":6588,"衍":6589,"術":6590,"衔":6591,"衕":6592,"衖":6593,"街":6594,"衙":6595,"衚":6596,"衛":6597,"衝":6598,"衞":6599,"衡":6600,"衢":6601,"衣":6602,"补":6603,"衧":6604,"表":6605,"衩":6606,"衪":6607,"衫":6608,"衰":6609,"衲":6610,"衷":6611,"衹":6612,"衽":6613,"衾":6614,"衿":6615,"袁":6616,"袂":6617,"袃":6618,"袈":6619,"袋":6620,"袍":6621,"袐":6622,"袒":6623,"袓":6624,"袖":6625,"袛":6626,"袜":6627,"袞":6628,"袤":6629,"袪":6630,"被":6631,"袭":6632,"袮":6633,"袱":6634,"袴":6635,"裁":6636,"裂":6637,"装":6638,"裇":6639,"裊":6640,"裎":6641,"裏":6642,"裔":6643,"裕":6644,"裘":6645,"裙":6646,"補":6647,"裝":6648,"裟":6649,"裡":6650,"裤":6651,"裨":6652,"裩":6653,"裬":6654,"裱":6655,"裳":6656,"裴":6657,"裵":6658,"裸":6659,"裹":6660,"製":6661,"褀":6662,"褂":6663,"複":6664,"褐":6665,"褒":6666,"褓":6667,"褔":6668,"褕":6669,"褙":6670,"褚":6671,"褟":6672,"褢":6673,"褥":6674,"褪":6675,"褫":6676,"褲":6677,"褵":6678,"褶":6679,"褸":6680,"褺":6681,"褻":6682,"襁":6683,"襄":6684,"襎":6685,"襖":6686,"襝":6687,"襞":6688,"襟":6689,"襠":6690,"襤":6691,"襪":6692,"襬":6693,"襯":6694,"襲":6695,"西":6696,"要":6697,"覃":6698,"覆":6699,"覇":6700,"覈":6701,"覊":6702,"見":6703,"規":6704,"覓":6705,"覔":6706,"視":6707,"覗":6708,"覚":6709,"覦":6710,"覧":6711,"親":6712,"覬":6713,"覲":6714,"観":6715,"覷":6716,"覺":6717,"覻":6718,"覽":6719,"觀":6720,"见":6721,"观":6722,"规":6723,"视":6724,"览":6725,"觉":6726,"觑":6727,"角":6728,"觔":6729,"觘":6730,"觟":6731,"解":6732,"觥":6733,"触":6734,"觴":6735,"觸":6736,"言":6737,"訂":6738,"訃":6739,"訇":6740,"計":6741,"訊":6742,"訌":6743,"討":6744,"訏":6745,"訐":6746,"訓":6747,"訕":6748,"訖":6749,"託":6750,"記":6751,"訛":6752,"訝":6753,"訟":6754,"訢":6755,"訣":6756,"訥":6757,"訪":6758,"設":6759,"訮":6760,"許":6761,"訳":6762,"訴":6763,"訶":6764,"診":6765,"註":6766,"証":6767,"訾":6768,"詁":6769,"詂":6770,"詅":6771,"詆":6772,"詋":6773,"詎":6774,"詐":6775,"詑":6776,"詒":6777,"詔":6778,"評":6779,"詗":6780,"詛":6781,"詞":6782,"詠":6783,"詡":6784,"詢":6785,"詣":6786,"試":6787,"詩":6788,"詫":6789,"詬":6790,"詭":6791,"詮":6792,"詰":6793,"話":6794,"該":6795,"詳":6796,"詹":6797,"詼":6798,"誅":6799,"誆":6800,"誇":6801,"誉":6802,"誌":6803,"認":6804,"誑":6805,"誒":6806,"誓":6807,"誔":6808,"誕":6809,"誘":6810,"語":6811,"誠":6812,"誡":6813,"誣":6814,"誤":6815,"誥":6816,"誦":6817,"誨":6818,"說":6819,"説":6820,"読":6821,"誰":6822,"課":6823,"誹":6824,"誼":6825,"調":6826,"諂":6827,"諄":6828,"諆":6829,"談":6830,"諉":6831,"請":6832,"諏":6833,"諒":6834,"論":6835,"諗":6836,"諛":6837,"諜":6838,"諝":6839,"諞":6840,"諠":6841,"諡":6842,"諢":6843,"諤":6844,"諦":6845,"諧":6846,"諫":6847,"諭":6848,"諮":6849,"諱":6850,"諲":6851,"諳":6852,"諴":6853,"諶":6854,"諷":6855,"諸":6856,"諺":6857,"諼":6858,"諾":6859,"謀":6860,"謁":6861,"謂":6862,"謄":6863,"謅":6864,"謇":6865,"謊":6866,"謎":6867,"謐":6868,"謔":6869,"謖":6870,"謗":6871,"謙":6872,"講":6873,"謝":6874,"謠":6875,"謢":6876,"謦":6877,"謨":6878,"謫":6879,"謬":6880,"謳":6881,"謹":6882,"謾":6883,"譁":6884,"證":6885,"譎":6886,"譏":6887,"譖":6888,"識":6889,"譙":6890,"譚":6891,"譜":6892,"譞":6893,"譟":6894,"警":6895,"譫":6896,"譬":6897,"譭":6898,"譯":6899,"議":6900,"譲":6901,"譴":6902,"護":6903,"譽":6904,"讀":6905,"讃":6906,"讉":6907,"變":6908,"讎":6909,"讒":6910,"讓":6911,"讖":6912,"讚":6913,"讞":6914,"计":6915,"订":6916,"认":6917,"讨":6918,"让":6919,"训":6920,"议":6921,"讯":6922,"记":6923,"讲":6924,"讴":6925,"讶":6926,"讷":6927,"许":6928,"论":6929,"讼":6930,"讽":6931,"设":6932,"访":6933,"诀":6934,"证":6935,"评":6936,"识":6937,"诈":6938,"诉":6939,"诊":6940,"词":6941,"译":6942,"试":6943,"诗":6944,"诚":6945,"话":6946,"诞":6947,"诡":6948,"询":6949,"该":6950,"详":6951,"诬":6952,"语":6953,"误":6954,"诱":6955,"诲":6956,"说":6957,"诶":6958,"请":6959,"诺":6960,"读":6961,"课":6962,"谁":6963,"调":6964,"谈":6965,"谊":6966,"谋":6967,"谎":6968,"谓":6969,"谜":6970,"谢":6971,"谣":6972,"谭":6973,"谴":6974,"谷":6975,"谿":6976,"豁":6977,"豆":6978,"豇":6979,"豈":6980,"豉":6981,"豊":6982,"豋":6983,"豌":6984,"豎":6985,"豐":6986,"豑":6987,"豓":6988,"豔":6989,"豕":6990,"豚":6991,"象":6992,"豢":6993,"豪":6994,"豫":6995,"豬":6996,"豹":6997,"豺":6998,"豼":6999,"貂":7000,"貅":7001,"貉":7002,"貌":7003,"貍":7004,"貎":7005,"貓":7006,"貔":7007,"貘":7008,"貝":7009,"貞":7010,"負":7011,"財":7012,"貢":7013,"貧":7014,"貨":7015,"販":7016,"貪":7017,"貫":7018,"責":7019,"貭":7020,"貯":7021,"貰":7022,"貲":7023,"貳":7024,"貴":7025,"貶":7026,"買":7027,"貸":7028,"費":7029,"貼":7030,"貽":7031,"貿":7032,"賀":7033,"賁":7034,"賂":7035,"賃":7036,"賄":7037,"賅":7038,"資":7039,"賈":7040,"賊":7041,"賑":7042,"賒":7043,"賓":7044,"賖":7045,"賘":7046,"賚":7047,"賛":7048,"賜":7049,"賝":7050,"賞":7051,"賠":7052,"賡":7053,"賢":7054,"賣":7055,"賤":7056,"賦":7057,"賧":7058,"質":7059,"賬":7060,"賭":7061,"賴":7062,"賶":7063,"賸":7064,"賺":7065,"購":7066,"賽":7067,"賾":7068,"贅":7069,"贇":7070,"贈":7071,"贊":7072,"贋":7073,"贍":7074,"贏":7075,"贓":7076,"贖":7077,"贗":7078,"贛":7079,"贜":7080,"贝":7081,"贞":7082,"负":7083,"财":7084,"责":7085,"败":7086,"账":7087,"货":7088,"质":7089,"贩":7090,"贪":7091,"购":7092,"贯":7093,"贴":7094,"贵":7095,"贷":7096,"贸":7097,"费":7098,"贺":7099,"贼":7100,"贾":7101,"贿":7102,"资":7103,"赋":7104,"赌":7105,"赏":7106,"赐":7107,"赔":7108,"赖":7109,"赚":7110,"赛":7111,"赞":7112,"赠":7113,"赢":7114,"赤":7115,"赦":7116,"赧":7117,"赫":7118,"赭":7119,"走":7120,"赳":7121,"赴":7122,"赶":7123,"起":7124,"趁":7125,"超":7126,"越":7127,"趋":7128,"趐":7129,"趕":7130,"趖":7131,"趙":7132,"趟":7133,"趣":7134,"趨":7135,"足":7136,"趴":7137,"趵":7138,"趷":7139,"趺":7140,"趾":7141,"跃":7142,"跆":7143,"跋":7144,"跌":7145,"跎":7146,"跑":7147,"跖":7148,"跗":7149,"跘":7150,"跙":7151,"跚":7152,"跛":7153,"距":7154,"跟":7155,"跡":7156,"跣":7157,"跤":7158,"跨":7159,"跩":7160,"跪":7161,"跬":7162,"路":7163,"跳":7164,"践":7165,"跺":7166,"踅":7167,"踉":7168,"踊":7169,"踏":7170,"踐":7171,"踖":7172,"踘":7173,"踝":7174,"踞":7175,"踟":7176,"踡":7177,"踢":7178,"踨":7179,"踩":7180,"踪":7181,"踫":7182,"踮":7183,"踰":7184,"踱":7185,"踴":7186,"踵":7187,"踹":7188,"踺":7189,"踼":7190,"踽":7191,"蹂":7192,"蹄":7193,"蹇":7194,"蹈":7195,"蹉":7196,"蹊":7197,"蹋":7198,"蹌":7199,"蹓":7200,"蹕":7201,"蹙":7202,"蹚":7203,"蹟":7204,"蹠":7205,"蹣":7206,"蹤":7207,"蹦":7208,"蹧":7209,"蹩":7210,"蹬":7211,"蹭":7212,"蹲":7213,"蹴":7214,"蹶":7215,"蹺":7216,"蹼":7217,"蹽":7218,"躁":7219,"躂":7220,"躄":7221,"躇":7222,"躉":7223,"躊":7224,"躋":7225,"躍":7226,"躑":7227,"躕":7228,"躚":7229,"躡":7230,"躥":7231,"躦":7232,"躪":7233,"身":7234,"躬":7235,"躰":7236,"躱":7237,"躲":7238,"躹":7239,"躺":7240,"躼":7241,"軀":7242,"車":7243,"軋":7244,"軌":7245,"軍":7246,"軏":7247,"軒":7248,"軔":7249,"軚":7250,"軛":7251,"軟":7252,"転":7253,"軤":7254,"軫":7255,"軮":7256,"軰":7257,"軲":7258,"軸":7259,"軻":7260,"軼":7261,"軽":7262,"軾":7263,"較":7264,"載":7265,"輊":7266,"輋":7267,"輌":7268,"輒":7269,"輓":7270,"輔":7271,"輕":7272,"輚":7273,"輛":7274,"輜":7275,"輝":7276,"輞":7277,"輟":7278,"輥":7279,"輦":7280,"輩":7281,"輪":7282,"輯":7283,"輰":7284,"輳":7285,"輸":7286,"輻":7287,"輾":7288,"輿":7289,"轁":7290,"轂":7291,"轄":7292,"轅":7293,"轆":7294,"轉":7295,"轍":7296,"轎":7297,"轟":7298,"轡":7299,"轢":7300,"车":7301,"轨":7302,"转":7303,"轮":7304,"软":7305,"轶":7306,"轻":7307,"载":7308,"轿":7309,"较":7310,"辅":7311,"辆":7312,"辈":7313,"辉":7314,"辐":7315,"辑":7316,"输":7317,"辖":7318,"辛":7319,"辜":7320,"辞":7321,"辟":7322,"辣":7323,"辦":7324,"辧":7325,"辨":7326,"辩":7327,"辭":7328,"辮":7329,"辯":7330,"辰":7331,"辱":7332,"農":7333,"辳":7334,"辶":7335,"边":7336,"辺":7337,"辻":7338,"込":7339,"辽":7340,"达":7341,"迀":7342,"迁":7343,"迂":7344,"迄":7345,"迅":7346,"过":7347,"迈":7348,"迌":7349,"迎":7350,"运":7351,"近":7352,"迓":7353,"返":7354,"还":7355,"这":7356,"进":7357,"远":7358,"违":7359,"连":7360,"迟":7361,"迢":7362,"迤":7363,"迥":7364,"迦":7365,"迨":7366,"迪":7367,"迫":7368,"迭":7369,"述":7370,"迴":7371,"迷":7372,"迸":7373,"迹":7374,"迺":7375,"追":7376,"退":7377,"送":7378,"适":7379,"逃":7380,"逄":7381,"逅":7382,"逆":7383,"选":7384,"逍":7385,"透":7386,"逐":7387,"途":7388,"逕":7389,"逖":7390,"逗":7391,"這":7392,"通":7393,"逛":7394,"逝":7395,"逞":7396,"速":7397,"造":7398,"逡":7399,"逢":7400,"連":7401,"逭":7402,"逮":7403,"逯":7404,"週":7405,"進":7406,"逵":7407,"逸":7408,"逹":7409,"逻":7410,"逼":7411,"逾":7412,"遁":7413,"遂":7414,"遄":7415,"遅":7416,"遇":7417,"遊":7418,"運":7419,"遍":7420,"過":7421,"遏":7422,"遐":7423,"遑":7424,"遒":7425,"道":7426,"達":7427,"違":7428,"遗":7429,"遙":7430,"遛":7431,"遜":7432,"遝":7433,"遞":7434,"遠":7435,"遢":7436,"遣":7437,"遥":7438,"遨":7439,"適":7440,"遭":7441,"遮":7442,"遲":7443,"遴":7444,"遵":7445,"遶":7446,"遷":7447,"選":7448,"遹":7449,"遺":7450,"遼":7451,"遽":7452,"避":7453,"邀":7454,"邁":7455,"邂":7456,"邃":7457,"還":7458,"邇":7459,"邈":7460,"邉":7461,"邊":7462,"邋":7463,"邏":7464,"邐":7465,"邑":7466,"邕":7467,"邗":7468,"邙":7469,"邛":7470,"邡":7471,"邢":7472,"那":7473,"邦":7474,"邨":7475,"邪":7476,"邮":7477,"邯":7478,"邰":7479,"邱":7480,"邳":7481,"邵":7482,"邸":7483,"邻":7484,"邽":7485,"郁":7486,"郃":7487,"郅":7488,"郊":7489,"郎":7490,"郏":7491,"郑":7492,"郗":7493,"郝":7494,"郞":7495,"郟":7496,"郡":7497,"郢":7498,"郤":7499,"部":7500,"郫":7501,"郭":7502,"郯":7503,"郴":7504,"郵":7505,"郷":7506,"都":7507,"鄂":7508,"鄄":7509,"鄆":7510,"鄉":7511,"鄒":7512,"鄔":7513,"鄕":7514,"鄖":7515,"鄗":7516,"鄙":7517,"鄞":7518,"鄠":7519,"鄢":7520,"鄣":7521,"鄧":7522,"鄭":7523,"鄯":7524,"鄰":7525,"鄱":7526,"鄲":7527,"鄴":7528,"鄺":7529,"酆":7530,"酈":7531,"酉":7532,"酊":7533,"酋":7534,"酌":7535,"配":7536,"酎":7537,"酐":7538,"酒":7539,"酗":7540,"酚":7541,"酝":7542,"酞":7543,"酢":7544,"酣":7545,"酥":7546,"酨":7547,"酩":7548,"酪":7549,"酬":7550,"酮":7551,"酯":7552,"酰":7553,"酱":7554,"酵":7555,"酶":7556,"酷":7557,"酸":7558,"酿":7559,"醂":7560,"醃":7561,"醇":7562,"醉":7563,"醋":7564,"醌":7565,"醍":7566,"醐":7567,"醒":7568,"醖":7569,"醚":7570,"醛":7571,"醜":7572,"醞":7573,"醡":7574,"醣":7575,"醪":7576,"醫":7577,"醬":7578,"醮":7579,"醯":7580,"醰":7581,"醱":7582,"醴":7583,"醵":7584,"醸":7585,"醺":7586,"釀":7587,"釁":7588,"釆":7589,"采":7590,"釉":7591,"释":7592,"釋":7593,"里":7594,"重":7595,"野":7596,"量":7597,"釐":7598,"金":7599,"釔":7600,"釕":7601,"釗":7602,"釘":7603,"釙":7604,"釜":7605,"針":7606,"釣":7607,"釦":7608,"釧":7609,"釨":7610,"釩":7611,"釬":7612,"釭":7613,"釵":7614,"釷":7615,"釹":7616,"鈀":7617,"鈁":7618,"鈄":7619,"鈅":7620,"鈈":7621,"鈉":7622,"鈊":7623,"鈍":7624,"鈎":7625,"鈐":7626,"鈑":7627,"鈔":7628,"鈕":7629,"鈗":7630,"鈞":7631,"鈡":7632,"鈣":7633,"鈥":7634,"鈦":7635,"鈧":7636,"鈮":7637,"鈰":7638,"鈴":7639,"鈵":7640,"鈷":7641,"鈸":7642,"鈹":7643,"鈺":7644,"鈽":7645,"鈾":7646,"鈿":7647,"鉀":7648,"鉄":7649,"鉅":7650,"鉆":7651,"鉈":7652,"鉉":7653,"鉍":7654,"鉑":7655,"鉗":7656,"鉚":7657,"鉛":7658,"鉞":7659,"鉢":7660,"鉤":7661,"鉦":7662,"鉨":7663,"鉬":7664,"鉭":7665,"鉲":7666,"鉴":7667,"鉸":7668,"鉻":7669,"鉾":7670,"鉿":7671,"銀":7672,"銃":7673,"銅":7674,"銆":7675,"銑":7676,"銓":7677,"銖":7678,"銘":7679,"銚":7680,"銜":7681,"銠":7682,"銣":7683,"銥":7684,"銦":7685,"銨":7686,"銪":7687,"銫":7688,"銬":7689,"銲":7690,"銳":7691,"銶":7692,"銷":7693,"銹":7694,"銻":7695,"銼":7696,"鋁":7697,"鋂":7698,"鋃":7699,"鋅":7700,"鋆":7701,"鋇":7702,"鋉":7703,"鋌":7704,"鋏":7705,"鋐":7706,"鋒":7707,"鋕":7708,"鋗":7709,"鋘":7710,"鋤":7711,"鋥":7712,"鋦":7713,"鋩":7714,"鋪":7715,"鋭":7716,"鋯":7717,"鋰":7718,"鋱":7719,"鋳":7720,"鋸":7721,"鋻":7722,"鋼":7723,"錄":7724,"錆":7725,"錏":7726,"錐":7727,"錒":7728,"錕":7729,"錘":7730,"錙":7731,"錚":7732,"錛":7733,"錞":7734,"錠":7735,"錡":7736,"錢":7737,"錤":7738,"錦":7739,"錧":7740,"錨":7741,"錩":7742,"錫":7743,"錬":7744,"錮":7745,"錯":7746,"録":7747,"錳":7748,"錶":7749,"錸":7750,"錼":7751,"鍀":7752,"鍇":7753,"鍊":7754,"鍋":7755,"鍌":7756,"鍍":7757,"鍔":7758,"鍗":7759,"鍘":7760,"鍚":7761,"鍛":7762,"鍜":7763,"鍠":7764,"鍥":7765,"鍫":7766,"鍬":7767,"鍮":7768,"鍰":7769,"鍳":7770,"鍵":7771,"鍶":7772,"鍹":7773,"鍺":7774,"鍼":7775,"鍾":7776,"鎂":7777,"鎅":7778,"鎊":7779,"鎌":7780,"鎏":7781,"鎔":7782,"鎖":7783,"鎗":7784,"鎘":7785,"鎚":7786,"鎢":7787,"鎣":7788,"鎧":7789,"鎩":7790,"鎬":7791,"鎭":7792,"鎮":7793,"鎯":7794,"鎰":7795,"鎳":7796,"鎵":7797,"鎷":7798,"鎹":7799,"鏃":7800,"鏈":7801,"鏑":7802,"鏖":7803,"鏗":7804,"鏘":7805,"鏞":7806,"鏟":7807,"鏡":7808,"鏢":7809,"鏤":7810,"鏵":7811,"鏸":7812,"鏹":7813,"鏽":7814,"鐐":7815,"鐓":7816,"鐔":7817,"鐕":7818,"鐗":7819,"鐘":7820,"鐙":7821,"鐠":7822,"鐡":7823,"鐧":7824,"鐫":7825,"鐮":7826,"鐲":7827,"鐳":7828,"鐵":7829,"鐶":7830,"鐸":7831,"鐹":7832,"鐺":7833,"鐿":7834,"鑀":7835,"鑄":7836,"鑊":7837,"鑌":7838,"鑑":7839,"鑒":7840,"鑛":7841,"鑠":7842,"鑢":7843,"鑣":7844,"鑫":7845,"鑭":7846,"鑰":7847,"鑲":7848,"鑴":7849,"鑷":7850,"鑼":7851,"鑽":7852,"鑾":7853,"鑿":7854,"针":7855,"钓":7856,"钙":7857,"钚":7858,"钜":7859,"钟":7860,"钠":7861,"钢":7862,"钥":7863,"钩":7864,"钱":7865,"钵":7866,"钻":7867,"钾":7868,"铀":7869,"铁":7870,"铅":7871,"铎":7872,"铜":7873,"铝":7874,"铭":7875,"铲":7876,"银":7877,"铺":7878,"链":7879,"销":7880,"锁":7881,"锅":7882,"锆":7883,"锋":7884,"锌":7885,"锏":7886,"错":7887,"锡":7888,"锣":7889,"锦":7890,"键":7891,"镁":7892,"镇":7893,"镑":7894,"镖":7895,"镜":7896,"镠":7897,"镶":7898,"長":7899,"镸":7900,"长":7901,"門":7902,"閂":7903,"閃":7904,"閅":7905,"閆":7906,"閉":7907,"開":7908,"閎":7909,"閏":7910,"閑":7911,"閒":7912,"間":7913,"閔":7914,"閖":7915,"閘":7916,"閙":7917,"閡":7918,"関":7919,"閣":7920,"閤":7921,"閥":7922,"閨":7923,"閩":7924,"閬":7925,"閭":7926,"閰":7927,"閱":7928,"閲":7929,"閵":7930,"閶":7931,"閹":7932,"閻":7933,"閾":7934,"闁":7935,"闃":7936,"闆":7937,"闇":7938,"闈":7939,"闊":7940,"闌":7941,"闐":7942,"闓":7943,"闔":7944,"闕":7945,"闖":7946,"闗":7947,"闘":7948,"關":7949,"闞":7950,"闡":7951,"闢":7952,"门":7953,"闪":7954,"闫":7955,"闭":7956,"问":7957,"闯":7958,"闲":7959,"间":7960,"闷":7961,"闹":7962,"闻":7963,"阁":7964,"阅":7965,"阐":7966,"阜":7967,"队":7968,"阠":7969,"阡":7970,"阪":7971,"阮":7972,"阯":7973,"阱":7974,"防":7975,"阳":7976,"阴":7977,"阵":7978,"阶":7979,"阻":7980,"阿":7981,"陀":7982,"陂":7983,"陃":7984,"附":7985,"际":7986,"陆":7987,"陈":7988,"陋":7989,"陌":7990,"降":7991,"限":7992,"陕":7993,"陘":7994,"陛":7995,"陜":7996,"陝":7997,"陞":7998,"陟":7999,"陡":8000,"院":8001,"陣":8002,"除":8003,"险":8004,"陪":8005,"陰":8006,"陲":8007,"陳":8008,"陵":8009,"陶":8010,"陷":8011,"陸":8012,"険":8013,"陽":8014,"隄":8015,"隅":8016,"隆":8017,"隈":8018,"隊":8019,"隋":8020,"隍":8021,"階":8022,"随":8023,"隐":8024,"隒":8025,"隔":8026,"隕":8027,"隗":8028,"隘":8029,"隙":8030,"際":8031,"障":8032,"隠":8033,"隡":8034,"隣":8035,"隧":8036,"隨":8037,"險":8038,"隬":8039,"隰":8040,"隱":8041,"隴":8042,"隶":8043,"隷":8044,"隸":8045,"隹":8046,"隻":8047,"隼":8048,"难":8049,"雀":8050,"雁":8051,"雃":8052,"雄":8053,"雅":8054,"集":8055,"雇":8056,"雉":8057,"雋":8058,"雌":8059,"雍":8060,"雑":8061,"雒":8062,"雕":8063,"雖":8064,"雙":8065,"雛":8066,"雜":8067,"雞":8068,"離":8069,"難":8070,"雨":8071,"雩":8072,"雪":8073,"雫":8074,"雯":8075,"雰":8076,"雱":8077,"雲":8078,"零":8079,"雷":8080,"雹":8081,"雺":8082,"電":8083,"雾":8084,"需":8085,"霂":8086,"霄":8087,"霆":8088,"震":8089,"霈":8090,"霉":8091,"霊":8092,"霍":8093,"霎":8094,"霏":8095,"霑":8096,"霓":8097,"霖":8098,"霙":8099,"霜":8100,"霞":8101,"霧":8102,"霪":8103,"霰":8104,"露":8105,"霸":8106,"霹":8107,"霽":8108,"霾":8109,"靂":8110,"靄":8111,"靈":8112,"靉":8113,"靐":8114,"靑":8115,"青":8116,"靓":8117,"靖":8118,"静":8119,"靚":8120,"靛":8121,"靜":8122,"非":8123,"靠":8124,"靡":8125,"面":8126,"靦":8127,"靨":8128,"革":8129,"靭":8130,"靱":8131,"靳":8132,"靴":8133,"靶":8134,"靼":8135,"鞄":8136,"鞅":8137,"鞋":8138,"鞍":8139,"鞎":8140,"鞏":8141,"鞕":8142,"鞘":8143,"鞠":8144,"鞣":8145,"鞦":8146,"鞭":8147,"韁":8148,"韃":8149,"韆":8150,"韋":8151,"韌":8152,"韓":8153,"韙":8154,"韜":8155,"韞":8156,"韦":8157,"韧":8158,"韩":8159,"韭":8160,"韮":8161,"音":8162,"韶":8163,"韻":8164,"韾":8165,"響":8166,"頁":8167,"頂":8168,"頃":8169,"項":8170,"順":8171,"頇":8172,"須":8173,"頊":8174,"頌":8175,"頎":8176,"預":8177,"頑":8178,"頒":8179,"頓":8180,"頔":8181,"頖":8182,"頗":8183,"領":8184,"頜":8185,"頡":8186,"頣":8187,"頤":8188,"頦":8189,"頬":8190,"頭":8191,"頰":8192,"頴":8193,"頷":8194,"頸":8195,"頹":8196,"頻":8197,"頼":8198,"頽":8199,"顆":8200,"題":8201,"額":8202,"顎":8203,"顏":8204,"顓":8205,"顔":8206,"顕":8207,"顗":8208,"願":8209,"顛":8210,"類":8211,"顢":8212,"顥":8213,"顧":8214,"顫":8215,"顯":8216,"顰":8217,"顱":8218,"顳":8219,"顴":8220,"页":8221,"顶":8222,"顷":8223,"项":8224,"顺":8225,"须":8226,"顽":8227,"顾":8228,"顿":8229,"颁":8230,"颂":8231,"预":8232,"领":8233,"颐":8234,"频":8235,"题":8236,"颜":8237,"额":8238,"颤":8239,"風":8240,"颮":8241,"颯":8242,"颱":8243,"颳":8244,"颶":8245,"颺":8246,"颻":8247,"颼":8248,"飃":8249,"飄":8250,"飆":8251,"飈":8252,"飊":8253,"风":8254,"飓":8255,"飘":8256,"飙":8257,"飚":8258,"飛":8259,"飞":8260,"食":8261,"飢":8262,"飧":8263,"飩":8264,"飪":8265,"飭":8266,"飯":8267,"飲":8268,"飴":8269,"飼":8270,"飽":8271,"飾":8272,"餃":8273,"餅":8274,"餇":8275,"餉":8276,"養":8277,"餌":8278,"餐":8279,"餑":8280,"餒":8281,"餓":8282,"餔":8283,"餘":8284,"餚":8285,"餛":8286,"餞":8287,"餟":8288,"餡":8289,"館":8290,"餬":8291,"餮":8292,"餵":8293,"餸":8294,"餽":8295,"餾":8296,"餿":8297,"饀":8298,"饃":8299,"饅":8300,"饈":8301,"饉":8302,"饋":8303,"饌":8304,"饍":8305,"饑":8306,"饒":8307,"饕":8308,"饗":8309,"饜":8310,"饞":8311,"饡":8312,"饢":8313,"饥":8314,"饭":8315,"饮":8316,"饰":8317,"饼":8318,"饿":8319,"馆":8320,"馊":8321,"馏":8322,"首":8323,"馗":8324,"馘":8325,"香":8326,"馡":8327,"馥":8328,"馨":8329,"馬":8330,"馭":8331,"馮":8332,"馱":8333,"馳":8334,"馴":8335,"馺":8336,"駁":8337,"駄":8338,"駅":8339,"駐":8340,"駑":8341,"駒":8342,"駔":8343,"駕":8344,"駘":8345,"駙":8346,"駛":8347,"駝":8348,"駟":8349,"駡":8350,"駢":8351,"駭":8352,"駱":8353,"駸":8354,"駿":8355,"騁":8356,"騃":8357,"騅":8358,"騎":8359,"騏":8360,"騐":8361,"騒":8362,"験":8363,"騖":8364,"騙":8365,"騛":8366,"騨":8367,"騫":8368,"騮":8369,"騰":8370,"騷":8371,"騾":8372,"驀":8373,"驁":8374,"驂":8375,"驃":8376,"驅":8377,"驊":8378,"驍":8379,"驎":8380,"驒":8381,"驕":8382,"驗":8383,"驚":8384,"驛":8385,"驟":8386,"驢":8387,"驤":8388,"驥":8389,"驪":8390,"驫":8391,"马":8392,"驯":8393,"驰":8394,"驱":8395,"驳":8396,"驶":8397,"驻":8398,"驾":8399,"骂":8400,"骄":8401,"验":8402,"骑":8403,"骗":8404,"骚":8405,"骤":8406,"骨":8407,"骯":8408,"骰":8409,"骶":8410,"骷":8411,"骸":8412,"骹":8413,"骺":8414,"骼":8415,"髀":8416,"髁":8417,"髂":8418,"髃":8419,"髄":8420,"髈":8421,"髋":8422,"髎":8423,"髏":8424,"髒":8425,"髓":8426,"體":8427,"髕":8428,"髖":8429,"髗":8430,"高":8431,"髙":8432,"髦":8433,"髪":8434,"髭":8435,"髮":8436,"髯":8437,"髻":8438,"鬃":8439,"鬆":8440,"鬈":8441,"鬍":8442,"鬚":8443,"鬟":8444,"鬢":8445,"鬣":8446,"鬥":8447,"鬧":8448,"鬨":8449,"鬩":8450,"鬪":8451,"鬫":8452,"鬮":8453,"鬰":8454,"鬱":8455,"鬲":8456,"鬻":8457,"鬼":8458,"魁":8459,"魂":8460,"魃":8461,"魄":8462,"魅":8463,"魆":8464,"魈":8465,"魍":8466,"魎":8467,"魏":8468,"魑":8469,"魔":8470,"魕":8471,"魘":8472,"魚":8473,"魛":8474,"魟":8475,"魠":8476,"魨":8477,"魩":8478,"魯":8479,"魴":8480,"魷":8481,"魽":8482,"鮁":8483,"鮈":8484,"鮋":8485,"鮎":8486,"鮐":8487,"鮑":8488,"鮞":8489,"鮟":8490,"鮨":8491,"鮪":8492,"鮫":8493,"鮭":8494,"鮮":8495,"鮰":8496,"鯀":8497,"鯁":8498,"鯃":8499,"鯆":8500,"鯇":8501,"鯉":8502,"鯊":8503,"鯓":8504,"鯔":8505,"鯖":8506,"鯛":8507,"鯝":8508,"鯡":8509,"鯢":8510,"鯤":8511,"鯧":8512,"鯨":8513,"鯪":8514,"鯮":8515,"鯰":8516,"鯵":8517,"鯷":8518,"鯽":8519,"鰂":8520,"鰆":8521,"鰈":8522,"鰍":8523,"鰐":8524,"鰒":8525,"鰓":8526,"鰕":8527,"鰛":8528,"鰡":8529,"鰣":8530,"鰤":8531,"鰥":8532,"鰩":8533,"鰭":8534,"鰱":8535,"鰲":8536,"鰶":8537,"鰹":8538,"鰺":8539,"鰻":8540,"鰾":8541,"鱂":8542,"鱅":8543,"鱇":8544,"鱈":8545,"鱉":8546,"鱍":8547,"鱒":8548,"鱔":8549,"鱗":8550,"鱘":8551,"鱚":8552,"鱝":8553,"鱟":8554,"鱦":8555,"鱧":8556,"鱪":8557,"鱭":8558,"鱲":8559,"鱷":8560,"鱸":8561,"鱺":8562,"鱻":8563,"鱼":8564,"鲁":8565,"鲅":8566,"鲇":8567,"鲍":8568,"鲜":8569,"鲤":8570,"鲨":8571,"鲫":8572,"鲭":8573,"鲵":8574,"鲶":8575,"鲸":8576,"鳍":8577,"鳚":8578,"鳥":8579,"鳧":8580,"鳩":8581,"鳯":8582,"鳳":8583,"鳴":8584,"鳶":8585,"鴆":8586,"鴇":8587,"鴉":8588,"鴐":8589,"鴒":8590,"鴕":8591,"鴛":8592,"鴝":8593,"鴞":8594,"鴟":8595,"鴣":8596,"鴦":8597,"鴨":8598,"鴯":8599,"鴴":8600,"鴻":8601,"鴿":8602,"鵂":8603,"鵑":8604,"鵜":8605,"鵝":8606,"鵟":8607,"鵠":8608,"鵡":8609,"鵪":8610,"鵬":8611,"鵯":8612,"鵰":8613,"鵲":8614,"鶇":8615,"鶉":8616,"鶏":8617,"鶑":8618,"鶓":8619,"鶘":8620,"鶚":8621,"鶥":8622,"鶩":8623,"鶯":8624,"鶲":8625,"鶴":8626,"鶹":8627,"鶻":8628,"鶼":8629,"鶿":8630,"鷂":8631,"鷄":8632,"鷈":8633,"鷓":8634,"鷗":8635,"鷞":8636,"鷠":8637,"鷥":8638,"鷦":8639,"鷯":8640,"鷲":8641,"鷴":8642,"鷸":8643,"鷹":8644,"鷺":8645,"鷿":8646,"鸕":8647,"鸚":8648,"鸛":8649,"鸝":8650,"鸞":8651,"鸟":8652,"鸡":8653,"鸺":8654,"鸿":8655,"鹅":8656,"鹊":8657,"鹋":8658,"鹏":8659,"鹤":8660,"鹰":8661,"鹵":8662,"鹹":8663,"鹼":8664,"鹽":8665,"鹿":8666,"麂":8667,"麈":8668,"麊":8669,"麋":8670,"麒":8671,"麓":8672,"麗":8673,"麝":8674,"麟":8675,"麤":8676,"麥":8677,"麦":8678,"麩":8679,"麪":8680,"麯":8681,"麴":8682,"麵":8683,"麺":8684,"麻":8685,"麼":8686,"麽":8687,"麾":8688,"麿":8689,"黃":8690,"黄":8691,"黇":8692,"黍":8693,"黎":8694,"黏":8695,"黐":8696,"黑":8697,"黒":8698,"黔":8699,"黗":8700,"默":8701,"黙":8702,"黛":8703,"黜":8704,"黝":8705,"點":8706,"黟":8707,"黠":8708,"黥":8709,"黦":8710,"黨":8711,"黯":8712,"黴":8713,"黷":8714,"黹":8715,"黽":8716,"黿":8717,"鼇":8718,"鼈":8719,"鼎":8720,"鼐":8721,"鼓":8722,"鼔":8723,"鼠":8724,"鼩":8725,"鼬":8726,"鼯":8727,"鼱":8728,"鼴":8729,"鼷":8730,"鼻":8731,"鼽":8732,"鼾":8733,"齁":8734,"齊":8735,"齋":8736,"齎":8737,"齐":8738,"齒":8739,"齗":8740,"齙":8741,"齜":8742,"齟":8743,"齡":8744,"齢":8745,"齣":8746,"齦":8747,"齧":8748,"齪":8749,"齬":8750,"齲":8751,"齵":8752,"齷":8753,"齿":8754,"龄":8755,"龍":8756,"龎":8757,"龐":8758,"龔":8759,"龕":8760,"龘":8761,"龙":8762,"龜":8763,"龟":8764,"﨑":8765,"𠱁":8766,"𠽾":8767,"𡁻":8768,"𡚒":8769,"𢭃":8770,"𣊬":8771,"𣡊":8772,"𥚃":8773,"𥴊":8774,"𨑨":8775,"𩻸":8776,"nu":8777,"num":8778,"er":8779,"per":8780,"or":8781,"org":8782,"EP":8783,"SEP":8784,"en":8785,",<":8786,"per0":8787,"per1":8788,"。<":8789,"org0":8790,"表示":8791,"org1":8792,"per2":8793,"。」":8794,"報導":8795,">,":8796,"美國":8797,">.":8798,"、<":8799,":「":8800,"疫情":8801,"><":8802,",「":8803,"」,":8804,"台灣":8805,">.<":8806,"沒有":8807,"記者":8808,"org2":8809,"per3":8810,"我們":8811,"nk":8812,"unk":8813,"」、":8814,"中國":8815,"」、「":8816,"lo":8817,"loc":8818,"。[":8819,"可以":8820,">、<":8821,"]<":8822,"自己":8823,"民眾":8824,"目前":8825,"可能":8826,"因為":8827,"一個":8828,">/":8829,"政府":8830,"香港":8831,"疫苗":8832,"進行":8833,"今天":8834,"已經":8835,"他們":8836,"org3":8837,"確診":8838,":<":8839,"防疫":8840,"per4":8841,"人員":8842,"發現":8843,"網友":8844,"」。":8845,"..":8846,"時間":8847,"loc0":8848,"指出":8849,"就是":8850,"新聞":8851,"不過":8852,"認為":8853,"發生":8854,"中心":8855,"今年":8856,"工作":8857,"「<":8858,"總統":8859,"公司":8860,"現在":8861,"台北":8862,"活動":8863,">-":8864,"日本":8865,"希望":8866,"問題":8867,"第一":8868,"相關":8869,"開始":8870,"警方":8871,"國家":8872,"持續":8873,"一名":8874,"病毒":8875,"這個":8876,"其中":8877,"影響":8878,"出現":8879,"如果":8880,">:「":8881,"因此":8882,"安全":8883,"還有":8884,"包括":8885,"org4":8886,"去年":8887,"綜合":8888,"以及":8889,"大陸":8890,"不是":8891,"使用":8892,"更多":8893,"要求":8894,"調查":8895,"指揮":8896,"per5":8897,"的人":8898,"。」<":8899,">。":8900,"大家":8901,"宣布":8902,"肺炎":8903,"世界":8904,"感染":8905,"提供":8906,"口罩":8907,"不會":8908,">、":8909,"其他":8910,"這些":8911,"最後":8912,"學生":8913,"同時":8914,">,<":8915,"新冠":8916,"研究":8917,"非常":8918,"全球":8919,"還是":8920,"國際":8921,"看到":8922,"責任":8923,"這樣":8924,"男子":8925,"部分":8926,"什麼":8927,"綜合報導":8928,"美元":8929,"醫院":8930,"都是":8931,"媒體":8932,"許多":8933,"經濟":8934,"根據":8935,"造成":8936,"措施":8937,">[":8938,"地區":8939,"所以":8940,"結果":8941,"無法":8942,"需要":8943,"超過":8944,"甚至":8945,"真的":8946,"日前":8947,"加入":8948,"議員":8949,"支持":8950,"成為":8951,"這是":8952,"也是":8953,"知道":8954,"除了":8955,"臉書":8956,"一起":8957,"市場":8958,"另外":8959,"對於":8960,"期間":8961,">-<":8962,"之後":8963,"雖然":8964,"所有":8965,">」":8966,"是否":8967,"今日":8968,"為了":8969,"現場":8970,"事件":8971,"當時":8972,"接受":8973,"未來":8974,"英國":8975,"人的":8976,"比賽":8977,"指揮中心":8978,"個月":8979,"很多":8980,"在這":8981,"也有":8982,"情況":8983,"針對":8984,"!」":8985,"提醒":8986,"應該":8987,"編輯":8988,"透過":8989,"由於":8990,"接種":8991,"下午":8992,"死亡":8993,"進入":8994,"症狀":8995,"org5":8996,"不要":8997,"健康":8998,"公布":8999,"對此":9000,"關係":9001,"顯示":9002,"服務":9003,"嚴重":9004,"相當":9005,"消息":9006,"生活":9007,"的一":9008,"北市":9009,"狀況":9010,"增加":9011,"per6":9012,"接觸":9013,"不少":9014,"萬元":9015,"小時":9016,"運動":9017,"特別":9018,"過去":9019,"重要":9020,"強調":9021,"決定":9022,"導致":9023,"代表":9024,"地方":9025,"的是":9026,"合作":9027,"隔離":9028,"一直":9029,"新冠肺炎":9030,"繼續":9031,"第二":9032,"方式":9033,"受到":9034,"朋友":9035,"印度":9036,"覺得":9037,"通過":9038,"社會":9039,"手機":9040,"必須":9041,"責任編輯":9042,"時候":9043,"疑似":9044,"大的":9045,"不能":9046,"系統":9047,"直接":9048,"高雄":9049,"個人":9050,"透露":9051,"機會":9052,"人士":9053,"回應":9054,"不同":9055,"醫師":9056,"獲得":9057,"推出":9058,"完成":9059,"報告":9060,"準備":9061,"分享":9062,"員工":9063,"病例":9064,"舉行":9065,"!<":9066,"發展":9067,"正在":9068,"出來":9069,"任何":9070,"但是":9071,"其實":9072,"呼籲":9073,"處理":9074,"當地":9075,"只是":9076,"企業":9077,"起來":9078,"台中":9079,"桃園":9080,">:":9081,"本土":9082,"一次":9083,"這次":9084,"比較":9085,"話題":9086,"聲明":9087,"主要":9088,"這種":9089,"自由":9090,"好友":9091,"參加":9092,"上的":9093,"管理":9094,"中央":9095,"規定":9096,"影片":9097,"他的":9098,"行動":9099,"公開":9100,"前往":9101,"以來":9102,"?」":9103,"討論":9104,"新增":9105,"北京":9106,"上午":9107,"一定":9108,"原因":9109,"只有":9110,"照片":9111,"孩子":9112,"對方":9113,"緊急":9114,"執行":9115,"市長":9116,"引發":9117,"學校":9118,"而且":9119,"提出":9120,"警察":9121,"歲的":9122,"風險":9123,"國內":9124,"預計":9125,"媽媽":9126,"個案":9127,"通報":9128,"想到":9129,"自己的":9130,"說明":9131,"協助":9132,"網路":9133,"建議":9134,"政策":9135,"戴口罩":9136,"業者":9137,"一樣":9138,"一些":9139,"參與":9140,"醫療":9141,"專家":9142,"投資":9143,"因應":9144,"人民":9145,"時事":9146,"只要":9147,"會議":9148,"近日":9149,"人數":9150,"面對":9151,"行為":9152,"主席":9153,"女子":9154,"政治":9155,"官員":9156,"加上":9157,"開放":9158,"社區":9159,"年的":9160,"台北報導":9161,"加強":9162,"方面":9163,"家人":9164,"都有":9165,"了解":9166,"完全":9167,"快點":9168,"怎麼":9169,"身體":9170,"之前":9171,"...":9172,"計畫":9173,"關注":9174,"保護":9175,"管制":9176,"曝光":9177,"想跟":9178,"org6":9179,"不到":9180,"表現":9181,"選擇":9182,"per7":9183,"環境":9184,"分鐘":9185,"loc1":9186,"台南":9187,"發布":9188,"採檢":9189,"一步":9190,"民主":9191,"最高":9192,"快點我":9193,"選手":9194,"委員":9195,"設計":9196,"選舉":9197,"有人":9198,"了一":9199,"發言":9200,"爆發":9201,"數據":9202,"上時事":9203,"不斷":9204,"能夠":9205,"過程":9206,"話題在這":9207,"想跟上時事":9208,"快點我加入":9209,"都會":9210,"技術":9211,"紛紛":9212,"中的":9213,"雙方":9214,"距離":9215,"紀錄":9216,"下來":9217,"此外":9218,"全國":9219,"發表":9220,"分析":9221,"駕駛":9222,"」<":9223,"成功":9224,"至於":9225,"。「":9226,">/<":9227,"最新":9228,"就會":9229,"消費":9230,"產品":9231,"申請":9232,"至少":9233,"沒想到":9234,"結束":9235,"提到":9236,"兩人":9237,"以上":9238,"好的":9239,"旅遊":9240,"朝鮮":9241,"紐約":9242,"經過":9243,"當局":9244,"也不":9245,"舉辦":9246,"發文":9247,"是在":9248,"也會":9249,"唐人":9250,"來自":9251,"」。<":9252,"突然":9253,"避免":9254,"分別":9255,"不僅":9256,"最近":9257,"新唐人":9258,"女兒":9259,"第三":9260,">:<":9261,"萬人":9262,"將在":9263,"冠軍":9264,"武漢":9265,"附近":9266,"有關":9267,"資料":9268,"作為":9269,"母親":9270,"消毒":9271,"在臉書":9272,"韓國":9273,"擔心":9274,"減少":9275,"注意":9276,"組織":9277,"團隊":9278,"單位":9279,"治療":9280,"內容":9281,"新北市":9282,"教練":9283,"努力":9284,"這一":9285,"邊境":9286,"染疫":9287,"幫助":9288,"共同":9289,"晚間":9290,"正式":9291,"專線":9292,"節目":9293,"台北市":9294,"檢疫":9295,"安打":9296,"意外":9297,"日起":9298,"球員":9299,"攻擊":9300,"之一":9301,"億美元":9302,"居家":9303,"新冠肺炎疫情":9304,"則是":9305,"記者會":9306,"外界":9307,"原本":9308,"電話":9309,"擴大":9310,"近期":9311,"年來":9312,"當天":9313,"市民":9314,"傳出":9315,"機構":9316,"如何":9317,"奧運":9318,"立委":9319,"事故":9320,"留言":9321,"群聚":9322,"引起":9323,"再次":9324,"官方":9325,"實施":9326,"最大":9327,"維持":9328,"這麼":9329,"配合":9330,"兒子":9331,"保持":9332,"施打":9333,"進一步":9334,"粉絲":9335,"貿易":9336,"億元":9337,"發言人":9338,"畫面":9339,"事情":9340,"計劃":9341,"目標":9342,"檢測":9343,"昨天":9344,"教育":9345,"取得":9346,"利用":9347,"每天":9348,"先發":9349,"工程":9350,"負責":9351,"外交":9352,"的時候":9353,"容易":9354,"/<":9355,"全面":9356,"通知":9357,"擔任":9358,"感謝":9359,"撥打":9360,"確定":9361,"連續":9362,"才能":9363,"擁有":9364,"關鍵":9365,"最終":9366,"他說":9367,"科技":9368,"告訴":9369,"挑戰":9370,"立即":9371,"交通":9372,"控制":9373,"年輕":9374,"科學":9375,"的大":9376,"成員":9377,"就醫":9378,"網站":9379,"需求":9380,"?<":9381,"提升":9382,"離開":9383,"歷史":9384,"另一":9385,"遭到":9386,">「":9387,"提醒您":9388,"全台":9389,"解決":9390,"員警":9391,"家庭":9392,"抗議":9393,"法院":9394,"受傷":9395,"達到":9396,"安排":9397,"能力":9398,"壓力":9399,"的話":9400,"取消":9401,"有一":9402,"主動":9403,"或是":9404,"患者":9405,"公里":9406,"羅斯":9407,"年前":9408,"平台":9409,"電視":9410,"穩定":9411,"球隊":9412,"階段":9413,"製造":9414,"恢復":9415,"在家":9416,"價格":9417,"質疑":9418,"我的":9419,"只能":9420,"資訊":9421,"流行":9422,"協議":9423,"感到":9424,"喜歡":9425,"正常":9426,"per8":9427,"生產":9428,"大學":9429,"一般":9430,"監測":9431,"日在":9432,"首次":9433,"品牌":9434,"規模":9435,"限制":9436,"採取":9437,"威脅":9438,"到了":9439,"汽車":9440,"俄羅斯":9441,"一下":9442,"至今":9443,"電影":9444,"德國":9445,"證實":9446,"再度":9447,"感覺":9448,"禁止":9449,"之間":9450,"辦公":9451,"org7":9452,"打擊":9453,"蘋果":9454,"空間":9455,"先生":9456,"投票":9457,"的情況":9458,"成長":9459,"調整":9460,"聯盟":9461,"系列":9462,"醫護":9463,"積極":9464,"根本":9465,"女性":9466,"功能":9467,"確認":9468,"小孩":9469,"會有":9470,"包含":9471,"新的":9472,"一天":9473,"就有":9474,"觀察":9475,"來說":9476,"衛生":9477,"隨後":9478,"重新":9479,"產業":9480,"左右":9481,"批評":9482,"訓練":9483,"後來":9484,"居民":9485,"也在":9486,"拒絕":9487,"相信":9488,"交易":9489,"得到":9490,"消防":9491,"明顯":9492,"展開":9493,"立刻":9494,"律師":9495,"幾乎":9496,"購買":9497,"法律":9498,"行政":9499,"儘管":9500,"標準":9501,"回家":9502,"家屬":9503,"文化":9504,"這樣的":9505,"生命":9506,"出席":9507,"將於":9508,"召開":9509,"飯店":9510,"美國總統":9511,"各地":9512,"規劃":9513,"區域":9514,"委員會":9515,"貼文":9516,"東西":9517,"發出":9518,"大量":9519,"電子":9520,"檢查":9521,"老闆":9522,"然而":9523,"局長":9524,"警戒":9525,"部長":9526,"機師":9527,"這項":9528,"狀態":9529,"新唐人記者":9530,"主任":9531,"暫停":9532,"危險":9533,"接著":9534,"拿下":9535,"法國":9536,"一度":9537,"疑似症狀":9538,"機車":9539,"老師":9540,"如有":9541,"然後":9542,"請撥打":9543,"反應":9544,"」[":9545,"吸引":9546,"一點":9547,"凌晨":9548,"清楚":9549,"姓男子":9550,"整個":9551,"來的":9552,"我們的":9553,"疾病":9554,"告知":9555,"是一":9556,"邀請":9557,"想要":9558,"她的":9559,"必要":9560,"尤其":9561,"反對":9562,"成立":9563,"聯合":9564,"訊息":9565,"團體":9566,"事實":9567,"位於":9568,"公尺":9569,"設備":9570,"讓人":9571,"將會":9572,"晚上":9573,"面臨":9574,"長期":9575,"統計":9576,"直到":9577,"機場":9578,"以為":9579,"實際":9580,">。<":9581,"拍攝":9582,"澳洲":9583,"都不":9584,"投手":9585,"價值":9586,"改變":9587,"動物":9588,"先前":9589,"違反":9590,"供應":9591,"月底":9592,"表達":9593,"隨著":9594,"有些":9595,"董事":9596,"商品":9597,"你們":9598,"停止":9599,"北部":9600,"讓他":9601,"不得":9602,"入境":9603,"銀行":9604,"身分":9605,"餐廳":9606,"並且":9607,"推動":9608,"令人":9609,"直播":9610,"考慮":9611,"營業":9612,"案件":9613,"兩個":9614,"家長":9615,"基本":9616,"解釋":9617,"還在":9618,"南部":9619,"優惠":9620,"照顧":9621,"順利":9622,"確實":9623,"城市":9624,"同樣":9625,"用戶":9626,"確保":9627,"之外":9628,"辦法":9629,"可能會":9630,"傳染":9631,"傳播":9632,"有效":9633,"航空":9634,"軍事":9635,"啟動":9636,"管制措施":9637,"才會":9638,"全部":9639,"在地":9640,"產生":9641,"中國大陸":9642,"不滿":9643,"公共":9644,"如此":9645,"陸續":9646,"累計":9647,"小組":9648,"他在":9649,"都在":9650,"線上":9651,"兄弟":9652,"詢問":9653,"做出":9654,"採訪":9655,"事後":9656,"疫情指揮中心":9657,"社交":9658,"案例":9659,"平均":9660,"收到":9661,"訪問":9662,"市府":9663,"陽性":9664,"存在":9665,"這名":9666,"變成":9667,"願意":9668,"地點":9669,"升級":9670,"車輛":9671,"截至":9672,"天氣":9673,"旅客":9674,"成績":9675,"後續":9676,"....":9677,"一年":9678,"專業":9679,"改善":9680,"公園":9681,"派出":9682,"足跡":9683,"竟然":9684,"像是":9685,"以下":9686,"外送":9687,"還要":9688,"領先":9689,"多次":9690,"提高":9691,"開發":9692,"期待":9693,"旅館":9694,"太空":9695,"達成":9696,"如今":9697,"領導":9698,"拜登":9699,"傳統":9700,"制裁":9701,"指控":9702,"開心":9703,"似乎":9704,"不明":9705,"自主":9706,"範圍":9707,"因應新冠肺炎疫情":9708,"那麼":9709,"球場":9710,"和平":9711,"內的":9712,"上班":9713,"監視":9714,"遊客":9715,"議題":9716,"終於":9717,"找到":9718,"項目":9719,"萬華":9720,"消費者":9721,"與邊境":9722,"衝突":9723,"疫情監測":9724,"學習":9725,"的新":9726,"回到":9727,"經驗":9728,"遊行":9729,"方案":9730,"就能":9731,"人權":9732,"大利":9733,"高達":9734,"本季":9735,"日下午":9736,"各種":9737,"法官":9738,"做好":9739,"指示":9740,"與邊境管制措施":9741,"疫情監測與邊境管制措施":9742,"宜蘭":9743,"作業":9744,"暴力":9745,"最多":9746,"的問題":9747,"不知道":9748,"更是":9749,"來到":9750,"新北":9751,"送醫":9752,"態度":9753,"掌握":9754,"同意":9755,"符合":9756,"落實":9757,"如有疑似症狀":9758,"。」[":9759,"名單":9760,"店家":9761,"評估":9762,"重點":9763,"就在":9764,"場所":9765,"星期":9766,"到場":9767,"銷售":9768,"承諾":9769,"南韓":9770,"危機":9771,"集團":9772,"降低":9773,"文章":9774,"主持":9775,"多數":9776,"遇到":9777,"新高":9778,"妻子":9779,"裡面":9780,"」。[":9781,"來看":9782,"十分":9783,"精神":9784,"升溫":9785,"來越":9786,"新竹":9787,"per9":9788,"知名":9789,"關閉":9790,"人在":9791,"週一":9792,"排名":9793,"越來越":9794,"陰性":9795,"食物":9796,"預期":9797,"下降":9798,"自行":9799,"賽事":9800,"球迷":9801,"搭配":9802,"花蓮":9803,"資源":9804,"而是":9805,"下的":9806,"對象":9807,"原來":9808,"確診者":9809,"台灣的":9810,"指揮官":9811,"人們":9812,"任務":9813,"警告":9814,"統一":9815,"部門":9816,"辦理":9817,"非法":9818,"大選":9819,"醫生":9820,"到底":9821,"進口":9822,"快速":9823,"視頻":9824,"男友":9825,"檢驗":9826,"觀眾":9827,"一位":9828,"結婚":9829,"首度":9830,"幫忙":9831,"證明":9832,"昨日":9833,"東京":9834,"帶來":9835,"測試":9836,"父親":9837,"業務":9838,"鳳梨":9839,"此次":9840,"不適":9841,"免費":9842,"製作":9843,"有的":9844,"遊戲":9845,"有多":9846,"中華":9847,"起訴":9848,"伊朗":9849,"自然":9850,"其它":9851,"歡迎":9852,"變化":9853,"對手":9854,"加拿":9855,"當然":9856,"可能是":9857,"年度":9858,"在美國":9859,"最佳":9860,"音樂":9861,"接觸者":9862,"篩檢":9863,"速度":9864,"也將":9865,"方向":9866,"乘客":9867,"鼓勵":9868,"讓她":9869,"辦公室":9870,"受訪":9871,"展現":9872,"整體":9873,"直呼":9874,"條件":9875,"不可":9876,"網絡":9877,"社團":9878,"他們的":9879,"尚未":9880,"第一次":9881,"程序":9882,"後的":9883,"停電":9884,"緊張":9885,"上週":9886,"重大":9887,"org8":9888,"談判":9889,"的時間":9890,"電腦":9891,"爸爸":9892,"大約":9893,"呼吸":9894,"金融":9895,"縣市":9896,"停車":9897,"信息":9898,"司機":9899,"以前":9900,"已有":9901,"傷害":9902,"逮捕":9903,"動作":9904,"資格":9905,"即將":9906,"緬甸":9907,"公告":9908,"涉嫌":9909,"科學家":9910,"咖啡":9911,"數量":9912,"超級":9913,"不用":9914,"生涯":9915,"人口":9916,"他也":9917,"曾經":9918,"財經":9919,"可愛":9920,"女友":9921,"台幣":9922,"一家":9923,"真相":9924,"絕對":9925,"集中":9926,"加拿大":9927,"並未":9928,"屏東":9929,"屬於":9930,"主管":9931,"公民":9932,"高中":9933,"推特":9934,"日晚間":9935,"工作人員":9936,"彰化":9937,"情形":9938,"的小":9939,"為什麼":9940,"嘉義":9941,"儘速":9942,"抵達":9943,"接獲":9944,"更加":9945,"的方式":9946,"檢察":9947,"類似":9948,"收入":9949,"週三":9950,"不住":9951,"出的":9952,"位置":9953,"考量":9954,"並不":9955,"基隆":9956,"飛機":9957,"教授":9958,"日上午":9959,"大樓":9960,"出口":9961,"過程中":9962,"外國":9963,"集會":9964,"早上":9965,"對話":9966,"每年":9967,"聯繫":9968,"這場":9969,"經營":9970,"競爭":9971,"具有":9972,"藝術":9973,"內部":9974,"為何":9975,"週二":9976,"馬上":9977,"指數":9978,"男性":9979,"關心":9980,"不足":9981,"犯罪":9982,"及時":9983,"移民":9984,"山區":9985,"打造":9986,"當場":9987,"共有":9988,"嚴峻":9989,"破壞":9990,"追蹤":9991,"搭乘":9992,"加油":9993,"整理":9994,"大型":9995,"嫌犯":9996,"飛行":9997,"月份":9998,"老公":9999,"也要":10000,"釐清":10001,"護理":10002,"公斤":10003,"智慧":10004,"一路":10005,"坦言":10006,"休息":10007,"增長":10008,"堅持":10009,"金額":10010,"週四":10011,"爭取":10012,"下一":10013,"loc2":10014,"電動":10015,"性的":10016,"下去":10017,"效果":10018,"工廠":10019,"方法":10020,"聽到":10021,"軍方":10022,"建立":10023,"的地方":10024,"公投":10025,"上海":10026,"最大的":10027,"當中":10028,"機組":10029,"道路":10030,"降雨":10031,"一定要":10032,"延長":10033,"仍然":10034,"無人":10035,"居家隔離":10036,"不好":10037,"資金":10038,"獨立":10039,"聯邦":10040,"機關":10041,"是因為":10042,"示威":10043,",「<":10044,"確診病例":10045,"--":10046,"匡列":10047,"小心":10048,"運輸":10049,"大眾":10050,"日的":10051,"美國的":10052,"笑說":10053,"建築":10054,"不只":10055,"畢業":10056,"作用":10057,"各國":10058,"救援":10059,"兒童":10060,"衝擊":10061,"出門":10062,"仍有":10063,"並沒有":10064,"維護":10065,"初步":10066,"幾天":10067,"明天":10068,"身上":10069,"看起來":10070,"水庫":10071,"防護":10072,"學員":10073,"專案":10074,"開車":10075,"出賽":10076,"都要":10077,"主義":10078,"審查":10079,"父母":10080,"萬美元":10081,"都沒有":10082,"道歉":10083,"隨即":10084,"體驗":10085,"呈現":10086,"病患":10087,"在香港":10088,"。」「":10089,"全力":10090,"籃板":10091,"監視器":10092,"證據":10093,"意見":10094,"診斷":10095,"時中":10096,"肯定":10097,"還沒":10098,"中國的":10099,"困難":10100,"大幅":10101,"手術":10102,"一段":10103,"中午":10104,"力量":10105,"時代":10106,"角色":10107,"他表示":10108,"登場":10109,"有點":10110,"法案":10111,"防疫措施":10112,"大使":10113,"演出":10114,"多歲":10115,"為主":10116,"外出":10117,"這裡":10118,"國中":10119,"也讓":10120,"醫護人員":10121,"經常":10122,"富特":10123,"基金":10124,"體育":10125,"週五":10126,"諾富特":10127,"領域":10128,"補助":10129,"接下來":10130,"恐怖":10131,"太陽":10132,"的民眾":10133,"評論":10134,"董事長":10135,"夫妻":10136,"住院":10137,"協會":10138,"職棒":10139,"基礎":10140,"以後":10141,"營運":10142,"建設":10143,"旅行":10144,"火箭":10145,"並非":10146,"流行疫情指揮中心":10147,"投入":10148,"實驗":10149,"支援":10150,"事發":10151,"溝通":10152,"爭議":10153,"很好":10154,"言論":10155,"家中":10156,"或者":10157,"決賽":10158,"涉及":10159,"試圖":10160,"也能":10161,"就要":10162,"程度":10163,"也沒有":10164,"一場":10165,"得知":10166,"經理":10167,"冠狀":10168,"地震":10169,"」,<":10170,"多人":10171,"曾在":10172,"人民幣":10173,"國務":10174,"空氣":10175,"排除":10176,"丈夫":10177,"認識":10178,"中央流行疫情指揮中心":10179,"變種":10180,"武漢肺炎":10181,"人類":10182,"清潔":10183,"突破":10184,"廠商":10185,"說法":10186,"旅遊史":10187,"爆炸":10188,"高度":10189,"尊重":10190,"同學":10191,"難以":10192,"設施":10193,"完整":10194,"研發":10195,"開幕":10196,"千萬":10197,"派出所":10198,"聲音":10199,"快篩":10200,"車禍":10201,"陳時中":10202,"原則":10203,"費用":10204,"唯一":10205,"累積":10206,"購物":10207,"更新":10208,"境外":10209,"並在":10210,"懷疑":10211,"即使":10212,"冠狀病毒":10213,"據了解":10214,"救護":10215,"習慣":10216,"形成":10217,"」!":10218,"一切":10219,"所謂":10220,"真正":10221,"多個":10222,"暫時":10223,"客人":10224,"時表示":10225,"是不是":10226,"迫害":10227,"務必":10228,"台東":10229,"生物":10230,"不管":10231,"時期":10232,"的事":10233,"土地":10234,"發燒":10235,"有網友":10236,"作品":10237,"三振":10238,"回歸":10239,"那些":10240,"來源":10241,"違規":10242,"半年":10243,"美中":10244,"結合":10245,"簽署":10246,"社群":10247,"爆料":10248,"觀光":10249,"職業":10250,"海外":10251,"退休":10252,"熱議":10253,"機制":10254,"明年":10255,"為止":10256,"上升":10257,"回來":10258,"當下":10259,"例本土":10260,"per10":10261,"騎士":10262,"我覺得":10263,"情緒":10264,"國民":10265,"特殊":10266,"同仁":10267,"基地":10268,"百萬":10269,"好好":10270,"保障":10271,"就可以":10272,"兩名":10273,"周邊":10274,"上市":10275,"宣傳":10276,"新聞網":10277,"簡單":10278,"帶著":10279,"有機會":10280,"也很":10281,"擊敗":10282,"還會":10283,"那個":10284,"優先":10285,"逐漸":10286,"補充":10287,"外野":10288,"數字":10289,"你的":10290,"疫苗接種":10291,"商業":10292,"應用":10293,">」,":10294,"接近":10295,"大批":10296,"母親節":10297,"重要的":10298,"~<":10299,"配戴口罩":10300,"損失":10301,"工具":10302,"模式":10303,"新聞報導":10304,"該名":10305,"嚴格":10306,"預算":10307,"失去":10308,"擴散":10309,"因素":10310,"受害":10311,"提前":10312,"仍在":10313,"無論":10314,"放棄":10315,"對抗":10316,"![":10317,"密切":10318,"品質":10319,"在一":10320,"加州":10321,"強烈":10322,"列車":10323,"之下":10324,"年齡":10325,"者的":10326,"辛苦":10327,"利益":10328,"新台幣":10329,"報警":10330,"迅速":10331,"等人":10332,"發射":10333,"病房":10334,"瞬間":10335,"成本":10336,"這位":10337,"主場":10338,"都能":10339,"地球":10340,"魯閣":10341,"太多":10342,"選人":10343,"多名":10344,"給予":10345,"國外":10346,"紀念":10347,"封鎖":10348,"中方":10349,"區的":10350,"意識":10351,"太魯閣":10352,"不錯":10353,"登記":10354,"印尼":10355,"對外":10356,"移動":10357,"也被":10358,"泰國":10359,"告知醫師":10360,"故事":10361,"離婚":10362,"無奈":10363,"本來":10364,"雙北":10365,"制度":10366,"交流":10367,"會在":10368,"上漲":10369,"顧問":10370,"應對":10371,"支付":10372,"設置":10373,"目的":10374,"事業":10375,"食品":10376,"攝影":10377,"採購":10378,"看了":10379,"藝人":10380,"一出":10381,"預估":10382,"助攻":10383,"放在":10384,"是一個":10385,"等待":10386,"都很":10387,"港人":10388,"國安":10389,"發起":10390,"男童":10391,"最低":10392,"採用":10393,"武器":10394,"儘速就醫":10395,"一張":10396,"室內":10397,"戰略":10398,"經歷":10399,"飲食":10400,"越南":10401,"信心":10402,"不敢":10403,"恐怕":10404,"通常":10405,"總理":10406,"互動":10407,"小姐":10408,"告知醫師旅遊史":10409,"萬劑":10410,"反而":10411,"值得":10412,"高雄市":10413,"廣告":10414,"史上":10415,"會上":10416,"垃圾":10417,"經典":10418,"趕緊":10419,"機率":10420,"現象":10421,"巴西":10422,"擔憂":10423,"院長":10424,"看見":10425,"承認":10426,"部隊":10427,"強制":10428,"人死亡":10429,"謝謝":10430,"夥伴":10431,"每個":10432,"於是":10433,"級警戒":10434,"但他":10435,"課程":10436,"允許":10437,"一種":10438,"創下":10439,"方便":10440,"就算":10441,"北韓":10442,"議會":10443,"不但":10444,"兩天":10445,"事務":10446,"記錄":10447,"保險":10448,"報案":10449,"自動":10450,"以色":10451,"立場":10452,"這段":10453,"此前":10454,"判決":10455,"雲林":10456,"以色列":10457,"民間":10458,"車站":10459,"預測":10460,"相對":10461,"檢察官":10462,"臨時":10463,"毒品":10464,"就業":10465,"接觸史":10466,"住在":10467,"不再":10468,"稍早":10469,"譴責":10470,"依照":10471,"第四":10472,"還能":10473,"台股":10474,"洗手":10475,"園區":10476,"退出":10477,"校園":10478,"]「":10479,"的高":10480,"文件":10481,"即日起":10482,"不想":10483,"實習":10484,"酒店":10485,"病人":10486,"親自":10487,"感情":10488,"的心":10489,"強化":10490,"新疆":10491,"的水":10492,"工業":10493,"有沒有":10494,"直言":10495,"社交距離":10496,"很難":10497,"用餐":10498,"感染源":10499,"合約":10500,"簡訊":10501,"真實":10502,"明星":10503,"老婆":10504,"客戶":10505,"例如":10506,"營養":10507,"捷運":10508,">~<":10509,"改革":10510,"三分":10511,"連結":10512,"國人":10513,"房屋":10514,"國防":10515,"比例":10516,"預防":10517,"春節":10518,"戴上":10519,"白色":10520,"參賽":10521,"名的":10522,"路上":10523,"崩潰":10524,"全程":10525,"org9":10526,"倫敦":10527,"很快":10528,"陷入":10529,"理由":10530,"鋒面":10531,"房子":10532,"適合":10533,"搶救":10534,"加速":10535,"會談":10536,"尋求":10537,"疫苗的":10538,"否認":10539,"明確":10540,"網民":10541,"勞工":10542,"實在":10543,"時許":10544,"推薦":10545,"菲律":10546,"菲律賓":10547,"上訴":10548,"它們":10549,"操作":10550,"營收":10551,"鏡頭":10552,"介紹":10553,"優勢":10554,"變種病毒":10555,"樂天":10556,"秘書":10557,"少年":10558,"貢獻":10559,"引述":10560,"希望能":10561,"門口":10562,"變得":10563,"事實上":10564,"書記":10565,"關於":10566,"防疫旅館":10567,"的事情":10568,"很大":10569,"偵辦":10570,"台中市":10571,"站在":10572,"國務卿":10573,"房間":10574,"美食":10575,"資深":10576,"領袖":10577,"還說":10578,"教學":10579,"外送員":10580,"發揮":10581,"持續疫情監測與邊境管制措施":10582,"我國":10583,"紅色":10584,"全世界":10585,"今天在":10586,"友人":10587,"導彈":10588,"身為":10589,"人潮":10590,"出去":10591,"出局":10592,"在台灣":10593,"多少":10594,"選民":10595,"局部":10596,"最快":10597,"表演":10598,"參議員":10599,"每日":10600,"的前":10601,"並依":10602,"封城":10603,"打算":10604,"出爐":10605,"行程":10606,"單日":10607,"微博":10608,"每次":10609,"組成":10610,"輕鬆":10611,"詐騙":10612,"罷免":10613,"協調":10614,"選票":10615,"短暫":10616,"徒刑":10617,"大會":10618,"也表示":10619,"學家":10620,"疫情升溫":10621,"!」<":10622,"意義":10623,"年輕人":10624,"場比賽":10625,"忍不住":10626,"能源":10627,"打開":10628,"等等":10629,"演員":10630,"幾個":10631,"空軍":10632,"有可能":10633,"穿著":10634,"情報":10635,"的好":10636,"現金":10637,"檢方":10638,"被害":10639,"壘打":10640,"發生在":10641,"的情況下":10642,"日凌晨":10643,"出發":10644,"以利":10645,"就像":10646,":「<":10647,"別人":10648,"不了":10649,"各界":10650,"關稅":10651,"很多人":10652,"政府的":10653,"錯誤":10654,"月初":10655,"表明":10656,"的狀況":10657,"相同":10658,"認定":10659,"賠償":10660,"估計":10661,"身材":10662,"阻止":10663,"平時":10664,"同事":10665,"也就是":10666,"真的很":10667,"半部":10668,"家裡":10669,"大規模":10670,"的照片":10671,"修正":10672,"美方":10673,"一開始":10674,"決議":10675,"曝光後":10676,"公務":10677,"都沒":10678,"疫調":10679,"接到":10680,"說是":10681,"敲出":10682,"醫學":10683,"大概":10684,"西班":10685,"晶片":10686,"西班牙":10687,"全場":10688,"的消息":10689,"店員":10690,"權利":10691,"多元":10692,"主題":10693,"藥物":10694,"但在":10695,"環保":10696,"物資":10697,"媒體報導":10698,"氣候":10699,"面的":10700,"不少人":10701,"聲稱":10702,"立法":10703,"出生":10704,"平安":10705,"一人":10706,"自我":10707,"得分":10708,"護理師":10709,"正確":10710,"條例":10711,"她說":10712,"遵守":10713,"超商":10714,"桃園市":10715,"隨時":10716,"執法":10717,"傻眼":10718,"充滿":10719,"用於":10720,"政權":10721,"高層":10722,"詳細":10723,"我是":10724,"發動":10725,"可見":10726,"宣佈":10727,"利亞":10728,"紛紛留言":10729,"司法":10730,"婦人":10731,"造型":10732,"具體":10733,"主委":10734,"大部分":10735,"才是":10736,"年後":10737,"網路上":10738,"上述":10739,"也沒":10740,"華盛":10741,"勝利":10742,"黑色":10743,"華盛頓":10744,"延燒":10745,"也可以":10746,"按照":10747,"總教練":10748,"一旦":10749,"行業":10750,"跟著":10751,"實現":10752,"台南市":10753,"計算":10754,"飲料":10755,"解除":10756,"本週":10757,"許多人":10758,"否則":10759,"政黨":10760,"州的":10761,"酒駕":10762,"南投":10763,"依據":10764,"苗栗":10765,"拿到":10766,"女星":10767,"典禮":10768,"稱為":10769,"下跌":10770,"航班":10771,"會長":10772,"接種疫苗":10773,"看看":10774,"車上":10775,"青年":10776,"的國家":10777,"媒報導":10778,"負擔":10779,"趨勢":10780,"深夜":10781,"天的":10782,"部署":10783,"大小":10784,"棒球":10785,"即可":10786,"鄰居":10787,"據悉":10788,"不知":10789,"三立":10790,"兩國":10791,"一半":10792,"一同":10793,"今天表示":10794,"好像":10795,"贏得":10796,"人物":10797,"剛好":10798,"也說":10799,"就連":10800,"女生":10801,"旁邊":10802,"兩岸":10803,"點多":10804,"確診個案":10805,"所長":10806,"力的":10807,"負責人":10808,"上傳":10809,"勞動":10810,"主辦":10811,"一間":10812,"尋找":10813,"被問":10814,"之際":10815,"細節":10816,"結構":10817,"衣服":10818,"裝置":10819,"處於":10820,"天內":10821,"這起":10822,"推文":10823,"預約":10824,"細胞":10825,"教師":10826,"華為":10827,"感動":10828,"安心":10829,"視訊":10830,"港府":10831,"多的":10832,"紀元":10833,"罕見":10834,"一輛":10835,"本次":10836,"帳號":10837,"授權":10838,"能量":10839,"局上":10840,"香港的":10841,"件事":10842,"我想":10843,"海軍":10844,"依法":10845,"路口":10846,"眼睛":10847,"名字":10848,"高的":10849,"一個月":10850,"所幸":10851,"試驗":10852,"不夠":10853,"保送":10854,"時刻":10855,"娛樂":10856,"不太":10857,"即時":10858,"本身":10859,"民國":10860,"規範":10861,"過的":10862,"學者":10863,"各項":10864,"季後":10865,"當年":10866,"太魯閣號":10867,"健康管理":10868,"不同的":10869,"形象":10870,"開打":10871,"他是":10872,"襲擊":10873,"首都":10874,"平常":10875,"高級":10876,"返回":10877,"獎金":10878,"持續加強":10879,"反映":10880,"的重要":10881,"儀式":10882,"婆婆":10883,"了嗎":10884,"大紀元":10885,"騷擾":10886,"勇士":10887,"拍照":10888,"高溫":10889,"違法":10890,"懷孕":10891,"數位":10892,"股價":10893,"目前已":10894,"導演":10895,"玻璃":10896,"檢討":10897,"資產":10898,"第一時間":10899,"幸福":10900,"享受":10901,"作戰":10902,"飼主":10903,"的原因":10904,"民調":10905,"低於":10906,"候選人":10907,"現身":10908,"該公司":10909,"長達":10910,"公車":10911,"運作":10912,"回答":10913,"per11":10914,"族群":10915,"此事":10916,"創辦":10917,"考試":10918,"核心":10919,"酒精":10920,"海洋":10921,"公開賽":10922,"......":10923,"名為":10924,"清晨":10925,"老人":10926,"少女":10927,"校方":10928,"校長":10929,"核酸":10930,"不治":10931,"只見":10932,"並將":10933,"尼亞":10934,"最好":10935,"澄清":10936,"不少網友":10937,"下車":10938,"局下":10939,"應該是":10940,"人生":10941,"重視":10942,"停課":10943,"生態":10944,"及接觸史":10945,"之間的":10946,"隊友":10947,"的影響":10948,"會員":10949,"有限":10950,"防禦":10951,"好奇":10952,"路段":10953,"廣場":10954,"墨西":10955,"考生":10956,"提告":10957,"指定":10958,"墨西哥":10959,"競選":10960,"都被":10961,"隊長":10962,"團結":10963,"研究人員":10964,"廁所":10965,"更有":10966,"爆出":10967,"導體":10968,"支安打":10969,"演唱":10970,"並依指示":10971,"過來":10972,"領導人":10973,"面積":10974,"連勝":10975,"她在":10976,"街頭":10977,"過年":10978,"阿嬤":10979,"股市":10980,"的機會":10981,"保證":10982,"及時診斷":10983,"國會":10984,"官網":10985,"急診":10986,"豐富":10987,"寫下":10988,"創造":10989,"加坡":10990,"慶祝":10991,"年底":10992,"二壘":10993,"夜市":10994,"西亞":10995,"死者":10996,"味全":10997,"居家檢疫":10998,"半導體":10999,"策略":11000,"聲明中":11001,"心情":11002,"出了":11003,"留下":11004,"不及":11005,"是有":11006,"富邦":11007,"將近":11008,"頻道":11009,"靠著":11010,"主持人":11011,"熱門":11012,"生日":11013,"獲報":11014,"顧客":11015,"全新":11016,"上任":11017,"國小":11018,"而言":11019,"全壘打":11020,"軟體":11021,"中部":11022,"應變":11023,"神經":11024,"批准":11025,"公平":11026,"就被":11027,"還沒有":11028,"疫情影響":11029,"的行為":11030,"理事":11031,"來台":11032,"第一個":11033,"獅子":11034,"依然":11035,"另有":11036,"居住":11037,"用的":11038,"地下":11039,"遺體":11040,"交往":11041,"合法":11042,"小朋友":11043,"而在":11044,"家的":11045,"物質":11046,"及通報":11047,"送往":11048,"公分":11049,"執行長":11050,"共識":11051,"聚集":11052,"並依指示配戴口罩":11053,"同期":11054,"報名":11055,"以利及時診斷":11056,"坐在":11057,"同時主動":11058,"住戶":11059,"月中":11060,"物品":11061,"持續加強疫情監測與邊境管制措施":11062,"並依指示配戴口罩儘速就醫":11063,"以利及時診斷及通報":11064,"最後一":11065,"移送":11066,"新加坡":11067,"日常":11068,"人氣":11069,"自身":11070,"戰機":11071,"也都":11072,"週六":11073,"告知醫師旅遊史及接觸史":11074,"同時主動告知醫師旅遊史及接觸史":11075,"戶外":11076,"訂單":11077,"出國":11078,"失控":11079,"就好":11080,"夢想":11081,"消失":11082,"特首":11083,"觀看":11084,"創作":11085,"日表示":11086,"開罰":11087,"近來":11088,"數十":11089,"意味":11090,"背景":11091,"防止":11092,"代理":11093,"幼兒":11094,"百分":11095,"首先":11096,"獲利":11097,"股票":11098,"警員":11099,"助理":11100,"鎖定":11101,"電池":11102,"首相":11103,"掀起":11104,"有所":11105,"全身":11106,"排隊":11107,"視為":11108,"連假":11109,"出動":11110,"多年":11111,"了一個":11112,"狗狗":11113,"以外":11114,"可能性":11115,"基因":11116,"車廂":11117,"畢竟":11118,"的美國":11119,"一項":11120,"坦承":11121,"機器":11122,"是否有":11123,"體溫":11124,"聯絡":11125,"貸款":11126,"從事":11127,"三立新聞網":11128,"這份":11129,"全案":11130,"網紅":11131,"入住":11132,"設立":11133,"並無":11134,"在中國":11135,"遭遇":11136,"宣告":11137,"餐飲":11138,"賽後":11139,"是要":11140,"婚姻":11141,"賣場":11142,"或許":11143,"轎車":11144,"通訊":11145,"一口":11146,"群聚感染":11147,"氣象":11148,"總部":11149,"長的":11150,"打出":11151,"帶領":11152,"持有":11153,"肇事":11154,"便宜":11155,"全民":11156,"台北市長":11157,"可是":11158,"門市":11159,"電信":11160,"促進":11161,"自主健康管理":11162,"同步":11163,"判斷":11164,"落後":11165,"等到":11166,"成果":11167,"他人":11168,"縣府":11169,"國家的":11170,"依舊":11171,"上一":11172,"移入":11173,"尤其是":11174,"重症":11175,"彼此":11176,"路邊":11177,"+<":11178,"副總統":11179,"利率":11180,"當初":11181,"成了":11182,"做的":11183,"影像":11184,"女孩":11185,"紓困":11186,"路線":11187,"縣長":11188,"趕快":11189,"地區的":11190,"宗教":11191,"權益":11192,"首席":11193,"一致":11194,"飛彈":11195,"下滑":11196,"失蹤":11197,"空中":11198,"溫度":11199,"永遠":11200,"不良":11201,"維權":11202,"峰會":11203,"藉由":11204,"來了":11205,"的部分":11206,"基於":11207,"動態":11208,"參選":11209,"不起":11210,"公路":11211,"出面":11212,"水果":11213,"國家安全":11214,"免疫":11215,"在此":11216,"特色":11217,"戴上口罩":11218,"料理":11219,"的一個":11220,"失誤":11221,"不見":11222,"很有":11223,"火星":11224,"海域":11225,"電廠":11226,"加碼":11227,"網上":11228,"送到":11229,"房價":11230,"做法":11231,"諮詢":11232,"秘書長":11233,"一週":11234,"監控":11235,"意願":11236,"足夠":11237,"身亡":11238,"慢慢":11239,"今晚":11240,"不幸":11241,"特定":11242,"打壓":11243,"川普":11244,"衛星":11245,"好手":11246,"分子":11247,"想法":11248,"規則":11249,"共和":11250,"在一起":11251,"中間":11252,"記得":11253,"公布的":11254,"貼出":11255,"都可以":11256,"不久":11257,"心理":11258,"運用":11259,"月的":11260,"論壇":11261,"他認為":11262,"知識":11263,"不多":11264,"創新":11265,"也有人":11266,"生意":11267,"許多網友":11268,"才發現":11269,"的工作":11270,"中職":11271,"蔓延":11272,"一份":11273,"是個":11274,"貨車":11275,"電動車":11276,"英文":11277,"害怕":11278,"-<":11279,"實聯":11280,"互相":11281,"日期":11282,"寫道":11283,"一定會":11284,"巨大":11285,"旗下":11286,"桃猿":11287,"黃金":11288,"上前":11289,"合理":11290,"大賽":11291,"透明":11292,"材料":11293,"逆轉":11294,"其餘":11295,"寵物":11296,"住宅":11297,"快樂":11298,"季後賽":11299,">!":11300,"訴訟":11301,"新年":11302,"意思":11303,"氣溫":11304,"救護車":11305,"?[":11306,"這也是":11307,"目擊":11308,"釋放":11309,"一波":11310,"廣播":11311,"舉行的":11312,"一隻":11313,"金牌":11314,"只好":11315,"時的":11316,"不論":11317,"創辦人":11318,"地位":11319,"媽祖":11320,"幾年":11321,"披露":11322,"總是":11323,"組合":11324,"晉級":11325,"快訊":11326,"手段":11327,"現代":11328,"身邊":11329,"喊話":11330,"帶動":11331,"判刑":11332,"常常":11333,"工人":11334,"臺灣":11335,"農民":11336,"貨幣":11337,"週日":11338,"分別為":11339,"以往":11340,"防範":11341,"提案":11342,"這間":11343,"戰爭":11344,"短短":11345,"抗體":11346,"車道":11347,"並於":11348,"三個":11349,"守護":11350,"抱怨":11351,"疑慮":11352,"相比":11353,"網球":11354,"嚴重的":11355,"拿出":11356,"重申":11357,"本人":11358,"」、「<":11359,"知情":11360,"而已":11361,"環球":11362,"抗爭":11363,"認證":11364,"惡化":11365,"召集":11366,"異常":11367,"進去":11368,"失業":11369,"總經理":11370,"回憶":11371,"貓咪":11372,"人才":11373,"實聯制":11374,"被捕":11375,"上面":11376,"愛的":11377,"起火":11378,"千元":11379,"第一線":11380,"她也":11381,"洛杉":11382,"疫情爆發":11383,"打電話":11384,"已經有":11385,"機組員":11386,"被害人":11387,"記者會上":11388,"三星":11389,"連署":11390,"洛杉磯":11391,"弟弟":11392,"下令":11393,"新型":11394,"豬肉":11395,"美國政府":11396,"財產":11397,"公眾":11398,"搜索":11399,"感受":11400,"撞上":11401,"審理":11402,"皮膚":11403,"一邊":11404,"人力":11405,"上課":11406,"師生":11407,"一次看":11408,"藻礁":11409,"種子":11410,"」:":11411,"歌手":11412,"滿足":11413,"前的":11414,"重返":11415,"盡量":11416,"擊出":11417,"我就":11418,"一看":11419,"的支持":11420,"org10":11421,"馬來":11422,"全數":11423,"恐慌":11424,"期徒刑":11425,"模樣":11426,"哈哈":11427,"州長":11428,"總計":11429,"追查":11430,"風格":11431,"近年":11432,"失分":11433,"出售":11434,"使得":11435,"智能":11436,"障礙":11437,"等級":11438,"斯坦":11439,"上場":11440,"人體":11441,"境外移入":11442,"診所":11443,"將有":11444,"分局":11445,"終場":11446,"吃飯":11447,"中美":11448,"還不":11449,"失敗":11450,"概念":11451,"見到":11452,"監獄":11453,"妹妹":11454,"展示":11455,"總裁":11456,"身份":11457,"延續":11458,"結束後":11459,"刺激":11460,"外籍":11461,"背後":11462,"跡象":11463,"處分":11464,"局勢":11465,"哪裡":11466,"對戰":11467,"的比賽":11468,"日宣布":11469,"定期":11470,"提及":11471,"疫情的":11472,"上網":11473,"出入":11474,"在今年":11475,"是由":11476,"金門":11477,"一片":11478,"受影響":11479,"顏色":11480,"保留":11481,"下面":11482,"開啟":11483,"宣導":11484,"良好":11485,"聚會":11486,"列為":11487,"少數":11488,"健身":11489,"兩年":11490,"及其":11491,"出軌":11492,"可望":11493,"接連":11494,"螢幕":11495,"車主":11496,"也曾":11497,"不料":11498,"兩次":11499,"職務":11500,"行經":11501,"馬來西亞":11502,"的疫苗":11503,"談到":11504,"在台":11505,"未能":11506,"真的是":11507,"天然":11508,"薪資":11509,"急救":11510,"賽季":11511,"做了":11512,"行駛":11513,"滿滿":11514,"延期":11515,"參考":11516,"頭部":11517,"動力":11518,"日報導":11519,"哥哥":11520,"巡邏":11521,"用水":11522,"隔天":11523,"眾多":11524,"不可能":11525,"人確診":11526,"心臟":11527,"殺人":11528,"印象":11529,"罹難":11530,"訴求":11531,"紐約市":11532,"屆時":11533,"停車場":11534,"工會":11535,"蛋白":11536,"練習":11537,"出現在":11538,"發聲":11539,"的風險":11540,"監督":11541,"糾紛":11542,"興奮":11543,"香港人":11544,"農業":11545,"化學":11546,"興趣":11547,"新冠病毒":11548,"大多":11549,"閱讀":11550,"想像":11551,"更好":11552,"路人":11553,"例行":11554,"東北":11555,"兩位":11556,"彈劾":11557,"死亡人數":11558,"悍將":11559,"一個人":11560,"後方":11561,"理解":11562,"一事":11563,"景點":11564,"電梯":11565,"不佳":11566,"在外":11567,"私人":11568,"前總統":11569,"實力":11570,"納入":11571,"日至":11572,"霸凌":11573,"會不會":11574,"防治":11575,"形容":11576,"寶寶":11577,"移工":11578,"激烈":11579,"公司的":11580,"此舉":11581,"的美":11582,"同住":11583,"污染":11584,"親友":11585,"早餐":11586,"祝福":11587,"影音":11588,"咳嗽":11589,"當事":11590,"同時也":11591,"舒服":11592,"二軍":11593,"固定":11594,"露出":11595,"介入":11596,"吃到":11597,"不願":11598,"開季":11599,"最好的":11600,"車子":11601,"家族":11602,"黨人":11603,"大多數":11604,"思考":11605,"台灣人":11606,"年代":11607,"只剩":11608,"女童":11609,"每個人":11610,"傷亡":11611,"恐嚇":11612,"地方政府":11613,"捐贈":11614,"卻被":11615,"還好":11616,"徹底":11617,"普遍":11618,"對決":11619,"進度":11620,"國道":11621,"即便":11622,"中南部":11623,"嘗試":11624,"主角":11625,"漫畫":11626,"博士":11627,"以上的":11628,"打完":11629,"協商":11630,"的不":11631,"執政":11632,"在場":11633,"境內":11634,"隊伍":11635,"綠色":11636,"會考":11637,"權力":11638,"複雜":11639,"又有":11640,"錄影":11641,"焦點":11642,"帳戶":11643,"克蘭":11644,"也不會":11645,"則表示":11646,"戰績":11647,"住民":11648,"攻下":11649,"國際社會":11650,"打點":11651,"經紀":11652,"版本":11653,"熱烈":11654,"表態":11655,"剛剛":11656,"警局":11657,">..":11658,"土耳":11659,"籃球":11660,"迄今":11661,"黨部":11662,"檢舉":11663,"將是":11664,"loc3":11665,"提名":11666,"販售":11667,"我要":11668,"足球":11669,"刑事":11670,"半場":11671,"天文":11672,"我認為":11673,"被迫":11674,"關懷":11675,"故意":11676,"完美":11677,"它的":11678,"讓我":11679,"傷勢":11680,"超市":11681,"表情":11682,"繳出":11683,"上有":11684,"施工":11685,"土耳其":11686,"主張":11687,"已被":11688,"主要是":11689,"心的":11690,"高速":11691,"罪嫌":11692,"自治":11693,"開會":11694,"有民眾":11695,"不然":11696,"一條":11697,"國產":11698,"人工":11699,"多位":11700,"採訪報導":11701,"的生活":11702,"靠近":11703,"商店":11704,"澳大利":11705,"帶回":11706,"藉此":11707,"早在":11708,"認真":11709,"敏感":11710,"她們":11711,"荷蘭":11712,"發文表示":11713,"澳大利亞":11714,"疫情嚴峻":11715,"不在":11716,"行的":11717,"六四":11718,"破口":11719,"一名男子":11720,"相關的":11721,"性侵":11722,"做到":11723,"湖人":11724,"女網友":11725,"球團":11726,"國籍":11727,"成交":11728,"美國人":11729,"部桃":11730,"裡的":11731,"打破":11732,"援助":11733,"這款":11734,"指導":11735,"中信":11736,"普通":11737,"刪除":11738,"壓制":11739,"講話":11740,"命令":11741,"次三振":11742,"昨晚":11743,"現任":11744,"per12":11745,"勤洗手":11746,"例確診":11747,"年紀":11748,"黑衣":11749,"基金會":11750,"東部":11751,"前後":11752,"防疫專線":11753,"聊天":11754,"保養":11755,"元的":11756,"已在":11757,"聯賽":11758,"發病":11759,"隊員":11760,"無人機":11761,"模擬":11762,"見面":11763,"創意":11764,"檢疫所":11765,"看法":11766,"?」<":11767,"實體":11768,"板橋":11769,"報導說":11770,"核酸檢測":11771,"的第":11772,"禁令":11773,"震驚":11774,"引擎":11775,"----":11776,"角度":11777,"無症狀":11778,"常見":11779,"為此":11780,"雜誌":11781,"查獲":11782,"仔細":11783,"舞台":11784,"美國國務卿":11785,"警消":11786,"看完":11787,"森林":11788,"睡覺":11789,"管道":11790,"世紀":11791,"高興":11792,"的中國":11793,"若是":11794,"子的":11795,"財政":11796,"大法":11797,"計程":11798,"句話":11799,"形式":11800,"千人":11801,"撞擊":11802,"債務":11803,"充電":11804,"公社":11805,"登上":11806,"民意":11807,"今天的":11808,"示威者":11809,"相較":11810,"身體不適":11811,"國安法":11812,"沒辦法":11813,"軌道":11814,"門票":11815,"電力":11816,"草案":11817,"湖北":11818,"所有的":11819,"供電":11820,"個性":11821,"轉型":11822,"一大":11823,"當選":11824,"冠狀病毒疾病":11825,"便利":11826,"消息人士":11827,"演唱會":11828,"分區":11829,"可惜":11830,"成年":11831,"再加上":11832,"讀書":11833,"分析師":11834,"進行了":11835,"東半部":11836,"缺乏":11837,"日子":11838,"行車":11839,"財務":11840,"院內":11841,"設定":11842,"同一":11843,"槍擊":11844,"不當":11845,"發生的":11846,"婦女":11847,"社區感染":11848,"一旁":11849,"收購":11850,"盡快":11851,"企圖":11852,"度過":11853,"一直在":11854,"約有":11855,"大眾運輸":11856,"計程車":11857,"釋出":11858,"但仍":11859,"人家":11860,"列入":11861,"臨床":11862,"是為了":11863,"超越":11864,"傍晚":11865,"延後":11866,"留在":11867,"進場":11868,"大家都":11869,"稽查":11870,"返台":11871,"捍衛":11872,"進而":11873,"好幾":11874,"保持社交距離":11875,"颱風":11876,"三級警戒":11877,"意大利":11878,"抗疫":11879,"被告":11880,"植物":11881,"推廣":11882,"生的":11883,"紅包":11884,"頭髮":11885,"將持續":11886,"戰鬥":11887,"案的":11888,"給我":11889,"年增":11890,"海上":11891,"經費":11892,"搜尋":11893,"還是要":11894,"的安全":11895,"重啟":11896,"黨主席":11897,"攜帶":11898,"觀測":11899,"許可":11900,"軍隊":11901,"打疫苗":11902,"不停":11903,"近年來":11904,"看著":11905,"簽證":11906,"僅有":11907,"處長":11908,"蛋糕":11909,"味道":11910,"限定":11911,"法庭":11912,"分配":11913,"各大":11914,"是什麼":11915,"幸運":11916,"付出":11917,"這邊":11918,"到案":11919,"鮭魚":11920,"宣稱":11921,"合照":11922,"等地":11923,"在臉書社團":11924,"限量":11925,"行星":11926,"點名":11927,"公安":11928,"日開始":11929,"可以看到":11930,"小的":11931,"我會":11932,"遭受":11933,"整合":11934,"分流":11935,"全美":11936,"公佈":11937,"百貨":11938,"子女":11939,"的關係":11940,"記憶":11941,"停辦":11942,"東京奧運":11943,"!」、「":11944,"熱情":11945,"樂觀":11946,"有一個":11947,"看更多":11948,"房東":11949,"日本政府":11950,"萬名":11951,"包裝":11952,"座位":11953,"隧道":11954,"他還":11955,"地產":11956,"男女":11957,"粉專":11958,"不一樣":11959,"實際上":11960,"分手":11961,"正面":11962,"信任":11963,"封閉":11964,"不需要":11965,"並表示":11966,"從小":11967,"這對":11968,"實驗室":11969,"舉動":11970,"年初":11971,"有趣":11972,"自費":11973,",,":11974,"口味":11975,"按摩":11976,"排放":11977,"而不是":11978,"到的":11979,"下載":11980,"祭出":11981,"溫暖":11982,"查看":11983,"讓民眾":11984,"車的":11985,"奪冠":11986,"直升":11987,"調閱":11988,"前來":11989,"何時":11990,"只會":11991,"危害":11992,"施壓":11993,"錦標":11994,"有很多":11995,"轉移":11996,"外帶":11997,"進展":11998,"大雨":11999,"過度":12000,"若有":12001,"回國":12002,"顯然":12003,"並不是":12004,"後面":12005,"發表聲明":12006,"力挺":12007,"開賣":12008,"萊豬":12009,"公益":12010,"化的":12011,"回收":12012,"專訪":12013,"等於":12014,"地說":12015,"看來":12016,"攜手":12017,"前進":12018,"氣氛":12019,"健保":12020,"用品":12021,"低溫":12022,"演藝":12023,"交給":12024,"廣泛":12025,"構成":12026,"回覆":12027,"亞洲":12028,"決心":12029,">:「<":12030,"不如":12031,"這兩":12032,"迎接":12033,"網友們":12034,"受困":12035,"變異":12036,"適當":12037,"高於":12038,"亞裔":12039,"部份":12040,"商務":12041,"的朋友":12042,">。[":12043,"秩序":12044,"從未":12045,"租金":12046,"火勢":12047,"鎮壓":12048,"數百":12049,"宇宙":12050,"查詢":12051,"裝備":12052,"德州":12053,"請看":12054,"高鐵":12055,"其實是":12056,"年級":12057,"義大利":12058,"泡泡":12059,"女神":12060,"業績":12061,"原始":12062,"錦標賽":12063,"人受傷":12064,"理事長":12065,"請求":12066,"注射":12067,"肌肉":12068,"中華民國":12069,"罰款":12070,"個小時":12071,"使用者":12072,"血管":12073,"太太":12074,"女士":12075,"身心":12076,"出院":12077,"股東":12078,"在大":12079,">」、「":12080,"售價":12081,"基層":12082,"葡萄":12083,"更多的":12084,"有期徒刑":12085,"以免":12086,"在疫情":12087,"時尚":12088,"風暴":12089,"故障":12090,"西方":12091,"改為":12092,"驚人":12093,"中有":12094,"熟悉":12095,"供應鏈":12096,"用來":12097,"陪伴":12098,"的她":12099,"檢視":12100,"還可以":12101,"指標":12102,"球星":12103,"諾富特飯店":12104,"看好":12105,"這就是":12106,"數據顯示":12107,"會面":12108,"總共":12109,"有助":12110,"中表示":12111,"送中":12112,"不對":12113,"侵犯":12114,"農曆":12115,"自家":12116,"飾演":12117,"意味著":12118,"沒有任何":12119,"禮拜":12120,"?」、「":12121,"底下":12122,"體系":12123,"充分":12124,"超前":12125,"午後":12126,"輔導":12127,"上演":12128,"海岸":12129,"在內":12130,"報復":12131,"困擾":12132,"有局部":12133,"球季":12134,"比如":12135,"多久":12136,"電視台":12137,"幼兒園":12138,"出手":12139,"另一個":12140,"萬噸":12141,"直升機":12142,"呼籲民眾":12143,"發電":12144,"受害者":12145,"不排除":12146,"國軍":12147,"提早":12148,"歧視":12149,"認同":12150,"被問到":12151,"人都":12152,"衝刺":12153,"下班":12154,"逃逸":12155,"年以來":12156,"把握":12157,"引來":12158,"的研究":12159,"讓他們":12160,"法規":12161,"逐步":12162,"馬拉":12163,"器官":12164,"日到":12165,"惡意":12166,"防禦率":12167,"中和":12168,"演習":12169,"今年的":12170,"其中包括":12171,"紅燈":12172,"體重":12173,"白天":12174,"誇張":12175,"不慎":12176,"便當":12177,"研判":12178,"這波":12179,"有著":12180,"關切":12181,"三壘":12182,"先後":12183,"在香港報導":12184,"乾淨":12185,"聲援":12186,"味全龍":12187,"姓女子":12188,"漂亮":12189,"烏克蘭":12190,"里長":12191,"現在的":12192,"地面":12193,"特別是":12194,"和其他":12195,"種族":12196,"零售":12197,"肌膚":12198,"附近的":12199,"阿拉":12200,"卻在":12201,"就是要":12202,"首輪":12203,"新冠疫苗":12204,"召開記者會":12205,"實習記者":12206,"星系":12207,"能在":12208,"賽前":12209,"相關新聞":12210,"假日":12211,"拍下":12212,"冷氣":12213,"進步":12214,"這件事":12215,"是否會":12216,"每月":12217,"華人":12218,"工作的":12219,"發放":12220,"長輩":12221,"黨員":12222,"福利":12223,"店內":12224,"聽證":12225,"搜救":12226,"中信兄弟":12227,"一處":12228,"廣東":12229,"致力":12230,"不容易":12231,"毫無":12232,"當日":12233,"的確":12234,"精彩":12235,"石油":12236,"該國":12237,"留意":12238,"遺憾":12239,"餐點":12240,"對中國":12241,"眾人":12242,"使用的":12243,"演講":12244,"的外":12245,"落在":12246,"作出":12247,"揭露":12248,"分別是":12249,"陪同":12250,"法輪":12251,"但她":12252,"警報":12253,"就讀":12254,"週年":12255,"我也":12256,"公寓":12257,"輝瑞":12258,"有望":12259,"的東西":12260,"過了":12261,"監管":12262,"視察":12263,"主權":12264,"一早":12265,"在於":12266,"度的":12267,"禮物":12268,"痛苦":12269,"究竟":12270,"報導指出":12271,"判處":12272,"的感覺":12273,"給他":12274,"食材":12275,"一名網友":12276,"共計":12277,"志工":12278,"出貨":12279,"西蘭":12280,"專屬":12281,"應該要":12282,"拿著":12283,"有意":12284,"的目標":12285,"嬰兒":12286,"拘留":12287,"公所":12288,"的態度":12289,"質詢":12290,"統一獅":12291,"號碼":12292,"可怕":12293,"居然":12294,"瑞士":12295,"新北市長":12296,"傳染病":12297,"上個月":12298,"對美國":12299,"回去":12300,"正義":12301,"軍人":12302,"」,「":12303,"年內":12304,"對上":12305,"跟我":12306,"麻煩":12307,"不小心":12308,"綜合外":12309,"反彈":12310,"台商":12311,"沒人":12312,"成分":12313,"全體":12314,"火車":12315,"命中":12316,"捐款":12317,"在第":12318,"早已":12319,"投球":12320,"犯案":12321,"循環":12322,"紫色":12323,"致死":12324,"打者":12325,"此時":12326,"流感":12327,"浪費":12328,"申報":12329,"警方表示":12330,"損害":12331,"痛批":12332,"第一季":12333,"瘋狂":12334,"的手":12335,"推測":12336,"不動":12337,"將與":12338,"差距":12339,"在全球":12340,"裁定":12341,"長時間":12342,"造成的":12343,"在推特":12344,"運動員":12345,"讓你":12346,"去年同期":12347,"大火":12348,"的表現":12349,"取代":12350,"我很":12351,"輿論":12352,"修復":12353,"南下":12354,"水情":12355,"阿富":12356,"但也":12357,"通通":12358,"財經簡訊":12359,"喜愛":12360,"開槍":12361,"不出":12362,"偵查":12363,"文字":12364,"付費":12365,"推進":12366,"一帶":12367,"阿富汗":12368,"效力":12369,"讓我們":12370,"時常":12371,"陣雨":12372,"承擔":12373,"我們會":12374,"追求":12375,"所需":12376,"播出":12377,"被發現":12378,"預定":12379,"天後":12380,"進駐":12381,"億美元的":12382,"信用":12383,"施打疫苗":12384,"疫情持續":12385,"年間":12386,"很大的":12387,"驅逐":12388,"期限":12389,"住宿":12390,"產能":12391,"癌症":12392,"象徵":12393,"人為":12394,"花了":12395,"今天上午":12396,"龍頭":12397,"的貼文":12398,"自殺":12399,"甚麼":12400,"量能":12401,"才知道":12402,"率先":12403,"巴黎":12404,"理念":12405,"主播":12406,"民視":12407,"會的":12408,"假期":12409,"支持者":12410,"程式":12411,"連鎖":12412,"能否":12413,"召集人":12414,"各自":12415,"風波":12416,"制定":12417,"太大":12418,"發佈":12419,"短期":12420,"的他":12421,"豪宅":12422,"其他人":12423,"投資人":12424,"身分證":12425,"但因":12426,"工地":12427,"帶來的":12428,"美麗":12429,"游泳":12430,"三大":12431,"火山":12432,"歐元":12433,"會被":12434,"聯手":12435,"大聯盟":12436,"欣賞":12437,"的影片":12438,"原先":12439,"全家":12440,"撤離":12441,"的活動":12442,"蘆洲":12443,"org11":12444,"周圍":12445,"之中":12446,"簽約":12447,"住家":12448,"眾議員":12449,"將其":12450,"為由":12451,"罰金":12452,"首位":12453,"闖入":12454,"在去年":12455,"當前":12456,"基本上":12457,"的中":12458,"的防疫":12459,"部落":12460,"行人":12461,"湧入":12462,"理想":12463,"時段":12464,"藍色":12465,"滿意":12466,"過後":12467,"在這裡":12468,"對待":12469,"所謂的":12470,"下雨":12471,"開玩":12472,"到現在":12473,"停業":12474,"肚子":12475,"深圳":12476,"調查中":12477,"笑翻":12478,"預警":12479,"投訴":12480,"排名第":12481,"車內":12482,"敦促":12483,"交手":12484,"增強":12485,"學院":12486,"盟友":12487,"身穿":12488,"牠們":12489,"罹患":12490,"黨籍":12491,"憲法":12492,"最強":12493,"就職":12494,"感受到":12495,"平衡":12496,"陳男":12497,"但這":12498,"所得":12499,"老翁":12500,"補貼":12501,"期盼":12502,"隱瞞":12503,"反擊":12504,"含有":12505,"一顆":12506,"就不":12507,"我不":12508,"途中":12509,"多了":12510,"維修":12511,"傷者":12512,"收盤":12513,"明明":12514,"蟑螂":12515,"答案":12516,"反送中":12517,"罰鍰":12518,"放鬆":12519,"男生":12520,"有時":12521,"自從":12522,"驚訝":12523,"鄰近":12524,"薪水":12525,"澎湖":12526,"治安":12527,"從來":12528,"指責":12529,"每人":12530,"短缺":12531,"屍體":12532,"帛琉":12533,"難道":12534,"搭載":12535,"牛肉":12536,"暴增":12537,"犧牲":12538,"茶藝":12539,"長官":12540,"三立新聞網報導":12541,"下週":12542,"替代":12543,"自稱":12544,"更多三立新聞網報導":12545,"卻是":12546,"夫婦":12547,"客運":12548,"他們在":12549,"一組":12550,"開出":12551,"所屬":12552,"大戰":12553,"說話":12554,"讓大家":12555,"更多新聞":12556,"流程":12557,"表面":12558,"拍到":12559,"多家":12560,"競賽":12561,"也可":12562,"月起":12563,"拍賣":12564,"的說法":12565,"抵制":12566,"吃的":12567,"培訓":12568,"攻勢":12569,"聖誕":12570,"弱勢":12571,"科醫師":12572,"口感":12573,"小學":12574,"再來":12575,"語言":12576,"大流行":12577,"正是":12578,"金屬":12579,"開設":12580,"最重要":12581,"入侵":12582,"客車":12583,"怎樣":12584,"下台":12585,"第二次":12586,"。「<":12587,"延伸":12588,"今天下午":12589,"備受":12590,"主人":12591,"撤銷":12592,"進出":12593,"修改":12594,"火鍋":12595,"總監":12596,"退場":12597,"多達":12598,"災難":12599,"頻頻":12600,"報到":12601,"研究所":12602,"雙手":12603,"喝酒":12604,"在網路上":12605,"就已經":12606,"感染者":12607,"緩解":12608,"集體":12609,"世界上":12610,"哪些":12611,"放寬":12612,"氧氣":12613,"帶有":12614,"協定":12615,"月間":12616,"現年":12617,"選秀":12618,"寒流":12619,"連任":12620,"出來的":12621,"連敗":12622,"憤怒":12623,"辭職":12624,"差點":12625,"火災":12626,"燃燒":12627,"敘利亞":12628,"疼痛":12629,"睡眠":12630,"驚喜":12631,"歌曲":12632,"予以":12633,"專頁":12634,"更換":12635,"不清楚":12636,"缺水":12637,"派遣":12638,"塑膠":12639,"新莊":12640,"防守":12641,"得以":12642,"跨年":12643,"高峰":12644,"深入":12645,"第五":12646,"高風險":12647,"秘密":12648,"病毒的":12649,"新聞稿":12650,"英雄":12651,"具備":12652,"忘記":12653,"去過":12654,"獲勝":12655,"仍未":12656,"全都":12657,"則說":12658,"始終":12659,"招牌":12660,"斯拉":12661,"在內的":12662,"保育":12663,"合併":12664,"圖片":12665,"街道":12666,"仍是":12667,"輪流":12668,"目前的":12669,"專門":12670,"名將":12671,"事態":12672,"南非":12673,"新一":12674,"水準":12675,"水平":12676,"黨內":12677,"茶藝館":12678,"情況下":12679,"愛情":12680,"在過去":12681,"幾個月":12682,"才剛":12683,"的第一":12684,"紐約州":12685,"場地":12686,"蔬菜":12687,"上了":12688,"婚禮":12689,"勢力":12690,"修法":12691,"的學生":12692,"武裝":12693,"漲幅":12694,"扮演":12695,"上路":12696,"返家":12697,"本土病例":12698,"不讓":12699,"她表示":12700,"失望":12701,"愛心":12702,"可以在":12703,"更多民視":12704,"支出":12705,"某些":12706,"真是":12707,"更多民視新聞報導":12708,"期望":12709,"受損":12710,"飲酒":12711,"的主要":12712,"現有":12713,"per13":12714,"屋主":12715,"刻意":12716,"到來":12717,"騎車":12718,"多年來":12719,"理論":12720,"有什麼":12721,"我在":12722,"環球財經簡訊":12723,"當作":12724,"將繼續":12725,"要在":12726,"迎戰":12727,"全聯":12728,"收治":12729,"私下":12730,"那裡":12731,"現實":12732,"信仰":12733,"長者":12734,"民生":12735,"當晚":12736,"當事人":12737,"出道":12738,"航空公司":12739,"動員":12740,"未經":12741,"其中有":12742,"於今日":12743,"東區":12744,"和解":12745,"集中檢疫所":12746,"提出的":12747,"將他":12748,"成的":12749,"無線":12750,"毆打":12751,"回饋":12752,"預告":12753,"商圈":12754,"註冊":12755,"位在":12756,"的關鍵":12757,"與美國":12758,"法輪大法":12759,"單純":12760,"是很":12761,"謹慎":12762,"受訪時":12763,"個國家":12764,"綁架":12765,"說的":12766,"勇敢":12767,"極端":12768,"給你":12769,"看過":12770,"買房":12771,"影片中":12772,"住處":12773,"有時候":12774,"籃網":12775,"特地":12776,"的畫面":12777,"進來":12778,"那邊":12779,"甚至還":12780,"中華職棒":12781,"火力":12782,"先發投手":12783,"有了":12784,"水量":12785,"普選":12786,"的可能性":12787,"帶走":12788,"說要":12789,"行銷":12790,"更大":12791,"相處":12792,"妨害":12793,"安裝":12794,"貿易戰":12795,"觀念":12796,"已經在":12797,"民主派":12798,"!「":12799,"彷彿":12800,"得很":12801,"百姓":12802,"輸入":12803,"各科":12804,"女方":12805,"兩大":12806,"情勢":12807,"特斯拉":12808,"廢水":12809,"罪名":12810,"入口":12811,"這類":12812,"對台灣":12813,"過世":12814,"報稅":12815,"休閒":12816,"興建":12817,"沒有人":12818,"創新高":12819,"民宅":12820,"河北":12821,"單場":12822,"草莓":12823,"也希望":12824,"辨識":12825,"優質":12826,"多種":12827,"就開始":12828,"差異":12829,"為期":12830,"還有人":12831,"大生":12832,"官媒":12833,"日圓":12834,"行徑":12835,"這天":12836,"不要再":12837,"嚇得":12838,"了吧":12839,"保存":12840,"合計":12841,"現行":12842,"保守":12843,"投出":12844,"爸媽":12845,"鐵路":12846,"通緝":12847,"當地時間":12848,"制止":12849,"新鮮":12850,"標示":12851,"氧化":12852,"世界盃":12853,"日前在":12854,"挑釁":12855,"將由":12856,"間的":12857,"發行":12858,"外長":12859,"食用":12860,"的就是":12861,"安全的":12862,"消防局":12863,"任職":12864,"光是":12865,"戰力":12866,"驚見":12867,"中文":12868,"特區":12869,"已於":12870,"宿舍":12871,"打氣":12872,"血液":12873,"防衛":12874,"日公布":12875,"製造商":12876,"獨自":12877,"世代":12878,"血栓":12879,"其次":12880,"型的":12881,"熱身":12882,"認為是":12883,"重量":12884,"天使":12885,"上去":12886,"漏洞":12887,"先是":12888,"分為":12889,"遊藝":12890,"質量":12891,"隱私":12892,"規格":12893,"村民":12894,"眼鏡":12895,"傳遞":12896,"義務":12897,"幸好":12898,"跑到":12899,"強勁":12900,"的決定":12901,"但卻":12902,"的經濟":12903,"黑道":12904,"稱讚":12905,"事宜":12906,"各式":12907,"找不到":12908,"舒適":12909,"戲劇":12910,"在這個":12911,"英鎊":12912,"降至":12913,"限時":12914,"遶境":12915,"對他":12916,"早期":12917,"奇怪":12918,"一陣":12919,"尷尬":12920,"涉案":12921,"名人":12922,"被抓":12923,"營造":12924,"自己是":12925,"士頓":12926,"但因為":12927,"無關":12928,"過往":12929,"回報":12930,"最重要的":12931,"今日新聞":12932,"前方":12933,"月中旬":12934,"玩具":12935,"在家中":12936,"並以":12937,"升至":12938,"對比":12939,"隊的":12940,"虧損":12941,"入場":12942,"則有":12943,"另一名":12944,"士兵":12945,"克力":12946,"介於":12947,"好了":12948,"議長":12949,"中斷":12950,"校正":12951,"確診人數":12952,"效率":12953,"服裝":12954,"歷經":12955,"提供的":12956,"優秀":12957,"先進":12958,"打了":12959,"拉克":12960,"滿貫":12961,"大讚":12962,"每股":12963,"亮相":12964,"的車":12965,"點半":12966,"瞭解":12967,"一連":12968,"廚房":12969,"打擊率":12970,"停在":12971,"比亞":12972,"相互":12973,"性別":12974,"也有網友":12975,"三級":12976,"堅定":12977,"辯論":12978,"櫻花":12979,"驚呼":12980,"強硬":12981,"是他":12982,"猜測":12983,"瑞典":12984,"上下":12985,"深刻":12986,"最高的":12987,"一整":12988,"推出的":12989,"偷看":12990,"詐欺":12991,"進攻":12992,"截至目前":12993,"八大":12994,"終止":12995,"週末":12996,"間諜":12997,"口號":12998,"委託":12999,"架次":13000,"多項":13001,"泡麵":13002,"職場":13003,"算是":13004,"提交":13005,"火警":13006,"工程師":13007,"多歲男性":13008,"條款":13009,"這家":13010,"頭的":13011,"簽名":13012,"重建":13013,"低調":13014,"迎來":13015,"佩戴口罩":13016,"差不多":13017,"不管是":13018,"年起":13019,"黃色":13020,"專責":13021,"拘捕":13022,"阿公":13023,"在日本":13024,"骨折":13025,"才有":13026,"的台灣":13027,"贏球":13028,"遊藝場":13029,"如果你":13030,"出血":13031,"響應":13032,"一軍":13033,"不行":13034,"澳門":13035,"稍微":13036,"並列":13037,"吸收":13038,"委會":13039,"角落":13040,"訂閱":13041,"的相關":13042,"資格賽":13043,"奪得":13044,"小三":13045,"亮眼":13046,"克斯":13047,"司令":13048,"派員":13049,"錄取":13050,"通話":13051,"發生一起":13052,"但我":13053,"恆星":13054,"新人":13055,"春訓":13056,"夏天":13057,"日晚上":13058,"與中國":13059,"黨團":13060,"此戰":13061,"三分球":13062,"外的":13063,"歲以上":13064,"所在":13065,"黑衣人":13066,"到現場":13067,"租屋":13068,"重傷":13069,"半夜":13070,"對台":13071,"挑選":13072,"的聲音":13073,"為陰性":13074,"雞排":13075,"加盟":13076,"描述":13077,"陸軍":13078,"樣子":13079,"有一名":13080,"百分點":13081,"因而":13082,"厲害":13083,"洗澡":13084,"生效":13085,"更為":13086,"血壓":13087,"人妻":13088,"群組":13089,"不實":13090,"信義":13091,"浪漫":13092,"提問":13093,"元素":13094,"貼文一出":13095,"女王":13096,"干預":13097,"探索":13098,"工資":13099,"潛在":13100,"生氣":13101,"自行車":13102,"市的":13103,"場面":13104,"相關單位":13105,"啟用":13106,"一國":13107,"收費":13108,"發布的":13109,"性騷擾":13110,"警覺":13111,"後再":13112,"識別":13113,"失聯":13114,"市值":13115,"兩週":13116,"實名":13117,"案發":13118,"走了":13119,"重創":13120,"強迫":13121,"波及":13122,"周年":13123,"民眾的":13124,"不舒服":13125,"到處":13126,"原定":13127,"探測":13128,"也許":13129,"出現了":13130,"以為是":13131,"時機":13132,"登板":13133,"人事":13134,"因疫情":13135,"培養":13136,"有個":13137,"在大陸":13138,"廣州":13139,"會晤":13140,"沒事":13141,"賺錢":13142,"打到":13143,"政變":13144,"求助":13145,"激動":13146,"長照":13147,"門檻":13148,"情侶":13149,"格蘭":13150,"大廠":13151,"永續":13152,"物理":13153,"一段時間":13154,"一共":13155,"長大":13156,"事項":13157,"酒吧":13158,"容量":13159,"職員":13160,"定位":13161,"還原":13162,"獨特":13163,"缺席":13164,"部位":13165,"休旅":13166,"安置":13167,"復甦":13168,"星座":13169,"下周":13170,"桿的":13171,"的結果":13172,"室外":13173,"所有人":13174,"如果有":13175,"到達":13176,"總冠軍":13177,"遠距":13178,"副作用":13179,"心裡":13180,"作法":13181,"早就":13182,"還被":13183,"無失分":13184,"脂肪":13185,"佔中":13186,"喬治":13187,"不得不":13188,"加劇":13189,"地上":13190,"組長":13191,"小時內":13192,"人以上":13193,"即日起至":13194,"一口氣":13195,"佔領":13196,"各個":13197,"警示":13198,"是我":13199,"大使館":13200,"一群":13201,"不禁":13202,"分局長":13203,"是美國":13204,"分享的貼文":13205,"完工":13206,"流傳":13207,"走到":13208,"洋投":13209,"日舉行":13210,"的女":13211,"日中午":13212,"資本":13213,"供應商":13214,"巧克力":13215,"正當":13216,"求救":13217,"外媒":13218,"郵件":13219,"也因此":13220,"船隻":13221,"則在":13222,"遊覽":13223,"舉辦的":13224,"整理包":13225,"人選":13226,"不受":13227,"人被":13228,"走向":13229,"送給":13230,"工程車":13231,"的那":13232,"小區":13233,"不容":13234,"談話":13235,"發生了":13236,"一對":13237,"升高":13238,"娃娃":13239,"可能有":13240,"個百分點":13241,"副市長":13242,"日後":13243,"過敏":13244,"宣言":13245,"我們要":13246,"買了":13247,"這時":13248,"日晚":13249,"訊後":13250,"電報導":13251,"上門":13252,"小型":13253,"週刊":13254,"邪惡":13255,"憂心":13256,"依賴":13257,"共產":13258,"嚇壞":13259,"至少有":13260,"舒壓":13261,"難過":13262,"手套":13263,"傳媒":13264,"麵包":13265,"彰化縣":13266,"成就":13267,"爆紅":13268,"去世":13269,"大聲":13270,"的報導":13271,"的數據":13272,"三天":13273,"商家":13274,"壽司":13275,"是誰":13276,"民族":13277,"大方":13278,"高齡":13279,"是一種":13280,"裁判":13281,"都已經":13282,"兩制":13283,"有利":13284,"的疫情":13285,"炸彈":13286,"出遊":13287,"希臘":13288,"海鮮":13289,"軟件":13290,"零星":13291,"首長":13292,"代言":13293,"中說":13294,"日內":13295,"班機":13296,"等症狀":13297,"提醒民眾":13298,"除非":13299,"拜登政府":13300,"見狀":13301,"有許多":13302,"一時":13303,"樣的":13304,"群眾":13305,"求償":13306,"離職":13307,"出戰":13308,"大廈":13309,"大補":13310,"午餐":13311,"一系列":13312,"羈押":13313,"花費":13314,"蒙古":13315,"大氣":13316,"本屆":13317,"次數":13318,"搭乘大眾運輸":13319,"下方":13320,"將以":13321,"少了":13322,"搭機":13323,"無限":13324,"管控":13325,"樂天桃猿":13326,"照護":13327,"公務員":13328,"國的":13329,"各位":13330,"細菌":13331,"前一天":13332,"社交媒體":13333,"的同時":13334,"獅子會":13335,"台美":13336,"關押":13337,"面上":13338,"知情人士":13339,"大臣":13340,"會後":13341,"必考":13342,"檢警":13343,"移除":13344,"觀點":13345,"原因是":13346,"在臉書上":13347,"捷克":13348,"受到影響":13349,"初期":13350,"打數":13351,"處罰":13352,"法人":13353,"雞蛋":13354,"大道":13355,"主導":13356,"頻繁":13357,"頭痛":13358,"兩隊":13359,"恐懼":13360,"煞車":13361,"重慶":13362,"孩童":13363,"人心":13364,"彈性":13365,"這回":13366,"巨大的":13367,"首爾":13368,"累了嗎":13369,"的政治":13370,"臉部":13371,"但現在":13372,"公主":13373,"的行動":13374,"疫情期間":13375,"重點一次看":13376,"康復":13377,"法治":13378,"好吃":13379,"很久":13380,"外交部":13381,"必須要":13382,"獨家":13383,"首例":13384,"新型冠狀病毒":13385,"到醫院":13386,"原住民":13387,"遼寧":13388,"大門":13389,"首戰":13390,"往往":13391,"照片中":13392,"不應":13393,"肆虐":13394,"信號":13395,"專注":13396,"強度":13397,"作家":13398,"提議":13399,"美日":13400,"三重":13401,"人流":13402,"決策":13403,"集結":13404,"難度":13405,"無論是":13406,"風景":13407,"減肥":13408,"多雲":13409,"完畢":13410,"專利":13411,"市區":13412,"感恩":13413,"真正的":13414,"梅雨":13415,"一審":13416,"友善":13417,"承受":13418,"英里":13419,"護照":13420,"必考重點一次看":13421,"四川":13422,"外面":13423,"本月":13424,"柔道":13425,"放心":13426,"比利":13427,"血清":13428,"馬路":13429,"混亂":13430,"洋基":13431,"相當於":13432,"孩子的":13433,"找來":13434,"運送":13435,"悲劇":13436,"未來的":13437,"大學生":13438,"就可":13439,"棒球場":13440,"駁回":13441,"考驗":13442,"聯名":13443,"中壢":13444,"房地產":13445,"巨蛋":13446,"巨頭":13447,"這間學校":13448,"就怕":13449,"嫌疑":13450,"原始連結":13451,"加護":13452,"提起":13453,"確診案例":13454,"現階段":13455,"進帳":13456,"步驟":13457,"校正回歸":13458,"一壘":13459,"男方":13460,"讓網友":13461,"會再":13462,"金山":13463,"希望大家":13464,"水位":13465,"大補帖":13466,"例境外移入":13467,"深度":13468,"珍惜":13469,"找出":13470,"專輯":13471,"激增":13472,"官兵":13473,"通行":13474,"曾到":13475,"被控":13476,"面前":13477,"改名":13478,"選項":13479,"預報":13480,"財報":13481,"實質":13482,"比特":13483,"必要的":13484,"昏迷":13485,"搶購":13486,"災害":13487,"生育":13488,"時說":13489,"登山":13490,"銷量":13491,"新生":13492,"各科必考重點一次看":13493,"舒壓一下":13494,"洋將":13495,"看這間學校":13496,"秒偷看":13497,"中國人":13498,"有多鬧":13499,"漫畫舒壓一下":13500,"讀書累了嗎":13501,"衝刺大補帖":13502,"看這間學校有多鬧":13503,"秒偷看漫畫舒壓一下":13504,"截止":13505,"收集":13506,"警方調查":13507,"較為":13508,"本土疫情":13509,"未滿":13510,"要去":13511,"預購":13512,"干擾":13513,"吞下":13514,"天天":13515,"將來":13516,"增加了":13517,"位數":13518,"香港報導":13519,"勤務":13520,"按讚":13521,"淘汰":13522,"申辦":13523,"難得":13524,"將從":13525,"美的":13526,"綜合外電報導":13527,"轉播":13528,"廢棄":13529,"可能在":13530,"隱藏":13531,"開除":13532,"子彈":13533,"店面":13534,"毫米":13535,"影響到":13536,"亞太":13537,"手上":13538,"幾十":13539,"將對":13540,"的男子":13541,"美軍":13542,"萬個":13543,"的機率":13544,"請大家":13545,"上周":13546,"也已":13547,"氣得":13548,"視覺":13549,"電商":13550,"怎麼辦":13551,"教育會考":13552,"入圍":13553,"手法":13554,"東森":13555,"緊急狀態":13556,"各縣市":13557,"嚴厲":13558,"是最":13559,"外套":13560,"氛圍":13561,"與台灣":13562,"負面":13563,"劑疫苗":13564,"」「":13565,"產量":13566,"不法":13567,"倒地":13568,"病情":13569,"神秘":13570,"多處":13571,"常委":13572,"給了":13573,"困境":13574,"大師":13575,"清理":13576,"福原":13577,"表決":13578,"貨櫃":13579,"代表處":13580,"罹難者":13581,"大停電":13582,"資料顯示":13583,"發票":13584,"防堵":13585,"寫著":13586,"打球":13587,"熱身賽":13588,"太過":13589,"跌幅":13590,"上車":13591,"不大":13592,"場域":13593,"陌生":13594,"戴著":13595,"作者":13596,"起飛":13597,"而非":13598,"雙邊":13599,"搶先":13600,"消防人員":13601,"一件":13602,"山東":13603,"人群":13604,"會中":13605,"匯率":13606,"很少":13607,"結帳":13608,"這麼多":13609,"當成":13610,"民主黨人":13611,"國中教育會考":13612,"野生":13613,"雇主":13614,"動物園":13615,"大爆發":13616,"成熟":13617,"對我":13618,"農場":13619,"守備":13620,"致命":13621,"地圖":13622,"外線":13623,"震撼":13624,"偶像":13625,"博物":13626,"曬出":13627,"警力":13628,"新北報導":13629,"分打點":13630,"外觀":13631,"逃離":13632,"審議":13633,"殺害":13634,"的調查":13635,"享有":13636,"自己在":13637,"演說":13638,"還是會":13639,"心疼":13640,"慢性":13641,"內心":13642,"出版":13643,"更好的":13644,"男人":13645,"感嘆":13646,"舞弊":13647,"頻率":13648,"新冠疫情":13649,"研議":13650,"伊拉克":13651,"醜聞":13652,"一堆":13653,"擴張":13654,"適應":13655,"院所":13656,"是以":13657,"一日":13658,"共享":13659,"樂園":13660,"上映":13661,"汽油":13662,"陽光":13663,"開玩笑":13664,"大腦":13665,"如同":13666,"青少年":13667,"孩子們":13668,"後發現":13669,"性感":13670,"熱火":13671,"牛奶":13672,"一再":13673,"戰勝":13674,"德里":13675,"情人":13676,"目的是":13677,"獎勵":13678,"登錄":13679,"虛擬":13680,"被敲":13681,"開庭":13682,"下半":13683,"也提到":13684,"開門":13685,"人民的":13686,"病床":13687,"動手":13688,"單一":13689,"被警方":13690,"不合":13691,"公費":13692,"生素":13693,"這隻":13694,"全隊":13695,"被稱為":13696,"日將":13697,"還得":13698,"處置":13699,"掉了":13700,"相機":13701,"被打":13702,"並要求":13703,"主因":13704,"被視為":13705,"不已":13706,"也不是":13707,"穿上":13708,"加護病房":13709,"聯網":13710,"肥皂":13711,"不只是":13712,"小吃":13713,"剩下":13714,"配備":13715,"!」[":13716,"鋼鐵":13717,"對著":13718,"拜託":13719,"院方":13720,"注意到":13721,"在家裡":13722,"姓名":13723,"油價":13724,"的能力":13725,"過失":13726,"另一方面":13727,"遊覽車":13728,"年多":13729,"暫緩":13730,"個多":13731,"傷口":13732,"時至":13733,"用了":13734,"暫停營業":13735,"供水":13736,"清水":13737,"去做":13738,"主辦單位":13739,"一律":13740,"又是":13741,"拆除":13742,"本國籍":13743,"終結":13744,"海巡":13745,"偵測":13746,">+<":13747,"往來":13748,"後就":13749,"雲林縣":13750,"可達":13751,"電台":13752,"如果是":13753,"的一部分":13754,"認知":13755,"後才":13756,"攀升":13757,"眼神":13758,"下次":13759,"也可能":13760,"智庫":13761,"去年底":13762,"準備好":13763,"他就":13764,"幹部":13765,"玩家":13766,"輻射":13767,"不捨":13768,"以北":13769,"我們在":13770,"這不是":13771,"輕微":13772,"報導稱":13773,"左投":13774,"疫情警戒":13775,"復出":13776,"基隆市":13777,"手中":13778,"蒐集":13779,"博物館":13780,"率為":13781,"確診數":13782,"夜間":13783,"門診":13784,"主動通報":13785,"佛羅":13786,"機密":13787,"馬拉松":13788,"加快":13789,"小客車":13790,"排行":13791,"鑽石":13792,"白宮":13793,"快新聞":13794,"百年":13795,"編譯":13796,"證券":13797,"市場的":13798,"日於":13799,"參觀":13800,"看得":13801,"二十":13802,"竊取":13803,"消防員":13804,"北上":13805,"他強調":13806,"倒數":13807,"商場":13808,"屏東縣":13809,"心中":13810,"播放":13811,"腫瘤":13812,"確診的":13813,"想說":13814,"per14":13815,"來不及":13816,"滅火":13817,"轄區":13818,"開了":13819,"但有":13820,"後果":13821,"水氣":13822,"生存":13823,"強的":13824,"這張":13825,"業界":13826,"登陸":13827,"邊界":13828,"伊斯":13829,"熱量":13830,"有些人":13831,"芯片":13832,"信用卡":13833,"抱歉":13834,"但目前":13835,"適用":13836,"也宣布":13837,"內閣":13838,"期滿":13839,"的方法":13840,"演藝圈":13841,"副主席":13842,"美味":13843,"富邦悍將":13844,"年在":13845,"範圍內":13846,"補償":13847,"會讓":13848,"高壓":13849,"年開始":13850,"上限":13851,"下架":13852,"頒獎":13853,"下旬":13854,"的內容":13855,"粉絲專頁":13856,"核四":13857,"部會":13858,"主力":13859,"冰箱":13860,"分數":13861,"趁著":13862,"第一階段":13863,"說不":13864,"送辦":13865,"完善":13866,"碰到":13867,"第二季":13868,"十足":13869,"平日":13870,"達州":13871,"研究員":13872,"催淚":13873,"再生":13874,"哪個":13875,"體制":13876,"季節":13877,"強勢":13878,"福原愛":13879,"天宮":13880,"心跳":13881,"的人數":13882,"乖乖":13883,"在地上":13884,"達成協議":13885,"依規定":13886,"不必":13887,"不應該":13888,"代價":13889,"建商":13890,"樣本":13891,"轉發":13892,"過於":13893,"清消":13894,"與其他":13895,"黑洞":13896,"上次":13897,"不利":13898,"平方":13899,"飛球":13900,"單身":13901,"救治":13902,"死因":13903,"姊姊":13904,"改造":13905,"比起":13906,"群體":13907,"機器人":13908,"台鐵":13909,"意圖":13910,"據報導":13911,"的位置":13912,"充足":13913,"西區":13914,"製造業":13915,"交保":13916,"往前":13917,"美國和":13918,"警察局":13919,"不懂":13920,"駭客":13921,"大阪":13922,"預料":13923,"走出":13924,"喬治亞":13925,"名額":13926,"瓦斯":13927,"裁決":13928,"效應":13929,"二審":13930,"武力":13931,"領取":13932,"會議上":13933,"公頃":13934,"暗示":13935,"香港市民":13936,"療癒":13937,"撤回":13938,"竟是":13939,"與其":13940,"小時候":13941,"做為":13942,"主管機關":13943,"聲明中說":13944,"前夕":13945,"的兩":13946,"請假":13947,"西部":13948,"顯著":13949,"姐姐":13950,"org12":13951,"個月的":13952,"勸導":13953,"數學":13954,"展覽":13955,"體內":13956,"很可能":13957,"孕婦":13958,"目前已經":13959,"曾有":13960,"碰撞":13961,"太平":13962,"外資":13963,"松山":13964,"瘋傳":13965,"要有":13966,"同行":13967,"拉斯":13968,"活動的":13969,"任命":13970,"地的":13971,"永久":13972,"面板":13973,"不會有":13974,">。」":13975,"圖書":13976,"還是有":13977,"辦事":13978,"驚傳":13979,"緊急事態":13980,"慘遭":13981,"機械":13982,"錯過":13983,"現在是":13984,"萬華區":13985,"不便":13986,"運營":13987,"在接受":13988,"大獎":13989,"相似":13990,"豆腐":13991,"和美國":13992,"港警":13993,"的過程":13994,"不易":13995,"查出":13996,"花園":13997,"無力":13998,"熱烈討論":13999,"有助於":14000,"受理":14001,"查證":14002,"言論自由":14003,"一國兩制":14004,"不堪":14005,"他將":14006,"追究":14007,"交換":14008,"日財經":14009,"每一":14010,"雨傘":14011,"比賽中":14012,"法辦":14013,"高雄報導":14014,"全市":14015,"埃及":14016,"這次的":14017,"戀愛":14018,"酒測":14019,"返鄉":14020,"關聯":14021,"儘快":14022,"既然":14023,"不確定":14024,"縮短":14025,"利潤":14026,"標誌":14027,"的三":14028,"早日":14029,"重的":14030,"首批":14031,"人大":14032,"保全":14033,"台南報導":14034,"一周":14035,"富豪":14036,"重複":14037,"比利時":14038,"拉開":14039,"衝撞":14040,"出現疑似症狀":14041,"前面":14042,"奪下":14043,"攔截":14044,"除此":14045,"是對":14046,"東奧":14047,"運河":14048,"萬元的":14049,"正妹":14050,"藥品":14051,"調度":14052,"贊助":14053,"外型":14054,"男孩":14055,"福島":14056,"我有":14057,"截圖":14058,"要不要":14059,"媳婦":14060,"難民":14061,"等問題":14062,"萬戶":14063,"試試":14064,"庫存":14065,"唱歌":14066,"日益":14067,"月以來":14068,"途徑":14069,"不變":14070,"進香":14071,"上台":14072,"右外野":14073,"總數":14074,"實名制":14075,"、「":14076,"看似":14077,"在臉書發文":14078,"接收":14079,"的速度":14080,"聚焦":14081,"脫離":14082,"賓士":14083,"限電":14084,"大專":14085,"崗位":14086,"車頭":14087,"高球":14088,"這是一個":14089,"獲報後":14090,"強大":14091,"的地":14092,"還未":14093,"不上":14094,"是非常":14095,"外交官":14096,"可愛的":14097,"目前正在":14098,"阿姨":14099,"陣容":14100,"呼吸道":14101,"目睹":14102,"錄音":14103,"內政":14104,"場景":14105,"甜點":14106,"越來越多":14107,"發送":14108,"的國際":14109,"覆蓋":14110,"都將":14111,"革命":14112,"大力":14113,"用電":14114,"爾夫":14115,"尺寸":14116,"明白":14117,"減輕":14118,"我們將":14119,"研究者":14120,"加工":14121,"很容易":14122,"老年":14123,"大麻":14124,"無效":14125,"都市":14126,"發現了":14127,"前線":14128,"名義":14129,"職籃":14130,"跟進":14131,"量測":14132,"海關":14133,"收看":14134,"隊史":14135,"出色":14136,"追平":14137,"任期":14138,"假的":14139,"糖尿":14140,"的健康":14141,"目前為止":14142,"聲請":14143,"降到":14144,"核武":14145,"港版":14146,"第六":14147,"裁罰":14148,"暴動":14149,"請先":14150,"輔助":14151,"的狀態":14152,"還將":14153,"高等":14154,"原訂":14155,"躺在":14156,"轉為":14157,"顯得":14158,"活動史":14159,"倫敦奧運":14160,"夫人":14161,"親子":14162,"隱形":14163,"方面的":14164,"分的":14165,"日早上":14166,"果然":14167,"現況":14168,"關門":14169,"劇情":14170,"日本的":14171,"景象":14172,"冷凍":14173,"指引":14174,"日出現":14175,"洪水":14176,"纖維":14177,"衛冕":14178,"存款":14179,"王子":14180,"轉向":14181,"強力":14182,"評價":14183,"早前":14184,"防疫規定":14185,"不該":14186,"獅隊":14187,"上百":14188,"四個":14189,"燃料":14190,"人次":14191,"被指":14192,"兩種":14193,"女學生":14194,"loc4":14195,"屋內":14196,"是一名":14197,"影響力":14198,"巡迴":14199,"他與":14200,"全年":14201,"經紀人":14202,"在該":14203,"脫歐":14204,"這些人":14205,"也因為":14206,"巴士":14207,"從去年":14208,"的特":14209,"自信":14210,"西半部":14211,"要把":14212,"淡水":14213,"堅決":14214,"伊斯蘭":14215,"商機":14216,"每週":14217,"華裔":14218,"分之":14219,"就沒有":14220,"幕後":14221,"覺得很":14222,"據點":14223,"會持續":14224,"的一些":14225,"較高":14226,"病毒疫情":14227,"抨擊":14228,"推遲":14229,"此案":14230,"四大":14231,"除此之外":14232,"下半年":14233,"活躍":14234,"游擊":14235,"包圍":14236,"執勤":14237,"看出":14238,"統治":14239,"美股":14240,"已經是":14241,"日媒":14242,"駕車":14243,"預計在":14244,"完全沒有":14245,"中繼":14246,"趨緩":14247,"備戰":14248,"慰問":14249,"阿根":14250,"驗證":14251,"媒體人":14252,"流量":14253,"舉報":14254,"號召":14255,"台中報導":14256,">」。":14257,"近況":14258,"遲遲":14259,"近距離":14260,"額外":14261,"戴好":14262,"舞蹈":14263,"著名":14264,"很重要":14265,"性能":14266,"等候":14267,"與會":14268,"國內外":14269,"強行":14270,"救災":14271,"販賣":14272,"嘉義縣":14273,"分布":14274,"受惠":14275,"可說是":14276,"最初":14277,"都已":14278,"漁船":14279,"阿根廷":14280,"步道":14281,"火腿":14282,"雲端":14283,"不少民眾":14284,"群聚案":14285,"中山":14286,"可在":14287,"擦撞":14288,"之所以":14289,"出租":14290,"拿來":14291,"之處":14292,"包裹":14293,"法第":14294,"這幾天":14295,"瑞拉":14296,"的海":14297,"跟他":14298,"手臂":14299,"林男":14300,"準確":14301,"輪胎":14302,"保安":14303,"平壤":14304,"施政":14305,"學測":14306,"教室":14307,"無辜":14308,"開工":14309,"層樓":14310,"熱鬧":14311,"的要求":14312,"接受媒體":14313,"國產疫苗":14314,"變遷":14315,"還表示":14316,"萬美元的":14317,"流動":14318,"原料":14319,"回顧":14320,"演練":14321,"上街":14322,"五月":14323,"本周":14324,"的政策":14325,"行李":14326,"短暫雨":14327,"在他":14328,"糖尿病":14329,"清明":14330,"網搜":14331,"進行的":14332,"成人":14333,"最有":14334,"網友熱議":14335,"下場":14336,"來愈":14337,"內湖":14338,"是從":14339,"判定":14340,"他指出":14341,"喪生":14342,"直擊":14343,"今次":14344,"同比":14345,"出身":14346,"更高":14347,"冷靜":14348,"半小時":14349,"寶貝":14350,"無罪":14351,"退役":14352,"冬季":14353,"場合":14354,"一名女子":14355,"口角":14356,"例本土病例":14357,"攤商":14358,"結論":14359,"訪台":14360,"旅遊泡泡":14361,"仇恨":14362,"元旦":14363,"天空":14364,"貿易協議":14365,"他會":14366,"劇中":14367,"局面":14368,"愈來愈":14369,"的需求":14370,"佛羅里":14371,"同胞":14372,"縮小":14373,"連接":14374,"整理報導":14375,"動機":14376,"火車站":14377,"腳步":14378,"已經被":14379,"地主":14380,"密集":14381,"抓捕":14382,"最早":14383,"發現有":14384,"免付費":14385,"大增":14386,"不敵":14387,"訊號":14388,"創業":14389,"與此":14390,"重回":14391,"太空人":14392,"飼養":14393,"場的":14394,"世界各地":14395,"傳聞":14396,"建造":14397,"美女":14398,"網友紛紛":14399,"嚇到":14400,"輩子":14401,"台灣鳳梨":14402,"目前在":14403,"專案小組":14404,"聚餐":14405,"驗出":14406,"用途":14407,"加重":14408,"而被":14409,"道德":14410,"今天宣布":14411,"中心的":14412,"在推特上":14413,"偽造":14414,"涵蓋":14415,"審判":14416,"有無":14417,"女單":14418,"發生後":14419,"網友在":14420,"成效":14421,"手指":14422,"訪民":14423,"走路":14424,"望遠":14425,"他對":14426,"凸顯":14427,"彈道":14428,"送上":14429,"新任":14430,"類的":14431,"公共場所":14432,"休旅車":14433,"名稱":14434,"愛國":14435,"死了":14436,"見證":14437,"為例":14438,"的環境":14439,"天然氣":14440,"不願意":14441,"抱著":14442,"核准":14443,"速瞄":14444,"遠離":14445,"三名":14446,"就這樣":14447,"男星":14448,"精準":14449,"美國駐":14450,"感染源不明":14451,"致力於":14452,"上線":14453,"怎料":14454,"桃園報導":14455,"網搜小組":14456,"節目中":14457,"浙江":14458,"隔壁":14459,"入選":14460,"守住":14461,"左外野":14462,"控訴":14463,"次長":14464,"盤中":14465,"示範":14466,"國中教育會考衝刺大補帖":14467,"親密":14468,"抗議者":14469,"不安":14470,"並與":14471,"大喊":14472,"指稱":14473,"氣體":14474,"看不到":14475,"如期":14476,"帶給":14477,"漢堡":14478,"船員":14479,"副局長":14480,"明日":14481,"不時":14482,"吃了":14483,"命中率":14484,"們的":14485,"包商":14486,"在現場":14487,"為台灣":14488,"戰術":14489,"混合":14490,"受歡迎":14491,"技巧":14492,"此役":14493,"也對":14494,"就曾":14495,"洗衣":14496,"但由於":14497,"宛如":14498,"補充說":14499,"惡劣":14500,"第三級":14501,"太陽能":14502,"蛋白質":14503,"珍珠":14504,"保健":14505,"學童":14506,"務必告知醫師旅遊史":14507,"走進":14508,"港版國安法":14509,"增添":14510,"女人":14511,"捕手":14512,"獎項":14513,"監視器畫面":14514,"福建":14515,"設有":14516,"夏季":14517,"大滿貫":14518,"氣炸":14519,"萬的":14520,">,「":14521,"中外野":14522,"房市":14523,"在國際":14524,"委內":14525,"鄉親":14526,"掩蓋":14527,"委內瑞拉":14528,"姊妹":14529,"宣告不治":14530,"玫瑰":14531,"短時間":14532,"總統的":14533,"傳奇":14534,"犯行":14535,"他和":14536,"攝取":14537,"出一":14538,"玉米":14539,"的老":14540,"防疫工作":14541,"這也":14542,"高爾夫":14543,"俄國":14544,"交代":14545,"幅度":14546,"式的":14547,"物體":14548,"防控":14549,"因為疫情":14550,"學長":14551,"節奏":14552,"連線":14553,"下面請看":14554,"熱心":14555,"新竹市":14556,"斯特":14557,"足以":14558,"離世":14559,"黃男":14560,"問題的":14561,"乾脆":14562,"種植":14563,"將被":14564,"心態":14565,"欺詐":14566,"待遇":14567,"致詞":14568,"這件":14569,"各方":14570,"東北部":14571,"軍機":14572,"歷史新高":14573,"奶奶":14574,"盡力":14575,"聰明":14576,"金錢":14577,"好轉":14578,"是台灣":14579,"踴躍":14580,"也無法":14581,"隨便":14582,"夢幻":14583,"輛車":14584,"這樣做":14585,"比特幣":14586,"主打":14587,"比對":14588,"首日":14589,"五大":14590,"偷偷":14591,"甜蜜":14592,"生肖":14593,"我相信":14594,"買賣":14595,"履行":14596,"空域":14597,"阿拉伯":14598,"並向":14599,"晚餐":14600,"毀損":14601,"笑容":14602,"華航":14603,"夢想家":14604,"平等":14605,"引爆":14606,"從而":14607,"那種":14608,"人員的":14609,"營養師":14610,"卸任":14611,"復健":14612,"滲透":14613,"大跌":14614,"簡直":14615,"在新":14616,"打線":14617,"視頻顯示":14618,"舊金山":14619,"邊緣":14620,"日正式":14621,"的經驗":14622,"選出":14623,"降落":14624,"買到":14625,"改成":14626,"煙火":14627,"代謝":14628,"撞到":14629,"送出":14630,"都不會":14631,"設計師":14632,"無緣":14633,"被人":14634,"望遠鏡":14635,"祝賀":14636,"上空":14637,"收藏":14638,"約談":14639,"署長":14640,"首勝":14641,"人與":14642,"年終":14643,"官員表示":14644,"例行賽":14645,"打卡":14646,"股份":14647,"建築物":14648,"一台":14649,"興達":14650,"鑑定":14651,"總統大選":14652,"個月內":14653,"獲准":14654,"老闆娘":14655,"也紛紛":14656,"吃緊":14657,"貨物":14658,"大甲":14659,"票房":14660,"長榮":14661,"三立新聞網提醒您":14662,"大哥":14663,"會是":14664,"級的":14665,"闖進":14666,"不顧":14667,"觀賞":14668,"疫苗施打":14669,"回應了":14670,"宜蘭縣":14671,"卡在":14672,"彩券":14673,"美金":14674,"外交部長":14675,"亮點":14676,"解讀":14677,"原油":14678,"開展":14679,"甚至是":14680,"不去":14681,"要注意":14682,"其中一名":14683,"實習編輯":14684,"約為":14685,"投資者":14686,">+":14687,"勇氣":14688,"好消息":14689,"懲罰":14690,"熱愛":14691,"紐西蘭":14692,"台北市議員":14693,"三年":14694,"再增":14695,"培育":14696,"大法官":14697,"肥皂勤洗手":14698,"做得":14699,"月至":14700,"簽下":14701,"董事會":14702,"引進":14703,"救出":14704,"日進行":14705,"喪命":14706,"爭執":14707,"自助":14708,"美國對":14709,"但沒有":14710,"修訂":14711,"在美":14712,"日報":14713,"消化":14714,"穿越":14715,"中毒":14716,"丹麥":14717,"以便":14718,"比照":14719,"羅東":14720,"忘了":14721,"系統的":14722,"奶茶":14723,"時任":14724,"時起":14725,"面試":14726,"在中":14727,"攝氏":14728,"男單":14729,"買家":14730,"飛往":14731,"比較好":14732,"大人":14733,"年至":14734,"退黨":14735,"陸媒":14736,"溫馨":14737,"大隊":14738,"打進":14739,"新品":14740,"時程":14741,"翻譯":14742,"指揮官陳時中":14743,"文中":14744,"請民眾":14745,"轉換":14746,"雨量":14747,"防空":14748,"霸氣":14749,"任何人":14750,"撥打防疫專線":14751,"定義":14752,"深受":14753,"艱難":14754,"將成為":14755,"號的":14756,"免付費防疫專線":14757,"收容":14758,"儲存":14759,"是不":14760,"姿勢":14761,"就把":14762,"珠寶":14763,"祈福":14764,"裡頭":14765,"一舉":14766,"他有":14767,"源頭":14768,"漲價":14769,"犯嫌":14770,"黨派":14771,"夫妻倆":14772,"周遭":14773,"勝投":14774,"林口":14775,"突發":14776,"嘉義市":14777,"刊登":14778,"的球員":14779,"臉上":14780,"若身體不適":14781,"也指出":14782,"農產品":14783,"並戴上口罩":14784,"添加":14785,"阿里":14786,"學年度":14787,"微信":14788,"請問":14789,"辯稱":14790,"地鐵":14791,"的公司":14792,"看守":14793,"連環":14794,"還需要":14795,"於今日確診":14796,"人道":14797,"打席":14798,"計票":14799,"多歲女性":14800,"之內":14801,"我都":14802,"考場":14803,"受訪者":14804,"實行":14805,"庇護":14806,"打得":14807,"民宿":14808,"轟炸":14809,"吾爾":14810,"客場":14811,"床上":14812,"陣子":14813,"事先":14814,"女將":14815,"幹嘛":14816,"查緝":14817,"維吾爾":14818,"雙雙":14819,"原來是":14820,"密碼":14821,"機的":14822,"濃度":14823,"也呼籲":14824,"在野":14825,"的做法":14826,"你要":14827,"各級":14828,"巴馬":14829,"持刀":14830,"說出":14831,"連日":14832,"進到":14833,"零件":14834,"比分":14835,"震盪":14836,"交由":14837,"侵害":14838,"又被":14839,"或無法":14840,"月開始":14841,"這場比賽":14842,"也不能":14843,"請主動通報":14844,"很高":14845,"房貸":14846,"月在":14847,"破裂":14848,"抵台":14849,"有超過":14850,"標語":14851,"的威脅":14852,"答應":14853,"身高":14854,"天內出現疑似症狀":14855,"回國若身體不適":14856,"請先撥打防疫專線":14857,"並戴上口罩儘速就醫":14858,"天內出現疑似症狀請先撥打防疫專線":14859,"回國若身體不適請主動通報":14860,"停工":14861,"期刊":14862,"停留":14863,"就不會":14864,"快艇":14865,"所以我們":14866,"時光":14867,"曾於":14868,"洗腦":14869,"以確保":14870,"模糊":14871,"桃園市長":14872,"目擊者":14873,"塞爾":14874,"習近":14875,"高雄市長":14876,"新竹縣":14877,"公正":14878,"或其他":14879,"教官":14880,"英語":14881,"體力":14882,"可上訴":14883,"股指":14884,"能讓":14885,"很好的":14886,"今日上午":14887,"身體狀況":14888,"防範新冠肺炎":14889,"流浪":14890,"每一個":14891,"濫用":14892,"大家的":14893,"本季第":14894,"套房":14895,"上千":14896,"來講":14897,"壟斷":14898,"我知道":14899,"案情":14900,"一面":14901,"上半場":14902,"對其":14903,"開學":14904,"個資":14905,"幽默":14906,"老鼠":14907,"衰退":14908,"告別":14909,"場館":14910,"其他地區":14911,"化妝":14912,"習近平":14913,"也強調":14914,"找回":14915,"反覆":14916,"世界排名":14917,">」<":14918,"二壘安打":14919,"不像":14920,"撲滅":14921,"時報":14922,"副主任":14923,"司長":14924,"柏忌":14925,"死刑":14926,"生長":14927,"鏡週刊":14928,"的模樣":14929,"裁員":14930,"轉變":14931,"邊坡":14932,"搞笑":14933,"的長":14934,"致電":14935,"沙發":14936,"航母":14937,"追問":14938,"高階":14939,">、、":14940,"衛生紙":14941,"不穩定":14942,"優異":14943,"的情形":14944,"大家一起":14945,"主演":14946,"而他":14947,"感冒":14948,"春季":14949,"用心":14950,"藍營":14951,"...<":14952,"主流":14953,"的最大":14954,"緊密":14955,"首季":14956,"本土案例":14957,"這段時間":14958,"可疑":14959,"建案":14960,"本案":14961,"遊樂":14962,"飲品":14963,"馬祖":14964,"河南":14965,"老虎":14966,"貴的":14967,"貿易談判":14968,"出境":14969,"探視":14970,"暴露":14971,"港口":14972,"簽訂":14973,"」。「":14974,"--------":14975,"徵收":14976,"物流":14977,"雷達":14978,"管理局":14979,"國旗":14980,"建置":14981,"南方":14982,"在台北":14983,"月下旬":14984,"國內新增":14985,"接任":14986,"永和":14987,"通路":14988,"類型":14989,"其中一":14990,"就此":14991,"更多人":14992,"許多民眾":14993,"抑制":14994,"放置":14995,"清洗":14996,"的最新":14997,"因為他":14998,"篩檢站":14999,"市議員":15000,"旗艦":15001,"歲以下":15002,"則以":15003,"加大":15004,"學術":15005,"沿海":15006,"率領":15007,"就很":15008,"死於":15009,"海底":15010,"盤點":15011,"舉例":15012,"臉書社團":15013,">../":15014,"本地":15015,"站出來":15016,"財富":15017,"雙重":15018,"為了讓":15019,"航行":15020,"郵寄":15021,"醫院的":15022,"人是":15023,"則為":15024,"患有":15025,"新店":15026,"期的":15027,"脫困":15028,"賓州":15029,"上季":15030,"地板":15031,"服飾":15032,"賽的":15033,"主嫌":15034,"洲際":15035,"無數":15036,"窗戶":15037,"今天是":15038,"力道":15039,"得主":15040,"應使用":15041,"次的":15042,"這條":15043,"一級":15044,"達人":15045,"分隊":15046,"分左右":15047,"抵抗":15048,"今日公布":15049,"南投縣":15050,"但如果":15051,"擺脫":15052,"材質":15053,"驚險":15054,"巨人":15055,"快篩站":15056,"十年":15057,"扶助":15058,"高中生":15059,"回升":15060,"支撐":15061,"湖南":15062,"另一半":15063,"與此同時":15064,"共機":15065,"受邀":15066,"清單":15067,"行列":15068,"那樣":15069,"不動產":15070,"變形":15071,"恢復正常":15072,"兩黨":15073,"師傅":15074,"而來":15075,"讓台灣":15076,"陽台":15077,"最新的":15078,"社群媒體":15079,"大漲":15080,"謠言":15081,"關節":15082,"軍艦":15083,"圖書館":15084,"入黨":15085,"取締":15086,"景觀":15087,"產權":15088,"諷刺":15089,"一把":15090,"副院長":15091,"延遲":15092,"請辭":15093,"捕捉":15094,"美容":15095,"難免":15096,"花蓮縣":15097,"獲取":15098,"的精神":15099,"不怕":15100,"學會":15101,"羽球":15102,"量體溫":15103,"去看":15104,"繁榮":15105,"日與":15106,"資助":15107,"per15":15108,"工作者":15109,"務必戴上口罩":15110,"四處":15111,"每個月":15112,"無視":15113,"疫情擴散":15114,"重挫":15115,"鑰匙":15116,"結果顯示":15117,"也已經":15118,"入學":15119,"肢體":15120,"誤會":15121,"豪華":15122,"車型":15123,"的一年":15124,"火燒":15125,"長賜":15126,"當地的":15127,"出示":15128,"北投":15129,"會見":15130,"發聲明":15131,"的發展":15132,"含量":15133,"想起":15134,"綜藝":15135,"著手":15136,"那是":15137,"的責任":15138,"的成績":15139,"這筆":15140,"上任後":15141,"收在":15142,"每位":15143,"焦慮":15144,"難關":15145,"服用":15146,"校內":15147,"積分":15148,"的一次":15149,"核廢水":15150,"正值":15151,"要做":15152,"自己也":15153,"產生的":15154,"或無法保持社交距離":15155,"爭奪":15156,"的重要性":15157,"交付":15158,"但還是":15159,"名譽":15160,"季度":15161,"賽程":15162,"通車":15163,"僅剩":15164,"宮廟":15165,"未料":15166,"默默":15167,"第一天":15168,"幕僚":15169,"漸漸":15170,"特價":15171,"的規定":15172,"當時的":15173,"」?":15174,"下一個":15175,"曾與":15176,"牛棚":15177,"香氣":15178,"一支":15179,"凍結":15180,"原廠":15181,"打臉":15182,"站上":15183,"航運":15184,"?」「":15185,"贊成":15186,"阻擋":15187,"雞排妹":15188,"不等":15189,"包包":15190,"子宮":15191,"解答":15192,"但其實":15193,"有一些":15194,"清真":15195,"相繼":15196,"罷工":15197,"壓力大":15198,"波蘭":15199,"石頭":15200,"脖子":15201,"採取行動":15202,"人染疫":15203,"奧斯":15204,"輸出":15205,"一樣的":15206,"潛艦":15207,"澤西":15208,"牙齒":15209,"瘟疫":15210,"帶到":15211,"手部":15212,"腳踏":15213,"防疫破口":15214,"肺炎疫情":15215,"搭乘大眾運輸或無法保持社交距離":15216,"應使用肥皂勤洗手":15217,"搭乘大眾運輸或無法保持社交距離時":15218,"央行":15219,"釀成":15220,"最新報導":15221,"採訪時":15222,"驕傲":15223,"藝術家":15224,"再見":15225,"台電":15226,"射擊":15227,"我希望":15228,"的設計":15229,"一座":15230,"傾向":15231,"就說":15232,"散步":15233,"比數":15234,"激勵":15235,"碰上":15236,"例本土個案":15237,"已達":15238,"江蘇":15239,"王室":15240,"新聞發布":15241,"常見的":15242,"內野":15243,"場上":15244,"復興":15245,"裝潢":15246,"全校":15247,"的空間":15248,"過量":15249,"克服":15250,"生前":15251,"職位":15252,"里程":15253,"報告指出":15254,"數千":15255,"球衣":15256,"腐敗":15257,"根本是":15258,"婚後":15259,"技能":15260,"支持台灣":15261,"組成的":15262,"動畫":15263,"契約":15264,"就以":15265,"布局":15266,"最美":15267,"有感":15268,"上衣":15269,"碼頭":15270,"救助":15271,"走上":15272,"警方在":15273,"休假":15274,"房客":15275,"不分":15276,"卡車":15277,"的兒子":15278,"種種":15279,"腸胃":15280,"的效果":15281,"本土個案":15282,"體育館":15283,"開幕戰":15284,"化解":15285,"在未來":15286,"姓女":15287,"引導":15288,"病逝":15289,"胸部":15290,"生命危險":15291,"喉嚨":15292,"堅守":15293,"斯科":15294,"開刀":15295,"不下去":15296,"簡報":15297,"金曲":15298,"張男":15299,"收益":15300,"樓層":15301,"入境後":15302,"槍擊案":15303,"之亂":15304,"住房":15305,"前一":15306,"年僅":15307,"熱點":15308,"的產品":15309,"共和黨人":15310,"假訊息":15311,"北海":15312,"吃完":15313,"執政黨":15314,"將依":15315,"豈料":15316,"晶圓":15317,"濃煙":15318,"配置":15319,"處理器":15320,"梅花":15321,"的天氣":15322,"總價":15323,"遇上":15324,"的合作":15325,"貼心":15326,"已是":15327,"旨在":15328,"資安":15329,"預售":15330,"的反":15331,"上來":15332,"搭檔":15333,"名學生":15334,"市政":15335,"安慰":15336,"就知道":15337,"照常":15338,"的說":15339,"的所有":15340,"三人":15341,"殘骸":15342,"直指":15343,"聽說":15344,"大量的":15345,".<":15346,"吉林":15347,"大礙":15348,"我沒有":15349,"理性":15350,"親戚":15351,"但我們":15352,"對香港":15353,"的天":15354,"喬治亞州":15355,"很開心":15356,"有機":15357,"棉花":15358,"檔案":15359,"死亡病例":15360,"三接":15361,"公然":15362,"這樣子":15363,"她是":15364,"新興":15365,"過多":15366,"卻發現":15367,"審核":15368,"封殺":15369,"東方":15370,"的角色":15371,"討厭":15372,"鬆懈":15373,"並強調":15374,"訂購":15375,"小時後":15376,"一架":15377,"加班":15378,"只不過":15379,"展望":15380,"精緻":15381,"原始連結更多":15382,"幾次":15383,"的香港":15384,"的價格":15385,"適時":15386,"一句":15387,"偶爾":15388,"羨慕":15389,"阿伯":15390,"折起":15391,"等相關":15392,"聯合聲明":15393,"分裂":15394,"沒多久":15395,"機師染疫":15396,"院內感染":15397,"清真寺":15398,"內用":15399,"兩個月":15400,"後悔":15401,"接手":15402,"的事件":15403,"羅馬":15404,"陽春":15405,"曾被":15406,"繳納":15407,"通道":15408,"季風":15409,"摧毀":15410,"災區":15411,"緊繃":15412,"創始":15413,"志願":15414,"相隔":15415,"指揮中心表示":15416,"不出來":15417,"墜落":15418,"日環球財經簡訊":15419,"國王":15420,"拿起":15421,"會出現":15422,"模型":15423,"滅絕":15424,"魅力":15425,"第一名":15426,"非法移民":15427,"豐富的":15428,"向警方":15429,"新款":15430,"水的":15431,"一線":15432,"也未":15433,"單價":15434,"溫泉":15435,"跑去":15436,"氣候變遷":15437,"出任":15438,"勢必":15439,"往年":15440,"月薪":15441,"樓梯":15442,"落差":15443,"該案":15444,"在一份":15445,"地址":15446,"會將":15447,"正好":15448,"證件":15449,"車手":15450,"同住家人":15451,"暴雨":15452,"清晰":15453,"球后":15454,"這座":15455,"之一的":15456,"受訪時表示":15457,"你是":15458,"卻沒有":15459,"標籤":15460,"眼淚":15461,"苗栗縣":15462,"辣椒":15463,"首場":15464,"老百姓":15465,"領事":15466,"發現的":15467,"這個問題":15468,"軍演":15469,"下了":15470,"幹事":15471,"歐洲":15472,"上方":15473,"衣物":15474,"毛孩":15475,"爆怨":15476,"要到":15477,"辦事處":15478,"動線":15479,"情事":15480,"衛生單位":15481,"公噸":15482,"我家":15483,"朝野":15484,"西門":15485,"頂級":15486,"不同意":15487,"上月":15488,"也成為":15489,"分開":15490,"哥倫":15491,"減緩":15492,"國際機場":15493,"公里的":15494,"不可以":15495,"嘴巴":15496,"大關":15497,"操控":15498,"精品":15499,"逼近":15500,"也相當":15501,"在英國":15502,"對策":15503,"平板":15504,"悼念":15505,"槍枝":15506,"滾地球":15507,"給她":15508,"要讓":15509,"美國經濟":15510,"進行調查":15511,"條文":15512,"筆記":15513,"色彩":15514,"論文":15515,"的壓力":15516,">「<":15517,"極大":15518,"較低":15519,"餐館":15520,"反霸凌":15521,"天母":15522,"教訓":15523,"會繼續":15524,"睽違":15525,"表示自己":15526,"效益":15527,"新低":15528,"沒什麼":15529,"謊言":15530,"勝出":15531,"復工":15532,"最為":15533,"黑客":15534,"型態":15535,"掌控":15536,"用路人":15537,"陸媒報導":15538,"一名女網友":15539,"今日下午":15540,"名員工":15541,"回台":15542,"中正":15543,"口水":15544,"圖案":15545,"滯留":15546,"上半年":15547,"啤酒":15548,"對流":15549,"抄截":15550,"替補":15551,"有信心":15552,"確切":15553,"及其他":15554,"宣誓":15555,"煽動":15556,"跌倒":15557,"身體健康":15558,"不代表":15559,"挪威":15560,"有錢":15561,"版的":15562,"股匯":15563,"外國人":15564,"或者是":15565,"詐騙集團":15566,"往返":15567,"有問題":15568,"落馬":15569,"任內":15570,"日對":15571,"落幕":15572,"罰單":15573,"自製":15574,"迫使":15575,"的一份":15576,"對不起":15577,"的錢":15578,"而出":15579,"讀者":15580,"點出":15581,"兼顧":15582,"多年的":15583,"的孩子":15584,"糟糕":15585,"語音":15586,"送餐":15587,"選舉人":15588,"為避免":15589,"的故事":15590,"訂定":15591,"來回":15592,"吵架":15593,"殯儀":15594,"規畫":15595,"該校":15596,"意識到":15597,"也提醒":15598,"乾旱":15599,"去了":15600,"我真的":15601,"北市府":15602,"巴勒":15603,"樹林":15604,"融合":15605,"試射":15606,"風運動":15607,"學生的":15608,"萬人次":15609,"下面請看一組":15610,"解鎖":15611,"高喊":15612,"我們必須":15613,"一生":15614,"深厚":15615,"熱潮":15616,"綠營":15617,"中獎":15618,"淇淋":15619,"確實有":15620,"交接":15621,"最愛":15622,"民眾在":15623,"如果沒有":15624,"加入風運動":15625,"並稱":15626,"手續":15627,"氣球":15628,"百人":15629,"路過":15630,"一號":15631,"內行":15632,"情節":15633,"火速":15634,"田徑":15635,"的對象":15636,"相較於":15637,"南港":15638,"的醫療":15639,"致歉":15640,"集中在":15641,"短暫陣雨":15642,"催淚彈":15643,"不喜歡":15644,"日經":15645,"org13":15646,"機能":15647,"的母親":15648,"上壘":15649,"亞利":15650,"印地":15651,"回頭":15652,"椅子":15653,"粉紅":15654,"並對":15655,"會造成":15656,"解封":15657,"國防部長":15658,"一家人":15659,"呈陽性":15660,"很棒":15661,"榮譽":15662,"目前有":15663,"問題上":15664,"振興":15665,"約會":15666,"請勿":15667,"車隊":15668,"連帶":15669,">...":15670,"更大的":15671,"總額":15672,"腹部":15673,"起初":15674,"主要股指":15675,"密切接觸者":15676,"巴勒斯坦":15677,"不下":15678,"同居":15679,"曾任":15680,"避開":15681,"隨意":15682,"同志":15683,"換上":15684,"澳網":15685,"男網友":15686,"花東":15687,"被判":15688,"我們是":15689,"查扣":15690,"環團":15691,"來做":15692,"服員":15693,"高官":15694,"來襲":15695,"噴發":15696,"標普":15697,"的努力":15698,"警車":15699,"被問及":15700,"北方":15701,"浴室":15702,"亞利桑":15703,"手持":15704,"純益":15705,"解放":15706,"防疫升級":15707,"日常生活":15708,"創立":15709,"李男":15710,"爵士":15711,"價值觀":15712,"一一":15713,"家電":15714,"最嚴重":15715,"熱水":15716,"選區":15717,"又在":15718,"祕書":15719,"配送":15720,"零食":15721,"頭皮":15722,"出現的":15723,"上半":15724,"單獨":15725,"生病":15726,"維生素":15727,"轉戰":15728,"南區":15729,"散播":15730,"美景":15731,"能不能":15732,"反霸凌專線":15733,"殯儀館":15734,"生理":15735,"晚會":15736,"氣勢":15737,"的權利":15738,"造假":15739,"已完成":15740,"船上":15741,"雲南":15742,"領航":15743,"不論是":15744,"些時候":15745,"店的":15746,"掉落":15747,"蒐證":15748,"黑暗":15749,"提供給":15750,"監察":15751,"秉持":15752,"在北京":15753,"精選":15754,"透天":15755,"網站上":15756,"主要股指收盤":15757,"從中":15758,"我現在":15759,"離去":15760,"提供了":15761,"多萬":15762,"把它":15763,"的現象":15764,"行情":15765,"分鐘後":15766,"第三級警戒":15767,"一方面":15768,"二度":15769,"有不少":15770,"面向":15771,"今天說":15772,"!!":15773,"保釋":15774,"兩家":15775,"形狀":15776,"教堂":15777,"魔術":15778,"也特別":15779,"人命":15780,"專區":15781,"警衛":15782,"過去的":15783,"外界質疑":15784,"原價":15785,"失智":15786,"清空":15787,"為題":15788,"諸多":15789,"引渡":15790,"促使":15791,"兩度":15792,"思想":15793,"是被":15794,"疏散":15795,"連霸":15796,"遠遠":15797,"兌換":15798,"和其它":15799,"挺進":15800,"曾表示":15801,"未成年":15802,"感染風險":15803,"傳播鏈":15804,"堪稱":15805,"是中國":15806,"發明":15807,"膝蓋":15808,"加油站":15809,"加密":15810,"超音":15811,"顛覆":15812,"以此":15813,"多加":15814,"的承諾":15815,"填寫":15816,"剝奪":15817,"大大":15818,"差別":15819,"獨裁":15820,"久的":15821,"會場":15822,"有任何":15823,"試場":15824,"飆升":15825,"點的":15826,"修煉":15827,"出事":15828,"清除":15829,"跌破":15830,"還包括":15831,"一款":15832,"旗下的":15833,"發推文":15834,"街上":15835,"德納":15836,"檢出":15837,"美式":15838,"證人":15839,"龍江":15840,"印地安":15841,"大腿":15842,"已將":15843,"掃描":15844,"的網友":15845,"糧食":15846,"驚覺":15847,"第二天":15848,"佛州":15849,"盡速":15850,"融入":15851,"鳳山":15852,"第二波":15853,"劇烈":15854,"也開始":15855,"帥氣":15856,"只剩下":15857,"款項":15858,"矛盾":15859,"空氣品質":15860,"亞利桑那":15861,"雨勢":15862,"原本的":15863,"服役":15864,"結局":15865,"號種子":15866,"量的":15867,"降溫":15868,"北台灣":15869,"把他":15870,"外界關注":15871,"氧化碳":15872,"公職":15873,"網傳":15874,"自來":15875,"處的":15876,"親王":15877,"日深夜":15878,"藥廠":15879,"認罪":15880,"說道":15881,"辯護":15882,"除夕":15883,"日本首相":15884,"必須在":15885,"位的":15886,"傳承":15887,"後衛":15888,"因為他們":15889,"經濟成長":15890,"瀏覽":15891,"評論員":15892,"笑稱":15893,"農村":15894,"事發後":15895,"士林":15896,"張貼":15897,"日被":15898,"是全球":15899,"公文":15900,"獲選":15901,"自拍":15902,"回合":15903,"巫師":15904,"打工":15905,"自願":15906,"召回":15907,"愛爾":15908,"拍戲":15909,"招生":15910,"毫不":15911,"防制":15912,"推翻":15913,"槍手":15914,"讓自己":15915,"其他國家":15916,"大膽":15917,"招募":15918,"的你":15919,"趁機":15920,"緊急事態宣言":15921,"在其":15922,"酒後":15923,"重心":15924,"目前正":15925,"劇組":15926,"開賽":15927,"陣營":15928,"調閱監視器":15929,"出於":15930,"螞蟻":15931,"詭異":15932,"首要":15933,"新聞自由":15934,"飛行員":15935,"機上":15936,"跟你":15937,"正確的":15938,"期許":15939,"說他":15940,"起源":15941,"黑龍江":15942,"總統府":15943,"看守所":15944,"補習":15945,"血清抗體":15946,"動用":15947,"廣大":15948,"汙染":15949,"耳機":15950,"進行中":15951,"設計的":15952,"廟方":15953,"水源":15954,"潛水":15955,"網頁":15956,"虐待":15957,"我們有":15958,"上架":15959,"享用":15960,"較大":15961,"附上":15962,"龐大":15963,"健身房":15964,"西南":15965,"聽證會":15966,"不公平":15967,"制服":15968,"球速":15969,"年前的":15970,"同年":15971,"美東":15972,"吳男":15973,"炎熱":15974,"帶頭":15975,"政務":15976,"融資":15977,"付款":15978,"俱樂":15979,"破產":15980,"駕照":15981,"送往醫院":15982,"信徒":15983,"謀殺":15984,"一直是":15985,"勒索":15986,"喝水":15987,"極為":15988,"特徵":15989,"特蘭":15990,"稱的":15991,"安全帽":15992,"佳績":15993,"全新的":15994,"噁心":15995,"天津":15996,"港澳":15997,"經由":15998,"燈號":15999,"!」「":16000,"的世界":16001,"籌備":16002,"藝文":16003,"車款":16004,"但他們":16005,"妥善":16006,"歲男子":16007,"沒了":16008,"給付":16009,"融化":16010,"智慧型":16011,"北海道":16012,"一塊":16013,"來得":16014,"欺騙":16015,"時間點":16016,"股匯市":16017,"毛毛":16018,"自責":16019,"救護人員":16020,"維權人士":16021,"人行":16022,"真的有":16023,"基礎設施":16024,"好運":16025,"星人":16026,"流出":16027,"教練團":16028,"川普政府":16029,"傳達":16030,"嚴肅":16031,"大橋":16032,"專用":16033,"房產":16034,"這一點":16035,"臨床試驗":16036,"初選":16037,"運行":16038,"陰影":16039,"因為我":16040,"俱樂部":16041,"在與":16042,"安徽":16043,"桌上":16044,"樂團":16045,"黑幫":16046,"收取":16047,"莫德納":16048,"返國":16049,"一向":16050,"水電":16051,"客機":16052,"減弱":16053,"讓原":16054,"我們都":16055,"也就是說":16056,"慈善":16057,"球的":16058,"發炎":16059,"合作的":16060,"陰性報告":16061,"的日子":16062,"不符合":16063,"在微博":16064,"無法接受":16065,"當地居民":16066,"別再":16067,"的女兒":16068,"進軍":16069,"建制":16070,"性質":16071,"歐美":16072,"滿壘":16073,"通勤":16074,"社會主義":16075,"最多的":16076,"分泌":16077,"聲浪":16078,"了很多":16079,"二手":16080,"副所長":16081,"對她":16082,"而這":16083,"起床":16084,"我們希望":16085,"朝鮮的":16086,"不聽":16087,"緩慢":16088,"股權":16089,"首局":16090,"智能手機":16091,"經紀公司":16092,"優於":16093,"在印度":16094,"幫派":16095,"探討":16096,"收視":16097,"日確診":16098,"追撞":16099,"不符":16100,"沙特":16101,"經貿":16102,"傳染性":16103,"分歧":16104,"好事":16105,"嬌生":16106,"輕生":16107,"青春":16108,"上班族":16109,"滿滿的":16110,"管線":16111,"天文學家":16112,"中醫":16113,"單打":16114,"的員工":16115,"直落":16116,"賣出":16117,"一直到":16118,"女的":16119,"會計":16120,"模仿":16121,"用手":16122,"雷雨":16123,"亞太電視":16124,"匿名":16125,"多起":16126,"撕裂":16127,"測驗":16128,"滑落":16129,"熱帶":16130,"亞軍":16131,"反駁":16132,"大於":16133,"大運":16134,"更能":16135,"的報告":16136,"鼻子":16137,"成員國":16138,"主投":16139,"宣判":16140,"家暴":16141,"巴基":16142,"聲響":16143,"歷史上":16144,"三次":16145,"名列":16146,"在網上":16147,"增至":16148,"微笑":16149,"旁的":16150,"萬一":16151,"視野":16152,"開盤":16153,"所以我":16154,"的一種":16155,"另一位":16156,"受訪表示":16157,"大三":16158,"所未":16159,"安全性":16160,"死亡率":16161,"匯款":16162,"名男子":16163,"眼前":16164,"翻覆":16165,"題目":16166,"歌迷":16167,"鄉民":16168,"錄製":16169,"哥倫比亞":16170,"也透露":16171,"折扣":16172,"抹黑":16173,"罪行":16174,"課綱":16175,"受疫情影響":16176,"嘉賓":16177,"器材":16178,"屋頂":16179,"救濟":16180,"縮減":16181,"耐心":16182,"車牌":16183,"這顆":16184,"間接":16185,"大陸的":16186,"也為":16187,"內外":16188,"查核":16189,"皆為":16190,"私立":16191,"聽見":16192,"風味":16193,"幾週":16194,"強大的":16195,"神奇":16196,"災情":16197,"跑者":16198,"非常好":16199,"的食物":16200,"落地":16201,"負責任":16202,"病毒株":16203,"冬天":16204,"就已":16205,"待在":16206,"水中":16207,"總體":16208,"巴基斯坦":16209,"住了":16210,"嚴正":16211,"放下":16212,"政治人物":16213,"又要":16214,"會對":16215,"滾動":16216,"申訴":16217,"開口":16218,"什麼事":16219,"今早":16220,"最嚴重的":16221,"誠意":16222,"講座":16223,"香港政府":16224,"重新開放":16225,"可用":16226,"旅宿":16227,"開的":16228,"消除":16229,"看護":16230,"製品":16231,"低於標準":16232,"獲獎":16233,"非裔":16234,"館長":16235,"什麼時候":16236,"新增病例":16237,"事務所":16238,"侮辱":16239,"倉庫":16240,"接力":16241,"嗆聲":16242,"盤查":16243,"落網":16244,"漁民":16245,"領隊":16246,"並說":16247,"中風":16248,"也出現":16249,"品項":16250,"外洩":16251,"多國":16252,"就診":16253,"費城":16254,"第一位":16255,"刷新":16256,"局失":16257,"高端":16258,"另外還有":16259,"行政區":16260,"實在太":16261,"東北季風":16262,"口氣":16263,"揚言":16264,"放大":16265,"新唐人亞太電視":16266,"法律扶助":16267,"多樣":16268,"核定":16269,"現狀":16270,"疑問":16271,"達克":16272,"電線":16273,"委書記":16274,"買的":16275,"切勿":16276,"台語":16277,"傳言":16278,"摩托":16279,"離島":16280,"颶風":16281,"東京都":16282,"也太":16283,"均為":16284,"如下":16285,"導入":16286,"文學":16287,"變動":16288,"對峙":16289,"座椅":16290,"段時間":16291,"代表團":16292,"解決問題":16293,"新一代":16294,"內衣":16295,"否決":16296,"市集":16297,"新秀":16298,"耳朵":16299,"過關":16300,"頒發":16301,"生命跡象":16302,"吃到飽":16303,"保單":16304,"日職":16305,"炸雞":16306,"聯辦":16307,"聽聞":16308,"身影":16309,"三個月":16310,"單車":16311,"天王":16312,"每小時":16313,"猥褻":16314,"痕跡":16315,"茶室":16316,"通風":16317,"野生動物":16318,"你想":16319,"法令":16320,"犯下":16321,"終身":16322,"僅次":16323,"圖像":16324,"壓迫":16325,"北港":16326,"檢調":16327,"相關人員":16328,"就送":16329,"是因":16330,"的立場":16331,"的樣子":16332,"美國職籃":16333,"甚至有":16334,"第二個":16335,"國內疫情":16336,"醫療院所":16337,"最終以":16338,"中小":16339,"每坪":16340,"甜美":16341,"隨身":16342,"啦啦":16343,"想過":16344,"戰場":16345,"測量":16346,"的訊息":16347,"並由":16348,"休士頓":16349,"出庭":16350,"到期":16351,"即刻":16352,"的想法":16353,"轉彎":16354,"好處":16355,"祈禱":16356,"怎麼樣":16357,"加哥":16358,"家園":16359,"忘錄":16360,"恭喜":16361,"新功能":16362,"津貼":16363,"竊盜":16364,"老舊":16365,"自小客車":16366,"派對":16367,"之餘":16368,"備忘錄":16369,"各類":16370,"命運":16371,"信眾":16372,"區內":16373,"年薪":16374,"死傷":16375,"真心":16376,"種類":16377,"芝加哥":16378,"駐美":16379,"一直以來":16380,"排行榜":16381,"外銷":16382,"天后":16383,"希望在":16384,"洗錢":16385,"的言論":16386,"蘿蔔":16387,"兩者":16388,"老實":16389,"能見":16390,"二次":16391,"展出":16392,"歹徒":16393,"綠燈":16394,"金鐘":16395,"台北市黨部":16396,"興達電廠":16397,"供稱":16398,"副部長":16399,"卻不":16400,"爺爺":16401,"線的":16402,"房租":16403,"曾是":16404,"科罰金":16405,"度假":16406,"改裝":16407,"道瓊":16408,"遭人":16409,"不僅是":16410,"交通事故":16411,"愛爾蘭":16412,"偷拍":16413,"年半":16414,"筆電":16415,"輕症":16416,"這部":16417,"還可":16418,"創始人":16419,"輕易":16420,"講述":16421,"財物":16422,"跨國":16423,"開轟":16424,"追加":16425,"日財經速瞄":16426,"店裡":16427,"西武":16428,"財運":16429,"奇蹟":16430,"安撫":16431,"暖心":16432,"沒能":16433,"的技術":16434,"走在":16435,"阻礙":16436,"確診感染":16437,"研究發現":16438,"內幕":16439,"產地":16440,"造訪":16441,"法律扶助基金會":16442,"先行":16443,"公會":16444,"前景":16445,"奴才":16446,"滑雪":16447,"龍蝦":16448,"某種":16449,"牛排":16450,"聲量":16451,"月底前":16452,"不穩":16453,"他命":16454,"兩會":16455,"區間":16456,"太久":16457,"布魯":16458,"旅行社":16459,"今天的財經":16460,"執照":16461,"日全球":16462,"王牌":16463,"跟蹤":16464,"就是在":16465,"辛苦了":16466,"下一步":16467,"在網路":16468,"手感":16469,"的紀錄":16470,"製程":16471,"鑑於":16472,"美國與":16473,"百分之":16474,"日在臉書":16475,"的患者":16476,"色的":16477,"已經開始":16478,"贈送":16479,"任意":16480,"國手":16481,"的信息":16482,"香蕉":16483,"疫苗後":16484,"非必要":16485,"分鐘內":16486,"傳染病防治":16487,"分離":16488,"治理":16489,"競爭力":16490,"上學":16491,"尼克":16492,"碎片":16493,"第七":16494,"繼承":16495,"倒塌":16496,"好球":16497,"循線":16498,"稅後":16499,"逗趣":16500,"首個":16501,"一哥":16502,"加熱":16503,"日新增":16504,"明尼":16505,"的父親":16506,"號稱":16507,"per16":16508,"多歲的":16509,"大消毒":16510,"見過":16511,"運動會":16512,"的心情":16513,"疏失":16514,"陳情":16515,"在當地":16516,"重機":16517,"超前部署":16518,"之路":16519,"滋味":16520,"虛假":16521,"人人":16522,"委屈":16523,"市政府":16524,"引用":16525,"自來水":16526,"不建議":16527,"順暢":16528,"領航猿":16529,"多多":16530,"放入":16531,"沉默":16532,"演技":16533,"該如何":16534,"體操":16535,"點左右":16536,"對此表示":16537,"外傳":16538,"核化":16539,"第二階段":16540,"正常的":16541,"檢察長":16542,"新車":16543,"看診":16544,"自去年":16545,"外推":16546,"屁股":16547,"外海":16548,"待釐清":16549,"穿搭":16550,"送回":16551,"加以":16552,"同一天":16553,"援引":16554,"也因":16555,"心聲":16556,"有害":16557,"都非常":16558,"不完":16559,"層級":16560,"的頭":16561,"網購":16562,"畫面中":16563,"生產的":16564,"下秒":16565,"別的":16566,"已知":16567,"動保":16568,"反抗":16569,"合格":16570,"建物":16571,"要是":16572,"下半場":16573,"到過":16574,"有過":16575,"運轉":16576,"美國在":16577,"有多少":16578,"其後":16579,"只想":16580,"孫子":16581,"公里處":16582,"之戰":16583,"也以":16584,"冬奧":16585,"到一半":16586,"合一":16587,"質問":16588,"企業的":16589,"若要":16590,"未來將":16591,"和中國":16592,"改進":16593,"攻城":16594,"移植":16595,"議論":16596,"這兩個":16597,"關係的":16598,"發展的":16599,"暴跌":16600,"鄉鎮":16601,"傳喚":16602,"好評":16603,"探病":16604,"看待":16605,"下殺":16606,"在我":16607,"急性":16608,"認爲":16609,"那時候":16610,"我們也":16611,"綜合報導大陸":16612,"祈求":16613,"議院":16614,"馬桶":16615,"採檢結果":16616,"控管":16617,"格外":16618,"決勝":16619,"表揚":16620,"隨機":16621,"緬甸軍方":16622,"劈腿":16623,"增設":16624,"抖音":16625,"節省":16626,"防疫人員":16627,"網友紛紛留言":16628,"挹注":16629,"模特":16630,"空襲":16631,"萬多":16632,"的人士":16633,"更在":16634,"法定":16635,"載著":16636,"平面":16637,"適逢":16638,"公共衛生":16639,"吸睛":16640,"客服":16641,"強賽":16642,"擁抱":16643,"日當天":16644,"極限":16645,"口袋":16646,"下水":16647,"供給":16648,"已向":16649,"致敬":16650,"跑步":16651,"男嬰":16652,"相約":16653,"短片":16654,"選戰":16655,"行政長官":16656,"兩人的":16657,"步行":16658,"超標":16659,"量子":16660,"體壇":16661,"事件的":16662,"不僅如此":16663,"格局":16664,"樓的":16665,"派人":16666,"莫斯科":16667,"調漲":16668,"較多":16669,"那天":16670,"老鷹":16671,"露營":16672,"引發熱議":16673,"受不了":16674,"沒收":16675,"稅率":16676,"美好":16677,"尼亞州":16678,"知識產權":16679,"之旅":16680,"憂鬱":16681,"跑道":16682,"路面":16683,"我們現在":16684,"一頭":16685,"報紙":16686,"懲處":16687,"深化":16688,"萬例":16689,"郵局":16690,"客廳":16691,"抓到":16692,"拉麵":16693,"日發布":16694,"機動":16695,"母女":16696,"英格蘭":16697,"保護力":16698,"廢棄物":16699,"干涉":16700,"很高興":16701,"點燃":16702,"有關的":16703,"一連串":16704,"不清":16705,"停機":16706,"散布":16707,"數以":16708,"會影響":16709,"沒有辦法":16710,"並呼籲":16711,"情感":16712,"扭曲":16713,"日是":16714,"波動":16715,"科興":16716,"站的":16717,"被網友":16718,"豬瘟":16719,"送醫後":16720,"日全球股匯市":16721,"加拉":16722,"向來":16723,"物價":16724,"親人":16725,"難怪":16726,"美元的":16727,"中止":16728,"在哪":16729,"更容易":16730,"燃煤":16731,"順序":16732,"美國將":16733,"雞肉":16734,"選舉結果":16735,"」!<":16736,"互聯網":16737,"他不":16738,"定序":16739,"菜單":16740,"宣示":16741,"我說":16742,"次保送":16743,"誕生":16744,"起了":16745,"希望可以":16746,"右手":16747,"潛力":16748,"異議":16749,"門外":16750,"的一切":16751,"初步調查":16752,"入獄":16753,"尖叫":16754,"與他":16755,"邁入":16756,"養生":16757,"乘坐":16758,"影視":16759,"推行":16760,"書面":16761,"的家人":16762,"監禁":16763,"紅襪":16764,"航天":16765,"座談":16766,"往後":16767,"日止":16768,"清查":16769,"物件":16770,"完整的":16771,"並進行":16772,"依違反":16773,"武漢市":16774,"能見度":16775,"保羅":16776,"及相關":16777,"嚴謹":16778,"她和":16779,"現今":16780,"國有":16781,"安平":16782,"更重要":16783,"洗車":16784,"活力":16785,"猛烈":16786,"合適":16787,"犯規":16788,"因應疫情":16789,"作客":16790,"保暖":16791,"常態":16792,"會館":16793,"有更多":16794,"為人":16795,"的過程中":16796,"皇家":16797,"負荷":16798,"販毒":16799,"遊玩":16800,"機組人員":16801,"十大":16802,"可憐":16803,"合體":16804,"小小":16805,"平民":16806,"石門":16807,"餅乾":16808,"接受治療":16809,"劇本":16810,"捲入":16811,"最長":16812,"片段":16813,"的媽媽":16814,"線條":16815,"複製":16816,"走私":16817,"超高":16818,"採訪時表示":16819,"停水":16820,"兼任":16821,"前妻":16822,"確診者足跡":16823,"掙扎":16824,"每周":16825,"無可":16826,"該州":16827,"遵循":16828,"都說":16829,"建制派":16830,"之家":16831,"依序":16832,"古巴":16833,"挫傷":16834,"更改":16835,"模範":16836,"氣憤":16837,"的一項":16838,"場先發":16839,"締造":16840,"國營":16841,"已超過":16842,"砲轟":16843,"跨越":16844,"這篇":16845,"頻傳":16846,"大小事":16847,"下落":16848,"新澤西":16849,"的企業":16850,"輸球":16851,"防線":16852,"土城":16853,"左手":16854,"爆廢":16855,"疲勞":16856,"節車廂":16857,"份子":16858,"報道":16859,"家鄉":16860,"緩刑":16861,"行使":16862,"逃生":16863,"上廁所":16864,"在醫院":16865,"夏威":16866,"急著":16867,"夏威夷":16868,"別人的":16869,"占比":16870,"官司":16871,"所致":16872,"空服員":16873,"軍政府":16874,"防疫期間":16875,"解決方案":16876,"原文":16877,"形勢":16878,"時速":16879,"起司":16880,"較去年同期":16881,"了對":16882,"採買":16883,"離譜":16884,"例為":16885,"新西蘭":16886,"見的":16887,"重罰":16888,"目標是":16889,"喜歡的":16890,"殉職":16891,"的力量":16892,"賭博":16893,"小米":16894,"感應":16895,"沿著":16896,"親屬":16897,"逃亡":16898,"比去年":16899,"的可能":16900,"抗議活動":16901,"哀悼":16902,"外部":16903,"心力":16904,"日清晨":16905,"中共":16906,"化石":16907,"叫做":16908,"花錢":16909,"騎乘":16910,"全球經濟":16911,"為主題":16912,"入園":16913,"副教授":16914,"萬張":16915,"體諒":16916,"目前沒有":16917,"來臨":16918,"前所未":16919,"加權":16920,"將進行":16921,"腹瀉":16922,"那就是":16923,"今天公布":16924,"印度疫情":16925,"包機":16926,"向前":16927,"女大生":16928,"將人":16929,"深感":16930,"港媒":16931,"艦隊":16932,"英尺":16933,"都必須":16934,"隔板":16935,"副書記":16936,"大遊行":16937,"忽略":16938,"手槍":16939,"男的":16940,"直至":16941,"我們就":16942,"交叉":16943,"你可以":16944,"為他":16945,"研擬":16946,"賦予":16947,"獲得了":16948,"升空":16949,"同盟":16950,"周末":16951,"搭車":16952,"收下":16953,"與家人":16954,"社會的":16955,"州市":16956,"猝死":16957,"領土":16958,"有必要":16959,"牠的":16960,"發的":16961,"跳舞":16962,"這項研究":16963,"動向":16964,"帶你":16965,"違約":16966,"那就":16967,"一帶一路":16968,"上看":16969,"房務":16970,"不會再":16971,"怎麼會":16972,"乾燥":16973,"剩餘":16974,"套餐":16975,"想不到":16976,"擁擠":16977,"科長":16978,"說自己":16979,"這意味著":16980,"健康的":16981,"完全不":16982,"全被":16983,"分組":16984,"想辦法":16985,"獎牌":16986,"最後一次":16987,"北京當局":16988,"下修":16989,"光芒":16990,"朝聖":16991,"波士頓":16992,"視線":16993,"拒絕暴力":16994,"台東縣":16995,"攻城獅":16996,"他被":16997,"整個人":16998,"比率":16999,"為本國籍":17000,"這讓":17001,"全是":17002,"女嬰":17003,"老家":17004,"訪問時表示":17005,"應用程式":17006,"有限公司":17007,"內有":17008,"出場":17009,"到目前為止":17010,"大致":17011,"忙碌":17012,"指考":17013,"斯克":17014,"買下":17015,"開著":17016,"中國政府":17017,"奧運會":17018,"網賽":17019,"賽車":17020,"確診新冠肺炎":17021,"防疫政策":17022,"對方的":17023,"明顯的":17024,"社群網站":17025,"上陣":17026,"要看":17027,"金塊":17028,"畢業生":17029,"囂張":17030,"延誤":17031,"把關":17032,"攤位":17033,"桌球":17034,"無預警":17035,"的時刻":17036,"注意的是":17037,"下一代":17038,"日式":17039,"蘇伊":17040,"通信":17041,"都相當":17042,"一定是":17043,"武漢肺炎疫情":17044,"保守派":17045,"分店":17046,"到位":17047,"大安":17048,"敵人":17049,"西瓜":17050,"足夠的":17051,"三十":17052,"寶座":17053,"板凳":17054,"業的":17055,"民事":17056,"白沙":17057,"車身":17058,"青睞":17059,"提升至":17060,"的日本":17061,"院區":17062,"地方法院":17063,"展開調查":17064,"上週五":17065,"高速公路":17066,"不成":17067,"即將在":17068,"夜晚":17069,"年時":17070,"往下":17071,"靈感":17072,"無症狀感染者":17073,"也非常":17074,"警惕":17075,"迷你":17076,"英國首相":17077,"保住":17078,"削減":17079,"噪音":17080,"性格":17081,"我還":17082,"歲男童":17083,"裝飾":17084,"高出":17085,"也不知道":17086,"蘇伊士":17087,"拍板":17088,"漁港":17089,"專家認為":17090,"從來沒有":17091,"不服":17092,"蓄水":17093,"各州":17094,"攤販":17095,"業主":17096,"歡樂":17097,"泛民":17098,"腦部":17099,"高血壓":17100,"警方到場":17101,"不適合":17102,"免疫力":17103,"不准":17104,"的動作":17105,"輸給":17106,"攝影師":17107,"僅是":17108,"沒戴口罩":17109,"票數":17110,"被撞":17111,"醫藥":17112,"中國經濟":17113,"友好":17114,"製成":17115,"希望能夠":17116,"研究團隊":17117,"在野黨":17118,"之意":17119,"我可以":17120,"撥款":17121,"發生意外":17122,"低潮":17123,"個別":17124,"條第":17125,"的選手":17126,"送至":17127,"這群":17128,"失業率":17129,"情人節":17130,"奈米":17131,"姐妹":17132,"學聯":17133,"從此":17134,"神明":17135,"血糖":17136,"行走":17137,"護士":17138,"陽明":17139,"預訂":17140,"驅離":17141,"以來的":17142,"那麼多":17143,"她認為":17144,"實境":17145,"更快":17146,"躲避":17147,"北京市":17148,"進一步調查":17149,"五一":17150,"射手":17151,"拖延":17152,"操縱":17153,"板上":17154,"西裝":17155,"這一次":17156,"都不能":17157,"養老":17158,"資深媒體人":17159,"也向":17160,"前年":17161,"的運動":17162,"萬劑疫苗":17163,"三角":17164,"五年":17165,"偵察":17166,"善良":17167,"堅強":17168,"將可":17169,"左轉":17170,"形態":17171,"消耗":17172,"小時的":17173,"經典賽":17174,"人和":17175,"得點":17176,"放緩":17177,"效能":17178,"的軍事":17179,"自撞":17180,"遏制":17181,"醫事":17182,"同時也是":17183,"仍持續":17184,"分差":17185,"易科罰金":17186,"留學生":17187,"的案例":17188,"大批網友":17189,"僅次於":17190,"二級":17191,"在一個":17192,"後援":17193,"房仲":17194,"準則":17195,"溫柔":17196,"美術":17197,"良好的":17198,"談論":17199,"關卡":17200,"嚴格的":17201,"仍以":17202,"代工":17203,"冰淇淋":17204,"斷裂":17205,"本文":17206,"通告":17207,"鞋子":17208,"聲明說":17209,"防護衣":17210,"南向":17211,"大勝":17212,"接待":17213,"更要":17214,"購入":17215,"分別在":17216,"網球公開賽":17217,"發光":17218,"分享到":17219,"高等法院":17220,"流血":17221,"一批":17222,"一百":17223,"冒險":17224,"實地":17225,"配套":17226,"湖北省":17227,"不希望":17228,"有線":17229,"禁區":17230,"胞胎":17231,"要先":17232,"媽媽的":17233,"一來":17234,"女主角":17235,"藉口":17236,"養殖":17237,"工作室":17238,"為什麼要":17239,"巨型":17240,"搶劫":17241,"日才":17242,"發球":17243,"的挑戰":17244,"不算":17245,"也與":17246,"原子":17247,"將為":17248,"祕密":17249,"考古":17250,"可以讓":17251,"解除隔離":17252,"威爾":17253,"憂慮":17254,"戀情":17255,"台灣時間":17256,"放進":17257,"會先":17258,"等罪":17259,"這批":17260,"一提":17261,"地利":17262,"存活":17263,"新娘":17264,"日再":17265,"校友":17266,"說了":17267,"絕對是":17268,"共產主義":17269,"後者":17270,"願望":17271,"這起事件":17272,"印地安人":17273,"車廠":17274,"屏幕":17275,"這部分":17276,"重劃":17277,"飛官":17278,"因為有":17279,"智慧型手機":17280,"偏鄉":17281,"偷渡":17282,"尋獲":17283,"對我們":17284,"登機":17285,"督導":17286,"遇難":17287,"今日表示":17288,"上山":17289,"但也有":17290,"喇叭":17291,"好不容易":17292,"婚宴":17293,"維亞":17294,"個月後":17295,"公尺的":17296,"不開放":17297,"且有":17298,"世衛":17299,"前鋒":17300,"日召開":17301,"無需":17302,"破百":17303,"豁免":17304,"點擊":17305,"科技公司":17306,"中聯辦":17307,"傳給":17308,"奶油":17309,"小弟":17310,"想吃":17311,"界的":17312,"香港特首":17313,"合作夥伴":17314,"做事":17315,"做什麼":17316,"暴龍":17317,"第二輪":17318,"貼文曝光後":17319,"蘇伊士運河":17320,"一番":17321,"悲痛":17322,"手工":17323,"海面":17324,"超大":17325,"路易":17326,"引發網友":17327,"這份研究":17328,"商討":17329,"防疫警戒":17330,"國家主席":17331,"世界排名第":17332,"一臉":17333,"列出":17334,"墾丁":17335,"從中國":17336,"扣除":17337,"社工":17338,"閃電":17339,"反潛":17340,"手的":17341,"矚目":17342,"看到的":17343,"哈爾":17344,"慶生":17345,"火化":17346,"目光":17347,"偉大":17348,"加徵":17349,"卻有":17350,"悄悄":17351,"最少":17352,"生下":17353,"西藏":17354,"開球":17355,"進行消毒":17356,"相關規定":17357,"氣象局":17358,"鏡週刊報導":17359,"一艘":17360,"並有":17361,"恐龍":17362,"擊中":17363,"根州":17364,"頭上":17365,"聯邦政府":17366,"單季":17367,"滿了":17368,"的個人":17369,"證書":17370,"是否能":17371,"一手":17372,"心血管":17373,"貨運":17374,"黑名單":17375,"之前的":17376,"短時間內":17377,"到貨":17378,"塞車":17379,"接替":17380,"餘元":17381,"驚悚":17382,"通緝犯":17383,"四年":17384,"忙著":17385,"擾台":17386,"架構":17387,"猶豫":17388,"言語":17389,"病毒檢測":17390,"藻礁公投":17391,"實用":17392,"趕往":17393,"透過臉書":17394,"運動的":17395,"受到疫情影響":17396,"中學":17397,"但若":17398,"店長":17399,"景氣":17400,"沒關係":17401,"訴說":17402,"雙北市":17403,"行政令":17404,"專心":17405,"局無失分":17406,"拉圭":17407,"旱象":17408,"火辣":17409,"筆錄":17410,"北京的":17411,"罷免案":17412,"戰鬥機":17413,"這件事情":17414,"可處":17415,"沙塵":17416,"臺北":17417,"都無法":17418,"金牛":17419,"限水":17420,"終於在":17421,"不被":17422,"快閃":17423,"緩和":17424,"例死亡":17425,"卻突然":17426,"它是":17427,"敗給":17428,"配件":17429,">-,":17430,"駕駛座":17431,"延長賽":17432,"二代":17433,"公關":17434,"密度":17435,"把自己":17436,"斯達克":17437,"遺產":17438,"首波":17439,"麻將":17440,"電視劇":17441,"健保卡":17442,"審慎":17443,"帶回家":17444,"手腳":17445,"汐止":17446,"相驗":17447,"更多鏡週刊報導":17448,"會比較":17449,"燈光":17450,"示警":17451,"都知道":17452,"美國大選":17453,"八卦":17454,"後也":17455,"控球":17456,"極度":17457,"熱區":17458,"號誌":17459,"貝爾":17460,"食安":17461,"佛羅里達州":17462,"美東時間":17463,"收受":17464,"腎臟":17465,"自爆":17466,"薩斯":17467,"聲明表示":17468,"提高警覺":17469,"各有":17470,"哭了":17471,"般的":17472,"錦賽":17473,"消息稱":17474,"旋轉":17475,"特性":17476,"閉門":17477,"露面":17478,"增加到":17479,"第二級":17480,"簡單的":17481,"代替":17482,"克拉":17483,"清零":17484,"逃跑":17485,"這兩天":17486,"驚呆":17487,"可能的":17488,"有效的":17489,"千萬不要":17490,"聲明中表示":17491,"抓住":17492,"帽子":17493,"認可":17494,"消防隊":17495,"民陣":17496,"水分":17497,"的表情":17498,"花生":17499,"錢包":17500,"美國職棒":17501,"電子郵件":17502,"到底是":17503,"儘量":17504,"到台灣":17505,"喪失":17506,"回溯":17507,"後座":17508,"成都":17509,"放送":17510,"會以":17511,"沿途":17512,"首腦":17513,"防疫物資":17514,"執行官":17515,"了一下":17516,"引起熱議":17517,"權的":17518,"聽取":17519,"背部":17520,"運彩":17521,"重災區":17522,"得獎":17523,"擺放":17524,"期貨":17525,"空調":17526,"總量":17527,"轄內":17528,"釣出":17529,"部分地區":17530,"也從":17531,"前任":17532,"往上":17533,"清場":17534,"蔬果":17535,"養成":17536,"參選人":17537,"大馬":17538,"拓展":17539,"解散":17540,"關注的":17541,"這名男子":17542,"明星賽":17543,">?":17544,"向美國":17545,"報請":17546,"抽菸":17547,"改採":17548,"都得":17549,"我們可以":17550,"公立":17551,"圍繞":17552,"獨行":17553,"的路":17554,"騎機車":17555,"驚嚇":17556,"看到了":17557,"也請":17558,"反制":17559,"在意":17560,"戒備":17561,"扣押":17562,"服刑":17563,"肩膀":17564,"處所":17565,"印度的":17566,"全面消毒":17567,"家具":17568,"海邊":17569,"車位":17570,"輕傷":17571,"報告顯示":17572,"低迷":17573,"的最後":17574,"精華":17575,"甚至在":17576,"日起至":17577,"上訪":17578,"是為":17579,"濃郁":17580,"發給":17581,"的人員":17582,"的歷史":17583,"電網":17584,"領軍":17585,"黨魁":17586,"史上最":17587,"急診室":17588,"上揚":17589,"就像是":17590,"職缺":17591,"隨之":17592,"這麼做":17593,"]「<":17594,"專機":17595,"對付":17596,"月亮":17597,"核電廠":17598,"沒問題":17599,"閨蜜":17600,"甚至連":17601,"傳出有":17602,"腳踏車":17603,"名叫":17604,"居留":17605,"體質":17606,"今天凌晨":17607,"單日新增":17608,"也認為":17609,"債券":17610,"公升":17611,"嘔吐":17612,"的決心":17613,"碩士":17614,"約定":17615,"買一":17616,"合同":17617,"對自己":17618,"幫我":17619,"據報":17620,"檸檬":17621,"納稅":17622,"網址":17623,"也跟著":17624,"假設":17625,"停靠":17626,"前幾天":17627,"意志":17628,"普及":17629,"頂尖":17630,"駁斥":17631,"一年多":17632,"兩地":17633,"總會":17634,"都需要":17635,"雷霆":17636,"其中一個":17637,"有一位":17638,"思議":17639,"柏林":17640,"此一":17641,"用力":17642,"貪污":17643,"終場以":17644,"內蒙古":17645,"將面臨":17646,"手錶":17647,"撞死":17648,"注入":17649,"警政":17650,"的人生":17651,"但不":17652,"終點":17653,"日本土":17654,"發出的":17655,"並提供":17656,"平手":17657,"平靜":17658,"損傷":17659,"本質":17660,"胡椒":17661,"超出":17662,"陣中":17663,"麥克":17664,"補習班":17665,"仲介":17666,"新星":17667,"滑手機":17668,"等方式":17669,"肉品":17670,"較少":17671,"體能":17672,"消息一出":17673,"飛球出局":17674,"啦啦隊":17675,"不戴口罩":17676,"原諒":17677,"圖文":17678,"子公司":17679,"月球":17680,"為自己":17681,"日前往":17682,"發表在":17683,"他要":17684,"嚴防":17685,"多地":17686,"我方":17687,"警官":17688,"轉身":17689,"中印":17690,"姓駕駛":17691,"整起":17692,"的後":17693,"變更":17694,"銀河":17695,"還有網友":17696,"需要的":17697,"系列賽":17698,"類似的":17699,"伸出":17700,"同一個":17701,"嘲諷":17702,"威力":17703,"披薩":17704,"球王":17705,"相反":17706,"請願":17707,"台灣在":17708,"最後的":17709,"說明會":17710,"居住在":17711,"幫他":17712,"我自己":17713,"稅收":17714,"違背":17715,"受益":17716,"只需":17717,"急忙":17718,"過濾":17719,"競爭對手":17720,"了許多":17721,"全中":17722,"善意":17723,"導師":17724,"櫃台":17725,"歲時":17726,"菁英":17727,"前提":17728,"參拜":17729,"日舉辦":17730,"突變":17731,"良心":17732,"被要求":17733,"負起":17734,"預賽":17735,"高科技":17736,"一般人":17737,"加碼送":17738,"下面請看一組環球財經簡訊":17739,"位居":17740,"則由":17741,"在記者會上":17742,"大廳":17743,"性命":17744,"海嘯":17745,"藍綠":17746,"根據美國":17747,"時代力量":17748,"增多":17749,"多半":17750,"對岸":17751,"日曾":17752,"身價":17753,"遏止":17754,"錯了":17755,"陝西":17756,"體的":17757,"只要有":17758,"一部":17759,"冒出":17760,"到訪":17761,"十幾":17762,"夜店":17763,"營利":17764,"評審":17765,"選用":17766,"保母":17767,"分許":17768,"又說":17769,"場均":17770,"場出賽":17771,"外媒報導":17772,"左派":17773,"理賠":17774,"量產":17775,"自由的":17776,"兒女":17777,"定時":17778,"房地":17779,"的妻子":17780,"肥胖":17781,"賭場":17782,"星期一":17783,"不可思議":17784,"控告":17785,"搶修":17786,"的資料":17787,"眼看":17788,"備詢":17789,"奶粉":17790,"此後":17791,"激進":17792,"退伍":17793,"行政命令":17794,"值得一提":17795,"美媒":17796,"點心":17797,"下手":17798,"但未":17799,"將軍":17800,"肺部":17801,"賞花":17802,"長久":17803,"事前":17804,"伴侶":17805,"促成":17806,"小子":17807,"港元":17808,"番茄":17809,"的愛":17810,"的選擇":17811,"輪值":17812,"推特上":17813,"出沒":17814,"家莊":17815,"很不":17816,"授課":17817,"旅美":17818,"氣質":17819,"珍貴":17820,"美照":17821,"膨脹":17822,"趕到現場":17823,"都是在":17824,"個多月":17825,"冷卻":17826,"分之一":17827,"層面":17828,"搭上":17829,"放過":17830,"歸隊":17831,"麗菜":17832,"集會活動":17833,"國防部":17834,"北區":17835,"場次":17836,"好嗎":17837,"抗旱":17838,"比重":17839,"求職":17840,"咖啡廳":17841,"休養":17842,"募款":17843,"是指":17844,"林女":17845,"聖地":17846,"財神":17847,"發表會":17848,"使館":17849,"停擺":17850,"研討":17851,"育有":17852,"轉自":17853,"運勢":17854,"頸部":17855,"做生意":17856,"則認為":17857,"應急":17858,"我愛":17859,"日以":17860,"活潑":17861,"自主管理":17862,"做好準備":17863,"中指出":17864,"倡議":17865,"向上":17866,"品種":17867,"熱搜":17868,"一起來":17869,"春節期間":17870,"白沙屯":17871,"感到非常":17872,"法拉":17873,"無核化":17874,"聽完":17875,"醒來":17876,"org14":17877,"反正":17878,"的名字":17879,"希望透過":17880,"一中":17881,"不給":17882,"幫你":17883,"慘死":17884,"會更":17885,"這塊":17886,"因此在":17887,"嫌疑人":17888,"小將":17889,"局的":17890,"會把":17891,"留給":17892,"聖火":17893,"離家":17894,"使其":17895,"例外":17896,"傳來":17897,"再起":17898,"大腸":17899,"廠房":17900,"憑藉":17901,"救難":17902,"反觀":17903,"另據":17904,"我不知道":17905,"拜訪":17906,"方艙":17907,"櫃檯":17908,"淪為":17909,"辱罵":17910,"組織的":17911,"不開":17912,"參謀":17913,"她還":17914,"心碎":17915,"急速":17916,"指令":17917,"的手機":17918,"縱火":17919,"我們已經":17920,"今年第":17921,"友誼":17922,"完了":17923,"民俗":17924,"洩漏":17925,"能有":17926,"可能要":17927,"台獨":17928,"大都會":17929,"必備":17930,"日傍晚":17931,"高山":17932,"政府官員":17933,"為了避免":17934,"恐怖主義":17935,"所為":17936,"音樂會":17937,"巨星":17938,"我已經":17939,"級分":17940,"鈔票":17941,"醫療量能":17942,"產品的":17943,"一套":17944,"台大":17945,"壽命":17946,"皇后":17947,"衝進":17948,"我們需要":17949,"英國變種病毒":17950,"每天都":17951,"變異株":17952,"拿出來":17953,"擅自":17954,"有興趣":17955,"父子":17956,"的症狀":17957,"電競":17958,"到第":17959,"吐司":17960,"長髮":17961,"電源":17962,"外科":17963,"容忍":17964,"察覺":17965,"拘役":17966,"政府在":17967,"則是在":17968,"半數":17969,"就直接":17970,"服務的":17971,"廟宇":17972,"時隔":17973,"首節":17974,"他們是":17975,"檢驗陰性報告":17976,"公鹿":17977,"嚴選":17978,"未知":17979,"試著":17980,"誠實":17981,"邏輯":17982,"那時":17983,"上岸":17984,"傳說":17985,"函送":17986,"層的":17987,"整整":17988,"日因":17989,"溫和":17990,"這輛":17991,"里蘭":17992,"比較多":17993,"紐約報導":17994,"長照機構":17995,"人行道":17996,"一筆":17997,"兩項":17998,"卡羅":17999,"發作":18000,"的地區":18001,"石家莊":18002,"首歌":18003,"一定的":18004,"值得一提的是":18005,"懂得":18006,"紅線":18007,"護欄":18008,"前陣子":18009,"注重":18010,"無疑":18011,"香港警方":18012,"亞利桑那州":18013,"寬鬆":18014,"平地":18015,"批發":18016,"整備":18017,"文創":18018,"犀牛":18019,"要怎麼":18020,"趕到":18021,"英國的":18022,"感到相當":18023,"大谷":18024,"將她":18025,"已進入":18026,"日發生":18027,"等罪嫌":18028,"置信":18029,"邀約":18030,"傳染力":18031,"你會":18032,"你知道":18033,"均有":18034,"指甲":18035,"歷程":18036,"滋事":18037,"班次":18038,"的家庭":18039,"立方":18040,"郵輪":18041,"立法會":18042,"獨行俠":18043,"五股":18044,"優雅":18045,"天下":18046,"娘家":18047,"寒冷":18048,"陳述":18049,"這種情況":18050,"確定病例":18051,"的大型":18052,"重點是":18053,"交出":18054,"接送":18055,"施行":18056,"競技":18057,"來看看":18058,"卻又":18059,"呼應":18060,"日就":18061,"春天":18062,"的看法":18063,"硬體":18064,"自認":18065,"角逐":18066,"不過他":18067,"計劃在":18068,"模特兒":18069,"副總裁":18070,"整天":18071,"框架":18072,"台灣是":18073,"健康狀況":18074,"健康監測":18075,"星期五":18076,"購物中心":18077,"吞敗":18078,"美台":18079,"被指控":18080,"開場":18081,"攝影機":18082,"城區":18083,"士尼":18084,"屬實":18085,"文明":18086,"條規定":18087,"殘酷":18088,"等同":18089,"負壓":18090,"跟大家":18091,"配偶":18092,"隔離中":18093,"流失":18094,"絕不":18095,"兩人在":18096,"侵入":18097,"各校":18098,"水資源":18099,"荷包":18100,"藥局":18101,"被認為是":18102,"迪士尼":18103,"通電話":18104,"萬元以下":18105,"共和國":18106,"印象深刻":18107,"驅逐艦":18108,"尋常":18109,"年到":18110,"款式":18111,"莫名":18112,"車速":18113,"輝瑞疫苗":18114,"上頭":18115,"和家人":18116,"是我們":18117,"物種":18118,"的雙":18119,"避難":18120,"的人權":18121,"有一點":18122,"不好意思":18123,"和他":18124,"噴霧":18125,"南京":18126,"幾位":18127,"案子":18128,"的理由":18129,"不過在":18130,"去年的":18131,"有一天":18132,"併購":18133,"入手":18134,"周六":18135,"張照片":18136,"法網":18137,"無安打":18138,"續約":18139,"翻攝":18140,"解析":18141,"說服":18142,"身上的":18143,"這支":18144,"台南市長":18145,"大事":18146,"姓婦人":18147,"插管":18148,"早晚":18149,"歷年":18150,"球賽":18151,"評委":18152,"該法案":18153,"成年人":18154,"領事館":18155,"做過":18156,"史以來":18157,"新制":18158,"淵源":18159,"上游":18160,"不高":18161,"低收入":18162,"參訪":18163,"常會":18164,"至關":18165,"芒果":18166,"遺失":18167,"世界各國":18168,"生涯第":18169,"對立":18170,"無須":18171,"的黑":18172,"車次":18173,"農會":18174,"冠軍戰":18175,"接獲通報":18176,"你這樣":18177,"千多":18178,"在台中":18179,"思維":18180,"搖擺":18181,"暖暖":18182,"標題":18183,"海灘":18184,"的概念":18185,"現在已經":18186,"的人們":18187,"出不":18188,"已成為":18189,"指南":18190,"有心":18191,"通膨":18192,"陪病":18193,"險勝":18194,"今日新增":18195,"太空站":18196,"摩托車":18197,"之子":18198,"務人員":18199,"實戰":18200,"會導致":18201,"運氣":18202,"社會大眾":18203,"餐飲業":18204,"不起訴":18205,"中興":18206,"冷空氣":18207,"分散":18208,"勾結":18209,"巴克":18210,"港區":18211,"雙城":18212,"飽受":18213,"就是因為":18214,"外送平台":18215,"一杯":18216,"卻因":18217,"獨居":18218,"發酵":18219,"落敗":18220,"進球":18221,"陸戰":18222,"這一切":18223,"列居家隔離":18224,"家門":18225,"文書":18226,"當街":18227,"的方向":18228,"英國政府":18229,"印尼籍":18230,"八大行業":18231,"里程碑":18232,"?」,":18233,"片中":18234,"的服務":18235,"繁殖":18236,"報警處理":18237,"人間":18238,"分成":18239,"大電信":18240,"結果出爐":18241,"近日在":18242,"群聚事件":18243,"輪流停電":18244,"出征":18245,"家醫院":18246,"後被":18247,"真普選":18248,"總幹事":18249,"而不":18250,"而她":18251,"談及":18252,"轉到":18253,"外表":18254,"奧地利":18255,"宇航":18256,"於去年":18257,"灰色":18258,"髮型":18259,">./":18260,"唯一的":18261,"偵訊":18262,"南北":18263,"日夜":18264,"橫幅":18265,"萎縮":18266,"教頭":18267,"per17":18268,"生活中":18269,"國會議員":18270,"物料":18271,"航線":18272,"艦艇":18273,"菜市場":18274,"維持在":18275,"一併":18276,"可靠":18277,"女團":18278,"施加":18279,"護航":18280,"預言":18281,"沒有什麼":18282,"就好了":18283,"大三元":18284,"卻遭":18285,"地院":18286,"字頭":18287,"節日":18288,"詳情":18289,"葡萄牙":18290,"去買":18291,"清醒":18292,"生活中心":18293,"訪問時":18294,"前科":18295,"規律":18296,"重摔":18297,"大媽":18298,"字樣":18299,"廢除":18300,"癱瘓":18301,"陳女":18302,"顏值":18303,"高空":18304,"匯流":18305,"好多":18306,"榮獲":18307,"海報":18308,"民眾對":18309,"特別的":18310,"交通工具":18311,"一聲":18312,"並不會":18313,"九二":18314,"仍會":18315,"拓荒":18316,"擱淺":18317,"收回":18318,"皆有":18319,"練球":18320,"風向":18321,"因為我們":18322,"如果要":18323,"指揮部":18324,"一旁的":18325,"並指出":18326,"吃起來":18327,"居檢":18328,"政院":18329,"條約":18330,"視角":18331,"道理":18332,"時間為":18333,"隔離病房":18334,"製作人":18335,"侵略":18336,"在高雄":18337,"尖峰":18338,"最重":18339,"船長":18340,"匡列接觸者":18341,"仍不":18342,"安定":18343,"應援":18344,"政改":18345,"登入":18346,"經查":18347,"遠的":18348,"阻撓":18349,"可以說是":18350,"保護自己":18351,"再以":18352,"再添":18353,"奧巴馬":18354,"歌唱":18355,"歡呼":18356,"波疫情":18357,"盜竊":18358,"給自己":18359,"鞭炮":18360,"中央疫情指揮中心":18361,"供貨":18362,"增幅":18363,"就得":18364,"脆弱":18365,"蒸發":18366,"赴美":18367,"驅動":18368,"但對":18369,"台日":18370,"大片":18371,"學位":18372,"投保":18373,"氣的":18374,"褲子":18375,"載運":18376,"加油打氣":18377,"自動駕駛":18378,"入海":18379,"到美國":18380,"可透過":18381,"周五":18382,"城鎮":18383,"有網民":18384,"飼料":18385,"面對面":18386,"祕書長":18387,"切割":18388,"年中":18389,"聽了":18390,"首選":18391,"不一":18392,"倒是":18393,"專欄":18394,"專題":18395,"的信":18396,"的比例":18397,"窗口":18398,"育兒":18399,"舒緩":18400,"處境":18401,"防火":18402,"點到":18403,"一句話":18404,"客家":18405,"橡皮":18406,"讓學生":18407,"長相":18408,"靈活":18409,"卻因為":18410,"吐槽":18411,"已無":18412,"放到":18413,"普篩":18414,"的花":18415,"蓄水量":18416,"」...":18417,"一到":18418,"亞馬":18419,"找到了":18420,"菜鳥":18421,"落跑":18422,"不需":18423,"四肢":18424,"因爲":18425,"愛好":18426,"才被":18427,"放射":18428,"歲生日":18429,"突襲":18430,"給他們":18431,"誤導":18432,"餐敘":18433,"必要時":18434,"向法院":18435,"天堂":18436,"招呼":18437,"救人":18438,"有在":18439,"牆壁":18440,"真的太":18441,"表達對":18442,"傳輸":18443,"回擊":18444,"席位":18445,"有能力":18446,"相差":18447,"越多":18448,"路況":18449,"防疫作為":18450,"了兩":18451,"做成":18452,"動能":18453,"好心":18454,"誓言":18455,"銀牌":18456,"國際組織":18457,"年輕的":18458,"雨傘運動":18459,"共軍":18460,"婚變":18461,"局處":18462,"很明顯":18463,"揭曉":18464,"新機":18465,"海南":18466,"可以用":18467,"裡面的":18468,"梅花座":18469,"一票":18470,"好笑":18471,"持槍":18472,"的有":18473,"租賃":18474,"要價":18475,"電費":18476,"社群平台":18477,"做準備":18478,"士氣":18479,"很像":18480,"從沒":18481,"未戴口罩":18482,"呼吸心跳":18483,"研發的":18484,"水域":18485,"無所":18486,"邊的":18487,"全台大停電":18488,"基礎建設":18489,"年齡介於":18490,"保密":18491,"前會長":18492,"又以":18493,"大地":18494,"實踐":18495,"炒作":18496,"購屋":18497,"開花":18498,"粉絲團":18499,"的作用":18500,"與人":18501,"衍生":18502,"被感染":18503,"質感":18504,"迴轉":18505,"一輩子":18506,"交談":18507,"再現":18508,"大同":18509,"購票":18510,"類股":18511,"的一天":18512,"覺得自己":18513,"本來就":18514,"太魯閣號事故":18515,"多一點":18516,"知名的":18517,"民調顯示":18518,"低頭":18519,"早些時候":18520,"核電":18521,"要將":18522,"檢疫期滿":18523,"亞馬遜":18524,"來賓":18525,"億人":18526,"損壞":18527,"月時":18528,"海運":18529,"猶如":18530,"環節":18531,"立院":18532,"該怎麼":18533,"追逐":18534,"達成共識":18535,"就職典禮":18536,"也好":18537,"他透露":18538,"命理":18539,"泊爾":18540,"背包":18541,"跟隨":18542,"他沒有":18543,"全額":18544,"尼泊爾":18545,"序列":18546,"本壘":18547,"百元":18548,"等著":18549,"貼上":18550,"賽冠軍":18551,"發生過":18552,"還有很多":18553,"宣布將":18554,"嚴重影響":18555,"暫居":18556,"棒的":18557,"氣息":18558,"當你":18559,"疑惑":18560,"福克斯":18561,"出現發燒":18562,"世界的":18563,"桃園機場":18564,"聯邦參議員":18565,"全館":18566,"大連":18567,"對面":18568,"搖頭":18569,"的原":18570,"禮盒":18571,"離奇":18572,"至今已":18573,"水泥":18574,"目前仍":18575,"兵力":18576,"勝選":18577,"回復":18578,"外遇":18579,"月到":18580,"節水":18581,"著名的":18582,"路旁":18583,"貿易代表":18584,"樂趣":18585,"日本人":18586,"東半部地區":18587,"不方便":18588,"也不要":18589,"問到":18590,"小黃":18591,"拉警報":18592,"燙傷":18593,"篩選":18594,"營業場所":18595,"這段期間":18596,"儲備":18597,"山林":18598,"接見":18599,"私訊":18600,"立體":18601,"走勢":18602,"身旁":18603,"甚至還有":18604,"電影票":18605,"彈道導彈":18606,"威斯":18607,"源自":18608,"遠程":18609,"人員傷亡":18610,"第三方":18611,"考慮到":18612,"一樓":18613,"也推出":18614,"周四":18615,"的女子":18616,"縣的":18617,"黨的":18618,"接觸的":18619,"了啦":18620,"例子":18621,"小巨蛋":18622,"連同":18623,"黃蜂":18624,"在一旁":18625,"決議案":18626,"在此之前":18627,"阿公店":18628,"伊斯蘭國":18629,"大年初":18630,"尊嚴":18631,"無意":18632,"珊瑚":18633,"的措施":18634,"破發":18635,"還曾":18636,"定讞":18637,"是沒有":18638,"的功能":18639,"納州":18640,"里斯":18641,"都會有":18642,"駕駛人":18643,"中央流行疫情指揮中心指揮官":18644,"確診個案中":18645,"級別":18646,"給出":18647,"總召":18648,"製的":18649,"韓媒":18650,"項鍊":18651,"中部以北":18652,"也應":18653,"圍堵":18654,"孫女":18655,"搶下":18656,"榮耀":18657,"缺口":18658,"跳出來":18659,"酷刑":18660,"鏈接":18661,"傳統的":18662,"不好的":18663,"卡片":18664,"售票":18665,"廣西":18666,"渴望":18667,"禮貌":18668,"立案":18669,"駐日":18670,"拍攝的":18671,"聖誕節":18672,"一身":18673,"上一次":18674,"六都":18675,"受賄":18676,"同日":18677,"團員":18678,"樹木":18679,"檳榔":18680,"創傷":18681,"可行":18682,"姓嫌犯":18683,"已婚":18684,"烏龍":18685,"破門":18686,"萬瓩":18687,"襯衫":18688,"要用":18689,"調查顯示":18690,"其他網友":18691,"紀錄片":18692,"結束了":18693,"推薦影音":18694,">》":18695,"大罵":18696,"後仍":18697,"眼尖":18698,"病毒傳播":18699,"研究顯示":18700,"侵犯人權":18701,"及早":18702,"安靜":18703,"左營":18704,"時左右":18705,"老將":18706,"經濟學家":18707,"他希望":18708,"再創":18709,"升息":18710,"和防疫":18711,"在這次":18712,"航空器":18713,"修正案":18714,"心臟病":18715,"一棟":18716,"再抽":18717,"受災":18718,"幼稚":18719,"泡沫":18720,"的建議":18721,"瞄準":18722,"砂石":18723,"讚揚":18724,"這將":18725,"這點":18726,"頓時":18727,"他們會":18728,"市場預期":18729,"九二共識":18730,"新春":18731,"病故":18732,"的女性":18733,"這時候":18734,"順便":18735,"目前已有":18736,"功效":18737,"粒子":18738,"議程":18739,"台灣人民":18740,"不止":18741,"光線":18742,"在紐約":18743,"後將":18744,"痛哭":18745,"考察":18746,"長得":18747,"頒獎典禮":18748,"再有":18749,"國泰":18750,"年約":18751,"撒嬌":18752,"擴展":18753,"無虞":18754,"軍警":18755,"電影院":18756,"酒測值":18757,"丟掉":18758,"個人的":18759,"封面":18760,"搖晃":18761,"的新聞":18762,"罔腰":18763,"自嘲":18764,"賠率":18765,"頂樓":18766,"高價":18767,"外交政策":18768,"移送法辦":18769,"共和黨":18770,"洽談":18771,"甜甜":18772,"省長":18773,"讚賞":18774,"賣家":18775,"辛勞":18776,"告訴記者":18777,"並列第":18778,"一動":18779,"媽咪":18780,"子裡":18781,"水瓶":18782,"阿密":18783,"世界紀錄":18784,"一職":18785,"出獄":18786,"限於":18787,"高麗菜":18788,"星期三":18789,"陪同下":18790,"依靠":18791,"曲線":18792,"發熱":18793,"車流":18794,"邁阿密":18795,"決定是否":18796,"官員說":18797,"延長至":18798,"施放":18799,"連連":18800,"目前尚":18801,"這是我":18802,"下一秒":18803,"他已經":18804,"同性":18805,"在她":18806,"大街":18807,"的最佳":18808,"盡全力":18809,"視力":18810,"提醒大家":18811,"值得注意的是":18812,"一部分":18813,"出海":18814,"多年前":18815,"好看":18816,"學期":18817,"對向":18818,"持股":18819,"曾說":18820,"生殖":18821,"車門":18822,"接下來的":18823,"中最":18824,"儀器":18825,"刮刮":18826,"商人":18827,"密歇":18828,"斷電":18829,"暑假":18830,"未有":18831,"液體":18832,"組裝":18833,"變數":18834,"人工智慧":18835,"壞球":18836,"很喜歡":18837,"爭吵":18838,"療法":18839,"等因素":18840,"緊緊":18841,"說謊":18842,"讓粉絲":18843,"闖紅燈":18844,"參與者":18845,"他還說":18846,"伴隨":18847,"將大":18848,"拯救":18849,"縣內":18850,"不理":18851,"以避免":18852,"層次":18853,"有名":18854,"柴油":18855,"機票":18856,"粉色":18857,"軍售":18858,"還不錯":18859,"loc5":18860,"偉大的":18861,"內褲":18862,"同為":18863,"妨礙":18864,"抽獎":18865,"等國":18866,"我們正在":18867,"學校的":18868,"冠軍賽":18869,"勞動節":18870,"多雲到":18871,"轟炸機":18872,"拓荒者":18873,"所做的":18874,"老街":18875,"腳踝":18876,"高點":18877,"探測器":18878,"三讀":18879,"圍觀":18880,"有待":18881,"精進":18882,"輪椅":18883,"部立":18884,"默契":18885,"根本沒有":18886,"丟棄":18887,"害羞":18888,"容納":18889,"導航":18890,"就沒":18891,"成一":18892,"男大生":18893,"留守":18894,"疫情衝擊":18895,"醫療機構":18896,"不知情":18897,"乳癌":18898,"兩場":18899,"前夫":18900,"國土":18901,"旅程":18902,"時發現":18903,"緊接著":18904,"難題":18905,"接種後":18906,"製造的":18907,"不適症狀":18908,"畢業後":18909,"回來了":18910,"偏愛":18911,"助於":18912,"彌補":18913,"散發":18914,"是用":18915,"時就":18916,"洋蔥":18917,"缺貨":18918,"缺陣":18919,"比賽的":18920,"有趣的是":18921,"也證實":18922,"地理":18923,"小行星":18924,"有症狀":18925,"未遂":18926,"的舉動":18927,"說到":18928,"調查局":18929,"修正草案":18930,"回事":18931,"工藝":18932,"教導":18933,"會發生":18934,"標章":18935,"的自由":18936,"的反應":18937,"笑話":18938,"工業區":18939,"北向":18940,"領養":18941,"調查結果":18942,"優化":18943,"原地":18944,"反萊豬":18945,"和朋友":18946,"感激":18947,"日及":18948,"編列":18949,"靈魂":18950,"審理後":18951,"住所":18952,"就任":18953,"手搖":18954,"行事":18955,"開唱":18956,"支持的":18957,"有人在":18958,"節目上":18959,"人夫":18960,"化身":18961,"在線":18962,"接下":18963,"疏導":18964,"禁見":18965,"萬輛":18966,"趴趴":18967,"台中市長":18968,"國民黨":18969,"不合理":18970,"在前":18971,"壞了":18972,"小貨車":18973,"據稱":18974,"總統候選人":18975,"居家辦公":18976,"月底開賣":18977,"申辦優惠":18978,"出訪":18979,"動脈":18980,"防曬":18981,"飆出":18982,"高三":18983,"領域的":18984,"傷重":18985,"忽視":18986,"海拔":18987,"缺點":18988,"頭獎":18989,"引發外界":18990,"元宵":18991,"公衛":18992,"和牛":18993,"大排":18994,"奉獻":18995,"家人的":18996,"日接受":18997,"臨檢":18998,"陷阱":18999,"應用程序":19000,"到校":19001,"已開始":19002,"徵才":19003,"應是":19004,"逝世":19005,"多雲到晴":19006,"之虞":19007,"入院":19008,"外流":19009,"年與":19010,"深的":19011,"組圖":19012,"證物":19013,"邁進":19014,"清潔消毒":19015,"長賜號":19016,"申辦優惠加碼送":19017,"亞特蘭":19018,"哭笑":19019,"單月":19020,"洽公":19021,"美豬":19022,"高檔":19023,"第一批":19024,"紫色月底開賣":19025,"名下":19026,"於今年":19027,"流入":19028,"熱銷":19029,"的律師":19030,"聯訪":19031,"自曝":19032,"重現":19033,"風潮":19034,"發表的":19035,"陽春砲":19036,"大電信預購":19037,"功夫":19038,"專制":19039,"日登場":19040,"潮流":19041,"都不是":19042,"管理員":19043,"長期以來":19044,"環保局":19045,"最重要的是":19046,"五個":19047,"公報":19048,"切斷":19049,"女雙":19050,"強拆":19051,"理財":19052,"韓元":19053,"因為在":19054,"已經超過":19055,"所需的":19056,"勇於":19057,"天花":19058,"迴避":19059,"../":19060,"生活的":19061,"哭笑不得":19062,"伸手":19063,"就將":19064,"應付":19065,"打扮":19066,"美髮":19067,"行蹤":19068,"銅牌":19069,"直播主":19070,"搭機前":19071,"公有":19072,"分砲":19073,"包廂":19074,"墜毀":19075,"對應":19076,"彗星":19077,"的地點":19078,"組件":19079,"出現症狀":19080,"第三次":19081,"遠距教學":19082,"一代":19083,"不吃":19084,"副總理":19085,"妥協":19086,"秋冬":19087,"超強":19088,"醫療資源":19089,"反對派":19090,"你們的":19091,"假裝":19092,"副組長":19093,"愛犬":19094,"日期間":19095,"某個":19096,"痠痛":19097,"公道":19098,"年被":19099,"得多":19100,"曖昧":19101,"衰竭":19102,"遞交":19103,"都可":19104,"研究中心":19105,"原則上":19106,"法輪大法日":19107,"合力":19108,"平鎮":19109,"現有的":19110,"秒鐘":19111,"驚人的":19112,"熱門話題":19113,"一夜":19114,"人車":19115,"你有":19116,"多倫":19117,"戶數":19118,"收穫":19119,"特種":19120,"的意思":19121,"雙向":19122,"首發":19123,"出來了":19124,"醫療人員":19125,"三位":19126,"保衛":19127,"名嘴":19128,"接觸到":19129,"一般的":19130,"觀察到":19131,"上一軍":19132,"全員":19133,"可樂":19134,"尾牙":19135,"打掃":19136,"灣區":19137,"煩惱":19138,"空品":19139,"約在":19140,"鯊魚":19141,"正在進行":19142,"中港":19143,"奇摩":19144,"日為止":19145,"沖繩":19146,"的制裁":19147,"的目的":19148,"訪談":19149,"負債":19150,"最後一天":19151,"發動機":19152,"博覽":19153,"在中國大陸":19154,"基準":19155,"抹茶":19156,"會前":19157,"為案":19158,"貨機":19159,"走訪":19160,"進程":19161,"穩定的":19162,"不明原因":19163,"奧斯卡":19164,"但要":19165,"大國":19166,"正視":19167,"潛伏":19168,"熊貓":19169,"配上":19170,"服務業":19171,"民主的":19172,"分析認為":19173,"獨特的":19174,"德基":19175,"惶惶":19176,"桃花":19177,"港幣":19178,"神祕":19179,"被擊出":19180,"雖然沒有":19181,"公布了":19182,"知名度":19183,"首席執行官":19184,"!」,":19185,"偷走":19186,"推車":19187,"歲至":19188,"監護":19189,"金馬":19190,"星期二":19191,"並請":19192,"光明":19193,"悠遊":19194,"擊斃":19195,"綜合報導南韓":19196,"付錢":19197,"剩下的":19198,"口腔":19199,"地檢":19200,"塑料":19201,"年節":19202,"潛艇":19203,"盡可能":19204,"脅迫":19205,"今天起":19206,"根本沒":19207,"夥伴關係":19208,"不良反應":19209,"不著":19210,"已掌握":19211,"機型":19212,"老大":19213,"致意":19214,"荒謬":19215,"遊艇":19216,"開跑":19217,"陣線":19218,"指揮中心發言人":19219,"預計將":19220,"上帝":19221,"作收":19222,"找人":19223,"搜查":19224,
[...]
