{"version":"1.0","truncation":null,"padding":null,"added_tokens":[{"id":0,"special":true,"content":"<unk>","single_word":false,"lstrip":false,"rstrip":false,"normalized":false},{"id":1,"special":true,"content":"[CLS]","single_word":false,"lstrip":false,"rstrip":false,"normalized":false},{"id":2,"special":true,"content":"[SEP]","single_word":false,"lstrip":false,"rstrip":false,"normalized":false},{"id":3,"special":true,"content":"[PAD]","single_word":false,"lstrip":false,"rstrip":false,"normalized":false},{"id":4,"special":true,"content":"[MASK]","single_word":false,"lstrip":false,"rstrip":false,"normalized":false},{"id":5,"special":true,"content":"<en>","single_word":false,"lstrip":false,"rstrip":false,"normalized":false},{"id":6,"special":true,"content":"<num>","single_word":false,"lstrip":false,"rstrip":false,"normalized":false},{"id":7,"special":true,"content":"<per0>","single_word":false,"lstrip":false,"rstrip":false,"normalized":false},{"id":8,"special":true,"content":"<per1>","single_word":false,"lstrip":false,"rstrip":false,"normalized":false},{"id":9,"special":true,"content":"<per2>","single_word":false,"lstrip":false,"rstrip":false,"normalized":false},{"id":10,"special":true,"content":"<per3>","single_word":false,"lstrip":false,"rstrip":false,"normalized":false},{"id":11,"special":true,"content":"<per4>","single_word":false,"lstrip":false,"rstrip":false,"normalized":false},{"id":12,"special":true,"content":"<per5>","single_word":false,"lstrip":false,"rstrip":false,"normalized":false},{"id":13,"special":true,"content":"<per6>","single_word":false,"lstrip":false,"rstrip":false,"normalized":false},{"id":14,"special":true,"content":"<per7>","single_word":false,"lstrip":false,"rstrip":false,"normalized":false},{"id":15,"special":true,"content":"<per8>","single_word":false,"lstrip":false,"rstrip":false,"normalized":false},{"id":16,"special":true,"content":"<per9>","single_word":false,"lstrip":false,"rstrip":false,"normalized":false},{"id":17,"special":true,"content":"<org0>","single_word":false,"lstrip":false,"rstrip":false,"normalized":false},{"id":18,"special":true,"content":"<org1>","single_word":false,"lstrip":false,"rstrip":false,"normalized":false},{"id":19,"special":true,"content":"<org2>","single_word":false,"lstrip":false,"rstrip":false,"normalized":false},{"id":20,"special":true,"content":"<org3>","single_word":false,"lstrip":false,"rstrip":false,"normalized":false},{"id":21,"special":true,"content":"<org4>","single_word":false,"lstrip":false,"rstrip":false,"normalized":false},{"id":22,"special":true,"content":"<org5>","single_word":false,"lstrip":false,"rstrip":false,"normalized":false},{"id":23,"special":true,"content":"<org6>","single_word":false,"lstrip":false,"rstrip":false,"normalized":false},{"id":24,"special":true,"content":"<org7>","single_word":false,"lstrip":false,"rstrip":false,"normalized":false},{"id":25,"special":true,"content":"<org8>","single_word":false,"lstrip":false,"rstrip":false,"normalized":false},{"id":26,"special":true,"content":"<org9>","single_word":false,"lstrip":false,"rstrip":false,"normalized":false},{"id":27,"special":true,"content":"<loc0>","single_word":false,"lstrip":false,"rstrip":false,"normalized":false},{"id":28,"special":true,"content":"<loc1>","single_word":false,"lstrip":false,"rstrip":false,"normalized":false},{"id":29,"special":true,"content":"<loc2>","single_word":false,"lstrip":false,"rstrip":false,"normalized":false},{"id":30,"special":true,"content":"<loc3>","single_word":false,"lstrip":false,"rstrip":false,"normalized":false},{"id":31,"special":true,"content":"<loc4>","single_word":false,"lstrip":false,"rstrip":false,"normalized":false},{"id":32,"special":true,"content":"<loc5>","single_word":false,"lstrip":false,"rstrip":false,"normalized":false},{"id":33,"special":true,"content":"<loc6>","single_word":false,"lstrip":false,"rstrip":false,"normalized":false},{"id":34,"special":true,"content":"<loc7>","single_word":false,"lstrip":false,"rstrip":false,"normalized":false},{"id":35,"special":true,"content":"<loc8>","single_word":false,"lstrip":false,"rstrip":false,"normalized":false},{"id":36,"special":true,"content":"<loc9>","single_word":false,"lstrip":false,"rstrip":false,"normalized":false}],"normalizer":null,"pre_tokenizer":{"type":"Whitespace"},"post_processor":null,"decoder":null,"model":{"type":"BPE","dropout":null,"unk_token":"<unk>","continuing_subword_prefix":null,"end_of_word_suffix":null,"fuse_unk":false,"vocab":{"<unk>":0,"[CLS]":1,"[SEP]":2,"[PAD]":3,"[MASK]":4,"<en>":5,"<num>":6,"<per0>":7,"<per1>":8,"<per2>":9,"<per3>":10,"<per4>":11,"<per5>":12,"<per6>":13,"<per7>":14,"<per8>":15,"<per9>":16,"<org0>":17,"<org1>":18,"<org2>":19,"<org3>":20,"<org4>":21,"<org5>":22,"<org6>":23,"<org7>":24,"<org8>":25,"<org9>":26,"<loc0>":27,"<loc1>":28,"<loc2>":29,"<loc3>":30,"<loc4>":31,"<loc5>":32,"<loc6>":33,"<loc7>":34,"<loc8>":35,"<loc9>":36,"\b":37,"\u001c":38,"\u001d":39,"!":40,"\"":41,"#":42,"$":43,"%":44,"&":45,"'":46,"(":47,")":48,"*":49,"+":50,",":51,"-":52,".":53,"/":54,"0":55,"1":56,"2":57,"3":58,"4":59,"5":60,"6":61,"7":62,"8":63,"9":64,":":65,";":66,"<":67,"=":68,">":69,"?":70,"@":71,"E":72,"P":73,"S":74,"[":75,"\\":76,"]":77,"^":78,"_":79,"`":80,"c":81,"e":82,"g":83,"k":84,"l":85,"m":86,"n":87,"o":88,"p":89,"r":90,"u":91,"{":92,"|":93,"}":94,"~":95,"":96,"¡":97,"£":98,"§":99,"©":100,"«":101,"¬":102,"­":103,"®":104,"°":105,"±":106,"·":107,"»":108,"×":109,"÷":110,"ʼ":111,"ˇ":112,"ˊ":113,"ˋ":114,"ˍ":115,"ˎ":116,"˗":117,"́":118,"̄":119,"̆":120,"̇":121,"̊":122,"̍":123,"͟":124,"͵":125,"Β":126,"Δ":127,"Ο":128,"Σ":129,"α":130,"β":131,"γ":132,"δ":133,"ε":134,"η":135,"θ":136,"μ":137,"π":138,"ω":139,"Ѕ":140,"А":141,"Б":142,"В":143,"Г":144,"Д":145,"З":146,"И":147,"К":148,"М":149,"Н":150,"О":151,"П":152,"Р":153,"С":154,"Т":155,"У":156,"Ф":157,"Х":158,"Ч":159,"Ы":160,"Э":161,"Ю":162,"Я":163,"а":164,"б":165,"в":166,"г":167,"д":168,"е":169,"ж":170,"з":171,"и":172,"й":173,"к":174,"л":175,"м":176,"н":177,"о":178,"п":179,"р":180,"с":181,"т":182,"у":183,"ф":184,"х":185,"ц":186,"ч":187,"ш":188,"щ":189,"ы":190,"ь":191,"э":192,"ю":193,"я":194,"ё":195,"أ":196,"ا":197,"ت":198,"ج":199,"ح":200,"د":201,"ر":202,"ز":203,"س":204,"ع":205,"ف":206,"ك":207,"ل":208,"م":209,"ن":210,"ه":211,"ي":212,"ं":213,"इ":214,"ई":215,"ए":216,"क":217,"ग":218,"च":219,"ज":220,"ट":221,"ण":222,"त":223,"न":224,"प":225,"फ":226,"भ":227,"म":228,"य":229,"र":230,"ल":231,"ष":232,"स":233,"ह":234,"़":235,"ा":236,"ि":237,"ी":238,"े":239,"ै":240,"ो":241,"ौ":242,"्":243,"ก":244,"ข":245,"ค":246,"ง":247,"จ":248,"ช":249,"ซ":250,"ญ":251,"ณ":252,"ด":253,"ต":254,"ถ":255,"ท":256,"น":257,"บ":258,"ป":259,"ผ":260,"พ":261,"ฟ":262,"ภ":263,"ม":264,"ย":265,"ร":266,"ล":267,"ว":268,"ศ":269,"ส":270,"ห":271,"อ":272,"ะ":273,"ั":274,"า":275,"ิ":276,"ี":277,"ื":278,"ุ":279,"ู":280,"เ":281,"แ":282,"โ":283,"ใ":284,"ไ":285,"็":286,"่":287,"้":288,"๊":289,"๋":290,"์":291,"က":292,"ခ":293,"င":294,"ဆ":295,"ည":296,"တ":297,"ဒ":298,"န":299,"ပ":300,"ဖ":301,"မ":302,"ရ":303,"လ":304,"သ":305,"အ":306,"ာ":307,"ိ":308,"ီ":309,"ု":310,"ူ":311,"ေ":312,"ဲ":313,"ံ":314,"့":315,"း":316,"္":317,"်":318,"ျ":319,"ြ":320,"ွ":321,"ှ":322,"၀":323,"၁":324,"။":325,"႔":326,"ბ":327,"თ":328,"ი":329,"ლ":330,"ს":331,"ᐡ":332,"ᗩ":333,"​":334,"‌":335,"‍":336,"‎":337,"‐":338,"–":339,"—":340,"―":341,"‘":342,"’":343,"“":344,"”":345,"•":346,"‧":347,"‪":348,"‬":349,"‭":350,"‰":351,"′":352,"‵":353,"※":354,"‿":355,"⁃":356,"⁄":357,"⁠":358,"⁣":359,"⁦":360,"⁩":361,"€":362,"⃟":363,"⃣":364,"Ↄ":365,"←":366,"↑":367,"→":368,"↓":369,"↘":370,"⇒":371,"∀":372,"−":373,"∕":374,"∞":375,"∴":376,"∶":377,"∼":378,"≈":379,"≒":380,"≠":381,"≤":382,"≥":383,"≦":384,"≧":385,"⊙":386,"⋯":387,"⎓":388,"⏩":389,"⏰":390,"─":391,"│":392,"╭":393,"╮":394,"╯":395,"╰":396,"╱":397,"╲":398,"╳":399,"▇":400,"█":401,"▉":402,"▊":403,"▋":404,"▌":405,"▍":406,"▎":407,"■":408,"□":409,"▪":410,"▲":411,"△":412,"▶":413,"▷":414,"▸":415,"►":416,"▼":417,"◀":418,"◆":419,"◉":420,"○":421,"◎":422,"●":423,"◞":424,"◟":425,"◢":426,"◤":427,"◯":428,"☀":429,"★":430,"☆":431,"☐":432,"☑":433,"☕":434,"☘":435,"☞":436,"☠":437,"☯":438,"☺":439,"♀":440,"♂":441,"♡":442,"♥":443,"♦":444,"♪":445,"♬":446,"♻":447,"♾":448,"⚖":449,"⚠":450,"⚡":451,"⛄":452,"⛔":453,"⛱":454,"⛸":455,"⛹":456,"⛽":457,"✈":458,"✊":459,"✋":460,"✌":461,"✎":462,"✓":463,"✔":464,"✕":465,"✖":466,"✥":467,"✦":468,"✨":469,"✸":470,"✿":471,"❄":472,"❌":473,"❔":474,"❗":475,"❘":476,"❣":477,"❤":478,"❶":479,"❷":480,"❸":481,"❹":482,"❺":483,"❻":484,"❼":485,"❽":486,"❾":487,"➊":488,"➋":489,"➌":490,"➍":491,"➎":492,"➔":493,"➡":494,"➤":495,"⠀":496,"⬇":497,"⭐":498,"⭕":499,"⸺":500,"⺠":501,"⻄":502,"⻆":503,"⻑":504,"⻛":505,"、":506,"。":507,"々":508,"〇":509,"〈":510,"〉":511,"《":512,"》":513,"「":514,"」":515,"『":516,"』":517,"【":518,"】":519,"〒":520,"〔":521,"〕":522,"〖":523,"〗":524,"〜":525,"〝":526,"〞":527,"〟":528,"〡":529,"゚":530,"ー":531,"ㄅ":532,"ㄆ":533,"ㄇ":534,"ㄈ":535,"ㄉ":536,"ㄊ":537,"ㄋ":538,"ㄌ":539,"ㄍ":540,"ㄎ":541,"ㄏ":542,"ㄐ":543,"ㄑ":544,"ㄒ":545,"ㄓ":546,"ㄔ":547,"ㄕ":548,"ㄖ":549,"ㄗ":550,"ㄘ":551,"ㄙ":552,"ㄚ":553,"ㄛ":554,"ㄜ":555,"ㄝ":556,"ㄞ":557,"ㄟ":558,"ㄠ":559,"ㄡ":560,"ㄢ":561,"ㄣ":562,"ㄤ":563,"ㄥ":564,"ㄦ":565,"ㄧ":566,"ㄨ":567,"ㄩ":568,"㑹":569,"㖔":570,"㖭":571,"㗎":572,"㡳":573,"㢢":574,"㧡":575,"㩦":576,"㮔":577,"㷫":578,"㹢":579,"㹴":580,"㺢":581,"㺯":582,"㼈":583,"䁔":584,"䄜":585,"䅲":586,"䓬":587,"䕶":588,"䠷":589,"䡗":590,"䴉":591,"一":592,"丁":593,"七":594,"丅":595,"万":596,"丈":597,"三":598,"上":599,"下":600,"不":601,"与":602,"丐":603,"丑":604,"专":605,"且":606,"丕":607,"世":608,"丘":609,"丙":610,"东":611,"丞":612,"丟":613,"両":614,"丢":615,"两":616,"严":617,"並":618,"丨":619,"个":620,"丫":621,"中":622,"丰":623,"串":624,"临":625,"丶":626,"丸":627,"丹":628,"为":629,"主":630,"丼":631,"丽":632,"举":633,"丿":634,"乂":635,"乃":636,"久":637,"么":638,"义":639,"之":640,"乍":641,"乎":642,"乏":643,"乑":644,"乒":645,"乓":646,"乖":647,"乗":648,"乘":649,"乙":650,"九":651,"乞":652,"也":653,"乡":654,"乩":655,"乱":656,"乳":657,"乾":658,"亀":659,"亁":660,"亂":661,"了":662,"亇":663,"予":664,"争":665,"事":666,"二":667,"亍":668,"于":669,"云":670,"互":671,"亓":672,"五":673,"井":674,"亙":675,"些":676,"亜":677,"亞":678,"亟":679,"亡":680,"亢":681,"交":682,"亥":683,"亦":684,"亨":685,"享":686,"京":687,"亭":688,"亮":689,"亲":690,"亳":691,"人":692,"亻":693,"亿":694,"什":695,"仁":696,"仄":697,"仆":698,"仇":699,"仉":700,"今":701,"介":702,"仍":703,"从":704,"仏":705,"仔":706,"仕":707,"他":708,"仗":709,"付":710,"仙":711,"仝":712,"仟":713,"代":714,"令":715,"以":716,"仨":717,"们":718,"仰":719,"仲":720,"仳":721,"件":722,"价":723,"任":724,"仼":725,"份":726,"仿":727,"企":728,"伃":729,"伉":730,"伊":731,"伍":732,"伎":733,"伏":734,"伐":735,"休":736,"伕":737,"众":738,"伙":739,"会":740,"伝":741,"传":742,"伦":743,"伯":744,"估":745,"伴":746,"伶":747,"伸":748,"伺":749,"似":750,"伽":751,"佃":752,"但":753,"佇":754,"佈":755,"位":756,"低":757,"住":758,"佐":759,"佑":760,"体":761,"佔":762,"何":763,"佗":764,"佘":765,"余":766,"佚":767,"佛":768,"作":769,"佝":770,"佞":771,"你":772,"佢":773,"佣":774,"佤":775,"佩":776,"佬":777,"佮":778,"佯":779,"佰":780,"佳":781,"併":782,"佶":783,"佻":784,"佼":785,"佾":786,"使":787,"侃":788,"侄":789,"來":790,"侈":791,"例":792,"侍":793,"侏":794,"侑":795,"侖":796,"侗":797,"侘":798,"供":799,"依":800,"価":801,"侣":802,"侮":803,"侯":804,"侵":805,"侶":806,"侷":807,"便":808,"俁":809,"係":810,"促":811,"俄":812,"俊":813,"俋":814,"俎":815,"俏":816,"俐":817,"俑":818,"俓":819,"俗":820,"俘":821,"俚":822,"保":823,"俞":824,"俟":825,"俠":826,"信":827,"俢":828,"俣":829,"俥":830,"俬":831,"修":832,"俯":833,"俱":834,"俳":835,"俵":836,"俸":837,"俺":838,"俾":839,"倀":840,"倂":841,"倆":842,"倉":843,"個":844,"倌":845,"倍":846,"倏":847,"們":848,"倒":849,"倔":850,"倖":851,"倘":852,"候":853,"倚":854,"倜":855,"倞":856,"借":857,"倡":858,"倢":859,"値":860,"倥":861,"倦":862,"倨":863,"倩":864,"倪":865,"倫":866,"倬":867,"倭":868,"倰":869,"倶":870,"值":871,"偃":872,"假":873,"偈":874,"偉":875,"偌":876,"偎":877,"偏":878,"偒":879,"偕":880,"做":881,"停":882,"健":883,"偱":884,"偲":885,"側":886,"偵":887,"偶":888,"偷":889,"偽":890,"傀":891,"傅":892,"傈":893,"傍":894,"傎":895,"傑":896,"傘":897,"備":898,"傚":899,"傢":900,"傣":901,"催":902,"傭":903,"傯":904,"傱":905,"傲":906,"傳":907,"傴":908,"債":909,"傷":910,"傻":911,"傾":912,"僂":913,"僅":914,"僊":915,"働":916,"像":917,"僑":918,"僕":919,"僚":920,"僥":921,"僧":922,"僬":923,"僭":924,"僮":925,"僱":926,"僳":927,"僵":928,"價":929,"僻":930,"儀":931,"儁":932,"儂":933,"億":934,"儆":935,"儉":936,"儋":937,"儍":938,"儎":939,"儐":940,"儒":941,"儔":942,"儕":943,"儘":944,"償":945,"儡":946,"儣":947,"優":948,"儲":949,"儷":950,"儸":951,"儻":952,"儼":953,"儿":954,"兀":955,"允":956,"元":957,"兄":958,"充":959,"兆":960,"兇":961,"先":962,"光":963,"克":964,"兌":965,"免":966,"児":967,"兑":968,"兒":969,"兔":970,"兗":971,"党":972,"兜":973,"兢":974,"入":975,"內":976,"全":977,"兩":978,"八":979,"公":980,"六":981,"兮":982,"共":983,"关":984,"兴":985,"兵":986,"其":987,"具":988,"典":989,"兹":990,"养":991,"兼":992,"冀":993,"内":994,"円":995,"冇":996,"冉":997,"冊":998,"冋":999,"册":1000,"再":1001,"冏":1002,"冑":1003,"冒":1004,"冓":1005,"冕":1006,"冗":1007,"写":1008,"冚":1009,"军":1010,"冠":1011,"冢":1012,"冤":1013,"冥":1014,"冧":1015,"冨":1016,"冪":1017,"冬":1018,"冰":1019,"冲":1020,"决":1021,"冴":1022,"况":1023,"冶":1024,"冷":1025,"冽":1026,"净":1027,"凃":1028,"凄":1029,"凅":1030,"准":1031,"凈":1032,"凉":1033,"凊":1034,"凋":1035,"凌":1036,"凍":1037,"减":1038,"凑":1039,"凖":1040,"凜":1041,"凝":1042,"几":1043,"凡":1044,"処":1045,"凪":1046,"凰":1047,"凱":1048,"凳":1049,"凶":1050,"凸":1051,"凹":1052,"出":1053,"击":1054,"函":1055,"刀":1056,"刁":1057,"刃":1058,"刄":1059,"分":1060,"切":1061,"刈":1062,"刊":1063,"刋":1064,"刎":1065,"刑":1066,"划":1067,"刖":1068,"列":1069,"则":1070,"刚":1071,"创":1072,"初":1073,"删":1074,"刣":1075,"判":1076,"別":1077,"刨":1078,"利":1079,"刪":1080,"别":1081,"刮":1082,"到":1083,"制":1084,"刷":1085,"券":1086,"刺":1087,"刻":1088,"剁":1089,"剃":1090,"則":1091,"剉":1092,"削":1093,"剋":1094,"剌":1095,"前":1096,"剎":1097,"剏":1098,"剔":1099,"剖":1100,"剛":1101,"剜":1102,"剝":1103,"剞":1104,"剥":1105,"剩":1106,"剪":1107,"剮":1108,"副":1109,"割":1110,"剴":1111,"創":1112,"剷":1113,"剽":1114,"剿":1115,"劂":1116,"劃":1117,"劇":1118,"劈":1119,"劉":1120,"劊":1121,"劍":1122,"劏":1123,"劑":1124,"劓":1125,"力":1126,"办":1127,"功":1128,"加":1129,"务":1130,"劣":1131,"动":1132,"助":1133,"努":1134,"劫":1135,"劬":1136,"劭":1137,"励":1138,"劳":1139,"労":1140,"劵":1141,"効":1142,"劼":1143,"劾":1144,"势":1145,"勁":1146,"勃":1147,"勅":1148,"勇":1149,"勉":1150,"勍":1151,"勑":1152,"勒":1153,"動":1154,"勗":1155,"勘":1156,"務":1157,"勛":1158,"勝":1159,"勞":1160,"募":1161,"勠":1162,"勢":1163,"勤":1164,"勧":1165,"勳":1166,"勵":1167,"勸":1168,"勺":1169,"勻":1170,"勾":1171,"勿":1172,"包":1173,"匆":1174,"匈":1175,"匍":1176,"匏":1177,"匐":1178,"匕":1179,"化":1180,"北":1181,"匙":1182,"匜":1183,"匝":1184,"匠":1185,"匡":1186,"匣":1187,"匪":1188,"匭":1189,"匯":1190,"匱":1191,"匹":1192,"区":1193,"医":1194,"匾":1195,"匿":1196,"區":1197,"十":1198,"千":1199,"卅":1200,"升":1201,"午":1202,"卉":1203,"半":1204,"卌":1205,"卍":1206,"协":1207,"卑":1208,"卒":1209,"卓":1210,"協":1211,"单":1212,"卖":1213,"南":1214,"単":1215,"博":1216,"卜":1217,"卞":1218,"占":1219,"卡":1220,"卦":1221,"卧":1222,"卫":1223,"卯":1224,"印":1225,"危":1226,"即":1227,"却":1228,"卵":1229,"卷":1230,"卸":1231,"卹":1232,"卺":1233,"卻":1234,"卿":1235,"厄":1236,"厉":1237,"压":1238,"厓":1239,"厘":1240,"厚":1241,"厝":1242,"原":1243,"厠":1244,"厥":1245,"厦":1246,"厨":1247,"厭":1248,"厰":1249,"厲":1250,"厳":1251,"厶":1252,"去":1253,"县":1254,"叁":1255,"参":1256,"參":1257,"又":1258,"叉":1259,"及":1260,"友":1261,"双":1262,"反":1263,"収":1264,"发":1265,"叔":1266,"取":1267,"受":1268,"变":1269,"叙":1270,"叛":1271,"叟":1272,"叠":1273,"叡":1274,"叢":1275,"口":1276,"古":1277,"句":1278,"另":1279,"叨":1280,"叩":1281,"只":1282,"叫":1283,"召":1284,"叭":1285,"叮":1286,"可":1287,"台":1288,"叱":1289,"史":1290,"右":1291,"叵":1292,"叶":1293,"号":1294,"司":1295,"叻":1296,"叼":1297,"吁":1298,"吃":1299,"各":1300,"吆":1301,"合":1302,"吉":1303,"吊":1304,"吋":1305,"同":1306,"名":1307,"后":1308,"吏":1309,"吐":1310,"向":1311,"吒":1312,"吔":1313,"吗":1314,"君":1315,"吝":1316,"吞":1317,"吟":1318,"吠":1319,"吡":1320,"否":1321,"吧":1322,"吩":1323,"含":1324,"吭":1325,"吮":1326,"启":1327,"吰":1328,"吱":1329,"吲":1330,"吳":1331,"吵":1332,"吶":1333,"吸":1334,"吹":1335,"吻":1336,"吼":1337,"吽":1338,"吾":1339,"吿":1340,"呀":1341,"呂":1342,"呃":1343,"呄":1344,"呆":1345,"呈":1346,"呉":1347,"告":1348,"呋":1349,"呎":1350,"呐":1351,"员":1352,"呢":1353,"呣":1354,"呤":1355,"呦":1356,"周":1357,"呱":1358,"味":1359,"呵":1360,"呶":1361,"呷":1362,"呸":1363,"呻":1364,"呼":1365,"命":1366,"咀":1367,"咁":1368,"咄":1369,"咆":1370,"咋":1371,"和":1372,"咎":1373,"咐":1374,"咒":1375,"咔":1376,"咕":1377,"咖":1378,"咗":1379,"咘":1380,"咚":1381,"咤":1382,"咥":1383,"咦":1384,"咧":1385,"咨":1386,"咩":1387,"咪":1388,"咫":1389,"咬":1390,"咯":1391,"咱":1392,"咲":1393,"咳":1394,"咶":1395,"咸":1396,"咻":1397,"咽":1398,"咾":1399,"咿":1400,"哀":1401,"品":1402,"哂":1403,"哄":1404,"哆":1405,"哇":1406,"哈":1407,"哉":1408,"哋":1409,"响":1410,"哎":1411,"哏":1412,"哐":1413,"哒":1414,"哖":1415,"哚":1416,"哞":1417,"哟":1418,"員":1419,"哥":1420,"哦":1421,"哧":1422,"哨":1423,"哩":1424,"哪":1425,"哭":1426,"哮":1427,"哲":1428,"哺":1429,"哼":1430,"哽":1431,"唁":1432,"唄":1433,"唆":1434,"唇":1435,"唉":1436,"唏":1437,"唐":1438,"唑":1439,"唔":1440,"唦":1441,"唧":1442,"唬":1443,"唭":1444,"售":1445,"唯":1446,"唰":1447,"唱":1448,"唳":1449,"唷":1450,"唸":1451,"唾":1452,"啃":1453,"啄":1454,"商":1455,"啉":1456,"啊":1457,"問":1458,"啓":1459,"啕":1460,"啖":1461,"啜":1462,"啞":1463,"啟":1464,"啡":1465,"啣":1466,"啤":1467,"啥":1468,"啦":1469,"啪":1470,"啱":1471,"啲":1472,"啵":1473,"啶":1474,"啷":1475,"啻":1476,"啼":1477,"啾":1478,"喀":1479,"喁":1480,"喂":1481,"喃":1482,"善":1483,"喆":1484,"喇":1485,"喉":1486,"喊":1487,"喋":1488,"喎":1489,"喏":1490,"喑":1491,"喔":1492,"喘":1493,"喙":1494,"喚":1495,"喜":1496,"喝":1497,"喧":1498,"喪":1499,"喫":1500,"喬":1501,"單":1502,"喱":1503,"喲":1504,"喳":1505,"喵":1506,"営":1507,"喹":1508,"喺":1509,"喻":1510,"喽":1511,"嗄":1512,"嗅":1513,"嗆":1514,"嗇":1515,"嗎":1516,"嗑":1517,"嗒":1518,"嗓":1519,"嗔":1520,"嗖":1521,"嗚":1522,"嗜":1523,"嗝":1524,"嗟":1525,"嗡":1526,"嗣":1527,"嗤":1528,"嗥":1529,"嗦":1530,"嗨":1531,"嗩":1532,"嗯":1533,"嗰":1534,"嗲":1535,"嗶":1536,"嗷":1537,"嗽":1538,"嘀":1539,"嘅":1540,"嘆":1541,"嘈":1542,"嘉":1543,"嘌":1544,"嘍":1545,"嘎":1546,"嘔":1547,"嘖":1548,"嘗":1549,"嘘":1550,"嘛":1551,"嘜":1552,"嘞":1553,"嘟":1554,"嘣":1555,"嘧":1556,"嘨":1557,"嘩":1558,"嘮":1559,"嘯":1560,"嘰":1561,"嘱":1562,"嘲":1563,"嘴":1564,"嘶":1565,"嘸":1566,"嘹":1567,"嘻":1568,"嘿":1569,"噁":1570,"噌":1571,"噍":1572,"噎":1573,"噓":1574,"噔":1575,"噗":1576,"噘":1577,"噙":1578,"噚":1579,"噠":1580,"噢":1581,"噤":1582,"噥":1583,"器":1584,"噩":1585,"噪":1586,"噬":1587,"噯":1588,"噱":1589,"噴":1590,"噶":1591,"噸":1592,"噹":1593,"噻":1594,"嚀":1595,"嚅":1596,"嚇":1597,"嚎":1598,"嚏":1599,"嚐":1600,"嚓":1601,"嚕":1602,"嚙":1603,"嚟":1604,"嚥":1605,"嚦":1606,"嚨":1607,"嚮":1608,"嚴":1609,"嚶":1610,"嚷":1611,"嚼":1612,"囁":1613,"囂":1614,"囈":1615,"囉":1616,"囊":1617,"囌":1618,"囍":1619,"囑":1620,"囓":1621,"囔":1622,"囗":1623,"囘":1624,"囚":1625,"四":1626,"囝":1627,"回":1628,"囟":1629,"因":1630,"囡":1631,"団":1632,"囤":1633,"囧":1634,"囪":1635,"囫":1636,"困":1637,"囱":1638,"囲":1639,"図":1640,"围":1641,"囹":1642,"固":1643,"国":1644,"图":1645,"囿":1646,"圃":1647,"圄":1648,"圇":1649,"圈":1650,"國":1651,"圍":1652,"圏":1653,"圑":1654,"園":1655,"圓":1656,"圖":1657,"團":1658,"圜":1659,"土":1660,"在":1661,"圭":1662,"圮":1663,"圯":1664,"地":1665,"圳":1666,"场":1667,"圾":1668,"址":1669,"坂":1670,"均":1671,"坊":1672,"坌":1673,"坍":1674,"坎":1675,"坏":1676,"坐":1677,"坑":1678,"坚":1679,"坡":1680,"坢":1681,"坣":1682,"坤":1683,"坦":1684,"坨":1685,"坪":1686,"坯":1687,"坳":1688,"坵":1689,"坷":1690,"垂":1691,"垃":1692,"型":1693,"垛":1694,"垜":1695,"垠":1696,"垢":1697,"垣":1698,"垫":1699,"垮":1700,"垵":1701,"垻":1702,"埀":1703,"埂":1704,"埃":1705,"埆":1706,"埈":1707,"埋":1708,"城":1709,"埏":1710,"埒":1711,"埔":1712,"埕":1713,"埗":1714,"域":1715,"埠":1716,"埡":1717,"埤":1718,"埨":1719,"埭":1720,"埴":1721,"執":1722,"埸":1723,"培":1724,"基":1725,"埼":1726,"堀":1727,"堂":1728,"堃":1729,"堅":1730,"堆":1731,"堇":1732,"堉":1733,"堊":1734,"堕":1735,"堡":1736,"堤":1737,"堪":1738,"堯":1739,"堰":1740,"報":1741,"場":1742,"堵":1743,"堺":1744,"堿":1745,"塊":1746,"塌":1747,"塍":1748,"塏":1749,"塑":1750,"塔":1751,"塗":1752,"塘":1753,"塚":1754,"塞":1755,"塡":1756,"塢":1757,"塩":1758,"填":1759,"塭":1760,"塱":1761,"塲":1762,"塵":1763,"塹":1764,"塾":1765,"墀":1766,"境":1767,"墅":1768,"墉":1769,"墊":1770,"墓":1771,"増":1772,"墘":1773,"墜":1774,"增":1775,"墟":1776,"墣":1777,"墨":1778,"墩":1779,"墮":1780,"墳":1781,"墶":1782,"墻":1783,"墾":1784,"壁":1785,"壅":1786,"壇":1787,"壊":1788,"壑":1789,"壓":1790,"壕":1791,"壘":1792,"壞":1793,"壟":1794,"壠":1795,"壢":1796,"壤":1797,"壩":1798,"士":1799,"壬":1800,"壮":1801,"壯":1802,"声":1803,"売":1804,"壶":1805,"壹":1806,"壺":1807,"壼":1808,"壽":1809,"夀":1810,"夃":1811,"夆":1812,"备":1813,"変":1814,"复":1815,"夏":1816,"夐":1817,"夑":1818,"夔":1819,"夕":1820,"外":1821,"夙":1822,"多":1823,"夜":1824,"够":1825,"夠":1826,"夢":1827,"夤":1828,"夥":1829,"大":1830,"天":1831,"太":1832,"夫":1833,"夬":1834,"夭":1835,"央":1836,"夯":1837,"失":1838,"夲":1839,"头":1840,"夷":1841,"夸":1842,"夾":1843,"奄":1844,"奇":1845,"奈":1846,"奉":1847,"奋":1848,"奎":1849,"奏":1850,"奐":1851,"契":1852,"奔":1853,"奕":1854,"套":1855,"奘":1856,"奚":1857,"奠":1858,"奢":1859,"奥":1860,"奧":1861,"奨":1862,"奩":1863,"奪":1864,"奬":1865,"奮":1866,"女":1867,"奴":1868,"奶":1869,"奸":1870,"她":1871,"奻":1872,"奼":1873,"好":1874,"妁":1875,"如":1876,"妃":1877,"妄":1878,"妈":1879,"妊":1880,"妍":1881,"妏":1882,"妒":1883,"妓":1884,"妖":1885,"妘":1886,"妙":1887,"妝":1888,"妞":1889,"妡":1890,"妣":1891,"妤":1892,"妥":1893,"妨":1894,"妮":1895,"妯":1896,"妲":1897,"妳":1898,"妹":1899,"妺":1900,"妻":1901,"妽":1902,"妾":1903,"姆":1904,"姈":1905,"姉":1906,"姊":1907,"始":1908,"姍":1909,"姐":1910,"姑":1911,"姓":1912,"委":1913,"姘":1914,"姙":1915,"姚":1916,"姜":1917,"姝":1918,"姣":1919,"姥":1920,"姦":1921,"姨":1922,"姪":1923,"姫":1924,"姬":1925,"姮":1926,"姵":1927,"姻":1928,"姿":1929,"威":1930,"娃":1931,"娌":1932,"娑":1933,"娓":1934,"娗":1935,"娘":1936,"娛":1937,"娜":1938,"娟":1939,"娠":1940,"娣":1941,"娥":1942,"娩":1943,"娪":1944,"娶":1945,"娼":1946,"婀":1947,"婁":1948,"婆":1949,"婉":1950,"婊":1951,"婕":1952,"婚":1953,"婞":1954,"婢":1955,"婦":1956,"婪":1957,"婭":1958,"婴":1959,"婷":1960,"婿":1961,"媄":1962,"媒":1963,"媖":1964,"媗":1965,"媚":1966,"媛":1967,"媜":1968,"媠":1969,"媧":1970,"媲":1971,"媳":1972,"媽":1973,"媾":1974,"嫁":1975,"嫂":1976,"嫉":1977,"嫌":1978,"嫖":1979,"嫗":1980,"嫘":1981,"嫚":1982,"嫡":1983,"嫣":1984,"嫦":1985,"嫩":1986,"嫰":1987,"嫲":1988,"嫵":1989,"嫺":1990,"嫻":1991,"嬅":1992,"嬈":1993,"嬉":1994,"嬋":1995,"嬌":1996,"嬗":1997,"嬛":1998,"嬝":1999,"嬢":2000,"嬤":2001,"嬪":2002,"嬰":2003,"嬲":2004,"嬴":2005,"嬷":2006,"嬸":2007,"嬿":2008,"孀":2009,"孃":2010,"子":2011,"孑":2012,"孓":2013,"孔":2014,"孕":2015,"孖":2016,"字":2017,"存":2018,"孙":2019,"孚":2020,"孛":2021,"孜":2022,"孝":2023,"孟":2024,"孢":2025,"季":2026,"孤":2027,"孥":2028,"学":2029,"孩":2030,"孫":2031,"孬":2032,"孰":2033,"孱":2034,"孳":2035,"孵":2036,"學":2037,"孺":2038,"孽":2039,"孿":2040,"宀":2041,"宂":2042,"它":2043,"宅":2044,"宇":2045,"守":2046,"安":2047,"宋":2048,"完":2049,"宏":2050,"宓":2051,"宕":2052,"宗":2053,"官":2054,"宙":2055,"定":2056,"宛":2057,"宜":2058,"宝":2059,"实":2060,"実":2061,"审":2062,"客":2063,"宣":2064,"室":2065,"宥":2066,"宦":2067,"宫":2068,"宮":2069,"宰":2070,"害":2071,"宴":2072,"宵":2073,"家":2074,"宸":2075,"容":2076,"宿":2077,"寂":2078,"寃":2079,"寄":2080,"寅":2081,"密":2082,"寇":2083,"富":2084,"寐":2085,"寒":2086,"寓":2087,"寗":2088,"寛":2089,"寝":2090,"寞":2091,"察":2092,"寡":2093,"寢":2094,"寥":2095,"實":2096,"寧":2097,"寨":2098,"審":2099,"寫":2100,"寬":2101,"寮":2102,"寯":2103,"寰":2104,"寳":2105,"寵":2106,"寶":2107,"寸":2108,"对":2109,"寺":2110,"导":2111,"対":2112,"寿":2113,"封":2114,"専":2115,"尃":2116,"射":2117,"将":2118,"將":2119,"專":2120,"尉":2121,"尊":2122,"尋":2123,"尌":2124,"對":2125,"導":2126,"小":2127,"少":2128,"尔":2129,"尖":2130,"尙":2131,"尚":2132,"尛":2133,"尞":2134,"尢":2135,"尤":2136,"尪":2137,"尬":2138,"就":2139,"尷":2140,"尸":2141,"尹":2142,"尺":2143,"尻":2144,"尼":2145,"尽":2146,"尾":2147,"尿":2148,"局":2149,"屁":2150,"层":2151,"屄":2152,"居":2153,"屆":2154,"屈":2155,"届":2156,"屋":2157,"屌":2158,"屍":2159,"屎":2160,"屏":2161,"屐":2162,"屑":2163,"展":2164,"屛":2165,"屜":2166,"属":2167,"屠":2168,"屢":2169,"屣":2170,"層":2171,"履":2172,"屬":2173,"屯":2174,"山":2175,"屹":2176,"岀":2177,"岁":2178,"岌":2179,"岐":2180,"岑":2181,"岔":2182,"岛":2183,"岡":2184,"岩":2185,"岫":2186,"岬":2187,"岱":2188,"岳":2189,"岷":2190,"岸":2191,"峇":2192,"峋":2193,"峒":2194,"峙":2195,"峠":2196,"峨":2197,"峪":2198,"峭":2199,"峮":2200,"峯":2201,"峰":2202,"峱":2203,"峴":2204,"島":2205,"峸":2206,"峻":2207,"峽":2208,"崁":2209,"崇":2210,"崎":2211,"崐":2212,"崑":2213,"崔":2214,"崖":2215,"崗":2216,"崙":2217,"崚":2218,"崛":2219,"崢":2220,"崧":2221,"崩":2222,"崴":2223,"崵":2224,"崽":2225,"嵂":2226,"嵄":2227,"嵋":2228,"嵌":2229,"嵎":2230,"嵐":2231,"嵓":2232,"嵗":2233,"嵙":2234,"嵜":2235,"嵩":2236,"嵬":2237,"嵵":2238,"嵿":2239,"嶂":2240,"嶄":2241,"嶇":2242,"嶋":2243,"嶙":2244,"嶝":2245,"嶠":2246,"嶢":2247,"嶸":2248,"嶺":2249,"嶼":2250,"嶽":2251,"巂":2252,"巋":2253,"巍":2254,"巒":2255,"巓":2256,"巔":2257,"巖":2258,"川":2259,"州":2260,"巡":2261,"巢":2262,"巣":2263,"工":2264,"左":2265,"巧":2266,"巨":2267,"巫":2268,"差":2269,"己":2270,"已":2271,"巳":2272,"巴":2273,"巷":2274,"巹":2275,"巻":2276,"巽":2277,"巾":2278,"巿":2279,"市":2280,"布":2281,"帆":2282,"师":2283,"希":2284,"帍":2285,"帑":2286,"帔":2287,"帕":2288,"帖":2289,"帙":2290,"帚":2291,"帛":2292,"帝":2293,"帥":2294,"带":2295,"師":2296,"席":2297,"帮":2298,"帯":2299,"帰":2300,"帳":2301,"帶":2302,"帷":2303,"常":2304,"帽":2305,"幀":2306,"幃":2307,"幄":2308,"幅":2309,"幇":2310,"幌":2311,"幔":2312,"幕":2313,"幗":2314,"幛":2315,"幞":2316,"幟":2317,"幡":2318,"幢":2319,"幣":2320,"幫":2321,"干":2322,"平":2323,"年":2324,"并":2325,"幷":2326,"幸":2327,"幹":2328,"幻":2329,"幼":2330,"幽":2331,"幾":2332,"广":2333,"庀":2334,"庁":2335,"庂":2336,"広":2337,"庄":2338,"庆":2339,"庇":2340,"床":2341,"庋":2342,"序":2343,"庒":2344,"应":2345,"底":2346,"庖":2347,"店":2348,"庚":2349,"府":2350,"庠":2351,"度":2352,"座":2353,"庫":2354,"庭":2355,"庲":2356,"庵":2357,"庶":2358,"康":2359,"庸":2360,"庹":2361,"庻":2362,"庾":2363,"廁":2364,"廂":2365,"廃":2366,"廄":2367,"廈":2368,"廉":2369,"廊":2370,"廋":2371,"廍":2372,"廓":2373,"廔":2374,"廖":2375,"廚":2376,"廝":2377,"廟":2378,"廠":2379,"廡":2380,"廢":2381,"廣":2382,"廨":2383,"廬":2384,"廰":2385,"廳":2386,"廵":2387,"延":2388,"廷":2389,"廸":2390,"建":2391,"廻":2392,"廼":2393,"廿":2394,"开":2395,"弁":2396,"异":2397,"弄":2398,"弈":2399,"弊":2400,"弋":2401,"弌":2402,"式":2403,"弒":2404,"弓":2405,"弔":2406,"引":2407,"弗":2408,"弘":2409,"弛":2410,"弟":2411,"弥":2412,"弦":2413,"弧":2414,"弩":2415,"弭":2416,"弱":2417,"張":2418,"強":2419,"强":2420,"弼":2421,"彆":2422,"彈":2423,"彊":2424,"彌":2425,"彎":2426,"当":2427,"彗":2428,"彙":2429,"彚":2430,"彜":2431,"彝":2432,"彞":2433,"彡":2434,"形":2435,"彣":2436,"彤":2437,"彥":2438,"彦":2439,"彩":2440,"彪":2441,"彬":2442,"彭":2443,"彰":2444,"影":2445,"彳":2446,"彵":2447,"彷":2448,"役":2449,"彼":2450,"彿":2451,"往":2452,"征":2453,"徂":2454,"待":2455,"徇":2456,"很":2457,"徉":2458,"徊":2459,"律":2460,"後":2461,"徐":2462,"徑":2463,"徒":2464,"従":2465,"徕":2466,"得":2467,"徘":2468,"徙":2469,"徜":2470,"從":2471,"徠":2472,"御":2473,"徧":2474,"徨":2475,"復":2476,"循":2477,"徬":2478,"徭":2479,"微":2480,"徳":2481,"徴":2482,"徵":2483,"德":2484,"徹":2485,"徽":2486,"徿":2487,"心":2488,"忄":2489,"必":2490,"忌":2491,"忍":2492,"忐":2493,"忑":2494,"忒":2495,"忖":2496,"志":2497,"忘":2498,"忙":2499,"応":2500,"忝":2501,"忠":2502,"忡":2503,"忤":2504,"忪":2505,"快":2506,"忱":2507,"念":2508,"忸":2509,"忻":2510,"忽":2511,"忿":2512,"怀":2513,"怎":2514,"怏":2515,"怒":2516,"怔":2517,"怕":2518,"怖":2519,"怙":2520,"怜":2521,"思":2522,"怠":2523,"怡":2524,"急":2525,"怦":2526,"性":2527,"怨":2528,"怩":2529,"怪":2530,"怫":2531,"怯":2532,"怱":2533,"怵":2534,"怹":2535,"总":2536,"恁":2537,"恂":2538,"恃":2539,"恆":2540,"恊":2541,"恋":2542,"恍":2543,"恐":2544,"恒":2545,"恕":2546,"恙":2547,"恢":2548,"恣":2549,"恤":2550,"恥":2551,"恨":2552,"恩":2553,"恪":2554,"恫":2555,"恬":2556,"恭":2557,"息":2558,"恰":2559,"恵":2560,"恾":2561,"恿":2562,"悄":2563,"悅":2564,"悉":2565,"悌":2566,"悍":2567,"悒":2568,"悔":2569,"悖":2570,"悚":2571,"悛":2572,"悟":2573,"悠":2574,"患":2575,"悦":2576,"悧":2577,"您":2578,"悩":2579,"悪":2580,"悱":2581,"悲":2582,"悴":2583,"悵":2584,"悶":2585,"悸":2586,"悻":2587,"悼":2588,"悽":2589,"情":2590,"惆":2591,"惇":2592,"惋":2593,"惑":2594,"惕":2595,"惘":2596,"惚":2597,"惜":2598,"惟":2599,"惠":2600,"惡":2601,"惢":2602,"惣":2603,"惦":2604,"惨":2605,"惩":2606,"惮":2607,"惰":2608,"惱":2609,"想":2610,"惴":2611,"惶":2612,"惹":2613,"惺":2614,"惻":2615,"愁":2616,"愆":2617,"愈":2618,"愉":2619,"愎":2620,"意":2621,"愓":2622,"愕":2623,"愚":2624,"愛":2625,"愜":2626,"感":2627,"愣":2628,"愧":2629,"愨":2630,"愫":2631,"愴":2632,"愷":2633,"愼":2634,"愾":2635,"愿":2636,"慄":2637,"慇":2638,"慈":2639,"慉":2640,"態":2641,"慌":2642,"慍":2643,"慎":2644,"慕":2645,"慘":2646,"慚":2647,"慜":2648,"慟":2649,"慢":2650,"慣":2651,"慤":2652,"慧":2653,"慨":2654,"慫":2655,"慬":2656,"慮":2657,"慰":2658,"慱":2659,"慳":2660,"慵":2661,"慶":2662,"慷":2663,"慽":2664,"慾":2665,"憂":2666,"憊":2667,"憋":2668,"憎":2669,"憐":2670,"憑":2671,"憒":2672,"憓":2673,"憔":2674,"憚":2675,"憝":2676,"憤":2677,"憧":2678,"憨":2679,"憩":2680,"憫":2681,"憬":2682,"憲":2683,"憶":2684,"憾":2685,"懂":2686,"懇":2687,"懈":2688,"應":2689,"懊":2690,"懋":2691,"懐":2692,"懕":2693,"懞":2694,"懟":2695,"懣":2696,"懦":2697,"懨":2698,"懲":2699,"懵":2700,"懶":2701,"懷":2702,"懸":2703,"懺":2704,"懼":2705,"懾":2706,"懿":2707,"戀":2708,"戈":2709,"戊":2710,"戌":2711,"戍":2712,"戎":2713,"成":2714,"我":2715,"戒":2716,"戕":2717,"或":2718,"战":2719,"戚":2720,"戛":2721,"戞":2722,"戟":2723,"戡":2724,"戢":2725,"戦":2726,"截":2727,"戮":2728,"戯":2729,"戰":2730,"戱":2731,"戲":2732,"戳":2733,"戴":2734,"戶":2735,"户":2736,"戸":2737,"戻":2738,"戽":2739,"戾":2740,"房":2741,"所":2742,"扁":2743,"扇":2744,"扈":2745,"扉":2746,"手":2747,"才":2748,"扎":2749,"扑":2750,"扒":2751,"打":2752,"扔":2753,"払":2754,"托":2755,"扙":2756,"扛":2757,"扞":2758,"扣":2759,"扦":2760,"扬":2761,"扭":2762,"扮":2763,"扯":2764,"扰":2765,"扱":2766,"扳":2767,"扶":2768,"批":2769,"扺":2770,"扼":2771,"找":2772,"承":2773,"技":2774,"抄":2775,"抇":2776,"抉":2777,"把":2778,"抑":2779,"抒":2780,"抓":2781,"投":2782,"抖":2783,"抗":2784,"折":2785,"抚":2786,"抛":2787,"抜":2788,"抝":2789,"択":2790,"抢":2791,"护":2792,"报":2793,"抨":2794,"披":2795,"抬":2796,"抱":2797,"抵":2798,"抹":2799,"抺":2800,"押":2801,"抽":2802,"抿":2803,"拂":2804,"拄":2805,"担":2806,"拆":2807,"拇":2808,"拈":2809,"拉":2810,"拊":2811,"拋":2812,"拌":2813,"拍":2814,"拎":2815,"拐":2816,"拑":2817,"拒":2818,"拓":2819,"拔":2820,"拖":2821,"拗":2822,"拘":2823,"拙":2824,"拚":2825,"招":2826,"拜":2827,"拠":2828,"拡":2829,"拥":2830,"括":2831,"拭":2832,"拮":2833,"拯":2834,"拱":2835,"拳":2836,"拴":2837,"拷":2838,"拼":2839,"拽":2840,"拾":2841,"拿":2842,"持":2843,"挂":2844,"指":2845,"挈":2846,"按":2847,"挑":2848,"挖":2849,"挙":2850,"挨":2851,"挩":2852,"挪":2853,"挫":2854,"振":2855,"挲":2856,"挳":2857,"挵":2858,"挷":2859,"挹":2860,"挺":2861,"挽":2862,"挾":2863,"挿":2864,"捂":2865,"捅":2866,"捆":2867,"捉":2868,"捋":2869,"捌":2870,"捍":2871,"捎":2872,"捏":2873,"捐":2874,"捕":2875,"捗":2876,"捜":2877,"损":2878,"换":2879,"捧":2880,"捨":2881,"捩":2882,"捫":2883,"捭":2884,"据":2885,"捱":2886,"捲":2887,"捶":2888,"捷":2889,"捺":2890,"捻":2891,"掀":2892,"掂":2893,"掃":2894,"掄":2895,"掇":2896,"授":2897,"掉":2898,"掌":2899,"掍":2900,"掏":2901,"掐":2902,"排":2903,"掖":2904,"掘":2905,"掙":2906,"掛":2907,"掠":2908,"採":2909,"探":2910,"掣":2911,"接":2912,"掦":2913,"控":2914,"推":2915,"掩":2916,"措":2917,"掬":2918,"掮":2919,"掰":2920,"掲":2921,"揀":2922,"揄":2923,"揆":2924,"揉":2925,"揍":2926,"描":2927,"提":2928,"插":2929,"揖":2930,"揚":2931,"換":2932,"揠":2933,"握":2934,"揢":2935,"揣":2936,"揩":2937,"揪":2938,"揭":2939,"揮":2940,"揳":2941,"援":2942,"揶":2943,"揸":2944,"揹":2945,"揺":2946,"搆":2947,"搋":2948,"損":2949,"搏":2950,"搐":2951,"搓":2952,"搔":2953,"搖":2954,"搗":2955,"搜":2956,"搞":2957,"搟":2958,"搡":2959,"搥":2960,"搦":2961,"搧":2962,"搪":2963,"搬":2964,"搭":2965,"搵":2966,"搶":2967,"携":2968,"搽":2969,"搾":2970,"摀":2971,"摁":2972,"摂":2973,"摃":2974,"摄":2975,"摇":2976,"摍":2977,"摑":2978,"摒":2979,"摔":2980,"摘":2981,"摜":2982,"摞":2983,"摟":2984,"摧":2985,"摨":2986,"摩":2987,"摮":2988,"摯":2989,"摰":2990,"摳":2991,"摷":2992,"摸":2993,"摹":2994,"摺":2995,"摻":2996,"撂":2997,"撃":2998,"撅":2999,"撇":3000,"撈":3001,"撐":3002,"撑":3003,"撒":3004,"撓":3005,"撕":3006,"撘":3007,"撙":3008,"撚":3009,"撞":3010,"撢":3011,"撣":3012,"撤":3013,"撥":3014,"撩":3015,"撫":3016,"撬":3017,"播":3018,"撮":3019,"撰":3020,"撲":3021,"撸":3022,"撻":3023,"撼":3024,"撾":3025,"撿":3026,"擀":3027,"擁":3028,"擂":3029,"擄":3030,"擅":3031,"擇":3032,"擊":3033,"擋":3034,"操":3035,"擎":3036,"擒":3037,"擔":3038,"擕":3039,"擘":3040,"據":3041,"擠":3042,"擢":3043,"擣":3044,"擤":3045,"擦":3046,"擧":3047,"擬":3048,"擯":3049,"擰":3050,"擱":3051,"擲":3052,"擴":3053,"擷":3054,"擺":3055,"擻":3056,"擼":3057,"擾":3058,"攀":3059,"攆":3060,"攉":3061,"攏":3062,"攔":3063,"攖":3064,"攘":3065,"攙":3066,"攜":3067,"攝":3068,"攞":3069,"攢":3070,"攣":3071,"攤":3072,"攥":3073,"攪":3074,"攫":3075,"攬":3076,"支":3077,"攰":3078,"收":3079,"攸":3080,"改":3081,"攻":3082,"放":3083,"政":3084,"故":3085,"效":3086,"敉":3087,"敍":3088,"敎":3089,"敏":3090,"救":3091,"敕":3092,"敖":3093,"敗":3094,"敘":3095,"教":3096,"敝":3097,"敞":3098,"敢":3099,"散":3100,"敦":3101,"敬":3102,"数":3103,"敲":3104,"整":3105,"敵":3106,"敷":3107,"數":3108,"敻":3109,"斂":3110,"斃":3111,"文":3112,"斌":3113,"斐":3114,"斑":3115,"斕":3116,"斗":3117,"料":3118,"斛":3119,"斜":3120,"斟":3121,"斡":3122,"斤":3123,"斥":3124,"斧":3125,"斫":3126,"斬":3127,"断":3128,"斯":3129,"新":3130,"斲":3131,"斷":3132,"方":3133,"於":3134,"施":3135,"旁":3136,"旂":3137,"旄":3138,"旅":3139,"旋":3140,"旌":3141,"旎":3142,"族":3143,"旖":3144,"旗":3145,"无":3146,"既":3147,"日":3148,"旦":3149,"旨":3150,"早":3151,"旬":3152,"旭":3153,"旮":3154,"旯":3155,"旱":3156,"旳":3157,"时":3158,"旺":3159,"旻":3160,"旼":3161,"昀":3162,"昂":3163,"昆":3164,"昇":3165,"昊":3166,"昌":3167,"昍":3168,"明":3169,"昏":3170,"易":3171,"昔":3172,"昕":3173,"昜":3174,"昝":3175,"星":3176,"映":3177,"春":3178,"昧":3179,"昨":3180,"昫":3181,"昭":3182,"是":3183,"昰":3184,"昱":3185,"昴":3186,"昶":3187,"昼":3188,"晁":3189,"時":3190,"晃":3191,"晉":3192,"晌":3193,"晏":3194,"晒":3195,"晗":3196,"晚":3197,"晛":3198,"晝":3199,"晟":3200,"晤":3201,"晦":3202,"晧":3203,"晨":3204,"晩":3205,"普":3206,"景":3207,"晰":3208,"晳":3209,"晴":3210,"晶":3211,"智":3212,"晾":3213,"暁":3214,"暂":3215,"暄":3216,"暇":3217,"暈":3218,"暉":3219,"暌":3220,"暐":3221,"暑":3222,"暖":3223,"暗":3224,"暘":3225,"暝":3226,"暠":3227,"暢":3228,"暦":3229,"暨":3230,"暪":3231,"暫":3232,"暮":3233,"暱":3234,"暳":3235,"暴":3236,"暸":3237,"暹":3238,"暻":3239,"曁":3240,"曄":3241,"曆":3242,"曇":3243,"曈":3244,"曉":3245,"曕":3246,"曖":3247,"曙":3248,"曚":3249,"曜":3250,"曝":3251,"曠":3252,"曦":3253,"曨":3254,"曩":3255,"曬":3256,"曰":3257,"曲":3258,"曳":3259,"更":3260,"曷":3261,"書":3262,"曹":3263,"曺":3264,"曼":3265,"曽":3266,"曾":3267,"替":3268,"最":3269,"會":3270,"月":3271,"有":3272,"朋":3273,"服":3274,"朔":3275,"朕":3276,"朗":3277,"望":3278,"朝":3279,"期":3280,"朦":3281,"朧":3282,"木":3283,"未":3284,"末":3285,"本":3286,"札":3287,"朮":3288,"朱":3289,"朴":3290,"朵":3291,"朶":3292,"机":3293,"朽":3294,"杀":3295,"杆":3296,"杉":3297,"杋":3298,"杌":3299,"李":3300,"杏":3301,"材":3302,"村":3303,"杓":3304,"杖":3305,"杙":3306,"杜":3307,"杞":3308,"束":3309,"条":3310,"来":3311,"杭":3312,"杮":3313,"杯":3314,"杰":3315,"東":3316,"杲":3317,"杳":3318,"杵":3319,"杷":3320,"松":3321,"板":3322,"枇":3323,"枉":3324,"枋":3325,"析":3326,"枒":3327,"枕":3328,"林":3329,"枘":3330,"枚":3331,"果":3332,"枝":3333,"枬":3334,"枯":3335,"枰":3336,"枱":3337,"枳":3338,"枴":3339,"架":3340,"枷":3341,"枸":3342,"枻":3343,"柄":3344,"柊":3345,"柏":3346,"某":3347,"柑":3348,"柒":3349,"染":3350,"柔":3351,"柘":3352,"柙":3353,"柚":3354,"柢":3355,"查":3356,"柩":3357,"柬":3358,"柯":3359,"柱":3360,"柳":3361,"柴":3362,"柵":3363,"柺":3364,"査":3365,"柾":3366,"柿":3367,"栃":3368,"栄":3369,"栅":3370,"树":3371,"栓":3372,"栖":3373,"栗":3374,"栝":3375,"栞":3376,"栟":3377,"校":3378,"栢":3379,"栩":3380,"株":3381,"栱":3382,"核":3383,"根":3384,"格":3385,"栽":3386,"桀":3387,"桁":3388,"桂":3389,"桃":3390,"桅":3391,"框":3392,"桇":3393,"案":3394,"桉":3395,"桌":3396,"桎":3397,"桐":3398,"桑":3399,"桓":3400,"桔":3401,"桖":3402,"桜":3403,"桮":3404,"桲":3405,"桴":3406,"桶":3407,"桷":3408,"桿":3409,"梁":3410,"梃":3411,"梅":3412,"梆":3413,"梏":3414,"梓":3415,"梔":3416,"梗":3417,"梘":3418,"條":3419,"梟":3420,"梠":3421,"梢":3422,"梣":3423,"梦":3424,"梧":3425,"梨":3426,"梭":3427,"梯":3428,"械":3429,"梳":3430,"梵":3431,"检":3432,"棄":3433,"棆":3434,"棉":3435,"棋":3436,"棍":3437,"棒":3438,"棓":3439,"棕":3440,"棗":3441,"棘":3442,"棚":3443,"棝":3444,"棟":3445,"棠":3446,"棣":3447,"棧":3448,"棨":3449,"棪":3450,"森":3451,"棱":3452,"棲":3453,"棵":3454,"棹":3455,"棺":3456,"棻":3457,"棼":3458,"椅":3459,"椉":3460,"椋":3461,"植":3462,"椎":3463,"椏":3464,"椒":3465,"検":3466,"椪":3467,"椬":3468,"椰":3469,"椴":3470,"椹":3471,"椽":3472,"椿":3473,"楂":3474,"楊":3475,"楓":3476,"楔":3477,"楙":3478,"楚":3479,"楝":3480,"楞":3481,"楠":3482,"楢":3483,"楣":3484,"楦":3485,"楨":3486,"楫":3487,"業":3488,"極":3489,"楷":3490,"楹":3491,"楼":3492,"楽":3493,"概":3494,"榆":3495,"榊":3496,"榔":3497,"榕":3498,"榖":3499,"榘":3500,"榚":3501,"榛":3502,"榜":3503,"榤":3504,"榨":3505,"榫":3506,"榭":3507,"榮":3508,"榲":3509,"榴":3510,"榶":3511,"榷":3512,"榻":3513,"槁":3514,"槃":3515,"構":3516,"槌":3517,"槍":3518,"槎":3519,"槐":3520,"槓":3521,"様":3522,"槤":3523,"槨":3524,"槪":3525,"槲":3526,"槳":3527,"槺":3528,"槻":3529,"槽":3530,"槿":3531,"樁":3532,"樂":3533,"樊":3534,"樋":3535,"樑":3536,"樓":3537,"樘":3538,"標":3539,"樞":3540,"樟":3541,"模":3542,"樣":3543,"樨":3544,"権":3545,"横":3546,"樫":3547,"樵":3548,"樸":3549,"樹":3550,"樺":3551,"樽":3552,"橄":3553,"橇":3554,"橈":3555,"橋":3556,"橍":3557,"橏":3558,"橘":3559,"橙":3560,"機":3561,"橡":3562,"橢":3563,"橫":3564,"橾":3565,"檀":3566,"檄":3567,"檎":3568,"檐":3569,"檔":3570,"檜":3571,"檞":3572,"檟":3573,"檢":3574,"檣":3575,"檨":3576,"檬":3577,"檯":3578,"檳":3579,"檸":3580,"檻":3581,"櫂":3582,"櫃":3583,"櫈":3584,"櫌":3585,"櫓":3586,"櫚":3587,"櫛":3588,"櫟":3589,"櫥":3590,"櫧":3591,"櫪":3592,"櫫":3593,"櫬":3594,"櫳":3595,"櫸":3596,"櫺":3597,"櫻":3598,"欄":3599,"欉":3600,"權":3601,"欐":3602,"欒":3603,"欖":3604,"欠":3605,"次":3606,"欢":3607,"欣":3608,"欬":3609,"欲":3610,"欷":3611,"欸":3612,"欹":3613,"欺":3614,"欽":3615,"款":3616,"歆":3617,"歇":3618,"歉":3619,"歌":3620,"歎":3621,"歐":3622,"歓":3623,"歔":3624,"歕":3625,"歛":3626,"歟":3627,"歡":3628,"止":3629,"正":3630,"此":3631,"步":3632,"武":3633,"歧":3634,"歩":3635,"歪":3636,"歬":3637,"歯":3638,"歲":3639,"歳":3640,"歴":3641,"歷":3642,"歸":3643,"歹":3644,"死":3645,"歽":3646,"歿":3647,"殁":3648,"殂":3649,"殃":3650,"殄":3651,"殆":3652,"殉":3653,"殊":3654,"残":3655,"殖":3656,"殘":3657,"殛":3658,"殞":3659,"殤":3660,"殫":3661,"殭":3662,"殮":3663,"殯":3664,"殲":3665,"殴":3666,"段":3667,"殷":3668,"殺":3669,"殻":3670,"殼":3671,"殿":3672,"毀":3673,"毁":3674,"毅":3675,"毆":3676,"毋":3677,"毌":3678,"母":3679,"毎":3680,"每":3681,"毐":3682,"毒":3683,"毓":3684,"比":3685,"毖":3686,"毗":3687,"毘":3688,"毛":3689,"毫":3690,"毯":3691,"毽":3692,"氂":3693,"氈":3694,"氏":3695,"民":3696,"氓":3697,"气":3698,"氖":3699,"気":3700,"氘":3701,"氙":3702,"氚":3703,"氛":3704,"氟":3705,"氡":3706,"氣":3707,"氤":3708,"氦":3709,"氧":3710,"氨":3711,"氪":3712,"氫":3713,"氬":3714,"氮":3715,"氯":3716,"氰":3717,"氳":3718,"水":3719,"氶":3720,"氷":3721,"永":3722,"氹":3723,"氺":3724,"氽":3725,"氾":3726,"汀":3727,"汁":3728,"求":3729,"汆":3730,"汉":3731,"汎":3732,"汐":3733,"汔":3734,"汕":3735,"汖":3736,"汗":3737,"汙":3738,"汚":3739,"汛":3740,"汝":3741,"汞":3742,"江":3743,"池":3744,"污":3745,"汪":3746,"汫":3747,"汯":3748,"汰":3749,"汱":3750,"汲":3751,"汴":3752,"汶":3753,"決":3754,"汽":3755,"汾":3756,"沁":3757,"沂":3758,"沃":3759,"沅":3760,"沆":3761,"沈":3762,"沉":3763,"沌":3764,"沏":3765,"沐":3766,"沒":3767,"沓":3768,"沖":3769,"沙":3770,"沛":3771,"没":3772,"沢":3773,"沫":3774,"沬":3775,"沭":3776,"沮":3777,"沱":3778,"河":3779,"沸":3780,"油":3781,"治":3782,"沼":3783,"沽":3784,"沾":3785,"沿":3786,"況":3787,"泄":3788,"泅":3789,"泉":3790,"泊":3791,"泌":3792,"泐":3793,"泓":3794,"泔":3795,"法":3796,"泗":3797,"泛":3798,"泠":3799,"泡":3800,"波":3801,"泣":3802,"泥":3803,"注":3804,"泩":3805,"泪":3806,"泫":3807,"泮":3808,"泯":3809,"泰":3810,"泱":3811,"泳":3812,"泵":3813,"洄":3814,"洋":3815,"洐":3816,"洑":3817,"洒":3818,"洗":3819,"洛":3820,"洞":3821,"洢":3822,"津":3823,"洧":3824,"洨":3825,"洩":3826,"洪":3827,"洱":3828,"洲":3829,"洵":3830,"洶":3831,"洺":3832,"活":3833,"洽":3834,"派":3835,"流":3836,"浄":3837,"浙":3838,"浚":3839,"浜":3840,"浣":3841,"浤":3842,"浥":3843,"浦":3844,"浩":3845,"浪":3846,"浬":3847,"浮":3848,"浯":3849,"浴":3850,"海":3851,"浸":3852,"浹":3853,"涂":3854,"涅":3855,"涇":3856,"消":3857,"涉":3858,"涌":3859,"涎":3860,"涓":3861,"涔":3862,"涕":3863,"涙":3864,"涛":3865,"涪":3866,"涮":3867,"涯":3868,"液":3869,"涵":3870,"涷":3871,"涸":3872,"涼":3873,"淀":3874,"淂":3875,"淄":3876,"淅":3877,"淆":3878,"淇":3879,"淋":3880,"淌":3881,"淍":3882,"淑":3883,"淒":3884,"淖":3885,"淘":3886,"淙":3887,"淚":3888,"淝":3889,"淞":3890,"淡":3891,"淢":3892,"淤":3893,"淦":3894,"淨":3895,"淩":3896,"淪":3897,"淫":3898,"淬":3899,"淮":3900,"淯":3901,"深":3902,"淳":3903,"淵":3904,"淶":3905,"混":3906,"淸":3907,"淹":3908,"淺":3909,"添":3910,"清":3911,"済":3912,"渉":3913,"渕":3914,"渙":3915,"渚":3916,"減":3917,"渝":3918,"渟":3919,"渠":3920,"渡":3921,"渣":3922,"渤":3923,"渥":3924,"渦":3925,"温":3926,"測":3927,"渭":3928,"港":3929,"渲":3930,"渴":3931,"游":3932,"渺":3933,"渼":3934,"渽":3935,"渾":3936,"湃":3937,"湄":3938,"湅":3939,"湉":3940,"湊":3941,"湍":3942,"湎":3943,"湖":3944,"湘":3945,"湛":3946,"湟":3947,"湧":3948,"湮":3949,"湯":3950,"湳":3951,"湶":3952,"湾":3953,"満":3954,"溃":3955,"溉":3956,"溏":3957,"源":3958,"準":3959,"溘":3960,"溜":3961,"溝":3962,"溟":3963,"溢":3964,"溥":3965,"溪":3966,"溫":3967,"溯":3968,"溱":3969,"溴":3970,"溶":3971,"溺":3972,"溼":3973,"滁":3974,"滂":3975,"滄":3976,"滅":3977,"滇":3978,"滉":3979,"滋":3980,"滌":3981,"滎":3982,"滑":3983,"滔":3984,"滕":3985,"滙":3986,"滚":3987,"滞":3988,"满":3989,"滬":3990,"滯":3991,"滲":3992,"滴":3993,"滷":3994,"滸":3995,"滾":3996,"滿":3997,"漁":3998,"漂":3999,"漆":4000,"漉":4001,"漏":4002,"漓":4003,"演":4004,"漕":4005,"漚":4006,"漠":4007,"漢":4008,"漣":4009,"漥":4010,"漧":4011,"漩":4012,"漪":4013,"漫":4014,"漬":4015,"漭":4016,"漯":4017,"漱":4018,"漲":4019,"漳":4020,"漸":4021,"漾":4022,"漿":4023,"潁":4024,"潄":4025,"潑":4026,"潔":4027,"潘":4028,"潛":4029,"潞":4030,"潟":4031,"潢":4032,"潤":4033,"潦":4034,"潭":4035,"潮":4036,"潯":4037,"潰":4038,"潸":4039,"潺":4040,"潼":4041,"潾":4042,"澀":4043,"澄":4044,"澆":4045,"澇":4046,"澈":4047,"澍":4048,"澎":4049,"澐":4050,"澔":4051,"澗":4052,"澟":4053,"澡":4054,"澤":4055,"澧":4056,"澱":4057,"澳":4058,"澶":4059,"澹":4060,"激":4061,"濁":4062,"濂":4063,"濃":4064,"濕":4065,"濘":4066,"濛":4067,"濟":4068,"濠":4069,"濡":4070,"濤":4071,"濫":4072,"濬":4073,"濮":4074,"濯":4075,"濰":4076,"濱":4077,"濳":4078,"濶":4079,"濺":4080,"濾":4081,"瀁":4082,"瀅":4083,"瀆":4084,"瀉":4085,"瀋":4086,"瀏":4087,"瀑":4088,"瀕":4089,"瀘":4090,"瀚":4091,"瀛":4092,"瀜":4093,"瀝":4094,"瀞":4095,"瀟":4096,"瀣":4097,"瀦":4098,"瀧":4099,"瀨":4100,"瀬":4101,"瀰":4102,"瀲":4103,"瀾":4104,"灃":4105,"灌":4106,"灑":4107,"灒":4108,"灕":4109,"灘":4110,"灜":4111,"灣":4112,"灧":4113,"灩":4114,"火":4115,"灯":4116,"灰":4117,"灶":4118,"灸":4119,"灼":4120,"災":4121,"炆":4122,"炉":4123,"炊":4124,"炎":4125,"炒":4126,"炔":4127,"炕":4128,"炖":4129,"炘":4130,"炙":4131,"炤":4132,"炩":4133,"炫":4134,"炬":4135,"炭":4136,"炮":4137,"炯":4138,"炳":4139,"炵":4140,"炷":4141,"炸":4142,"点":4143,"為":4144,"烈":4145,"烊":4146,"烏":4147,"烘":4148,"烙":4149,"烚":4150,"烜":4151,"烝":4152,"烟":4153,"烤":4154,"烧":4155,"热":4156,"烯":4157,"烱":4158,"烴":4159,"烷":4160,"烹":4161,"烽":4162,"焉":4163,"焊":4164,"焌":4165,"焗":4166,"焙":4167,"焚":4168,"無":4169,"焢":4170,"焦":4171,"焮":4172,"焯":4173,"焰":4174,"焱":4175,"然":4176,"焼":4177,"煅":4178,"煉":4179,"煊":4180,"煌":4181,"煎":4182,"煐":4183,"煒":4184,"煕":4185,"煙":4186,"煜":4187,"煞":4188,"煤":4189,"煥":4190,"煦":4191,"照":4192,"煨":4193,"煩":4194,"煬":4195,"煮":4196,"煲":4197,"煸":4198,"煽":4199,"熄":4200,"熈":4201,"熊":4202,"熏":4203,"熒":4204,"熔":4205,"熖":4206,"熙":4207,"熜":4208,"熟":4209,"熠":4210,"熨":4211,"熬":4212,"熱":4213,"熵":4214,"熹":4215,"熾":4216,"燁":4217,"燃":4218,"燄":4219,"燈":4220,"燉":4221,"燊":4222,"燎":4223,"燐":4224,"燒":4225,"燕":4226,"燙":4227,"燜":4228,"營":4229,"燠":4230,"燥":4231,"燦":4232,"燧":4233,"燨":4234,"燬":4235,"燭":4236,"燮":4237,"燴":4238,"燹":4239,"燻":4240,"燼":4241,"燾":4242,"燿":4243,"爀":4244,"爆":4245,"爈":4246,"爌":4247,"爍":4248,"爐":4249,"爚":4250,"爛":4251,"爨":4252,"爪":4253,"爬":4254,"爭":4255,"爰":4256,"爱":4257,"爲":4258,"爵":4259,"父":4260,"爸":4261,"爹":4262,"爺":4263,"爻":4264,"爽":4265,"爾":4266,"牀":4267,"牂":4268,"牆":4269,"片":4270,"版":4271,"牌":4272,"牒":4273,"牖":4274,"牘":4275,"牙":4276,"牛":4277,"牟":4278,"牠":4279,"牡":4280,"牢":4281,"牧":4282,"物":4283,"牯":4284,"牲":4285,"牴":4286,"特":4287,"牽":4288,"犀":4289,"犁":4290,"犄":4291,"犇":4292,"犒":4293,"犖":4294,"犛":4295,"犠":4296,"犡":4297,"犢":4298,"犧":4299,"犬":4300,"犮":4301,"犯":4302,"状":4303,"犽":4304,"狀":4305,"狂":4306,"狄":4307,"狎":4308,"狐":4309,"狒":4310,"狓":4311,"狗":4312,"狙":4313,"狛":4314,"狠":4315,"狡":4316,"狤":4317,"狨":4318,"狩":4319,"独":4320,"狱":4321,"狸":4322,"狹":4323,"狺":4324,"狼":4325,"狽":4326,"猁":4327,"猊":4328,"猎":4329,"猖":4330,"猗":4331,"猙":4332,"猛":4333,"猜":4334,"猝":4335,"猞":4336,"猢":4337,"猥":4338,"猩":4339,"猪":4340,"猫":4341,"猬":4342,"猴":4343,"猶":4344,"猷":4345,"猻":4346,"猾":4347,"猿":4348,"獁":4349,"獄":4350,"獅":4351,"獎":4352,"獐":4353,"獒":4354,"獗":4355,"獠":4356,"獨":4357,"獫":4358,"獬":4359,"獮":4360,"獰":4361,"獲":4362,"獴":4363,"獵":4364,"獷":4365,"獸":4366,"獺":4367,"獻":4368,"獼":4369,"獾":4370,"玄":4371,"玆":4372,"率":4373,"玉":4374,"王":4375,"玖":4376,"玟":4377,"玠":4378,"玢":4379,"玥":4380,"玦":4381,"玧":4382,"玨":4383,"玩":4384,"玫":4385,"环":4386,"现":4387,"玲":4388,"玳":4389,"玷":4390,"玹":4391,"玻":4392,"玼":4393,"珀":4394,"珂":4395,"珅":4396,"珆":4397,"珈":4398,"珉":4399,"珊":4400,"珍":4401,"珛":4402,"珠":4403,"珥":4404,"珩":4405,"班":4406,"珮":4407,"珺":4408,"珽":4409,"現":4410,"琁":4411,"球":4412,"琄":4413,"琅":4414,"理":4415,"琇":4416,"琉":4417,"琊":4418,"琋":4419,"琚":4420,"琛":4421,"琢":4422,"琥":4423,"琦":4424,"琨":4425,"琪":4426,"琮":4427,"琲":4428,"琳":4429,"琴":4430,"琵":4431,"琶":4432,"琹":4433,"琺":4434,"琼":4435,"瑀":4436,"瑁":4437,"瑄":4438,"瑈":4439,"瑋":4440,"瑒":4441,"瑕":4442,"瑙":4443,"瑚":4444,"瑛":4445,"瑜":4446,"瑞":4447,"瑟":4448,"瑠":4449,"瑢":4450,"瑣":4451,"瑤":4452,"瑧":4453,"瑨":4454,"瑩":4455,"瑪":4456,"瑯":4457,"瑰":4458,"瑱":4459,"瑽":4460,"瑾":4461,"璀":4462,"璁":4463,"璃":4464,"璇":4465,"璈":4466,"璉":4467,"璋":4468,"璐":4469,"璘":4470,"璜":4471,"璞":4472,"璟":4473,"璣":4474,"璥":4475,"璦":4476,"璧":4477,"璨":4478,"璩":4479,"環":4480,"璽":4481,"璿":4482,"瓈":4483,"瓊":4484,"瓏":4485,"瓔":4486,"瓚":4487,"瓜":4488,"瓠":4489,"瓢":4490,"瓣":4491,"瓤":4492,"瓦":4493,"瓩":4494,"瓴":4495,"瓶":4496,"瓷":4497,"瓿":4498,"甄":4499,"甌":4500,"甍":4501,"甑":4502,"甕":4503,"甘":4504,"甚":4505,"甜":4506,"生":4507,"甡":4508,"產":4509,"産":4510,"甥":4511,"甦":4512,"用":4513,"甩":4514,"甪":4515,"甫":4516,"甬":4517,"甭":4518,"甯":4519,"田":4520,"由":4521,"甲":4522,"申":4523,"电":4524,"男":4525,"甸":4526,"町":4527,"画":4528,"甾":4529,"畀":4530,"畇":4531,"界":4532,"畏":4533,"畑":4534,"畔":4535,"留":4536,"畚":4537,"畜":4538,"畝":4539,"畢":4540,"略":4541,"畦":4542,"番":4543,"畫":4544,"畬":4545,"畯":4546,"異":4547,"畲":4548,"當":4549,"畸":4550,"畹":4551,"畿":4552,"疄":4553,"疆":4554,"疇":4555,"疊":4556,"疋":4557,"疏":4558,"疑":4559,"疔":4560,"疙":4561,"疚":4562,"疝":4563,"疣":4564,"疤":4565,"疥":4566,"疪":4567,"疫":4568,"疰":4569,"疱":4570,"疲":4571,"疴":4572,"疵":4573,"疸":4574,"疹":4575,"疼":4576,"疽":4577,"疾":4578,"痂":4579,"痃":4580,"病":4581,"症":4582,"痊":4583,"痍":4584,"痔":4585,"痕":4586,"痘":4587,"痙":4588,"痛":4589,"痞":4590,"痟":4591,"痠":4592,"痢":4593,"痣":4594,"痤":4595,"痧":4596,"痩":4597,"痬":4598,"痰":4599,"痱":4600,"痲":4601,"痴":4602,"痹":4603,"痺":4604,"痼":4605,"痾":4606,"痿":4607,"瘀":4608,"瘁":4609,"瘂":4610,"瘋":4611,"瘍":4612,"瘓":4613,"瘕":4614,"瘙":4615,"瘜":4616,"瘟":4617,"瘠":4618,"瘡":4619,"瘢":4620,"瘤":4621,"瘦":4622,"瘧":4623,"瘩":4624,"瘮":4625,"瘴":4626,"瘸":4627,"瘻":4628,"瘼":4629,"癀":4630,"療":4631,"癆":4632,"癇":4633,"癉":4634,"癌":4635,"癎":4636,"癒":4637,"癖":4638,"癘":4639,"癟":4640,"癡":4641,"癢":4642,"癥":4643,"癩":4644,"癬":4645,"癭":4646,"癮":4647,"癰":4648,"癱":4649,"癲":4650,"癸":4651,"発":4652,"登":4653,"發":4654,"白":4655,"百":4656,"皂":4657,"的":4658,"皆":4659,"皇":4660,"皈":4661,"皎":4662,"皐":4663,"皓":4664,"皖":4665,"皙":4666,"皚":4667,"皪":4668,"皮":4669,"皰":4670,"皴":4671,"皺":4672,"皿":4673,"盂":4674,"盃":4675,"盅":4676,"盆":4677,"盈":4678,"益":4679,"盍":4680,"盎":4681,"监":4682,"盒":4683,"盔":4684,"盗":4685,"盙":4686,"盛":4687,"盜":4688,"盞":4689,"盟":4690,"盡":4691,"監":4692,"盤":4693,"盥":4694,"盧":4695,"盪":4696,"目":4697,"盯":4698,"盱":4699,"盲":4700,"直":4701,"相":4702,"盹":4703,"盼":4704,"盾":4705,"省":4706,"眈":4707,"眉":4708,"看":4709,"県":4710,"眛":4711,"眞":4712,"真":4713,"眠":4714,"眥":4715,"眨":4716,"眩":4717,"眭":4718,"眯":4719,"眶":4720,"眷":4721,"眸":4722,"眺":4723,"眼":4724,"眾":4725,"着":4726,"睇":4727,"睏":4728,"睒":4729,"睚":4730,"睛":4731,"睜":4732,"睞":4733,"睡":4734,"睢":4735,"督":4736,"睥":4737,"睦":4738,"睨":4739,"睪":4740,"睫":4741,"睬":4742,"睭":4743,"睹":4744,"睽":4745,"睾":4746,"睿":4747,"瞄":4748,"瞅":4749,"瞇":4750,"瞋":4751,"瞌":4752,"瞎":4753,"瞑":4754,"瞓":4755,"瞞":4756,"瞟":4757,"瞠":4758,"瞥":4759,"瞧":4760,"瞪":4761,"瞬":4762,"瞭":4763,"瞰":4764,"瞳":4765,"瞹":4766,"瞻":4767,"瞼":4768,"瞿":4769,"矇":4770,"矌":4771,"矍":4772,"矓":4773,"矗":4774,"矚":4775,"矛":4776,"矜":4777,"矢":4778,"矣":4779,"知":4780,"矧":4781,"矩":4782,"矬":4783,"短":4784,"矮":4785,"矯":4786,"石":4787,"矸":4788,"矻":4789,"矽":4790,"砂":4791,"砉":4792,"砌":4793,"砍":4794,"砒":4795,"研":4796,"砝":4797,"砣":4798,"砥":4799,"砦":4800,"砧":4801,"砭":4802,"砰":4803,"砲":4804,"破":4805,"砵":4806,"砷":4807,"砸":4808,"硃":4809,"硅":4810,"硎":4811,"硏":4812,"硐":4813,"硒":4814,"硝":4815,"硫":4816,"硬":4817,"确":4818,"硯":4819,"硼":4820,"碁":4821,"碇":4822,"碉":4823,"碌":4824,"碍":4825,"碎":4826,"碑":4827,"碓":4828,"碗":4829,"碘":4830,"碚":4831,"碟":4832,"碣":4833,"碧":4834,"碩":4835,"碰":4836,"碱":4837,"碲":4838,"碳":4839,"碴":4840,"碸":4841,"確":4842,"碼":4843,"碾":4844,"磁":4845,"磅":4846,"磊":4847,"磋":4848,"磐":4849,"磕":4850,"磚":4851,"磡":4852,"磢":4853,"磨":4854,"磯":4855,"磷":4856,"磺":4857,"礁":4858,"礅":4859,"礎":4860,"礑":4861,"礒":4862,"礙":4863,"礡":4864,"礦":4865,"礪":4866,"礫":4867,"礴":4868,"示":4869,"礼":4870,"礽":4871,"社":4872,"祀":4873,"祁":4874,"祂":4875,"祇":4876,"祈":4877,"祉":4878,"祐":4879,"祓":4880,"祕":4881,"祖":4882,"祗":4883,"祙":4884,"祚":4885,"祛":4886,"祜":4887,"祝":4888,"神":4889,"祟":4890,"祠":4891,"祡":4892,"祢":4893,"祥":4894,"票":4895,"祭":4896,"祺":4897,"祼":4898,"祿":4899,"禀":4900,"禁":4901,"禄":4902,"禊":4903,"禍":4904,"禎":4905,"福":4906,"禓":4907,"禕":4908,"禛":4909,"禡":4910,"禤":4911,"禦":4912,"禧":4913,"禩":4914,"禪":4915,"禮":4916,"禰":4917,"禱":4918,"禳":4919,"禹":4920,"禺":4921,"离":4922,"禽":4923,"禾":4924,"禿":4925,"秀":4926,"私":4927,"秃":4928,"秈":4929,"秉":4930,"秋":4931,"种":4932,"秏":4933,"秐":4934,"科":4935,"秒":4936,"秘":4937,"秞":4938,"租":4939,"秣":4940,"秤":4941,"秦":4942,"秧":4943,"秩":4944,"秭":4945,"秸":4946,"移":4947,"稀":4948,"稅":4949,"稈":4950,"稉":4951,"程":4952,"稍":4953,"税":4954,"稔":4955,"稕":4956,"稗":4957,"稚":4958,"稜":4959,"稞":4960,"稟":4961,"稠":4962,"種":4963,"稱":4964,"稲":4965,"稷":4966,"稻":4967,"稼":4968,"稽":4969,"稿":4970,"穀":4971,"穆":4972,"穌":4973,"積":4974,"穎":4975,"穏":4976,"穗":4977,"穠":4978,"穢":4979,"穣":4980,"穩":4981,"穫":4982,"穱":4983,"穴":4984,"究":4985,"穹":4986,"空":4987,"穿":4988,"突":4989,"窄":4990,"窈":4991,"窒":4992,"窓":4993,"窕":4994,"窖":4995,"窗":4996,"窘":4997,"窟":4998,"窠":4999,"窣":5000,"窩":5001,"窪":5002,"窮":5003,"窯":5004,"窳":5005,"窴":5006,"窸":5007,"窺":5008,"窿":5009,"竄":5010,"竅":5011,"竇":5012,"竈":5013,"竉":5014,"竊":5015,"立":5016,"竑":5017,"站":5018,"竜":5019,"竟":5020,"章":5021,"竣":5022,"童":5023,"竦":5024,"竪":5025,"竫":5026,"竭":5027,"端":5028,"競":5029,"竸":5030,"竹":5031,"竺":5032,"竽":5033,"竿":5034,"笅":5035,"笆":5036,"笈":5037,"笏":5038,"笐":5039,"笑":5040,"笔":5041,"笙":5042,"笛":5043,"笞":5044,"笠":5045,"符":5046,"笨":5047,"笫":5048,"第":5049,"笭":5050,"笮":5051,"笼":5052,"笿":5053,"筆":5054,"等":5055,"筊":5056,"筋":5057,"筍":5058,"筏":5059,"筐":5060,"筑":5061,"筒":5062,"答":5063,"策":5064,"筠":5065,"筢":5066,"筧":5067,"筱":5068,"筲":5069,"筴":5070,"筵":5071,"筶":5072,"筷":5073,"箇":5074,"箋":5075,"箍":5076,"箎":5077,"箏":5078,"箐":5079,"箔":5080,"箕":5081,"算":5082,"箝":5083,"管":5084,"箪":5085,"箬":5086,"箭":5087,"箱":5088,"箴":5089,"箸":5090,"箿":5091,"節":5092,"範":5093,"篆":5094,"篇":5095,"築":5096,"篋":5097,"篙":5098,"篝":5099,"篠":5100,"篡":5101,"篤":5102,"篩":5103,"篳":5104,"篷":5105,"簇":5106,"簌":5107,"簍":5108,"簏":5109,"簑":5110,"簞":5111,"簡":5112,"簣":5113,"簤":5114,"簧":5115,"簪":5116,"簫":5117,"簷":5118,"簸":5119,"簽":5120,"簾":5121,"簿":5122,"籂":5123,"籃":5124,"籌":5125,"籍":5126,"籐":5127,"籓":5128,"籟":5129,"籠":5130,"籤":5131,"籬":5132,"籮":5133,"籲":5134,"米":5135,"籽":5136,"籾":5137,"粄":5138,"粉":5139,"粑":5140,"粒":5141,"粔":5142,"粕":5143,"粗":5144,"粘":5145,"粙":5146,"粛":5147,"粟":5148,"粥":5149,"粧":5150,"粮":5151,"粱":5152,"粲":5153,"粵":5154,"粹":5155,"粼":5156,"粽":5157,"精":5158,"粿":5159,"糅":5160,"糊":5161,"糍":5162,"糕":5163,"糖":5164,"糗":5165,"糙":5166,"糜":5167,"糝":5168,"糞":5169,"糟":5170,"糠":5171,"糢":5172,"糥":5173,"糧":5174,"糨":5175,"糬":5176,"糯":5177,"糰":5178,"糴":5179,"糶":5180,"糸":5181,"系":5182,"糾":5183,"紀":5184,"紂":5185,"約":5186,"紅":5187,"紆":5188,"紇":5189,"紈":5190,"紉":5191,"紊":5192,"紋":5193,"納":5194,"紐":5195,"紓":5196,"純":5197,"紕":5198,"紗":5199,"紘":5200,"紙":5201,"級":5202,"紛":5203,"紜":5204,"素":5205,"紡":5206,"索":5207,"紧":5208,"紫":5209,"紬":5210,"紮":5211,"累":5212,"細":5213,"紳":5214,"紹":5215,"紺":5216,"絀":5217,"終":5218,"絃":5219,"組":5220,"絆":5221,"経":5222,"結":5223,"絕":5224,"絛":5225,"絜":5226,"絝":5227,"絞":5228,"絡":5229,"絢":5230,"給":5231,"絨":5232,"絭":5233,"絮":5234,"統":5235,"絲":5236,"絳":5237,"絵":5238,"絶":5239,"絹":5240,"綁":5241,"綉":5242,"綏":5243,"綑":5244,"經":5245,"継":5246,"続":5247,"綜":5248,"綠":5249,"綢":5250,"綣":5251,"綦":5252,"綫":5253,"綬":5254,"維":5255,"綮":5256,"綰":5257,"綱":5258,"網":5259,"綳":5260,"綴":5261,"綵":5262,"綸":5263,"綹":5264,"綺":5265,"綻":5266,"綽":5267,"綾":5268,"綿":5269,"緁":5270,"緃":5271,"緄":5272,"緊":5273,"緋":5274,"総":5275,"緑":5276,"緒":5277,"緖":5278,"緘":5279,"線":5280,"緝":5281,"緞":5282,"締":5283,"緣":5284,"編":5285,"緩":5286,"緬":5287,"緯":5288,"緱":5289,"緲":5290,"練":5291,"緹":5292,"緻":5293,"縄":5294,"縈":5295,"縉":5296,"縊":5297,"縐":5298,"縑":5299,"縛":5300,"縝":5301,"縞":5302,"縟":5303,"縣":5304,"縦":5305,"縧":5306,"縫":5307,"縭":5308,"縮":5309,"縱":5310,"縴":5311,"縷":5312,"縹":5313,"總":5314,"績":5315,"繁":5316,"繃":5317,"繆":5318,"繇":5319,"繋":5320,"繒":5321,"織":5322,"繕":5323,"繚":5324,"繞":5325,"繡":5326,"繩":5327,"繪":5328,"繫":5329,"繭":5330,"繳":5331,"繹":5332,"繼":5333,"繽":5334,"繾":5335,"纂":5336,"纇":5337,"續":5338,"纍":5339,"纏":5340,"纒":5341,"纓":5342,"纔":5343,"纖":5344,"纘":5345,"纛":5346,"纜":5347,"红":5348,"约":5349,"级":5350,"纪":5351,"纯":5352,"纳":5353,"纷":5354,"纸":5355,"纾":5356,"组":5357,"细":5358,"终":5359,"经":5360,"绑":5361,"结":5362,"给":5363,"绝":5364,"统":5365,"继":5366,"续":5367,"绰":5368,"缀":5369,"缅":5370,"缐":5371,"缓":5372,"缘":5373,"缝":5374,"缩":5375,"缰":5376,"缷":5377,"缸":5378,"缺":5379,"缽":5380,"罄":5381,"罅":5382,"罈":5383,"罌":5384,"罍":5385,"罐":5386,"网":5387,"罔":5388,"罕":5389,"罘":5390,"罜":5391,"罝":5392,"罟":5393,"罠":5394,"罡":5395,"罣":5396,"罨":5397,"罩":5398,"罪":5399,"罫":5400,"置":5401,"罰":5402,"署":5403,"罵":5404,"罷":5405,"罹":5406,"羁":5407,"羅":5408,"羆":5409,"羈":5410,"羊":5411,"羋":5412,"羌":5413,"美":5414,"羔":5415,"羚":5416,"羞":5417,"羡":5418,"羣":5419,"群":5420,"羥":5421,"羧":5422,"羨":5423,"義":5424,"羮":5425,"羯":5426,"羲":5427,"羶":5428,"羸":5429,"羹":5430,"羼":5431,"羽":5432,"羿":5433,"翀":5434,"翁":5435,"翃":5436,"翅":5437,"翊":5438,"翌":5439,"翎":5440,"習":5441,"翔":5442,"翘":5443,"翟":5444,"翠":5445,"翡":5446,"翩":5447,"翬":5448,"翰":5449,"翱":5450,"翳":5451,"翹":5452,"翻":5453,"翼":5454,"耀":5455,"老":5456,"考":5457,"耄":5458,"者":5459,"耆":5460,"耊":5461,"耋":5462,"而":5463,"耍":5464,"耐":5465,"耕":5466,"耗":5467,"耘":5468,"耙":5469,"耦":5470,"耳":5471,"耶":5472,"耽":5473,"耿":5474,"聆":5475,"聊":5476,"聎":5477,"聒":5478,"联":5479,"聖":5480,"聘":5481,"聚":5482,"聞":5483,"聡":5484,"聯":5485,"聰":5486,"聲":5487,"聳":5488,"聴":5489,"聵":5490,"聶":5491,"職":5492,"聼":5493,"聽":5494,"聾":5495,"聿":5496,"肃":5497,"肄":5498,"肅":5499,"肆":5500,"肇":5501,"肉":5502,"肋":5503,"肌":5504,"肓":5505,"肖":5506,"肘":5507,"肚":5508,"肛":5509,"肝":5510,"股":5511,"肢":5512,"肥":5513,"肩":5514,"肪":5515,"肫":5516,"肯":5517,"肱":5518,"育":5519,"肴":5520,"肺":5521,"肽":5522,"胁":5523,"胃":5524,"胄":5525,"胆":5526,"背":5527,"胎":5528,"胕":5529,"胖":5530,"胗":5531,"胚":5532,"胛":5533,"胜":5534,"胝":5535,"胞":5536,"胡":5537,"胤":5538,"胥":5539,"胭":5540,"胯":5541,"胰":5542,"胱":5543,"胳":5544,"胴":5545,"胶":5546,"胸":5547,"胺":5548,"胼":5549,"能":5550,"脂":5551,"脅":5552,"脆":5553,"脇":5554,"脈":5555,"脉":5556,"脊":5557,"脋":5558,"脑":5559,"脒":5560,"脖":5561,"脗":5562,"脘":5563,"脚":5564,"脛":5565,"脢":5566,"脣":5567,"脧":5568,"脩":5569,"脫":5570,"脯":5571,"脱":5572,"脲":5573,"脳":5574,"脸":5575,"脹":5576,"脾":5577,"腆":5578,"腈":5579,"腊":5580,"腋":5581,"腎":5582,"腐":5583,"腑":5584,"腓":5585,"腔":5586,"腕":5587,"腠":5588,"腥":5589,"腦":5590,"腩":5591,"腫":5592,"腮":5593,"腰":5594,"腱":5595,"腳":5596,"腴":5597,"腸":5598,"腹":5599,"腺":5600,"腻":5601,"腾":5602,"腿":5603,"膀":5604,"膈":5605,"膊":5606,"膏":5607,"膕":5608,"膚":5609,"膛":5610,"膜":5611,"膝":5612,"膠":5613,"膨":5614,"膩":5615,"膳":5616,"膴":5617,"膺":5618,"膻":5619,"膽":5620,"膾":5621,"膿":5622,"臀":5623,"臂":5624,"臃":5625,"臆":5626,"臉":5627,"臊":5628,"臍":5629,"臏":5630,"臓":5631,"臗":5632,"臘":5633,"臚":5634,"臟":5635,"臠":5636,"臣":5637,"臥":5638,"臧":5639,"臨":5640,"自":5641,"臬":5642,"臭":5643,"至":5644,"致":5645,"臺":5646,"臻":5647,"臼":5648,"臾":5649,"舀":5650,"舄":5651,"舅":5652,"舆":5653,"與":5654,"興":5655,"舉":5656,"舊":5657,"舌":5658,"舍":5659,"舐":5660,"舒":5661,"舔":5662,"舖":5663,"舗":5664,"舘":5665,"舛":5666,"舜":5667,"舞":5668,"舟":5669,"舢":5670,"舨":5671,"航":5672,"舫":5673,"般":5674,"舵":5675,"舶":5676,"舷":5677,"船":5678,"舺":5679,"艇":5680,"艉":5681,"艋":5682,"艏":5683,"艘":5684,"艙":5685,"艤":5686,"艦":5687,"艮":5688,"良":5689,"艱":5690,"色":5691,"艶":5692,"艷":5693,"艸":5694,"艾":5695,"芃":5696,"芊":5697,"芋":5698,"芍":5699,"芎":5700,"芐":5701,"芒":5702,"芙":5703,"芛":5704,"芝":5705,"芠":5706,"芡":5707,"芢":5708,"芥":5709,"芧":5710,"芨":5711,"芩":5712,"芫":5713,"芬":5714,"芭":5715,"芮":5716,"芯":5717,"花":5718,"芳":5719,"芷":5720,"芸":5721,"芹":5722,"芻":5723,"芽":5724,"芾":5725,"苑":5726,"苒":5727,"苓":5728,"苔":5729,"苕":5730,"苖":5731,"苗":5732,"苙":5733,"苛":5734,"苜":5735,"苞":5736,"苟":5737,"苡":5738,"苣":5739,"若":5740,"苦":5741,"苧":5742,"苯":5743,"英":5744,"苳":5745,"苴":5746,"苷":5747,"苺":5748,"苿":5749,"茁":5750,"茂":5751,"范":5752,"茄":5753,"茅":5754,"茆":5755,"茉":5756,"茗":5757,"茘":5758,"茜":5759,"茨":5760,"茫":5761,"茬":5762,"茭":5763,"茯":5764,"茱":5765,"茲":5766,"茴":5767,"茵":5768,"茶":5769,"茸":5770,"茹":5771,"茻":5772,"茼":5773,"荀":5774,"荃":5775,"荅":5776,"荇":5777,"草":5778,"荊":5779,"荏":5780,"荐":5781,"荒":5782,"荔":5783,"荖":5784,"荳":5785,"荷":5786,"荸":5787,"荻":5788,"荼":5789,"荽":5790,"莆":5791,"莉":5792,"莊":5793,"莎":5794,"莒":5795,"莓":5796,"莖":5797,"莘":5798,"莛":5799,"莞":5800,"莠":5801,"莢":5802,"莧":5803,"莩":5804,"莪":5805,"莫":5806,"莱":5807,"获":5808,"莽":5809,"莿":5810,"菀":5811,"菁":5812,"菅":5813,"菇":5814,"菈":5815,"菉":5816,"菊":5817,"菌":5818,"菏":5819,"菓":5820,"菖":5821,"菘":5822,"菜":5823,"菝":5824,"菟":5825,"菠":5826,"菩":5827,"華":5828,"菰":5829,"菱":5830,"菲":5831,"菸":5832,"萁":5833,"萃":5834,"萄":5835,"萊":5836,"萌":5837,"萍":5838,"萎":5839,"萓":5840,"萜":5841,"萣":5842,"营":5843,"萩":5844,"萬":5845,"萱":5846,"萵":5847,"萼":5848,"落":5849,"萾":5850,"葆":5851,"葉":5852,"葑":5853,"著":5854,"葚":5855,"葛":5856,"葜":5857,"葡":5858,"董":5859,"葥":5860,"葦":5861,"葩":5862,"葫":5863,"葬":5864,"葭":5865,"葯":5866,"葱":5867,"葳":5868,"葵":5869,"葶":5870,"葷":5871,"葸":5872,"葺":5873,"蒂":5874,"蒐":5875,"蒔":5876,"蒙":5877,"蒜":5878,"蒞":5879,"蒟":5880,"蒡":5881,"蒲":5882,"蒸":5883,"蒻":5884,"蒼":5885,"蒽":5886,"蒿":5887,"蓀":5888,"蓁":5889,"蓄":5890,"蓆":5891,"蓉":5892,"蓊":5893,"蓋":5894,"蓑":5895,"蓓":5896,"蓝":5897,"蓬":5898,"蓮":5899,"蓳":5900,"蓴":5901,"蓼":5902,"蓽":5903,"蓿":5904,"蔑":5905,"蔓":5906,"蔔":5907,"蔗":5908,"蔘":5909,"蔚":5910,"蔞":5911,"蔡":5912,"蔣":5913,"蔥":5914,"蔦":5915,"蔫":5916,"蔬":5917,"蔭":5918,"蔴":5919,"蔻":5920,"蔽":5921,"蕁":5922,"蕃":5923,"蕈":5924,"蕉":5925,"蕊":5926,"蕎":5927,"蕓":5928,"蕗":5929,"蕙":5930,"蕞":5931,"蕨":5932,"蕩":5933,"蕪":5934,"蕫":5935,"蕭":5936,"蕯":5937,"蕷":5938,"蕾":5939,"薀":5940,"薄":5941,"薅":5942,"薇":5943,"薈":5944,"薊":5945,"薏":5946,"薑":5947,"薔":5948,"薛":5949,"薤":5950,"薦":5951,"薨":5952,"薩":5953,"薪":5954,"薫":5955,"薬":5956,"薯":5957,"薰":5958,"薹":5959,"薺":5960,"薾":5961,"藁":5962,"藉":5963,"藍":5964,"藏":5965,"藐":5966,"藔":5967,"藕":5968,"藜":5969,"藝":5970,"藤":5971,"藥":5972,"藩":5973,"藪":5974,"藴":5975,"藷":5976,"藹":5977,"藺":5978,"藻":5979,"藼":5980,"藿":5981,"蘆":5982,"蘇":5983,"蘊":5984,"蘋":5985,"蘑":5986,"蘖":5987,"蘚":5988,"蘩":5989,"蘭":5990,"蘸":5991,"蘺":5992,"蘿":5993,"虌":5994,"虎":5995,"虐":5996,"虔":5997,"處":5998,"虚":5999,"虛":6000,"虜":6001,"虞":6002,"號":6003,"虢":6004,"虧":6005,"虫":6006,"虬":6007,"虯":6008,"虱":6009,"虹":6010,"虻":6011,"虽":6012,"蚊":6013,"蚋":6014,"蚌":6015,"蚍":6016,"蚓":6017,"蚜":6018,"蚣":6019,"蚤":6020,"蚩":6021,"蚪":6022,"蚯":6023,"蚰":6024,"蚱":6025,"蚴":6026,"蚵":6027,"蚶":6028,"蛀":6029,"蛄":6030,"蛆":6031,"蛇":6032,"蛋":6033,"蛔":6034,"蛙":6035,"蛛":6036,"蛞":6037,"蛟":6038,"蛤":6039,"蛭":6040,"蛸":6041,"蛹":6042,"蛻":6043,"蛾":6044,"蜀":6045,"蜂":6046,"蜃":6047,"蜆":6048,"蜇":6049,"蜈":6050,"蜉":6051,"蜊":6052,"蜍":6053,"蜑":6054,"蜒":6055,"蜓":6056,"蜘":6057,"蜚":6058,"蜜":6059,"蜢":6060,"蜥":6061,"蜱":6062,"蜴":6063,"蜷":6064,"蜻":6065,"蜿":6066,"蝌":6067,"蝎":6068,"蝓":6069,"蝕":6070,"蝗":6071,"蝙":6072,"蝞":6073,"蝟":6074,"蝠":6075,"蝣":6076,"蝦":6077,"蝨":6078,"蝮":6079,"蝲":6080,"蝴":6081,"蝶":6082,"蝸":6083,"蝽":6084,"螂":6085,"螃":6086,"螄":6087,"螈":6088,"融":6089,"螞":6090,"螟":6091,"螢":6092,"螨":6093,"螫":6094,"螭":6095,"螯":6096,"螳":6097,"螵":6098,"螺":6099,"螻":6100,"蟀":6101,"蟄":6102,"蟆":6103,"蟋":6104,"蟎":6105,"蟑":6106,"蟒":6107,"蟠":6108,"蟥":6109,"蟬":6110,"蟯":6111,"蟲":6112,"蟳":6113,"蟹":6114,"蟻":6115,"蟾":6116,"蠃":6117,"蠅":6118,"蠊":6119,"蠋":6120,"蠍":6121,"蠎":6122,"蠑":6123,"蠓":6124,"蠔":6125,"蠕":6126,"蠟":6127,"蠡":6128,"蠢":6129,"蠣":6130,"蠱":6131,"蠵":6132,"蠶":6133,"蠹":6134,"蠻":6135,"血":6136,"衆":6137,"衊":6138,"行":6139,"衍":6140,"術":6141,"衕":6142,"街":6143,"衙":6144,"衛":6145,"衝":6146,"衞":6147,"衡":6148,"衢":6149,"衣":6150,"表":6151,"衩":6152,"衪":6153,"衫":6154,"衰":6155,"衷":6156,"衹":6157,"衽":6158,"衿":6159,"袁":6160,"袂":6161,"袃":6162,"袈":6163,"袋":6164,"袍":6165,"袐":6166,"袒":6167,"袓":6168,"袖":6169,"袞":6170,"袤":6171,"袪":6172,"被":6173,"袱":6174,"袽":6175,"裁":6176,"裂":6177,"装":6178,"裇":6179,"裊":6180,"裎":6181,"裏":6182,"裔":6183,"裕":6184,"裘":6185,"裙":6186,"補":6187,"裝":6188,"裟":6189,"裡":6190,"裨":6191,"裩":6192,"裬":6193,"裱":6194,"裳":6195,"裴":6196,"裵":6197,"裸":6198,"裹":6199,"製":6200,"裾":6201,"褂":6202,"複":6203,"褐":6204,"褒":6205,"褓":6206,"褔":6207,"褕":6208,"褘":6209,"褙":6210,"褚":6211,"褥":6212,"褪":6213,"褫":6214,"褲":6215,"褵":6216,"褶":6217,"褸":6218,"褺":6219,"褻":6220,"襁":6221,"襄":6222,"襖":6223,"襝":6224,"襞":6225,"襟":6226,"襠":6227,"襤":6228,"襪":6229,"襬":6230,"襯":6231,"襲":6232,"西":6233,"要":6234,"覃":6235,"覆":6236,"覇":6237,"覈":6238,"見":6239,"規":6240,"覓":6241,"視":6242,"覚":6243,"覡":6244,"覦":6245,"覧":6246,"親":6247,"覬":6248,"覲":6249,"観":6250,"覷":6251,"覺":6252,"覻":6253,"覽":6254,"觀":6255,"见":6256,"观":6257,"规":6258,"视":6259,"觉":6260,"角":6261,"觔":6262,"解":6263,"觥":6264,"觫":6265,"觳":6266,"觴":6267,"觸":6268,"言":6269,"訂":6270,"訃":6271,"計":6272,"訊":6273,"訌":6274,"討":6275,"訐":6276,"訓":6277,"訕":6278,"訖":6279,"託":6280,"記":6281,"訛":6282,"訝":6283,"訟":6284,"訢":6285,"訣":6286,"訥":6287,"訪":6288,"設":6289,"許":6290,"訳":6291,"訴":6292,"訶":6293,"診":6294,"註":6295,"証":6296,"訾":6297,"詆":6298,"詎":6299,"詐":6300,"詑":6301,"詒":6302,"詔":6303,"評":6304,"詛":6305,"詞":6306,"詠":6307,"詡":6308,"詢":6309,"詣":6310,"試":6311,"詩":6312,"詫":6313,"詬":6314,"詭":6315,"詮":6316,"詰":6317,"話":6318,"該":6319,"詳":6320,"詹":6321,"詼":6322,"誅":6323,"誆":6324,"誇":6325,"誌":6326,"認":6327,"誒":6328,"誓":6329,"誔":6330,"誕":6331,"誘":6332,"語":6333,"誠":6334,"誡":6335,"誣":6336,"誤":6337,"誥":6338,"誦":6339,"誨":6340,"說":6341,"説":6342,"読":6343,"誰":6344,"課":6345,"誹":6346,"誼":6347,"調":6348,"諂":6349,"諄":6350,"談":6351,"諉":6352,"請":6353,"諍":6354,"諒":6355,"論":6356,"諗":6357,"諛":6358,"諜":6359,"諠":6360,"諡":6361,"諢":6362,"諤":6363,"諦":6364,"諧":6365,"諫":6366,"諭":6367,"諮":6368,"諱":6369,"諳":6370,"諴":6371,"諶":6372,"諷":6373,"諸":6374,"諺":6375,"諼":6376,"諾":6377,"謀":6378,"謁":6379,"謂":6380,"謄":6381,"謅":6382,"謊":6383,"謎":6384,"謐":6385,"謔":6386,"謖":6387,"謗":6388,"謙":6389,"講":6390,"謝":6391,"謠":6392,"謢":6393,"謦":6394,"謨":6395,"謫":6396,"謬":6397,"謳":6398,"謹":6399,"謾":6400,"譁":6401,"證":6402,"譎":6403,"譏":6404,"譖":6405,"識":6406,"譙":6407,"譚":6408,"譜":6409,"譟":6410,"警":6411,"譫":6412,"譬":6413,"譭":6414,"譯":6415,"議":6416,"譲":6417,"譴":6418,"護":6419,"譽":6420,"讀":6421,"讃":6422,"讉":6423,"變":6424,"讎":6425,"讒":6426,"讓":6427,"讕":6428,"讖":6429,"讚":6430,"讜":6431,"讞":6432,"计":6433,"讨":6434,"让":6435,"议":6436,"讯":6437,"记":6438,"讲":6439,"许":6440,"论":6441,"访":6442,"评":6443,"诈":6444,"诉":6445,"诊":6446,"话":6447,"询":6448,"该":6449,"说":6450,"请":6451,"调":6452,"谈":6453,"谓":6454,"谢":6455,"谣":6456,"谷":6457,"谿":6458,"豁":6459,"豆":6460,"豇":6461,"豈":6462,"豉":6463,"豊":6464,"豋":6465,"豌":6466,"豎":6467,"豐":6468,"豔":6469,"豕":6470,"豚":6471,"象":6472,"豢":6473,"豪":6474,"豫":6475,"豬":6476,"豸":6477,"豹":6478,"豺":6479,"貂":6480,"貅":6481,"貉":6482,"貌":6483,"貍":6484,"貎":6485,"貓":6486,"貔":6487,"貘":6488,"貝":6489,"貞":6490,"負":6491,"財":6492,"貢":6493,"貧":6494,"貨":6495,"販":6496,"貪":6497,"貫":6498,"責":6499,"貯":6500,"貰":6501,"貲":6502,"貳":6503,"貴":6504,"貶":6505,"買":6506,"貸":6507,"費":6508,"貼":6509,"貽":6510,"貿":6511,"賀":6512,"賁":6513,"賂":6514,"賃":6515,"賄":6516,"賅":6517,"資":6518,"賈":6519,"賊":6520,"賑":6521,"賒":6522,"賓":6523,"賚":6524,"賛":6525,"賜":6526,"賞":6527,"賠":6528,"賡":6529,"賢":6530,"賣":6531,"賤":6532,"賦":6533,"賧":6534,"質":6535,"賬":6536,"賭":6537,"賴":6538,"賸":6539,"賺":6540,"購":6541,"賽":6542,"贅":6543,"贈":6544,"贊":6545,"贋":6546,"贍":6547,"贏":6548,"贓":6549,"贖":6550,"贗":6551,"贛":6552,"财":6553,"败":6554,"货":6555,"购":6556,"费":6557,"赁":6558,"资":6559,"赔":6560,"赢":6561,"赤":6562,"赦":6563,"赧":6564,"赫":6565,"赭":6566,"走":6567,"赳":6568,"赴":6569,"赶":6570,"起":6571,"趁":6572,"超":6573,"越":6574,"趐":6575,"趕":6576,"趙":6577,"趟":6578,"趣":6579,"趨":6580,"趲":6581,"足":6582,"趴":6583,"趺":6584,"趾":6585,"趿":6586,"跆":6587,"跋":6588,"跌":6589,"跎":6590,"跑":6591,"跘":6592,"跚":6593,"跛":6594,"距":6595,"跟":6596,"跡":6597,"跣":6598,"跤":6599,"跨":6600,"跩":6601,"跪":6602,"跫":6603,"跬":6604,"路":6605,"跳":6606,"践":6607,"跺":6608,"踅":6609,"踉":6610,"踊":6611,"踏":6612,"踐":6613,"踝":6614,"踞":6615,"踟":6616,"踢":6617,"踦":6618,"踨":6619,"踩":6620,"踪":6621,"踫":6622,"踮":6623,"踰":6624,"踱":6625,"踴":6626,"踵":6627,"踹":6628,"蹂":6629,"蹄":6630,"蹇":6631,"蹈":6632,"蹉":6633,"蹊":6634,"蹋":6635,"蹌":6636,"蹓":6637,"蹕":6638,"蹙":6639,"蹚":6640,"蹟":6641,"蹠":6642,"蹣":6643,"蹤":6644,"蹦":6645,"蹧":6646,"蹩":6647,"蹬":6648,"蹭":6649,"蹲":6650,"蹴":6651,"蹶":6652,"蹺":6653,"蹼":6654,"躁":6655,"躂":6656,"躄":6657,"躅":6658,"躇":6659,"躉":6660,"躊":6661,"躋":6662,"躍":6663,"躑":6664,"躕":6665,"躝":6666,"躡":6667,"躥":6668,"躦":6669,"躪":6670,"身":6671,"躬":6672,"躱":6673,"躲":6674,"躹":6675,"躺":6676,"躼":6677,"軀":6678,"車":6679,"軋":6680,"軌":6681,"軍":6682,"軒":6683,"軔":6684,"軚":6685,"軛":6686,"軟":6687,"転":6688,"軫":6689,"軮":6690,"軰":6691,"軸":6692,"軻":6693,"軼":6694,"軽":6695,"軾":6696,"較":6697,"載":6698,"輊":6699,"輒":6700,"輓":6701,"輔":6702,"輕":6703,"輙":6704,"輚":6705,"輛":6706,"輜":6707,"輝":6708,"輟":6709,"輦":6710,"輩":6711,"輪":6712,"輯":6713,"輳":6714,"輸":6715,"輻":6716,"輾":6717,"輿":6718,"轂":6719,"轄":6720,"轅":6721,"轆":6722,"轉":6723,"轍":6724,"轎":6725,"轟":6726,"车":6727,"转":6728,"轻":6729,"载":6730,"辛":6731,"辜":6732,"辞":6733,"辟":6734,"辣":6735,"辦":6736,"辧":6737,"辨":6738,"辭":6739,"辮":6740,"辯":6741,"辰":6742,"辱":6743,"農":6744,"辵":6745,"辶":6746,"边":6747,"辺":6748,"辻":6749,"込":6750,"达":6751,"迂":6752,"迄":6753,"迅":6754,"过":6755,"迈":6756,"迌":6757,"迎":6758,"运":6759,"近":6760,"迓":6761,"返":6762,"还":6763,"这":6764,"进":6765,"远":6766,"违":6767,"迟":6768,"迢":6769,"迤":6770,"迥":6771,"迦":6772,"迨":6773,"迪":6774,"迫":6775,"迭":6776,"述":6777,"迴":6778,"迷":6779,"迸":6780,"迹":6781,"迺":6782,"追":6783,"退":6784,"送":6785,"逃":6786,"逅":6787,"逆":6788,"选":6789,"逍":6790,"透":6791,"逐":6792,"递":6793,"途":6794,"逕":6795,"逗":6796,"逘":6797,"這":6798,"通":6799,"逛":6800,"逝":6801,"逞":6802,"速":6803,"造":6804,"逡":6805,"逢":6806,"連":6807,"逬":6808,"逭":6809,"逮":6810,"週":6811,"進":6812,"逵":6813,"逶":6814,"逸":6815,"逹":6816,"逼":6817,"逾":6818,"遁":6819,"遂":6820,"遅":6821,"遇":6822,"遊":6823,"運":6824,"遍":6825,"過":6826,"遏":6827,"遐":6828,"遑":6829,"遒":6830,"道":6831,"達":6832,"違":6833,"遗":6834,"遙":6835,"遛":6836,"遜":6837,"遝":6838,"遞":6839,"遠":6840,"遢":6841,"遣":6842,"遥":6843,"遨":6844,"適":6845,"遭":6846,"遮":6847,"遲":6848,"遴":6849,"遵":6850,"遶":6851,"遷":6852,"選":6853,"遺":6854,"遼":6855,"遽":6856,"避":6857,"邀":6858,"邁":6859,"邂":6860,"邃":6861,"還":6862,"邇":6863,"邈":6864,"邉":6865,"邊":6866,"邋":6867,"邏":6868,"邐":6869,"邑":6870,"邕":6871,"邙":6872,"邡":6873,"邢":6874,"那":6875,"邦":6876,"邨":6877,"邪":6878,"邯":6879,"邰":6880,"邱":6881,"邳":6882,"邵":6883,"邸":6884,"郁":6885,"郊":6886,"郎":6887,"郗":6888,"郝":6889,"郡":6890,"郢":6891,"郤":6892,"部":6893,"郭":6894,"郵":6895,"郷":6896,"都":6897,"鄂":6898,"鄆":6899,"鄉":6900,"鄒":6901,"鄔":6902,"鄕":6903,"鄙":6904,"鄞":6905,"鄢":6906,"鄧":6907,"鄭":6908,"鄰":6909,"鄲":6910,"鄴":6911,"鄺":6912,"酆":6913,"酇":6914,"酈":6915,"酉":6916,"酊":6917,"酋":6918,"酌":6919,"配":6920,"酎":6921,"酐":6922,"酒":6923,"酔":6924,"酗":6925,"酚":6926,"酡":6927,"酢":6928,"酣":6929,"酥":6930,"酩":6931,"酪":6932,"酬":6933,"酮":6934,"酯":6935,"酰":6936,"酳":6937,"酵":6938,"酶":6939,"酷":6940,"酸":6941,"醂":6942,"醃":6943,"醇":6944,"醉":6945,"醋":6946,"醌":6947,"醍":6948,"醐":6949,"醒":6950,"醖":6951,"醚":6952,"醛":6953,"醜":6954,"醞":6955,"醡":6956,"醣":6957,"醫":6958,"醬":6959,"醮":6960,"醯":6961,"醰":6962,"醱":6963,"醴":6964,"醸":6965,"醺":6966,"釀":6967,"釁":6968,"釅":6969,"釆":6970,"采":6971,"釈":6972,"釉":6973,"释":6974,"釋":6975,"里":6976,"重":6977,"野":6978,"量":6979,"釐":6980,"金":6981,"釓":6982,"釔":6983,"釕":6984,"釗":6985,"釘":6986,"釜":6987,"針":6988,"釣":6989,"釤":6990,"釦":6991,"釧":6992,"釨":6993,"釩":6994,"釵":6995,"釹":6996,"鈀":6997,"鈄":6998,"鈅":6999,"鈈":7000,"鈉":7001,"鈊":7002,"鈍":7003,"鈎":7004,"鈐":7005,"鈑":7006,"鈔":7007,"鈕":7008,"鈞":7009,"鈣":7010,"鈥":7011,"鈦":7012,"鈧":7013,"鈰":7014,"鈴":7015,"鈷":7016,"鈸":7017,"鈺":7018,"鈽":7019,"鈾":7020,"鈿":7021,"鉀":7022,"鉄":7023,"鉅":7024,"鉆":7025,"鉈":7026,"鉉":7027,"鉍":7028,"鉑":7029,"鉕":7030,"鉗":7031,"鉚":7032,"鉛":7033,"鉢":7034,"鉤":7035,"鉦":7036,"鉬":7037,"鉭":7038,"鉸":7039,"鉺":7040,"鉻":7041,"鉾":7042,"銀":7043,"銃":7044,"銅":7045,"銑":7046,"銓":7047,"銖":7048,"銘":7049,"銜":7050,"銠":7051,"銣":7052,"銥":7053,"銦":7054,"銨":7055,"銩":7056,"銪":7057,"銫":7058,"銬":7059,"銭":7060,"銲":7061,"銳":7062,"銷":7063,"銹":7064,"銻":7065,"銼":7066,"鋁":7067,"鋃":7068,"鋅":7069,"鋇":7070,"鋉":7071,"鋌":7072,"鋏":7073,"鋐":7074,"鋒":7075,"鋕":7076,"鋤":7077,"鋥":7078,"鋪":7079,"鋬":7080,"鋭":7081,"鋯":7082,"鋰":7083,"鋱":7084,"鋸":7085,"鋼":7086,"錄":7087,"錆":7088,"錏":7089,"錐":7090,"錘":7091,"錙":7092,"錚":7093,"錛":7094,"錞":7095,"錠":7096,"錡":7097,"錢":7098,"錤":7099,"錦":7100,"錨":7101,"錩":7102,"錫":7103,"錬":7104,"錮":7105,"錯":7106,"録":7107,"錳":7108,"錶":7109,"錸":7110,"錼":7111,"鍇":7112,"鍊":7113,"鍋":7114,"鍍":7115,"鍘":7116,"鍚":7117,"鍛":7118,"鍜":7119,"鍥":7120,"鍬":7121,"鍰":7122,"鍵":7123,"鍶":7124,"鍺":7125,"鍼":7126,"鍾":7127,"鎂":7128,"鎊":7129,"鎌":7130,"鎏":7131,"鎔":7132,"鎖":7133,"鎗":7134,"鎘":7135,"鎚":7136,"鎢":7137,"鎦":7138,"鎧":7139,"鎩":7140,"鎮":7141,"鎯":7142,"鎰":7143,"鎳":7144,"鎵":7145,"鎿":7146,"鏃":7147,"鏈":7148,"鏐":7149,"鏑":7150,"鏖":7151,"鏗":7152,"鏘":7153,"鏞":7154,"鏟":7155,"鏡":7156,"鏢":7157,"鏤":7158,"鏽":7159,"鐐":7160,"鐔":7161,"鐘":7162,"鐠":7163,"鐡":7164,"鐧":7165,"鐫":7166,"鐮":7167,"鐲":7168,"鐳":7169,"鐵":7170,"鐶":7171,"鐸":7172,"鐹":7173,"鐺":7174,"鐿":7175,"鑄":7176,"鑊":7177,"鑌":7178,"鑑":7179,"鑒":7180,"鑛":7181,"鑠":7182,"鑢":7183,"鑣":7184,"鑫":7185,"鑭":7186,"鑰":7187,"鑲":7188,"鑴":7189,"鑷":7190,"鑼":7191,"鑽":7192,"鑾":7193,"鑿":7194,"钟":7195,"钱":7196,"钻":7197,"钾":7198,"铃":7199,"铐":7200,"银":7201,"销":7202,"锆":7203,"锐":7204,"错":7205,"键":7206,"镁":7207,"镇":7208,"镜":7209,"镶":7210,"長":7211,"长":7212,"門":7213,"閃":7214,"閆":7215,"閉":7216,"開":7217,"閎":7218,"閏":7219,"閑":7220,"閒":7221,"間":7222,"閔":7223,"閘":7224,"閙":7225,"閡":7226,"関":7227,"閣":7228,"閤":7229,"閥":7230,"閨":7231,"閩":7232,"閭":7233,"閱":7234,"閲":7235,"閵":7236,"閹":7237,"閻":7238,"閾":7239,"闀":7240,"闃":7241,"闆":7242,"闇":7243,"闈":7244,"闊":7245,"闌":7246,"闐":7247,"闓":7248,"闔":7249,"闕":7250,"闖":7251,"闗":7252,"闘":7253,"關":7254,"闞":7255,"闡":7256,"闢":7257,"门":7258,"问":7259,"间":7260,"闻":7261,"阜":7262,"阠":7263,"阡":7264,"阢":7265,"阪":7266,"阮":7267,"阱":7268,"防":7269,"阳":7270,"阻":7271,"阿":7272,"陀":7273,"陂":7274,"陃":7275,"附":7276,"陆":7277,"陈":7278,"陋":7279,"陌":7280,"降":7281,"限":7282,"陔":7283,"陕":7284,"陛":7285,"陜":7286,"陝":7287,"陞":7288,"陟":7289,"陡":7290,"院":7291,"陣":7292,"除":7293,"险":7294,"陪":7295,"陬":7296,"陰":7297,"陲":7298,"陳":7299,"陵":7300,"陶":7301,"陷":7302,"陸":7303,"険":7304,"陽":7305,"隅":7306,"隆":7307,"隈":7308,"隉":7309,"隊":7310,"隋":7311,"隍":7312,"階":7313,"随":7314,"隔":7315,"隕":7316,"隘":7317,"隙":7318,"際":7319,"障":7320,"隠":7321,"隣":7322,"隧":7323,"隨":7324,"險":7325,"隰":7326,"隱":7327,"隴":7328,"隷":7329,"隸":7330,"隻":7331,"隼":7332,"隽":7333,"难":7334,"雀":7335,"雁":7336,"雃":7337,"雄":7338,"雅":7339,"集":7340,"雇":7341,"雉":7342,"雋":7343,"雌":7344,"雍":7345,"雕":7346,"雖":7347,"雙":7348,"雛":7349,"雜":7350,"雞":7351,"離":7352,"難":7353,"雨":7354,"雩":7355,"雪":7356,"雫":7357,"雯":7358,"雲":7359,"零":7360,"雷":7361,"雹":7362,"電":7363,"需":7364,"霄":7365,"霆":7366,"震":7367,"霈":7368,"霉":7369,"霊":7370,"霍":7371,"霎":7372,"霏":7373,"霑":7374,"霓":7375,"霖":7376,"霙":7377,"霜":7378,"霞":7379,"霧":7380,"霰":7381,"露":7382,"霸":7383,"霹":7384,"霾":7385,"靂":7386,"靄":7387,"靆":7388,"靈":7389,"靉":7390,"靑":7391,"青":7392,"靓":7393,"靖":7394,"静":7395,"靚":7396,"靛":7397,"靜":7398,"非":7399,"靠":7400,"靡":7401,"面":7402,"靣":7403,"靦":7404,"靨":7405,"革":7406,"靭":7407,"靱":7408,"靳":7409,"靴":7410,"靶":7411,"靼":7412,"鞄":7413,"鞅":7414,"鞋":7415,"鞍":7416,"鞏":7417,"鞕":7418,"鞘":7419,"鞠":7420,"鞣":7421,"鞦":7422,"鞭":7423,"鞮":7424,"韁":7425,"韃":7426,"韆":7427,"韋":7428,"韌":7429,"韓":7430,"韙":7431,"韜":7432,"韭":7433,"音":7434,"韶":7435,"韻":7436,"韾":7437,"響":7438,"頁":7439,"頂":7440,"頃":7441,"項":7442,"順":7443,"頇":7444,"須":7445,"頌":7446,"頎":7447,"頏":7448,"預":7449,"頑":7450,"頒":7451,"頓":7452,"頔":7453,"頗":7454,"領":7455,"頜":7456,"頡":7457,"頤":7458,"頦":7459,"頭":7460,"頰":7461,"頷":7462,"頸":7463,"頹":7464,"頻":7465,"頼":7466,"頽":7467,"顆":7468,"題":7469,"額":7470,"顎":7471,"顏":7472,"顔":7473,"顕":7474,"顗":7475,"願":7476,"顙":7477,"顛":7478,"類":7479,"顢":7480,"顥":7481,"顧":7482,"顫":7483,"顯":7484,"顰":7485,"顱":7486,"顳":7487,"顴":7488,"项":7489,"须":7490,"顾":7491,"领":7492,"频":7493,"颕":7494,"题":7495,"额":7496,"風":7497,"颮":7498,"颯":7499,"颱":7500,"颳":7501,"颶":7502,"颺":7503,"颼":7504,"飄":7505,"飆":7506,"飇":7507,"飈":7508,"飊":7509,"飛":7510,"飞":7511,"食":7512,"飢":7513,"飧":7514,"飩":7515,"飪":7516,"飭":7517,"飮":7518,"飯":7519,"飲":7520,"飴":7521,"飼":7522,"飽":7523,"飾":7524,"餃":7525,"餅":7526,"餉":7527,"養":7528,"餌":7529,"餐":7530,"餑":7531,"餒":7532,"餓":7533,"餔":7534,"餘":7535,"餚":7536,"餛":7537,"餞":7538,"餡":7539,"館":7540,"餬":7541,"餵":7542,"餽":7543,"餾":7544,"餿":7545,"饀":7546,"饃":7547,"饅":7548,"饈":7549,"饉":7550,"饊":7551,"饋":7552,"饌":7553,"饍":7554,"饑":7555,"饒":7556,"饕":7557,"饗":7558,"饜":7559,"饞":7560,"饺":7561,"馆":7562,"首":7563,"馗":7564,"馘":7565,"香":7566,"馥":7567,"馨":7568,"馬":7569,"馭":7570,"馮":7571,"馱":7572,"馳":7573,"馴":7574,"駁":7575,"駄":7576,"駅":7577,"駐":7578,"駑":7579,"駒":7580,"駔":7581,"駕":7582,"駙":7583,"駛":7584,"駝":7585,"駟":7586,"駡":7587,"駢":7588,"駭":7589,"駱":7590,"駸":7591,"駿":7592,"騁":7593,"騅":7594,"騎":7595,"騏":7596,"騒":7597,"験":7598,"騖":7599,"騙":7600,"騞":7601,"騫":7602,"騰":7603,"騷":7604,"騾":7605,"驀":7606,"驁":7607,"驃":7608,"驅":7609,"驊":7610,"驍":7611,"驒":7612,"驕":7613,"驗":7614,"驚":7615,"驛":7616,"驟":7617,"驢":7618,"驤":7619,"驥":7620,"驪":7621,"驫":7622,"骗":7623,"骨":7624,"骯":7625,"骰":7626,"骷":7627,"骸":7628,"骺":7629,"骼":7630,"髂":7631,"髃":7632,"髄":7633,"髋":7634,"髎":7635,"髏":7636,"髒":7637,"髓":7638,"體":7639,"髕":7640,"髖":7641,"髗":7642,"高":7643,"髙":7644,"髦":7645,"髪":7646,"髭":7647,"髮":7648,"髯":7649,"髻":7650,"鬃":7651,"鬆":7652,"鬍":7653,"鬚":7654,"鬟":7655,"鬢":7656,"鬣":7657,"鬥":7658,"鬧":7659,"鬨":7660,"鬩":7661,"鬪":7662,"鬰":7663,"鬱":7664,"鬼":7665,"魁":7666,"魂":7667,"魃":7668,"魄":7669,"魅":7670,"魍":7671,"魎":7672,"魏":7673,"魑":7674,"魔":7675,"魕":7676,"魘":7677,"魚":7678,"魛":7679,"魟":7680,"魠":7681,"魨":7682,"魩":7683,"魯":7684,"魴":7685,"魷":7686,"鮋":7687,"鮐":7688,"鮑":7689,"鮓":7690,"鮟":7691,"鮪":7692,"鮫":7693,"鮭":7694,"鮮":7695,"鮸":7696,"鯁":7697,"鯃":7698,"鯉":7699,"鯊":7700,"鯓":7701,"鯔":7702,"鯖":7703,"鯛":7704,"鯡":7705,"鯢":7706,"鯤":7707,"鯧":7708,"鯨":7709,"鯪":7710,"鯮":7711,"鯰":7712,"鯷":7713,"鯽":7714,"鰆":7715,"鰈":7716,"鰍":7717,"鰓":7718,"鰛":7719,"鰡":7720,"鰣":7721,"鰤":7722,"鰥":7723,"鰩":7724,"鰭":7725,"鰱":7726,"鰲":7727,"鰷":7728,"鰹":7729,"鰺":7730,"鰻":7731,"鱂":7732,"鱅":7733,"鱇":7734,"鱈":7735,"鱉":7736,"鱍":7737,"鱒":7738,"鱔":7739,"鱖":7740,"鱗":7741,"鱘":7742,"鱝":7743,"鱟":7744,"鱧":7745,"鱪":7746,"鱲":7747,"鱷":7748,"鱸":7749,"鱺":7750,"鱻":7751,"鱼":7752,"鲁":7753,"鲍":7754,"鲜":7755,"鲨":7756,"鲭":7757,"鲵":7758,"鳄":7759,"鳥":7760,"鳧":7761,"鳩":7762,"鳯":7763,"鳳":7764,"鳴":7765,"鳶":7766,"鴆":7767,"鴇":7768,"鴉":7769,"鴐":7770,"鴒":7771,"鴕":7772,"鴛":7773,"鴝":7774,"鴞":7775,"鴟":7776,"鴣":7777,"鴦":7778,"鴨":7779,"鴯":7780,"鴴":7781,"鴻":7782,"鴿":7783,"鵑":7784,"鵜":7785,"鵝":7786,"鵟":7787,"鵠":7788,"鵡":7789,"鵪":7790,"鵬":7791,"鵯":7792,"鵰":7793,"鵲":7794,"鶇":7795,"鶉":7796,"鶓":7797,"鶘":7798,"鶩":7799,"鶯":7800,"鶲":7801,"鶴":7802,"鶻":7803,"鶼":7804,"鶿":7805,"鷂":7806,"鷄":7807,"鷈":7808,"鷓":7809,"鷗":7810,"鷙":7811,"鷠":7812,"鷥":7813,"鷦":7814,"鷲":7815,"鷴":7816,"鷸":7817,"鷹":7818,"鷺":7819,"鷿":7820,"鸕":7821,"鸚":7822,"鸛":7823,"鸝":7824,"鸞":7825,"鹵":7826,"鹹":7827,"鹼":7828,"鹽":7829,"鹿":7830,"麂":7831,"麈":7832,"麋":7833,"麒":7834,"麓":7835,"麗":7836,"麝":7837,"麟":7838,"麥":7839,"麩":7840,"麴":7841,"麵":7842,"麻":7843,"麼":7844,"麽":7845,"麾":7846,"黃":7847,"黄":7848,"黍":7849,"黎":7850,"黏":7851,"黐":7852,"黑":7853,"黒":7854,"黔":7855,"默":7856,"黛":7857,"黜":7858,"黝":7859,"點":7860,"黠":7861,"黢":7862,"黥":7863,"黦":7864,"黧":7865,"黨":7866,"黯":7867,"黴":7868,"黷":7869,"黻":7870,"鼇":7871,"鼎":7872,"鼐":7873,"鼓":7874,"鼔":7875,"鼠":7876,"鼩":7877,"鼬":7878,"鼯":7879,"鼻":7880,"鼽":7881,"鼾":7882,"齁":7883,"齊":7884,"齋":7885,"齎":7886,"齒":7887,"齜":7888,"齟":7889,"齡":7890,"齢":7891,"齣":7892,"齦":7893,"齧":7894,"齪":7895,"齬":7896,"齲":7897,"齷":7898,"齿":7899,"龄":7900,"龍":7901,"龎":7902,"龐":7903,"龔":7904,"龕":7905,"龜":7906,"龥":7907,"꜆":7908,"":7909,"":7910,"":7911,"":7912,"":7913,"":7914,"":7915,"":7916,"":7917,"":7918,"":7919,"﨑":7920,"︎":7921,"️":7922,"﹅":7923,"﻿":7924,"￼":7925,"🆚":7926,"🇨":7927,"🇫":7928,"🇮":7929,"🇯":7930,"🇰":7931,"🇱":7932,"🇲":7933,"🇳":7934,"🇵":7935,"🇷":7936,"🇹":7937,"🇺":7938,"🇻":7939,"🇼":7940,"🇾":7941,"🌇":7942,"🌈":7943,"🌊":7944,"🌍":7945,"🌎":7946,"🌏":7947,"🌙":7948,"🌝":7949,"🌞":7950,"🌟":7951,"🌠":7952,"🌨":7953,"🌱":7954,"🌳":7955,"🌶":7956,"🌸":7957,"🌹":7958,"🌺":7959,"🌻":7960,"🌼":7961,"🍀":7962,"🍋":7963,"🍑":7964,"🍒":7965,"🍗":7966,"🍚":7967,"🍜":7968,"🍞":7969,"🍥":7970,"🍨":7971,"🍩":7972,"🎄":7973,"🎅":7974,"🎆":7975,"🎉":7976,"🎊":7977,"🎨":7978,"🎬":7979,"🎮":7980,"🎯":7981,"🎵":7982,"🏁":7983,"🏆":7984,"🏊":7985,"🏓":7986,"🏝":7987,"🏻":7988,"🏼":7989,"🏽":7990,"🐀":7991,"🐇":7992,"🐤":7993,"🐯":7994,"🐰":7995,"🐱":7996,"🐳":7997,"🐶":7998,"🐷":7999,"🐸":8000,"🐻":8001,"🐼":8002,"🐾":8003,"👀":8004,"👁":8005,"👇":8006,"👉":8007,"👊":8008,"👋":8009,"👍":8010,"👏":8011,"👘":8012,"👜":8013,"👭":8014,"👮":8015,"👸":8016,"👼":8017,"💁":8018,"💃":8019,"💉":8020,"💋":8021,"💎":8022,"💓":8023,"💔":8024,"💕":8025,"💖":8026,"💗":8027,"💘":8028,"💙":8029,"💚":8030,"💛":8031,"💝":8032,"💢":8033,"💤":8034,"💥":8035,"💦":8036,"💩":8037,"💪":8038,"💫":8039,"💭":8040,"💰":8041,"📢":8042,"📧":8043,"📷":8044,"📸":8045,"📺":8046,"📼":8047,"📽":8048,"🔌":8049,"🔍":8050,"🔎":8051,"🔒":8052,"🔔":8053,"🔖":8054,"🔗":8055,"🔞":8056,"🔥":8057,"🔦":8058,"🔩":8059,"🔭":8060,"🔺":8061,"🕊":8062,"🕺":8063,"🖌":8064,"🖐":8065,"🖤":8066,"🗣":8067,"🗨":8068,"🗿":8069,"😀":8070,"😁":8071,"😂":8072,"😄":8073,"😅":8074,"😆":8075,"😇":8076,"😉":8077,"😊":8078,"😋":8079,"😌":8080,"😍":8081,"😎":8082,"😏":8083,"😐":8084,"😖":8085,"😗":8086,"😘":8087,"😙":8088,"😚":8089,"😛":8090,"😜":8091,"😝":8092,"😢":8093,"😤":8094,"😩":8095,"😫":8096,"😭":8097,"😰":8098,"😱":8099,"😳":8100,"😷":8101,"😽":8102,"😿":8103,"🙃":8104,"🙄":8105,"🙅":8106,"🙆":8107,"🙇":8108,"🙌":8109,"🙏":8110,"🚃":8111,"🚨":8112,"🚩":8113,"🚵":8114,"🚿":8115,"🛁":8116,"🟡":8117,"🟨":8118,"🤍":8119,"🤎":8120,"🤓":8121,"🤔":8122,"🤖":8123,"🤙":8124,"🤞":8125,"🤢":8126,"🤣":8127,"🤨":8128,"🤩":8129,"🤪":8130,"🤯":8131,"🤸":8132,"🤾":8133,"🥂":8134,"🥇":8135,"🥈":8136,"🥊":8137,"🥕":8138,"🥦":8139,"🥰":8140,"🥳":8141,"🥴":8142,"🥶":8143,"🥺":8144,"🦁":8145,"🦄":8146,"🦊":8147,"🦋":8148,"🦦":8149,"🦩":8150,"🦵":8151,"🦷":8152,"🧗":8153,"🧘":8154,"🧚":8155,"🧠":8156,"🧡":8157,"🧧":8158,"🧬":8159,"🧼":8160,"🪐":8161,"𠽾":8162,"𡘙":8163,"𡚒":8164,"𢭃":8165,"𣈱":8166,"𣡊":8167,"𥇦":8168,"𥌓":8169,"𥚃":8170,"𥴊":8171,"𧄌":8172,"𨑨":8173,"𩵚":8174,"𩻸":8175,"er":8176,"per":8177,"or":8178,"org":8179,"en":8180,"nu":8181,"num":8182,"EP":8183,"SEP":8184,"per0":8185,",<":8186,"org0":8187,"20":8188,"per1":8189,"org1":8190,"。<":8191,"表示":8192,"台灣":8193,"10":8194,"(<":8195,"per2":8196,"確診":8197,">)":8198,"」,":8199,"org2":8200,"症狀":8201,"00":8202,"多歲":8203,"美國":8204,"疫情":8205,"採檢":8206,"19":8207,"中國":8208,"報導":8209,"沒有":8210,"lo":8211,"loc":8212,"。」":8213,"檢疫":8214,"工作":8215,"、<":8216,">,":8217,"進行":8218,"新聞":8219,"per3":8220,"可以":8221,",「":8222,"。●":8223,"自己":8224,"12":8225,"出現":8226,"30":8227,"更多":8228,"防疫":8229,"」、":8230,"入境":8231,"」、「":8232,"11":8233,"可能":8234,"疫苗":8235,"org3":8236,"因為":8237,"目前":8238,"我們":8239,":「":8240,"」。":8241,"民眾":8242,"個案":8243,"政府":8244,"一個":8245,"..":8246,"中心":8247,"]<":8248,"指出":8249,"就是":8250,"女性":8251,"提供":8252,"時間":8253,"loc0":8254,"。(":8255,"活動":8256,"男性":8257,"。[":8258,"per4":8259,"相關":8260,">、<":8261,"21":8262,"網友":8263,"公司":8264,"><":8265,"陰性":8266,"今天":8267,">(<":8268,"今年":8269,"不過":8270,"使用":8271,"已經":8272,"認為":8273,"指揮":8274,"人員":8275,"問題":8276,"接觸":8277,"記者":8278,"因此":8279,"org4":8280,"50":8281,"發現":8282,"多歲男性":8283,"其中":8284,"他們":8285,"台北":8286,"第一":8287,"日本":8288,"檢驗":8289,"國家":8290,"報告":8291,"14":8292,"影響":8293,"就醫":8294,"安排":8295,"持續":8296,"開始":8297,"多歲女性":8298,"學生":8299,"3日":8300,"其他":8301,"不是":8302,"健康":8303,"15":8304,"發生":8305,"現在":8306,">-":8307,"以及":8308,"希望":8309,"18":8310,"「<":8311,"40":8312,"期間":8313,"16":8314,"結果":8315,"如果":8316,"2020":8317,"印度":8318,"感染":8319,"醫院":8320,">:":8321,"指揮中心":8322,"什麼":8323,"透過":8324,"新冠":8325,"肺炎":8326,"22":8327,"居家":8328,"per5":8329,"去年":8330,"總統":8331,"國際":8332,"全球":8333,"安全":8334,"這個":8335,"需要":8336,"的人":8337,"許多":8338,"這樣":8339,"大家":8340,"口罩":8341,"還有":8342,"無法":8343,"17":8344,"還是":8345,"部分":8346,"隔離":8347,"成為":8348,"不會":8349,"包括":8350,"接種":8351,"調查":8352,"通報":8353,"同時":8354,"甚至":8355,"對於":8356,"未來":8357,"nk":8358,"unk":8359,"無症狀":8360,"除了":8361,"org5":8362,"要求":8363,"期滿":8364,"生活":8365,"都是":8366,">、":8367,"。▲":8368,"13":8369,"市場":8370,"管理":8371,"也是":8372,"這些":8373,"25":8374,"持有":8375,"%,":8376,"合作":8377,"入境後":8378,"服務":8379,"針對":8380,"2020年":8381,"2021":8382,"是否":8383,"關係":8384,"發展":8385,"/<":8386,"所以":8387,"雖然":8388,"世界":8389,"最後":8390,"重要":8391,"機前":8392,"經濟":8393,"的是":8394,"),":8395,"警方":8396,"一名":8397,"社會":8398,"通知":8399,"造成":8400,"接受":8401,"由於":8402,"檢驗陰性":8403,"超過":8404,"發燒":8405,"病毒":8406,"印尼":8407,"運動":8408,"今日":8409,"相當":8410,"咳嗽":8411,"根據":8412,"3日內":8413,"本土":8414,"啟動":8415,"60":8416,"手機":8417,"增加":8418,"宣布":8419,"學校":8420,"檢疫期滿":8421,"機前3日內":8422,"過去":8423,"方式":8424,"也有":8425,"檢驗陰性報告":8426,"不同":8427,"臉書":8428,"非常":8429,"看到":8430,"投資":8431,"為了":8432,"支持":8433,"應該":8434,"代表":8435,"重大":8436,"媒體":8437,"接觸者":8438,"英國":8439,"旅遊":8440,"強調":8441,"機師":8442,"地方":8443,"公布":8444,":<":8445,"人的":8446,"設計":8447,"國內":8448,"日前":8449,"一次":8450,"翻攝":8451,"一起":8452,"地區":8453,"知道":8454,"研究":8455,"狀況":8456,"醫師":8457,"機會":8458,"28":8459,"北市":8460,"per6":8461,"處理":8462,"推出":8463,"特別":8464,"100":8465,"進入":8466,"系統":8467,"旅館":8468,"網路":8469,"真的":8470,"當時":8471,"24":8472,"日至":8473,"其實":8474,"另外":8475,"機場":8476,"事件":8477,"計畫":8478,"不少":8479,"所有":8480,"每日":8481,"第二":8482,"母親":8483,"律賓":8484,"菲律賓":8485,"27":8486,"日出現":8487,"之後":8488,"資料":8489,"新冠肺炎":8490,"建議":8491,"以上":8492,"完成":8493,"必須":8494,"國籍":8495,"個月":8496,"《<":8497,"!<":8498,"媽媽":8499,"孩子":8500,"政策":8501,"高雄":8502,"嚴重":8503,"當地":8504,"萬元":8505,"措施":8506,">」":8507,"並確診":8508,">(":8509,"不要":8510,"員工":8511,"選擇":8512,">》":8513,"29":8514,"出國":8515,"家人":8516,"這是":8517,"環境":8518,"教育":8519,"很多":8520,"2019":8521,"分別":8522,"提醒":8523,"男子":8524,"說明":8525,"入境後至":8526,"企業":8527,"風險":8528,"台中":8529,"美元":8530,"情況":8531,"大陸":8532,"億元":8533,"不能":8534,"導致":8535,"顯示":8536,"居家檢疫":8537,"個人":8538,"討論":8539,"朋友":8540,"小時":8541,"受到":8542,"前往":8543,"參與":8544,"只是":8545,"直接":8546,"治療":8547,"26":8548,"分享":8549,"覺得":8550,"主動":8551,">/":8552,"中央":8553,"下午":8554,"本國籍":8555,"現場":8556,"決定":8557,"功能":8558,"org6":8559,"比較":8560,"政治":8561,"對此":8562,"內容":8563,"來臺":8564,"技術":8565,"獲得":8566,"新增":8567,"產業":8568,"一定":8569,"面對":8570,"陽性":8571,"需求":8572,"000":8573,"協助":8574,"社區":8575,"醫療":8576,"大的":8577,"只要":8578,"表現":8579,"台北市":8580,"200":8581,"通過":8582,"只有":8583,"產品":8584,"自己的":8585,"23":8586,"推播":8587,"規定":8588,"喉嚨":8589,"加上":8590,"重大新聞":8591,"重大新聞通知":8592,"每日重大新聞通知":8593,"機前3日內檢驗陰性報告":8594,"執行":8595,"時候":8596,"影片":8597,"主要":8598,"提出":8599,"入境時":8600,"提升":8601,"立委":8602,"疑似":8603,"起來":8604,"成長":8605,"日起":8606,"翻攝自":8607,"業者":8608,"比賽":8609,"的一":8610,"案11":8611,"方面":8612,"群聚":8613,"死亡":8614,"病例":8615,"加入":8616,"防疫旅館":8617,"開放":8618,"一樣":8619,"曝光":8620,"如何":8621,"科技":8622,"不適":8623,"專家":8624,"回應":8625,"最新":8626,"籍20":8627,"loc1":8628,"一直":8629,"自費":8630,"消費":8631,"per7":8632,"原因":8633,"但是":8634,"參加":8635,"集中":8636,"任何":8637,"?」":8638,"至於":8639,"最高":8640,"搭機前3日內檢驗陰性報告":8641,"都有":8642,"長期":8643,"這次":8644,"繼續":8645,"怎麼":8646,"!」":8647,"單位":8648,"香港":8649,"染疫":8650,"自主":8651,"70":8652,"關鍵":8653,"準備":8654,"。」<":8655,"情形":8656,"緊急":8657,"身體":8658,"行動":8659,"保護":8660,"一步":8661,"分析":8662,"持有搭機前3日內檢驗陰性報告":8663,"平台":8664,"戴口罩":8665,"了解":8666,"能力":8667,"議員":8668,"此外":8669,"上的":8670,"資訊":8671,"第3":8672,"全台":8673,"出來":8674,"也會":8675,"年的":8676,"好的":8677,"申請":8678,"大學":8679,"舉辦":8680,"110":8681,"完全":8682,"過程":8683,"消毒":8684,"?<":8685,"不到":8686,"近期":8687,"2021年":8688,")<":8689,"返國":8690,"桃園":8691,"數據":8692,"也不":8693,"引發":8694,"容易":8695,"共同":8696,"能夠":8697,"擴大":8698,"人民":8699,"預計":8700,"畫面":8701,"呼籲":8702,"中的":8703,"照片":8704,"採檢並確診":8705,"第三":8706,"陸續":8707,"則是":8708,"都會":8709,"作為":8710,"會議":8711,"成功":8712,"維持":8713,"新聞網":8714,"就會":8715,"歷史":8716,"...":8717,"以來":8718,"而且":8719,"不僅":8720,"文化":8721,"目標":8722,"行為":8723,"或是":8724,"不斷":8725,"想到":8726,"避免":8727,"等症狀":8728,"案10":8729,"注意":8730,"採檢確診":8731,"人數":8732,"努力":8733,"//":8734,"掌握":8735,"紀錄":8736,"委員":8737,"為陰性":8738,"距離":8739,"一般":8740,"他的":8741,"飯店":8742,"99":8743,"80":8744,"來臺工作":8745,"全國":8746,"出國日":8747,"台幣":8748,"電影":8749,"5月":8750,"家庭":8751,"4月":8752,"這種":8753,"才能":8754,"流鼻":8755,"系列":8756,"於1":8757,"兩人":8758,"攝影":8759,"提到":8760,"上午":8761,"自行":8762,"人士":8763,"案5":8764,"團隊":8765,"穩定":8766,"一些":8767,"org7":8768,"教練":8769,";<":8770,"舉行":8771,"學習":8772,"檢疫期滿前":8773,"壓力":8774,"機組":8775,"因應":8776,"流鼻水":8777,"自由":8778,"電子":8779,"減少":8780,"綜合":8781,"重點":8782,"優惠":8783,"專業":8784,"下來":8785,"來說":8786,"全面":8787,"36":8788,"搭乘":8789,"發文":8790,"公開":8791,"包含":8792,"品牌":8793,"就學":8794,"進一步":8795,"分鐘":8796,"施打":8797,"年輕":8798,"經過":8799,"市長":8800,"對方":8801,"透露":8802,"告知":8803,"配合":8804,"母親節":8805,"老師":8806,"商品":8807,"遊戲":8808,"台股":8809,"擁有":8810,"消息":8811,"一下":8812,"37":8813,"改善":8814,"35":8815,"有人":8816,"階段":8817,"積極":8818,"加強":8819,"之一":8820,"新北市":8821,"解決":8822,"空間":8823,"34":8824,"推動":8825,"至少":8826,"警察":8827,"挑戰":8828,"近日":8829,"關注":8830,"爆發":8831,"董事":8832,"90":8833,"然而":8834,"調整":8835,"擔心":8836,"原本":8837,"年來":8838,"30多歲男性":8839,"智慧":8840,"健康管理":8841,"案6":8842,"閱讀":8843,"發表":8844,"匡列":8845,"組織":8846,"per8":8847,"議題":8848,"2019年":8849,"台南":8850,"主席":8851,"流行":8852,"。「":8853,"發病":8854,"雙方":8855,"外交":8856,"正式":8857,"文章":8858,"保持":8859,"幫助":8860,"異常":8861,"的事":8862,"案例":8863,"居家隔離":8864,"擔任":8865,"案8":8866,"安排就醫":8867,"整理":8868,"之前":8869,"沒想到":8870,"聲明":8871,"工程":8872,"45":8873,"粉絲":8874,"自主健康管理":8875,"民主":8876,"再次":8877,"最大":8878,"在臉書":8879,"來自":8880,"價格":8881,"就有":8882,"確定":8883,"女兒":8884,"萬人":8885,"停電":8886,"方案":8887,"晚間":8888,"疾病":8889,"臺灣":8890,"駕駛":8891,"​​":8892,"記者會":8893,"紛紛":8894,">「":8895,"新高":8896,"會有":8897,"是在":8898,"利用":8899,"意外":8900,"核酸":8901,"台灣的":8902,"發言":8903,"安打":8904,"取得":8905,"負責":8906,">。":8907,"這樣的":8908,"並且":8909,"新台幣":8910,"來台":8911,"訓練":8912,"蘋果":8913,"只能":8914,"用戶":8915,"聯盟":8916,"31":8917,"另一":8918,"正在":8919,"這一":8920,"價值":8921,"這麼":8922,"再度":8923,"控制":8924,"採檢後":8925,"兒子":8926,"喜歡":8927,"推薦":8928,"2人":8929,"觀察":8930,"線上":8931,"經驗":8932,"澳洲":8933,"最近":8934,"團體":8935,"正常":8936,"規劃":8937,"歲的":8938,"開發":8939,"引起":8940,"發布":8941,"先發":8942,">),":8943,">.":8944,"」<":8945,"國中":8946,"實施":8947,"生產":8948,"宜蘭":8949,"明顯":8950,"呼吸":8951,"足跡":8952,"住院":8953,"根本":8954,"北部":8955,"喉嚨痛":8956,"基本":8957,"了一":8958,"體驗":8959,"攻擊":8960,"對象":8961,"聯合":8962,"38":8963,"資源":8964,"日確診":8965,"有關":8966,"達到":8967,"如此":8968,"每天":8969,"指數":8970,"落實":8971,"貼文":8972,"感謝":8973,"提高":8974,"邀請":8975,"改變":8976,"30多歲女性":8977,"3月":8978,"移工":8979,"20多歲女性":8980,"成立":8981,"質疑":8982,")。":8983,"節目":8984,"尤其":8985,"外界":8986,"案7":8987,"的時候":8988,"。▲<":8989,"衛生":8990,"患者":8991,"日來臺工作":8992,"結束":8993,"檢查":8994,"球員":8995,"球隊":8996,"三立":8997,"公投":8998,"機構":8999,"500":9000,"第2":9001,"升級":9002,"的話":9003,"有多":9004,"傳出":9005,"恢復":9006,"交通":9007,"交易":9008,"新聞報導":9009,"之間":9010,"疫情指揮中心":9011,"之外":9012,"隨著":9013,"事故":9014,"第4":9015,"實際":9016,"主管":9017,"至今":9018,"連續":9019,">://":9020,"幾乎":9021,"日進行":9022,"供應":9023,"更是":9024,"追蹤":9025,"我的":9026,"符合":9027,"規模":9028,"電話":9029,"專線":9030,"想要":9031,"有一":9032,"帶來":9033,"評估":9034,"昨天":9035,"年前":9036,"有些":9037,"製造":9038,"區域":9039,"同樣":9040,"產生":9041,"限制":9042,"確實":9043,"法國":9044,"檢疫期滿後":9045,"印尼籍20":9046,"1922":9047,"的大":9048,"武漢":9049,"有效":9050,"連結":9051,"小孩":9052,"女子":9053,"」。<":9054,"餐廳":9055,"傳統":9056,")[":9057,"得到":9058,"標準":9059,"購買":9060,"音樂":9061,">:「":9062,"家長":9063,"時代":9064,"整體":9065,"新的":9066,"期待":9067,"先前":9068,"立即":9069,"責任":9070,"官方":9071,"降低":9072,"全身":9073,"最終":9074,"案1":9075,"來源":9076,"突然":9077,"統計":9078,"三立新聞網":9079,"疑似症狀":9080,"一年":9081,"軍事":9082,"設備":9083,"感覺":9084,"公共":9085,"800":9086,"後續":9087,"留言":9088,"快速":9089,"選舉":9090,"平均":9091,"數位":9092,"訊息":9093,"將在":9094,"生命":9095,"讓人":9096,"感染源":9097,"領域":9098,"我國":9099,"自然":9100,"富特":9101,"管制":9102,"....":9103,"日在":9104,"諾富特":9105,"專案":9106,"必要":9107,"成員":9108,"模式":9109,"網站":9110,"高中":9111,"選手":9112,"召開":9113,"3人":9114,"看更多":9115,"消費者":9116,"畢業":9117,"就能":9118,"辦理":9119,"per9":9120,"作業":9121,"照顧":9122,"以下":9123,"後來":9124,"而是":9125,"當然":9126,"清楚":9127,"南部":9128,"競爭":9129,"肌肉":9130,"員警":9131,"如今":9132,"更新":9133,"%。":9134,"相信":9135,"org8":9136,"危機":9137,"不明":9138,"打造":9139,"境外":9140,"吸引":9141,"39":9142,"拍攝":9143,"抗體":9144,"不得":9145,"找到":9146,"醫院自費":9147,"億美元":9148,"北京":9149,"為何":9150,"附近":9151,"重新":9152,"衝突":9153,"危險":9154,"羅斯":9155,"升溫":9156,"的問題":9157,"支援":9158,"面臨":9159,"各種":9160,"一點":9161,"反應":9162,"最佳":9163,"打擊":9164,"覺異常":9165,"大量":9166,"辦法":9167,"高達":9168,"返台":9169,"一度":9170,"都不":9171,"出國日期":9172,"德國":9173,"出席":9174,"像是":9175,"感到":9176,"搭配":9177,"營收":9178,"狀態":9179,"身分":9180,"33":9181,"變成":9182,"航空":9183,"官員":9184,"也在":9185,"願意":9186,"人口":9187,"確認":9188,"冠軍":9189,"行政":9190,"以為":9191,"1例":9192,"編輯":9193,"一次看":9194,"事實":9195,"成績":9196,"授權":9197,"的情況":9198,"發言人":9199,"課程":9200,"經營":9201,"檢出":9202,"日及":9203,"務必":9204,"在地":9205,"範圍":9206,"各地":9207,"效果":9208,"讓他":9209,"金融":9210,"場所":9211,"業務":9212,"俄羅斯":9213,"順利":9214,"東西":9215,"市府":9216,"來看":9217,"是一":9218,"預期":9219,"機車":9220,"那麼":9221,"主任":9222,"離開":9223,"結果為陰性":9224,"採取":9225,"」[":9226,"到了":9227,"反對":9228,"到底":9229,"多數":9230,"鼓勵":9231,"檢測":9232,"不可":9233,"表達":9234,"老闆":9235,"社交":9236,"委員會":9237,"大眾":9238,"持有登":9239,"態度":9240,"2名":9241,"投手":9242,"應用":9243,"日由":9244,"確保":9245,"晶片":9246,"釐清":9247,"機關":9248,"例如":9249,"科學":9250,"兄弟":9251,"將會":9252,"一同":9253,"也能":9254,"動物":9255,"電視":9256,"呈現":9257,"銀行":9258,"日自":9259,"令人":9260,"電腦":9261,"法律":9262,"./":9263,"儘管":9264,"同意":9265,"他說":9266,"作品":9267,"展開":9268,"」(<":9269,"鼻塞":9270,"建立":9271,"累計":9272,"禁止":9273,"中華":9274,"考量":9275,"證實":9276,"立刻":9277,"取消":9278,"指揮官":9279,"整個":9280,"故事":9281,"傳染":9282,"藝術":9283,"辦公":9284,"勞工":9285,"鏡頭":9286,"國人":9287,"爭議":9288,"一天":9289,"基金":9290,"展現":9291,"案9":9292,"當天":9293,"知名":9294,"傳播":9295,"詢問":9296,"年度":9297,"還要":9298,"痠痛":9299,"88":9300,"班機":9301,"左右":9302,"新北":9303,"告訴":9304,"採用":9305,"拿下":9306,"旅客":9307,"太空":9308,"遭到":9309,"家屬":9310,"來到":9311,"20多歲男性":9312,"疫苗接種":9313,")、":9314,"方向":9315,"300":9316,"先生":9317,"後的":9318,"65":9319,"不足":9320,"兩個":9321,"日返國":9322,"截至":9323,"最多":9324,"結合":9325,"第1":9326,"將於":9327,"電動":9328,"都在":9329,"咖啡":9330,"終於":9331,"運輸":9332,"不滿":9333,"印尼籍":9334,"案12":9335,"這裡":9336,"會考":9337,"戰略":9338,"月底":9339,"威脅":9340,"32":9341,"公尺":9342,"頭痛":9343,"批評":9344,"48":9345,"49":9346,"並不":9347,"法院":9348,"條件":9349,"考生":9350,"存在":9351,"2018":9352,"精神":9353,"每年":9354,"接著":9355,"男童":9356,"營運":9357,"集團":9358,"完整":9359,"不適症狀":9360,"機組員":9361,"影音":9362,"局長":9363,"腹瀉":9364,"解釋":9365,"營業":9366,"然後":9367,"防護":9368,"飲食":9369,"其餘":9370,"操作":9371,"檢疫期滿前採檢":9372,"可能會":9373,"意見":9374,"案件":9375,"loc2":9376,"了嗎":9377,"教師":9378,"性的":9379,"奧運":9380,"變化":9381,"此次":9382,"警戒":9383,"首次":9384,"困難":9385,"的新":9386,"鋒面":9387,"螢幕":9388,"補助":9389,"退休":9390,"任務":9391,"本季":9392,"手術":9393,"董事長":9394,"才會":9395,"遇到":9396,"為什麼":9397,"旅遊史":9398,"結婚":9399,"監視":9400,"首度":9401,"公里":9402,"回家":9403,"曾於":9404,"品質":9405,"基礎":9406,"消防":9407,"暫停":9408,"免費":9409,"即使":9410,"投入":9411,"直到":9412,"武漢肺炎":9413,"教授":9414,"食物":9415,"廠商":9416,"韓國":9417,"為主":9418,"不用":9419,"教學":9420,"下的":9421,"她的":9422,"絕對":9423,"製作":9424,"2月":9425,"屬於":9426,"國外":9427,"父親":9428,"事業":9429,"保障":9430,"能源":9431,"14天":9432,"東京":9433,"更加":9434,"受傷":9435,"的方式":9436,"同學":9437,"延伸":9438,"並於":9439,"竟然":9440,"考試":9441,"流行疫情指揮中心":9442,"似乎":9443,"溝通":9444,"確診者":9445,"55":9446,"父母":9447,"汽車":9448,"做出":9449,"習慣":9450,"提醒您":9451,"也將":9452,"研發":9453,"列為":9454,"水庫":9455,"相關新聞":9456,"血清":9457,"還在":9458,"統一":9459,"具有":9460,"做好":9461,"同住":9462,"他人":9463,"縣市":9464,"地點":9465,"也要":9466,"來越":9467,"在台灣":9468,"相對":9469,"40多歲男性":9470,"姓男子":9471,"程度":9472,"校園":9473,"漫畫":9474,"十分":9475,"和平":9476,"制度":9477,"動作":9478,"迄今":9479,"2例":9480,"營養":9481,"44":9482,"居住":9483,"越來越":9484,"送醫":9485,"上班":9486,"作者":9487,"機制":9488,"速度":9489,"簡單":9490,"1人":9491,"客戶":9492,"承諾":9493,"金額":9494,"不只":9495,"並非":9496,"角色":9497,"歡迎":9498,"回到":9499,"外送":9500,"事情":9501,"證明":9502,"org9":9503,"也讓":9504,"直播":9505,"降雨":9506,"多元":9507,"核酸檢驗陰性報告":9508,"大幅":9509,"人生":9510,"肯定":9511,"持有登機前3日內":9512,"並未":9513,"年齡":9514,"中央流行疫情指揮中心":9515,"妻子":9516,"移入":9517,"中國大陸":9518,"城市":9519,"開心":9520,"入境後至防疫旅館":9521,"清潔":9522,"曾經":9523,"力量":9524,"銷售":9525,"購物":9526,"社群":9527,"紫色":9528,"嘉義":9529,"條例":9530,"程序":9531,"適合":9532,"綜合報導":9533,"6月":9534,"強化":9535,">://./":9536,"原來":9537,"主動告知":9538,"各國":9539,"讀書":9540,"族群":9541,"多歲至":9542,"友人":9543,"原則":9544,"洗手":9545,"成本":9546,"登場":9547,"關心":9548,"考慮":9549,"拒絕":9550,"全部":9551,"利益":9552,"人才":9553,"傷害":9554,"不知道":9555,"工具":9556,"值得":9557,"per10":9558,"公告":9559,"立場":9560,"違反":9561,"46":9562,"陸續出現":9563,"戴上":9564,"受訪":9565,"》,":9566,"一位":9567,"59":9568,"上市":9569,"你的":9570,"收到":9571,"創新":9572,"2年":9573,"中國的":9574,"已有":9575,"收入":9576,"在家":9577,"你們":9578,"自動":9579,"過程中":9580,"氣候":9581,"方法":9582,"執政":9583,"項目":9584,"位置":9585,"改革":9586,"派出":9587,"排除":9588,"名單":9589,"撥打":9590,"酒駕":9591,"內部":9592,"就在":9593,"經理":9594,"離婚":9595,"小心":9596,"無論":9597,"居民":9598,"75":9599,"交流":9600,"個案於":9601,"持有登機前3日內核酸檢驗陰性報告":9602,"基隆":9603,"停止":9604,"緊張":9605,"多次":9606,"凌晨":9607,"新竹":9608,"返臺":9609,"獨立":9610,"隨後":9611,"難以":9612,"股價":9613,"時期":9614,"防疫措施":9615,"幫忙":9616,"有機會":9617,"我們的":9618,"人權":9619,"旅行":9620,"1月":9621,"因素":9622,"民視":9623,"職業":9624,"出的":9625,"日檢疫期滿後":9626,"有的":9627,"40多歲女性":9628,"5大":9629,"這項":9630,"47":9631,"來的":9632,"建設":9633,"修正":9634,"犯罪":9635,"尚未":9636,"導體":9637,"比例":9638,"![":9639,"半導體":9640,"天氣":9641,"抗議":9642,"儘速":9643,"的時間":9644,"突破":9645,"部長":9646,"以前":9647,"男友":9648,"內的":9649,"日接受":9650,"領先":9651,"這間":9652,"逐漸":9653,"兩岸":9654,"園區":9655,"律師":9656,"彰化":9657,"所長":9658,"獲利":9659,"事後":9660,"累積":9661,"資格":9662,"倦怠":9663,"土地":9664,"婚姻":9665,"當中":9666,"今日新聞":9667,"肌肉痠痛":9668,"兒童":9669,"加碼":9670,"冠狀":9671,"一路":9672,"即將":9673,"讓她":9674,"勞動":9675,"小組":9676,"領導":9677,"他也":9678,"1萬":9679,"聲音":9680,"新冠肺炎疫情":9681,"而言":9682,"車輛":9683,"意圖":9684,"真正":9685,"診斷":9686,"日晚間":9687,"日因":9688,"2018年":9689,"3年":9690,"法官":9691,"仍有":9692,"1100":9693,"類似":9694,"重要的":9695,"數量":9696,"超級":9697,"店家":9698,"可能是":9699,"1年":9700,"的小":9701,"高度":9702,"達成":9703,"爭取":9704,"都能":9705,"唯一":9706,"山區":9707,"自我":9708,"血清抗體":9709,"晚上":9710,"境外移入":9711,"即可":9712,"?[":9713,"](<":9714,"大型":9715,"說法":9716,"生涯":9717,"方便":9718,"對話":9719,"下降":9720,"3例":9721,"審查":9722,"認識":9723,"護理":9724,"輕鬆":9725,"第一次":9726,"半年":9727,"不好":9728,"他在":9729,"夫妻":9730,"爸爸":9731,"觀眾":9732,"就要":9733,"不管":9734,"衝刺":9735,"這場":9736,"工業":9737,"都要":9738,"不但":9739,"尋找":9740,"以色":9741,"經常":9742,"保險":9743,"趨勢":9744,"貿易":9745,"觀光":9746,"轉型":9747,"一定要":9748,"花蓮":9749,"公園":9750,"年增":9751,"協議":9752,"就業":9753,"下一":9754,"以色列":9755,"位於":9756,"的地方":9757,"整理包":9758,"核心":9759,"失去":9760,"影像":9761,"測試":9762,"藥物":9763,"就可以":9764,"特殊":9765,"監測":9766,"7例":9767,"發出":9768,"監視器":9769,"出口":9770,"主持":9771,"三立新聞網報導":9772,"更多三立新聞網報導":9773,"互動":9774,"校長":9775,"社交距離":9776,"主委":9777,"反而":9778,"策略":9779,"上漲":9780,"曾在":9781,"當局":9782,"資金":9783,"下去":9784,"依照":9785,"情緒":9786,"初步":9787,"停車":9788,"重視":9789,"菲律賓籍":9790,"目的":9791,"冠狀病毒":9792,"堅持":9793,"參考":9794,"1名":9795,"各科":9796,"即日起":9797,"緬甸":9798,"裡面":9799,"維護":9800,"室內":9801,"萬華":9802,"電信":9803,"」,<":9804,"戴上口罩":9805,"原始":9806,"到場":9807,"通常":9808,"屏東":9809,"衝擊":9810,"5人":9811,"者的":9812,"敲出":9813,"並沒有":9814,"民國":9815,"輕微":9816,"進口":9817,"防疫專線":9818,"安排至":9819,"作用":9820,"5年":9821,"預算":9822,"夥伴":9823,"共識":9824,"利率":9825,"主動通報":9826,"英文":9827,"匡列接觸者":9828,"規範":9829,"。(<":9830,"就算":9831,"恐怕":9832,"公斤":9833,"機率":9834,"生態":9835,"最大的":9836,"」。[":9837,"協會":9838,"創辦":9839,"權益":9840,"是因為":9841,"]【":9842,"周邊":9843,"接種疫苗":9844,"工廠":9845,"疫情升溫":9846,"不錯":9847,"作戰":9848,"74":9849,"藉由":9850,"千萬":9851,"很難":9852,"▲<":9853,"或許":9854,"的心":9855,"賽事":9856,"發電":9857,"台中市":9858,"用餐":9859,"仲介":9860,"加速":9861,"78":9862,"住民":9863,"0800":9864,"79":9865,"進行居家檢疫":9866,"部門":9867,"出境":9868,"放棄":9869,"本土案例":9870,"對手":9871,"演出":9872,"高雄市":9873,"才是":9874,"全力":9875,"老公":9876,"58":9877,"公車":9878,"味覺異常":9879,"的民眾":9880,"好好":9881,"意識":9882,"13日":9883,"球場":9884,"76":9885,"接下來":9886,"000元":9887,"給予":9888,"補充":9889,"嚴格":9890,"說是":9891,"台北報導":9892,"馬上":9893,"住處":9894,"確診個案":9895,"一段":9896,"大樓":9897,"日入境":9898,"」!":9899,"身為":9900,"直呼":9901,"的重要":9902,"入境時無症狀":9903,"主題":9904,"黨部":9905,"戰爭":9906,"醫學":9907,"一出":9908,"公務":9909,"▪<":9910,"運用":9911,"股票":9912,"30秒":9913,"休息":9914,"在這":9915,"延長":9916,"球迷":9917,"嚴峻":9918,"太多":9919,"實驗":9920,"建築":9921,"直言":9922,"所謂":9923,"相同":9924,"社團":9925,"司機":9926,"辦公室":9927,"投票":9928,"變種":9929,"一場":9930,"登記":9931,"最低":9932,"三分":9933,"53":9934,"10月":9935,"創造":9936,"官網":9937,"校方":9938,"這名":9939,"尊重":9940,"探親":9941,"訪問":9942,"不再":9943,"坦言":9944,"意義":9945,"紐約":9946,"優勢":9947,"共有":9948,"集中檢疫":9949,"力的":9950,"56":9951,"在20":9952,"等人":9953,"環保":9954,"動態":9955,"泰國":9956,"發揮":9957,"真實":9958,"檢討":9959,"病房":9960,"廣告":9961,"嫌犯":9962,"必考":9963,"費用":9964,"之下":9965,"同事":9966,"開賣":9967,"他們的":9968,"或者":9969,"理由":9970,"仍然":9971,"青年":9972,"投資人":9973,"優先":9974,"於機場":9975,"的高":9976,"檢出陽性":9977,"社區感染":9978,"還沒":9979,"預估":9980,"都沒有":9981,"54":9982,"丈夫":9983,"送至":9984,"身上":9985,"隨即":9986,"事務":9987,"計劃":9988,"開車":9989,"一切":9990,"日下午":9991,"食品":9992,"偷看":9993,"感情":9994,"有網友":9995,"菲律賓籍20":9996,"主義":9997,"裝置":9998,"設置":9999,"短暫":10000,"也就是":10001,"學者":10002,"重點一次看":10003,"00元":10004,"籃板":10005,"對抗":10006,"大補":10007,"舒壓":10008,"依據":10009,"接獲":10010,"版本":10011,"10年":10012,"64":10013,"會在":10014,"本身":10015,"史上":10016,"延伸閱讀":10017,"地球":10018,"負擔":10019,"診所":10020,"3名":10021,"每個":10022,"一張":10023,"同班機":10024,"9月":10025,"的狀況":10026,"必考重點一次看":10027,"熱議":10028,"百萬":10029,"於是":10030,"68":10031,"美食":10032,"累了嗎":10033,"逮捕":10034,"密切":10035,"在美國":10036,"全新":10037,"崩潰":10038,"的好":10039,"道路":10040,"對外":10041,"概念":10042,"預防":10043,"多少":10044,"有限":10045,"破壞":10046,"返回":10047,"拜登":10048,"日來台":10049,"電池":10050,"per11":10051,"真相":10052,"整合":10053,"貢獻":10054,"大補帖":10055,"這間學校":10056,"基地":10057,"院長":10058,"教育會考":10059,"中部":10060,"7月":10061,"出版":10062,"創作":10063,"各科必考重點一次看":10064,"衝刺大補帖":10065,"偷看漫畫":10066,"加坡":10067,"排名":10068,"毒品":10069,"看這間學校":10070,"有多鬧":10071,"讀書累了嗎":10072,"30秒偷看漫畫":10073,"舒壓一下":10074,"看這間學校有多鬧":10075,"30秒偷看漫畫舒壓一下":10076,"57":10077,"土耳":10078,"以後":10079,"報名":10080,"採檢通報":10081,"一家":10082,"國中教育會考":10083,"創辦人":10084,"醫生":10085,"供電":10086,"年輕人":10087,"土耳其":10088,"充電":10089,"女友":10090,"各項":10091,"還能":10092,"50多歲男性":10093,"是不是":10094,"檢察":10095,"娛樂":10096,"結構":10097,"部隊":10098,"採購":10099,"使用者":10100,"大利":10101,"形象":10102,"全程":10103,"00萬":10104,"有沒有":10105,"職棒":10106,"日與":10107,"參選":10108,"當年":10109,"體溫":10110,"帶動":10111,"支付":10112,"軟體":10113,"國小":10114,"師生":10115,"也沒有":10116,"咳嗽症狀":10117,">,<":10118,"涉及":10119,"神經":10120,"指示":10121,"不住":10122,"據了解":10123,"經歷":10124,"人氣":10125,"人類":10126,"曾有":10127,"遊客":10128,"]「":10129,"8月":10130,"加油":10131,"成果":10132,"起訴":10133,"鳳梨":10134,"接近":10135,"火箭":10136,"▪【":10137,"109":10138,"人在":10139,"單日":10140,"暴力":10141,"新加坡":10142,"很大":10143,"國民":10144,"越南":10145,"52":10146,"聽到":10147,"推特":10148,"商業":10149,"也可以":10150,"在台":10151,"轉載":10152,"預約":10153,"排放":10154,"獅子":10155,"經典":10156,"形成":10157,"因工作":10158,"該名":10159,"40多歲":10160,"高的":10161,"一種":10162,"日上午":10163,"民間":10164,"現象":10165,"人物":10166,"豐富":10167,"帶著":10168,"生物":10169,"愛的":10170,"不敢":10171,"觀點":10172,"86":10173,"太陽":10174,"捷運":10175,"不夠":10176,"看起來":10177,"分區":10178,"001922":10179,"媽祖":10180,"正確":10181,"聯繫":10182,"三振":10183,"黑道":10184,"記憶":10185,"自身":10186,"不論":10187,"病患":10188,"的水":10189,"示意圖":10190,"空氣":10191,"思考":10192,"8年":10193,"一旦":10194,"本來":10195,">[":10196,"知識":10197,"也說":10198,"辛苦":10199,"回饋":10200,"錯誤":10201,"同期":10202,"更有":10203,"設施":10204,"檢疫人員":10205,"96":10206,"很好":10207,"心理":10208,"股市":10209,"飛行":10210,"的機會":10211,"-<":10212,"數字":10213,"道歉":10214,"日常":10215,"不同的":10216,"無人":10217,"病人":10218,"85":10219,"免疫":10220,"未與":10221,"勤洗手":10222,"客人":10223,"防範":10224,"其實是":10225,"家中":10226,"同一":10227,"報稅":10228,"還會":10229,"工作人員":10230,"原始連結":10231,"公民":10232,"特色":10233,"那些":10234,"出賽":10235,"背景":10236,"介紹":10237,"納入":10238,"少年":10239,"當下":10240,"夢想":10241,"國中教育會考衝刺大補帖":10242,"創下":10243,"看見":10244,"不想":10245,"信心":10246,"第四":10247,"日於":10248,"明確":10249,"變得":10250,"黑衣":10251,"110國中教育會考衝刺大補帖":10252,"壘打":10253,"停辦":10254,"電廠":10255,"明年":10256,"實在":10257,"擴散":10258,"認定":10259,"採檢後確診":10260,"延燒":10261,"現代":10262,"表演":10263,"飲料":10264,"現金":10265,"由機場":10266,"別人":10267,"回來":10268,"搭機":10269,"等等":10270,"近年":10271,"搭載":10272,"有點":10273,"運作":10274,"導演":10275,"時的":10276,"民調":10277,"那個":10278,"空軍":10279,"預購":10280,"邊境":10281,"org10":10282,"樂天":10283,"檢疫期間":10284,"4人":10285,"視訊":10286,"受害":10287,"合約":10288,"女星":10289,"典禮":10290,">)、":10291,"修法":10292,"警告":10293,"下跌":10294,"勇士":10295,"許多人":10296,"發病日":10297,"2萬":10298,"協調":10299,"演唱":10300,"但在":10301,"美國總統":10302,"職場":10303,"漁工":10304,"理事":10305,"能量":10306,"中午":10307,"變種病毒":10308,"爆料":10309,"言論":10310,"全身倦怠":10311,"上升":10312,"入住":10313,"安心":10314,"百分":10315,"台灣人":10316,"開幕":10317,"救援":10318,"資產":10319,"3天":10320,"於今日":10321,"規格":10322,"專車":10323,"計算":10324,"本次":10325,"決議":10326,"指控":10327,"秘書":10328,"親自":10329,"新疆":10330,"世代":10331,"同步":10332,"日公布":10333,"實現":10334,"得知":10335,"設定":10336,"關閉":10337,"懷疑":10338,"酒精":10339,"會長":10340,"放在":10341,"日的":10342,"有所":10343,"國防":10344,"均無症狀":10345,"飛彈":10346,"體育":10347,"判決":10348,"工會":10349,"頻道":10350,"確診病例":10351,"法案":10352,"事實上":10353,"並在":10354,"定期":10355,"大概":10356,"法人":10357,"適當":10358,"不知":10359,"大選":10360,"紀念":10361,"南韓":10362,"66":10363,"物資":10364,"12月":10365,"收治":10366,"17年":10367,"遊藝":10368,"出爐":10369,"可能性":10370,"暫時":10371,"局部":10372,"等待":10373,"隨時":10374,"指定":10375,"派出所":10376,"基因":10377,"外出":10378,"薪資":10379,"件事":10380,"細胞":10381,"也很":10382,"海軍":10383,"申辦":10384,"化的":10385,"處理器":10386,"執行長":10387,"氧氣":10388,"電動車":10389,"一開始":10390,"蛋糕":10391,"案112":10392,"案120":10393,"移動":10394,"滿足":10395,"當場":10396,"95":10397,"享受":10398,"相較":10399,"而在":10400,"草案":10401,"的事情":10402,"充滿":10403,"否則":10404,"常見":10405,"這段":10406,"軍方":10407,"跟著":10408,"大眾運輸":10409,"可望":10410,"會員":10411,"同仁":10412,"成交":10413,"用的":10414,"遊藝場":10415,"路上":10416,"為止":10417,"乘客":10418,"海洋":10419,"售價":10420,"幾天":10421,"證據":10422,"關節":10423,"都很":10424,"資料照":10425,"同住家人":10426,"看了":10427,">」,":10428,"全民":10429,"好奇":10430,"議會":10431,"4例":10432,"大約":10433,"藻礁":10434,"加拿":10435,"抵達":10436,"42":10437,"想像":10438,"43":10439,"興趣":10440,"若是":10441,"車禍":10442,"各界":10443,"16年":10444,"雲林":10445,"發燒症狀":10446,"72":10447,"助攻":10448,"宣傳":10449,"關於":10450,"分別為":10451,"提案":10452,"類型":10453,"首先":10454,"權利":10455,"幼兒":10456,"蟑螂":10457,"明星":10458,"理解":10459,"健身":10460,"台商":10461,"解除":10462,"畢竟":10463,"認證":10464,",「<":10465,"容量":10466,"臨時":10467,"便利":10468,"不了":10469,"促進":10470,"4年":10471,"顧問":10472,"外籍":10473,"的前":10474,"人工":10475,"合理":10476,"視為":10477,"人們":10478,"提前":10479,"產能":10480,"50多歲女性":10481,"77":10482,"料理":10483,"每次":10484,"總經理":10485,"出院":10486,"名的":10487,"時刻":10488,"不良":10489,"調查中":10490,"網紅":10491,"89":10492,"喪失":10493,"超商":10494,"即便":10495,"得分":10496,"局上":10497,"團結":10498,"房屋":10499,"11月":10500,"他人接觸":10501,"%、":10502,"股東":10503,"」;":10504,"主張":10505,"組成":10506,"幸福":10507,"通報日":10508,"印尼籍20多歲至":10509,"拿到":10510,"日電":10511,"同行":10512,"嗅覺":10513,"是一個":10514,"身體不適":10515,"黑衣人":10516,"上述":10517,"依舊":10518,"多人":10519,"回國":10520,"未與他人接觸":10521,"加拿大":10522,"尋求":10523,"列車":10524,"強烈":10525,"時表示":10526,"迅速":10527,"人民幣":10528,"日來台工作":10529,"出生":10530,"年代":10531,"美中":10532,"本土病例":10533,"感受":10534,"身材":10535,"陷入":10536,"武器":10537,"每股":10538,"騎士":10539,"具體":10540,"保證":10541,"醫護":10542,"他表示":10543,"2020年1":10544,"日返臺":10545,"宿舍":10546,"政府的":10547,"早上":10548,"這兩":10549,"障礙":10550,"幾年":10551,"判斷":10552,"的國家":10553,"車站":10554,"細節":10555,"」:":10556,"付費":10557,"涉嫌":10558,"日曾":10559,"即時":10560,"特定":10561,"👉<":10562,"圖片":10563,"如有":10564,"房間":10565,"亞裔":10566,"預測":10567,"在於":10568,"這位":10569,"西班":10570,"違規":10571,"創意":10572,"行業":10573,"7年":10574,"希望能":10575,"是否有":10576,"西班牙":10577,"多的":10578,"用於":10579,"老婆":10580,"1分":10581,"帶領":10582,"性別":10583,"於今日確診":10584,"感動":10585,"轉機":10586,"高層":10587,"6例":10588,"原住民":10589,"早餐":10590,"不少人":10591,"詐騙":10592,"無奈":10593,"3萬":10594,"失控":10595,"。※":10596,"資深":10597,"地位":10598,"很快":10599,"大會":10600,"打疫苗":10601,"的部分":10602,"路線":10603,"疑慮":10604,"明天":10605,"總是":10606,"高溫":10607,"依然":10608,"就像":10609,"巴西":10610,"與案":10611,"打開":10612,"第一季":10613,"市民":10614,"蘆洲":10615,"檢察官":10616,"魯閣":10617,"想法":10618,"......":10619,"出門":10620,"懷孕":10621,"回歸":10622,"外國":10623,"論壇":10624,"守護":10625,"血管":10626,"局下":10627,"演員":10628,"也被":10629,"印象":10630,"救護":10631,"大使":10632,"反映":10633,"永續":10634,"違法":10635,"苗栗":10636,"公益":10637,"昨日":10638,"69":10639,"依法":10640,"可見":10641,"指揮中心表示":10642,"23日":10643,"太魯閣":10644,"風運動":10645,"平時":10646,"人確診":10647,"回憶":10648,"在此":10649,"實力":10650,"新冠疫情":10651,"加入風運動":10652,"所得":10653,"延續":10654,"美國的":10655,"的原因":10656,"日至醫院自費":10657,"縣長":10658,"海外":10659,"家的":10660,"應變":10661,"疫調":10662,"大部分":10663,"指標":10664,"多年":10665,"背後":10666,"儘速就醫":10667,"偵辦":10668,"不太":10669,"承認":10670,"電力":10671,"per12":10672,"機器":10673,"時中":10674,"2個":10675,"經費":10676,"120":10677,"有可能":10678,"模擬":10679,"都可以":10680,"開啟":10681,"醫師旅遊史":10682,"列居家隔離":10683,"入境後至防疫旅館檢疫":10684,"服藥":10685,"垃圾":10686,"便宜":10687,"公分":10688,"熱門":10689,"loc3":10690,"41":10691,"快新聞":10692,"藉此":10693,"進而":10694,"4名":10695,"彼此":10696,"也表示":10697,"稍早":10698,"60多歲男性":10699,"幾個":10700,"篩檢":10701,"組合":10702,"消失":10703,"研判":10704,"合法":10705,"的情況下":10706,"全場":10707,"基於":10708,"處分":10709,"全世界":10710,"但他":10711,"少數":10712,"船員":10713,"藝人":10714,"面的":10715,"》<":10716,"案110":10717,"海域":10718,"攜手":10719,"錄取":10720,"仍在":10721,"蛋白":10722,"峰會":10723,"心臟":10724,"惡化":10725,"餐飲":10726,"無疑似症狀":10727,"人力":10728,"立法":10729,"老人":10730,"更多民視":10731,"戶外":10732,"的工作":10733,"角度":10734,"被害":10735,"更多民視新聞報導":10736,"最好":10737,"67":10738,"申報":10739,"緩解":10740,"缺乏":10741,"網路上":10742,"簽署":10743,"評價":10744,"通訊":10745,"站在":10746,"主場":10747,"阿嬤":10748,"12日":10749,"一個月":10750,"保持社交距離":10751,"就讀":10752,"耳機":10753,"婆婆":10754,"看看":10755,"30多歲":10756,"平常":10757,"都沒":10758,"部署":10759,"也沒":10760,"最快":10761,"溫度":10762,"意願":10763,"150":10764,"29日":10765,"保送":10766,"過的":10767,"以外":10768,"增長":10769,"賣場":10770,"從事":10771,"擔憂":10772,"連署":10773,"恐怖":10774,"3個":10775,"本文":10776,"女生":10777,"2分":10778,"具備":10779,"上任":10780,"來了":10781,"廢水":10782,"至美國":10783,"瞬間":10784,"支安打":10785,"推廣":10786,"記得":10787,"尤其是":10788,"不當":10789,"全壘打":10790,"黨內":10791,"婦人":10792,"西亞":10793,"訂單":10794,"兩國":10795,"試圖":10796,"上一":10797,"不見":10798,"就好":10799,"常常":10800,"15年":10801,"北韓":10802,"就連":10803,"半部":10804,"11日":10805,"大小":10806,"損失":10807,"詳細":10808,"稱為":10809,"相機":10810,"茶藝":10811,"強制":10812,"謝謝":10813,"形式":10814,"門市":10815,"專屬":10816,"制裁":10817,"生育":10818,"入境後至集中":10819,"挑選":10820,"等級":10821,"2次":10822,"三大":10823,"檢視":10824,"趕緊":10825,"不及":10826,"可是":10827,"封鎖":10828,"當初":10829,"輪流":10830,"鎖定":10831,"排行":10832,"一口":10833,"南投":10834,"國安":10835,"子女":10836,"我覺得":10837,"競賽":10838,"體系":10839,"不佳":10840,"差異":10841,"身心":10842,"義大利":10843,"很多人":10844,"外送員":10845,"成了":10846,"的影響":10847,"這款":10848,"戰機":10849,"語言":10850,"健保":10851,"出發":10852,"檢方":10853,"眼睛":10854,"專頁":10855,"旗下":10856,"綠色":10857,"而已":10858,"課綱":10859,"全數":10860,"截至目前":10861,"應對":10862,"打算":10863,"下載":10864,"應該是":10865,"志工":10866,"領袖":10867,"分別於":10868,"儀式":10869,"精彩":10870,"使得":10871,"皮膚":10872,"保留":10873,"小姐":10874,"認同":10875,"靠著":10876,"事發":10877,"集會":10878,"也都":10879,"固定":10880,"大多":10881,"遊行":10882,"尺寸":10883,"茶藝館":10884,"嗅覺異常":10885,"刺激":10886,"味全":10887,"造型":10888,"機場攔":10889,"進步":10890,"管道":10891,"徒刑":10892,"疫苗的":10893,"留下":10894,"至醫院自費":10895,"../":10896,"一半":10897,"評論":10898,"的風險":10899,"冠狀病毒疾病":10900,"台東":10901,"玩家":10902,"同時也":10903,"中華民國":10904,"世紀":10905,"的關係":10906,"199":10907,"諾富特飯店":10908,"公社":10909,"複雜":10910,"人潮":10911,"拍照":10912,"足夠":10913,"一人":10914,"顏色":10915,"相比":10916,"英國就學":10917,"過度":10918,"悍將":10919,"臨床":10920,"返家":10921,"觀看":10922,"不如":10923,"設立":10924,"進行檢疫":10925,"天然":10926,"51":10927,"第一時間":10928,"安排就醫採檢並確診":10929,"採檢通報確診":10930,"剛好":10931,"召集":10932,"司法":10933,"2017年":10934,"國內外":10935,"政黨":10936,"現實":10937,"追求":10938,"行程":10939,"白色":10940,"陳時中":10941,"頭殼":10942,"延期":10943,"黨主席":10944,"否認":10945,"無線":10946,"讓你":10947,"看法":10948,"介入":10949,"群聚感染":10950,"並無症狀":10951,"十年":10952,"最好的":10953,"新頭殼":10954,"長的":10955,"理想":10956,"皆為陰性":10957,"87":10958,"實體":10959,"小朋友":10960,"籃球":10961,"農業":10962,"風格":10963,"。《<":10964,"出去":10965,"是要":10966,"黨員":10967,"供應鏈":10968,"傻眼":10969,"諮詢":10970,"荷蘭":10971,"不可能":10972,"業績":10973,"黃金":10974,"監督":10975,"報案":10976,"大規模":10977,"心情":10978,"棒球":10979,"已掌握":10980,"深夜":10981,"金門":10982,"嘗試":10983,"無出國":10984,"5例":10985,"意思":10986,"快樂":10987,"真的很":10988,"的不":10989,"女孩":10990,"飛機":10991,"住院隔離":10992,"午後":10993,"澄清":10994,"表態":10995,"區的":10996,"多個":10997,"學測":10998,"是什麼":10999,"有助":11000,"究竟":11001,"地下":11002,"哪些":11003,"帳號":11004,"慢慢":11005,"超越":11006,"顯然":11007,"及時":11008,"再加上":11009,"好像":11010,"。」[":11011,"14天內":11012,"物品":11013,"長照":11014,"場比賽":11015,"秘書長":11016,"句話":11017,"主辦":11018,"移送":11019,"這也是":11020,"防禦":11021,"兩名":11022,"她說":11023,"最新報導":11024,"疼痛":11025,"水果":11026,"3個月":11027,"吃到":11028,"喉嚨癢":11029,"笑說":11030,"輔導":11031,"翻攝畫面":11032,"點此":11033,"中信":11034,"兩年":11035,"動力":11036,"玻璃":11037,"基層":11038,"並無":11039,"採檢後送至":11040,"情勢":11041,"發動":11042,"記錄":11043,"上網":11044,"現行":11045,"地方政府":11046,"入境時主動告知":11047,"同志":11048,"平衡":11049,"重量":11050,"關懷":11051,"入境無症狀":11052,"26日":11053,"門口":11054,"日起陸續出現":11055,"夜市":11056,"總教練":11057,"的美":11058,"愛情":11059,"房子":11060,"桃園市":11061,"學院":11062,"在中國":11063,"少女":11064,"我是":11065,"種族":11066,"急診":11067,"留意":11068,"騷擾":11069,"合併":11070,"宣導":11071,"擊敗":11072,"近來":11073,"30分":11074,"新冠疫苗":11075,"28日":11076,"貨幣":11077,"org11":11078,"下旬":11079,"文件":11080,"等到":11081,"季後":11082,"」。(":11083,"完美":11084,"規則":11085,"3分":11086,"理念":11087,"三立新聞網提醒您":11088,"好吃":11089,"財務":11090,"2022":11091,"理事長":11092,"5萬":11093,"8例":11094,"上課":11095,"本國籍30多歲男性":11096,"文字":11097,"發射":11098,"重症":11099,"日至1":11100,"2016年":11101,"出局":11102,"團員":11103,"9例":11104,"隊友":11105,"371":11106,"程式":11107,"可愛":11108,"第一個":11109,"斯坦":11110,"防止":11111,"交往":11112,"實聯":11113,"2019冠狀病毒疾病":11114,"博士":11115,"面積":11116,"星期":11117,"試試":11118,"爆出":11119,"答案":11120,"酒店":11121,"不多":11122,"財產":11123,"美方":11124,"能在":11125,"限定":11126,"一致":11127,"不治":11128,"國軍":11129,"店員":11130,"僅有":11131,"兩天":11132,"雇主":11133,"總理":11134,"其中案6":11135,"以往":11136,"永遠":11137,"縣府":11138,"哪裡":11139,"報警":11140,"寫下":11141,"缺水":11142,"黑色":11143,"原始連結更多":11144,"最後一":11145,"刪除":11146,"發起":11147,"粉絲專頁":11148,"之間的":11149,"__":11150,"主角":11151,"前的":11152,"漲幅":11153,"陪伴":11154,"做到":11155,"良好":11156,"63":11157,"出了":11158,"長輩":11159,"房價":11160,"循環":11161,"穿著":11162,"資本":11163,"協商":11164,"並將":11165,"普遍":11166,"正義":11167,"遵守":11168,"肥皂":11169,"移除":11170,"解鎖":11171,"電梯":11172,"實聯制":11173,"終場":11174,"公平":11175,"焦點":11176,"允許":11177,"兩次":11178,"她們":11179,"當地就醫":11180,"國務":11181,"配戴口罩":11182,"日搭乘":11183,"培養":11184,"失分":11185,"獎金":11186,"人體":11187,"埃及":11188,"外野":11189,"再生":11190,"三個":11191,"弱勢":11192,"是有":11193,"顧客":11194,"中職":11195,"執法":11196,"家裡":11197,"十大":11198,"住處居家檢疫":11199,"創新高":11200,"移民":11201,"退場":11202,"他認為":11203,"處於":11204,"主權":11205,"新型":11206,"路口":11207,"重返":11208,"進度":11209,"搭乘大眾運輸":11210,"觀念":11211,"伊朗":11212,"會不會":11213,"西方":11214,"賠償":11215,"逆轉":11216,"疫情影響":11217,"%;":11218,"限電":11219,"發生在":11220,"出一":11221,"日介":11222,"入境日介":11223,"40多歲入境日介":11224,"印尼籍20多歲至40多歲入境日介":11225,"上有":11226,"手段":11227,"曝光後":11228,"宣告":11229,"行銷":11230,"出現疑似症狀":11231,"參賽":11232,"恐慌":11233,"提及":11234,"400":11235,"將近":11236,"搶救":11237,"聯絡":11238,"勝利":11239,"談判":11240,"看好":11241,"警局":11242,"也不會":11243,"現身":11244,"安排就醫採檢確診":11245,"指導":11246,"限量":11247,"過來":11248,"充分":11249,"獨自":11250,"1000":11251,"眾多":11252,"紅色":11253,"連勝":11254,"不起":11255,"克蘭":11256,"對台灣":11257,"國家的":11258,"真的是":11259,"新冠病毒":11260,"無匡列接觸者":11261,"認真":11262,"印度疫情":11263,"也可":11264,"廣播":11265,"效率":11266,"歧視":11267,"無不適症狀":11268,"罕見":11269,"信用":11270,"接到":11271,"的照片":11272,"14年":11273,"航空公司":11274,"大停電":11275,"好友":11276,"宗教":11277,"微博":11278,"日期":11279,"約新台幣":11280,"5日":11281,"用水":11282,"出面":11283,"家族":11284,"農民":11285,"生的":11286,"日出現發燒":11287,"癌症":11288,"長達":11289,"是由":11290,"變異":11291,"破口":11292,"近年來":11293,"台南市":11294,"廁所":11295,"所需":11296,"2000":11297,"相關的":11298,"將持續":11299,"程車":11300,"機師染疫":11301,"寵物":11302,"公費":11303,"無力":11304,"紛紛留言":11305,"出貨":11306,"的生活":11307,"販售":11308,"湖人":11309,"質詢":11310,"透明":11311,"是個":11312,"2日":11313,"很有":11314,"阿富":11315,"以上的":11316,"從小":11317,"深厚":11318,"計程車":11319,"回答":11320,"大批":11321,"核四":11322,"並不是":11323,"重啟":11324,"上海":11325,"做法":11326,"心的":11327,"抱怨":11328,"包裝":11329,"公司安排":11330,"專訪":11331,"阿富汗":11332,"84":11333,"名字":11334,"失敗":11335,"活動史":11336,"印尼籍20多歲至40多歲入境日介於1":11337,"外資":11338,"此事":11339,"延後":11340,"賽季":11341,"星座":11342,"一個人":11343,"接觸史":11344,"年紀":11345,"隔天":11346,"上路":11347,"中美":11348,"平安":11349,"若有":11350,"做的":11351,"植物":11352,"逐步":11353,"當事":11354,"12紫色":11355,"刊登":11356,"嘔吐":11357,"身邊":11358,"鋼鐵":11359,"61":11360,"一間":11361,"女神":11362,"法規":11363,"只會":11364,"意味":11365,"痛批":11366,"雜誌":11367,"台北市長":11368,"形容":11369,"海上":11370,"連假":11371,"口味":11372,"提告":11373,"不願":11374,"我想":11375,"日發病":11376,"7日":11377,"按摩":11378,"請先":11379,"馬來":11380,"一定會":11381,"83":11382,"受影響":11383,"本土個案":11384,"由機場檢疫人員":11385,"戰力":11386,"掀起":11387,"收在":11388,"有痰":11389,"開罰":11390,"分為":11391,"往往":11392,"滿滿":11393,"財報":11394,"護理師":11395,"上場":11396,"不在":11397,"大多數":11398,"試驗":11399,"連接":11400,"被問":11401,"話題":11402,"超前":11403,"獨家":11404,"短缺":11405,"虛擬":11406,"免付費":11407,"出入":11408,"上下":11409,"座位":11410,"衣服":11411,"安排就醫採檢":11412,"60多歲女性":11413,"告知醫師旅遊史":11414,"已在":11415,"福利":11416,"開會":11417,"練習":11418,"食材":11419,"有著":11420,"優質":11421,"執勤":11422,"每月":11423,"決心":11424,"按照":11425,"你想":11426,"可惜":11427,"獲報":11428,"全聯":11429,"現任":11430,"與中國":11431,"卻是":11432,"航班":11433,"保育":11434,"替代":11435,"歌手":11436,"照護":11437,")。●":11438,"原文":11439,"困擾":11440,"加碼送":11441,"兩大":11442,"新功能":11443,"等於":11444,"看來":11445,"寶寶":11446,"陣雨":11447,"之際":11448,"毫無":11449,"的關鍵":11450,"眾人":11451,"2天":11452,"本國籍20多歲女性":11453,"效能":11454,"驚人":11455,"去年同期":11456,"封面":11457,"快訊":11458,"忍不住":11459,"趕快":11460,"難道":11461,"性能":11462,"不一樣":11463,"回報":11464,"婦女":11465,"太魯閣號":11466,"筆電":11467,"送驗":11468,"富邦":11469,"每個人":11470,"讀者":11471,"各大":11472,"定位":11473,"聯邦":11474,"所幸":11475,"警報":11476,"錄影":11477,"培育":11478,"引擎":11479,"早已":11480,"關切":11481,"日出現咳嗽":11482,"居家檢疫期間":11483,"62":11484,"遶境":11485,"部落":11486,"第5":11487,"更好":11488,"的目標":11489,"印尼籍20多歲男性":11490,">)<":11491,"分析師":11492,"對台":11493,"盤中":11494,"航運":11495,"純益":11496,"適用":11497,"撥打防疫專線":11498,"去過":11499,"總計":11500,"91":11501,"]▲":11502,"又有":11503,"per13":11504,"低於":11505,"取代":11506,"中間":11507,"力挺":11508,"嗅味覺異常":11509,"正面":11510,"水準":11511,"進場":11512,"信任":11513,"味道":11514,"長期居住":11515,"住宅":11516,"就被":11517,"門檻":11518,"上傳":11519,"》、":11520,"肇事":11521,"名為":11522,"提早":11523,"改為":11524,"防治":11525,"喊話":11526,"攝取":11527,"遺體":11528,"免付費防疫專線":11529,"多名":11530,"數學":11531,"),<":11532,"例行":11533,"面板":11534,"19陽性":11535,"落後":11536,"不容易":11537,"共計":11538,"在一起":11539,"成分":11540,"查詢":11541,"熱烈":11542,"只好":11543,"的外":11544,"付出":11545,"深入":11546,"5大電信":11547,"肥皂勤洗手":11548,"在今年":11549,"個案1":11550,"若身體不適":11551,"重申":11552,"強勁":11553,"無須":11554,"前次":11555,"展示":11556,"親友":11557,"呼吸道":11558,"二軍":11559,"熱情":11560,"中信兄弟":11561,"4萬":11562,"面試":11563,"!」<":11564,"前後":11565,"專利":11566,"捐贈":11567,"早期":11568,"權力":11569,"6年":11570,"烏克蘭":11571,"也有人":11572,"應該要":11573,"互相":11574,"地震":11575,"輝瑞":11576,"使用的":11577,"喝酒":11578,"開打":11579,"群聚案":11580,"壓力大":11581,"五月":11582,"味覺":11583,"不少網友":11584,"近期無出國":11585,"不然":11586,"不建議":11587,"首季":11588,"百貨":11589,"請撥打":11590,"目前已":11591,"打破":11592,"柔道":11593,"薪水":11594,"時間為":11595,"電競":11596,"一片":11597,"舞台":11598,"這起":11599,"代理":11600,"採訪":11601,"日來臺":11602,"醫院就醫":11603,"過敏":11604,"進行採檢":11605,"務必告知醫師旅遊史":11606,"申辦優惠":11607,"千元":11608,"梅雨":11609,"水情":11610,"由仲介":11611,"71":11612,"住宿":11613,"過往":11614,"皆為":11615,"罹患":11616,"一波":11617,"今晚":11618,"月底開賣":11619,"住所":11620,"西哥":11621,"高級":11622,"推出的":11623,"獅子會":11624,"期盼":11625,"裝備":11626,"申辦優惠加碼送":11627,"血栓":11628,"卻被":11629,"指考":11630,"則表示":11631,"墨西哥":11632,"點名":11633,"5大電信預購":11634,"演習":11635,"賽後":11636,"發文表示":11637,"他是":11638,"加州":11639,"女網友":11640,"為例":11641,"盡快":11642,"單純":11643,"子的":11644,"的機率":11645,"出現發燒":11646,"決賽":11647,"入圍":11648,"血壓":11649,"中旬":11650,"日表示":11651,"街頭":11652,"施打疫苗":11653,"就送":11654,"施工":11655,"禮物":11656,"嚴重的":11657,"入黨":11658,"糾紛":11659,"內行":11660,"訴求":11661,"電商":11662,"並戴上口罩":11663,"生日":11664,"量測":11665,"風暴":11666,"們的":11667,"請主動通報":11668,"檢驗結果":11669,"回國若身體不適":11670,"14天內出現疑似症狀":11671,"請先撥打防疫專線":11672,"回國若身體不適請主動通報":11673,"14天內出現疑似症狀請先撥打防疫專線":11674,"被害人":11675,"並戴上口罩儘速就醫":11676,"兩位":11677,"成年":11678,"主要是":11679,"全案":11680,"封城":11681,"個案接觸者":11682,"實習":11683,"本人":11684,"馬來西亞":11685,"徹底":11686,"新品":11687,"攜帶":11688,"短短":11689,"折起":11690,"短期":11691,"81":11692,"小米":11693,"平等":11694,"擊出":11695,"聊天":11696,"排行榜":11697,"的態度":11698,"今天表示":11699,"12紫色月底開賣":11700,"轎車":11701,"就不":11702,"發行":11703,"分局":11704,"另有":11705,"季後賽":11706,">!":11707,">)。":11708,"還是要":11709,"」(":11710,"候選":11711,"一邊":11712,"協定":11713,"罷免":11714,"防範新冠肺炎":11715,"開季":11716,"民族":11717,"監控":11718,"一代":11719,"軍人":11720,"一看":11721,"中和":11722,"反彈":11723,"扮演":11724,"正是":11725,"表明":11726,"還沒有":11727,"高於":11728,"激烈":11729,"外長":11730,"時尚":11731,"路邊":11732,"7人":11733,"旗艦":11734,"釋出":11735,"均為":11736,"慶祝":11737,"的台灣":11738,"東京奧運":11739,"助理":11740,"的行為":11741,"美日":11742,"始終":11743,"已經有":11744,"受惠":11745,"打點":11746,"當日":11747,"本週":11748,"步驟":11749,"現有":11750,"中文":11751,"分配":11752,"危害":11753,"羅東":11754,"警覺":11755,"優秀":11756,"演唱會":11757,"保養":11758,"先進":11759,"而非":11760,"害怕":11761,"個性":11762,"友善":11763,"談到":11764,"都被":11765,"當前":11766,"24小時":11767,"祭出":11768,"美國工作":11769,">-)":11770,"三年":11771,"不動":11772,"估計":11773,"放寬":11774,"裡的":11775,"92":11776,"》(<":11777,"只剩":11778,"在外":11779,"差距":11780,"匯流":11781,"盡量":11782,"體重":11783,"清晨":11784,"聯賽":11785,"許可":11786,"做了":11787,"慢性":11788,"集中檢疫所":11789,"攻下":11790,"一份":11791,"上週":11792,"也曾":11793,"能否":11794,"該公司":11795,"週刊":11796,"里長":11797,"感染源不明":11798,"舒適":11799,"貼出":11800,"防衛":11801,"30日":11802,"淵源":11803,"住家":11804,"查看":11805,"佩戴口罩":11806,"森林":11807,"專題":11808,"第1季":11809,"東森":11810,"點多":11811,"疫情警戒":11812,"1個":11813,">。<":11814,"人以上":11815,"大雨":11816,"旁邊":11817,"主管機關":11818,"因檢出陽性":11819,"故障":11820,"文學":11821,"選項":11822,"時許":11823,"的支持":11824,"興建":11825,"」。▲":11826,"菲律賓籍20多歲男性":11827,"對中國":11828,"或無法":11829,"期間並無症狀":11830,"4個":11831,"你這樣":11832,"的表現":11833,"上周":11834,"更為":11835,"檢疫期滿前採檢並確診":11836,"境內":11837,"粉專":11838,")、<":11839,"大戰":11840,"葡萄":11841,"長者":11842,"另一個":11843,"一名網友":11844,"中方":11845,"捷克":11846,"喜愛":11847,"高齡":11848,"20年":11849,"彈性":11850,"會談":11851,"期徒刑":11852,"中南部":11853,"有望":11854,"祝福":11855,"管制措施":11856,"97":11857,"人為":11858,"場域":11859,"較為":11860,"後確診":11861,"樂觀":11862,"樣的":11863,"4日":11864,"拿出":11865,"敏感":11866,"5000":11867,"中有":11868,"服員":11869,"注射":11870,"睡眠":11871,"瞭解":11872,"驚見":11873,"的朋友":11874,"108":11875,"遭遇":11876,"的可能性":11877,"雲端":11878,"主持人":11879,"6人":11880,"旅宿":11881,"浪費":11882,"皆無症狀":11883,"自行車":11884,"她也":11885,"讓民眾":11886,"女童":11887,"帳戶":11888,"!「":11889,"下車":11890,"外媒":11891,"org12":11892,"下雨":11893,"仔細":11894,"精準":11895,"98":11896,":「<":11897,"前次自":11898,"應使用":11899,"10萬":11900,"不幸":11901,"出動":11902,"坐在":11903,"天宮":11904,"有趣":11905,"此時":11906,"但也":11907,"她在":11908,"介於":11909,"加劇":11910,"流程":11911,"?」、「":11912,"才發現":11913,"13年":11914,"局勢":11915,"變遷":11916,"新北市長":11917,"先發投手":11918,"上訴":11919,"作法":11920,"紅燈":11921,"送到":11922,"智能":11923,"車上":11924,"幸運":11925,"遠距":11926,"最強":11927,"一大":11928,"後於":11929,"熟悉":11930,"82":11931,"材料":11932,"失誤":11933,"委託":11934,"這件事":11935,"特別是":11936,"對應":11937,"脂肪":11938,"英語":11939,"隊伍":11940,"第一線":11941,"面上":11942,"日經":11943,"生意":11944,"秩序":11945,"飲酒":11946,"」?":11947,"條款":11948,"稅後":11949,"隊長":11950,"入境後至住處居家檢疫":11951,"務必戴上口罩":11952,"保持社交距離時":11953,"天的":11954,"日子":11955,"標示":11956,"的主":11957,"自行服藥":11958,"偏愛":11959,"教官":11960,"會中":11961,"搭乘大眾運輸或無法":11962,"應使用肥皂勤洗手":11963,"搭乘大眾運輸或無法保持社交距離時":11964,"合照":11965,"排隊":11966,"有利":11967,"材質":11968,"決策":11969,"百年":11970,"這就是":11971,"化學":11972,"度的":11973,"空中":11974,"還說":11975,"長時間":11976,"就是要":11977,"前總統":11978,"歲以上":11979,"的學生":11980,"進香":11981,"110050":11982,"泡麵":11983,"失智":11984,"日再次":11985,"案3":11986,"檔案":11987,"民意":11988,"較高":11989,"天使":11990,"這波":11991,"三分球":11992,"但因":11993,"滿意":11994,"逃逸":11995,"】<":11996,"官兵":11997,"得以":11998,"晶圓":11999,"基本上":12000,"許多網友":12001,"5名":12002,"多種":12003,"車主":12004,"因工作需要":12005,"泡泡":12006,"還可以":12007,"打完":12008,"稽查":12009,"女優":12010,"殺人":12011,"做為":12012,"致力":12013,"把握":12014,"未經":12015,"壓制":12016,"大廠":12017,"聚會":12018,"名額":12019,"年底":12020,"​​​​":12021,"奇摩":12022,"號碼":12023,"數十":12024,"火力":12025,"94":12026,"進去":12027,"的疫苗":12028,"商店":12029,"腫瘤":12030,"讓我":12031,"鄰居":12032,"龍頭":12033,"退出":12034,"麻煩":12035,"停車場":12036,"百分點":12037,"上面":12038,"感受到":12039,"12年":12040,"劑疫苗":12041,"戀愛":12042,"有時":12043,"非法":12044,"算是":12045,"出軌":12046,"媒體報導":12047,"幼兒園":12048,"各自":12049,"10日":12050,"地區的":12051,"帶你":12052,"勢力":12053,"住戶":12054,"作家":12055,"成的":12056,"——":12057,"回收":12058,"我就":12059,"資安":12060,"醫護人員":12061,"傳媒":12062,"只見":12063,"在疫情":12064,"象徵":12065,"太太":12066,"跌幅":12067,"16日":12068,"不出":12069,"合計":12070,"第五":12071,"聲稱":12072,"跡象":12073,"董事會":12074,"舒服":12075,"預定":12076,"何時":12077,"創業":12078,"核酸檢測":12079,"不易":12080,"仍是":12081,"外推":12082,"有局部":12083,"私人":12084,"第三級":12085,"無論是":12086,"支出":12087,"爆炸":12088,"糖尿":12089,"財經":12090,"不久":12091,"之中":12092,"認知":12093,"吃飯":12094,"清真":12095,"美股":12096,"25日":12097,"中時":12098,"現在的":12099,"戴口罩解鎖":12100,"有了":12101,"潛艦":12102,"一輛":12103,"未能":12104,"而不是":12105,"辨識":12106,"救護車":12107,"比特":12108,"升高":12109,"工人":12110,"有症狀":12111,"入境迄今":12112,"報到":12113,"室外":12114,"30年":12115,"快更新":12116,"即日起至":12117,"不對":12118,"再抽":12119,"原先":12120,"快試試":12121,"為此":12122,"尋找什麼":12123,"你想用":12124,"不需要":12125,"推5大":12126,"有什麼":12127,"污染":12128,"選民":12129,"5推5大":12130,"科醫師":12131,"自家":12132,"今天在":12133,"追蹤尋找什麼":12134,"近期無出國史":12135,"不建議你這樣":12136,"快試試戴口罩解鎖":12137,"5推5大新功能":12138,"不建議你這樣用":12139,"感冒":12140,"東部":12141,"菲律賓工作":12142,"半場":12143,"?」<":12144,"基金會":12145,"600":12146,"但這":12147,"保存":12148,"高階":12149,"孩子的":12150,"負責人":12151,"情報":12152,"自行就醫":12153,"推薦影音":12154,"不應":12155,"修復":12156,"它的":12157,"屆時":12158,"捍衛":12159,"追查":12160,"沒辦法":12161,"規畫":12162,"一旁":12163,"受困":12164,"次三振":12165,"的就是":12166,"賺錢":12167,"住在":12168,"最重要的":12169,"用品":12170,"16例":12171,"深厚淵源":12172,"小學":12173,"部會":12174,"頻率":12175,"小的":12176,"東半部":12177,"相互":12178,"間的":12179,"乾淨":12180,"憂心":12181,"長大":12182,"偏愛色":12183,"深厚淵源曝光":12184,"萊豬":12185,"糖尿病":12186,"三星":12187,"宣稱":12188,"接連":12189,"的防疫":12190,"震盪":12191,"營養師":12192,"伴侶":12193,"松山":12194,"黨籍":12195,"假日":12196,"出手":12197,"時機":12198,"發表會":12199,"6日":12200,"電影票":12201,"亮眼":12202,"旅遊團":12203,"一口氣":12204,"召集人":12205,"沒人":12206,"義務":12207,"日出現喉嚨":12208,"限時":12209,"大家都":12210,"代表處":12211,"但仍":12212,"狗狗":12213,"的說法":12214,"阻止":12215,">▪":12216,"動員":12217,"國道":12218,"留在":12219,"一條":12220,"了一個":12221,"用來":12222,"7天":12223,"事項":12224,"憲法":12225,"身份":12226,"公布的":12227,"73":12228,"。【":12229,"北港":12230,"培訓":12231,"》、《":12232,"西蘭":12233,"50萬":12234,">@":12235,"司令":12236,"待釐清":12237,"恐嚇":12238,"英雄":12239,"要有":12240,"歷史新高":12241,"如同":12242,"是為了":12243,"某些":12244,"瑞士":12245,"罹難":12246,"分別是":12247,"所謂的":12248,"三接":12249,"坦承":12250,"還原":12251,"不必":12252,"刑事":12253,"居然":12254,"譴責":12255,"軌道":12256,"召開記者會":12257,"信用卡":12258,"同性":12259,"將是":12260,"承擔":12261,"抗疫":12262,"職務":12263,"3000":12264,"8日":12265,"副作用":12266,"對戰":12267,"深刻":12268,"工作的":12269,"候選人":12270,">+":12271,"度過":12272,"空服員":12273,"弟弟":12274,"的確":12275,"清真寺":12276,"及其":12277,"景點":12278,"可說是":12279,"二壘":12280,"企圖":12281,"因而":12282,"核廢水":12283,"海巡":12284,"指揮中心指出":12285,"口感":12286,"定義":12287,"會被":12288,"死者":12289,"開設":12290,"一事":12291,"分數":12292,"取自":12293,"嚴選":12294,"房務":12295,"有許多":12296,"打者":12297,"探索":12298,"歷經":12299,"燃煤":12300,"直升":12301,"院所":12302,"風波":12303,"出現在":12304,"球團":12305,"起火":12306,"重建":12307,"黨團":12308,"2015年":12309,"圖書":12310,"結束後":12311,"實際上":12312,"當事人":12313,"是以":12314,"停課":12315,"期望":12316,"漂亮":12317,"日進行檢疫期滿前採檢":12318,"已於":12319,"業界":12320,"9日":12321,"桃猿":12322,"高壓":12323,"生肖":12324,"受害者":12325,"好幾":12326,"網友們":12327,"商務":12328,"分手":12329,"前進":12330,"多久":12331,"杜拜":12332,"翻譯":12333,"處長":12334,"22日":12335,"日自印尼":12336,"通報日3":12337,"因檢出陽性並確診":12338,"哪個":12339,"的東西":12340,"還不":12341,"上限":12342,"下滑":12343,"刻意":12344,"營造":12345,"其次":12346,"北海":12347,"喉嚨痛症狀":12348,"犧牲":12349,"獨特":12350,"轉移":12351,"首都":12352,"命中":12353,"復甦":12354,"最重要":12355,"模糊":12356,"籍30多歲男性":12357,"利亞":12358,"房地":12359,"無關":12360,"走向":12361,"國際社會":12362,"貼文一出":12363,"落在":12364,"夫婦":12365,"男女":12366,"示威":12367,"診所就醫":12368,"大生":12369,"後症狀":12370,"氧化":12371,"當作":12372,"視察":12373,"per14":12374,"味全龍":12375,"搜索":12376,"氣象":12377,"紓困":12378,"防守":12379,"共享":12380,"考場":12381,"讓大家":12382,"研議":12383,"行經":12384,"國內新增":12385,"不只是":12386,"進駐":12387,"塑膠":12388,"水量":12389,"禮拜":12390,"證券":12391,"大麻":12392,"引來":12393,"此舉":12394,"首相":12395,"所有的":12396,"也因此":12397,"引述":12398,"路段":12399,"入境時無不適症狀":12400,"內湖":12401,"食用":12402,"以免":12403,"流鼻水及":12404,"一週":12405,"的需求":12406,"我要":12407,"約有":12408,"11年":12409,"其他人":12410,"各式":12411,"05":12412,"經紀":12413,"14日":12414,"到的":12415,"南非":12416,"成就":12417,"服用":12418,"一項":12419,"妹妹":12420,"演說":12421,"為本國籍":12422,"商機":12423,"太大":12424,"實質":12425,"新人":12426,"這邊":12427,"哥哥":12428,"廣場":12429,"的感覺":12430,"還好":12431,"研究所":12432,"婚禮":12433,"都市":12434,"體壇":12435,"儲存":12436,"犯案":12437,"學年度":12438,"既然":12439,"華人":12440,"見面":12441,"日接受檢疫期滿前採檢":12442,"搜尋":12443,"門票":12444,"才有":12445,"政權":12446,"隱私":12447,"專車至醫院自費":12448,"上前":12449,"後再":12450,"白天":12451,"讓台灣":12452,"轉換":12453,"採檢送驗":12454,"更多的":12455,"單一":12456,"物質":12457,"送往":12458,"通路":12459,"」、「<":12460,"適當防護":12461,"不排除":12462,"填就送":12463,"實測":12464,"早就":12465,"的活動":12466,"與台灣":12467,"阿公":12468,"退休壓力大":12469,"再抽電影票":12470,"退休壓力大調查":12471,"://":12472,"不受":12473,"回覆":12474,"對決":12475,"更好的":12476,"。《":12477,"地說":12478,"外觀":12479,"國家安全":12480,"中壢":12481,"提名":12482,"機械":12483,"27日":12484,"很大的":12485,"教室":12486,"案60":12487,"案70":12488,"案34":12489,"結帳":12490,"網絡":12491,"部份":12492,"疫情監測":12493,"公司的":12494,"國務卿":12495,"便當":12496,"架構":12497,"爸媽":12498,"秘密":12499,"總裁":12500,"再增":12501,"因有":12502,"藍色":12503,"讓他們":12504,"國的":12505,"後方":12506,"我也":12507,"打電話":12508,"新生":12509,"本周":12510,"美麗":12511,"2021退休壓力大調查":12512,"8萬":12513,"戰鬥":12514,"智庫":12515,"與會":12516,"授權轉載":12517,"登上":12518,"頭部":12519,"現階段":12520,"痛苦":12521,"記者會上":12522,">;":12523,"仇恨":12524,"但卻":12525,"建置":12526,"輔助":12527,"通膨":12528,"日本政府":12529,"支持台灣":12530,"下令":12531,"等地":12532,"一隻":12533,"事態":12534,"好手":12535,"聯手":12536,"場景":12537,"多了":12538,"支持者":12539,"全體":12540,"看著":12541,"配置":12542,"1次":12543,"女王":12544,"訂閱":12545,"題目":12546,"在全球":12547,"火星":12548,"罪嫌":12549,"因應新冠肺炎疫情":12550,"之亂":12551,"人家":12552,"市值":12553,"吸收":12554,"是台灣":12555,"無限":12556,"版權":12557,"93":12558,"下殺":12559,"戰績":12560,"繳出":12561,"考驗":12562,"寫道":12563,"廚房":12564,"被迫":12565,"路人":12566,"今天下午":12567,">/<":12568,"制定":12569,"每人":12570,"盟友":12571,"說話":12572,"財政":12573,"車的":12574,"2020年1月":12575,"點此看更多":12576,"入學":12577,"普通":12578,"當沖":12579,"公頃":12580,"詐欺":12581,"額外":12582,"對比":12583,"球星":12584,"不停":12585,"配備":12586,"防疫升級":12587,"公眾":12588,"測驗":12589,"興奮":12590,"鏡週刊":12591,"15人":12592,"列入":12593,"啟用":12594,"深度":12595,"視覺":12596,"親子":12597,"訴訟":12598,"陸軍":12599,"2014年":12600,"初期":12601,"型態":12602,"實名":12603,"發聲":12604,"第6":12605,"給我":12606,"故無匡列接觸者":12607,"新莊":12608,"衛生單位":12609,"不該":12610,"重挫":12611,"比特幣":12612,"國產":12613,"帶回":12614,"找出":12615,"時常":12616,"檢舉":12617,"說的":12618,"演藝":12619,"級的":12620,"觸控":12621,"日自菲律賓":12622,"安排採檢後送至":12623,"條文":12624,"男人":12625,"血糖":12626,"中華職棒":12627,"成效":12628,"昨晚":12629,"部位":12630,"公所":12631,"餐點":12632,"在場":12633,"輸入":12634,"19人":12635,"不管是":12636,"修改":12637,"忘記":12638,"熱量":12639,"與邊境":12640,"並以":12641,"出售":12642,"各位":12643,"集結":12644,"案1203":12645,"原料":12646,"未滿":12647,"遺憾":12648,"青少年":12649,"loc4":12650,"15日":12651,"造成的":12652,"新鮮":12653,"賽前":12654,"金屬":12655,"到現在":12656,"美味":12657,"不小心":12658,"困境":12659,"施壓":12660,"有很多":12661,"衛星":12662,"防禦率":12663,"在去年":12664,"解析":12665,"雙北":12666,"雞蛋":12667,"不慎":12668,"公路":12669,"成熟":12670,"氣氛":12671,"看過":12672,"30萬":12673,"★★":12674,"上演":12675,"暴增":12676,"跟我":12677,"高鐵":12678,"6萬":12679,"擴張":12680,"貨機":12681,"找不到":12682,"聚集":12683,"通通":12684,"難度":12685,"嬰兒":12686,"巨大":12687,"撞上":12688,"查獲":12689,"知情":12690,"級分":12691,"肚子":12692,"製程":12693,"偏鄉":12694,"宣佈":12695,"開除":12696,"大阪":12697,"有意":12698,"比起":12699,"綠營":12700,"進攻":12701,"闖入":12702,"民生":12703,"的手":12704,"主播":12705,"與其他":12706,"目前的":12707,"也有網友":12708,"出來的":12709,"另一方面":12710,"太空人":12711,"廣泛":12712,"很高":12713,"到案":12714,"從未":12715,"抗爭":12716,"次數":12717,"當選":12718,"類股":12719,"是否會":12720,"子宮":12721,"批准":12722,"被告":12723,"腹瀉等症狀":12724,"受訪時":12725,"氣候變遷":12726,"下班":12727,"完工":12728,"小型":12729,"比利":12730,"的她":12731,"5元":12732,"在內":12733,"投書":12734,"頻繁":12735,"急救":12736,"故意":12737,"貸款":12738,"麵包":12739,"01":12740,"投球":12741,"集體":12742,"過了":12743,"電子股":12744,"疫情監測與邊境":12745,"疫情監測與邊境管制措施":12746,"大漲":12747,"紐西蘭":12748,"20萬":12749,"學童":12750,"的政治":12751,"高速":12752,"領導人":12753,"下週":12754,"則有":12755,"演練":12756,"牛肉":12757,"現況":12758,"開出":12759,"瘋狂":12760,"誇張":12761,"掌握更多":12762,"2點":12763,"債務":12764,"兩種":12765,"專輯":12766,"自助":12767,"直升機":12768,"之處":12769,"午餐":12770,"採檢結果為陰性":12771,"』,":12772,"二十":12773,"國會":12774,"捐款":12775,"這類":12776,">)[":12777,"身分證":12778,"學術":12779,"會是":12780,"調閱":12781,"招生":12782,"登山":12783,"貨車":12784,"出境時間為":12785,"傳遞":12786,"專注":12787,"看出":12788,"要在":12789,"霸凌":12790,"停機":12791,"光是":12792,"副總統":12793,"開盤":12794,"一對":12795,"自治":12796,"識別":12797,"金曲":12798,"3成":12799,"三重":12800,"愛心":12801,"核准":12802,"款式":12803,"清晰":12804,"投出":12805,"顯著":12806,"揭露":12807,"身亡":12808,"出血":12809,"3次":12810,"溫暖":12811,"玩笑":12812,"風景":12813,"加入風運動粉絲專頁":12814,"國內外體壇":12815,"帶你掌握更多":12816,"國內外體壇動態":12817,"帶你掌握更多國內外體壇動態":12818,"單身":12819,"失蹤":12820,"技巧":12821,"攻勢":12822,"機能":12823,",(":12824,"多位":12825,"強勢":12826,"效應":12827,"更大":12828,"獎勵":12829,"案1120":12830,"不容":12831,"布局":12832,"讓我們":12833,"代謝":12834,"模樣":12835,"鄰近":12836,"出國日期為":12837,"人死亡":12838,"來愈":12839,"全家":12840,"第二級":12841,"帶來的":12842,"印尼籍20多歲男性漁工":12843,"和其他":12844,"日後":12845,">&":12846,"家電":12847,"聚焦":12848,"陪同":12849,"5天":12850,"這份":12851,"20日":12852,"21日":12853,"群聚事件":12854,"在臉書社團":12855,"3大":12856,"的能力":12857,"13例":12858,"工程師":12859,"多項":12860,"審議":12861,"愈來愈":12862,"澎湖":12863,"蔓延":12864,"連線":12865,"列自主健康管理":12866,"尷尬":12867,"負面":12868,"飾演":12869,"菲律賓籍20多歲女性":12870,"傷口":12871,"甜點":12872,"運勢":12873,"就可":12874,"物理":12875,"110年":12876,"不代表":12877,"洛杉":12878,"進展":12879,"期滿前":12880,"元的":12881,"車道":12882,"酒吧":12883,"也許":12884,"明明":12885,"有一個":12886,"警員":12887,"傷亡":12888,"正妹":12889,"火警":12890,"迎接":12891,"打擊率":12892,"交給":12893,"則說":12894,"惡意":12895,"時30分":12896,"火車":12897,"的那":12898,"虧損":12899,"超市":12900,"性侵":12901,"提出的":12902,"洛杉磯":12903,"--":12904,"1個月":12905,"九二":12906,"四大":12907,"我會":12908,"也可能":12909,"出身":12910,"日報":12911,"男生":12912,"聯名":12913,"試場":12914,"連鎖":12915,"統一獅":12916,"位在":12917,"從來":12918,"最新數據":12919,"民視新聞":12920,"堅定":12921,"漏洞":12922,"為台灣":12923,"又是":12924,"安裝":12925,"發炎":12926,"靠近":12927,"不利":12928,"事宜":12929,"次長":12930,"率先":12931,"印度的":12932,"公務員":12933,"人事":12934,"的比賽":12935,"花了":12936,"單場":12937,"依賴":12938,"包商":12939,"更高":12940,"歲男童":12941,"常見的":12942,"享有":12943,"看似":12944,"倫敦":12945,"全校":12946,"因症狀":12947,"增強":12948,"成人":12949,"下半年":12950,"卻在":12951,"才知道":12952,"未來的":12953,"展覽":12954,"邊緣":12955,",《":12956,"下周":12957,"凸顯":12958,"支撐":12959,"理論":12960,"零星":12961,"首長":12962,"疫情爆發":12963,"日返台":12964,"行車":12965,"過量":12966,"新型冠狀病毒":12967,"全年":12968,"廢棄":12969,"才剛":12970,"正當":12971,"巴拉":12972,"減輕":12973,"福島":12974,"稅率":12975,"心中":12976,"用電":12977,"過世":12978,"都將":12979,"野生":12980,"舉辦的":12981,"機場攔檢":12982,"備受":12983,"專門":12984,"訂定":12985,"除此":12986,"影響力":12987,"180":12988,"嗅覺喪失":12989,"贏得":12990,"美國就學":12991,"檢驗中":12992,"打出":12993,"眼淚":12994,"見到":12995,"貨櫃":12996,"3點":12997,"占比":12998,"小三":12999,"效益":13000,"的安全":13001,"總部":13002,"這對":13003,"通緝":13004,"入境均無症狀":13005,"周年":13006,"據點":13007,"有時候":13008,"的他":13009,"競選":13010,"評委":13011,"」,「":13012,"法辦":13013,"軍隊":13014,"死亡人數":13015,"公共場所":13016,"各縣市":13017,"所屬":13018,"是他":13019,"查核":13020,"老翁":13021,"勇敢":13022,"早在":13023,"登錄":13024,"相處":13025,"8人":13026,"優異":13027,"加盟":13028,"藝文":13029,"自己是":13030,"和解":13031,"審理":13032,"首例":13033,"比利時":13034,"纖維":13035,"自覺":13036,"蔬菜":13037,"過於":13038,"][":13039,"目擊":13040,"看完":13041,"##":13042,"一帶":13043,"偵查":13044,"展望":13045,"戲劇":13046,"期限":13047,"用途":13048,"花費":13049,"我認為":13050,"曾到":13051,"體制":13052,"呼吸困難":13053,"1億":13054,"並表示":13055,"冷氣":13056,"德里":13057,"手套":13058,"10名":13059,"沒有任何":13060,"如果你":13061,"個百分點":13062,"放鬆":13063,"華盛":13064,"9年":13065,"就已經":13066,"巨蛋":13067,"歷程":13068,"遭受":13069,"頒獎":13070,"頭暈":13071,"首位":13072,"巡邏":13073,"舉例":13074,"訊號":13075,"豬肉":13076,"夢想家":13077,">。(":13078,"【<":13079,"回台":13080,"機身":13081,"分局長":13082,"案的":13083,");":13084,"可以在":13085,"華盛頓":13086,"上台":13087,"前來":13088,"大讚":13089,"收益":13090,"方的":13091,"氛圍":13092,"面向":13093,"250":13094,"予以":13095,"交換":13096,"好文":13097,"春季":13098,"當成":13099,"足球":13100,"入境後至集":13101,"與人":13102,"確定病例":13103,"再來":13104,"引進":13105,"槍擊":13106,"發展的":13107,"所有人":13108,"關節痛":13109,"推進":13110,"校內":13111,"運算":13112,"驅逐":13113,"列為居家隔離":13114,"九二共識":13115,"!」、「":13116,"兼顧":13117,"有期徒刑":13118,"比如":13119,"中火":13120,"分子":13121,"過後":13122,"勞動節":13123,"在網路上":13124,"女人":13125,"我在":13126,"會後":13127,"語音":13128,"org13":13129,"200萬":13130,"有個":13131,"是最":13132,"治安":13133,"涵蓋":13134,"的中國":13135,"加護":13136,"在臺":13137,"技能":13138,"漲價":13139,"睡覺":13140,"總共":13141,"舉動":13142,"處置":13143,"的第一":13144,"第7":13145,"傳播鏈":13146,"作者為":13147,"多年來":13148,"游泳":13149,"預告":13150,"巴拉圭":13151,"休旅":13152,"八大":13153,"的相關":13154,"2成":13155,"妨害":13156,"收費":13157,"陌生":13158,"台北市黨部":13159,"演講":13160,"車廂":13161,">:<":13162,"在大":13163,"小說":13164,"新款":13165,"情況下":13166,"進帳":13167,"金錢":13168,"怎麼辦":13169,"援助":13170,"的發展":13171,"給他":13172,"說道":13173,"24日":13174,"的重要性":13175,"嚴選好文":13176,"除此之外":13177,"嚴選好文一次看":13178,"不料":13179,"力道":13180,"可怕":13181,"心裡":13182,"重複":13183,"底下":13184,"承受":13185,"新興":13186,"模範":13187,"筆者":13188,"自費採檢並確診":13189,"的健康":13190,"簡訊":13191,"謹慎":13192,"一時":13193,"上線":13194,"反擊":13195,"自信":13196,"藍營":13197,"零售":13198,"10多歲女性":13199,"必須要":13200,"打數":13201,"頭的":13202,"驚喜":13203,"1日":13204,"不大":13205,"五一":13206,"傳產":13207,"入口":13208,"專欄":13209,"對待":13210,"會讓":13211,"04":13212,"傍晚":13213,"導入":13214,"每一":13215,"洋基":13216,"環團":13217,"稍微":13218,"台獨":13219,"大跌":13220,"派遣":13221,"特性":13222,"英國工作":13223,"均有":13224,"歌曲":13225,"%。<":13226,"人妻":13227,"共機":13228,"台美":13229,"效力":13230,"洗衣":13231,"門診":13232,"20多歲":13233,"奇摩值":13234,"填就送奇摩值":13235,"判刑":13236,"火腿":13237,"的貼文":13238,"胸悶":13239,"藍牙":13240,"警消":13241,"宣言":13242,"有民眾":13243,"意味著":13244,"房東":13245,"是誰":13246,"樣子":13247,"繳稅":13248,"行的":13249,"公司安排至":13250,"長期於":13251,"呼籲民眾":13252,"入侵":13253,"學家":13254,"的設計":13255,"群組":13256,"配件":13257,"與美國":13258,"震撼":13259,"三天":13260,"在野":13261,"幹部":13262,"眼鏡":13263,"驗證":13264,"新聞稿":13265,"有助於":13266,"推文":13267,"未就醫":13268,"終止":13269,"聲量":13270,"選購":13271,"隊員":13272,"也希望":13273,"比重":13274,"4分":13275,"人選":13276,"各個":13277,"將有":13278,"本月":13279,"聯網":13280,"蛋白質":13281,"到來":13282,"多達":13283,"後面":13284,"皆持有搭機前3日內檢驗陰性報告":13285,"相關新聞影音":13286,"以利":13287,"的主要":13288,"竟是":13289,"職缺":13290,"10人":13291,"被問到":13292,"人心":13293,"但她":13294,"的影片":13295,"小時候":13296,"了吧":13297,"實名制":13298,"信息":13299,"完善":13300,"我不":13301,"極端":13302,"勒斯坦":13303,"將由":13304,"平日":13305,"探視":13306,"曾與":13307,"租屋":13308,"談話":13309,"連任":13310,"可以看到":13311,"巴勒斯坦":13312,"有肺炎":13313,"縮短":13314,">)、<":13315,"今年的":13316,"回去":13317,"孩童":13318,"無失分":13319,"的環境":13320,"關聯":13321,"由於個案":13322,"宜蘭縣":13323,"02":13324,"全都":13325,"播放":13326,"毛利率":13327,"生存":13328,"設計的":13329,"一段時間":13330,"合一":13331,"沒有人":13332,"添加":13333,"致詞":13334,"買房":13335,"不上":13336,"公佈":13337,"及接觸史":13338,"論文":13339,"防空":13340,"如果是":13341,"股利":13342,"行駛":13343,"加工":13344,"會上":13345,"維修":13346,"100萬":13347,">..":13348,"宣示":13349,"生素":13350,"學年":13351,"的美國":13352,"補貼":13353,"今日推薦影音":13354,"下台":13355,"11004":13356,"保健":13357,"災難":13358,"進出":13359,"機組人員":13360,"分區輪流":13361,"、「":13362,"中表示":13363,"報復":13364,"契約":13365,"愛爾":13366,"融資":13367,"。」「":13368,"記憶體":13369,"內心":13370,"干擾":13371,"搶購":13372,"時段":13373,"欣賞":13374,"派系":13375,"也不是":13376,"工地":13377,"描述":13378,"時報":13379,"請勿":13380,"尼亞":13381,"車子":13382,"週年":13383,"一處":13384,"損害":13385,"能讓":13386,"印尼籍20至":13387,"五年":13388,"仍未":13389,"帶有":13390,"的經濟":13391,"表揚":13392,"如有疑似症狀":13393,"回顧":13394,"有無":13395,"連敗":13396,"驚訝":13397,"per15":13398,"執政黨":13399,"三壘":13400,"主導":13401,"治理":13402,"血液":13403,"表情":13404,"重創":13405,"日進行期滿前":13406,"千人":13407,"恐懼":13408,"獎項":13409,"硬體":13410,"鐵路":13411,"高峰":13412,"檢驗結果為陰性":13413,">()":13414,"高中生":13415,"各方":13416,"夏天":13417,"減肥":13418,"的聲音":13419,"興達":13420,"日出現喉嚨不適症狀":13421,"警示":13422,"日出現鼻塞":13423,"中斷":13424,"所在":13425,"白沙":13426,"真是":13427,"私下":13428,"第10":13429,"20歲":13430,"日前往":13431,"一周":13432,"代工":13433,"傷勢":13434,"加拉":13435,"新制":13436,"不要再":13437,"往返":13438,"的情形":13439,"青春":13440,"定序":13441,"終結":13442,"適應":13443,"雙語":13444,"離職":13445,"震驚":13446,"是一種":13447,"拿著":13448,"的內容":13449,"途中":13450,"認為是":13451,"就醫時":13452,"甚至是":13453,"蘋果不建議你這樣用":13454,"一再":13455,"不合":13456,"傾向":13457,"外型":13458,"安全的":13459,"可達":13460,"含有":13461,"抑制":13462,"清空":13463,"發佈":13464,"的一個":13465,"輸出":13466,"隱形":13467,"北海道":13468,"休閒":13469,"在這個":13470,"奇怪":13471,"組長":13472,"阿拉":13473,"每週":13474,"防堵":13475,"雷達":13476,"升至":13477,"的中":13478,"的過程":13479,"署長":13480,"鏡週刊報導":13481,"112":13482,"一堆":13483,"元素":13484,"嚇壞":13485,"庫存":13486,"思維":13487,"的故事":13488,"案4":13489,"說要":13490,"四個":13491,"據悉":13492,"玩具":13493,"貓咪":13494,"開箱":13495,"響應":13496,"台灣是":13497,">、、":13498,"強大":13499,"搶先":13500,"選秀":13501,"更多鏡週刊報導":13502,"吃的":13503,"學長":13504,"市議員":13505,"踴躍":13506,"轉變":13507,"釋放":13508,"如果有":13509,"蘋果創辦人":13510,"診斷為":13511,"不論是":13512,"大專":13513,"潛在":13514,"發票":13515,"的產品":13516,"檢疫期滿前採檢確診":13517,"有些人":13518,"其實是蘋果創辦人":13519,"幸好":13520,"的經驗":13521,"防制":13522,"10多歲男性":13523,"不會有":13524,"一一":13525,"房市":13526,"手法":13527,"高風險":13528,"一軍":13529,"之所以":13530,"出色":13531,"忘了":13532,"簽約":13533,"相關單位":13534,"科學家":13535,"位數":13536,"前夕":13537,"原價":13538,"更換":13539,"為由":13540,"與其":13541,"融入":13542,"入境時主動通報":13543,"人工智慧":13544,"不變":13545,"克力":13546,"它們":13547,"派員":13548,"偵測":13549,"勢必":13550,"幅度":13551,"氣溫":13552,"汙染":13553,"腳步":13554,"菲律賓籍30多歲女性":13555,"圖片來源":13556,"2個月":13557,"差不多":13558,"機種":13559,"群眾":13560,"視頻":13561,"除非":13562,"疫苗施打":13563,"愛爾蘭":13564,"700":13565,"8點":13566,"。▼":13567,"受邀":13568,"被打":13569,"驚傳":13570,"其他住所":13571,"主打":13572,"大流行":13573,"挑釁":13574,"物料":13575,"發放":13576,"預警":13577,"實驗室":13578,"上映":13579,"將以":13580,"火鍋":13581,"給付":13582,"當時的":13583,"再生能源":13584,"0元":13585,"商圈":13586,"媽咪":13587,"書展":13588,"老實":13589,"提供的":13590,"其中有":13591,"入場":13592,"強度":13593,"情感":13594,"空域":13595,"充足":13596,"冷凍":13597,"比率":13598,"的研究":13599,"籃網":13600,"群體":13601,"講話":13602,"輿論":13603,"加護病房":13604,"藥品":13605,"比照":13606,"連環":13607,"味覺異常等症狀":13608,"不懂":13609,"不禁":13610,"則在":13611,"反覆":13612,"學會":13613,"傳染病":13614,"的同時":13615,"今天上午":13616,"中央流行疫情指揮中心今":13617,"動脈":13618,"大人":13619,"抵制":13620,"撞擊":13621,"美女":13622,"本土確診":13623,"隱藏":13624,"頻頻":13625,"出處":13626,"百人":13627,"罰款":13628,"註冊":13629,"2020年2月":13630,"第二季":13631,"聯合聲明":13632,"白沙屯":13633,"時程":13634,"監管":13635,"露出":13636,"我們會":13637,"網友熱議":13638,"7萬":13639,"少了":13640,"解答":13641,"25年":13642,"收盤":13643,"球季":13644,"至防疫旅館":13645,"圖書館":13646,"風味":13647,"更多新頭殼":13648,"檢疫期間未與他人接觸":13649,"相較於":13650,"更多新頭殼報導":13651,"的孩子":13652,"其餘19人":13653,"74於1":13654,"發病日3":13655,"其中案674於1":13656,"其餘19人入境無症狀":13657,"都已經":13658,"」「":13659,"全文":13660,"加密":13661,"放心":13662,"病情":13663,"行情":13664,"開槍":13665,"市場的":13666,"上了":13667,"分流":13668,"悲劇":13669,"毫米":13670,"全台大停電":13671,"全館":13672,"場合":13673,"大數據":13674,"平權":13675,"收購":13676,"財富":13677,"頭髮":13678,"颱風":13679,"報導指出":13680,"健康監測":13681,"大聯盟":13682,"更能":13683,"讓學生":13684,"這也":13685,"疫情嚴峻":13686,"無人機":13687,"如下":13688,"差點":13689,"後才":13690,"性感":13691,"手上":13692,"色彩":13693,"吃到飽":13694,"很少":13695,"甚至還":13696,"──":13697,"打氣":13698,"洽公":13699,"災害":13700,"結果皆為陰性":13701,"嬌生":13702,"打了":13703,"燃料":13704,"500元":13705,"一件":13706,"拍賣":13707,"靜脈":13708,"大師":13709,"彷彿":13710,"肥胖":13711,"請大家":13712,"多雲":13713,"後就":13714,"怎樣":13715,"推測":13716,"競爭力":13717,")(":13718,"9人":13719,"但因為":13720,"案發":13721,"畫素":13722,"自稱":13723,"驚呼":13724,"機器人":13725,"一顆":13726,"動能":13727,"很容易":13728,"的消息":13729,"航母":13730,"飼主":13731,"緊急事態":13732,"不讓":13733,"出道":13734,"痊癒":13735,")▲":13736,"拍下":13737,"時事":13738,"景氣":13739,"這時":13740,"自己在":13741,"受到影響":13742,"流鼻水症狀":13743,"低調":13744,"加班":13745,"命令":13746,"大哥":13747,"指責":13748,"是我":13749,"時光":13750,"的政策":13751,"要不要":13752,"最高的":13753,"地圖":13754,"姓名":13755,"武力":13756,"致死":13757,"更多東森":13758,"緊急狀態":13759,"刊登於":13760,"落差":13761,"型的":13762,"失望":13763,"式的":13764,"第12":13765,"世界上":13766,"單季":13767,"後送":13768,"橡皮":13769,">《":13770,"個資":13771,"優於":13772,"大獎":13773,"長官":13774,"天然氣":13775,"6名":13776,"專區":13777,"感恩":13778,"降至":13779,"雙邊":13780,"公主":13781,"大盤":13782,"水電":13783,"理財":13784,"還是會":13785,"久的":13786,"天天":13787,"帶給":13788,"求助":13789,"也因為":13790,"代價":13791,"厲害":13792,"哈哈":13793,"嚴防":13794,"在日本":13795,"懶人":13796,"私立":13797,"租金":13798,"美的":13799,"陣子":13800,"陣營":13801,"雨量":13802,"孟加拉":13803,"焦慮":13804,"亮點":13805,"繳納":13806,"還可":13807,"雞排":13808,"不分":13809,"位的":13810,"兩者":13811,"動手":13812,"姓女子":13813,"的結果":13814,"相似":13815,"豆腐":13816,"大氣":13817,"引導":13818,">.)":13819,"5分":13820,"不實":13821,"十足":13822,"完畢":13823,"戰術":13824,"浪漫":13825,"送辦":13826,"傳承":13827,"名人":13828,"拿來":13829,"特地":13830,"罰金":13831,"聲請":13832,"騎車":13833,"防疫旅宿":13834,"第一名":13835,"40萬":13836,"信義":13837,"已是":13838,"登陸":13839,"研究員":13840,"因疫情":13841,"贏球":13842,"在臉書發文":13843,"第六":13844,"日出現肌肉痠痛":13845,"彰化縣":13846,"@<":13847,"也提到":13848,"公文":13849,"親王":13850,"呼吸道症狀":13851,"俄國":13852,"就開始":13853,"並依":13854,"蒐集":13855,"轉向":13856,"這張":13857,"遠離":13858,"不得不":13859,"冠軍賽":13860,"持有登機前3日內檢驗陰性報告":13861,">'":13862,"任內":13863,"加重":13864,"太過":13865,"此案":13866,"確診日":13867,"高雄市長":13868,"機場攔截":13869,"2局":13870,"主流":13871,"失業":13872,"爆紅":13873,"偶像":13874,"出遊":13875,"大甲":13876,"新機":13877,"是很":13878,"流傳":13879,"罰鍰":13880,"情侶":13881,"科系":13882,"本土疫情":13883,"保守":13884,"國立":13885,"指引":13886,"洋將":13887,"的三":13888,"近況":13889,"機場攔截發現":13890,"一群":13891,"場地":13892,"大賽":13893,"巧克力":13894,"種類":13895,"牛奶":13896,"盡速":13897,"私校":13898,"籍40多歲男性":13899,"政治人物":13900,"兩隊":13901,"得很":13902,"聚餐":13903,"該校":13904,"請求":13905,"邏輯":13906,"首席":13907,"內政":13908,"參議員":13909,"日開始":13910,"監獄":13911,"學生的":13912,"嘉義縣":13913,"5個":13914,"撤銷":13915,"暫緩":13916,"構成":13917,"總監":13918,"本國籍20多歲男性":13919,"民宅":13920,"的方法":13921,"軍艦":13922,"輩子":13923,"馬路":13924,"影響到":13925,"感染源待釐清":13926,"對流":13927,"期貨":13928,"駭客":13929,"提醒民眾":13930,"也指出":13931,"名稱":13932,"對他":13933,"羈押":13934,"隊史":13935,"聯合新聞網":13936,"真正的":13937,"菲律賓籍30多歲男性":13938,"2022年":13939,"一律":13940,"博物":13941,"均為陰性":13942,"梅花":13943,"裁判":13944,"50多歲":13945,"有肺炎情形":13946,"休假":13947,"為期":13948,"職員":13949,"集會活動":13950,"共和":13951,"實踐":13952,"重的":13953,"但現在":13954,"座談":13955,"湧入":13956,"生理":13957,"素養":13958,"中國政府":13959,"合作的":13960,"生育率":13961,"可在":13962,"審慎":13963,"難免":13964,"電源":13965,"17日":13966,"解決方案":13967,"長期居住美國":13968,"全美":13969,"會再":13970,"模組":13971,"5局":13972,"也已":13973,"二級":13974,"日益":13975,"深受":13976,"補償":13977,"進入社區感染":13978,"智慧型":13979,"台語":13980,"器官":13981,"國文":13982,"有一名":13983,"03":13984,"9元":13985,"一日":13986,"明白":13987,"裁定":13988,"轉為":13989,"5成":13990,"侵犯":13991,"大火":13992,"平板":13993,"表面":13994,"以為是":13995,"案1129":13996,"剛剛":13997,"原訂":13998,"火勢":13999,"福建":14000,"給你":14001,"6局":14002,"上千":14003,"下架":14004,"中常":14005,"半夜":14006,"將來":14007,"強硬":14008,"日間":14009,"更重要":14010,"打線":14011,"繁星":14012,"該如何":14013,"金牌":14014,"一壘":14015,"副所長":14016,"動機":14017,"昏迷":14018,"難得":14019,"點出":14020,"台灣在":14021,"多樣":14022,"或其他":14023,"第27":14024,"見證":14025,"高等":14026,"經濟成長":14027,"並由":14028,"到處":14029,"守住":14030,"往來":14031,"綠能":14032,"體內":14033,"一整":14034,"漁船":14035,"第8":14036,"30歲":14037,"18歲":14038,"供應商":14039,"實務":14040,"無罪":14041,"大增":14042,"天下":14043,"奶奶":14044,"守備":14045,"用心":14046,"的狀態":14047,"安排採檢":14048,"9點":14049,"備詢":14050,"大爆發":14051,"性騷擾":14052,"熱愛":14053,"雙重":14054,"7局":14055,"單獨":14056,"笑翻":14057,"美金":14058,"西武":14059,"要注意":14060,"案1153":14061,"消防員":14062,"日常生活":14063,"波疫情":14064,"第19":14065,"下方":14066,"每位":14067,"被視為":14068,"迎來":14069,"還得":14070,"地面":14071,"99元":14072,"4000":14073,"接收":14074,"淨利":14075,"不動產":14076,"主力":14077,"孕婦":14078,"廣角":14079,"核定":14080,"津貼":14081,"現狀":14082,"供給":14083,"馬祖":14084,"準備好":14085,"來不及":14086,"年級":14087,"斯特":14088,"精選":14089,"也成為":14090,"撤離":14091,"波蘭":14092,"盤查":14093,"保護力":14094,"4大":14095,"不便":14096,"代言":14097,"忽略":14098,"的商品":14099,"原物料":14100,"太平":14101,"燃燒":14102,"績效":14103,"都已":14104,"錯過":14105,"電視台":14106,"6個月":14107,"一款":14108,"但我":14109,"公寓":14110,"同班":14111,"在那":14112,"攀升":14113,"日檢疫期滿":14114,"號召":14115,"解讀":14116,"驗出":14117,"50元":14118,"太陽能":14119,"匯流新聞網":14120,"以北":14121,"夜間":14122,"幾個月":14123,"戰場":14124,"拉警報":14125,"站上":14126,"訊後":14127,"買了":14128,"招牌":14129,"檢驗確診":14130,"檢出陽性確診":14131,"下修":14132,"受損":14133,"外線":14134,"拆除":14135,"魅力":14136,"初步掌握":14137,"有限公司":14138,"主辦單位":14139,"無須匡列接觸者":14140,"案701":14141,"機場攔檢發現":14142,"一台":14143,"一方面":14144,"並進行":14145,"堪稱":14146,"將他":14147,"強力":14148,"很重要":14149,"求償":14150,"懶人包":14151,"不願意":14152,"外帶":14153,"珍惜":14154,"的效果":14155,"碰到":14156,"旅遊泡泡":14157,"熱烈討論":14158,"去做":14159,"日至醫院自費採檢並確診":14160,"幫派":14161,"電網":14162,"倒數":14163,"南下":14164,"常態":14165,"志願":14166,"走出":14167,"走路":14168,"更多人":14169,"畢業生":14170,"博物館":14171,"乳癌":14172,"註明":14173,"進來":14174,"上班族":14175,"主因":14176,"強的":14177,"氣炸":14178,"自從":14179,"讓自己":14180,"買賣":14181,"遼寧":14182,"場面":14183,"情境":14184,"板橋":14185,"缺席":14186,"視角":14187,"今年3月":14188,"他指出":14189,"心態":14190,"等問題":14191,"負壓":14192,"陳情":14193,"強迫":14194,"找來":14195,"撞死":14196,"本書":14197,"校友":14198,"的人生":14199,"萬華區":14200,"輕微咳嗽":14201,"乾旱":14202,"侵害":14203,"感嘆":14204,"慘遭":14205,"新創":14206,"求職":14207,"種種":14208,"還是有":14209,"拍到":14210,"會持續":14211,"林口":14212,"海鮮":14213,"發生的":14214,"這麼多":14215,"搜救":14216,"武裝":14217,"但由於":14218,"加快":14219,"十二":14220,"將與":14221,"流量":14222,"管控":14223,"豪宅":14224,"第二次":14225,"停留":14226,"富豪":14227,"講座":14228,"分別於1":14229,"假期":14230,"季節":14231,"對上":14232,"時任":14233,"行徑":14234,"親密":14235,"設有":14236,"錄音":14237,"運動員":14238,"發病前":14239,"不符":14240,"主人":14241,"很久":14242,"找回":14243,"縮小":14244,"。》":14245,"不去":14246,"傳奇":14247,"動線":14248,"北投":14249,"大關":14250,"她表示":14251,"的選擇":14252,"若要":14253,"重回":14254,"骨折":14255,"可能有":14256,"不清楚":14257,"將其":14258,"折扣":14259,"的角色":14260,"鬆懈":14261,"去年底":14262,"季增":14263,"朝野":14264,"的國際":14265,"170":14266,"不法":14267,"且有":14268,"冰箱":14269,"排黑":14270,"提問":14271,"精采":14272,"財運":14273,"贊助":14274,"樂天桃猿":14275,"也強調":14276,"光電":14277,"四月":14278,"的功能":14279,"筆記":14280,"緊密":14281,"中國在":14282,"第11":14283,"同團":14284,"店內":14285,"復健":14286,"振興":14287,"法令":14288,"爺爺":14289,"的空間":14290,"送餐":14291,"例外":14292,"則為":14293,"周遭":14294,"病床":14295,"維吾":14296,"遲遲":14297,"類的":14298,"已經是":14299,"專案小組":14300,"創作者":14301,"好轉":14302,"或0800":14303,"施政":14304,"軍機":14305,"長榮":14306,"維吾爾":14307,"劇情":14308,"密碼":14309,"少子":14310,"日宣布":14311,"至5":14312,"融合":14313,"驅動":14314,"工作者":14315,"160":14316,"吃緊":14317,"往前":14318,"改造":14319,"最愛":14320,"洋投":14321,"不舒服":14322,"核電廠":14323,"清洗":14324,"萬噸":14325,"足以":14326,"銷量":14327,"顯得":14328,"這次的":14329,"越來越多":14330,"其他住所自主健康管理":14331,"一面":14332,"對我":14333,"溫馨":14334,"過失":14335,"隔板":14336,"養成":14337,"關係的":14338,"並與":14339,"地理":14340,"憤怒":14341,"新一代":14342,"生氣":14343,"精緻":14344,"動畫":14345,"崛起":14346,"的老":14347,"達人":14348,"說明會":14349,"完全沒有":14350,"紀錄片":14351,"引爆":14352,"挹注":14353,"產量":14354,"育兒":14355,"腎臟":14356,"還有人":14357,"列為接觸者":14358,"不已":14359,"全市":14360,"產學":14361,"直擊":14362,"198":14363,"128":14364,"另一半":14365,"1元":14366,"一舉":14367,"也相當":14368,"服役":14369,"混亂":14370,"激增":14371,"跨國":14372,"較低":14373,"10點":14374,"合作媒體":14375,"1922專線":14376,"各校":14377,"經由":14378,"較去年同期":14379,"70多歲男性":14380,"自我健康監測":14381,"一審":14382,"中山":14383,"大力":14384,"客運":14385,"射手":14386,"放大":14387,"獲獎":14388,"的兩":14389,"至菲律賓工作":14390,"討厭":14391,"走到":14392,"印尼籍30多歲女性":14393,"短暫陣雨":14394,"任職":14395,"來得":14396,"大學生":14397,"手指":14398,"晉級":14399,"有感":14400,"案90":14401,"燃氣":14402,"相隔":14403,"立院":14404,"個案因":14405,"命中率":14406,"更多東森新聞報導":14407,"提議":14408,"本案":14409,"此役":14410,"看待":14411,"而來":14412,"中正":14413,"依規定":14414,"漸漸":14415,"的車":14416,"艦隊":14417,"諸多":14418,"公職":14419,"抵台":14420,"聲援":14421,"在臉書上":14422,"必要的":14423,"一來":14424,"建構":14425,"憂鬱":14426,"是對":14427,"有線":14428,"獲授權轉載":14429,"統治":14430,"說出":14431,"解決問題":14432,"傳輸":14433,"案50":14434,"檢警":14435,"波及":14436,"被發現":14437,"評審":14438,"選票":14439,"鍵盤":14440,"離岸":14441,"相當於":14442,"99於1":14443,"其餘15人":14444,"其中案699於1":14445,"原文刊登於":14446,"://./":14447,"案701於1":14448,"其餘15人入境均無症狀":14449,"分泌":14450,"商家":14451,"大聲":14452,"張貼":14453,"探討":14454,"處罰":14455,"10天":14456,"稅後純益":14457,"下一個":14458,"日媒":14459,"東奧":14460,"續航":14461,"院方":14462,"社群平台":14463,"中風":14464,"參觀":14465,"多家":14466,"東北":14467,"法庭":14468,"滑手機":14469,"的投資":14470,"結論":14471,"噁心":14472,"徵收":14473,"販賣":14474,"進到":14475,"網友在":14476,"數據顯示":14477,"專機":14478,"期許":14479,"由公司安排至":14480,"走勢":14481,"領取":14482,"匡列為":14483,"原文刊登於合作媒體":14484,"三級":14485,"亮相":14486,"機型":14487,"要去":14488,"賣壓":14489,"通車":14490,"過年":14491,"。」▲":14492,"個別":14493,"局面":14494,"差別":14495,"簽訂":14496,"紅包":14497,"總量":14498,"革命":14499,"2013年":14500,"確診的":14501,"一直在":14502,"到現場":14503,"可透過":14504,"手部":14505,"扣除":14506,"此前":14507,"禁令":14508,"不妨":14509,"月薪":14510,"自製":14511,"跌破":14512,"選出":14513,"其他國家":14514,"貨機機師":14515,"!(":14516,"但目前":14517,"信仰":14518,"同日":14519,"有錢":14520,"殘骸":14521,"求救":14522,"激勵":14523,"量體溫":14524,"開玩笑":14525,"變異株":14526,"不應該":14527,"奈米":14528,"招募":14529,"火災":14530,"盈餘":14531,"退役":14532,"更多相關新聞":14533,"18日":14534,"日前在":14535,"前面":14536,"副市長":14537,"的畫面":14538,"這不是":14539,"8成":14540,">]":14541,"上門":14542,"攔截":14543,"熱鬧":14544,"現今":14545,"不行":14546,"冷靜":14547,"勇氣":14548,"待遇":14549,"徵才":14550,"遊樂":14551,"體質":14552,"分享的貼文":14553,"衛生紙":14554,"不確定":14555,"保全":14556,"偷渡":14557,"王子":14558,"評比":14559,"2024":14560,"per16":14561,"進行自主健康管理":14562,"觀點投書":14563,"#<":14564,"人人":14565,"淡水":14566,"清水":14567,"減碳":14568,"日本土":14569,"40歲":14570,"不堪":14571,"不穩定":14572,"命運":14573,"標籤":14574,"追究":14575,"隔離病房":14576,"中獎":14577,"偽造":14578,"到過":14579,"就沒有":14580,"已被":14581,"打臉":14582,"看得":14583,"股份":14584,"自殺":14585,"org14":14586,"豐富的":14587,"一句":14588,"但如果":14589,"大方":14590,"心跳":14591,"憲兵":14592,"打到":14593,"水源":14594,"論述":14595,"重傷":14596,"風傳媒":14597,"8名":14598,"德州":14599,"打球":14600,"航行":14601,"譯者":14602,"這家":14603,"一中":14604,"全隊":14605,"女士":14606,"存款":14607,"巴黎":14608,"空污":14609,"考題":14610,"藍綠":14611,"術後":14612,"難過":14613,"不同意":14614,"國內疫情":14615,"07":14616,"不安":14617,"停在":14618,"壓迫":14619,"的合作":14620,"約為":14621,"要把":14622,"馬拉":14623,"發燒及":14624,"解除隔離":14625,"一早":14626,"在內的":14627,"奪冠":14628,"日入境後":14629,"服飾":14630,"果然":14631,"標的":14632,"穿上":14633,"本國籍40多歲男性":14634,"5月底":14635,"上個月":14636,"地的":14637,"打卡":14638,"送給":14639,"相關人員":14640,"做得":14641,"停業":14642,"在國際":14643,"天后":14644,"審核":14645,"男星":14646,"美好":14647,"遊覽":14648,"舉行的":14649,">?":14650,"也對":14651,"剩下":14652,"在當地":14653,"場館":14654,"對策":14655,"為題":14656,"瑞典":14657,"直指":14658,"最新的":14659,">|":14660,"宮廟":14661,"洗澡":14662,"海底":14663,"盤點":14664,"角落":14665,"過去的":14666,"超前部署":14667,"但有":14668,"持股":14669,"環評":14670,"網上":14671,"請問":14672,"孩子們":14673,"工資":14674,"會計":14675,"為求":14676,"科目":14677,"面前":14678,"台北市議員":14679,"封面圖":14680,"休旅車":14681,"360":14682,"服裝":14683,"核能":14684,"甜蜜":14685,"第18":14686,"等情形":14687,"先是":14688,"旱象":14689,"的決定":14690,"的位置":14691,"華航":14692,"完整的":14693,"勤務":14694,"媳婦":14695,"安置":14696,"手中":14697,"減煤":14698,"還需要":14699,"咳嗽等症狀":14700,"自費採檢確診":14701,"119":14702,"】[":14703,"克服":14704,"出戰":14705,"回溯":14706,"層級":14707,"擺脫":14708,"查證":14709,"總體":14710,"隧道":14711,"上次":14712,"優化":14713,"周圍":14714,"我嚴防":14715,"打席":14716,"稱讚":14717,"賽車":14718,"跑到":14719,"邊界":14720,"黑幫":14721,"印尼籍20多歲女性":14722,"丹麥":14723,"傳聞":14724,"打壓":14725,"漲停":14726,"理性":14727,"運送":14728,"屏東縣":14729,"一連":14730,"奶茶":14731,"密集":14732,"後發現":14733,"核電":14734,"的公司":14735,"第9":14736,"脫離":14737,"賣超":14738,"跟團":14739,"指甲":14740,"視野":14741,"首勝":14742,"一般人":14743,"罹難者":14744,"一系列":14745,"作出":14746,"失聯":14747,"建商":14748,"清理":14749,"珍貴":14750,"的媽媽":14751,"確幸":14752,"補習":14753,"追平":14754,"他強調":14755,"幕僚":14756,"獲選":14757,"老年":14758,"請辭":14759,"黃色":14760,"社群媒體":14761,"監視器畫面":14762,"成交量":14763,"也無法":14764,"入選":14765,"居檢":14766,"穿越":14767,"上架":14768,"後果":14769,"的對象":14770,"維生素":14771,"通話":14772,"金牛":14773,"雙手":14774,"製造業":14775,">$":14776,"​(":14777,"期的":14778,"比亞":14779,"氣喘":14780,"連帶":14781,"關卡":14782,"11005":14783,"事先":14784,"有不少":14785,"舞蹈":14786,"走了":14787,"酒測":14788,"非裔":14789,"第2季":14790,"日自印尼來臺工作":14791,"印尼籍20至40多歲女性":14792,"下場":14793,"保單":14794,"信徒":14795,"判定":14796,"委會":14797,"射擊":14798,"年初":14799,"比數":14800,"護照":14801,"鄉民":14802,"附近的":14803,"4點":14804,"例確診":14805,"大三":14806,"探病":14807,"爆怨":14808,"的愛":14809,"老舊":14810,"腦部":14811,"迎戰":14812,"先後":14813,"在他":14814,"投稿":14815,"翻轉":14816,"華裔":14817,"不孕":14818,"實用":14819,"總整理":14820,"長照機構":14821,"不高":14822,"件事情":14823,"多半":14824,"大於":14825,"很可能":14826,"播出":14827,"最危險":14828,"活躍":14829,"的歷史":14830,"腦死":14831,"食慾":14832,"餐敘":14833,"生活中心":14834,"製造商":14835,"名譽":14836,"普及":14837,"的價格":14838,"聰明":14839,"領土":14840,"經濟學":14841,"不像":14842,"交手":14843,"加以":14844,"復興":14845,"急性":14846,"慎重":14847,"經貿":14848,"要讓":14849,"酒後":14850,"頂級":14851,"loc5":14852,"已經在":14853,"一共":14854,"供水":14855,"內建":14856,"原定":14857,"回頭":14858,"妥善":14859,"最為":14860,"煞車":14861,"的壓力":14862,"還被":14863,"降到":14864,"因為疫情":14865,"一支":14866,"日陸續出現":14867,"台灣時間":14868,"。◎":14869,"地址":14870,"就曾":14871,"港口":14872,"讓網友":14873,"藝術家":14874,"7成":14875,"個股":14876,"好處":14877,"幕後":14878,"暴露":14879,"東區":14880,"深化":14881,"混合":14882,"牛排":14883,"變動":14884,"跟他":14885,"民眾的":14886,"動物園":14887,"我嚴防新冠肺炎":14888,"但其實":14889,"女學生":14890,"女大生":14891,"年金":14892,"我很":14893,"既有":14894,"祈福":14895,"過多":14896,"都不會":14897,"陣容":14898,"元件":14899,"南港":14900,"地利":14901,"神明":14902,"1500":14903,"這些人":14904,"演藝圈":14905,"來做":14906,"另一名":14907,"涉案":14908,"等相關":14909,"車內":14910,"表示自己":14911,"前一天":14912,"單車":14913,"學員":14914,"家園":14915,"手感":14916,"的責任":14917,"秉持":14918,"行列":14919,"隨便":14920,"駐日":14921,"機場防疫旅館":14922,"一生":14923,"創立":14924,"喇叭":14925,"套餐":14926,"掉了":14927,"提起":14928,"調度":14929,"2008年":14930,"籍20多歲男性":14931,"喉嚨痛及":14932,"應用程式":14933,"人流":14934,"船隻":14935,"試題":14936,"台灣旅行":14937,"上任後":14938,"無數":14939,"百家":14940,"的立場":14941,"讓原":14942,"買到":14943,"轉播":14944,"因此在":14945,"時代力量":14946,"腹瀉症狀":14947,"負壓隔離病房":14948,"三十":14949,"傳說":14950,"傳達":14951,"啤酒":14952,"地上":14953,"從去年":14954,"收藏":14955,"格局":14956,"極為":14957,"流感":14958,"的努力":14959,"期滿後":14960,"大腦":14961,"對立":14962,"小確幸":14963,"心血管":14964,"拓展":14965,"收納":14966,"機的":14967,"肌膚":14968,"領航":14969,"高血壓":14970,"美國政府":14971,"廢棄物":14972,"上去":14973,"偶爾":14974,"制止":14975,"壟斷":14976,"開學":14977,"年齡介於":14978,"這場比賽":14979,"7名":14980,"也未":14981,"受理":14982,"帛琉":14983,"座的":14984,"自述":14985,"賓士":14986,"這回":14987,"日起出現":14988,"不明感染源":14989,"109年":14990,"四年":14991,"從中":14992,"罷工":14993,"持續延燒":14994,"4成":14995,"刑法":14996,"前會長":14997,"就以":14998,"得獎":14999,"拍板":15000,"授課":15001,"每一個":15002,"流動":15003,"的首":15004,"皆有":15005,"示範":15006,"花東":15007,"雙雙":15008,"20分":15009,"資料顯示":15010,"注意到":15011,"負責任":15012,"口號":15013,"大門":15014,"姊妹":15015,"日出現咳嗽症狀":15016,"炎熱":15017,"短時間":15018,"腸胃":15019,"雨勢":15020,"日本的":15021,"臉部":15022,"販毒":15023,"身穿":15024,"目前在":15025,"總統府":15026,"1局":15027,"傷者":15028,"碩士":15029,"第17":15030,"收治住院":15031,"大致":15032,"市區":15033,"我方":15034,"指稱":15035,"瘋傳":15036,"的精神":15037,"神秘":15038,"與先前":15039,"議長":15040,"30分鐘":15041,"任何人":15042,"提高警覺":15043,"。*":15044,"交接":15045,"嚴謹":15046,"夏季":15047,"宛如":15048,"影視":15049,"此戰":15050,"沒事":15051,"的3":15052,"督導":15053,"示警":15054,"合適":15055,"懲處":15056,"投訴":15057,"約1":15058,"體操":15059,"杜拜轉機":15060,"但若":15061,"漢堡":15062,"銀河":15063,"陽明":15064,"時代的":15065,"菲律賓籍20多歲女性移工":15066,"少子化":15067,"倡議":15068,"假訊息":15069,"判處":15070,"問題的":15071,"由仲介安排":15072,"大道":15073,"日職":15074,"榮獲":15075,"水位":15076,"的說":15077,"第七":15078,">」(<":15079,"大消毒":15080,"性質":15081,"捕手":15082,"汽油":15083,"精品":15084,"網頁":15085,"至診所就醫":15086,"調漲":15087,"里程":15088,"備戰":15089,"最美":15090,"節奏":15091,"未來將":15092,"綜合評價":15093,"例行賽":15094,"前次自臺灣":15095,"台灣旅行趣":15096,"好禮":15097,"專用":15098,"收容":15099,"次的":15100,"的現象":15101,"龐大":15102,"疫情的":15103,"12人":15104,"前次自台灣":15105,"也不能":15106,"分裂":15107,"姿勢":15108,"小客":15109,"新任":15110,"每周":15111,"下半":15112,"也宣布":15113,"玫瑰":15114,"給了":15115,"著作":15116,"長征":15117,"以此":15118,"公噸":15119,"化解":15120,"含量":15121,"好了":15122,"就這樣":15123,"波動":15124,"重心":15125,"桃園市長":15126,"日至醫院自費採檢":15127,"兩棲":15128,"戶數":15129,"最早":15130,"900":15131,"乾脆":15132,"勒索":15133,"口水":15134,"嚇到":15135,"外部":15136,"濃度":15137,"第14":15138,"肆虐":15139,"跟你":15140,"適時":15141,"那是":15142,"又被":15143,"已達":15144,"棒球場":15145,"熱潮":15146,"萬美元":15147,"變更":15148,"那就是":15149,"媽媽的":15150,"不定":15151,"二採":15152,"及早":15153,"會的":15154,"比對":15155,"滅火":15156,"管線":15157,"駐印度":15158,"入境後至防疫旅館進行檢疫":15159,"傳言":15160,"多處":15161,"子彈":15162,"抱著":15163,"早盤":15164,"機密":15165,"清消":15166,"請見":15167,"那種":15168,"感染風險":15169,"國際組織":15170,"智慧型手機":15171,"。「<":15172,"二審":15173,"展出":15174,"捕捉":15175,"美術":15176,"著手":15177,"贊成":15178,"陽光":15179,"單日新增":15180,"雲林縣":15181,"前方":15182,"啦啦":15183,"我都":15184,"查緝":15185,"海岸":15186,"獲報後":15187,"三讀":15188,"之路":15189,"來講":15190,"初選":15191,"善意":15192,"在台北":15193,"廣大":15194,"有發燒":15195,"未料":15196,"爵士":15197,"解放":15198,"逼近":15199,"今年1月":15200,"官媒":15201,"層樓":15202,"生技":15203,"言之":15204,"情事":15205,"的特":15206,"簡直":15207,"辦事":15208,"安全性":15209,"關鍵字":15210,"人民的":15211,"迄今無症狀":15212,"聯合新聞網獲授權轉載":15213,"不喜歡":15214,"屍體":15215,"源頭":15216,"5折起":15217,"6成":15218,"之子":15219,"大國":15220,"更要":15221,"消化":15222,"美豬":15223,"錦標":15224,"題材":15225,"畢業後":15226,"房地產":15227,"遊覽車":15228,"吞下":15229,"復出":15230,"水氣":15231,"精進":15232,"總數":15233,"跌倒":15234,"資格賽":15235,"溫度計":15236,"南投縣":15237,"出海":15238,"心力":15239,"結石":15240,"育嬰":15241,"良好的":15242,"調節":15243,"近距離":15244,"麥克":15245,"各類":15246,"拉開":15247,"拜託":15248,"機上":15249,"的疫情":15250,"陽春":15251,"一名男子":15252,"在野黨":15253,"之同住家人":15254,"會將":15255,"有1":15256,"的天":15257,"警訊":15258,"質感":15259,"短暫雨":15260,"全新的":15261,"分布":15262,"大法官":15263,"會面":15264,"歷年":15265,"特價":15266,"獲准":15267,"體力":15268,"接觸者採檢":15269,"不時":15270,"口角":15271,"在哪":15272,"在我":15273,"心動":15274,"心疼":15275,"此一":15276,"殖利率":15277,"的行動":15278,"至醫院":15279,"難怪":15280,"200元":15281,"多歲至30多歲":15282,"診斷有肺炎情形":15283,"信託":15284,"別再":15285,"在印度":15286,"康復":15287,"滲透":15288,"的反":15289,"請假":15290,"警力":15291,"鑽石":15292,"發表聲明":15293,"太空站":15294,"每股純益":15295,"2小時":15296,"7為":15297,">>":15298,"則以":15299,"前述":15300,"唱歌":15301,"士頓":15302,"就怕":15303,"我愛":15304,"會造成":15305,"犯嫌":15306,"男孩":15307,"西區":15308,"高點":15309,"其中包括":15310,"婚後":15311,"對岸":15312,"就不會":15313,"第24":15314,"終身":15315,"走進":15316,"目前已經":15317,"回應了":15318,"​<":15319,"其它":15320,"增添":15321,"小吃":15322,"有興趣":15323,"百科":15324,"艦艇":15325,"希望大家":15326,"上月":15327,"下次":15328,"之餘":15329,"向上":15330,"必備":15331,"放置":15332,"泡沫":15333,"目的是":15334,"股權":15335,"能不能":15336,"輕易":15337,"36例":15338,"上壘":15339,"份子":15340,"劇烈":15341,"加熱":15342,"同婚":15343,"客家":15344,"延遲":15345,"收集":15346,"產檢":15347,"登板":15348,"選戰":15349,"為了讓":15350,"9時":15351,"交付":15352,"先行":15353,"大膽":15354,"日檢疫期滿前採檢":15355,"熱心":15356,"鮭魚":15357,"10分":15358,"活動的":15359,"影片中":15360,"的一部分":15361,"情人":15362,"施行":15363,"組件":15364,"貼心":15365,"道德":15366,"關稅":15367,"防水":15368,"產生的":15369,"一級":15370,"入海":15371,"再見":15372,"淪為":15373,"美國人":15374,"19日":15375,"本國籍40多歲女性":15376,"暫停營業":15377,"?「":15378,"在臺期間並無症狀":15379,"區間":15380,"口腔":15381,"嚇得":15382,"大運":15383,"死刑":15384,"每個月":15385,"的想法":15386,"06":15387,"上看":15388,"卻沒有":15389,"又要":15390,"可用":15391,"外電":15392,"寫著":15393,"建造":15394,"截圖":15395,"校慶":15396,"第15":15397,"這部":15398,"部桃":15399,"靈活":15400,"駁回":15401,"60歲":15402,"屋主":15403,"操控":15404,"朝天宮":15405,"衝撞":15406,"零件":15407,"確診案例":15408,"百分之":15409,"同校":15410,"結局":15411,"覆蓋":15412,"遊玩":15413,"順暢":15414,"2011年":15415,"全球疫情":15416,"原本的":15417,"呼吸喘":15418,"日由仲介":15419,"身心障礙":15420,"7於":15421,"在機場":15422,"安定":15423,"工時":15424,"快艇":15425,"清單":15426,"量的":15427,"注意的是":15428,"範圍內":15429,"密切接觸者":15430,"致力於":15431,"錦標賽":15432,"你要":15433,"果粉":15434,"種植":15435,"追問":15436,"默默":15437,"採檢陰性":15438,"第一階段":15439,"這段時間":15440,"不怕":15441,"多月":15442,"多年的":15443,"奪下":15444,"掌控":15445,"毀損":15446,"滋味":15447,"生長":15448,"的力量":15449,"看這裡":15450,"處女":15451,"觀測":15452,"農場":15453,"per17":15454,"萬元的":15455,"三人":15456,"左投":15457,"想起":15458,"肢體":15459,"親戚":15460,"通風":15461,"運轉":15462,"相關報導":15463,"覺得很":15464,"根本是":15465,"2位":15466,"改成":15467,"減重":15468,"重摔":15469,"高檔":15470,"出現了":15471,"!▲":15472,"到達":15473,"抵抗":15474,"水分":15475,"潛力":15476,"火燒":15477,"該國":15478,"希望透過":15479,"咳嗽及":15480,"基因定序":15481,"兵力":15482,"受歡迎":15483,"在意":15484,"巨人":15485,"強大的":15486,"的醫療":15487,"工作室":15488,"運動會":15489,"政策的":15490,"以來的":15491,"1天":15492,"2億":15493,"人次":15494,"學期":15495,"理賠":15496,"笑容":15497,"細菌":15498,"落地":15499,"阿姨":15500,"修正草案":15501,"前次自台灣出境時間為":15502,"3局":15503,"婚宴":15504,"學子":15505,"巫師":15506,"數百":15507,"最有":15508,"淇淋":15509,"物流":15510,"看不到":15511,"碰撞":15512,"稱的":15513,"致命":15514,"遇上":15515,"選區":15516,"警方表示":15517,"比較好":15518,"味覺喪失":15519,"知情人士":15520,"五大":15521,"兆元":15522,"有機":15523,"權的":15524,"矛盾":15525,"配戴":15526,"接觸者共":15527,"穩定的":15528,"緊急事態宣言":15529,">」、「":15530,"公約":15531,"必然":15532,"換上":15533,"案38":15534,"樂團":15535,"毆打":15536,"的母親":15537,"超高":15538,"逐年":15539,"青睞":15540,"今天的":15541,"消防局":15542,"%,<":15543,"三個月":15544,"公衛":15545,"再創":15546,"劈腿":15547,"堅決":15548,"尼泊":15549,"政變":15550,"教訓":15551,"是非常":15552,"殺害":15553,"用藥":15554,"增加了":15555,"尼泊爾":15556,"圖為":15557,"如期":15558,"層面":15559,"後者":15560,"暗示":15561,"號的":15562,"願景":15563,"中國人":15564,"我們在":15565,"媒體人":15566,"設計師":15567,"領域的":15568,"梅花座":15569,"5次":15570,"擴充":15571,"救災":15572,"明日":15573,"步道":15574,"立體":15575,"第28":15576,"該旅遊團":15577,"轄區":15578,"50歲":15579,"日進行檢疫期滿前採檢並確診":15580,"由機場檢疫人員安排採檢後送至":15581,"案607":15582,"中繼":15583,"做什麼":15584,"格式":15585,"福原":15586,"簽證":15587,"行使":15588,"雙魚":15589,"採檢結果":15590,"防疫規定":15591,"他們在":15592,"六都":15593,"從此":15594,"更大的":15595,"水平":15596,"激動":15597,"研擬":15598,"觀賞":15599,"趁著":15600,"順序":15601,"2012年":15602,"網路溫度計":15603,"列為居家隔離對象":15604,"也開始":15605,"例子":15606,"小編":15607,"投保":15608,"接手":15609,"更容易":15610,"移植":15611,"茶室":15612,"號稱":15613,"超夯":15614,"身高":15615,"金山":15616,"長年":15617,"阻擋":15618,":「(":15619,"機師確診":15620,"國中會考":15621,"向來":15622,"夢幻":15623,"對台灣的":15624,"師傅":15625,"無緣":15626,"籌碼":15627,"超音":15628,",,":15629,"3時":15630,"匯率":15631,"場均":15632,"校院":15633,"的速度":15634,"眼神":15635,"網址":15636,"不少民眾":15637,"粉絲團":15638,"連環爆":15639,"6000":15640,"三月":15641,"他就":15642,"信眾":15643,"各有":15644,"實境":15645,"有更多":15646,"球衣":15647,"的可能":15648,"聽見":15649,"襲擊":15650,"黨派":15651,"持續疫情監測與邊境管制措施":15652,"不適合":15653,"外電報導":15654,"09":15655,"主機":15656,"前一":15657,"副院長":15658,"品項":15659,"在推特":15660,"本屆":15661,"第16":15662,"聽證":15663,"社會大眾":15664,"北市府":15665,"明顯的":15666,"不下":15667,"來臨":15668,"卻不":15669,"打工":15670,"文創":15671,"空姐":15672,"自拍":15673,"目前為止":15674,"今年2月":15675,"原因是":15676,"不完":15677,"區塊":15678,"參訪":15679,"放下":15680,"當晚":15681,"羨慕":15682,"財團":15683,"方面的":15684,"也就是說":15685,"阿拉伯":15686,"不下去":15687,"中醫":15688,"分成":15689,"大考":15690,"放入":15691,"是從":15692,"的過程中":15693,"誤會":15694,"邁入":15695,"集中在":15696,"警察局":15697,"日公布國內新增":15698,"收治住院隔離":15699,"6點":15700,"他會":15701,"假的":15702,"因子":15703,"好評":15704,"心聲":15705,"我有":15706,"跑道":15707,"發生了":15708,"系統的":15709,"80元":15710,"足跡總整理":15711,"必要時":15712,"及其他":15713,"心靈":15714,"手臂":15715,"爆廢":15716,"耶路":15717,"這篇":15718,"香氣":15719,"持續擴大":15720,"2020年10月":15721,"警方調查":15722,"發布的":15723,">://../":15724,"全身痠痛":15725,"房屋稅":15726,"日搭乘專車至醫院自費":15727,"08":15728,"2大":15729,"不出來":15730,"就診":15731,"工藝":15732,"年薪":15733,"文書":15734,"模型":15735,"用了":15736,"眉角":15737,"縮減":15738,"西半部":15739,"開展":15740,"10時":15741,"生活的":15742,"家人一同":15743,"冷戰":15744,"寶貝":15745,"將從":15746,"將成為":15747,"會出現":15748,"這幾天":15749,"都需要":15750,"9萬":15751,"單日本土":15752,"抱歉":15753,"無效":15754,"的食物":15755,"的理由":15756,"盡力":15757,"贈送":15758,"也應":15759,"併發":15760,"兩個月":15761,"學位":15762,"廟宇":15763,"爾蒙":15764,"王室":15765,"的女性":15766,"而不":15767,"量產":15768,"鑑定":15769,"或者是":15770,"依序":15771,"產地":15772,"美式":15773,"要點":15774,"謊言":15775,"送出":15776,"中央流行疫情指揮中心指揮官":15777,"中小":15778,"乖乖":15779,"二度":15780,"再起":15781,"刷卡":15782,"掃描":15783,"晚餐":15784,"總額":15785,"時間點":15786,"航空器":15787,"日報報導":15788,"1小時":15789,"6個":15790,"在19":15791,"帶走":15792,"想說":15793,"揭曉":15794,"最初":15795,"活力":15796,"珍珠":15797,"留學":15798,"臺北":15799,"萬一":15800,"途徑":15801,"40分":15802,"他還":15803,"奧地利":15804,"懂得":15805,"的方向":15806,"的概念":15807,"。★":15808,"三名":15809,"執照":15810,"曾任":15811,"瀏覽":15812,"的議題":15813,"請註明":15814,"這則":15815,"10億":15816,"一直是":15817,"三種":15818,"也為":15819,"佳績":15820,"債券":15821,"外面":15822,"接任":15823,"是不":15824,"沒什麼":15825,"燈號":15826,"藥廠":15827,"處所":15828,"買超":15829,"開刀":15830,"可以說是":15831,"公務人員":15832,"也提醒":15833,"印地":15834,"報酬":15835,"日再":15836,"生效":15837,"的球員":15838,"線的":15839,"頂尖":15840,"300萬":15841,"個案接觸者共":15842,"2時":15843,"劇中":15844,"名義":15845,"無疑":15846,"破裂":15847,"第23":15848,"落幕":15849,"確診機師":15850,"19疫苗":15851,"甚至有":15852,"也呼籲":15853,"你是":15854,"到醫院":15855,"多加":15856,"已完成":15857,"帶頭":15858,"滅絕":15859,"畏寒":15860,"第13":15861,"胸痛":15862,"詮釋":15863,"104":15864,"我們要":15865,"2019年12月":15866,"主嫌":15867,"周末":15868,"喪命":15869,"四處":15870,"形狀":15871,"後悔":15872,"抓到":15873,"控管":15874,"毫不":15875,"為北部":15876,"警政":15877,"108年":15878,"發生一起":15879,"啦啦隊":15880,"福原愛":15881,"5點":15882,"]▲<":15883,"交由":15884,"社工":15885,"種子":15886,"般的":15887,"見狀":15888,"配套":15889,"在家中":15890,"工業區":15891,".<":15892,"兌換":15893,"原廠":15894,"單月":15895,"囂張":15896,"幹嘛":15897,"早日":15898,"牙齒":15899,"的基礎":15900,"致歉":15901,"難題":15902,"人氣排行榜":15903,"轉載請註明":15904,"嬌生疫苗":15905,"轉載請註明出處":15906,"不等":15907,"交代":15908,"大大":15909,"天量":15910,"樓梯":15911,"漁民":15912,"間接":15913,"安排至醫院":15914,"原住民族":15915,"》(":15916,"二次":15917,"北上":15918,"奇蹟":15919,"是全球":15920,"減緩":15921,"的要求":15922,"胎兒":15923,"開轟":15924,"首戰":15925,"橡皮艇":15926,"4天":15927,"出差":15928,"包圍":15929,"商場":15930,"就此":15931,"市集":15932,"真心":15933,"眼前":15934,"疫情期間":15935,"網友紛紛":15936,"健康的":15937,">》<":15938,"詐騙集團":15939,"國安法":15940,"野生動物":15941,"且檢疫期間未與他人接觸":15942,"促使":15943,"搖頭":15944,"擦撞":15945,"正視":15946,"第25":15947,"而這":15948,"聲浪":15949,"若能":15950,"趨緩":15951,"限水":15952,"靈魂":15953,"防疫工作":15954,"室內100":15955,"不需":15956,"劇場":15957,"就知道":15958,"法說":15959,"硬碟":15960,">,)":15961,"提升至":15962,"受訪時表示":15963,"後症狀緩解":15964,"興達電廠":15965,"出示":15966,"好事":15967,"率領":15968,"碼頭":15969,"篩選":15970,"簡稱":15971,"被稱為":15972,"起飛":15973,"較多":15974,"案1112":15975,"有多少":15976,"____":15977,"失智症":15978,"2確診":15979,"上季":15980,"水瓶":15981,"發送":15982,"第20":15983,"衍生":15984,"表決":15985,"org15":15986,"發現有":15987,"256":15988,"社會的":15989,"本土感染":15990,"外交部":15991,"茶藝館群聚案":15992,"老實說":15993,"]《":15994,"值為":15995,"停水":15996,"得主":15997,"浴佛":15998,"肺部":15999,"號誌":16000,"還未":16001,"離島":16002,"報告指出":16003,"60多歲":16004,"第三方":16005,"不僅是":16006,"一向":16007,"並要求":16008,"也與":16009,"包機":16010,"卻又":16011,"在過去":16012,"把關":16013,"未改善":16014,"檸檬":16015,"永和":16016,"看護":16017,"通行":16018,"產業的":16019,"苗栗縣":16020,"中止":16021,"公升":16022,"吃了":16023,"場先發":16024,"日獨自":16025,"極大":16026,"療癒":16027,"百姓":16028,"能見":16029,"基隆市":16030,"領航猿":16031,"1點":16032,"內閣":16033,"兼任":16034,"拉斯":16035,"火車站":16036,"發作":16037,"綜藝":16038,"諷刺":16039,"貨物":16040,"限於":16041,"資料庫":16042,"量測體溫":16043,"會以":16044,"鑰匙":16045,"調查結果":16046,"免疫力":16047,"印地安":16048,"下單":16049,"很好的":16050,"應考":16051,"的成績":16052,"10萬元":16053,"加大":16054,"對美國":16055,"彩券":16056,"撒冷":16057,"案49":16058,"案46":16059,"藻礁公投":16060,"耶路撒冷":16061,">’":16062,"並檢出陽性確診":16063,"刷新":16064,"半小時":16065,"可行":16066,"威權":16067,"於檢疫期滿前採檢":16068,"案情":16069,"案80":16070,"牛棚":16071,"約2":16072,"自認":16073,"複製":16074,"跨越":16075,"入境後前往":16076,"公布案607":16077,"下一代":16078,"拜登政府":16079,"滿滿的":16080,"入境迄今均無症狀":16081,"日進行期滿前採檢送驗":16082,"與先前公布案607":16083,"於檢疫期滿前採檢並檢出陽性確診":16084,"與先前公布案607同班機":16085,"大隊":16086,"警界":16087,"開了":16088,"10分鐘":16089,"140":16090,"最多的":16091,"也特別":16092,"也紛紛":16093,"內野":16094,"利潤":16095,"新建":16096,"有3":16097,"潛水":16098,"率為":16099,"約會":16100,"編列":16101,"而出":16102,"豪華":16103,"19確定病例":16104,"因為他":16105,"服務的":16106,"本國籍50多歲女性":16107,"健保卡":16108,"之內":16109,"報考":16110,"思想":16111,"有超過":16112,"瓦斯":16113,"碰上":16114,"車頭":16115,"道理":16116,"飼養":16117,"更多世界":16118,"嚴正":16119,"好消息":16120,"救治":16121,"正好":16122,"潮流":16123,"煩惱":16124,"羽球":16125,"船上":16126,"嘉義市":16127,"曾有症狀":16128,"梅雨季":16129,"上旬":16130,"勝投":16131,"棉花":16132,"熱銷":16133,"辣椒":16134,"這幾":16135,"雷雨":16136,"目前正在":16137,"防疫旅館居家檢疫":16138,"更多世界日報報導":16139,"130":16140,"天王":16141,"更在":16142,"期刊":16143,"格蘭":16144,"滿壘":16145,"評鑑":16146,"軍售":16147,"錢包":16148,"大家一起":16149,"產品的":16150,"一樣的":16151,"境外移入個案":16152,"不開放":16153,"大喊":16154,"女方":16155,"媒合":16156,"對著":16157,"就職":16158,"無可":16159,"物價":16160,"甚麼":16161,"的數據":16162,"第29":16163,"更多新聞":16164,"持續加強":16165,"人與":16166,"共軍":16167,"劇本":16168,"即刻":16169,"各級":16170,"增設":16171,"天數":16172,"戰隊":16173,"於19":16174,"的海":16175,"農曆":16176,"邁向":16177,"預料":16178,"亞洲":16179,"任期":16180,"冒險":16181,"基法":16182,"子公司":16183,"搶修":16184,"無辜":16185,"自菲律賓":16186,"詭異":16187,"臨床試驗":16188,"1萬元":16189,"並強調":16190,"個國家":16191,"告別":16192,"國營":16193,"娃娃":16194,"核稿":16195,"樂部":16196,"流浪":16197,"獅隊":16198,"疲倦":16199,"的規定":16200,"肺癌":16201,"西瓜":16202,"跑步":16203,"首波":16204,"確診人數":16205,"現在是":16206,"如果沒有":16207,"大家的":16208,"綜合外電報導":16209,"新竹市":16210,"2樓":16211,"享用":16212,"介面":16213,"停靠":16214,"別人的":16215,"台籍":16216,"國王":16217,"場次":16218,"她是":16219,"形態":16220,"日到":16221,"有問題":16222,"營利":16223,"總召":16224,"蘇聯":16225,"負荷":16226,"雙子":16227,"我們也":16228,"預計在":16229,"兆美元":16230,"兩度":16231,"名列":16232,"廟方":16233,"情節":16234,"房客":16235,"所致":16236,"有必要":16237,"水資源":16238,"為人":16239,"的兒子":16240,"石油":16241,"石門":16242,"石頭":16243,"辯論":16244,"恢復正常":16245,"?」,":16246,"並採檢":16247,"入手":16248,"前提":16249,"就說":16250,"抹黑":16251,"按讚":16252,"有任何":16253,"滿額":16254,"課題":16255,"老闆娘":16256,"同一班機":16257,"後症狀改善":16258,")。<":16259,"器材":16260,"安慰":16261,"後備":16262,"擅自":16263,"準則":16264,"珊瑚":16265,"的5":16266,"的角度":16267,"隨身":16268,"風電":16269,"外交官":16270,"足夠的":16271,"富邦悍將":16272,"到台灣":16273,"在2020年":16274,"將可":16275,"對中":16276,"小弟":16277,"滯留":16278,"網購":16279,"衣物":16280,"衰退":16281,"開門":16282,"家庭群聚":16283,"就把":16284,"已初步掌握":16285,"忽視":16286,"未在":16287,"的訊息":16288,"穩健":16289,"繼承":16290,"而被":16291,"自救":16292,"萬劑":16293,"讓孩子":16294,"車款":16295,"車用":16296,"送上":16297,"這條":16298,"進軍":16299,"許多民眾":16300,"接受媒體":16301,"5億":16302,"一併":16303,"俱樂部":16304,"反觀":16305,"方位":16306,"氣體":16307,"起司":16308,"遺產":16309,"關說":16310,"陰影":16311,"入境後至防疫旅館居家檢疫":16312,"上半":16313,"但要":16314,"你會":16315,"來回":16316,"化妝":16317,"審判":16318,"政務":16319,"核廢":16320,"的價值":16321,"著重":16322,"調高":16323,"風向":16324,"首日":16325,"自己也":16326,"一名女網友":16327,"第二階段":16328,"意識到":16329,"2度":16330,"7歲":16331,"7點":16332,"8時":16333,"全廠":16334,"全明星":16335,"公然":16336,"奶油":16337,"小小":16338,"序列":16339,"未成年":16340,"框架":16341,"炸雞":16342,"爭執":16343,"的使用":16344,"霸氣":16345,"高端":16346,"一年多":16347,"實地":16348,"獲取":16349,"生殖":16350,"票房":16351,"親人":16352,"那就":16353,"零食":16354,"100元":16355,"居家隔離期間":16356,"雞排妹":16357,"仰賴":16358,"但對":16359,"截止":16360,"新娘":16361,"案99":16362,"浴室":16363,"老鼠":16364,"輻射":16365,"19歲":16366,"顯示器":16367,"23年":16368,"日曾出現":16369,"菲律賓籍30多歲女性移工":16370,"大考中心":16371,"能見度":16372,"列出":16373,"樂園":16374,"節省":16375,"缺點":16376,"花錢":16377,"買的":16378,"指揮中心提供":16379,"出版社":16380,"日搭乘同一班機":16381,"並依指示":16382,"一塊":16383,"一提":16384,"一句話":16385,"呼應":16386,"客場":16387,"短線":16388,"緊繃":16389,"美容":16390,"耐心":16391,"西門":16392,"醫師表示":16393,"優惠價":16394,"所得稅":16395,"及時診斷":16396,"氧化碳":16397,"卡片":16398,"同胞":16399,"墜落":16400,"士兵":16401,"外的":16402,"姊姊":16403,"專長":16404,"干預":16405,"暴動":16406,"樂趣":16407,"界的":16408,"軍演":16409,"這讓":16410,"上百":16411,"公報":16412,"名嘴":16413,"忙碌":16414,"暑假":16415,"滅證":16416,"的社會":16417,"的挑戰":16418,"的時刻":16419,"等同":16420,"臨檢":16421,"華語":16422,"貼近":16423,"週末":16424,"都相當":16425,"11人":16426,"指揮中心指揮官":16427,"是否能":16428,"本國籍30多歲女性":16429,"印尼籍20至40多歲女性於1":16430,"上半場":16431,"但未":16432,"得點":16433,"想過":16434,"改進":16435,"春節":16436,"有心":16437,"流失":16438,"版的":16439,"登入":16440,"研討":16441,"類別":16442,"總統大選":16443,"一直以來":16444,"...<":16445,"日接受檢疫期滿前採檢確診":16446,"不敵":16447,"也認為":16448,"天堂":16449,"就很":16450,"手續":16451,"掉落":16452,"生病":16453,"畫質":16454,"腹痛":16455,"落網":16456,"訪台":16457,"超標":16458,"較少":16459,"適逢":16460,"零組件":16461,"預報":16462,"推薦十大":16463,"2公社":16464,"9成":16465,"不捨":16466,"僅剩":16467,"嚴厲":16468,"學歷":16469,"巡迴":16470,"抨擊":16471,"控訴":16472,"文中":16473,"玉米":16474,"的技術":16475,"相近":16476,"童年":16477,"要先":16478,"2020年11月":16479,"室外500":16480,"下水":16481,"之地":16482,"假設":16483,"寫作":16484,"復發":16485,"政院":16486,"模仿":16487,"笑稱":16488,"簽下":16489,"萬七":16490,"資費":16491,"跳舞":16492,"相關規定":16493,"音樂會":16494,"受訪者":16495,"不一定":16496,"兼具":16497,"則認為":16498,"在這裡":16499,"收視":16500,"溫柔":16501,"的原":16502,"膝蓋":16503,"荷包":16504,"裁罰":16505,"這點":16506,"雙城":16507,"馬達":16508,"只想":16509,"台新":16510,"戴好":16511,"於美國":16512,"求學":16513,"溫泉":16514,"牠們":16515,"萬名":16516,"確診後":16517,"感染者":16518,"擴大採檢":16519,"鋒面通過":16520,"簡單的":16521,"案1102":16522,"一把":16523,"偏高":16524,"封閉":16525,"無視":16526,"猜測":16527,"獨行":16528,"的長":16529,"省水":16530,"!!":16531,"但還是":16532,"分離":16533,"大礙":16534,"平方":16535,"日一同":16536,"是中國":16537,"書記":16538,"有一些":16539,"清除":16540,"致敬":16541,"舅舅":16542,"被敲":16543,"美國輝瑞":16544,"印尼籍30多歲男性":16545,"爆怨2公社":16546,"他對":16547,"兩地":16548,"幾次":16549,"有4":16550,"樂見":16551,"注重":16552,"游擊":16553,"澳大利":16554,"目睹":16555,"第26":16556,"陷阱":16557,"隨意":16558,"預售":16559,"龍蝦":16560,"2025年":16561,"進行消毒":16562,"12系列":16563,"今天宣布":16564,"死亡率":16565,"飲酒過量":16566,"再增13例":16567,"更多新聞推薦":16568,"5分鐘":16569,"主演":16570,"交保":16571,"內幕":16572,"募款":16573,"外科":16574,"外包商":16575,"居留":16576,"幽默":16577,"推升":16578,"模特":16579,"流出":16580,"的比例":16581,"罪名":16582,"自來":16583,"附上":16584,"10大":16585,"出現症狀":16586,"113":16587,"4名個案":16588,"澳大利亞":16589,"6於":16590,"不被":16591,"不顧":16592,"攻城":16593,"敵人":16594,"的症狀":16595,"突發":16596,"聲響":16597,"該怎麼":16598,"前年":16599,"師資":16600,"店的":16601,"往上":16602,"搶1":16603,"景觀":16604,"有能力":16605,"法治":16606,"的做法":16607,"皇帝":16608,"裡頭":16609,"較大":16610,"館長":16611,"這樣子":16612,"黨部主委":16613,"演唱者":16614,"6大":16615,"切除":16616,"存活":16617,"專法":16618,"工商":16619,"意志":16620,"行人":16621,"該案":16622,"證書":16623,"可能在":16624,"已經痊癒":16625,"醫療院所":16626,"加油站":16627,"補習班":16628,"5萬元":16629,";「":16630,"外洩":16631,"契機":16632,"女主角":16633,"態勢":16634,"某種":16635,"榮譽":16636,"缺貨":16637,"變電":16638,"迷你":16639,"難關":16640,"首場":16641,"黑暗":16642,"台灣人民":16643,"業者提供":16644,"案530":16645,"喜歡的":16646,"護理人員":16647,"6分":16648,"一座":16649,"一館":16650,"一家人":16651,"二代":16652,"他與":16653,"促成":16654,"卸任":16655,"抗旱":16656,"都去過":16657,"科技股":16658,"申請納入":16659,"流鼻水等症狀":16660,"原來是":16661,"不成":16662,"出任":16663,"勞基法":16664,"已成為":16665,"改名":16666,"普篩":16667,"祈求":16668,"納稅":16669,"缺失":16670,"車廠":16671,"驅離":16672,"驕傲":16673,"沒有辦法":16674,"之一的":16675,"聲明中":16676,"不清":16677,"快篩":16678,"教導":16679,"書中":16680,"櫃檯":16681,"氣得":16682,"消耗":16683,"熱點":16684,"輕忽":16685,"那邊":16686,"翻攝自台灣旅行趣":16687,"身體狀況":16688,"人道":16689,"到位":16690,"升學":16691,"及血清抗體":16692,"家暴":16693,"案37":16694,"機動":16695,"的日子":16696,"睽違":16697,"芒果":16698,"處境":16699,"週五":16700,"遊艇":16701,"都無法":16702,"陽台":16703,"食道":16704,"168":16705,"照片中":16706,"案1078":16707,"31日":16708,"日搭乘同一班機來臺工作":16709,"一陣":16710,"可愛的":16711,"均衡":16712,"正值":16713,"的世界":16714,"的專業":16715,"說服":16716,"風潮":16717,"全程配戴口罩":16718,"分區輪流停電":16719,"及通報":16720,"就已":16721,"斯拉":16722,"景象":16723,"會對":16724,"極限":16725,"讓使用者":16726,"共和國":16727,"且未與他人接觸":16728,"主治":16729,"務實":16730,"大事":16731,"應試":16732,"是被":16733,"油價":16734,"消除":16735,"的報導":16736,"的手機":16737,"的動作":16738,"農地":16739,"這群":16740,"運氣":16741,"那時":16742,"確診者足跡":16743,"年齡下修":16744,"不算":16745,"也已經":16746,"僅次":16747,"大腸":16748,"性格":16749,"旅程":16750,"檢調":16751,"沒了":16752,"海運":16753,"班級":16754,"田徑":16755,"由醫院":16756,"疲勞":16757,"病逝":16758,"老化":16759,"腹部":16760,"謠言":16761,"長久":16762,"飆升":16763,"黨中央":16764,"2009年":16765,"大使館":16766,"移送法辦":16767,"你可以":16768,"同為":16769,"地緣":16770,"客服":16771,"將繼續":16772,"屋內":16773,"投信":16774,"擬申請納入":16775,"的家人":16776,"貨運":16777,"跑者":16778,"醫藥":16779,"隔壁":16780,">》(<":16781,"消防人員":16782,"一杯":16783,"中崙":16784,"冰淇淋":16785,"切割":16786,"卻發現":16787,"吵架":16788,"日圓":16789,"最具":16790,"為避免":16791,"的資訊":16792,"的重點":16793,"金馬":16794,"釣出":16795,"開口":16796,"經濟發展":16797,"喉嚨不適":16798,"公開賽":16799,"住院治療":16800,"一輩子":16801,"全大運":16802,"微笑":16803,"法定":16804,"砲轟":16805,"胸部":16806,"能有":16807,"說到":16808,"起跳":16809,"輪胎":16810,"過關":16811,"個人申請":16812,"4月底":16813,"麥克風":16814,"卻有":16815,"在網路":16816,"民俗":16817,"沒多久":16818,"準確":16819,"王牌":16820,"番茄":16821,"第22":16822,"訂購":16823,"病毒株":16824,"加密貨幣":16825,"之1":16826,"大安":16827,"密度":16828,"巨蟹":16829,"懲罰":16830,"整備":16831,"曾是":16832,"移轉":16833,"空汙":16834,"腳踏":16835,"被控":16836,"走在":16837,"防線":16838,"驚呆":16839,"50年":16840,"真的有":16841,"擬申請納入緊急狀態":16842,"加權":16843,"包包":16844,"外海":16845,"天蠍":16846,"孫子":16847,"撤軍":16848,"段時間":16849,"的錢":16850,"的作品":16851,"耳朵":16852,"脖子":16853,"被警方":16854,"賣出":16855,"避開":16856,"網友紛紛留言":16857,"正常的":16858,"疫苗接種年齡下修":16859,"單日本土再增13例":16860,"茶藝館群聚案都去過":16861,"茶藝館群聚案都去過哪":16862,",」":16863,"侵略":16864,"地板":16865,"場的":16866,"查出":16867,"桃花":16868,"疑問":16869,"美台":16870,"脫困":16871,"製品":16872,"說了":16873,"都必須":16874,"靈感":16875,"頻傳":16876,"進行的":16877,"這樣做":16878,"的事實":16879,"全程佩戴口罩":16880,"並針對":16881,"停工":16882,"壽司":16883,"攔檢":16884,"日有":16885,"是因":16886,"是指":16887,"沿海":16888,"營區":16889,"的1":16890,"神奇":16891,"籌備":16892,"進行採檢確診":16893,"12例":16894,"兩岸關係":16895,"公會":16896,"履歷":16897,"後出現":16898,"有別":16899,"氣勢":16900,"為首":16901,"要是":16902,"香蕉":16903,"確實有":16904,"東京都":16905,"北海道擬申請納入緊急狀態":16906,"3號":16907,"4個月":16908,"一部":16909,"便是":16910,"內衣":16911,"去看":16912,"套房":16913,"慈善":16914,"特徵":16915,"至6":16916,"路徑":16917,"轉戰":16918,"都可":16919,"都知道":16920,"英國變異株":16921,"日出現發燒症狀":16922,"抗體陽性":16923,"絕對是":16924,"菲律賓籍20多歲男性移工":16925,"出沒":16926,"在新":16927,"學科":16928,"宇宙":16929,"日舉行":16930,"案100":16931,"火速":16932,"等因素":16933,"荷爾蒙":16934,"要怎麼":16935,"基本面":16936,"7時":16937,"一國":16938,"佈局":16939,"做事":16940,"北北":16941,"合格":16942,"善用":16943,"就像是":16944,"層次":16945,"巨頭":16946,"擅長":16947,"攝護":16948,"約談":16949,"給她":16950,"綠電":16951,"說自己":16952,"追加":16953,"生活中":16954,"公投案":16955,"自動駕駛":16956,"只剩下":16957,"百家樂":16958,"全廠停機":16959,"倒地":16960,"公教":16961,"地主":16962,"巴基":16963,"擴增":16964,"深耕":16965,"烘焙":16966,"疏失":16967,"的2":16968,"的事件":16969,"粉紅":16970,"請民眾":16971,"超跑":16972,"禁止飲食":16973,"排黑條款":16974,"攝護腺":16975,"主投":16976,"五十":16977,"人間":16978,"大同":16979,"尊嚴":16980,"已將":16981,"廠房":16982,"戴著":16983,"接續":16984,"放射":16985,"有肌":16986,"涉毒":16987,"的看法":16988,"節能":16989,"101":16990,"」。▲<":16991,"其他地區":16992,"無法接受":16993,"60萬":16994,"回升":16995,"手搖":16996,"核災":16997,"業的":16998,"療法":16999,"缺電":17000,"虐待":17001,"誠意":17002,"變數":17003,"車隊":17004,"通勤":17005,"遺失":17006,"甚至在":17007,",《<":17008,"兩款":17009,"圖像":17010,"寬鬆":17011,"清零":17012,"綠燈":17013,"跟進":17014,"鄉鎮":17015,"防疫破口":17016,"當地檢出":17017,"巴基斯坦":17018,"付款":17019,"按鍵":17020,"書面":17021,"紅襪":17022,"老虎":17023,"螞蟻":17024,"要做":17025,"org16":17026,"11點":17027,"指揮部":17028,"40年":17029,"專業的":17030,"輕鬆報稅":17031,"執勤至美國":17032,"滿意度":17033,"不符合":17034,"兩周":17035,"嫌疑":17036,"急速":17037,"把它":17038,"為陽性":17039,"的案例":17040,"與家人":17041,"要到":17042,"諮商":17043,"轉彎":17044,"逃離":17045,"這是一個":17046,"3度":17047,"供參考":17048,"匿名":17049,"家鄉":17050,"巨大的":17051,"所學校":17052,"是美國":17053,"更快":17054,"永久":17055,"盡可能":17056,"肉品":17057,"量能":17058,"降溫":17059,"頭皮":17060,"高科技":17061,"就是在":17062,"員工確診":17063,"醫療口罩":17064,"追蹤報導":17065,"上車":17066,"供稱":17067,"保有":17068,"僅是":17069,"兒少":17070,"出租":17071,"制服":17072,"天空":17073,"引用":17074,"挺台":17075,"歲女童":17076,"現年":17077,"邀集":17078,"個案在臺期間並無症狀":17079,"提供給":17080,"受訪表示":17081,"永續發展":17082,"駐印度代表處":17083,"之道":17084,"保住":17085,"喝水":17086,"固醇":17087,"墾丁":17088,"定調":17089,"實作":17090,"惡性":17091,"投顧":17092,"書籍":17093,"為自己":17094,"被捕":17095,"身影":17096,"飲品":17097,"2010年":17098,"醫療資源":17099,"8000":17100,"以便":17101,"偷拍":17102,"在2019年":17103,"姓教練":17104,"安平":17105,"往年":17106,"科長":17107,"缺口":17108,"腸道":17109,"週四":17110,"都說":17111,"隨機":17112,"來自於":17113,"宜蘭遊藝場":17114,"恢復供電":17115,"防護衣":17116,"獨行俠":17117,"之旅":17118,"值34":17119,"只需":17120,"學金":17121,"投影":17122,"標誌":17123,"等方式":17124,"簡報":17125,"緩慢":17126,"菁英":17127,"菜鳥":17128,"認可":17129,"負起":17130,"那樣":17131,"阻礙":17132,"可以透過":17133,"房務部":17134,"均有適當防護":17135,"有肌勵":17136,"命理":17137,"幹事":17138,"拉克":17139,"散播":17140,"民宿":17141,"照曝光":17142,"繁榮":17143,"首批":17144,"新竹縣":17145,"實在太":17146,"組成的":17147,"後送就醫":17148,"美國輝瑞疫苗接種年齡下修":17149,"嚴肅":17150,"女的":17151,"姐姐":17152,"展演":17153,"想不到":17154,"搭機前3日內":17155,"最少":17156,"的男子":17157,"的遊戲":17158,"被人":17159,"。▲▼":17160,"便利性":17161,"-)":17162,"4次":17163,"五號":17164,"他和":17165,"遵循":17166,"駕車":17167,"一個中國":17168,"教練團":17169,"宣告不治":17170,"不吃":17171,"伴隨":17172,"倘若":17173,"公關":17174,"分的":17175,"利多":17176,"大臣":17177,"奧斯":17178,"應付":17179,"披露":17180,"病史":17181,"走上":17182,"麗菜":17183,"美國籍":17184,"其中1":17185,"所有眉角":17186,"新制小確幸":17187,"滑手機輕鬆報稅":17188,"大三元":17189,"所有眉角看這裡":17190,"2女":17191,"3位":17192,"8元":17193,"偷偷":17194,"州的":17195,"已超過":17196,"正向":17197,"火葬":17198,"總會":17199,"至英國就學":17200,"要如何":17201,"更多追蹤報導":17202,"這個問題":17203,"法國就學":17204,"值得注意的是":17205,"日入境臺灣":17206,"皆為陽性":17207,"印地安人":17208,"4局":17209,"不可以":17210,"備用":17211,"全台灣":17212,"專責":17213,"接送":17214,"派對":17215,"滾地球":17216,"白人":17217,"的軍事":17218,"舒緩":17219,"見的":17220,"都更":17221,"首爾":17222,"防疫物資":17223,"空氣品質":17224,"健身房":17225,"同班機前":17226,"信號":17227,"在哪裡":17228,"改寫":17229,"男方":17230,"當你":17231,"的女":17232,"草莓":17233,"蔬果":17234,"護國":17235,"這兩個":17236,"10元":17237,"美國探親":17238,">,「":17239,"國內累計":17240,"第二波":17241,"資料來源":17242,"外界質疑":17243,"為主題":17244,"中時新聞網":17245,"仇恨犯罪":17246,"°<":17247,"一是":17248,"一百":17249,"也非常":17250,"內外":17251,"卡在":17252,"台日":17253,"在未來":17254,"多萬":17255,"想辦法":17256,"會影響":17257,"條規定":17258,"極度":17259,"槍枝":17260,"沙發":17261,"無預警":17262,"繳交":17263,"與前":17264,"財神":17265,"預訂":17266,"失去嗅覺":17267,"上半年":17268,"之意":17269,"也以":17270,"傑出":17271,"出事":17272,"回復":17273,"填寫":17274,"壽命":17275,"州長":17276,"後仍":17277,"擴展":17278,"會先":17279,"約3":17280,"行事":17281,"顯見":17282,"點心":17283,"所以我":17284,"營業場所":17285,"但也有":17286,"何況":17287,"優點":17288,"好運":17289,"年華":17290,"後疫情":17291,"手的":17292,"氣的":17293,"滾動":17294,"病變":17295,"的最大":17296,"繁殖":17297,"與此":17298,"花旗":17299,"這部分":17300,"並不會":17301,"伺服":17302,"只不過":17303,"台海":17304,"多款":17305,"是為":17306,"歡慶":17307,"的權利":17308,"第45":17309,"聆聽":17310,"提供了":17311,"入境時因":17312,"娛樂中心":17313,"主治醫師":17314,"低溫":17315,"加薪":17316,"去了":17317,"友好":17318,"很開心":17319,"應援":17320,"推估":17321,"替補":17322,"獨居":17323,"由此":17324,"體積":17325,"需要的":17326,"小客車":17327,"1號":17328,"下了":17329,"修訂":17330,"劑量":17331,"灰色":17332,"的決心":17333,"目光":17334,"自願":17335,"辭職":17336,"雞肉":17337,"印尼工作":17338,"一直到":17339,"有效的":17340,"味覺及":17341,"經紀人":17342,"上岸":17343,"勸導":17344,"拿起":17345,"掙扎":17346,"攸關":17347,"致電":17348,"蓄水":17349,"記載":17350,"雷射":17351,"美國國務卿":17352,"合作夥伴":17353,"案1136":17354,"至少有":17355,"全身無力":17356,"那麼多":17357,"超音波":17358,"以確保":17359,"像素":17360,"兩黨":17361,"半數":17362,"基準":17363,"堅強":17364,"報道":17365,"扭曲":17366,"日正式":17367,"賽程":17368,"開的":17369,"國內疫情升溫":17370,"能源轉型":17371,"為求慎重":17372,"請見諒":17373,":(":17374,"也因":17375,"五股":17376,"光芒":17377,"加持":17378,"包裹":17379,"周三":17380,"多頭":17381,"市政":17382,"愛國":17383,"新店":17384,"案45":17385,"民代":17386,"濫用":17387,"職人":17388,"與案5":17389,"舊金山":17390,"闖紅燈":17391,"阿根":17392,"降落":17393,"個案檢疫期滿後":17394,"其中1人":17395,"健康狀況":17396,"同時也是":17397,"2020年9月":17398,"出國日2019":17399,"文章轉載請註明出處":17400,"婚姻平權":17401,"解析度":17402,"自來水":17403,"已經痊癒出院":17404,"上榜":17405,"串流":17406,"串聯":17407,"之家":17408,"交出":17409,"修憲":17410,"客製":17411,"廢除":17412,"教會":17413,"曖昧":17414,"網球":17415,"購入":17416,"陪病":17417,"離譜":17418,"電量":17419,"鬆綁":17420,"外媒報導":17421,"駐日代表":17422,"伊斯":17423,"前景":17424,"及相關":17425,"和中國":17426,"奉獻":17427,"她認為":17428,"廣東":17429,"猶豫":17430,"症候":17431,"的服務":17432,"與日本":17433,"賦予":17434,"起初":17435,"這筆":17436,"更多生活":17437,"所以我們":17438,"節目中":17439,"不錯的":17440,"正確的":17441,"現代人":17442,"銀河百家樂":17443,"辦事處":17444,"下秒":17445,"八卦":17446,"反駁":17447,"吃完":17448,"天母":17449,"失守":17450,"干涉":17451,"影展":17452,"芝麻":17453,"輪限電":17454,"的人數":17455,"一定的":17456,"槍擊案":17457,"並依指示配戴口罩":17458,"模特兒":17459,"阿根廷":17460,"兩家":17461,"往後":17462,"樣貌":17463,"澳門":17464,"發光":17465,"答應":17466,"網民":17467,"花園":17468,"讓媽媽":17469,"邊坡":17470,"一般民眾":17471,"攝影師":17472,"外交政策":17473,"億美元的":17474,"日來臺就學":17475,"他命":17476,"持刀":17477,"日凌晨":17478,"有名":17479,"消息人士":17480,"評委召集人":17481,"中市":17482,"備忘":17483,"到期":17484,"卻因":17485,"民營":17486,"海報":17487,"緩和":17488,"電費":17489,"進行居家隔離":17490,"上來":17491,"人文":17492,"分歧":17493,"分發":17494,"則可":17495,"反正":17496,"增進":17497,"寶島":17498,"特斯拉":17499,"西南":17500,"通道":17501,"電線":17502,"台灣大":17503,"美國在":17504,"和平穩定":17505,"花蓮縣":17506,"更多生活相關新聞":17507,"不順":17508,"副教授":17509,"吸睛":17510,"想知道":17511,"改編":17512,"生前":17513,"的核心":17514,"第30":17515,"背後的":17516,"較去年":17517,"體會":17518,"魔術":17519,"嚴重影響":17520,"數位轉型":17521,"酒精消毒":17522,"不良事件":17523,"以利及時診斷":17524,"攻城獅":17525,"7分":17526,"上揚":17527,"信賴":17528,"撞到":17529,"清查":17530,"破千":17531,"終盤":17532,"試著":17533,"超廣角":17534,"電子煙":17535,"備忘錄":17536,">」。":17537,"不聽":17538,"內戰":17539,"友誼":17540,"影劇":17541,"氣球":17542,"熱絡":17543,"的網友":17544,"的最佳":17545,"矚目":17546,"美髮":17547,"茶葉":17548,"貴人":17549,"買一":17550,"造訪":17551,"飛航":17552,"疫情擴散":17553,"接種後":17554,"返國後":17555,"因應疫情":17556,"體育館":17557,"白沙屯媽祖":17558,"伺服器":17559,"之接觸者":17560,"但我們":17561,"分類":17562,"十五":17563,"咖哩":17564,"太久":17565,"好不容易":17566,"專心":17567,"對她":17568,"度以上":17569,"甄選":17570,"稅額":17571,"等不適症狀":17572,"證件":17573,"馬斯":17574,"鼻子":17575,"聯合品牌":17576,"日接受檢疫期滿前採檢並確診":17577,"中部以北":17578,"阿公店":17579,"9名":17580,"也透露":17581,"傳真":17582,"勞保":17583,"場上":17584,"委屈":17585,"將依":17586,"德納":17587,"申訴":17588,"約定":17589,"臉上":17590,"至醫院就醫":17591,"藥局":17592,"都非常":17593,"可以讓":17594,"因為我":17595,"4月初":17596,"鼻塞症狀":17597,"]【<":17598,"也從":17599,"事前":17600,"則會":17601,"台電":17602,"幫你":17603,"愛上":17604,"獲勝":17605,"的天氣":17606,"超大":17607,"開庭":17608,"2017":17609,"因此無匡列接觸者":17610,"畢業典禮":17611,"頒獎典禮":17612,"%[":17613,"4家":17614,"之爭":17615,"大腿":17616,"席次":17617,"廠區":17618,"惡劣":17619,"抽菸":17620,"搭車":17621,"擁擠":17622,"日方":17623,"演奏":17624,"男的":17625,"等候":17626,"線條":17627,"老饕":17628,"躺在":17629,"迫使":17630,"退化":17631,"週六":17632,"那時候":17633,"值得一提":17634,"持續加強疫情監測與邊境管制措施":17635,"症候群":17636,"6搶1":17637,"中等":17638,"也必須":17639,"低潮":17640,"最重":17641,"標題":17642,"的標準":17643,"確切":17644,"職涯":17645,"釀成":17646,"開戰":17647,"非核":17648,"點數":17649,"111":17650,"並依指示配戴口罩儘速就醫":17651,"以利及時診斷及通報":17652,"中低":17653,"因預計":17654,"就必須":17655,"新手":17656,"的未來":17657,"社福":17658,"艱難":17659,"規律":17660,"返鄉":17661,"運河":17662,"主動告知醫師旅遊史":17663,"飛行員":17664,"僅供參考":17665,"姓女":17666,"抽獎":17667,"棒的":17668,"產後":17669,"的患者":17670,"紅線":17671,"裝潢":17672,"車手":17673,"民眾說":17674,"全面消毒":17675,"堅守":17676,"多起":17677,"建案":17678,"往下":17679,"現役":17680,"職災":17681,"開跑":17682,"org17":17683,"105":17684,"維持在":17685,"在地上":17686,"事務所":17687,"嗅味覺異常等症狀":17688,"上空":17689,"分組":17690,"功夫":17691,"化名":17692,"南區":17693,"口氣":17694,"市面上":17695,"攤商":17696,"曾被":17697,"曾接觸":17698,"格外":17699,"落跑":17700,"葬禮":17701,"買進":17702,"附加":17703,"確診數":17704,"有一天":17705,"股東會":17706,"重啟核四":17707,"多國":17708,"擾台":17709,"改採":17710,"教士":17711,"民法":17712,"海峽":17713,"隊的":17714,"高市":17715,"今天公布":17716,"第二個":17717,"怎麼樣":17718,"打造的":17719,"伊斯蘭":17720,"反制":17721,"日文":17722,"朝鮮":17723,"本質":17724,"簽名":17725,"跳機":17726,"還將":17727,"離去":17728,"per18":17729,"因為有":17730,"不過在":17731,"引發熱議":17732,"搭乘同班機":17733,"到底是":17734,"由仲介安排至":17735,"三項":17736,"也就":17737,"急促":17738,"推行":17739,"時說":17740,"更具":17741,"為空":17742,"無安打":17743,"相繼":17744,"經檢驗":17745,"聽說":17746,"請點此":17747,"階級":17748,"頭上":17749,"最高可":17750,"三次":17751,"再添":17752,"副局長":17753,"後衛":17754,"換新":17755,"炸彈":17756,"的意見":17757,"美景":17758,"莫德納":17759,"變形":17760,"首選":17761,"民眾對":17762,"現在就":17763,"攝影機":17764,"千萬不要":17765,"中毒":17766,"市占":17767,"鄉親":17768,"問題是":17769,"指揮中心公布":17770,"基礎建設":17771,"金曲獎":17772,"陽春砲":17773,"安撫":17774,"已採檢":17775,"擁抱":17776,"散熱":17777,"的網路":17778,"這幾年":17779,"遠遠":17780,"進行了":17781,"什麼事":17782,"民主國家":17783,"日起陸續出現咳嗽":17784,")」":17785,"人命":17786,"人群":17787,"博覽":17788,"又以":17789,"台大":17790,"吸菸":17791,"唯有":17792,"心肌":17793,"快閃":17794,"最長":17795,"橫跨":17796,"水的":17797,"照常":17798,"獨裁":17799,"翻覆":17800,"而他":17801,"高出":17802,"防疫計程車":17803,"安全帽":17804,"一起來":17805,"本國籍50多歲男性":17806,"建築物":17807,"可靠":17808,"吐司":17809,"在高雄":17810,"大媽":17811,"抖音":17812,"接軌":17813,"本地":17814,"查扣":17815,"漁業":17816,"發給":17817,"視力":17818,"訪談":17819,"誠實":17820,"醫事":17821,"餵食":17822,"傳染性":17823,"確診個案中":17824,"司令部":17825,"二壘安打":17826,"人行":17827,"作收":17828,"侵入":17829,"俗稱":17830,"凝聚":17831,"報請":17832,"我沒有":17833,"手持":17834,"日式":17835,"有信心":17836,"災情":17837,"的員工":17838,"要看":17839,"鑑於":17840,"驚覺":17841,"台灣疫情":17842,"50萬元":17843,"同時主動告知醫師旅遊史":17844,"運動影音":17845,"一帶一路":17846,"同時主動告知醫師旅遊史及接觸史":17847,"上萬":17848,"兩人的":17849,"到5":17850,"右外野":17851,"容忍":17852,"歐元":17853,"死因":17854,"法制":17855,"第21":17856,"路透":17857,"送回":17858,"是否為":17859,"桃園機場":17860,"旅行社":17861,"防疫旅宿進行居家檢疫":17862,"日由仲介安排":17863,"不振":17864,"了許多":17865,"公立":17866,"動保":17867,"口袋":17868,"大谷":17869,"夫人":17870,"學系":17871,"對自己":17872,"測量":17873,"無所":17874,"無需":17875,"考上":17876,"誤解":17877,"軌跡":17878,"」。「":17879,"便利商店":17880,"匯流排":17881,"日檢疫期滿前採檢結果為陰性":17882,"》。":17883,"也跟著":17884,"嗆聲":17885,"國土":17886,"散布":17887,"有2":17888,"盛行":17889,"達標":17890,"遭人":17891,"遺傳":17892,"配偶":17893,"10個":17894,"女性移工":17895,"其中一名":17896,"投資者":17897,"分享自己":17898,"需求的":17899,"落實防疫":17900,"時期的":17901,"半導體產業":17902,"立法委員":17903,"精彩運動影音":17904,"嗅味覺異常症狀":17905,"。”":17906,"並稱":17907,"圍堵":17908,"外表":17909,"店面":17910,"披薩":17911,"接待":17912,"敦促":17913,"有過":17914,"熱度":17915,"等罪":17916,"證照":17917,"週三":17918,"金塊":17919,"鎮壓":17920,"顏值":17921,"駕照":17922,"更多社會":17923,".../":17924,"種族滅絕":17925,"支持台灣參與":17926,"一線":17927,"保母":17928,"反萊豬":17929,"大都會":17930,"床上":17931,"得好":17932,"我真的":17933,"房貸":17934,"槍手":17935,"罰單":17936,"討債":17937,"貧窮":17938,"路過":17939,"闖進":17940,"世界各地":17941,"香港的":17942,"北部地區":17943,"的心情":17944,"亦有":17945,"分開":17946,"創始":17947,"南北":17948,"姐妹":17949,"抄截":17950,"撕裂":17951,"會比較":17952,"片段":17953,"郵件":17954,"電台":17955,"食安":17956,"死亡病例":17957,"染疫機師":17958,"年前的":17959,"新型冠狀病毒肺炎":17960,"航空器感染":17961,"公聽":17962,"去買":17963,"叫做":17964,"嚇傻":17965,"外流":17966,"布魯":17967,"快充":17968,"捲入":17969,"是可以":17970,"書店":17971,"比去年":17972,"誕生":17973,"107":17974,"12萬":17975,"11時":17976,"就是因為":17977,"國家主席":17978,"隔離檢疫":17979,"另一位":17980,"這一切":17981,"1200":17982,"不穩":17983,"人際":17984,"光學":17985,"感測":17986,"救濟":17987,"新光":17988,"櫃台":17989,"處的":17990,"說謊":17991,"1980":17992,"發生後":17993,"案838":17994,"紐約市":17995,"年齡介於20":17996,"前次自臺灣出境時間為":17997,"一手":17998,"三角":17999,"再以":18000,"同年":18001,"吸入":18002,"外國人":18003,"客觀":18004,"就得":18005,"屋頂":18006,"思議":18007,"戀情":18008,"未知":18009,"桌上":18010,"檳榔":18011,"死了":18012,"氣質":18013,"皆持有登機前3日內核酸檢驗陰性報告":18014,"看診":18015,"空調":18016,"結節":18017,"蘿蔔":18018,"調降":18019,"什麼時候":18020,"就有網友":18021,"日由公司安排":18022,"嗅覺異常症狀":18023,"種族歧視":18024,"第三級警戒":18025,"520":18026,"但不":18027,"單價":18028,"夜晚":18029,"應是":18030,"改裝":18031,"改選":18032,"更進一步":18033,"水餃":18034,"的日本":18035,"的承諾":18036,"等議題":18037,"邁進":18038,"人員的":18039,"的一種":18040,"血清抗體陽性":18041,"至美國就學":18042,"航運股":18043,"更重要的是":18044,"交叉":18045,"份量":18046,"分隊":18047,"在該":18048,"最嚴重":18049,"條約":18050,"槍斃":18051,"海邊":18052,"濃煙":18053,"炒作":18054,"為機場防疫旅館":18055,"玩遊戲":18056,"發明":18057,"自爆":18058,"被網友":18059,"試辦":18060,"超強":18061,"預言":18062,"骨頭":18063,"案1090":18064,"進一步調查":18065,"生命危險":18066,"成員國":18067,"為什麼要":18068,"參選人":18069,"如有發燒":18070,")「":18071,"噪音":18072,"在台中":18073,"在現場":18074,"天秤":18075,"拍片":18076,"會場":18077,"殖民":18078,"活化":18079,"演技":18080,"為1":18081,"聽聞":18082,"脆弱":18083,"與否":18084,"色的":18085,"跳脫":18086,"農村":18087,"遍布":18088,"目前正":18089,"15分":18090,"學校的":18091,"母親節快樂":18092,"不服":18093,"可憐":18094,"型號":18095,"妥協":18096,"學士":18097,"年僅":18098,"抱持":18099,"有不適症狀":18100,"沒能":18101,"甜美":18102,"的家庭":18103,"船長":18104,"甚至連":18105,"的一些":18106,"醫院自費採檢並確診":18107,"知名的":18108,"宿舍自主健康管理":18109,"7個":18110,"並提供":18111,"伯斯":18112,"外銷":18113,"察覺":18114,"從而":18115,"承辦":18116,"指南":18117,"為基礎":18118,"百度":18119,"細緻":18120,"自責":18121,"台灣鳳梨":18122,"研究團隊":18123,"技術的":18124,"印象深刻":18125,"通緝犯":18126,"240":18127,"不合理":18128,"並至":18129,"主廚":18130,"但對於":18131,"兩制":18132,"北台灣":18133,"和美國":18134,"寫的":18135,"把自己":18136,"椅子":18137,"無虞":18138,"犯行":18139,"甲狀":18140,"發熱":18141,"的運動":18142,"直覺":18143,"與國際":18144,"身障":18145,"高興":18146,"190":18147,"30通報":18148,"相關症狀":18149,"世界各國":18150,"死亡個案":18151,"出國日1":18152,"出國日3":18153,"案586":18154,"案61":18155,"3人確診":18156,"競爭對手":18157,"因工作於":18158,"由機場檢疫人員安排":18159,"日自印尼搭機":18160,"出國日期為1":18161,"不公平":18162,"並對":18163,"協力":18164,"把他":18165,"拉麵":18166,"暖心":18167,"曾至":18168,"淘汰":18169,"由校方":18170,"的父親":18171,"總冠軍賽":18172,"聽取":18173,"配息":18174,"閉門":18175,"開工":18176,"飆漲":18177,"可以用":18178,"出現的":18179,"目前有":18180,"企業的":18181,"2例航空器感染":18182,"太魯閣號事故":18183,"內行人":18184,"值得一提的是":18185,"不限":18186,"之虞":18187,"函送":18188,"檢體":18189,"款項":18190,"發的":18191,"的樣子":18192,"看的":18193,"110學年度":18194,"專案採檢":18195,"76人":18196,"保證金":18197,"核廢料":18198,"變電所":18199,"前輩":18200,"動用":18201,"從沒":18202,"時就":18203,"發酵":18204,"美學":18205,"自去年":18206,"輸球":18207,"違背":18208,"體能":18209,"鬥爭":18210,"外交部長":18211,"1例不明":18212,"出貨量":18213,"2萬元":18214,"5公尺":18215,"8分":18216,"全中":18217,"同盟":18218,"嘴巴":18219,"完封":18220,"指令":18221,"會更":18222,"柴油":18223,"熱帶":18224,"痕跡":18225,"算法":18226,"職位":18227,"當然是":18228,"大量的":18229,"甲狀腺":18230,"()":18231,"四肢":18232,"婚變":18233,"尋獲":18234,"巴士":18235,"所稅":18236,"攻防":18237,"曾於1":18238,"樣本":18239,"火化":18240,"當代":18241,"的無":18242,"筆錄":18243,"糖世代":18244,"臺北市":18245,"都得":18246,"首創":18247,"高教":18248,"70歲":18249,"價值觀":18250,"視訊會議":18251,"移除為空":18252,"已初步掌握個案接觸者":18253,"2元":18254,"2號":18255,"一號":18256,"任意":18257,"停擺":18258,"嘉年華":18259,"慰問":18260,"應有":18261,"擷自":18262,"旗下的":18263,"春訓":18264,"最主要":18265,"板凳":18266,"海嘯":18267,"買氣":18268,"跌停":18269,"都不是":18270,"錄製":18271,"院會":18272,"今年初":18273,"2020年8月":18274,"研究人員":18275,"燃煤機組":18276,"驅逐艦":18277,"移除為空號":18278,"3億":18279,"6億":18280,"不希望":18281,"值33":18282,"兩週":18283,"前線":18284,"周四":18285,"投進":18286,"挨轟":18287,"決勝":18288,"疑惑":18289,"菜單":18290,"鋼琴":18291,"離世":18292,"媽媽們":18293,"呼吸急促":18294,"3月底":18295,"日入境台灣":18296,"併發症":18297,"更多社會相關新聞":18298,"仍以":18299,"六月":18300,"刺青":18301,"參謀":18302,"囤房":18303,"後也":18304,"戰備":18305,"推翻":18306,"救出":18307,"百元":18308,"積分":18309,"肝臟":18310,"這支":18311,"遏止":18312,"隨之":18313,"飛官":18314,"點的":18315,"覺得自己":18316,"90元":18317,"宜蘭羅東":18318,"案1202":18319,"過來人":18320,"獨特的":18321,"1女":18322,"3倍":18323,"7000":18324,"並列":18325,"出勤":18326,"另1例":18327,"多多":18328,"年減":18329,"心碎":18330,"教材":18331,"東方":18332,"汐止":18333,"清明":18334,"環節":18335,"裁決":18336,"觸身":18337,"買單":18338,"。」▲<":18339,"檢驗報告":18340,"結果顯示":18341,"!」[":18342,"都會有":18343,"購物中心":18344,"上一軍":18345,"。」,":18346,"不一":18347,"不開":18348,"友邦":18349,"同框":18350,"單親":18351,"寶座":18352,"延誤":18353,"彌補":18354,"特種":18355,"絕不":18356,"被動":18357,"高喊":18358,"高麗菜":18359,"醫院自費採檢":18360,"馬拉松":18361,"一到":18362,"上衣":18363,"仍可":18364,"來台灣":18365,"偏低":18366,"公鹿":18367,"外傳":18368,"姿態":18369,"水泥":18370,"溫室":18371,"神器":18372,"糟糕":18373,"這句話":18374,"這件事情":18375,"遭逮":18376,"關門":18377,"隻蟑螂":18378,"195":18379,"因為他們":18380,"傳染力":18381,"發電廠":18382,"心血管疾病":18383,"3千":18384,"8億":18385,"不平":18386,"公正":18387,"卻遭":18388,"就近":18389,"幼稚":18390,"患有":18391,"時空":18392,"源自":18393,"的後":18394,"的基本":18395,"芯片":18396,"起床":18397,"適度":18398,"高價":18399,"退休金":18400,"金牛座":18401,":《":18402,"在美":18403,"悠遊":18404,"敲安":18405,"新低":18406,"會繼續":18407,"未必":18408,"殺手":18409,"渴望":18410,"為確保":18411,"界線":18412,"試吃":18413,"都不能":18414,"題型":18415,"如果要":18416,"的人口":18417,"案1145":18418,"更新率":18419,"不可思議":18420,"言論自由":18421,"續航力":18422,"里程碑":18423,"5倍":18424,"5時":18425,"並透過":18426,"二館":18427,"他要":18428,"各家":18429,"平面":18430,"我知道":18431,"新秀":18432,"斷層":18433,"的多":18434,"而有":18435,"股息":18436,"荒謬":18437,"親民":18438,"車型":18439,"驚險":18440,"點擊":18441,"相關接觸者":18442,"傳統的":18443,"本來就":18444,"不良反應":18445,"一人一":18446,"一連串":18447,"與此同時":18448,"三倍":18449,"中最":18450,"之上":18451,"以致":18452,"但從":18453,"倒是":18454,"優良":18455,"在大陸":18456,"拜訪":18457,"有異":18458,"的意思":18459,"美人":18460,"調味":18461,"賈伯斯":18462,"辛勞":18463,"陪考":18464,"首要":18465,"身體健康":18466,"出境需要":18467,"三接外推":18468,"也太":18469,"他有":18470,"勇於":18471,"在2021年":18472,"對焦":18473,"徵文":18474,"感應":18475,"拉回":18476,"時會":18477,"狂飆":18478,"自撞":18479,"超狂":18480,"遭移除":18481,"選用":18482,"那裡":18483,"全球經濟":18484,"資料照片":18485,"的一切":18486,"南部地區":18487,"來看看":18488,"自助餐":18489,"燃氣機組":18490,"](":18491,"一樓":18492,"並指出":18493,"備起來":18494,"局處":18495,"已匡列":18496,"深深":18497,"男網友":18498,"職權":18499,"菜色":18500,"這隻":18501,"雖有":18502,"可能的":18503,"活動中心":18504,"相關資訊":18505,"研究中心":18506,"關注的":18507,"下一步":18508,"並向":18509,"公有":18510,"典範":18511,"分工":18512,"外套":18513,"整起":18514,"牽涉":18515,"的路":18516,"研習":18517,"碳排放":18518,"終端":18519,"身旁":18520,"這一次":18521,"連日":18522,"遠傳":18523,"適用於":18524,"阿伯":18525,"餅乾":18526,"2016":18527,"per19":18528,"甚至還有":18529,"100萬元":18530,"萬人次":18531,"原則上":18532,"日於當地":18533,"經紀公司":18534,"2億元":18535,"典型":18536,"地帶":18537,"樹林":18538,"水區":18539,"清爽":18540,"的計畫":18541,"眼光":18542,"製成":18543,"跟蹤":18544,"197":18545,"怎麼會":18546,">.<":18547,"住院隔離中":18548,"短時間內":18549,"則由":18550,"奔喪":18551,"將對":18552,"德基":18553,"性命":18554,"拉長":18555,"放送":18556,"最嚴重的":18557,"沒收":18558,"洗錢":18559,"特勤":18560,"這塊":18561,"進食":18562,"運行":18563,"餐會":18564,"體的":18565,"去年12月":18566,"上市櫃":18567,"北港朝天宮":18568,"股份有限公司":18569,"火葬場":18570,"博覽會":18571,",」<":18572,"一採":18573,"分散":18574,"到貨":18575,"前所":18576,"受疫情影響":18577,"周五":18578,"國旗":18579,"帶到":18580,"建物":18581,"我相信":18582,"挖角":18583,"揚言":18584,"放榜":18585,"氣憤":18586,"社宅":18587,"親屬":18588,"走過":18589,"開賽":18590,"開辦":18591,"更多財經":18592,"50分":18593,"健康網":18594,"指揮中心統計":18595,"另外還有":18596,"入境後至防疫旅館進行居家檢疫":18597,"開幕戰":18598,"這段期間":18599,"很高興":18600,"賈伯斯偏愛色":18601,"◢👉":18602,"但他們":18603,"偉大":18604,"到6":18605,"剩餘":18606,"北方":18607,"又在":18608,"單元":18609,"大廳":18610,"暴龍":18611,"有意義":18612,"武肺":18613,"鈔票":18614,"隔年":18615,"鮪魚":18616,"檢疫所":18617,"當地的":18618,"醫療體系":18619,"第4季":18620,"年齡層":18621,"因症狀持續":18622,"一套":18623,"包容":18624,"四強":18625,"對照":18626,"帝國":18627,"弱陽性":18628,"提報":18629,"撲滅":18630,"油脂":18631,"海南":18632,"跳出來":18633,"遍及":18634,"長住":18635,"都是在":18636,"不僅如此":18637,"中午12":18638,"所需的":18639,"匯流排故障":18640,"):":18641,"⋯⋯":18642,"以3":18643,"促銷":18644,"全方位":18645,"划算":18646,"前科":18647,"前者":18648,"導師":18649,"崗位":18650,"平民":18651,"慶生":18652,"是我們":18653,"有礙":18654,"酥雞":18655,"閨密":18656,"黑人":18657,"目標是":18658,"多歲至40多歲":18659,"地下水":18660,"東森新聞":18661,"觸控的":18662,"不解":18663,"全額":18664,"切換":18665,"列自我健康監測":18666,"失1分":18667,"引領":18668,"憑藉":18669,"才不會":18670,"新住民":18671,"新課綱":18672,"會館":18673,"有如":18674,"校外":18675,"爭奪":18676,"用手":18677,"的神":18678,"的資料":18679,"跟大家":18680,"車牌":18681,"迫害":18682,"頁面":18683,"美國和":18684,"其中一":18685,"生活品質":18686,"只要有":18687,"完全不":18688,"學習歷程":18689,"來台工作":18690,"必要性":18691,"上學":18692,"下半場":18693,"二壘打":18694,"企劃":18695,"個人的":18696,"找尋":18697,"於今":18698,"派人":18699,"窗戶":18700,"端午":18701,"謀殺":18702,"這天":18703,"選情":18704,"阻塞":18705,"陸戰隊":18706,"飛往":18707,"首局":18708,"20分鐘":18709,"106":18710,"的話題":18711,"餐飲業":18712,"遠距教學":18713,"仍持續":18714,"入園":18715,"台積":18716,"同一個":18717,"幾位":18718,"待在":18719,"散步":18720,"水中":18721,"無意":18722,"的你":18723,"的發生":18724,"的企業":18725,"的討論":18726,"與他":18727,"遺症":18728,"黑白":18729,"第一位":18730,"日出現輕微":18731,"變種病毒株":18732,"觸身球":18733,"一筆":18734,"位居":18735,"前所長":18736,"反而是":18737,"希臘":18738,"有成":18739,"活潑":18740,"混住":18741,"特點":18742,"秘訣":18743,"空襲":18744,"難民":18745,"雨水":18746,"台北清真寺":18747,"邀請函":18748,"65歲以上":18749,"自行服藥未就醫":18750,"著作權":18751,"!」,":18752,"並有":18753,"件數":18754,"命題":18755,"季減":18756,"市價":18757,"座椅":18758,"特區":18759,"約4":18760,"膨脹":18761,"蝦皮":18762,"贏家":18763,"越多":18764,"軍公教":18765,"首轟":18766,"鬧事":18767,"症狀持續":18768,"疫情擴大":18769,"隔離採檢":18770,"工程車":18771,"諾富特案":18772,"萬華茶藝館":18773,"成年人":18774,"東半部地區":18775,"雙魚座":18776,"900元":18777,"一番":18778,"低迷":18779,"便能":18780,"周一":18781,"士氣":18782,"布袋":18783,"溫和":18784,"當街":18785,"竊取":18786,"結盟":18787,"茶館":18788,"要將":18789,"談論":18790,"走入":18791,"邦交":18792,"重罰":18793,"案1183":18794,"開發者":18795,"有效率":18796,"下手":18797,"中將":18798,"之聲":18799,"內有":18800,"匯款":18801,"回事":18802,"復原":18803,"換言之":18804,"月亮":18805,"有位":18806,"歡樂":18807,"漲勢":18808,"犯規":18809,"異議":18810,"的我":18811,"花生":18812,"速食":18813,"飛球":18814,"鳥類":18815,"152":18816,"手機的":18817,"看到的":18818,"70多歲女性":18819,"上發文":18820,"不著":18821,"但沒有":18822,"優雅":18823,"出場":18824,"取締":18825,"受不了":18826,"我家":18827,"技職":18828,"救人":18829,"曬出":18830,"朝聖":18831,"沒問題":18832,"泌尿":18833,"龐大的":18834,"日本人":18835,"世界的":18836,"手機報稅":18837,"產業發展":18838,"這一點":18839,"行政區":18840,"搭機返台":18841,"5至":18842,"串連":18843,"名學生":18844,"天文":18845,"好物":18846,"官司":18847,"宣判":18848,"急著":18849,"放到":18850,"滿月":18851,"漁港":18852,"生下":18853,"疏忽":18854,"病友":18855,"病故":18856,"的言論":18857,"皇家":18858,"礁溪":18859,"經通報":18860,"興起":18861,"被逮":18862,"西部":18863,"購屋":18864,"郵輪":18865,"希望可以":18866,"希望能夠":18867,"評估後":18868,"研發的":18869,"事發後":18870,"活動史及接觸史":18871,"不宜":18872,"之星":18873,"亮度":18874,"伊拉克":18875,"分期":18876,"實戰":18877,"寫真":18878,"平地":18879,"打得":18880,"書寫":18881,"注入":18882,"為一起":18883,"當機":18884,"的程度":18885,"街道":18886,"費城":18887,"路竹":18888,"輪值":18889,"運量":18890,"更多國際":18891,"台北國際":18892,"面對面":18893,"醫療專機":18894,"史上最":18895,"升空":18896,"學弟":18897,"官邸":18898,"形同":18899,"海面":18900,"濃厚":18901,"的紀錄":18902,"真人":18903,"紙本":18904,"絕佳":18905,"調理":18906,"起跑":18907,"趁機":18908,"身價":18909,"逃生":18910,"那天":18911,"長度":18912,"隔日":18913,"其他網友":18914,"截至目前國內累計":18915,"1確診":18916,"再現":18917,"化身":18918,"右側":18919,"回流":18920,"家具":18921,"對不起":18922,"撰文":18923,"新德里":18924,"昔日":18925,"沉默":18926,"燈光":18927,"畫家":18928,"言語":18929,"豪門":18930,"連霸":18931,"進化":18932,"過濾":18933,"重劃":18934,"電機":18935,"順位":18936,"願望":18937,"籍20多歲女性":18938,"2名個案":18939,"意識形態":18940,"你有":18941,"分店":18942,"可疑":18943,"合成":18944,"圖文":18945,"曾表示":18946,"此項":18947,"的文章":18948,"的趨勢":18949,"赴美":18950,"邀約":18951,"高峰會":18952,"自費採檢後確診":18953,"幾乎是":18954,"知名度":18955,"唯一的":18956,"黑衣人闖入":18957,"早餐店":18958,"最重要的是":18959,"之戰":18960,"交友":18961,"低估":18962,"侮辱":18963,"前立委":18964,"問卷":18965,"學業":18966,"完後":18967,"得起":18968,"會前":18969,"母女":18970,"登船":18971,"罹癌":18972,"衝進":18973,"這座":18974,"錯了":18975,"鐵道":18976,"雙位數":18977,"音效":18978,"台灣防疫":18979,
[...]
