{"version":"1.0","truncation":null,"padding":null,"added_tokens":[{"id":0,"special":true,"content":"<unk>","single_word":false,"lstrip":false,"rstrip":false,"normalized":false},{"id":1,"special":true,"content":"[CLS]","single_word":false,"lstrip":false,"rstrip":false,"normalized":false},{"id":2,"special":true,"content":"[SEP]","single_word":false,"lstrip":false,"rstrip":false,"normalized":false},{"id":3,"special":true,"content":"[PAD]","single_word":false,"lstrip":false,"rstrip":false,"normalized":false},{"id":4,"special":true,"content":"[MASK]","single_word":false,"lstrip":false,"rstrip":false,"normalized":false},{"id":5,"special":true,"content":"<en>","single_word":false,"lstrip":false,"rstrip":false,"normalized":false},{"id":6,"special":true,"content":"<num>","single_word":false,"lstrip":false,"rstrip":false,"normalized":false},{"id":7,"special":true,"content":"<per0>","single_word":false,"lstrip":false,"rstrip":false,"normalized":false},{"id":8,"special":true,"content":"<per1>","single_word":false,"lstrip":false,"rstrip":false,"normalized":false},{"id":9,"special":true,"content":"<per2>","single_word":false,"lstrip":false,"rstrip":false,"normalized":false},{"id":10,"special":true,"content":"<per3>","single_word":false,"lstrip":false,"rstrip":false,"normalized":false},{"id":11,"special":true,"content":"<per4>","single_word":false,"lstrip":false,"rstrip":false,"normalized":false},{"id":12,"special":true,"content":"<per5>","single_word":false,"lstrip":false,"rstrip":false,"normalized":false},{"id":13,"special":true,"content":"<per6>","single_word":false,"lstrip":false,"rstrip":false,"normalized":false},{"id":14,"special":true,"content":"<per7>","single_word":false,"lstrip":false,"rstrip":false,"normalized":false},{"id":15,"special":true,"content":"<per8>","single_word":false,"lstrip":false,"rstrip":false,"normalized":false},{"id":16,"special":true,"content":"<per9>","single_word":false,"lstrip":false,"rstrip":false,"normalized":false},{"id":17,"special":true,"content":"<org0>","single_word":false,"lstrip":false,"rstrip":false,"normalized":false},{"id":18,"special":true,"content":"<org1>","single_word":false,"lstrip":false,"rstrip":false,"normalized":false},{"id":19,"special":true,"content":"<org2>","single_word":false,"lstrip":false,"rstrip":false,"normalized":false},{"id":20,"special":true,"content":"<org3>","single_word":false,"lstrip":false,"rstrip":false,"normalized":false},{"id":21,"special":true,"content":"<org4>","single_word":false,"lstrip":false,"rstrip":false,"normalized":false},{"id":22,"special":true,"content":"<org5>","single_word":false,"lstrip":false,"rstrip":false,"normalized":false},{"id":23,"special":true,"content":"<org6>","single_word":false,"lstrip":false,"rstrip":false,"normalized":false},{"id":24,"special":true,"content":"<org7>","single_word":false,"lstrip":false,"rstrip":false,"normalized":false},{"id":25,"special":true,"content":"<org8>","single_word":false,"lstrip":false,"rstrip":false,"normalized":false},{"id":26,"special":true,"content":"<org9>","single_word":false,"lstrip":false,"rstrip":false,"normalized":false},{"id":27,"special":true,"content":"<loc0>","single_word":false,"lstrip":false,"rstrip":false,"normalized":false},{"id":28,"special":true,"content":"<loc1>","single_word":false,"lstrip":false,"rstrip":false,"normalized":false},{"id":29,"special":true,"content":"<loc2>","single_word":false,"lstrip":false,"rstrip":false,"normalized":false},{"id":30,"special":true,"content":"<loc3>","single_word":false,"lstrip":false,"rstrip":false,"normalized":false},{"id":31,"special":true,"content":"<loc4>","single_word":false,"lstrip":false,"rstrip":false,"normalized":false},{"id":32,"special":true,"content":"<loc5>","single_word":false,"lstrip":false,"rstrip":false,"normalized":false},{"id":33,"special":true,"content":"<loc6>","single_word":false,"lstrip":false,"rstrip":false,"normalized":false},{"id":34,"special":true,"content":"<loc7>","single_word":false,"lstrip":false,"rstrip":false,"normalized":false},{"id":35,"special":true,"content":"<loc8>","single_word":false,"lstrip":false,"rstrip":false,"normalized":false},{"id":36,"special":true,"content":"<loc9>","single_word":false,"lstrip":false,"rstrip":false,"normalized":false}],"normalizer":null,"pre_tokenizer":{"type":"Whitespace"},"post_processor":null,"decoder":null,"model":{"type":"BPE","dropout":null,"unk_token":"<unk>","continuing_subword_prefix":null,"end_of_word_suffix":null,"fuse_unk":false,"vocab":{"<unk>":0,"[CLS]":1,"[SEP]":2,"[PAD]":3,"[MASK]":4,"<en>":5,"<num>":6,"<per0>":7,"<per1>":8,"<per2>":9,"<per3>":10,"<per4>":11,"<per5>":12,"<per6>":13,"<per7>":14,"<per8>":15,"<per9>":16,"<org0>":17,"<org1>":18,"<org2>":19,"<org3>":20,"<org4>":21,"<org5>":22,"<org6>":23,"<org7>":24,"<org8>":25,"<org9>":26,"<loc0>":27,"<loc1>":28,"<loc2>":29,"<loc3>":30,"<loc4>":31,"<loc5>":32,"<loc6>":33,"<loc7>":34,"<loc8>":35,"<loc9>":36,"\b":37,"!":38,"\"":39,"#":40,"$":41,"%":42,"&":43,"'":44,"(":45,"*":46,"+":47,",":48,"-":49,".":50,"/":51,"0":52,"1":53,"2":54,"3":55,"4":56,"5":57,"6":58,"7":59,"8":60,"9":61,":":62,";":63,"<":64,"=":65,">":66,"?":67,"@":68,"E":69,"P":70,"S":71,"[":72,"\\":73,"]":74,"^":75,"_":76,"`":77,"c":78,"e":79,"g":80,"k":81,"l":82,"m":83,"n":84,"o":85,"p":86,"r":87,"u":88,"{":89,"|":90,"}":91,"~":92,"":93,"":94,"£":95,"¥":96,"©":97,"«":98,"¬":99,"­":100,"®":101,"°":102,"±":103,"·":104,"»":105,"×":106,"÷":107,"ˇ":108,"ˊ":109,"ˋ":110,"ˍ":111,"ˎ":112,"́":113,"̇":114,"̊":115,"̣":116,"͟":117,"Β":118,"Δ":119,"Σ":120,"Ω":121,"α":122,"β":123,"γ":124,"δ":125,"η":126,"μ":127,"π":128,"ρ":129,"ς":130,"υ":131,"ω":132,"Ѕ":133,"А":134,"Б":135,"В":136,"Д":137,"Ж":138,"З":139,"И":140,"К":141,"М":142,"Н":143,"О":144,"П":145,"Р":146,"Т":147,"Я":148,"а":149,"б":150,"в":151,"г":152,"д":153,"е":154,"ж":155,"з":156,"и":157,"й":158,"к":159,"л":160,"м":161,"н":162,"о":163,"п":164,"р":165,"с":166,"т":167,"у":168,"ф":169,"х":170,"ц":171,"ч":172,"ш":173,"щ":174,"ы":175,"ь":176,"я":177,"א":178,"ב":179,"ג":180,"ז":181,"י":182,"כ":183,"נ":184,"ש":185,"،":186,"ء":187,"آ":188,"أ":189,"ؤ":190,"إ":191,"ئ":192,"ا":193,"ب":194,"ة":195,"ت":196,"ج":197,"ح":198,"خ":199,"د":200,"ذ":201,"ر":202,"ز":203,"س":204,"ش":205,"ص":206,"ط":207,"ظ":208,"ع":209,"غ":210,"ـ":211,"ف":212,"ق":213,"ك":214,"ل":215,"م":216,"ن":217,"ه":218,"و":219,"ى":220,"ي":221,"پ":222,"ځ":223,"چ":224,"ړ":225,"ژ":226,"ک":227,"ګ":228,"گ":229,"ھ":230,"ی":231,"ې":232,"ە":233,"۬":234,"ܼ":235,"݁":236,"ం":237,"ఈ":238,"ఎ":239,"క":240,"గ":241,"జ":242,"ట":243,"డ":244,"త":245,"ద":246,"న":247,"ప":248,"ఫ":249,"బ":250,"మ":251,"య":252,"ర":253,"ల":254,"వ":255,"స":256,"హ":257,"ా":258,"ి":259,"ీ":260,"ు":261,"ే":262,"ై":263,"ో":264,"్":265,"എ":266,"ഒ":267,"ക":268,"ച":269,"ജ":270,"ട":271,"ന":272,"പ":273,"മ":274,"ര":275,"റ":276,"ല":277,"ള":278,"ഴ":279,"വ":280,"ാ":281,"ി":282,"ീ":283,"ു":284,"െ":285,"േ":286,"ോ":287,"്":288,"ൽ":289,"ൾ":290,"ก":291,"ข":292,"ค":293,"ง":294,"จ":295,"ฉ":296,"ช":297,"ญ":298,"ณ":299,"ด":300,"ต":301,"ถ":302,"ท":303,"ธ":304,"น":305,"บ":306,"ป":307,"ผ":308,"พ":309,"ฟ":310,"ม":311,"ย":312,"ร":313,"ล":314,"ว":315,"ศ":316,"ส":317,"ห":318,"อ":319,"ะ":320,"ั":321,"า":322,"ิ":323,"ี":324,"ึ":325,"ื":326,"ุ":327,"ู":328,"เ":329,"แ":330,"โ":331,"ใ":332,"ไ":333,"ๆ":334,"็":335,"่":336,"้":337,"๊":338,"์":339,"მ":340,"ᗩ":341,"​":342,"‌":343,"‍":344,"‎":345,"‏":346,"–":347,"—":348,"―":349,"‘":350,"’":351,"‚":352,"“":353,"”":354,"„":355,"•":356,"‣":357,"‧":358,"‪":359,"‬":360,"‭":361,"‰":362,"′":363,"‵":364,"※":365,"⁄":366,"⁦":367,"⁩":368,"€":369,"Ↄ":370,"←":371,"↑":372,"→":373,"↓":374,"↘":375,"⇒":376,"−":377,"∕":378,"∙":379,"∞":380,"∴":381,"∶":382,"∼":383,"≈":384,"≠":385,"≤":386,"≥":387,"≧":388,"⋅":389,"⋯":390,"⌃":391,"⏩":392,"⏰":393,"─":394,"│":395,"╭":396,"╮":397,"╯":398,"╰":399,"╱":400,"╳":401,"▌":402,"▍":403,"▎":404,"■":405,"▪":406,"▲":407,"△":408,"▶":409,"▸":410,"►":411,"▼":412,"◀":413,"◆":414,"◇":415,"◊":416,"○":417,"◎":418,"●":419,"◢":420,"◤":421,"☀":422,"☂":423,"★":424,"☆":425,"☐":426,"☑":427,"☞":428,"☠":429,"☺":430,"♀":431,"♂":432,"♠":433,"♡":434,"♥":435,"♪":436,"♬":437,"♻":438,"♾":439,"⚠":440,"⚡":441,"⚪":442,"⚫":443,"⚽":444,"⛔":445,"⛸":446,"⛽":447,"✅":448,"✈":449,"✊":450,"✋":451,"✌":452,"✎":453,"✓":454,"✕":455,"✥":456,"✨":457,"❀":458,"❄":459,"❓":460,"❗":461,"❘":462,"❣":463,"❤":464,"❶":465,"❷":466,"➡":467,"➤":468,"⠀":469,"⬇":470,"⭐":471,"⭕":472,"、":473,"。":474,"々":475,"〇":476,"〈":477,"〉":478,"《":479,"》":480,"「":481,"」":482,"『":483,"』":484,"【":485,"〔":486,"〕":487,"〖":488,"〗":489,"〜":490,"〝":491,"〞":492,"〡":493,"゚":494,"ー":495,"ㄅ":496,"ㄆ":497,"ㄇ":498,"ㄈ":499,"ㄉ":500,"ㄊ":501,"ㄋ":502,"ㄌ":503,"ㄍ":504,"ㄎ":505,"ㄏ":506,"ㄐ":507,"ㄑ":508,"ㄒ":509,"ㄓ":510,"ㄔ":511,"ㄕ":512,"ㄖ":513,"ㄘ":514,"ㄚ":515,"ㄛ":516,"ㄜ":517,"ㄝ":518,"ㄞ":519,"ㄟ":520,"ㄠ":521,"ㄡ":522,"ㄢ":523,"ㄣ":524,"ㄤ":525,"ㄥ":526,"ㄦ":527,"ㄧ":528,"ㄨ":529,"ㄩ":530,"㑹":531,"㖔":532,"㗎":533,"㚬":534,"㝷":535,"㡳":536,"㦬":537,"㩗":538,"㩦":539,"㹴":540,"㼈":541,"䅲":542,"䆁":543,"䐟":544,"䕶":545,"䠷":546,"䡗":547,"䨝":548,"一":549,"丁":550,"七":551,"丅":552,"万":553,"丈":554,"三":555,"上":556,"下":557,"不":558,"与":559,"丐":560,"丑":561,"专":562,"且":563,"丕":564,"世":565,"丘":566,"丙":567,"业":568,"丛":569,"东":570,"丝":571,"丞":572,"丟":573,"両":574,"丢":575,"两":576,"严":577,"並":578,"丧":579,"丨":580,"个":581,"丫":582,"中":583,"丰":584,"串":585,"临":586,"丶":587,"丸":588,"丹":589,"为":590,"主":591,"丼":592,"丽":593,"举":594,"丿":595,"乀":596,"乃":597,"久":598,"么":599,"义":600,"之":601,"乌":602,"乍":603,"乎":604,"乏":605,"乐":606,"乑":607,"乒":608,"乓":609,"乔":610,"乖":611,"乗":612,"乘":613,"乙":614,"乜":615,"九":616,"乞":617,"也":618,"习":619,"乡":620,"书":621,"乩":622,"买":623,"乱":624,"乳":625,"乾":626,"亀":627,"亁":628,"亂":629,"了":630,"予":631,"争":632,"事":633,"二":634,"于":635,"亏":636,"云":637,"互":638,"亓":639,"五":640,"井":641,"亘":642,"亙":643,"亚":644,"些":645,"亜":646,"亞":647,"亟":648,"亡":649,"亢":650,"交":651,"亥":652,"亦":653,"产":654,"亨":655,"亩":656,"享":657,"京":658,"亭":659,"亮":660,"亲":661,"亳":662,"人":663,"亻":664,"亿":665,"什":666,"仁":667,"仃":668,"仄":669,"仅":670,"仆":671,"仇":672,"仉":673,"今":674,"介":675,"仍":676,"从":677,"仏":678,"仔":679,"仕":680,"他":681,"仗":682,"付":683,"仙":684,"仚":685,"仝":686,"仟":687,"代":688,"令":689,"以":690,"仦":691,"仨":692,"仪":693,"们":694,"仰":695,"仲":696,"件":697,"价":698,"任":699,"仼":700,"份":701,"仿":702,"企":703,"伃":704,"伉":705,"伊":706,"伍":707,"伎":708,"伏":709,"伐":710,"休":711,"伕":712,"众":713,"优":714,"伙":715,"会":716,"伝":717,"伞":718,"伟":719,"传":720,"伤":721,"伦":722,"伪":723,"伯":724,"估":725,"伴":726,"伶":727,"伸":728,"伺":729,"似":730,"伽":731,"佃":732,"但":733,"佇":734,"佈":735,"位":736,"低":737,"住":738,"佐":739,"佑":740,"体":741,"佔":742,"何":743,"佗":744,"佘":745,"余":746,"佚":747,"佛":748,"作":749,"佝":750,"佟":751,"你":752,"佢":753,"佣":754,"佤":755,"佩":756,"佬":757,"佮":758,"佯":759,"佰":760,"佳":761,"併":762,"佶":763,"佷":764,"佻":765,"佼":766,"佾":767,"使":768,"侃":769,"侄":770,"來":771,"侈":772,"侊":773,"例":774,"侍":775,"侏":776,"侐":777,"侑":778,"侖":779,"侗":780,"供":781,"依":782,"侠":783,"価":784,"侣":785,"侥":786,"侧":787,"侮":788,"侯":789,"侳":790,"侵":791,"侶":792,"侷":793,"侹":794,"便":795,"俁":796,"係":797,"促":798,"俄":799,"俊":800,"俋":801,"俍":802,"俎":803,"俏":804,"俐":805,"俑":806,"俓":807,"俗":808,"俘":809,"俚":810,"保":811,"俞":812,"俟":813,"俠":814,"信":815,"俢":816,"俣":817,"俤":818,"俥":819,"俩":820,"俬":821,"修":822,"俯":823,"俱":824,"俳":825,"俵":826,"俸":827,"俺":828,"俾":829,"倀":830,"倂":831,"倆":832,"倉":833,"個":834,"倌":835,"倍":836,"倏":837,"們":838,"倒":839,"倔":840,"倖":841,"倘":842,"候":843,"倚":844,"倜":845,"借":846,"倡":847,"倢":848,"倣":849,"値":850,"倥":851,"倦":852,"倨":853,"倩":854,"倪":855,"倫":856,"倭":857,"倰":858,"债":859,"值":860,"倾":861,"偃":862,"假":863,"偈":864,"偉":865,"偌":866,"偎":867,"偏":868,"偒":869,"偕":870,"做":871,"停":872,"健":873,"偲":874,"側":875,"偵":876,"偶":877,"偷":878,"偽":879,"偿":880,"傀":881,"傅":882,"傋":883,"傍":884,"傑":885,"傘":886,"備":887,"傚":888,"傢":889,"傣":890,"储":891,"催":892,"傭":893,"傯":894,"傱":895,"傲":896,"傳":897,"債":898,"傷":899,"傻":900,"傾":901,"僂":902,"僅":903,"僊":904,"像":905,"僑":906,"僕":907,"僖":908,"僚":909,"僞":910,"僥":911,"僧":912,"僭":913,"僮":914,"僱":915,"僵":916,"價":917,"僻":918,"儀":919,"儂":920,"億":921,"儅":922,"儆":923,"儈":924,"儉":925,"儋":926,"儍":927,"儒":928,"儔":929,"儕":930,"儘":931,"償":932,"儡":933,"儣":934,"優":935,"儲":936,"儷":937,"儸":938,"儻":939,"儼":940,"儿":941,"兀":942,"允":943,"元":944,"兄":945,"充":946,"兆":947,"兇":948,"先":949,"光":950,"克":951,"兌":952,"免":953,"児":954,"兑":955,"兒":956,"兔":957,"兗":958,"党":959,"兜":960,"兢":961,"入":962,"內":963,"全":964,"兩":965,"八":966,"公":967,"六":968,"兮":969,"兰":970,"共":971,"兲":972,"关":973,"兴":974,"兵":975,"其":976,"具":977,"典":978,"兹":979,"养":980,"兼":981,"冀":982,"内":983,"円":984,"冇":985,"冈":986,"冉":987,"冊":988,"冋":989,"册":990,"再":991,"冏":992,"冒":993,"冓":994,"冕":995,"冗":996,"写":997,"冚":998,"军":999,"农":1000,"冠":1001,"冢":1002,"冤":1003,"冥":1004,"冧":1005,"冨":1006,"冪":1007,"冬":1008,"冯":1009,"冰":1010,"冲":1011,"决":1012,"冴":1013,"况":1014,"冶":1015,"冷":1016,"冻":1017,"冽":1018,"净":1019,"凃":1020,"凄":1021,"凅":1022,"准":1023,"凈":1024,"凉":1025,"凊":1026,"凋":1027,"凌":1028,"凍":1029,"减":1030,"凑":1031,"凖":1032,"凜":1033,"凝":1034,"几":1035,"凡":1036,"凤":1037,"処":1038,"凪":1039,"凭":1040,"凯":1041,"凰":1042,"凱":1043,"凳":1044,"凴":1045,"凶":1046,"凸":1047,"凹":1048,"出":1049,"击":1050,"函":1051,"刀":1052,"刁":1053,"刃":1054,"分":1055,"切":1056,"刈":1057,"刊":1058,"刎":1059,"刑":1060,"划":1061,"刖":1062,"列":1063,"刘":1064,"则":1065,"刚":1066,"创":1067,"初":1068,"删":1069,"刣":1070,"判":1071,"別":1072,"刨":1073,"利":1074,"刪":1075,"别":1076,"刮":1077,"到":1078,"制":1079,"刷":1080,"券":1081,"刹":1082,"刺":1083,"刻":1084,"刼":1085,"剁":1086,"剂":1087,"剃":1088,"則":1089,"剉":1090,"削":1091,"剋":1092,"剌":1093,"前":1094,"剎":1095,"剑":1096,"剔":1097,"剖":1098,"剛":1099,"剝":1100,"剤":1101,"剥":1102,"剧":1103,"剩":1104,"剪":1105,"剮":1106,"副":1107,"割":1108,"剴":1109,"創":1110,"剷":1111,"剽":1112,"剿":1113,"劃":1114,"劇":1115,"劈":1116,"劉":1117,"劊":1118,"劍":1119,"劏":1120,"劑":1121,"力":1122,"劝":1123,"办":1124,"功":1125,"加":1126,"务":1127,"劣":1128,"动":1129,"助":1130,"努":1131,"劫":1132,"劬":1133,"劭":1134,"劲":1135,"劳":1136,"労":1137,"劵":1138,"効":1139,"劼":1140,"劾":1141,"势":1142,"勁":1143,"勃":1144,"勇":1145,"勉":1146,"勍":1147,"勐":1148,"勒":1149,"動":1150,"勗":1151,"勘":1152,"務":1153,"勛":1154,"勝":1155,"勞":1156,"募":1157,"勢":1158,"勣":1159,"勤":1160,"勥":1161,"勧":1162,"勳":1163,"勵":1164,"勸":1165,"勺":1166,"勻":1167,"勾":1168,"勿":1169,"包":1170,"匆":1171,"匈":1172,"匍":1173,"匏":1174,"匐":1175,"匕":1176,"化":1177,"北":1178,"匙":1179,"匝":1180,"匠":1181,"匡":1182,"匣":1183,"匪":1184,"匭":1185,"匮":1186,"匯":1187,"匱":1188,"匹":1189,"区":1190,"医":1191,"匾":1192,"匿":1193,"區":1194,"十":1195,"千":1196,"卄":1197,"卅":1198,"升":1199,"午":1200,"卉":1201,"半":1202,"卌":1203,"卍":1204,"华":1205,"协":1206,"卐":1207,"卑":1208,"卒":1209,"卓":1210,"協":1211,"单":1212,"卖":1213,"南":1214,"博":1215,"卜":1216,"卞":1217,"占":1218,"卡":1219,"卦":1220,"卧":1221,"卫":1222,"卯":1223,"印":1224,"危":1225,"卲":1226,"即":1227,"却":1228,"卵":1229,"卷":1230,"卸":1231,"卹":1232,"卻":1233,"卿":1234,"厂":1235,"厄":1236,"厅":1237,"历":1238,"厉":1239,"压":1240,"厓":1241,"厘":1242,"厚":1243,"厝":1244,"原":1245,"厠":1246,"厥":1247,"厦":1248,"厨":1249,"厭":1250,"厮":1251,"厲":1252,"厳":1253,"厶":1254,"去":1255,"县":1256,"叁":1257,"参":1258,"參":1259,"叄":1260,"又":1261,"叉":1262,"及":1263,"友":1264,"双":1265,"反":1266,"収":1267,"发":1268,"叔":1269,"取":1270,"受":1271,"变":1272,"叙":1273,"叛":1274,"叟":1275,"叠":1276,"叡":1277,"叢":1278,"口":1279,"古":1280,"句":1281,"另":1282,"叨":1283,"叩":1284,"只":1285,"叫":1286,"召":1287,"叭":1288,"叮":1289,"可":1290,"台":1291,"叱":1292,"史":1293,"右":1294,"叵":1295,"叶":1296,"号":1297,"司":1298,"叻":1299,"叼":1300,"吁":1301,"吃":1302,"各":1303,"吆":1304,"合":1305,"吉":1306,"吊":1307,"吋":1308,"同":1309,"名":1310,"后":1311,"吏":1312,"吐":1313,"向":1314,"吒":1315,"吓":1316,"吔":1317,"吗":1318,"君":1319,"吝":1320,"吞":1321,"吟":1322,"吠":1323,"吡":1324,"否":1325,"吧":1326,"吨":1327,"吩":1328,"含":1329,"听":1330,"吭":1331,"吮":1332,"启":1333,"吱":1334,"吲":1335,"吳":1336,"吴":1337,"吵":1338,"吶":1339,"吸":1340,"吹":1341,"吻":1342,"吼":1343,"吾":1344,"吿":1345,"呀":1346,"呂":1347,"呃":1348,"呆":1349,"呈":1350,"呉":1351,"告":1352,"呋":1353,"呎":1354,"呐":1355,"呑":1356,"呔":1357,"员":1358,"呢":1359,"呤":1360,"呦":1361,"周":1362,"呱":1363,"味":1364,"呵":1365,"呷":1366,"呸":1367,"呻":1368,"呼":1369,"命":1370,"咀":1371,"咁":1372,"咂":1373,"咄":1374,"咆":1375,"咋":1376,"和":1377,"咎":1378,"咏":1379,"咐":1380,"咒":1381,"咔":1382,"咕":1383,"咖":1384,"咗":1385,"咘":1386,"咚":1387,"咤":1388,"咥":1389,"咦":1390,"咧":1391,"咨":1392,"咩":1393,"咪":1394,"咫":1395,"咬":1396,"咭":1397,"咯":1398,"咱":1399,"咲":1400,"咳":1401,"咸":1402,"咻":1403,"咽":1404,"咾":1405,"咿":1406,"哀":1407,"品":1408,"哂":1409,"哄":1410,"哆":1411,"哇":1412,"哈":1413,"哉":1414,"哋":1415,"响":1416,"哎":1417,"哏":1418,"哐":1419,"哖":1420,"哗":1421,"哚":1422,"哞":1423,"哟":1424,"員":1425,"哥":1426,"哦":1427,"哧":1428,"哨":1429,"哩":1430,"哪":1431,"哭":1432,"哮":1433,"哲":1434,"哺":1435,"哼":1436,"哽":1437,"唁":1438,"唄":1439,"唅":1440,"唆":1441,"唇":1442,"唉":1443,"唏":1444,"唐":1445,"唑":1446,"唔":1447,"唞":1448,"唤":1449,"唦":1450,"唧":1451,"唬":1452,"唭":1453,"售":1454,"唯":1455,"唰":1456,"唱":1457,"唳":1458,"唷":1459,"唸":1460,"唾":1461,"啃":1462,"啄":1463,"商":1464,"啉":1465,"啊":1466,"問":1467,"啓":1468,"啕":1469,"啖":1470,"啜":1471,"啞":1472,"啟":1473,"啡":1474,"啣":1475,"啤":1476,"啥":1477,"啦":1478,"啪":1479,"啫":1480,"啱":1481,"啲":1482,"啵":1483,"啶":1484,"啷":1485,"啻":1486,"啼":1487,"啾":1488,"喀":1489,"喂":1490,"喃":1491,"善":1492,"喆":1493,"喇":1494,"喉":1495,"喊":1496,"喋":1497,"喎":1498,"喑":1499,"喔":1500,"喘":1501,"喙":1502,"喚":1503,"喜":1504,"喝":1505,"喟":1506,"喧":1507,"喨":1508,"喪":1509,"喫":1510,"喬":1511,"單":1512,"喱":1513,"喲":1514,"喳":1515,"喵":1516,"喷":1517,"喹":1518,"喺":1519,"喻":1520,"嗄":1521,"嗅":1522,"嗆":1523,"嗇":1524,"嗌":1525,"嗎":1526,"嗑":1527,"嗒":1528,"嗓":1529,"嗔":1530,"嗖":1531,"嗚":1532,"嗜":1533,"嗝":1534,"嗞":1535,"嗟":1536,"嗡":1537,"嗣":1538,"嗤":1539,"嗦":1540,"嗨":1541,"嗩":1542,"嗬":1543,"嗮":1544,"嗯":1545,"嗰":1546,"嗲":1547,"嗶":1548,"嗷":1549,"嗽":1550,"嘀":1551,"嘅":1552,"嘆":1553,"嘈":1554,"嘉":1555,"嘌":1556,"嘍":1557,"嘎":1558,"嘔":1559,"嘖":1560,"嘗":1561,"嘚":1562,"嘛":1563,"嘜":1564,"嘞":1565,"嘟":1566,"嘢":1567,"嘣":1568,"嘧":1569,"嘨":1570,"嘩":1571,"嘭":1572,"嘮":1573,"嘯":1574,"嘰":1575,"嘱":1576,"嘲":1577,"嘴":1578,"嘵":1579,"嘶":1580,"嘸":1581,"嘹":1582,"嘻":1583,"嘿":1584,"噁":1585,"噆":1586,"噌":1587,"噍":1588,"噎":1589,"噓":1590,"噔":1591,"噗":1592,"噘":1593,"噙":1594,"噚":1595,"噠":1596,"噢":1597,"噤":1598,"噥":1599,"器":1600,"噩":1601,"噪":1602,"噬":1603,"噯":1604,"噱":1605,"噴":1606,"噶":1607,"噸":1608,"噹":1609,"噻":1610,"噼":1611,"嚀":1612,"嚅":1613,"嚇":1614,"嚎":1615,"嚏":1616,"嚐":1617,"嚓":1618,"嚕":1619,"嚗":1620,"嚙":1621,"嚟":1622,"嚥":1623,"嚦":1624,"嚨":1625,"嚮":1626,"嚴":1627,"嚶":1628,"嚷":1629,"嚼":1630,"囁":1631,"囂":1632,"囇":1633,"囈":1634,"囉":1635,"囊":1636,"囌":1637,"囍":1638,"囑":1639,"囓":1640,"囔":1641,"囗":1642,"囘":1643,"囚":1644,"四":1645,"囝":1646,"回":1647,"囟":1648,"因":1649,"囡":1650,"团":1651,"囤":1652,"囧":1653,"囪":1654,"囫":1655,"园":1656,"囯":1657,"困":1658,"囱":1659,"囲":1660,"図":1661,"围":1662,"囹":1663,"固":1664,"国":1665,"图":1666,"囿":1667,"圃":1668,"圄":1669,"圆":1670,"圇":1671,"圈":1672,"國":1673,"圍":1674,"圏":1675,"園":1676,"圓":1677,"圖":1678,"團":1679,"圜":1680,"土":1681,"圣":1682,"在":1683,"圩":1684,"圭":1685,"圮":1686,"地":1687,"圳":1688,"圴":1689,"场":1690,"圾":1691,"址":1692,"坂":1693,"均":1694,"坊":1695,"坍":1696,"坎":1697,"坏":1698,"坐":1699,"坑":1700,"块":1701,"坚":1702,"坝":1703,"坞":1704,"坠":1705,"坡":1706,"坣":1707,"坤":1708,"坦":1709,"坨":1710,"坪":1711,"坯":1712,"坳":1713,"坵":1714,"坷":1715,"坻":1716,"垂":1717,"垃":1718,"垄":1719,"型":1720,"垒":1721,"垓":1722,"垚":1723,"垛":1724,"垜":1725,"垠":1726,"垢":1727,"垣":1728,"垫":1729,"垮":1730,"垵":1731,"垸":1732,"垻":1733,"埀":1734,"埁":1735,"埂":1736,"埃":1737,"埆":1738,"埇":1739,"埈":1740,"埋":1741,"城":1742,"埒":1743,"埔":1744,"埕":1745,"埗":1746,"域":1747,"埠":1748,"埡":1749,"埤":1750,"埨":1751,"埭":1752,"執":1753,"埸":1754,"培":1755,"基":1756,"埼":1757,"堀":1758,"堂":1759,"堃":1760,"堅":1761,"堆":1762,"堇":1763,"堉":1764,"堊":1765,"堡":1766,"堤":1767,"堪":1768,"堯":1769,"堰":1770,"報":1771,"場":1772,"堵":1773,"堺":1774,"堿":1775,"塊":1776,"塌":1777,"塍":1778,"塏":1779,"塑":1780,"塔":1781,"塗":1782,"塘":1783,"塚":1784,"塞":1785,"塡":1786,"塢":1787,"塩":1788,"填":1789,"塭":1790,"塱":1791,"塲":1792,"塵":1793,"塹":1794,"塼":1795,"塾":1796,"墀":1797,"境":1798,"墅":1799,"墉":1800,"墊":1801,"墓":1802,"増":1803,"墘":1804,"墙":1805,"墜":1806,"增":1807,"墟":1808,"墣":1809,"墨":1810,"墩":1811,"墮":1812,"墳":1813,"墶":1814,"墻":1815,"墾":1816,"壁":1817,"壅":1818,"壆":1819,"壇":1820,"壑":1821,"壓":1822,"壕":1823,"壘":1824,"壞":1825,"壟":1826,"壠":1827,"壢":1828,"壤":1829,"壩":1830,"士":1831,"壬":1832,"壮":1833,"壯":1834,"声":1835,"売":1836,"壶":1837,"壹":1838,"壺":1839,"壼":1840,"壽":1841,"夀":1842,"夃":1843,"处":1844,"夆":1845,"备":1846,"変":1847,"复":1848,"夏":1849,"夑":1850,"夔":1851,"夕":1852,"外":1853,"夙":1854,"多":1855,"夜":1856,"够":1857,"夠":1858,"夢":1859,"夥":1860,"大":1861,"天":1862,"太":1863,"夫":1864,"夭":1865,"央":1866,"夯":1867,"失":1868,"夲":1869,"头":1870,"夷":1871,"夸":1872,"夺":1873,"夾":1874,"奄":1875,"奇":1876,"奈":1877,"奉":1878,"奋":1879,"奎":1880,"奏":1881,"奐":1882,"契":1883,"奔":1884,"奕":1885,"奖":1886,"套":1887,"奘":1888,"奚":1889,"奠":1890,"奢":1891,"奥":1892,"奧":1893,"奨":1894,"奪":1895,"奬":1896,"奮":1897,"女":1898,"奴":1899,"奶":1900,"奸":1901,"她":1902,"奼":1903,"好":1904,"妁":1905,"如":1906,"妃":1907,"妄":1908,"妇":1909,"妈":1910,"妊":1911,"妍":1912,"妏":1913,"妒":1914,"妓":1915,"妖":1916,"妘":1917,"妙":1918,"妝":1919,"妞":1920,"妡":1921,"妣":1922,"妤":1923,"妥":1924,"妨":1925,"妮":1926,"妯":1927,"妲":1928,"妳":1929,"妸":1930,"妹":1931,"妺":1932,"妻":1933,"妾":1934,"姆":1935,"姈":1936,"姊":1937,"始":1938,"姍":1939,"姐":1940,"姑":1941,"姓":1942,"委":1943,"姘":1944,"姚":1945,"姜":1946,"姝":1947,"姣":1948,"姥":1949,"姦":1950,"姨":1951,"姪":1952,"姬":1953,"姵":1954,"姺":1955,"姻":1956,"姿":1957,"威":1958,"娃":1959,"娄":1960,"娌":1961,"娑":1962,"娓":1963,"娗":1964,"娘":1965,"娛":1966,"娜":1967,"娟":1968,"娠":1969,"娣":1970,"娥":1971,"娩":1972,"娱":1973,"娶":1974,"娼":1975,"婀":1976,"婁":1977,"婆":1978,"婉":1979,"婊":1980,"婓":1981,"婕":1982,"婗":1983,"婚":1984,"婞":1985,"婢":1986,"婦":1987,"婧":1988,"婪":1989,"婭":1990,"婴":1991,"婷":1992,"婺":1993,"婿":1994,"媄":1995,"媒":1996,"媗":1997,"媚":1998,"媛":1999,"媜":2000,"媧":2001,"媲":2002,"媳":2003,"媽":2004,"媾":2005,"嫁":2006,"嫂":2007,"嫉":2008,"嫌":2009,"嫖":2010,"嫗":2011,"嫘":2012,"嫚":2013,"嫡":2014,"嫣":2015,"嫦":2016,"嫩":2017,"嫰":2018,"嫲":2019,"嫵":2020,"嫺":2021,"嫻":2022,"嬅":2023,"嬈":2024,"嬉":2025,"嬋":2026,"嬌":2027,"嬙":2028,"嬛":2029,"嬢":2030,"嬤":2031,"嬪":2032,"嬬":2033,"嬰":2034,"嬲":2035,"嬴":2036,"嬷":2037,"嬸":2038,"嬿":2039,"孀":2040,"孃":2041,"孌":2042,"子":2043,"孑":2044,"孓":2045,"孔":2046,"孕":2047,"孖":2048,"字":2049,"存":2050,"孙":2051,"孚":2052,"孛":2053,"孜":2054,"孝":2055,"孟":2056,"孢":2057,"季":2058,"孤":2059,"孥":2060,"学":2061,"孩":2062,"孫":2063,"孬":2064,"孰":2065,"孱":2066,"孳":2067,"孵":2068,"學":2069,"孺":2070,"孽":2071,"孿":2072,"宀":2073,"宁":2074,"它":2075,"宅":2076,"宇":2077,"守":2078,"安":2079,"宋":2080,"完":2081,"宍":2082,"宏":2083,"宕":2084,"宗":2085,"官":2086,"宙":2087,"定":2088,"宛":2089,"宜":2090,"宝":2091,"实":2092,"実":2093,"宠":2094,"审":2095,"客":2096,"宣":2097,"室":2098,"宥":2099,"宦":2100,"宪":2101,"宫":2102,"宬":2103,"宮":2104,"宰":2105,"害":2106,"宴":2107,"宵":2108,"家":2109,"宸":2110,"容":2111,"宽":2112,"宾":2113,"宿":2114,"寂":2115,"寃":2116,"寄":2117,"寅":2118,"密":2119,"寇":2120,"富":2121,"寐":2122,"寒":2123,"寓":2124,"寗":2125,"寛":2126,"寞":2127,"察":2128,"寡":2129,"寢":2130,"寤":2131,"寥":2132,"實":2133,"寧":2134,"寨":2135,"審":2136,"寫":2137,"寬":2138,"寮":2139,"寰":2140,"寳":2141,"寵":2142,"寶":2143,"寸":2144,"对":2145,"寺":2146,"寻":2147,"导":2148,"対":2149,"寿":2150,"封":2151,"専":2152,"尃":2153,"射":2154,"将":2155,"將":2156,"專":2157,"尉":2158,"尊":2159,"尋":2160,"對":2161,"導":2162,"小":2163,"少":2164,"尓":2165,"尔":2166,"尖":2167,"尚":2168,"尛":2169,"尝":2170,"尤":2171,"尧":2172,"尪":2173,"尬":2174,"就":2175,"尴":2176,"尷":2177,"尸":2178,"尹":2179,"尺":2180,"尻":2181,"尼":2182,"尽":2183,"尾":2184,"尿":2185,"局":2186,"屁":2187,"层":2188,"居":2189,"屆":2190,"屈":2191,"届":2192,"屋":2193,"屌":2194,"屍":2195,"屎":2196,"屏":2197,"屐":2198,"屑":2199,"展":2200,"屙":2201,"屜":2202,"属":2203,"屠":2204,"屢":2205,"屣":2206,"層":2207,"履":2208,"屬":2209,"屯":2210,"山":2211,"屹":2212,"岀":2213,"岁":2214,"岌":2215,"岐":2216,"岑":2217,"岔":2218,"岗":2219,"岚":2220,"岛":2221,"岡":2222,"岩":2223,"岫":2224,"岬":2225,"岭":2226,"岱":2227,"岳":2228,"岷":2229,"岸":2230,"峁":2231,"峇":2232,"峋":2233,"峒":2234,"峙":2235,"峠":2236,"峡":2237,"峨":2238,"峪":2239,"峭":2240,"峮":2241,"峯":2242,"峰":2243,"峴":2244,"島":2245,"峻":2246,"峽":2247,"崁":2248,"崇":2249,"崍":2250,"崎":2251,"崐":2252,"崑":2253,"崔":2254,"崖":2255,"崗":2256,"崙":2257,"崛":2258,"崢":2259,"崧":2260,"崩":2261,"崮":2262,"崳":2263,"崴":2264,"崵":2265,"崽":2266,"嵂":2267,"嵄":2268,"嵊":2269,"嵋":2270,"嵌":2271,"嵎":2272,"嵐":2273,"嵓":2274,"嵗":2275,"嵙":2276,"嵜":2277,"嵩":2278,"嵬":2279,"嵯":2280,"嵴":2281,"嵵":2282,"嵿":2283,"嶂":2284,"嶄":2285,"嶇":2286,"嶋":2287,"嶗":2288,"嶙":2289,"嶴":2290,"嶸":2291,"嶺":2292,"嶼":2293,"嶽":2294,"巂":2295,"巋":2296,"巍":2297,"巒":2298,"巔":2299,"巖":2300,"川":2301,"州":2302,"巟":2303,"巡":2304,"巢":2305,"工":2306,"左":2307,"巧":2308,"巨":2309,"巩":2310,"巫":2311,"差":2312,"巰":2313,"己":2314,"已":2315,"巳":2316,"巴":2317,"巷":2318,"巻":2319,"巽":2320,"巾":2321,"巿":2322,"币":2323,"市":2324,"布":2325,"帅":2326,"帆":2327,"师":2328,"希":2329,"帐":2330,"帑":2331,"帕":2332,"帖":2333,"帘":2334,"帙":2335,"帚":2336,"帛":2337,"帜":2338,"帝":2339,"帥":2340,"带":2341,"師":2342,"席":2343,"帮":2344,"帯":2345,"帰":2346,"帳":2347,"帶":2348,"帷":2349,"常":2350,"帽":2351,"幀":2352,"幄":2353,"幅":2354,"幇":2355,"幌":2356,"幔":2357,"幕":2358,"幗":2359,"幛":2360,"幟":2361,"幡":2362,"幢":2363,"幣":2364,"幪":2365,"幫":2366,"干":2367,"平":2368,"年":2369,"并":2370,"幷":2371,"幸":2372,"幹":2373,"幻":2374,"幼":2375,"幽":2376,"幾":2377,"广":2378,"庁":2379,"広":2380,"庄":2381,"庆":2382,"庇":2383,"床":2384,"序":2385,"庒":2386,"库":2387,"应":2388,"底":2389,"庖":2390,"店":2391,"庙":2392,"庚":2393,"府":2394,"废":2395,"度":2396,"座":2397,"庫":2398,"庭":2399,"庲":2400,"庵":2401,"庶":2402,"康":2403,"庸":2404,"庹":2405,"庻":2406,"廁":2407,"廂":2408,"廃":2409,"廄":2410,"廈":2411,"廉":2412,"廊":2413,"廋":2414,"廍":2415,"廓":2416,"廔":2417,"廖":2418,"廚":2419,"廝":2420,"廟":2421,"廠":2422,"廡":2423,"廢":2424,"廣":2425,"廨":2426,"廩":2427,"廬":2428,"廳":2429,"廵":2430,"延":2431,"廷":2432,"廸":2433,"廹":2434,"建":2435,"廻":2436,"廼":2437,"廿":2438,"开":2439,"弁":2440,"异":2441,"弃":2442,"弄":2443,"弈":2444,"弊":2445,"弋":2446,"弌":2447,"式":2448,"弒":2449,"弓":2450,"弔":2451,"引":2452,"弗":2453,"弘":2454,"弛":2455,"弟":2456,"张":2457,"弥":2458,"弦":2459,"弧":2460,"弩":2461,"弭":2462,"弱":2463,"張":2464,"強":2465,"弹":2466,"强":2467,"弼":2468,"弾":2469,"彆":2470,"彈":2471,"彊":2472,"彌":2473,"彎":2474,"归":2475,"当":2476,"录":2477,"彗":2478,"彘":2479,"彙":2480,"彚":2481,"彜":2482,"彝":2483,"彡":2484,"形":2485,"彣":2486,"彤":2487,"彥":2488,"彦":2489,"彩":2490,"彪":2491,"彫":2492,"彬":2493,"彭":2494,"彰":2495,"影":2496,"彵":2497,"彷":2498,"役":2499,"彻":2500,"彼":2501,"彽":2502,"彿":2503,"往":2504,"征":2505,"径":2506,"待":2507,"徇":2508,"很":2509,"徉":2510,"徊":2511,"律":2512,"後":2513,"徏":2514,"徐":2515,"徑":2516,"徒":2517,"得":2518,"徘":2519,"徙":2520,"徜":2521,"從":2522,"徠":2523,"御":2524,"徧":2525,"徨":2526,"復":2527,"循":2528,"徬":2529,"微":2530,"徳":2531,"徴":2532,"徵":2533,"德":2534,"徹":2535,"徽":2536,"心":2537,"忄":2538,"必":2539,"忆":2540,"忈":2541,"忌":2542,"忍":2543,"忐":2544,"忑":2545,"忒":2546,"忖":2547,"志":2548,"忘":2549,"忙":2550,"応":2551,"忝":2552,"忠":2553,"忡":2554,"忤":2555,"忧":2556,"忪":2557,"快":2558,"忱":2559,"念":2560,"忸":2561,"忻":2562,"忽":2563,"忿":2564,"怀":2565,"态":2566,"怍":2567,"怎":2568,"怏":2569,"怒":2570,"怔":2571,"怕":2572,"怖":2573,"怙":2574,"怜":2575,"思":2576,"怠":2577,"怡":2578,"急":2579,"怦":2580,"性":2581,"怨":2582,"怩":2583,"怪":2584,"怫":2585,"怯":2586,"怱":2587,"怵":2588,"总":2589,"恁":2590,"恂":2591,"恃":2592,"恆":2593,"恊":2594,"恋":2595,"恍":2596,"恐":2597,"恒":2598,"恕":2599,"恙":2600,"恢":2601,"恣":2602,"恤":2603,"恥":2604,"恨":2605,"恩":2606,"恪":2607,"恫":2608,"恬":2609,"恭":2610,"息":2611,"恰":2612,"恵":2613,"恶":2614,"恿":2615,"悄":2616,"悅":2617,"悉":2618,"悌":2619,"悍":2620,"悔":2621,"悖":2622,"悚":2623,"悛":2624,"悟":2625,"悠":2626,"患":2627,"悦":2628,"悧":2629,"您":2630,"悩":2631,"悪":2632,"悬":2633,"悱":2634,"悲":2635,"悴":2636,"悵":2637,"悶":2638,"悸":2639,"悻":2640,"悼":2641,"悽":2642,"情":2643,"惆":2644,"惇":2645,"惊":2646,"惋":2647,"惑":2648,"惕":2649,"惘":2650,"惚":2651,"惜":2652,"惟":2653,"惠":2654,"惡":2655,"惢":2656,"惦":2657,"惧":2658,"惨":2659,"惯":2660,"惰":2661,"惱":2662,"想":2663,"惴":2664,"惶":2665,"惹":2666,"惺":2667,"惻":2668,"愁":2669,"愆":2670,"愈":2671,"愉":2672,"愎":2673,"意":2674,"愓":2675,"愔":2676,"愕":2677,"愚":2678,"愛":2679,"愜":2680,"感":2681,"愣":2682,"愤":2683,"愧":2684,"愨":2685,"愫":2686,"愴":2687,"愷":2688,"愾":2689,"愿":2690,"慄":2691,"慈":2692,"慉":2693,"態":2694,"慌":2695,"慍":2696,"慎":2697,"慓":2698,"慕":2699,"慘":2700,"慚":2701,"慜":2702,"慟":2703,"慢":2704,"慣":2705,"慤":2706,"慧":2707,"慨":2708,"慫":2709,"慬":2710,"慮":2711,"慰":2712,"慳":2713,"慵":2714,"慶":2715,"慷":2716,"慼":2717,"慽":2718,"慾":2719,"憂":2720,"憊":2721,"憋":2722,"憎":2723,"憐":2724,"憑":2725,"憒":2726,"憔":2727,"憚":2728,"憝":2729,"憤":2730,"憧":2731,"憨":2732,"憩":2733,"憫":2734,"憬":2735,"憲":2736,"憶":2737,"憾":2738,"懂":2739,"懇":2740,"懈":2741,"應":2742,"懊":2743,"懋":2744,"懐":2745,"懞":2746,"懟":2747,"懣":2748,"懦":2749,"懨":2750,"懮":2751,"懲":2752,"懵":2753,"懶":2754,"懷":2755,"懸":2756,"懺":2757,"懼":2758,"懾":2759,"懿":2760,"戀":2761,"戈":2762,"戊":2763,"戌":2764,"戍":2765,"戎":2766,"戏":2767,"成":2768,"我":2769,"戒":2770,"戕":2771,"或":2772,"战":2773,"戚":2774,"戛":2775,"戞":2776,"戟":2777,"戡":2778,"戢":2779,"戦":2780,"戧":2781,"戩":2782,"截":2783,"戮":2784,"戯":2785,"戰":2786,"戱":2787,"戲":2788,"戳":2789,"戴":2790,"戶":2791,"户":2792,"戸":2793,"戻":2794,"戽":2795,"戾":2796,"房":2797,"所":2798,"扁":2799,"扇":2800,"扈":2801,"扉":2802,"手":2803,"才":2804,"扎":2805,"扑":2806,"扒":2807,"打":2808,"扔":2809,"托":2810,"扛":2811,"扞":2812,"扣":2813,"执":2814,"扩":2815,"扫":2816,"扬":2817,"扭":2818,"扮":2819,"扯":2820,"扰":2821,"扳":2822,"扶":2823,"批":2824,"扺":2825,"扼":2826,"扽":2827,"找":2828,"承":2829,"技":2830,"抄":2831,"抉":2832,"把":2833,"抑":2834,"抒":2835,"抓":2836,"投":2837,"抖":2838,"抗":2839,"折":2840,"抚":2841,"抛":2842,"抜":2843,"抝":2844,"抢":2845,"护":2846,"报":2847,"抨":2848,"披":2849,"抬":2850,"抱":2851,"抵":2852,"抹":2853,"抺":2854,"抻":2855,"押":2856,"抽":2857,"抿":2858,"拂":2859,"拄":2860,"担":2861,"拆":2862,"拇":2863,"拈":2864,"拉":2865,"拊":2866,"拋":2867,"拌":2868,"拍":2869,"拎":2870,"拏":2871,"拐":2872,"拑":2873,"拒":2874,"拓":2875,"拔":2876,"拖":2877,"拗":2878,"拘":2879,"拙":2880,"拚":2881,"招":2882,"拜":2883,"拝":2884,"拟":2885,"拥":2886,"拦":2887,"拨":2888,"择":2889,"括":2890,"拭":2891,"拮":2892,"拯":2893,"拱":2894,"拳":2895,"拴":2896,"拷":2897,"拼":2898,"拽":2899,"拾":2900,"拿":2901,"持":2902,"挂":2903,"指":2904,"挈":2905,"按":2906,"挎":2907,"挑":2908,"挖":2909,"挠":2910,"挡":2911,"挤":2912,"挥":2913,"挨":2914,"挪":2915,"挫":2916,"振":2917,"挰":2918,"挵":2919,"挷":2920,"挹":2921,"挺":2922,"挽":2923,"挾":2924,"捂":2925,"捅":2926,"捆":2927,"捉":2928,"捋":2929,"捌":2930,"捍":2931,"捎":2932,"捏":2933,"捐":2934,"捕":2935,"捗":2936,"捜":2937,"捞":2938,"损":2939,"捡":2940,"换":2941,"捧":2942,"捨":2943,"捩":2944,"捫":2945,"捭":2946,"据":2947,"捱":2948,"捲":2949,"捶":2950,"捷":2951,"捺":2952,"捻":2953,"捽":2954,"掀":2955,"掂":2956,"掃":2957,"掄":2958,"掇":2959,"授":2960,"掉":2961,"掌":2962,"掍":2963,"掏":2964,"掐":2965,"排":2966,"掖":2967,"掘":2968,"掙":2969,"掛":2970,"掟":2971,"掠":2972,"採":2973,"探":2974,"掣":2975,"掤":2976,"接":2977,"掦":2978,"控":2979,"推":2980,"掩":2981,"措":2982,"掬":2983,"掮":2984,"掰":2985,"掷":2986,"掹":2987,"掺":2988,"揀":2989,"揄":2990,"揆":2991,"揉":2992,"揍":2993,"描":2994,"提":2995,"揑":2996,"插":2997,"揖":2998,"揚":2999,"換":3000,"揠":3001,"握":3002,"揣":3003,"揦":3004,"揩":3005,"揪":3006,"揭":3007,"揮":3008,"援":3009,"揶":3010,"揸":3011,"揹":3012,"揺":3013,"搅":3014,"搆":3015,"損":3016,"搏":3017,"搐":3018,"搓":3019,"搔":3020,"搖":3021,"搗":3022,"搚":3023,"搜":3024,"搞":3025,"搡":3026,"搣":3027,"搥":3028,"搦":3029,"搧":3030,"搪":3031,"搬":3032,"搭":3033,"搵":3034,"搶":3035,"携":3036,"搽":3037,"搾":3038,"摀":3039,"摁":3040,"摃":3041,"摄":3042,"摆":3043,"摇":3044,"摍":3045,"摑":3046,"摒":3047,"摔":3048,"摘":3049,"摜":3050,"摞":3051,"摟":3052,"摣":3053,"摧":3054,"摨":3055,"摩":3056,"摭":3057,"摯":3058,"摰":3059,"摳":3060,"摷":3061,"摸":3062,"摹":3063,"摺":3064,"摻":3065,"摽":3066,"撂":3067,"撃":3068,"撅":3069,"撇":3070,"撈":3071,"撋":3072,"撐":3073,"撑":3074,"撒":3075,"撓":3076,"撕":3077,"撗":3078,"撘":3079,"撙":3080,"撚":3081,"撞":3082,"撢":3083,"撣":3084,"撤":3085,"撥":3086,"撩":3087,"撫":3088,"撬":3089,"播":3090,"撮":3091,"撰":3092,"撲":3093,"撳":3094,"撸":3095,"撻":3096,"撼":3097,"撾":3098,"撿":3099,"擀":3100,"擁":3101,"擂":3102,"擄":3103,"擅":3104,"擇":3105,"擊":3106,"擋":3107,"操":3108,"擎":3109,"擒":3110,"擔":3111,"擘":3112,"據":3113,"擠":3114,"擡":3115,"擢":3116,"擣":3117,"擤":3118,"擦":3119,"擧":3120,"擬":3121,"擯":3122,"擰":3123,"擱":3124,"擲":3125,"擴":3126,"擷":3127,"擺":3128,"擻":3129,"擼":3130,"擾":3131,"攀":3132,"攆":3133,"攉":3134,"攏":3135,"攔":3136,"攘":3137,"攙":3138,"攛":3139,"攜":3140,"攝":3141,"攞":3142,"攢":3143,"攣":3144,"攤":3145,"攥":3146,"攦":3147,"攪":3148,"攫":3149,"攬":3150,"支":3151,"攰":3152,"收":3153,"攸":3154,"改":3155,"攻":3156,"放":3157,"政":3158,"故":3159,"效":3160,"敌":3161,"敍":3162,"敎":3163,"敏":3164,"救":3165,"敕":3166,"敖":3167,"敗":3168,"敘":3169,"教":3170,"敝":3171,"敞":3172,"敢":3173,"散":3174,"敦":3175,"敬":3176,"数":3177,"敲":3178,"整":3179,"敵":3180,"敷":3181,"數":3182,"敺":3183,"敻":3184,"斂":3185,"斃":3186,"文":3187,"斌":3188,"斐":3189,"斑":3190,"斕":3191,"斗":3192,"料":3193,"斛":3194,"斜":3195,"斟":3196,"斡":3197,"斤":3198,"斥":3199,"斧":3200,"斬":3201,"断":3202,"斯":3203,"新":3204,"斲":3205,"斷":3206,"方":3207,"於":3208,"施":3209,"旁":3210,"旂":3211,"旃":3212,"旅":3213,"旋":3214,"旌":3215,"旎":3216,"族":3217,"旖":3218,"旗":3219,"旛":3220,"无":3221,"既":3222,"日":3223,"旦":3224,"旧":3225,"旨":3226,"早":3227,"旬":3228,"旭":3229,"旮":3230,"旯":3231,"旱":3232,"旳":3233,"时":3234,"旺":3235,"旻":3236,"旼":3237,"昀":3238,"昂":3239,"昆":3240,"昇":3241,"昊":3242,"昌":3243,"明":3244,"昏":3245,"昐":3246,"易":3247,"昔":3248,"昕":3249,"昜":3250,"昞":3251,"星":3252,"映":3253,"昤":3254,"春":3255,"昧":3256,"昨":3257,"昫":3258,"昭":3259,"是":3260,"昰":3261,"昱":3262,"昴":3263,"昵":3264,"昶":3265,"昺":3266,"昼":3267,"显":3268,"晁":3269,"時":3270,"晃":3271,"晉":3272,"晋":3273,"晌":3274,"晏":3275,"晒":3276,"晓":3277,"晕":3278,"晗":3279,"晚":3280,"晛":3281,"晝":3282,"晞":3283,"晟":3284,"晤":3285,"晦":3286,"晧":3287,"晨":3288,"晩":3289,"普":3290,"景":3291,"晰":3292,"晳":3293,"晴":3294,"晶":3295,"智":3296,"晾":3297,"暂":3298,"暄":3299,"暇":3300,"暈":3301,"暉":3302,"暌":3303,"暍":3304,"暎":3305,"暏":3306,"暐":3307,"暑":3308,"暖":3309,"暗":3310,"暘":3311,"暝":3312,"暟":3313,"暠":3314,"暢":3315,"暦":3316,"暨":3317,"暪":3318,"暫":3319,"暮":3320,"暱":3321,"暳":3322,"暴":3323,"暸":3324,"暹":3325,"暻":3326,"曁":3327,"曄":3328,"曆":3329,"曇":3330,"曈":3331,"曉":3332,"曕":3333,"曖":3334,"曙":3335,"曚":3336,"曜":3337,"曝":3338,"曠":3339,"曦":3340,"曨":3341,"曩":3342,"曬":3343,"曰":3344,"曱":3345,"曲":3346,"曳":3347,"更":3348,"曵":3349,"曷":3350,"書":3351,"曹":3352,"曺":3353,"曼":3354,"曽":3355,"曾":3356,"替":3357,"最":3358,"會":3359,"月":3360,"有":3361,"朋":3362,"服":3363,"朔":3364,"朕":3365,"朗":3366,"朘":3367,"望":3368,"朝":3369,"期":3370,"朦":3371,"朧":3372,"木":3373,"未":3374,"末":3375,"本":3376,"札":3377,"朮":3378,"术":3379,"朱":3380,"朴":3381,"朵":3382,"机":3383,"朽":3384,"杀":3385,"杂":3386,"权":3387,"杆":3388,"杇":3389,"杉":3390,"李":3391,"杏":3392,"材":3393,"村":3394,"杓":3395,"杖":3396,"杙":3397,"杜":3398,"杞":3399,"束":3400,"杠":3401,"条":3402,"来":3403,"杨":3404,"杭":3405,"杮":3406,"杯":3407,"杰":3408,"東":3409,"杳":3410,"杵":3411,"杷":3412,"松":3413,"板":3414,"极":3415,"构":3416,"枇":3417,"枉":3418,"枋":3419,"析":3420,"枕":3421,"林":3422,"枚":3423,"果":3424,"枝":3425,"枢":3426,"枪":3427,"枬":3428,"枯":3429,"枰":3430,"枱":3431,"枳":3432,"枴":3433,"架":3434,"枷":3435,"枸":3436,"枹":3437,"枻":3438,"柄":3439,"柊":3440,"柏":3441,"某":3442,"柑":3443,"柒":3444,"染":3445,"柔":3446,"柘":3447,"柙":3448,"柚":3449,"柜":3450,"柠":3451,"柢":3452,"查":3453,"柩":3454,"柬":3455,"柯":3456,"柱":3457,"柳":3458,"柴":3459,"柵":3460,"柺":3461,"査":3462,"柾":3463,"柿":3464,"栃":3465,"栄":3466,"栆":3467,"标":3468,"栏":3469,"树":3470,"栒":3471,"栓":3472,"栖":3473,"栗":3474,"栞":3475,"校":3476,"栢":3477,"栩":3478,"株":3479,"样":3480,"核":3481,"根":3482,"格":3483,"栽":3484,"桀":3485,"桁":3486,"桂":3487,"桃":3488,"桅":3489,"框":3490,"案":3491,"桉":3492,"桌":3493,"桎":3494,"桐":3495,"桑":3496,"桓":3497,"桔":3498,"桖":3499,"桜":3500,"档":3501,"桥":3502,"桮":3503,"桶":3504,"桷":3505,"桿":3506,"梁":3507,"梃":3508,"梅":3509,"梆":3510,"梏":3511,"梓":3512,"梔":3513,"梗":3514,"條":3515,"梟":3516,"梠":3517,"梢":3518,"梣":3519,"梦":3520,"梧":3521,"梨":3522,"梭":3523,"梯":3524,"械":3525,"梳":3526,"梵":3527,"检":3528,"棄":3529,"棆":3530,"棉":3531,"棋":3532,"棍":3533,"棒":3534,"棕":3535,"棗":3536,"棘":3537,"棚":3538,"棟":3539,"棠":3540,"棣":3541,"棤":3542,"棧":3543,"棪":3544,"森":3545,"棱":3546,"棲":3547,"棵":3548,"棺":3549,"棻":3550,"棼":3551,"椁":3552,"椅":3553,"椇":3554,"椋":3555,"植":3556,"椎":3557,"椏":3558,"椒":3559,"検":3560,"椪":3561,"椬":3562,"椰":3563,"椴":3564,"椹":3565,"椽":3566,"椿":3567,"楂":3568,"楊":3569,"楓":3570,"楔":3571,"楚":3572,"楜":3573,"楝":3574,"楞":3575,"楠":3576,"楢":3577,"楣":3578,"楦":3579,"楨":3580,"楫":3581,"業":3582,"極":3583,"楷":3584,"楹":3585,"楼":3586,"楽":3587,"榀":3588,"概":3589,"榄":3590,"榆":3591,"榊":3592,"榔":3593,"榕":3594,"榖":3595,"榘":3596,"榚":3597,"榛":3598,"榜":3599,"榤":3600,"榧":3601,"榨":3602,"榫":3603,"榭":3604,"榮":3605,"榴":3606,"榶":3607,"榷":3608,"榻":3609,"槁":3610,"槃":3611,"構":3612,"槌":3613,"槍":3614,"槐":3615,"槓":3616,"様":3617,"槤":3618,"槨":3619,"槲":3620,"槳":3621,"槽":3622,"槿":3623,"樁":3624,"樂":3625,"樅":3626,"樊":3627,"樋":3628,"樍":3629,"樑":3630,"樓":3631,"標":3632,"樞":3633,"樟":3634,"模":3635,"樣":3636,"樨":3637,"権":3638,"横":3639,"樱":3640,"樸":3641,"樹":3642,"樺":3643,"樽":3644,"樾":3645,"橄":3646,"橇":3647,"橈":3648,"橋":3649,"橍":3650,"橘":3651,"橙":3652,"橞":3653,"機":3654,"橡":3655,"橢":3656,"橦":3657,"橫":3658,"橾":3659,"檀":3660,"檄":3661,"檎":3662,"檐":3663,"檔":3664,"檜":3665,"檞":3666,"檡":3667,"檢":3668,"檨":3669,"檬":3670,"檯":3671,"檳":3672,"檸":3673,"檻":3674,"櫂":3675,"櫃":3676,"櫈":3677,"櫓":3678,"櫚":3679,"櫛":3680,"櫞":3681,"櫟":3682,"櫥":3683,"櫪":3684,"櫫":3685,"櫬":3686,"櫱":3687,"櫳":3688,"櫸":3689,"櫺":3690,"櫻":3691,"欄":3692,"欉":3693,"權":3694,"欐":3695,"欒":3696,"欖":3697,"欠":3698,"次":3699,"欢":3700,"欣":3701,"欧":3702,"欲":3703,"欷":3704,"欸":3705,"欹":3706,"欺":3707,"欽":3708,"款":3709,"歃":3710,"歆":3711,"歇":3712,"歉":3713,"歌":3714,"歎":3715,"歐":3716,"歔":3717,"歙":3718,"歛":3719,"歡":3720,"止":3721,"正":3722,"此":3723,"步":3724,"武":3725,"歧":3726,"歩":3727,"歪":3728,"歬":3729,"歯":3730,"歲":3731,"歳":3732,"歴":3733,"歷":3734,"歸":3735,"歹":3736,"死":3737,"歿":3738,"殁":3739,"殂":3740,"殃":3741,"殄":3742,"殆":3743,"殉":3744,"殊":3745,"残":3746,"殍":3747,"殖":3748,"殘":3749,"殞":3750,"殡":3751,"殤":3752,"殫":3753,"殭":3754,"殮":3755,"殯":3756,"殲":3757,"殴":3758,"段":3759,"殷":3760,"殺":3761,"殻":3762,"殼":3763,"殿":3764,"毀":3765,"毁":3766,"毅":3767,"毆":3768,"毋":3769,"毌":3770,"母":3771,"毎":3772,"每":3773,"毐":3774,"毒":3775,"毓":3776,"比":3777,"毕":3778,"毖":3779,"毗":3780,"毙":3781,"毛":3782,"毫":3783,"毬":3784,"毯":3785,"毽":3786,"氂":3787,"氈":3788,"氏":3789,"民":3790,"氓":3791,"气":3792,"氖":3793,"気":3794,"氙":3795,"氚":3796,"氛":3797,"氟":3798,"氡":3799,"氢":3800,"氣":3801,"氤":3802,"氦":3803,"氧":3804,"氨":3805,"氪":3806,"氫":3807,"氬":3808,"氮":3809,"氯":3810,"氰":3811,"水":3812,"氷":3813,"永":3814,"氹":3815,"氺":3816,"氽":3817,"氾":3818,"汀":3819,"汁":3820,"求":3821,"汆":3822,"汇":3823,"汉":3824,"汊":3825,"汎":3826,"汐":3827,"汔":3828,"汕":3829,"汖":3830,"汗":3831,"汙":3832,"汚":3833,"汛":3834,"汝":3835,"汞":3836,"江":3837,"池":3838,"污":3839,"汤":3840,"汨":3841,"汪":3842,"汫":3843,"汰":3844,"汱":3845,"汲":3846,"汴":3847,"汶":3848,"決":3849,"汽":3850,"汾":3851,"沁":3852,"沂":3853,"沃":3854,"沅":3855,"沆":3856,"沈":3857,"沉":3858,"沌":3859,"沏":3860,"沐":3861,"沒":3862,"沓":3863,"沖":3864,"沙":3865,"沛":3866,"沟":3867,"没":3868,"沢":3869,"沫":3870,"沬":3871,"沭":3872,"沮":3873,"沱":3874,"河":3875,"沸":3876,"油":3877,"治":3878,"沼":3879,"沽":3880,"沾":3881,"沿":3882,"況":3883,"泄":3884,"泅":3885,"泉":3886,"泊":3887,"泌":3888,"泐":3889,"泓":3890,"法":3891,"泗":3892,"泛":3893,"泡":3894,"波":3895,"泣":3896,"泥":3897,"注":3898,"泪":3899,"泫":3900,"泮":3901,"泯":3902,"泰":3903,"泱":3904,"泳":3905,"泵":3906,"泼":3907,"泽":3908,"洄":3909,"洋":3910,"洐":3911,"洑":3912,"洒":3913,"洗":3914,"洙":3915,"洛":3916,"洞":3917,"洢":3918,"津":3919,"洨":3920,"洩":3921,"洪":3922,"洱":3923,"洲":3924,"洵":3925,"洶":3926,"洺":3927,"活":3928,"洼":3929,"洽":3930,"派":3931,"流":3932,"浄":3933,"浉":3934,"测":3935,"济":3936,"浑":3937,"浓":3938,"浙":3939,"浚":3940,"浜":3941,"浠":3942,"浣":3943,"浤":3944,"浥":3945,"浦":3946,"浩":3947,"浪":3948,"浬":3949,"浮":3950,"浯":3951,"浴":3952,"海":3953,"浸":3954,"浹":3955,"涂":3956,"涅":3957,"涇":3958,"消":3959,"涉":3960,"涌":3961,"涎":3962,"涑":3963,"涓":3964,"涔":3965,"涕":3966,"涝":3967,"润":3968,"涨":3969,"涪":3970,"涬":3971,"涮":3972,"涯":3973,"液":3974,"涵":3975,"涸":3976,"涼":3977,"涿":3978,"淀":3979,"淂":3980,"淄":3981,"淅":3982,"淆":3983,"淇":3984,"淊":3985,"淋":3986,"淌":3987,"淑":3988,"淒":3989,"淖":3990,"淘":3991,"淙":3992,"淚":3993,"淜":3994,"淞":3995,"淠":3996,"淡":3997,"淢":3998,"淤":3999,"淥":4000,"淦":4001,"淨":4002,"淩":4003,"淪":4004,"淫":4005,"淬":4006,"淮":4007,"淯":4008,"深":4009,"淳":4010,"淵":4011,"淶":4012,"混":4013,"淸":4014,"淹":4015,"淺":4016,"添":4017,"清":4018,"渉":4019,"渐":4020,"渔":4021,"渗":4022,"渙":4023,"渚":4024,"減":4025,"渝":4026,"渟":4027,"渠":4028,"渡":4029,"渢":4030,"渣":4031,"渤":4032,"渥":4033,"渦":4034,"温":4035,"渫":4036,"測":4037,"渭":4038,"港":4039,"渲":4040,"渴":4041,"游":4042,"渺":4043,"渼":4044,"渾":4045,"湃":4046,"湄":4047,"湊":4048,"湍":4049,"湎":4050,"湖":4051,"湘":4052,"湛":4053,"湜":4054,"湞":4055,"湟":4056,"湧":4057,"湮":4058,"湯":4059,"湳":4060,"湶":4061,"湾":4062,"湿":4063,"満":4064,"溃":4065,"溉":4066,"溋":4067,"溏":4068,"源":4069,"準":4070,"溘":4071,"溜":4072,"溝":4073,"溟":4074,"溢":4075,"溥":4076,"溧":4077,"溪":4078,"溫":4079,"溯":4080,"溱":4081,"溴":4082,"溶":4083,"溺":4084,"溼":4085,"溽":4086,"滁":4087,"滂":4088,"滄":4089,"滅":4090,"滇":4091,"滉":4092,"滋":4093,"滌":4094,"滎":4095,"滑":4096,"滓":4097,"滔":4098,"滕":4099,"滘":4100,"滙":4101,"滚":4102,"满":4103,"滥":4104,"滨":4105,"滩":4106,"滬":4107,"滯":4108,"滲":4109,"滴":4110,"滷":4111,"滸":4112,"滻":4113,"滾":4114,"滿":4115,"漁":4116,"漂":4117,"漆":4118,"漉":4119,"漏":4120,"漓":4121,"演":4122,"漕":4123,"漚":4124,"漠":4125,"漢":4126,"漣":4127,"漥":4128,"漩":4129,"漪":4130,"漫":4131,"漬":4132,"漯":4133,"漱":4134,"漲":4135,"漳":4136,"漵":4137,"漸":4138,"漾":4139,"漿":4140,"潁":4141,"潄":4142,"潑":4143,"潔":4144,"潘":4145,"潛":4146,"潜":4147,"潞":4148,"潟":4149,"潢":4150,"潤":4151,"潦":4152,"潭":4153,"潮":4154,"潯":4155,"潰":4156,"潸":4157,"潺":4158,"潼":4159,"澀":4160,"澄":4161,"澆":4162,"澇":4163,"澈":4164,"澍":4165,"澎":4166,"澐":4167,"澔":4168,"澗":4169,"澜":4170,"澟":4171,"澡":4172,"澤":4173,"澧":4174,"澱":4175,"澳":4176,"澹":4177,"激":4178,"濁":4179,"濂":4180,"濃":4181,"濕":4182,"濘":4183,"濛":4184,"濟":4185,"濠":4186,"濡":4187,"濤":4188,"濫":4189,"濬":4190,"濮":4191,"濯":4192,"濰":4193,"濱":4194,"濳":4195,"濶":4196,"濺":4197,"濼":4198,"濾":4199,"瀁":4200,"瀅":4201,"瀆":4202,"瀉":4203,"瀋":4204,"瀏":4205,"瀑":4206,"瀕":4207,"瀘":4208,"瀚":4209,"瀛":4210,"瀜":4211,"瀝":4212,"瀞":4213,"瀟":4214,"瀠":4215,"瀣":4216,"瀦":4217,"瀧":4218,"瀨":4219,"瀬":4220,"瀰":4221,"瀲":4222,"瀾":4223,"灃":4224,"灌":4225,"灑":4226,"灒":4227,"灕":4228,"灘":4229,"灝":4230,"灞":4231,"灣":4232,"灤":4233,"灧":4234,"灩":4235,"火":4236,"灭":4237,"灯":4238,"灰":4239,"灵":4240,"灶":4241,"灸":4242,"灼":4243,"災":4244,"灾":4245,"炆":4246,"炉":4247,"炊":4248,"炎":4249,"炒":4250,"炔":4251,"炕":4252,"炖":4253,"炘":4254,"炙":4255,"炤":4256,"炫":4257,"炬":4258,"炭":4259,"炮":4260,"炯":4261,"炳":4262,"炷":4263,"炸":4264,"点":4265,"為":4266,"炼":4267,"烂":4268,"烈":4269,"烊":4270,"烏":4271,"烕":4272,"烘":4273,"烙":4274,"烚":4275,"烛":4276,"烝":4277,"烟":4278,"烤":4279,"烧":4280,"热":4281,"烯":4282,"烱":4283,"烴":4284,"烷":4285,"烹":4286,"烽":4287,"焄":4288,"焉":4289,"焊":4290,"焌":4291,"焗":4292,"焙":4293,"焚":4294,"無":4295,"焢":4296,"焦":4297,"焯":4298,"焰":4299,"然":4300,"焼":4301,"煅":4302,"煇":4303,"煉":4304,"煊":4305,"煌":4306,"煎":4307,"煐":4308,"煒":4309,"煕":4310,"煖":4311,"煙":4312,"煜":4313,"煞":4314,"煤":4315,"煥":4316,"煦":4317,"照":4318,"煨":4319,"煩":4320,"煬":4321,"煮":4322,"煲":4323,"煳":4324,"煸":4325,"煽":4326,"熄":4327,"熈":4328,"熊":4329,"熏":4330,"熒":4331,"熔":4332,"熖":4333,"熗":4334,"熘":4335,"熙":4336,"熟":4337,"熠":4338,"熨":4339,"熬":4340,"熱":4341,"熵":4342,"熹":4343,"熾":4344,"燁":4345,"燃":4346,"燄":4347,"燈":4348,"燉":4349,"燊":4350,"燎":4351,"燐":4352,"燒":4353,"燕":4354,"燙":4355,"燜":4356,"營":4357,"燠":4358,"燥":4359,"燦":4360,"燨":4361,"燬":4362,"燭":4363,"燮":4364,"燴":4365,"燶":4366,"燻":4367,"燼":4368,"燿":4369,"爀":4370,"爆":4371,"爈":4372,"爌":4373,"爍":4374,"爐":4375,"爚":4376,"爛":4377,"爨":4378,"爪":4379,"爬":4380,"爭":4381,"爰":4382,"爱":4383,"爲":4384,"爵":4385,"父":4386,"爷":4387,"爸":4388,"爹":4389,"爺":4390,"爻":4391,"爽":4392,"爾":4393,"牀":4394,"牂":4395,"牆":4396,"片":4397,"版":4398,"牌":4399,"牒":4400,"牖":4401,"牘":4402,"牙":4403,"牛":4404,"牟":4405,"牠":4406,"牡":4407,"牢":4408,"牧":4409,"物":4410,"牯":4411,"牲":4412,"牴":4413,"牵":4414,"特":4415,"牺":4416,"牽":4417,"犀":4418,"犁":4419,"犄":4420,"犇":4421,"犍":4422,"犒":4423,"犛":4424,"犟":4425,"犠":4426,"犡":4427,"犢":4428,"犧":4429,"犬":4430,"犮":4431,"犯":4432,"犰":4433,"状":4434,"犹":4435,"狀":4436,"狂":4437,"狄":4438,"狎":4439,"狐":4440,"狒":4441,"狗":4442,"狙":4443,"狛":4444,"狠":4445,"狡":4446,"狤":4447,"狨":4448,"狩":4449,"独":4450,"狱":4451,"狳":4452,"狸":4453,"狹":4454,"狺":4455,"狼":4456,"狽":4457,"猁":4458,"猊":4459,"猎":4460,"猖":4461,"猗":4462,"猙":4463,"猛":4464,"猜":4465,"猝":4466,"猞":4467,"猢":4468,"猥":4469,"猩":4470,"猪":4471,"猫":4472,"献":4473,"猴":4474,"猶":4475,"猷":4476,"猻":4477,"猾":4478,"猿":4479,"獁":4480,"獃":4481,"獄":4482,"獅":4483,"獎":4484,"獒":4485,"獗":4486,"獠":4487,"獨":4488,"獫":4489,"獬":4490,"獮":4491,"獰":4492,"獲":4493,"獴":4494,"獵":4495,"獷":4496,"獸":4497,"獺":4498,"獻":4499,"獼":4500,"獾":4501,"玄":4502,"玆":4503,"率":4504,"玉":4505,"王":4506,"玎":4507,"玖":4508,"玗":4509,"玛":4510,"玟":4511,"玠":4512,"玢":4513,"玥":4514,"玧":4515,"玨":4516,"玩":4517,"玫":4518,"环":4519,"现":4520,"玲":4521,"玳":4522,"玷":4523,"玹":4524,"玻":4525,"玼":4526,"珀":4527,"珂":4528,"珅":4529,"珈":4530,"珊":4531,"珍":4532,"珙":4533,"珞":4534,"珠":4535,"珥":4536,"珩":4537,"班":4538,"珮":4539,"珺":4540,"珽":4541,"現":4542,"琁":4543,"球":4544,"琄":4545,"琅":4546,"理":4547,"琇":4548,"琉":4549,"琊":4550,"琋":4551,"琚":4552,"琛":4553,"琝":4554,"琢":4555,"琤":4556,"琥":4557,"琦":4558,"琨":4559,"琪":4560,"琮":4561,"琲":4562,"琳":4563,"琴":4564,"琵":4565,"琶":4566,"琹":4567,"琺":4568,"琿":4569,"瑀":4570,"瑁":4571,"瑄":4572,"瑈":4573,"瑋":4574,"瑒":4575,"瑕":4576,"瑙":4577,"瑚":4578,"瑛":4579,"瑜":4580,"瑞":4581,"瑟":4582,"瑠":4583,"瑢":4584,"瑣":4585,"瑤":4586,"瑧":4587,"瑨":4588,"瑩":4589,"瑪":4590,"瑯":4591,"瑰":4592,"瑶":4593,"瑾":4594,"璀":4595,"璃":4596,"璆":4597,"璇":4598,"璉":4599,"璋":4600,"璐":4601,"璘":4602,"璜":4603,"璞":4604,"璟":4605,"璠":4606,"璣":4607,"璦":4608,"璧":4609,"璨":4610,"璩":4611,"環":4612,"璽":4613,"瓈":4614,"瓊":4615,"瓏":4616,"瓔":4617,"瓜":4618,"瓠":4619,"瓢":4620,"瓣":4621,"瓤":4622,"瓦":4623,"瓩":4624,"瓮":4625,"瓴":4626,"瓶":4627,"瓷":4628,"甄":4629,"甌":4630,"甍":4631,"甕":4632,"甘":4633,"甙":4634,"甚":4635,"甜":4636,"生":4637,"甡":4638,"產":4639,"産":4640,"甥":4641,"甦":4642,"用":4643,"甩":4644,"甪":4645,"甫":4646,"甬":4647,"甭":4648,"甯":4649,"田":4650,"由":4651,"甲":4652,"申":4653,"甴":4654,"电":4655,"男":4656,"甸":4657,"町":4658,"画":4659,"畀":4660,"畅":4661,"畇":4662,"畈":4663,"界":4664,"畏":4665,"畑":4666,"畔":4667,"留":4668,"畚":4669,"畜":4670,"畝":4671,"畠":4672,"畢":4673,"略":4674,"畦":4675,"番":4676,"畫":4677,"畬":4678,"畯":4679,"異":4680,"畲":4681,"當":4682,"畸":4683,"畹":4684,"畿":4685,"疃":4686,"疆":4687,"疇":4688,"疊":4689,"疋":4690,"疏":4691,"疑":4692,"疔":4693,"疗":4694,"疙":4695,"疚":4696,"疝":4697,"疣":4698,"疤":4699,"疥":4700,"疪":4701,"疫":4702,"疮":4703,"疯":4704,"疰":4705,"疱":4706,"疲":4707,"疳":4708,"疴":4709,"疵":4710,"疸":4711,"疹":4712,"疼":4713,"疽":4714,"疾":4715,"痂":4716,"病":4717,"症":4718,"痊":4719,"痍":4720,"痒":4721,"痔":4722,"痕":4723,"痘":4724,"痙":4725,"痛":4726,"痞":4727,"痠":4728,"痢":4729,"痣":4730,"痤":4731,"痧":4732,"痰":4733,"痱":4734,"痲":4735,"痴":4736,"痹":4737,"痺":4738,"痼":4739,"痾":4740,"痿":4741,"瘀":4742,"瘁":4743,"瘋":4744,"瘍":4745,"瘓":4746,"瘙":4747,"瘜":4748,"瘟":4749,"瘠":4750,"瘡":4751,"瘢":4752,"瘤":4753,"瘦":4754,"瘧":4755,"瘩":4756,"瘫":4757,"瘮":4758,"瘰":4759,"瘴":4760,"瘵":4761,"瘸":4762,"瘺":4763,"瘻":4764,"瘼":4765,"癀":4766,"療":4767,"癆":4768,"癇":4769,"癌":4770,"癒":4771,"癔":4772,"癖":4773,"癘":4774,"癜":4775,"癟":4776,"癡":4777,"癢":4778,"癤":4779,"癥":4780,"癩":4781,"癬":4782,"癮":4783,"癰":4784,"癱":4785,"癲":4786,"癸":4787,"発":4788,"登":4789,"發":4790,"白":4791,"百":4792,"皂":4793,"的":4794,"皆":4795,"皇":4796,"皈":4797,"皋":4798,"皎":4799,"皐":4800,"皓":4801,"皖":4802,"皙":4803,"皚":4804,"皪":4805,"皮":4806,"皰":4807,"皸":4808,"皺":4809,"皿":4810,"盂":4811,"盃":4812,"盅":4813,"盆":4814,"盈":4815,"益":4816,"盍":4817,"盎":4818,"盐":4819,"监":4820,"盒":4821,"盔":4822,"盖":4823,"盗":4824,"盘":4825,"盙":4826,"盛":4827,"盜":4828,"盞":4829,"盟":4830,"盡":4831,"監":4832,"盤":4833,"盥":4834,"盧":4835,"盪":4836,"目":4837,"盯":4838,"盱":4839,"盲":4840,"直":4841,"相":4842,"盹":4843,"盼":4844,"盾":4845,"省":4846,"眈":4847,"眉":4848,"看":4849,"県":4850,"眛":4851,"眞":4852,"真":4853,"眠":4854,"眥":4855,"眨":4856,"眩":4857,"眭":4858,"眯":4859,"眶":4860,"眷":4861,"眸":4862,"眺":4863,"眼":4864,"眾":4865,"着":4866,"睇":4867,"睏":4868,"睒":4869,"睛":4870,"睜":4871,"睞":4872,"睡":4873,"睢":4874,"督":4875,"睥":4876,"睦":4877,"睨":4878,"睪":4879,"睫":4880,"睬":4881,"睹":4882,"睽":4883,"睾":4884,"睿":4885,"瞄":4886,"瞅":4887,"瞇":4888,"瞋":4889,"瞌":4890,"瞎":4891,"瞑":4892,"瞒":4893,"瞓":4894,"瞞":4895,"瞟":4896,"瞠":4897,"瞥":4898,"瞧":4899,"瞪":4900,"瞬":4901,"瞭":4902,"瞰":4903,"瞳":4904,"瞶":4905,"瞻":4906,"瞼":4907,"瞿":4908,"矅":4909,"矇":4910,"矍":4911,"矓":4912,"矗":4913,"矚":4914,"矛":4915,"矜":4916,"矢":4917,"矣":4918,"知":4919,"矧":4920,"矩":4921,"矬":4922,"短":4923,"矮":4924,"矯":4925,"石":4926,"矶":4927,"矸":4928,"矻":4929,"矽":4930,"矿":4931,"码":4932,"砂":4933,"砌":4934,"砍":4935,"砒":4936,"研":4937,"砕":4938,"砝":4939,"砥":4940,"砦":4941,"砧":4942,"砩":4943,"砭":4944,"砰":4945,"砲":4946,"破":4947,"砵":4948,"砷":4949,"砸":4950,"硃":4951,"硅":4952,"硌":4953,"硏":4954,"硐":4955,"硒":4956,"硕":4957,"硘":4958,"硚":4959,"硝":4960,"硤":4961,"硦":4962,"硨":4963,"硫":4964,"硬":4965,"确":4966,"硯":4967,"硼":4968,"碁":4969,"碇":4970,"碉":4971,"碌":4972,"碍":4973,"碎":4974,"碑":4975,"碓":4976,"碗":4977,"碘":4978,"碚":4979,"碟":4980,"碣":4981,"碧":4982,"碩":4983,"碰":4984,"碱":4985,"碲":4986,"碳":4987,"碴":4988,"碸":4989,"確":4990,"碼":4991,"碾":4992,"磁":4993,"磅":4994,"磊":4995,"磋":4996,"磐":4997,"磕":4998,"磘":4999,"磚":5000,"磡":5001,"磧":5002,"磨":5003,"磬":5004,"磯":5005,"磲":5006,"磷":5007,"磺":5008,"礁":5009,"礄":5010,"礅":5011,"礎":5012,"礑":5013,"礙":5014,"礡":5015,"礦":5016,"礪":5017,"礫":5018,"礬":5019,"礴":5020,"示":5021,"礼":5022,"社":5023,"祀":5024,"祁":5025,"祂":5026,"祇":5027,"祈":5028,"祉":5029,"祐":5030,"祓":5031,"祕":5032,"祖":5033,"祗":5034,"祚":5035,"祛":5036,"祜":5037,"祝":5038,"神":5039,"祟":5040,"祠":5041,"祢":5042,"祥":5043,"票":5044,"祭":5045,"祷":5046,"祸":5047,"祺":5048,"祼":5049,"祿":5050,"禀":5051,"禁":5052,"禇":5053,"禊":5054,"禍":5055,"禎":5056,"福":5057,"禓":5058,"禕":5059,"禛":5060,"禠":5061,"禤":5062,"禦":5063,"禧":5064,"禩":5065,"禪":5066,"禮":5067,"禰":5068,"禱":5069,"禳":5070,"禹":5071,"禺":5072,"离":5073,"禽":5074,"禾":5075,"禿":5076,"秀":5077,"私":5078,"秃":5079,"秈":5080,"秉":5081,"秋":5082,"种":5083,"秏":5084,"秐":5085,"科":5086,"秒":5087,"秘":5088,"秝":5089,"秞":5090,"租":5091,"秣":5092,"秤":5093,"秦":5094,"秧":5095,"秩":5096,"秫":5097,"秭":5098,"积":5099,"称":5100,"秸":5101,"移":5102,"稀":5103,"稅":5104,"稈":5105,"稉":5106,"程":5107,"稍":5108,"税":5109,"稔":5110,"稕":5111,"稗":5112,"稚":5113,"稜":5114,"稞":5115,"稟":5116,"稠":5117,"種":5118,"稱":5119,"稲":5120,"稳":5121,"稷":5122,"稻":5123,"稼":5124,"稽":5125,"稿":5126,"穀":5127,"穂":5128,"穆":5129,"穌":5130,"積":5131,"穎":5132,"穏":5133,"穗":5134,"穚":5135,"穠":5136,"穢":5137,"穩":5138,"穫":5139,"穴":5140,"究":5141,"穷":5142,"穹":5143,"空":5144,"穿":5145,"突":5146,"窄":5147,"窈":5148,"窑":5149,"窒":5150,"窓":5151,"窕":5152,"窖":5153,"窗":5154,"窘":5155,"窜":5156,"窟":5157,"窠":5158,"窣":5159,"窥":5160,"窨":5161,"窩":5162,"窪":5163,"窮":5164,"窯":5165,"窰":5166,"窳":5167,"窴":5168,"窸":5169,"窺":5170,"窿":5171,"竄":5172,"竅":5173,"竇":5174,"竈":5175,"竉":5176,"竊":5177,"立":5178,"竑":5179,"站":5180,"竜":5181,"竝":5182,"竞":5183,"竟":5184,"章":5185,"竣":5186,"童":5187,"竪":5188,"竫":5189,"竭":5190,"端":5191,"競":5192,"竸":5193,"竹":5194,"竺":5195,"竽":5196,"竿":5197,"笅":5198,"笆":5199,"笈":5200,"笋":5201,"笏":5202,"笑":5203,"笔":5204,"笙":5205,"笛":5206,"笞":5207,"笠":5208,"符":5209,"笨":5210,"笫":5211,"第":5212,"笭":5213,"笱":5214,"筆":5215,"等":5216,"筊":5217,"筋":5218,"筍":5219,"筏":5220,"筐":5221,"筑":5222,"筒":5223,"答":5224,"策":5225,"筠":5226,"筢":5227,"筧":5228,"筱":5229,"筲":5230,"筴":5231,"筵":5232,"筶":5233,"筷":5234,"签":5235,"简":5236,"箇":5237,"箋":5238,"箍":5239,"箎":5240,"箏":5241,"箐":5242,"箔":5243,"箕":5244,"算":5245,"箜":5246,"箝":5247,"管":5248,"箬":5249,"箭":5250,"箱":5251,"箴":5252,"箸":5253,"節":5254,"篁":5255,"範":5256,"篆":5257,"篇":5258,"築":5259,"篋":5260,"篌":5261,"篙":5262,"篝":5263,"篠":5264,"篡":5265,"篤":5266,"篦":5267,"篩":5268,"篮":5269,"篳":5270,"篷":5271,"篾":5272,"簇":5273,"簋":5274,"簌":5275,"簍":5276,"簏":5277,"簑":5278,"簝":5279,"簞":5280,"簡":5281,"簣":5282,"簧":5283,"簫":5284,"簷":5285,"簸":5286,"簽":5287,"簾":5288,"簿":5289,"籃":5290,"籌":5291,"籍":5292,"籐":5293,"籛":5294,"籟":5295,"籠":5296,"籤":5297,"籬":5298,"籮":5299,"籲":5300,"米":5301,"类":5302,"籽":5303,"籾":5304,"粄":5305,"粉":5306,"粑":5307,"粒":5308,"粕":5309,"粗":5310,"粘":5311,"粙":5312,"粛":5313,"粟":5314,"粤":5315,"粥":5316,"粧":5317,"粮":5318,"粱":5319,"粲":5320,"粳":5321,"粵":5322,"粹":5323,"粼":5324,"粽":5325,"精":5326,"粿":5327,"糅":5328,"糉":5329,"糊":5330,"糍":5331,"糕":5332,"糖":5333,"糗":5334,"糙":5335,"糜":5336,"糞":5337,"糟":5338,"糠":5339,"糢":5340,"糥":5341,"糧":5342,"糨":5343,"糬":5344,"糭":5345,"糯":5346,"糰":5347,"糴":5348,"糶":5349,"糸":5350,"系":5351,"糾":5352,"紀":5353,"紂":5354,"約":5355,"紅":5356,"紆":5357,"紇":5358,"紈":5359,"紉":5360,"紊":5361,"紋":5362,"納":5363,"紐":5364,"紓":5365,"純":5366,"紕":5367,"紗":5368,"紘":5369,"紙":5370,"級":5371,"紛":5372,"紜":5373,"素":5374,"紡":5375,"索":5376,"紥":5377,"紧":5378,"紫":5379,"紮":5380,"累":5381,"細":5382,"紳":5383,"紹":5384,"紺":5385,"絀":5386,"終":5387,"絃":5388,"組":5389,"絆":5390,"経":5391,"結":5392,"絕":5393,"絛":5394,"絜":5395,"絝":5396,"絞":5397,"絡":5398,"絢":5399,"給":5400,"絨":5401,"絮":5402,"統":5403,"絲":5404,"絳":5405,"絶":5406,"絹":5407,"綁":5408,"綉":5409,"綏":5410,"綑":5411,"經":5412,"継":5413,"続":5414,"綜":5415,"綠":5416,"綢":5417,"綣":5418,"綦":5419,"綫":5420,"綬":5421,"維":5422,"綰":5423,"綱":5424,"網":5425,"綳":5426,"綴":5427,"綵":5428,"綷":5429,"綸":5430,"綹":5431,"綺":5432,"綻":5433,"綽":5434,"綾":5435,"綿":5436,"緃":5437,"緄":5438,"緊":5439,"緋":5440,"総":5441,"緑":5442,"緒":5443,"緘":5444,"線":5445,"緝":5446,"緞":5447,"締":5448,"緣":5449,"編":5450,"緩":5451,"緬":5452,"緯":5453,"緱":5454,"緲":5455,"練":5456,"緹":5457,"緻":5458,"縂":5459,"縈":5460,"縉":5461,"縊":5462,"縐":5463,"縕":5464,"縛":5465,"縝":5466,"縟":5467,"縠":5468,"縢":5469,"縣":5470,"縧":5471,"縫":5472,"縭":5473,"縮":5474,"縱":5475,"縴":5476,"縷":5477,"縹":5478,"總":5479,"績":5480,"繁":5481,"繃":5482,"繅":5483,"繆":5484,"繋":5485,"繒":5486,"織":5487,"繕":5488,"繙":5489,"繚":5490,"繞":5491,"繡":5492,"繩":5493,"繪":5494,"繫":5495,"繭":5496,"繳":5497,"繹":5498,"繼":5499,"繽":5500,"繾":5501,"纂":5502,"纇":5503,"續":5504,"纍":5505,"纏":5506,"纒":5507,"纓":5508,"纔":5509,"纖":5510,"纘":5511,"纜":5512,"红":5513,"纤":5514,"约":5515,"级":5516,"纪":5517,"纯":5518,"纳":5519,"纵":5520,"纷":5521,"纸":5522,"纹":5523,"纽":5524,"纾":5525,"线":5526,"练":5527,"组":5528,"细":5529,"织":5530,"终":5531,"经":5532,"绑":5533,"结":5534,"给":5535,"络":5536,"绝":5537,"统":5538,"继":5539,"绩":5540,"绪":5541,"续":5542,"绰":5543,"绳":5544,"维":5545,"绵":5546,"综":5547,"绽":5548,"绿":5549,"缅":5550,"缆":5551,"缉":5552,"缐":5553,"缓":5554,"编":5555,"缘":5556,"缝":5557,"缩":5558,"缴":5559,"缷":5560,"缸":5561,"缺":5562,"缽":5563,"罄":5564,"罈":5565,"罌":5566,"罍":5567,"罐":5568,"网":5569,"罔":5570,"罕":5571,"罗":5572,"罘":5573,"罚":5574,"罝":5575,"罟":5576,"罡":5577,"罣":5578,"罨":5579,"罩":5580,"罪":5581,"置":5582,"罰":5583,"署":5584,"罵":5585,"罷":5586,"罹":5587,"羅":5588,"羆":5589,"羈":5590,"羊":5591,"羋":5592,"羌":5593,"美":5594,"羔":5595,"羚":5596,"羞":5597,"羡":5598,"羣":5599,"群":5600,"羥":5601,"羧":5602,"羨":5603,"義":5604,"羮":5605,"羯":5606,"羲":5607,"羶":5608,"羸":5609,"羹":5610,"羼":5611,"羽":5612,"羿":5613,"翀":5614,"翁":5615,"翃":5616,"翅":5617,"翊":5618,"翌":5619,"翎":5620,"習":5621,"翔":5622,"翟":5623,"翠":5624,"翡":5625,"翩":5626,"翬":5627,"翰":5628,"翱":5629,"翳":5630,"翹":5631,"翻":5632,"翼":5633,"耀":5634,"老":5635,"考":5636,"耄":5637,"者":5638,"耆":5639,"耊":5640,"耋":5641,"而":5642,"耍":5643,"耎":5644,"耐":5645,"耒":5646,"耕":5647,"耗":5648,"耘":5649,"耙":5650,"耦":5651,"耳":5652,"耶":5653,"耻":5654,"耽":5655,"耿":5656,"聆":5657,"聊":5658,"职":5659,"聎":5660,"聒":5661,"联":5662,"聖":5663,"聘":5664,"聚":5665,"聞":5666,"聡":5667,"聪":5668,"聮":5669,"聯":5670,"聰":5671,"聲":5672,"聳":5673,"聴":5674,"聶":5675,"職":5676,"聼":5677,"聽":5678,"聾":5679,"聿":5680,"肃":5681,"肄":5682,"肅":5683,"肆":5684,"肇":5685,"肉":5686,"肋":5687,"肌":5688,"肓":5689,"肖":5690,"肘":5691,"肚":5692,"肛":5693,"肝":5694,"肟":5695,"肠":5696,"股":5697,"肢":5698,"肥":5699,"肩":5700,"肪":5701,"肫":5702,"肯":5703,"肱":5704,"育":5705,"肴":5706,"肺":5707,"肼":5708,"肽":5709,"肾":5710,"肿":5711,"胀":5712,"胁":5713,"胃":5714,"胄":5715,"胆":5716,"背":5717,"胎":5718,"胖":5719,"胗":5720,"胚":5721,"胛":5722,"胜":5723,"胝":5724,"胞":5725,"胡":5726,"胤":5727,"胥":5728,"胭":5729,"胯":5730,"胰":5731,"胱":5732,"胳":5733,"胴":5734,"胸":5735,"胺":5736,"胼":5737,"能":5738,"脂":5739,"脅":5740,"脆":5741,"脈":5742,"脉":5743,"脊":5744,"脏":5745,"脑":5746,"脖":5747,"脗":5748,"脘":5749,"脚":5750,"脛":5751,"脢":5752,"脣":5753,"脧":5754,"脩":5755,"脫":5756,"脯":5757,"脱":5758,"脸":5759,"脹":5760,"脾":5761,"腆":5762,"腈":5763,"腊":5764,"腋":5765,"腌":5766,"腎":5767,"腐":5768,"腑":5769,"腓":5770,"腔":5771,"腕":5772,"腘":5773,"腚":5774,"腠":5775,"腥":5776,"腦":5777,"腧":5778,"腩":5779,"腫":5780,"腮":5781,"腰":5782,"腱":5783,"腳":5784,"腴":5785,"腸":5786,"腹":5787,"腺":5788,"腻":5789,"腾":5790,"腿":5791,"膀":5792,"膈":5793,"膊":5794,"膏":5795,"膕":5796,"膘":5797,"膚":5798,"膛":5799,"膜":5800,"膝":5801,"膠":5802,"膦":5803,"膧":5804,"膨":5805,"膩":5806,"膳":5807,"膴":5808,"膺":5809,"膻":5810,"膽":5811,"膾":5812,"膿":5813,"臀":5814,"臂":5815,"臃":5816,"臆":5817,"臉":5818,"臊":5819,"臍":5820,"臏":5821,"臓":5822,"臖":5823,"臗":5824,"臘":5825,"臚":5826,"臝":5827,"臟":5828,"臠":5829,"臣":5830,"臥":5831,"臧":5832,"臨":5833,"自":5834,"臬":5835,"臭":5836,"至":5837,"致":5838,"臺":5839,"臻":5840,"臼":5841,"臾":5842,"舀":5843,"舅":5844,"舆":5845,"與":5846,"興":5847,"舉":5848,"舊":5849,"舋":5850,"舌":5851,"舍":5852,"舎":5853,"舐":5854,"舒":5855,"舔":5856,"舖":5857,"舗":5858,"舘":5859,"舛":5860,"舜":5861,"舞":5862,"舟":5863,"舢":5864,"舨":5865,"航":5866,"舫":5867,"般":5868,"舰":5869,"舱":5870,"舵":5871,"舶":5872,"舷":5873,"船":5874,"舺":5875,"艇":5876,"艉":5877,"艋":5878,"艏":5879,"艘":5880,"艙":5881,"艟":5882,"艤":5883,"艦":5884,"艮":5885,"良":5886,"艰":5887,"艱":5888,"色":5889,"艷":5890,"艸":5891,"艺":5892,"艾":5893,"节":5894,"芃":5895,"芊":5896,"芋":5897,"芍":5898,"芎":5899,"芒":5900,"芘":5901,"芙":5902,"芛":5903,"芝":5904,"芠":5905,"芡":5906,"芢":5907,"芥":5908,"芧":5909,"芩":5910,"芪":5911,"芫":5912,"芬":5913,"芭":5914,"芮":5915,"芯":5916,"花":5917,"芳":5918,"芷":5919,"芸":5920,"芹":5921,"芻":5922,"芽":5923,"苏":5924,"苑":5925,"苒":5926,"苓":5927,"苔":5928,"苖":5929,"苗":5930,"苙":5931,"苛":5932,"苜":5933,"苞":5934,"苟":5935,"苡":5936,"苣":5937,"若":5938,"苦":5939,"苧":5940,"苯":5941,"英":5942,"苳":5943,"苴":5944,"苷":5945,"苹":5946,"苺":5947,"苿":5948,"茁":5949,"茂":5950,"范":5951,"茄":5952,"茅":5953,"茉":5954,"茌":5955,"茍":5956,"茗":5957,"茜":5958,"茨":5959,"茫":5960,"茬":5961,"茭":5962,"茯":5963,"茱":5964,"茲":5965,"茴":5966,"茵":5967,"茶":5968,"茸":5969,"茹":5970,"茼":5971,"荀":5972,"荃":5973,"荅":5974,"荆":5975,"草":5976,"荊":5977,"荏":5978,"荐":5979,"荒":5980,"荔":5981,"荖":5982,"药":5983,"荳":5984,"荷":5985,"荸":5986,"荻":5987,"荼":5988,"荽":5989,"莆":5990,"莉":5991,"莊":5992,"莎":5993,"莒":5994,"莓":5995,"莖":5996,"莘":5997,"莛":5998,"莞":5999,"莠":6000,"莢":6001,"莧":6002,"莪":6003,"莫":6004,"莱":6005,"莲":6006,"获":6007,"莹":6008,"莽":6009,"莿":6010,"菀":6011,"菁":6012,"菅":6013,"菇":6014,"菈":6015,"菉":6016,"菊":6017,"菌":6018,"菏":6019,"菓":6020,"菔":6021,"菖":6022,"菘":6023,"菜":6024,"菟":6025,"菠":6026,"菡":6027,"菩":6028,"華":6029,"菰":6030,"菱":6031,"菲":6032,"菴":6033,"菸":6034,"萁":6035,"萃":6036,"萄":6037,"萊":6038,"萌":6039,"萍":6040,"萎":6041,"萓":6042,"萘":6043,"萜":6044,"萝":6045,"萣":6046,"营":6047,"萧":6048,"萨":6049,"萬":6050,"萱":6051,"萵":6052,"萸":6053,"萼":6054,"落":6055,"葆":6056,"葉":6057,"葑":6058,"著":6059,"葚":6060,"葛":6061,"葡":6062,"董":6063,"葦":6064,"葩":6065,"葫":6066,"葬":6067,"葭":6068,"葯":6069,"葱":6070,"葳":6071,"葵":6072,"葶":6073,"葷":6074,"葺":6075,"蒂":6076,"蒄":6077,"蒐":6078,"蒔":6079,"蒙":6080,"蒜":6081,"蒞":6082,"蒟":6083,"蒡":6084,"蒯":6085,"蒲":6086,"蒴":6087,"蒸":6088,"蒺":6089,"蒻":6090,"蒼":6091,"蒽":6092,"蒿":6093,"蓀":6094,"蓁":6095,"蓄":6096,"蓆":6097,"蓉":6098,"蓊":6099,"蓋":6100,"蓓":6101,"蓖":6102,"蓝":6103,"蓬":6104,"蓮":6105,"蓯":6106,"蓴":6107,"蓿":6108,"蔑":6109,"蔓":6110,"蔔":6111,"蔗":6112,"蔘":6113,"蔚":6114,"蔞":6115,"蔡":6116,"蔣":6117,"蔥":6118,"蔦":6119,"蔫":6120,"蔬":6121,"蔭":6122,"蔴":6123,"蔵":6124,"蔷":6125,"蔻":6126,"蔽":6127,"蕁":6128,"蕃":6129,"蕈":6130,"蕉":6131,"蕊":6132,"蕎":6133,"蕓":6134,"蕗":6135,"蕘":6136,"蕙":6137,"蕞":6138,"蕨":6139,"蕩":6140,"蕪":6141,"蕫":6142,"蕭":6143,"蕯":6144,"蕲":6145,"蕷":6146,"蕾":6147,"薄":6148,"薅":6149,"薇":6150,"薈":6151,"薊":6152,"薏":6153,"薑":6154,"薔":6155,"薛":6156,"薜":6157,"薦":6158,"薨":6159,"薩":6160,"薪":6161,"薫":6162,"薬":6163,"薯":6164,"薰":6165,"薹":6166,"薺":6167,"薾":6168,"藁":6169,"藉":6170,"藍":6171,"藎":6172,"藏":6173,"藐":6174,"藕":6175,"藜":6176,"藝":6177,"藤":6178,"藥":6179,"藩":6180,"藪":6181,"藴":6182,"藷":6183,"藹":6184,"藺":6185,"藻":6186,"藼":6187,"藿":6188,"蘄":6189,"蘅":6190,"蘆":6191,"蘇":6192,"蘊":6193,"蘋":6194,"蘑":6195,"蘚":6196,"蘭":6197,"蘸":6198,"蘺":6199,"蘿":6200,"虌":6201,"虎":6202,"虐":6203,"虑":6204,"虔":6205,"處":6206,"虚":6207,"虛":6208,"虜":6209,"虞":6210,"號":6211,"虢":6212,"虧":6213,"虫":6214,"虬":6215,"虯":6216,"虱":6217,"虹":6218,"虻":6219,"虽":6220,"虾":6221,"蚀":6222,"蚁":6223,"蚂":6224,"蚊":6225,"蚋":6226,"蚌":6227,"蚍":6228,"蚓":6229,"蚜":6230,"蚝":6231,"蚣":6232,"蚤":6233,"蚩":6234,"蚪":6235,"蚯":6236,"蚰":6237,"蚱":6238,"蚴":6239,"蚵":6240,"蚶":6241,"蛀":6242,"蛄":6243,"蛆":6244,"蛇":6245,"蛉":6246,"蛋":6247,"蛔":6248,"蛙":6249,"蛛":6250,"蛞":6251,"蛟":6252,"蛤":6253,"蛭":6254,"蛹":6255,"蛻":6256,"蛾":6257,"蜀":6258,"蜂":6259,"蜃":6260,"蜆":6261,"蜇":6262,"蜈":6263,"蜉":6264,"蜊":6265,"蜍":6266,"蜒":6267,"蜓":6268,"蜘":6269,"蜚":6270,"蜜":6271,"蜢":6272,"蜥":6273,"蜱":6274,"蜴":6275,"蜷":6276,"蜻":6277,"蜿":6278,"蝌":6279,"蝍":6280,"蝎":6281,"蝓":6282,"蝕":6283,"蝗":6284,"蝙":6285,"蝞":6286,"蝟":6287,"蝠":6288,"蝣":6289,"蝥":6290,"蝦":6291,"蝨":6292,"蝮":6293,"蝲":6294,"蝴":6295,"蝶":6296,"蝸":6297,"蝻":6298,"蝽":6299,"螂":6300,"螃":6301,"螄":6302,"螈":6303,"融":6304,"螜":6305,"螞":6306,"螟":6307,"螢":6308,"螨":6309,"螫":6310,"螭":6311,"螯":6312,"螳":6313,"螺":6314,"螻":6315,"蟀":6316,"蟄":6317,"蟆":6318,"蟋":6319,"蟎":6320,"蟑":6321,"蟒":6322,"蟠":6323,"蟬":6324,"蟯":6325,"蟲":6326,"蟳":6327,"蟶":6328,"蟹":6329,"蟻":6330,"蟾":6331,"蠃":6332,"蠅":6333,"蠊":6334,"蠍":6335,"蠎":6336,"蠑":6337,"蠓":6338,"蠔":6339,"蠕":6340,"蠟":6341,"蠡":6342,"蠢":6343,"蠣":6344,"蠱":6345,"蠵":6346,"蠶":6347,"蠹":6348,"蠻":6349,"血":6350,"衄":6351,"衅":6352,"衆":6353,"衊":6354,"行":6355,"衍":6356,"術":6357,"衔":6358,"衕":6359,"街":6360,"衙":6361,"衚":6362,"衛":6363,"衝":6364,"衞":6365,"衡":6366,"衢":6367,"衣":6368,"补":6369,"表":6370,"衩":6371,"衪":6372,"衫":6373,"衰":6374,"衲":6375,"衷":6376,"衹":6377,"袁":6378,"袂":6379,"袃":6380,"袈":6381,"袋":6382,"袍":6383,"袒":6384,"袓":6385,"袖":6386,"袞":6387,"袤":6388,"袪":6389,"被":6390,"袭":6391,"袱":6392,"裁":6393,"裂":6394,"装":6395,"裇":6396,"裊":6397,"裎":6398,"裏":6399,"裔":6400,"裕":6401,"裘":6402,"裙":6403,"補":6404,"裝":6405,"裟":6406,"裡":6407,"裤":6408,"裨":6409,"裩":6410,"裬":6411,"裱":6412,"裳":6413,"裴":6414,"裵":6415,"裸":6416,"裹":6417,"製":6418,"裾":6419,"褂":6420,"複":6421,"褐":6422,"褒":6423,"褓":6424,"褔":6425,"褕":6426,"褚":6427,"褟":6428,"褥":6429,"褪":6430,"褫":6431,"褲":6432,"褵":6433,"褶":6434,"褸":6435,"褻":6436,"襁":6437,"襄":6438,"襖":6439,"襝":6440,"襟":6441,"襠":6442,"襤":6443,"襪":6444,"襬":6445,"襯":6446,"襲":6447,"西":6448,"要":6449,"覃":6450,"覆":6451,"覇":6452,"覈":6453,"覊":6454,"見":6455,"規":6456,"覓":6457,"視":6458,"覚":6459,"覦":6460,"覧":6461,"親":6462,"覬":6463,"覲":6464,"観":6465,"覷":6466,"覺":6467,"覻":6468,"覽":6469,"觀":6470,"见":6471,"观":6472,"规":6473,"视":6474,"览":6475,"觉":6476,"角":6477,"觔":6478,"解":6479,"觥":6480,"触":6481,"觴":6482,"觸":6483,"言":6484,"訂":6485,"訃":6486,"訇":6487,"計":6488,"訊":6489,"訌":6490,"討":6491,"訐":6492,"訓":6493,"訕":6494,"訖":6495,"託":6496,"記":6497,"訛":6498,"訝":6499,"訟":6500,"訢":6501,"訣":6502,"訥":6503,"訪":6504,"設":6505,"許":6506,"訴":6507,"訶":6508,"診":6509,"註":6510,"証":6511,"訾":6512,"詁":6513,"詆":6514,"詎":6515,"詐":6516,"詑":6517,"詒":6518,"詔":6519,"評":6520,"詛":6521,"詞":6522,"詠":6523,"詡":6524,"詢":6525,"詣":6526,"試":6527,"詩":6528,"詫":6529,"詬":6530,"詭":6531,"詮":6532,"詰":6533,"話":6534,"該":6535,"詳":6536,"詹":6537,"詼":6538,"誅":6539,"誆":6540,"誇":6541,"誉":6542,"誌":6543,"認":6544,"誑":6545,"誒":6546,"誓":6547,"誔":6548,"誕":6549,"誘":6550,"語":6551,"誠":6552,"誡":6553,"誣":6554,"誤":6555,"誥":6556,"誦":6557,"誨":6558,"說":6559,"説":6560,"読":6561,"誰":6562,"課":6563,"誹":6564,"誼":6565,"調":6566,"諂":6567,"諄":6568,"談":6569,"諉":6570,"請":6571,"諏":6572,"諒":6573,"論":6574,"諗":6575,"諛":6576,"諜":6577,"諝":6578,"諞":6579,"諠":6580,"諡":6581,"諢":6582,"諦":6583,"諧":6584,"諫":6585,"諭":6586,"諮":6587,"諱":6588,"諳":6589,"諴":6590,"諶":6591,"諷":6592,"諸":6593,"諺":6594,"諼":6595,"諾":6596,"謀":6597,"謁":6598,"謂":6599,"謄":6600,"謅":6601,"謇":6602,"謊":6603,"謎":6604,"謐":6605,"謔":6606,"謖":6607,"謗":6608,"謙":6609,"講":6610,"謝":6611,"謠":6612,"謢":6613,"謦":6614,"謨":6615,"謫":6616,"謬":6617,"謳":6618,"謹":6619,"謾":6620,"譁":6621,"證":6622,"譎":6623,"譏":6624,"譓":6625,"識":6626,"譙":6627,"譚":6628,"譜":6629,"譞":6630,"譟":6631,"警":6632,"譬":6633,"譭":6634,"譯":6635,"議":6636,"譲":6637,"譴":6638,"護":6639,"譽":6640,"讀":6641,"讃":6642,"讉":6643,"變":6644,"讎":6645,"讒":6646,"讓":6647,"讖":6648,"讚":6649,"讞":6650,"计":6651,"订":6652,"认":6653,"讨":6654,"让":6655,"训":6656,"议":6657,"讯":6658,"记":6659,"讲":6660,"讶":6661,"讷":6662,"许":6663,"论":6664,"讼":6665,"设":6666,"访":6667,"诀":6668,"证":6669,"评":6670,"识":6671,"诈":6672,"诉":6673,"诊":6674,"词":6675,"译":6676,"试":6677,"诗":6678,"诚":6679,"话":6680,"诞":6681,"诡":6682,"询":6683,"该":6684,"详":6685,"诬":6686,"语":6687,"误":6688,"诱":6689,"说":6690,"请":6691,"诺":6692,"读":6693,"课":6694,"谁":6695,"调":6696,"谈":6697,"谊":6698,"谋":6699,"谎":6700,"谓":6701,"谜":6702,"谢":6703,"谣":6704,"谭":6705,"谴":6706,"谷":6707,"谿":6708,"豁":6709,"豆":6710,"豇":6711,"豈":6712,"豉":6713,"豊":6714,"豋":6715,"豌":6716,"豎":6717,"豐":6718,"豑":6719,"豔":6720,"豚":6721,"象":6722,"豢":6723,"豪":6724,"豫":6725,"豬":6726,"豸":6727,"豹":6728,"豺":6729,"貂":6730,"貅":6731,"貉":6732,"貌":6733,"貍":6734,"貎":6735,"貓":6736,"貔":6737,"貘":6738,"貝":6739,"貞":6740,"負":6741,"財":6742,"貢":6743,"貧":6744,"貨":6745,"販":6746,"貪":6747,"貫":6748,"責":6749,"貭":6750,"貯":6751,"貲":6752,"貳":6753,"貴":6754,"貶":6755,"買":6756,"貸":6757,"費":6758,"貼":6759,"貽":6760,"貿":6761,"賀":6762,"賁":6763,"賂":6764,"賃":6765,"賄":6766,"賅":6767,"資":6768,"賈":6769,"賊":6770,"賑":6771,"賒":6772,"賓":6773,"賚":6774,"賜":6775,"賞":6776,"賠":6777,"賡":6778,"賢":6779,"賣":6780,"賤":6781,"賦":6782,"賧":6783,"質":6784,"賬":6785,"賭":6786,"賴":6787,"賸":6788,"賺":6789,"購":6790,"賽":6791,"贅":6792,"贈":6793,"贊":6794,"贋":6795,"贍":6796,"贏":6797,"贓":6798,"贖":6799,"贗":6800,"贛":6801,"贝":6802,"贞":6803,"负":6804,"财":6805,"责":6806,"败":6807,"账":6808,"货":6809,"质":6810,"贩":6811,"贪":6812,"购":6813,"贯":6814,"贴":6815,"贵":6816,"贷":6817,"贸":6818,"费":6819,"贺":6820,"贼":6821,"贿":6822,"资":6823,"赋":6824,"赌":6825,"赐":6826,"赔":6827,"赖":6828,"赚":6829,"赛":6830,"赞":6831,"赠":6832,"赢":6833,"赤":6834,"赦":6835,"赫":6836,"赭":6837,"走":6838,"赳":6839,"赴":6840,"赶":6841,"起":6842,"趁":6843,"超":6844,"越":6845,"趋":6846,"趐":6847,"趕":6848,"趙":6849,"趟":6850,"趣":6851,"趨":6852,"足":6853,"趴":6854,"趾":6855,"跃":6856,"跆":6857,"跋":6858,"跌":6859,"跎":6860,"跑":6861,"跖":6862,"跗":6863,"跘":6864,"跙":6865,"跚":6866,"跛":6867,"距":6868,"跟":6869,"跡":6870,"跣":6871,"跤":6872,"跨":6873,"跩":6874,"跪":6875,"跬":6876,"路":6877,"跳":6878,"跺":6879,"踅":6880,"踉":6881,"踊":6882,"踏":6883,"踐":6884,"踝":6885,"踞":6886,"踡":6887,"踢":6888,"踨":6889,"踩":6890,"踪":6891,"踫":6892,"踮":6893,"踰":6894,"踱":6895,"踴":6896,"踵":6897,"踹":6898,"踺":6899,"踼":6900,"踽":6901,"蹂":6902,"蹄":6903,"蹇":6904,"蹈":6905,"蹉":6906,"蹊":6907,"蹋":6908,"蹌":6909,"蹓":6910,"蹕":6911,"蹚":6912,"蹟":6913,"蹠":6914,"蹣":6915,"蹤":6916,"蹦":6917,"蹧":6918,"蹩":6919,"蹬":6920,"蹭":6921,"蹲":6922,"蹴":6923,"蹶":6924,"蹺":6925,"蹼":6926,"躁":6927,"躂":6928,"躄":6929,"躇":6930,"躉":6931,"躊":6932,"躋":6933,"躍":6934,"躑":6935,"躡":6936,"躥":6937,"躦":6938,"躪":6939,"身":6940,"躬":6941,"躲":6942,"躹":6943,"躺":6944,"軀":6945,"車":6946,"軋":6947,"軌":6948,"軍":6949,"軒":6950,"軔":6951,"軚":6952,"軛":6953,"軟":6954,"転":6955,"軫":6956,"軮":6957,"軰":6958,"軲":6959,"軸":6960,"軻":6961,"軼":6962,"軽":6963,"軾":6964,"較":6965,"載":6966,"輊":6967,"輋":6968,"輒":6969,"輓":6970,"輔":6971,"輕":6972,"輛":6973,"輜":6974,"輝":6975,"輟":6976,"輦":6977,"輩":6978,"輪":6979,"輯":6980,"輸":6981,"輻":6982,"輾":6983,"輿":6984,"轁":6985,"轂":6986,"轄":6987,"轅":6988,"轆":6989,"轉":6990,"轍":6991,"轎":6992,"轟":6993,"轡":6994,"车":6995,"轩":6996,"转":6997,"轮":6998,"软":6999,"轻":7000,"载":7001,"轿":7002,"较":7003,"辅":7004,"辆":7005,"辈":7006,"辉":7007,"辐":7008,"辑":7009,"输":7010,"辖":7011,"辛":7012,"辜":7013,"辞":7014,"辟":7015,"辣":7016,"辦":7017,"辧":7018,"辨":7019,"辩":7020,"辭":7021,"辮":7022,"辯":7023,"辰":7024,"辱":7025,"農":7026,"辳":7027,"辶":7028,"边":7029,"辺":7030,"辻":7031,"込":7032,"辽":7033,"达":7034,"迁":7035,"迂":7036,"迄":7037,"迅":7038,"过":7039,"迈":7040,"迌":7041,"迎":7042,"运":7043,"近":7044,"迓":7045,"返":7046,"还":7047,"这":7048,"进":7049,"远":7050,"违":7051,"连":7052,"迟":7053,"迢":7054,"迥":7055,"迦":7056,"迨":7057,"迪":7058,"迫":7059,"迭":7060,"述":7061,"迴":7062,"迷":7063,"迸":7064,"迹":7065,"迺":7066,"追":7067,"退":7068,"送":7069,"适":7070,"逃":7071,"逄":7072,"逅":7073,"逆":7074,"选":7075,"逍":7076,"透":7077,"逐":7078,"途":7079,"逕":7080,"逗":7081,"這":7082,"通":7083,"逛":7084,"逝":7085,"逞":7086,"速":7087,"造":7088,"逡":7089,"逢":7090,"連":7091,"逭":7092,"逮":7093,"週":7094,"進":7095,"逵":7096,"逸":7097,"逹":7098,"逻":7099,"逼":7100,"逾":7101,"遁":7102,"遂":7103,"遄":7104,"遅":7105,"遇":7106,"遊":7107,"運":7108,"遍":7109,"過":7110,"遏":7111,"遐":7112,"遑":7113,"道":7114,"達":7115,"違":7116,"遗":7117,"遙":7118,"遛":7119,"遜":7120,"遝":7121,"遞":7122,"遠":7123,"遢":7124,"遣":7125,"遥":7126,"遨":7127,"適":7128,"遭":7129,"遮":7130,"遲":7131,"遴":7132,"遵":7133,"遶":7134,"遷":7135,"選":7136,"遺":7137,"遼":7138,"遽":7139,"避":7140,"邀":7141,"邁":7142,"邂":7143,"邃":7144,"還":7145,"邇":7146,"邈":7147,"邉":7148,"邊":7149,"邋":7150,"邏":7151,"邑":7152,"邕":7153,"邗":7154,"邙":7155,"邛":7156,"邡":7157,"邢":7158,"那":7159,"邦":7160,"邨":7161,"邪":7162,"邯":7163,"邰":7164,"邱":7165,"邳":7166,"邵":7167,"邸":7168,"邻":7169,"郁":7170,"郅":7171,"郊":7172,"郎":7173,"郏":7174,"郑":7175,"郗":7176,"郜":7177,"郝":7178,"郞":7179,"郟":7180,"郡":7181,"郢":7182,"郤":7183,"部":7184,"郫":7185,"郭":7186,"郯":7187,"郴":7188,"郵":7189,"郷":7190,"都":7191,"鄂":7192,"鄆":7193,"鄉":7194,"鄒":7195,"鄔":7196,"鄕":7197,"鄙":7198,"鄞":7199,"鄢":7200,"鄣":7201,"鄧":7202,"鄭":7203,"鄯":7204,"鄰":7205,"鄱":7206,"鄲":7207,"鄴":7208,"鄺":7209,"酆":7210,"酈":7211,"酉":7212,"酊":7213,"酋":7214,"酌":7215,"配":7216,"酎":7217,"酐":7218,"酒":7219,"酗":7220,"酚":7221,"酝":7222,"酞":7223,"酢":7224,"酣":7225,"酥":7226,"酩":7227,"酪":7228,"酬":7229,"酮":7230,"酯":7231,"酰":7232,"酱":7233,"酵":7234,"酶":7235,"酷":7236,"酸":7237,"酿":7238,"醂":7239,"醃":7240,"醇":7241,"醉":7242,"醋":7243,"醌":7244,"醍":7245,"醐":7246,"醒":7247,"醖":7248,"醚":7249,"醛":7250,"醜":7251,"醞":7252,"醡":7253,"醣":7254,"醫":7255,"醬":7256,"醮":7257,"醯":7258,"醱":7259,"醴":7260,"醸":7261,"醺":7262,"釀":7263,"釁":7264,"采":7265,"釉":7266,"释":7267,"釋":7268,"里":7269,"重":7270,"野":7271,"量":7272,"釐":7273,"金":7274,"釓":7275,"釔":7276,"釕":7277,"釗":7278,"釘":7279,"釙":7280,"釜":7281,"針":7282,"釣":7283,"釤":7284,"釦":7285,"釧":7286,"釨":7287,"釩":7288,"釭":7289,"釵":7290,"釹":7291,"鈀":7292,"鈁":7293,"鈄":7294,"鈅":7295,"鈈":7296,"鈉":7297,"鈊":7298,"鈍":7299,"鈎":7300,"鈐":7301,"鈑":7302,"鈔":7303,"鈕":7304,"鈗":7305,"鈞":7306,"鈡":7307,"鈣":7308,"鈥":7309,"鈦":7310,"鈧":7311,"鈮":7312,"鈰":7313,"鈴":7314,"鈷":7315,"鈸":7316,"鈺":7317,"鈽":7318,"鈾":7319,"鈿":7320,"鉀":7321,"鉄":7322,"鉅":7323,"鉆":7324,"鉈":7325,"鉉":7326,"鉍":7327,"鉑":7328,"鉕":7329,"鉗":7330,"鉚":7331,"鉛":7332,"鉢":7333,"鉤":7334,"鉦":7335,"鉬":7336,"鉭":7337,"鉴":7338,"鉸":7339,"鉺":7340,"鉻":7341,"鉾":7342,"鉿":7343,"銀":7344,"銃":7345,"銅":7346,"銑":7347,"銓":7348,"銖":7349,"銘":7350,"銚":7351,"銜":7352,"銠":7353,"銥":7354,"銦":7355,"銨":7356,"銩":7357,"銪":7358,"銫":7359,"銬":7360,"銲":7361,"銳":7362,"銶":7363,"銷":7364,"銹":7365,"銻":7366,"銼":7367,"鋁":7368,"鋃":7369,"鋅":7370,"鋇":7371,"鋉":7372,"鋌":7373,"鋏":7374,"鋐":7375,"鋒":7376,"鋕":7377,"鋘":7378,"鋤":7379,"鋩":7380,"鋪":7381,"鋭":7382,"鋯":7383,"鋰":7384,"鋱":7385,"鋸":7386,"鋼":7387,"錄":7388,"錐":7389,"錕":7390,"錘":7391,"錙":7392,"錚":7393,"錛":7394,"錞":7395,"錠":7396,"錡":7397,"錢":7398,"錤":7399,"錦":7400,"錧":7401,"錨":7402,"錩":7403,"錫":7404,"錬":7405,"錮":7406,"錯":7407,"録":7408,"錳":7409,"錶":7410,"錸":7411,"錼":7412,"鍊":7413,"鍋":7414,"鍍":7415,"鍘":7416,"鍚":7417,"鍛":7418,"鍜":7419,"鍠":7420,"鍥":7421,"鍬":7422,"鍮":7423,"鍰":7424,"鍳":7425,"鍵":7426,"鍶":7427,"鍼":7428,"鍾":7429,"鎂":7430,"鎅":7431,"鎊":7432,"鎌":7433,"鎏":7434,"鎔":7435,"鎖":7436,"鎗":7437,"鎘":7438,"鎚":7439,"鎢":7440,"鎦":7441,"鎧":7442,"鎩":7443,"鎬":7444,"鎭":7445,"鎮":7446,"鎯":7447,"鎰":7448,"鎳":7449,"鎵":7450,"鏃":7451,"鏈":7452,"鏑":7453,"鏖":7454,"鏗":7455,"鏘":7456,"鏞":7457,"鏟":7458,"鏡":7459,"鏢":7460,"鏤":7461,"鏹":7462,"鏽":7463,"鐐":7464,"鐔":7465,"鐗":7466,"鐘":7467,"鐙":7468,"鐠":7469,"鐡":7470,"鐧":7471,"鐫":7472,"鐮":7473,"鐲":7474,"鐳":7475,"鐵":7476,"鐶":7477,"鐸":7478,"鐹":7479,"鐺":7480,"鐿":7481,"鑄":7482,"鑊":7483,"鑌":7484,"鑑":7485,"鑒":7486,"鑛":7487,"鑠":7488,"鑢":7489,"鑣":7490,"鑫":7491,"鑭":7492,"鑰":7493,"鑲":7494,"鑴":7495,"鑷":7496,"鑼":7497,"鑽":7498,"鑾":7499,"鑿":7500,"针":7501,"钓":7502,"钙":7503,"钟":7504,"钠":7505,"钢":7506,"钥":7507,"钩":7508,"钱":7509,"钾":7510,"铀":7511,"铁":7512,"铅":7513,"铎":7514,"铜":7515,"铝":7516,"铭":7517,"铲":7518,"银":7519,"铺":7520,"链":7521,"销":7522,"锁":7523,"锅":7524,"锆":7525,"锋":7526,"锌":7527,"错":7528,"锡":7529,"锣":7530,"锦":7531,"键":7532,"镁":7533,"镇":7534,"镑":7535,"镜":7536,"镠":7537,"镶":7538,"長":7539,"长":7540,"門":7541,"閂":7542,"閃":7543,"閆":7544,"閉":7545,"開":7546,"閎":7547,"閏":7548,"閑":7549,"閒":7550,"間":7551,"閔":7552,"閘":7553,"閡":7554,"関":7555,"閣":7556,"閤":7557,"閥":7558,"閨":7559,"閩":7560,"閬":7561,"閭":7562,"閱":7563,"閲":7564,"閵":7565,"閹":7566,"閺":7567,"閻":7568,"閾":7569,"闆":7570,"闇":7571,"闈":7572,"闊":7573,"闌":7574,"闐":7575,"闓":7576,"闔":7577,"闕":7578,"闖":7579,"闗":7580,"關":7581,"闞":7582,"闡":7583,"闢":7584,"门":7585,"闪":7586,"闭":7587,"问":7588,"闯":7589,"闲":7590,"间":7591,"闷":7592,"闹":7593,"闻":7594,"阁":7595,"阅":7596,"阐":7597,"阜":7598,"队":7599,"阠":7600,"阡":7601,"阪":7602,"阮":7603,"阱":7604,"防":7605,"阳":7606,"阴":7607,"阵":7608,"阶":7609,"阻":7610,"阿":7611,"陀":7612,"陂":7613,"陃":7614,"附":7615,"际":7616,"陆":7617,"陈":7618,"陋":7619,"陌":7620,"降":7621,"限":7622,"陕":7623,"陘":7624,"陛":7625,"陜":7626,"陝":7627,"陞":7628,"陟":7629,"陡":7630,"院":7631,"陣":7632,"除":7633,"险":7634,"陪":7635,"陰":7636,"陲":7637,"陳":7638,"陵":7639,"陶":7640,"陷":7641,"陸":7642,"陽":7643,"隅":7644,"隆":7645,"隈":7646,"隊":7647,"隋":7648,"隍":7649,"階":7650,"随":7651,"隐":7652,"隔":7653,"隕":7654,"隘":7655,"隙":7656,"際":7657,"障":7658,"隠":7659,"隡":7660,"隣":7661,"隧":7662,"隨":7663,"險":7664,"隱":7665,"隴":7666,"隷":7667,"隸":7668,"隻":7669,"隼":7670,"难":7671,"雀":7672,"雁":7673,"雃":7674,"雄":7675,"雅":7676,"集":7677,"雇":7678,"雉":7679,"雋":7680,"雌":7681,"雍":7682,"雒":7683,"雕":7684,"雖":7685,"雙":7686,"雛":7687,"雜":7688,"雞":7689,"離":7690,"難":7691,"雨":7692,"雩":7693,"雪":7694,"雫":7695,"雯":7696,"雱":7697,"雲":7698,"零":7699,"雷":7700,"雹":7701,"電":7702,"需":7703,"霄":7704,"霆":7705,"震":7706,"霈":7707,"霉":7708,"霊":7709,"霍":7710,"霎":7711,"霏":7712,"霑":7713,"霓":7714,"霖":7715,"霙":7716,"霜":7717,"霞":7718,"霧":7719,"霨":7720,"霰":7721,"露":7722,"霸":7723,"霹":7724,"霽":7725,"霾":7726,"靂":7727,"靄":7728,"靈":7729,"靐":7730,"靑":7731,"青":7732,"靖":7733,"静":7734,"靚":7735,"靛":7736,"靜":7737,"非":7738,"靠":7739,"靡":7740,"面":7741,"靦":7742,"靨":7743,"革":7744,"靭":7745,"靱":7746,"靳":7747,"靴":7748,"靶":7749,"靼":7750,"鞄":7751,"鞋":7752,"鞍":7753,"鞏":7754,"鞕":7755,"鞘":7756,"鞠":7757,"鞣":7758,"鞦":7759,"鞭":7760,"韁":7761,"韃":7762,"韆":7763,"韋":7764,"韌":7765,"韓":7766,"韙":7767,"韜":7768,"韞":7769,"韦":7770,"韧":7771,"韩":7772,"韭":7773,"韮":7774,"音":7775,"韶":7776,"韻":7777,"韾":7778,"響":7779,"頁":7780,"頂":7781,"頃":7782,"項":7783,"順":7784,"頇":7785,"須":7786,"頊":7787,"頌":7788,"頎":7789,"預":7790,"頑":7791,"頒":7792,"頓":7793,"頔":7794,"頗":7795,"領":7796,"頜":7797,"頡":7798,"頤":7799,"頦":7800,"頭":7801,"頰":7802,"頷":7803,"頸":7804,"頹":7805,"頻":7806,"頽":7807,"顆":7808,"題":7809,"額":7810,"顎":7811,"顏":7812,"顓":7813,"顔":7814,"顗":7815,"願":7816,"顛":7817,"類":7818,"顢":7819,"顥":7820,"顧":7821,"顫":7822,"顯":7823,"顰":7824,"顱":7825,"顳":7826,"顴":7827,"页":7828,"顶":7829,"顷":7830,"项":7831,"顺":7832,"须":7833,"顾":7834,"顿":7835,"颁":7836,"颂":7837,"预":7838,"领":7839,"颐":7840,"频":7841,"题":7842,"颜":7843,"额":7844,"風":7845,"颮":7846,"颯":7847,"颱":7848,"颳":7849,"颶":7850,"颷":7851,"颻":7852,"颼":7853,"飄":7854,"飆":7855,"飇":7856,"飈":7857,"飊":7858,"风":7859,"飒":7860,"飓":7861,"飘":7862,"飙":7863,"飛":7864,"飞":7865,"食":7866,"飢":7867,"飧":7868,"飩":7869,"飪":7870,"飭":7871,"飯":7872,"飲":7873,"飴":7874,"飼":7875,"飽":7876,"飾":7877,"餃":7878,"餅":7879,"餉":7880,"養":7881,"餌":7882,"餐":7883,"餒":7884,"餓":7885,"餔":7886,"餘":7887,"餚":7888,"餛":7889,"餞":7890,"餡":7891,"館":7892,"餬":7893,"餵":7894,"餽":7895,"餾":7896,"餿":7897,"饀":7898,"饃":7899,"饅":7900,"饈":7901,"饉":7902,"饋":7903,"饌":7904,"饑":7905,"饒":7906,"饕":7907,"饗":7908,"饞":7909,"饥":7910,"饭":7911,"饮":7912,"饰":7913,"饼":7914,"饿":7915,"馆":7916,"馊":7917,"馏":7918,"首":7919,"馗":7920,"馘":7921,"香":7922,"馥":7923,"馨":7924,"馬":7925,"馭":7926,"馮":7927,"馱":7928,"馳":7929,"馴":7930,"駁":7931,"駄":7932,"駅":7933,"駐":7934,"駑":7935,"駒":7936,"駕":7937,"駘":7938,"駙":7939,"駛":7940,"駝":7941,"駡":7942,"駢":7943,"駭":7944,"駱":7945,"駸":7946,"駿":7947,"騁":7948,"騃":7949,"騅":7950,"騎":7951,"騏":7952,"騐":7953,"騒":7954,"験":7955,"騖":7956,"騙":7957,"騫":7958,"騮":7959,"騰":7960,"騷":7961,"騾":7962,"驀":7963,"驁":7964,"驃":7965,"驅":7966,"驊":7967,"驍":7968,"驒":7969,"驕":7970,"驗":7971,"驚":7972,"驛":7973,"驟":7974,"驢":7975,"驤":7976,"驥":7977,"驪":7978,"驫":7979,"马":7980,"驯":7981,"驰":7982,"驱":7983,"驳":7984,"驶":7985,"驻":7986,"驾":7987,"骄":7988,"验":7989,"骑":7990,"骗":7991,"骚":7992,"骤":7993,"骨":7994,"骯":7995,"骰":7996,"骶":7997,"骷":7998,"骸":7999,"骹":8000,"骺":8001,"骼":8002,"髀":8003,"髂":8004,"髃":8005,"髄":8006,"髎":8007,"髏":8008,"髒":8009,"髓":8010,"體":8011,"髕":8012,"髖":8013,"高":8014,"髙":8015,"髦":8016,"髪":8017,"髭":8018,"髮":8019,"髯":8020,"髻":8021,"鬃":8022,"鬆":8023,"鬍":8024,"鬚":8025,"鬟":8026,"鬢":8027,"鬣":8028,"鬥":8029,"鬧":8030,"鬨":8031,"鬩":8032,"鬱":8033,"鬻":8034,"鬼":8035,"魁":8036,"魂":8037,"魃":8038,"魄":8039,"魅":8040,"魍":8041,"魏":8042,"魔":8043,"魕":8044,"魘":8045,"魚":8046,"魛":8047,"魟":8048,"魠":8049,"魨":8050,"魩":8051,"魯":8052,"魷":8053,"鮁":8054,"鮋":8055,"鮐":8056,"鮑":8057,"鮟":8058,"鮪":8059,"鮫":8060,"鮭":8061,"鮮":8062,"鯃":8063,"鯆":8064,"鯇":8065,"鯉":8066,"鯊":8067,"鯓":8068,"鯔":8069,"鯖":8070,"鯛":8071,"鯡":8072,"鯢":8073,"鯤":8074,"鯧":8075,"鯨":8076,"鯪":8077,"鯰":8078,"鯷":8079,"鯽":8080,"鰂":8081,"鰆":8082,"鰈":8083,"鰍":8084,"鰐":8085,"鰓":8086,"鰛":8087,"鰡":8088,"鰣":8089,"鰤":8090,"鰥":8091,"鰩":8092,"鰭":8093,"鰱":8094,"鰲":8095,"鰹":8096,"鰺":8097,"鰻":8098,"鰾":8099,"鱂":8100,"鱅":8101,"鱇":8102,"鱈":8103,"鱉":8104,"鱒":8105,"鱔":8106,"鱖":8107,"鱗":8108,"鱘":8109,"鱝":8110,"鱟":8111,"鱧":8112,"鱪":8113,"鱭":8114,"鱲":8115,"鱷":8116,"鱸":8117,"鱺":8118,"鱻":8119,"鱼":8120,"鲁":8121,"鲅":8122,"鲇":8123,"鲍":8124,"鲜":8125,"鲤":8126,"鲫":8127,"鲭":8128,"鲵":8129,"鲶":8130,"鳥":8131,"鳧":8132,"鳩":8133,"鳯":8134,"鳳":8135,"鳴":8136,"鳶":8137,"鴆":8138,"鴇":8139,"鴉":8140,"鴐":8141,"鴒":8142,"鴕":8143,"鴛":8144,"鴝":8145,"鴞":8146,"鴟":8147,"鴦":8148,"鴨":8149,"鴯":8150,"鴴":8151,"鴻":8152,"鴿":8153,"鵑":8154,"鵜":8155,"鵝":8156,"鵟":8157,"鵠":8158,"鵡":8159,"鵪":8160,"鵬":8161,"鵯":8162,"鵰":8163,"鵲":8164,"鶉":8165,"鶓":8166,"鶘":8167,"鶩":8168,"鶯":8169,"鶲":8170,"鶴":8171,"鶻":8172,"鶼":8173,"鶿":8174,"鷂":8175,"鷄":8176,"鷈":8177,"鷗":8178,"鷞":8179,"鷠":8180,"鷥":8181,"鷦":8182,"鷲":8183,"鷴":8184,"鷸":8185,"鷹":8186,"鷺":8187,"鷿":8188,"鸕":8189,"鸚":8190,"鸛":8191,"鸝":8192,"鸞":8193,"鸡":8194,"鹅":8195,"鹊":8196,"鹋":8197,"鹏":8198,"鹵":8199,"鹹":8200,"鹼":8201,"鹽":8202,"鹿":8203,"麂":8204,"麈":8205,"麋":8206,"麒":8207,"麓":8208,"麗":8209,"麝":8210,"麟":8211,"麤":8212,"麥":8213,"麦":8214,"麩":8215,"麪":8216,"麯":8217,"麴":8218,"麵":8219,"麻":8220,"麼":8221,"麽":8222,"麾":8223,"黃":8224,"黄":8225,"黍":8226,"黎":8227,"黏":8228,"黐":8229,"黑":8230,"黒":8231,"黔":8232,"默":8233,"黛":8234,"黜":8235,"黝":8236,"點":8237,"黟":8238,"黥":8239,"黦":8240,"黨":8241,"黯":8242,"黴":8243,"黷":8244,"黿":8245,"鼇":8246,"鼎":8247,"鼐":8248,"鼓":8249,"鼠":8250,"鼩":8251,"鼬":8252,"鼯":8253,"鼴":8254,"鼷":8255,"鼻":8256,"鼽":8257,"鼾":8258,"齁":8259,"齊":8260,"齋":8261,"齎":8262,"齐":8263,"齒":8264,"齙":8265,"齜":8266,"齟":8267,"齡":8268,"齢":8269,"齣":8270,"齦":8271,"齧":8272,"齪":8273,"齬":8274,"齲":8275,"齷":8276,"齿":8277,"龄":8278,"龍":8279,"龎":8280,"龐":8281,"龔":8282,"龕":8283,"龘":8284,"龙":8285,"龜":8286,"龟":8287,"":8288,"":8289,"":8290,"":8291,"":8292,"":8293,"":8294,"":8295,"":8296,"":8297,"":8298,"":8299,"":8300,"":8301,"":8302,"":8303,"﨑":8304,"︎":8305,"️":8306,"﹅":8307,"﻿":8308,"￼":8309,"�":8310,"🆚":8311,"🇨":8312,"🇮":8313,"🇯":8314,"🇰":8315,"🇱":8316,"🇲":8317,"🇳":8318,"🇵":8319,"🇷":8320,"🇸":8321,"🇺":8322,"🇾":8323,"🌊":8324,"🌎":8325,"🌏":8326,"🌞":8327,"🌟":8328,"🌨":8329,"🌱":8330,"🌶":8331,"🌸":8332,"🌹":8333,"🌼":8334,"🍀":8335,"🍋":8336,"🍒":8337,"🍗":8338,"🍜":8339,"🍞":8340,"🍥":8341,"🍩":8342,"🎉":8343,"🎓":8344,"🎥":8345,"🎬":8346,"🎵":8347,"🏓":8348,"🏝":8349,"🏻":8350,"🏼":8351,"🐇":8352,"🐤":8353,"🐰":8354,"🐱":8355,"🐶":8356,"🐻":8357,"🐼":8358,"🐾":8359,"👀":8360,"👇":8361,"👉":8362,"👌":8363,"👍":8364,"👏":8365,"👔":8366,"👭":8367,"👸":8368,"👼":8369,"💁":8370,"💉":8371,"💋":8372,"💎":8373,"💔":8374,"💕":8375,"💖":8376,"💙":8377,"💚":8378,"💥":8379,"💦":8380,"💪":8381,"💫":8382,"📢":8383,"📼":8384,"🔍":8385,"🔎":8386,"🔒":8387,"🔞":8388,"🔥":8389,"🔦":8390,"🔵":8391,"🔺":8392,"🗣":8393,"😁":8394,"😂":8395,"😄":8396,"😅":8397,"😇":8398,"😉":8399,"😊":8400,"😍":8401,"😎":8402,"😏":8403,"😐":8404,"😗":8405,"😘":8406,"😙":8407,"😚":8408,"😛":8409,"😜":8410,"😢":8411,"😤":8412,"😩":8413,"😫":8414,"😭":8415,"😮":8416,"😰":8417,"😱":8418,"😳":8419,"😷":8420,"😿":8421,"🙃":8422,"🙄":8423,"🙇":8424,"🙏":8425,"🚃":8426,"🟡":8427,"🟨":8428,"🤍":8429,"🤔":8430,"🤢":8431,"🤣":8432,"🤨":8433,"🤪":8434,"🤯":8435,"🥇":8436,"🥊":8437,"🥕":8438,"🥳":8439,"🥴":8440,"🥺":8441,"🦁":8442,"🦄":8443,"🦊":8444,"🦋":8445,"🦩":8446,"🦵":8447,"🧡":8448,"𠽾":8449,"𡚒":8450,"𢭃":8451,"𣡊":8452,"𥌓":8453,"𥚃":8454,"𥴊":8455,"𧄌":8456,"𨑨":8457,"𩻸":8458,"nu":8459,"num":8460,"er":8461,"per":8462,"or":8463,"org":8464,"EP":8465,"SEP":8466,"per0":8467,"en":8468,",<":8469,"per1":8470,"。<":8471,"org0":8472,"org1":8473,"表示":8474,">.":8475,"美國":8476,"per2":8477,"。」":8478,">.<":8479,"報導":8480,"org2":8481,"、<":8482,"香港":8483,":「":8484,">,":8485,"台灣":8486,"疫情":8487,"中國":8488,"><":8489,"我們":8490,"」,":8491,"per3":8492,"]<":8493,">%":8494,"沒有":8495,"org3":8496,"政府":8497,">、<":8498,"今天":8499,",「":8500,"。[":8501,"lo":8502,"loc":8503,"可能":8504,"目前":8505,"民眾":8506,"自己":8507,"一個":8508,"記者":8509,"可以":8510,"新聞":8511,"確診":8512,"」、":8513,"他們":8514,"因為":8515,"」、「":8516,"進行":8517,"更多":8518,"」。":8519,"per4":8520,"防疫":8521,"已經":8522,"今年":8523,"疫苗":8524,"指出":8525,"總統":8526,"認為":8527,"org4":8528,"中心":8529,">:「":8530,"不過":8531,"網友":8532,"loc0":8533,"活動":8534,"公司":8535,"時間":8536,"就是":8537,">:":8538,"國家":8539,"世界":8540,"病毒":8541,"希望":8542,"美元":8543,"人員":8544,"相關":8545,"出現":8546,"日本":8547,"問題":8548,"工作":8549,"「<":8550,"第一":8551,"影響":8552,"現在":8553,"全球":8554,"要求":8555,"學生":8556,"開始":8557,"包括":8558,"比賽":8559,"發生":8560,"這個":8561,"經濟":8562,"警方":8563,">-":8564,"其中":8565,"發現":8566,"如果":8567,"調查":8568,"去年":8569,"per5":8570,"感染":8571,"議員":8572,"國際":8573,"持續":8574,"以及":8575,"宣布":8576,"北市":8577,"大陸":8578,"..":8579,"安全":8580,"指揮":8581,">、":8582,"媒體":8583,"使用":8584,"提供":8585,"的人":8586,"不是":8587,"因此":8588,"今日":8589,"一名":8590,"肺炎":8591,"運動":8592,"org5":8593,">%,":8594,"還有":8595,"支持":8596,"口罩":8597,"超過":8598,"市場":8599,"不會":8600,"其他":8601,">,<":8602,"這些":8603,"最後":8604,"。」<":8605,"大家":8606,"同時":8607,"印度":8608,"成為":8609,"唐人":8610,"新唐人":8611,"非常":8612,"英國":8613,"這是":8614,"部分":8615,"這樣":8616,"新冠":8617,"未來":8618,"無法":8619,"事件":8620,"什麼":8621,"地區":8622,"都是":8623,"選手":8624,"需要":8625,"造成":8626,"接種":8627,"許多":8628,"所以":8629,"進入":8630,"所有":8631,"日前":8632,"公布":8633,"自由":8634,"還是":8635,"根據":8636,"也是":8637,"增加":8638,"指揮中心":8639,"對於":8640,"看到":8641,"舉行":8642,">。":8643,"接受":8644,"結果":8645,"情況":8646,"是否":8647,"人的":8648,"雖然":8649,"健康":8650,"社會":8651,"per6":8652,"代表":8653,"顯示":8654,"死亡":8655,"醫院":8656,"甚至":8657,"措施":8658,"之後":8659,"個月":8660,"第二":8661,"很多":8662,"繼續":8663,"嚴重":8664,"/<":8665,"服務":8666,"男子":8667,"針對":8668,"另外":8669,"應該":8670,"人士":8671,"知道":8672,"強調":8673,"重要":8674,">」":8675,"合作":8676,"由於":8677,"綜合":8678,"的是":8679,"除了":8680,"投資":8681,":<":8682,">》":8683,"病例":8684,"下午":8685,"透過":8686,"。▲":8687,"獲得":8688,"過去":8689,">-<":8690,"的一":8691,"臉書":8692,"冠軍":8693,"也有":8694,"研究":8695,"通過":8696,"企業":8697,"《<":8698,"現場":8699,"期間":8700,"決定":8701,"參加":8702,"消息":8703,"民主":8704,"機會":8705,"為了":8706,"發展":8707,"生活":8708,"一起":8709,"導致":8710,"小時":8711,"公開":8712,"本土":8713,"地方":8714,"主要":8715,"受到":8716,"呼籲":8717,"必須":8718,"學校":8719,"關係":8720,"行動":8721,"相當":8722,"org6":8723,"不少":8724,"主席":8725,"不要":8726,"報告":8727,"方式":8728,"員工":8729,"手機":8730,"特別":8731,"新增":8732,"狀況":8733,">:<":8734,"表現":8735,"北京":8736,"大的":8737,"以來":8738,"新唐人記者":8739,"接觸":8740,"政策":8741,"國內":8742,"個人":8743,"當時":8744,"一次":8745,"這次":8746,"政治":8747,"!<":8748,"奧運":8749,"隔離":8750,"參與":8751,"聲明":8752,"症狀":8753,"不能":8754,"一直":8755,"真的":8756,"通知":8757,"選舉":8758,"人民":8759,"關注":8760,"」<":8761,"億美元":8762,"完成":8763,"任何":8764,"警察":8765,"市民":8766,"覺得":8767,"對此":8768,"專家":8769,"不同":8770,"正在":8771,"風險":8772,"準備":8773,"提出":8774,"當地":8775,"新冠肺炎":8776,"人數":8777,"中央":8778,"提醒":8779,"系統":8780,"時候":8781,"但是":8782,"武漢":8783,"管理":8784,"緊急":8785,"處理":8786,"一些":8787,"回應":8788,"引發":8789,"當局":8790,"執行":8791,"會議":8792,"最高":8793,"綜合報導":8794,"社區":8795,"建議":8796,"其實":8797,"官員":8798,"教育":8799,"方面":8800,"他的":8801,"醫師":8802,"推出":8803,"委員":8804,"以上":8805,"朋友":8806,"面對":8807,"預計":8808,">[":8809,"只有":8810,"萬元":8811,"原因":8812,"個案":8813,"球員":8814,"紀錄":8815,"紐約":8816,"出來":8817,"萬人":8818,"高雄":8819,"直接":8820,"只是":8821,"教練":8822,"討論":8823,"per7":8824,"規定":8825,"結束":8826,"將在":8827,"母親":8828,"醫療":8829,"一定":8830,"發表":8831,"透露":8832,"台中":8833,"第三":8834,"億元":8835,"自己的":8836,"計畫":8837,"說明":8838,"孩子":8839,"網路":8840,"年的":8841,"組織":8842,"台北市":8843,"近日":8844,"最新":8845,"開放":8846,"比較":8847,"爆發":8848,"舉辦":8849,"身體":8850,"保護":8851,"歲的":8852,"前往":8853,"抗議":8854,"數據":8855,"全國":8856,"而且":8857,"成功":8858,"貿易":8859,"加上":8860,"曝光":8861,"消毒":8862,"上午":8863,"產品":8864,"機師":8865,"分析":8866,"安打":8867,"至少":8868,"一步":8869,"這種":8870,"分鐘":8871,"技術":8872,"申請":8873,"台北":8874,"成長":8875,"分享":8876,"來自":8877,"環境":8878,"通報":8879,"不斷":8880,"重大":8881,"行為":8882,"協助":8883,"選擇":8884,"?<":8885,"發布":8886,"完全":8887,"加入":8888,"擴大":8889,"之前":8890,"採檢":8891,"有關":8892,"女子":8893,"起來":8894,"都有":8895,"先發":8896,"媽媽":8897,"染疫":8898,"計劃":8899,"年來":8900,"發言":8901,"聯盟":8902,"距離":8903,"好的":8904,"遊行":8905,"歷史":8906,"能夠":8907,"保持":8908,"治療":8909,"疑似":8910,"了解":8911,"大學":8912,"財經":8913,"org7":8914,"拿下":8915,"一樣":8916,"分別":8917,"設計":8918,"不到":8919,"關鍵":8920,"韓國":8921,"科技":8922,"消費":8923,"機構":8924,"內容":8925,"雙方":8926,"最大":8927,"提升":8928,"此外":8929,"loc1":8930,"戴口罩":8931,"蘋果":8932,"影片":8933,"球隊":8934,"協議":8935,"單位":8936,"中的":8937,"連續":8938,"之一":8939,"加強":8940,"業者":8941,"作為":8942,"下來":8943,"上的":8944,"資料":8945,"目標":8946,"德國":8947,"挑戰":8948,"群聚":8949,"再次":8950,"需求":8951,"官方":8952,"實施":8953,"只要":8954,"檢疫":8955,"減少":8956,"全面":8957,"團隊":8958,"這一":8959,"電視":8960,"正式":8961,"幫助":8962,"昨天":8963,"照片":8964,"家人":8965,"都會":8966,"共同":8967,">%。":8968,"取得":8969,"美國總統":8970,"努力":8971,"有人":8972,"如何":8973,"不僅":8974,"維持":8975,"羅斯":8976,"紛紛":8977,"近期":8978,"怎麼":8979,"批評":8980,";<":8981,"外交":8982,"最近":8983,"產業":8984,"至於":8985,"過程":8986,"!」":8987,"避免":8988,"外界":8989,"擔心":8990,"每日":8991,"傳出":8992,"?」":8993,"律師":8994,"記者會":8995,"成員":8996,"是在":8997,"達到":8998,"桃園":8999,"了一":9000,"壓力":9001,"領先":9002,"星期":9003,"日起":9004,"製造":9005,"新高":9006,"新聞網":9007,"攻擊":9008,"當天":9009,"澳洲":9010,"發文":9011,"想到":9012,"進一步":9013,"旅遊":9014,"最終":9015,"俄羅斯":9016,"投票":9017,">/<":9018,"就會":9019,"生產":9020,"也會":9021,"經過":9022,"也不":9023,"標準":9024,"晚間":9025,"引起":9026,"首次":9027,"法國":9028,"在香港":9029,"市長":9030,"兩人":9031,"委員會":9032,"規模":9033,"能力":9034,"提到":9035,"投手":9036,"控制":9037,"流行":9038,"球場":9039,"解決":9040,"注意":9041,"採取":9042,"聯合":9043,"發言人":9044,"威脅":9045,"階段":9046,"成績":9047,"團體":9048,"排名":9049,"負責":9050,"遭到":9051,"恢復":9052,"配合":9053,"價格":9054,"行政":9055,"反對":9056,"新北市":9057,"文化":9058,"限制":9059,"年輕":9060,"取消":9061,"人權":9062,"資訊":9063,"擔任":9064,"法院":9065,"質疑":9066,"突然":9067,"電子":9068,"全台":9069,"患者":9070,"因應":9071,"銀行":9072,"確定":9073,"」。<":9074,"在臉書":9075,"檢測":9076,"一下":9077,"停電":9078,"交易":9079,"擁有":9080,"的事":9081,"打擊":9082,"球迷":9083,"節目":9084,"立即":9085,"指數":9086,"這麼":9087,"才能":9088,">/":9089,"per8":9090,"安排":9091,"則是":9092,"他說":9093,"預期":9094,"功能":9095,"平台":9096,"穩定":9097,"再度":9098,"法律":9099,"出席":9100,"居家":9101,"利用":9102,"感謝":9103,"供應":9104,"董事":9105,"一度":9106,"的情況":9107,"的時候":9108,"對方":9109,"飯店":9110,"價值":9111,"附近":9112,"積極":9113,"家庭":9114,"的大":9115,"容易":9116,"基本":9117,"的話":9118,"我們的":9119,"各地":9120,"相信":9121,"立委":9122,"網站":9123,"集會":9124,"電影":9125,"證實":9126,"週一":9127,"中國大陸":9128,">「":9129,"台股":9130,"對手":9131,"大利":9132,"。「":9133,"召開":9134,"居民":9135,"展開":9136,"原本":9137,"正常":9138,"意外":9139,"得到":9140,"女性":9141,"拜登":9142,"決賽":9143,"日在":9144,"受傷":9145,"金融":9146,"告訴":9147,"至今":9148,"重新":9149,"汽車":9150,"禁止":9151,"先生":9152,"電話":9153,"感到":9154,"一天":9155,"沒想到":9156,"社交":9157,"部長":9158,"工程":9159,"駕駛":9160,"施打":9161,"將於":9162,"每天":9163,"面臨":9164,"衛生":9165,"就醫":9166,"調整":9167,"賽事":9168,"推動":9169,"富特":9170,"系列":9171,"訓練":9172,"諾富特":9173,"重點":9174,"入境":9175,"帶來":9176,"會有":9177,"整理":9178,"暫停":9179,"月底":9180,"升級":9181,"女兒":9182,"另一":9183,"升溫":9184,"場比賽":9185,"離開":9186,"...":9187,"我的":9188,"本季":9189,"來說":9190,"明顯":9191,"城市":9192,"成立":9193,"長期":9194,"就有":9195,"週三":9196,"局長":9197,"責任":9198,"表達":9199,"隨後":9200,"方案":9201,"台南":9202,"大量":9203,"邊境":9204,"用戶":9205,"新聞報導":9206,"傳播":9207,"拒絕":9208,"新的":9209,"累計":9210,"辦公":9211,"狀態":9212,"這項":9213,"專線":9214,"兒子":9215,"觀察":9216,"提高":9217,"採訪":9218,"萬華":9219,"年前":9220,"危機":9221,"疾病":9222,"週二":9223,"一般":9224,"畫面":9225,"中華":9226,"週四":9227,"事故":9228,"將會":9229,"交通":9230,"統計":9231,"主任":9232,"到了":9233,"示威":9234,"和平":9235,"改變":9236,"品牌":9237,"警戒":9238,"衝突":9239,"粉絲":9240,"文章":9241,"留言":9242,"達成":9243,"發出":9244,"主動":9245,"感覺":9246,"並且":9247,"學習":9248,"停止":9249,"儘管":9250,"org8":9251,"包含":9252,"港人":9253,"設備":9254,"管制":9255,"不滿":9256,"考慮":9257,"專業":9258,"傳統":9259,"只能":9260,"之間":9261,"也在":9262,"移民":9263,"大選":9264,"在美國":9265,"根本":9266,"職棒":9267,"疫情指揮中心":9268,"有多":9269,"三立":9270,"邀請":9271,"平均":9272,"掌握":9273,"足跡":9274,"重大新聞":9275,"老師":9276,"家長":9277,"每日重大新聞":9278,"每日重大新聞通知":9279,"暴力":9280,"危險":9281,"國中":9282,"商品":9283,"吸引":9284,"幾乎":9285,"尤其":9286,"必要":9287,"擊敗":9288,"加拿":9289,"購買":9290,"一年":9291,"公共":9292,"真相":9293,"不明":9294,"隨著":9295,"增長":9296,"喜歡":9297,"啟動":9298,"高達":9299,"確保":9300,"軍事":9301,"週五":9302,"法案":9303,"營收":9304,"來看":9305,"全部":9306,"公民":9307,"非法":9308,"機組":9309,"項目":9310,"銷售":9311,"落實":9312,"案例":9313,"實際":9314,"改善":9315,"或是":9316,"來到":9317,"檢查":9318,"有效":9319,"確認":9320,"令人":9321,"母親節":9322,"兄弟":9323,"貼文":9324,"最佳":9325,"左右":9326,"生涯":9327,"不適":9328,"他在":9329,"整個":9330,"然後":9331,"火箭":9332,"年度":9333,"宜蘭":9334,"傳染":9335,"三立新聞網":9336,"視頻":9337,"這樣的":9338,"聯邦":9339,"東西":9340,"體育":9341,"案件":9342,"機場":9343,"旅館":9344,"然而":9345,"區域":9346,"空間":9347,"加拿大":9348,"航空":9349,"承諾":9350,"業務":9351,"順利":9352,"這裡":9353,"凌晨":9354,"經驗":9355,"關閉":9356,"學員":9357,"截至":9358,"餐廳":9359,"制裁":9360,"你們":9361,"有一":9362,"新冠肺炎疫情":9363,"最多":9364,"集團":9365,"營業":9366,"違反":9367,"公里":9368,"生命":9369,"清楚":9370,"網絡":9371,"競爭":9372,"場所":9373,"警告":9374,"務必":9375,"都不":9376,"公尺":9377,"規劃":9378,"觀眾":9379,"都在":9380,"主管":9381,"法官":9382,"做出":9383,"爭取":9384,"是一":9385,"伊朗":9386,"兩個":9387,"降低":9388,"資金":9389,"訊息":9390,"直播":9391,"可能會":9392,"同樣":9393,"有些":9394,"南部":9395,"不得":9396,"東京":9397,"部門":9398,"優惠":9399,"名單":9400,"陸續":9401,"武漢肺炎":9402,"領導":9403,"線上":9404,"的問題":9405,"晚上":9406,"智慧":9407,"美國的":9408,"」[":9409,"精神":9410,"評估":9411,"資格":9412,"指控":9413,"家屬":9414,"讓他":9415,"開發":9416,"來越":9417,"下的":9418,"昨日":9419,"下降":9420,"老闆":9421,"上漲":9422,"外國":9423,"反應":9424,"符合":9425,"那麼":9426,"越來越":9427,"議題":9428,"台灣的":9429,"派出":9430,"萬美元":9431,"首度":9432,"多數":9433,"高中":9434,"存在":9435,"期待":9436,"在家":9437,"中國的":9438,"鼓勵":9439,"宣佈":9440,"範圍":9441,"時中":9442,"簡訊":9443,"推特":9444,"談判":9445,"大眾":9446,"食物":9447,"人們":9448,"歡迎":9449,"資源":9450,"人口":9451,"人民幣":9452,"的新":9453,"員警":9454,"迫害":9455,"後來":9456,"想要":9457,"言論":9458,"公開賽":9459,"搭乘":9460,"訪問":9461,"遊客":9462,"出口":9463,"告知":9464,"產生":9465,"小孩":9466,"台幣":9467,"變成":9468,"確診病例":9469,"直到":9470,"接觸者":9471,"他們的":9472,"如今":9473,"太空":9474,"她的":9475,"快速":9476,"per9":9477,"還在":9478,"主義":9479,"之外":9480,"倫敦":9481,"獨立":9482,"確實":9483,"辦法":9484,"上海":9485,"位於":9486,"多次":9487,"運輸":9488,"明年":9489,"辦理":9490,"戴上":9491,"陳時中":9492,"大幅":9493,"追蹤":9494,"一點":9495,"消費者":9496,"如此":9497,"而是":9498,"明天":9499,"敲出":9500,"遊戲":9501,"連結":9502,"回到":9503,"同意":9504,"終於":9505,"先前":9506,"已有":9507,"做好":9508,"確診者":9509,"後的":9510,"消防":9511,"今天在":9512,"。▲<":9513,"收到":9514,"願意":9515,"教授":9516,"各國":9517,"不可":9518,"特首":9519,"音樂":9520,"還要":9521,"畢業":9522,"藝術":9523,"事實":9524,"醫生":9525,"更加":9526,"陽性":9527,"態度":9528,"立刻":9529,"內的":9530,"起訴":9531,"各種":9532,"整體":9533,"加州":9534,"身分":9535,"職業":9536,"港府":9537,"天氣":9538,"緊張":9539,"知名":9540,"也將":9541,"堅持":9542,"詢問":9543,"審查":9544,"發起":9545,"主場":9546,"更是":9547,"有的":9548,"收入":9549,"並不":9550,"作業":9551,"接著":9552,"接下來":9553,"就業":9554,"股市":9555,"超級":9556,"每年":9557,"動物":9558,"指揮官":9559,"巴西":9560,"電腦":9561,"在地":9562,"科學":9563,"自行":9564,"電動":9565,"創下":9566,"市府":9567,"營運":9568,"領域":9569,"衝擊":9570,"自主":9571,"曾經":9572,"多個":9573,"公園":9574,"回家":9575,"展現":9576,"仍然":9577,"小組":9578,"人在":9579,"登場":9580,"這名":9581,"逮捕":9582,"國安":9583,"後續":9584,"所謂":9585,"讓人":9586,"北部":9587,"大會":9588,"地點":9589,"集中":9590,"即將":9591,"涉嫌":9592,"公投":9593,"下跌":9594,"到底":9595,"信息":9596,"以為":9597,"協會":9598,"解釋":9599,"來的":9600,"監視":9601,"機車":9602,"評論":9603,"不足":9604,"統一":9605,"下一":9606,"香港的":9607,"美中":9608,"開心":9609,"旅客":9610,"對象":9611,"當然":9612,"選人":9613,">。<":9614,"洗手":9615,"受訪":9616,"股價":9617,"網球":9618,"公告":9619,"環球":9620,"性的":9621,"證明":9622,"呼吸":9623,"建立":9624,"國民":9625,"尚未":9626,"似乎":9627,"情形":9628,"上班":9629,"延長":9630,"共有":9631,"退休":9632,"破壞":9633,"一次看":9634,"以色":9635,"上市":9636,"最大的":9637,"以色列":9638,"為何":9639,"這場":9640,"到場":9641,"時代":9642,"上升":9643,"事情":9644,"條件":9645,"參賽":9646,"國務":9647,"父親":9648,"拍攝":9649,"程序":9650,"找到":9651,"流行疫情指揮中心":9652,"提醒您":9653,"來源":9654,"基金":9655,"簽署":9656,"主持":9657,"感染源":9658,"戴上口罩":9659,"就在":9660,"方向":9661,"犯罪":9662,"疫苗接種":9663,"辦公室":9664,"變化":9665,"內部":9666,"海外":9667,"一路":9668,"此次":9669,"突破":9670,"一位":9671,"org9":9672,"大型":9673,"維權":9674,"晶片":9675,"籃板":9676,"利率":9677,"送醫":9678,"防疫措施":9679,"董事長":9680,"不知道":9681,"出賽":9682,"爭議":9683,"照顧":9684,"中央流行疫情指揮中心":9685,"社交距離":9686,"加油":9687,"條例":9688,"涉及":9689,"看更多":9690,"可能是":9691,"更新":9692,"撥打":9693,"新北":9694,"就能":9695,"壘打":9696,"機關":9697,"任務":9698,"信心":9699,"立法":9700,"並未":9701,"動作":9702,"金額":9703,"降雨":9704,"出的":9705,"上週":9706,"利益":9707,"嚴峻":9708,"基礎":9709,"史上":9710,"贏得":9711,"鋒面":9712,"保障":9713,"封鎖":9714,"當中":9715,"肯定":9716,"攝影":9717,"陰性":9718,"自然":9719,"速度":9720,"顧問":9721,"經營":9722,"日的":9723,"民間":9724,"制度":9725,"作用":9726,"意見":9727,"我覺得":9728,"朝鮮":9729,"方法":9730,"力量":9731,"或者":9732,"十分":9733,"才會":9734,"大樓":9735,"的方式":9736,"檢驗":9737,"妻子":9738,"測試":9739,"緬甸":9740,"紀念":9741,"課程":9742,"傷害":9743,"會考":9744,"月份":9745,"防疫專線":9746,"勞工":9747,"水庫":9748,"第一次":9749,"發燒":9750,"有網友":9751,"擴散":9752,"工廠":9753,"單日":9754,"參議員":9755,"考生":9756,"軍方":9757,"大賽":9758,"議會":9759,"姓男子":9760,"譴責":9761,"推文":9762,"冠狀":9763,"半年":9764,"絕對":9765,"應對":9766,"打造":9767,"獲利":9768,"》,":9769,"進口":9770,"以下":9771,"新台幣":9772,"真正":9773,"境外":9774,"男性":9775,"疫情升溫":9776,"推薦":9777,"擔憂":9778,"支援":9779,"優勢":9780,"免費":9781,"體驗":9782,"好手":9783,"一家":9784,"以前":9785,"兒童":9786,"應用":9787,"紀元":9788,"抵達":9789,"試圖":9790,"預估":9791,"數量":9792,"製作":9793,"明星":9794,"經理":9795,"竟然":9796,"屬於":9797,"也讓":9798,"三振":9799,"校園":9800,"多人":9801,"暫時":9802,"金牌":9803,"客戶":9804,"關稅":9805,"建設":9806,"基隆":9807,"大批":9808,"對抗":9809,"他也":9810,"戰略":9811,"多名":9812,"全力":9813,"最低":9814,"冠狀病毒":9815,"投入":9816,"考量":9817,"機制":9818,"大約":9819,"多歲":9820,"大紀元":9821,"的時間":9822,"關心":9823,"....":9824,"全場":9825,"導體":9826,"記錄":9827,"唯一":9828,"對話":9829,"半導體":9830,"維護":9831,"男童":9832,"有機會":9833,"商業":9834,"得分":9835,"早上":9836,"父母":9837,"選票":9838,"那些":9839,"檢察":9840,"高度":9841,"證據":9842,"原則":9843,"天內":9844,"休息":9845,"選民":9846,"不用":9847,"山區":9848,"開幕":9849,"效果":9850,"總理":9851,"一場":9852,"週日":9853,"下面":9854,"縣市":9855,"都要":9856,"勝利":9857,"例本土":9858,"的比賽":9859,"儘速":9860,"過程中":9861,"貨幣":9862,"廠商":9863,"請看":9864,"裡面":9865,"排除":9866,"困難":9867,"主辦":9868,"退出":9869,"車輛":9870,"類似":9871,"預測":9872,"為什麼":9873,"種子":9874,"西班":9875,"具有":9876,"西班牙":9877,"兩名":9878,"研發":9879,"助攻":9880,"像是":9881,"晉級":9882,"教學":9883,"考試":9884,"也要":9885,"大使":9886,"下去":9887,"釐清":9888,"遇到":9889,"醫護":9890,"因素":9891,"一定要":9892,"低於":9893,"第四":9894,"獅子":9895,"泰國":9896,"仍有":9897,"防護":9898,"事後":9899,"程度":9900,"他表示":9901,"購物":9902,"外送":9903,"放棄":9904,"的民眾":9905,"飲食":9906,"位置":9907,"結婚":9908,"承認":9909,"在香港報導":9910,"曾在":9911,"同期":9912,"打壓":9913,"學者":9914,"即使":9915,"司機":9916,"三分":9917,"飛機":9918,"改革":9919,"了嗎":9920,"百萬":9921,"我國":9922,"抗爭":9923,"彰化":9924,"提前":9925,"匡列":9926,"都沒有":9927,"公斤":9928,"同學":9929,"成本":9930,"嫌犯":9931,"」。[":9932,"宣傳":9933,"能源":9934,"手術":9935,"華盛":9936,"讓她":9937,"中方":9938,"為主":9939,"印尼":9940,"華盛頓":9941,"時表示":9942,"並沒有":9943,"允許":9944,"工作人員":9945,"作品":9946,"變種":9947,"恐怖":9948,"香港人":9949,"隨即":9950,"說法":9951,"乘客":9952,"廣告":9953,"事業":9954,"尋求":9955,"演出":9956,"經常":9957,"中午":9958,"並非":9959,"會長":9960,"嚴格":9961,"貢獻":9962,"初步":9963,"國防":9964,"南韓":9965,"年增":9966,"連勝":9967,"全世界":9968,"模式":9969,"強烈":9970,"居家隔離":9971,"原來":9972,"無論":9973,"很好":9974,"接近":9975,"棒球":9976,"秘書":9977,"影音":9978,"男友":9979,"病患":9980,"國務卿":9981,"密切":9982,"難以":9983,"不好":9984,"勞動":9985,"川普":9986,"教師":9987,"全壘打":9988,"是因為":9989,"建築":9990,"律賓":9991,"店家":9992,"結合":9993,"菲律賓":9994,"財經簡訊":9995,"per10":9996,"事務":9997,"並在":9998,"重要的":9999,"一切":10000,"呈現":10001,"政府的":10002,"數字":10003,"者的":10004,"補助":10005,"以後":10006,"的地方":10007,"是一個":10008,"國外":10009,"權利":10010,"千萬":10011,"旅行":10012,"此前":10013,"篩檢":10014,"領袖":10015,"創辦":10016,"工具":10017,"總教練":10018,"尊重":10019,"完整":10020,"小心":10021,"兩天":10022,"基地":10023,"醫學":10024,"loc2":10025,"獎金":10026,"。”":10027,"工業":10028,"物資":10029,"股票":10030,"支安打":10031,"相關新聞":10032,"」,<":10033,"支付":10034,"咖啡":10035,"會在":10036,"迅速":10037,"六四":10038,"強化":10039,"人死亡":10040,"損失":10041,"一段":10042,"政權":10043,"失去":10044,"季後":10045,"部隊":10046,"日下午":10047,"就要":10048,"無人":10049,"預防":10050,"時期":10051,"住院":10052,"其它":10053,"文件":10054,"的小":10055,"立場":10056,"專案":10057,"落後":10058,"設施":10059,"室內":10060,"電信":10061,"幾天":10062,"讀書":10063,"年齡":10064,"![":10065,"錦標":10066,"授權":10067,"新竹":10068,"疑似症狀":10069,"採用":10070,"漫畫":10071,"值得":10072,"懷疑":10073,"目的":10074,"青年":10075,"局上":10076,"不錯":10077,"故事":10078,"的高":10079,"候選人":10080,"三立新聞網報導":10081,"經典":10082,"更多三立新聞網報導":10083,"預算":10084,"數位":10085,"錦標賽":10086,"保險":10087,"接種疫苗":10088,"坦言":10089,"發揮":10090,"民視":10091,"一出":10092,"逐漸":10093,"嘉義":10094,"日晚間":10095,"接獲":10096,"輕鬆":10097,"不再":10098,"食品":10099,"防疫旅館":10100,"防範":10101,"司法":10102,"聯繫":10103,"幫忙":10104,"簡單":10105,"洛杉":10106,"華為":10107,"習慣":10108,"。」[":10109,"特殊":10110,"洛杉磯":10111,"新疆":10112,"執法":10113,"引述":10114,"對外":10115,"救援":10116,"很難":10117,"酒駕":10118,"交流":10119,"墨西":10120,">」,":10121,"情報":10122,"這間":10123,"墨西哥":10124,"臨時":10125,"局下":10126,"等人":10127,"修正":10128,"馬上":10129,"仍在":10130,"各界":10131,"你的":10132,"營養":10133,"也沒有":10134,"打出":10135,"賽後":10136,"合約":10137,"社群":10138,"名的":10139,"資產":10140,"不但":10141,"停車":10142,"大規模":10143,"熱議":10144,"所長":10145,"道路":10146,"受害":10147,"電廠":10148,"真實":10149,"不只":10150,"訴求":10151,"勇士":10152,"角色":10153,"衝刺":10154,"資深":10155,"核心":10156,"藥物":10157,"策略":10158,"認識":10159,"明確":10160,"隊友":10161,"溝通":10162,"直呼":10163,"聲稱":10164,"聲音":10165,"阻止":10166,"相對":10167,"在這":10168,"慶祝":10169,"實驗":10170,"離婚":10171,"人才":10172,"終場":10173,"道歉":10174,"環球財經簡訊":10175,"會上":10176,"的第":10177,"指示":10178,"監測":10179,"在中國":10180,"越南":10181,"百分":10182,"經歷":10183,"登記":10184,"很快":10185,"飛行":10186,"加速":10187,"州的":10188,"更多民視":10189,"更多民視新聞報導":10190,"清潔":10191,"下滑":10192,"還沒":10193,"也能":10194,"也被":10195,"多的":10196,"本週":10197,"的事情":10198,"給予":10199,"理由":10200,"例如":10201,"就可以":10202,"爆料":10203,"帶動":10204,"不管":10205,"校長":10206,"區的":10207,"出發":10208,"原始":10209,"今天的":10210,"保送":10211,"大法":10212,"在台灣":10213,"稍早":10214,"爸爸":10215,"足球":10216,"累積":10217,"民調":10218,"介紹":10219,"周邊":10220,"陷入":10221,"出局":10222,"觀光":10223,"勤洗手":10224,"聽到":10225,"估計":10226,"年輕人":10227,"優先":10228,"夥伴":10229,"崩潰":10230,"搭配":10231,"自我":10232,"雙北":10233,"趨勢":10234,"行業":10235,"費用":10236,"那個":10237,"今日新聞":10238,"女友":10239,"意義":10240,"機率":10241,",「<":10242,"的國家":10243,"身上":10244,"逆轉":10245,"示威者":10246,"歐元":10247,"強制":10248,"創新":10249,"表演":10250,"高層":10251,"失誤":10252,"的前":10253,"可望":10254,"關於":10255,"機組員":10256,"情緒":10257,"網上":10258,"意識":10259,"很大":10260,"👉<":10261,"不住":10262,"召集":10263,"創辦人":10264,"派出所":10265,"太陽":10266,"爆炸":10267,"的美國":10268,"監視器":10269,"反而":10270,"反映":10271,"比例":10272,"地球":10273,"決議":10274,"人都":10275,"廣場":10276,"開打":10277,"nk":10278,"unk":10279,"錯誤":10280,"加坡":10281,"收盤":10282,"媒體報導":10283,"公務":10284,"週六":10285,"的情況下":10286,"季後賽":10287,"即日起":10288,"為止":10289,"尋找":10290,"拿到":10291,"是不是":10292,"總部":10293,"旅遊史":10294,"品質":10295,"台中市":10296,"戰績":10297,"房屋":10298,"花蓮":10299,"各科":10300,"娛樂":10301,"現金":10302,"首都":10303,"據了解":10304,"海軍":10305,"老公":10306,"園區":10307,"現象":10308,"人類":10309,"採購":10310,"社團":10311,"報名":10312,"互動":10313,"出爐":10314,"之下":10315,"病人":10316,"補充":10317,"靠著":10318,"的水":10319,"但他":10320,"籃球":10321,"普選":10322,"一張":10323,"政黨":10324,"自動":10325,"回國":10326,"具體":10327,"競選":10328,"上場":10329,"多元":10330,"屏東":10331,"違規":10332,"短暫":10333,"宗教":10334,"延燒":10335,"回來":10336,"恐怕":10337,"典禮":10338,"實現":10339,"土地":10340,"護理":10341,"開車":10342,"也表示":10343,"太多":10344,"新加坡":10345,"毒品":10346,"通常":10347,"不想":10348,"環保":10349,"武器":10350,"直言":10351,"諾富特飯店":10352,"每個":10353,"國人":10354,"師生":10355,"的重要":10356,"操作":10357,"我想":10358,"但在":10359,"臺灣":10360,"執行長":10361,"設置":10362,"org10":10363,"奪冠":10364,"人物":10365,"捷運":10366,"最後一":10367,"封城":10368,"不敢":10369,"表明":10370,"公平":10371,"全民":10372,"時刻":10373,"主題":10374,"一旦":10375,"這位":10376,"正確":10377,"國會":10378,"動態":10379,"國小":10380,"樂天":10381,"還會":10382,"空軍":10383,"鏡頭":10384,"高溫":10385,"力的":10386,"月的":10387,"老人":10388,"創造":10389,"希望能":10390,"大眾運輸":10391,"今晚":10392,"澳大利":10393,"共和":10394,"最快":10395,"高雄市":10396,"族群":10397,"用餐":10398,"]「":10399,"運作":10400,"澳大利亞":10401,"美方":10402,"依然":10403,"有點":10404,"形成":10405,"組成":10406,"批准":10407,"外野":10408,"少年":10409,"月初":10410,"變種病毒":10411,"的影響":10412,"國安法":10413,"作戰":10414,"供電":10415,"世界排名":10416,"全程":10417,"國家安全":10418,"事發":10419,"的機會":10420,"每股":10421,"電動車":10422,"等待":10423,"隊伍":10424,"名將":10425,"當場":10426,"投資人":10427,"公車":10428,"加碼":10429,"帶領":10430,"得知":10431,">%。<":10432,"佔中":10433,"賽季":10434,"黨人":10435,"檢察官":10436,"半場":10437,"身體不適":10438,"有可能":10439,"合法":10440,"判決":10441,"團結":10442,"街頭":10443,"氣候":10444,"紫色":10445,"騎士":10446,"家中":10447,"相同":10448,"校方":10449,"就算":10450,"擊出":10451,"整理包":10452,"各項":10453,"桿的":10454,"遭遇":10455,"秘書長":10456,"局部":10457,"帶著":10458,"級警戒":10459,">:“":10460,"的心":10461,"世界盃":10462,"儀式":10463,"否認":10464,"親自":10465,"大聯盟":10466,"媽祖":10467,"處於":10468,"攻下":10469,"總裁":10470,"論壇":10471,"方便":10472,"的好":10473,"站在":10474,"多少":10475,"否則":10476,"失分":10477,"檢討":10478,"黑衣":10479,"保持社交距離":10480,"舉行的":10481,"上述":10482,"閱讀":10483,"重視":10484,"首先":10485,"規範":10486,"日上午":10487,"利亞":10488,"教育會考":10489,"人生":10490,"付費":10491,"外出":10492,"年底":10493,"打算":10494,"美食":10495,"放在":10496,"原始連結":10497,"佔領":10498,"偷看":10499,"國中教育會考":10500,"於是":10501,"」!":10502,"協調":10503,"社區感染":10504,"依照":10505,"告知醫師":10506,"在第":10507,"當年":10508,"移動":10509,"做法":10510,"收購":10511,":「<":10512,"地位":10513,"大補":10514,"必考":10515,"高級":10516,"用於":10517,"國家的":10518,"夫妻":10519,"發射":10520,"被捕":10521,"參選":10522,"都很":10523,"酒店":10524,"重申":10525,"夢想":10526,"惡化":10527,"多位":10528,"之際":10529,"民國":10530,"產能":10531,"一種":10532,"送中":10533,"有沒有":10534,"幾個":10535,"權益":10536,"美國政府":10537,"亞洲":10538,"天的":10539,"該名":10540,"香港報導":10541,"提名":10542,"訂單":10543,"重點一次看":10544,"停課":10545,"好好":10546,"都能":10547,"件事":10548,"促進":10549,"傳媒":10550,"官網":10551,"才是":10552,"按照":10553,"必考重點一次看":10554,"生物":10555,"辛苦":10556,"數十":10557,"兩年":10558,"舒壓":10559,"英文":10560,"失控":10561,"分析師":10562,"抗體":10563,"空氣":10564,"創作":10565,"累了嗎":10566,"防止":10567,"保證":10568,"股東":10569,"上訴":10570,"儘速就醫":10571,"諮詢":10572,"預約":10573,"克蘭":10574,"首席":10575,"救護":10576,"院長":10577,"身份":10578,"公眾":10579,"茶藝":10580,"航班":10581,"客人":10582,"球星":10583,"這間學校":10584,"大部分":10585,"大補帖":10586,"。※":10587,"的消息":10588,"路上":10589,"觀看":10590,"部署":10591,"高的":10592,"披露":10593,"各科必考重點一次看":10594,"以外":10595,"疫調":10596,"看這間學校":10597,"秒偷看":10598,"有多鬧":10599,"讀書累了嗎":10600,"漫畫舒壓":10601,"衝刺大補帖":10602,"看這間學校有多鬧":10603,"秒偷看漫畫舒壓":10604,"秒偷看漫畫舒壓一下":10605,"車禍":10606,"法輪":10607,"居住":10608,"蔓延":10609,"出門":10610,"分區":10611,"聚集":10612,"知識":10613,"設立":10614,"違法":10615,"三星":10616,"也說":10617,"等等":10618,"飲料":10619,"第一季":10620,"背景":10621,"襲擊":10622,"最好":10623,"戰爭":10624,"看起來":10625,"一項":10626,"告知醫師旅遊史":10627,"很多人":10628,"月中":10629,"湖人":10630,"發動":10631,"今天表示":10632,"也就是":10633,"女星":10634,"財政":10635,"不夠":10636,"出生":10637,"的狀況":10638,"而言":10639,"釋放":10640,"成果":10641,"本來":10642,"酒精":10643,"一人":10644,"同仁":10645,"的原因":10646,"不了":10647,"小姐":10648,"而在":10649,"。《<":10650,"州長":10651,"兩國":10652,"身為":10653,"茶藝館":10654,"打完":10655,"變得":10656,"遵守":10657,"有所":10658,"可能性":10659,"共識":10660,"體溫":10661,"一週":10662,"出國":10663,"旗下":10664,"看看":10665,"他是":10666,"per11":10667,"民主派":10668,"斯坦":10669,"副總統":10670,"去年同期":10671,"納入":10672,"還說":10673,"負擔":10674,"免疫":10675,"報稅":10676,"人確診":10677,"成交":10678,"聲援":10679,"峰會":10680,"在此":10681,"繳出":10682,"移入":10683,"中部":10684,"視訊":10685,"核酸":10686,"列車":10687,"說是":10688,"手段":10689,"德州":10690,"快新聞":10691,"本身":10692,"及時":10693,"形象":10694,"意大利":10695,"的支持":10696,"尼亞":10697,"恐慌":10698,"看了":10699,"馬拉":10700,"會員":10701,"計算":10702,"丈夫":10703,"刺激":10704,"聯賽":10705,"並將":10706,"味全":10707,"指定":10708,"解除":10709,"多年":10710,"一組":10711,"軟體":10712,"持有":10713,"車站":10714,"全美":10715,"訴訟":10716,"她說":10717,"實在":10718,"另有":10719,"重返":10720,"通訊":10721,"公布的":10722,"出售":10723,"供應鏈":10724,"這也是":10725,"首相":10726,"生態":10727,"一開始":10728,"?[":10729,"上任":10730,"理事":10731,"士頓":10732,"確診個案":10733,"西亞":10734,"代理":10735,"認定":10736,"運動員":10737,"地震":10738,"主委":10739,"來台":10740,"的不":10741,"▪<":10742,"他認為":10743,"公佈":10744,"即可":10745,"人潮":10746,"無奈":10747,"病房":10748,"兩岸":10749,"黃金":10750,"高於":10751,"出了":10752,"賠償":10753,"幼兒":10754,"還能":10755,"上一":10756,"實力":10757,"充滿":10758,"視為":10759,"賽前":10760,"的中國":10761,"不同的":10762,"工會":10763,"激烈":10764,"發聲":10765,"延續":10766,"首輪":10767,"-<":10768,"依據":10769,"甚麼":10770,"網民":10771,"權力":10772,"知情":10773,"適合":10774,"好奇":10775,"謝謝":10776,"可惜":10777,"土耳":10778,"超商":10779,"國中教育會考衝刺大補帖":10780,"中職":10781,"召集人":10782,"監獄":10783,"新型":10784,"有限":10785,"的一個":10786,"這段":10787,"亞裔":10788,"澄清":10789,"捍衛":10790,"爆出":10791,"打破":10792,"詐騙":10793,"日財經":10794,"會談":10795,"返回":10796,"將是":10797,"飛彈":10798,"一同":10799,"也都":10800,"報警":10801,"我是":10802,"賣場":10803,"應變":10804,"監控":10805,"警員":10806,"▲<":10807,"尤其是":10808,"隨時":10809,"頻道":10810,"土耳其":10811,"也很":10812,"失業":10813,"黨部":10814,"海洋":10815,"亞太":10816,"大概":10817,"採訪報導":10818,"意味":10819,"組合":10820,"草案":10821,"一半":10822,"時的":10823,"白色":10824,"未能":10825,"反送中":10826,"受影響":10827,"迎戰":10828,"微博":10829,"中華職棒":10830,"回歸":10831,"的行為":10832,"薪資":10833,"防禦":10834,"感動":10835,"來了":10836,"深夜":10837,"鳳梨":10838,"先發投手":10839,"本次":10840,"該公司":10841,"將近":10842,"更有":10843,"詳細":10844,"婚姻":10845,"局勢":10846,"豐富":10847,"美國人":10848,"做的":10849,"鎮壓":10850,"華人":10851,"+<":10852,"年後":10853,"稱為":10854,"接到":10855,"提案":10856,"當下":10857,"強勁":10858,"當前":10859,"規則":10860,"一份":10861,"獅子會":10862,"的風險":10863,"許多人":10864,"細節":10865,"罕見":10866,"表態":10867,"倫敦奧運":10868,"發佈":10869,"中信":10870,"回答":10871,"富邦":10872,"下令":10873,"夜市":10874,"桃猿":10875,"超越":10876,"過的":10877,"事實上":10878,"工人":10879,"法輪大法":10880,"瑞士":10881,"遊藝":10882,"蘆洲":10883,"疫苗的":10884,"門口":10885,"境外移入":10886,"別人":10887,"或許":10888,"嚴重的":10889,"同步":10890,"次三振":10891,"總經理":10892,"死亡人數":10893,"心理":10894,"普遍":10895,"裝置":10896,"好像":10897,"合理":10898,"日凌晨":10899,"運用":10900,"群聚感染":10901,"身材":10902,"領導人":10903,"廣播":10904,"美國國務卿":10905,"目前已":10906,"並列":10907,"千人":10908,"醫護人員":10909,"如有":10910,"~<":10911,"門票":10912,"婦人":10913,"週年":10914,"聽證":10915,"外媒":10916,"影像":10917,"人體":10918,"成了":10919,"一個月":10920,"同事":10921,"健康管理":10922,"在今年":10923,"部份":10924,"反彈":10925,"即時":10926,"是有":10927,"居家檢疫":10928,"每次":10929,"國籍":10930,"接連":10931,"一致":10932,"依舊":10933,"紅色":10934,"藝人":10935,"都沒":10936,"就像":10937,"洋基":10938,"最新報導":10939,"也可以":10940,"打開":10941,"不治":10942,"蟑螂":10943,"滿貫":10944,"高興":10945,"咳嗽":10946,"檢方":10947,"三立新聞網提醒您":10948,"名為":10949,"。」「":10950,"愛的":10951,"肥皂":10952,"住民":10953,"例確診":10954,"遊藝場":10955,"球季":10956,"精彩":10957,"鎖定":10958,"看好":10959,"現代":10960,"享受":10961,"熱門":10962,"長達":10963,"垃圾":10964,"偵辦":10965,"一波":10966,"財報":10967,"奪得":10968,"我認為":10969,"自身":10970,"真的很":10971,"漲幅":10972,"藉由":10973,"國際社會":10974,"演講":10975,"不少人":10976,">:「<":10977,"搭乘大眾運輸":10978,"監督":10979,"導演":10980,"日圓":10981,"被迫":10982,"還沒有":10983,"老婆":10984,"不良":10985,"演員":10986,"出去":10987,"香港市民":10988,"神經":10989,"認證":10990,"這起":10991,"看見":10992,"報案":10993,"民意":10994,"安心":10995,"停辦":10996,"編輯":10997,"小朋友":10998,"永遠":10999,"結構":11000,"寫下":11001,"足夠":11002,"平安":11003,"跟著":11004,"主動通報":11005,"剛剛":11006,"現身":11007,"可見":11008,"近年":11009,"使得":11010,"路線":11011,"依法":11012,"疫情的":11013,"器官":11014,"——":11015,"中美":11016,"黨員":11017,"出貨":11018,"」:":11019,"趕緊":11020,"餐飲":11021,"速瞄":11022,"境內":11023,"少數":11024,"是要":11025,"概念":11026,"當選":11027,"面的":11028,"公安":11029,"眼睛":11030,"零售":11031,"瞬間":11032,"將有":11033,"徒刑":11034,"之間的":11035,"焦點":11036,"口號":11037,"開賣":11038,"背後":11039,"指導":11040,"三個":11041,"其實是":11042,"螢幕":11043,"錄取":11044,"貸款":11045,"從事":11046,"出現疑似症狀":11047,"長的":11048,"最好的":11049,"顧客":11050,"發生在":11051,"悍將":11052,"在場":11053,"消失":11054,"判刑":11055,"業績":11056,"都被":11057,"地區的":11058,"對戰":11059,"疫情爆發":11060,"下面請看":11061,"出動":11062,"實聯":11063,"戶外":11064,"整理報導":11065,"書記":11066,"女士":11067,"記者會上":11068,"轉型":11069,"兩位":11070,"基於":11071,"在台":11072,"守護":11073,"總計":11074,"債務":11075,"地產":11076,"創新高":11077,"大戰":11078,"也沒":11079,"申辦":11080,"博士":11081,"黑色":11082,"及其":11083,"失敗":11084,"聖誕":11085,"便宜":11086,"判斷":11087,"此事":11088,"石油":11089,"請先":11090,"聲明中":11091,"地下":11092,"獲勝":11093,"疫情影響":11094,"障礙":11095,"例行":11096,"重症":11097,"半部":11098,"實體":11099,"打者":11100,"海域":11101,"免付費":11102,"外籍":11103,"近來":11104,"自治":11105,"輪流":11106,"所幸":11107,"良好":11108,"結束後":11109,"基因":11110,"對決":11111,"名人":11112,"展示":11113,"公司的":11114,"幾年":11115,"急診":11116,"有意":11117,"巨大":11118,"會的":11119,"電力":11120,"診所":11121,"實聯制":11122,"透明":11123,"烏克蘭":11124,"健身":11125,"午後":11126,"友人":11127,"留下":11128,"英鎊":11129,"今年的":11130,"油價":11131,"」;":11132,"並無":11133,"它們":11134,"行程":11135,"高球":11136,"新冠病毒":11137,"上傳":11138,"感情":11139,"電池":11140,"刪除":11141,"房子":11142,"球團":11143,"人工":11144,"快樂":11145,"分的":11146,"競賽":11147,"不及":11148,"出入":11149,"婆婆":11150,"法庭":11151,"過來":11152,"被問":11153,"長官":11154,"失蹤":11155,"打點":11156,"掀起":11157,"機器":11158,"生意":11159,"主要是":11160,"細胞":11161,"騷擾":11162,"眾議員":11163,"網紅":11164,"荷蘭":11165,"大停電":11166,"以往":11167,"房間":11168,"現任":11169,"了一個":11170,"匯率":11171,"拉斯":11172,"能量":11173,"興奮":11174,"今次":11175,"就被":11176,"輿論":11177,"撥打防疫專線":11178,"種族":11179,"對美國":11180,"的照片":11181,"不太":11182,"疑慮":11183,"搶救":11184,"特色":11185,"推廣":11186,"相比":11187,"深圳":11188,"笑說":11189,"學院":11190,"店員":11191,"網路上":11192,"的表現":11193,"縣長":11194,"兩次":11195,"差距":11196,"平時":11197,"務必告知醫師旅遊史":11198,"一片":11199,"免付費防疫專線":11200,"外資":11201,"施壓":11202,"看法":11203,"已經有":11204,"肥皂勤洗手":11205,"一間":11206,"版本":11207,"助理":11208,"她在":11209,"平常":11210,"援助":11211,"若身體不適":11212,"雜誌":11213,"黑衣人":11214,"財務":11215,"監管":11216,"帳號":11217,"樂觀":11218,"跌幅":11219,"進場":11220,"org11":11221,"用的":11222,"第一個":11223,"開會":11224,"魯閣":11225,"形容":11226,"主持人":11227,"攻勢":11228,"定期":11229,"湖北":11230,"是否有":11231,"並戴上口罩":11232,"穿著":11233,"財產":11234,"物品":11235,"曝光後":11236,"診斷":11237,"年以來":11238,"談到":11239,"恐嚇":11240,"人力":11241,"南投":11242,"壓制":11243,"興趣":11244,"請主動通報":11245,"天內出現疑似症狀":11246,"回國若身體不適":11247,"請先撥打防疫專線":11248,"並戴上口罩儘速就醫":11249,"天內出現疑似症狀請先撥打防疫專線":11250,"回國若身體不適請主動通報":11251,"上課":11252,"太魯閣":11253,"年代":11254,"打疫苗":11255,"戰勝":11256,"一口":11257,"整合":11258,"的工作":11259,"超前":11260,"私人":11261,"發表聲明":11262,"形式":11263,"移送":11264,"空中":11265,"彈劾":11266,"家的":11267,"負責人":11268,"排隊":11269,"美股":11270,"雨傘":11271,"延後":11272,"貿易戰":11273,"日報":11274,"不知":11275,"心臟":11276,"水果":11277,"盤中":11278,"一國":11279,"防範新冠肺炎":11280,"不佳":11281,"風暴":11282,"其餘":11283,"是由":11284,"軍隊":11285,"逐步":11286,"開季":11287,"分別為":11288,"講話":11289,"地方政府":11290,"徹底":11291,"第一時間":11292,"宣告":11293,"不起":11294,"將持續":11295,"延期":11296,"練習":11297,"防守":11298,"數百":11299,"試驗":11300,"不見":11301,"保留":11302,"傻眼":11303,"簽證":11304,"憲法":11305,"異常":11306,"同時也":11307,"近年來":11308,"不如":11309,"行的":11310,"缺乏":11311,"處分":11312,"已在":11313,"希臘":11314,"黑道":11315,"刑事":11316,"應該是":11317,"列為":11318,"尼克":11319,"日常":11320,"互相":11321,"指標":11322,"排放":11323,"日期":11324,"藉此":11325,"都可以":11326,"億美元的":11327,"外送員":11328,"撤離":11329,"本人":11330,"專訪":11331,"重啟":11332,"體系":11333,"紛紛留言":11334,"氣象":11335,"資本":11336,"大廠":11337,"昨晚":11338,"不多":11339,"對中國":11340,"敏感":11341,"短缺":11342,"或無法":11343,"槍擊":11344,"氧氣":11345,"清晨":11346,"很有":11347,"宣稱":11348,"投出":11349,"申報":11350,"百分點":11351,"拘捕":11352,"縣府":11353,"雲林":11354,"跡象":11355,"苗栗":11356,"萬名":11357,"二壘":11358,"玻璃":11359,"更好":11360,"送往":11361,"的部分":11362,"也有人":11363,"自主健康管理":11364,"不久":11365,"名字":11366,"不可能":11367,"全數":11368,"戰機":11369,"澳門":11370,"隱瞞":11371,"則表示":11372,"害怕":11373,"路口":11374,"協商":11375,"眾多":11376,"出戰":11377,"介入":11378,"參考":11379,"市值":11380,"幸福":11381,"應使用":11382,"房價":11383,"屆時":11384,"熱情":11385,"慢慢":11386,"時事":11387,"兩制":11388,"國軍":11389,"就連":11390,"皮膚":11391,"時許":11392,"禁令":11393,"見到":11394,"阿富":11395,"西方":11396,"電梯":11397,"廣東":11398,"揭露":11399,"記憶":11400,"一輛":11401,"綠色":11402,"的經濟":11403,"盡快":11404,"返台":11405,"水準":11406,"顯然":11407,"阿富汗":11408,"三大":11409,"回憶":11410,"此舉":11411,"一定會":11412,"商務":11413,"發電":11414,"點多":11415,"務必戴上口罩":11416,"保持社交距離時":11417,"去過":11418,"她們":11419,"貼出":11420,"退場":11421,"列入":11422,"遭受":11423,"中信兄弟":11424,"攜手":11425,"他人":11426,"心情":11427,"先後":11428,"女孩":11429,"搭乘大眾運輸或無法":11430,"應使用肥皂勤洗手":11431,"搭乘大眾運輸或無法保持社交距離時":11432,"等級":11433,"聯絡":11434,"股指":11435,"馬來":11436,"日至":11437,"暴增":11438,"熱烈":11439,"大多":11440,"投球":11441,"的美":11442,"盡量":11443,"加入風":11444,"作出":11445,"子女":11446,"拍照":11447,"加入風運動":11448,"血管":11449,"馬拉松":11450,"本屆":11451,"特定":11452,"女單":11453,"經費":11454,"隊長":11455,"個百分點":11456,"思考":11457,"檢疫所":11458,"有一個":11459,"不願":11460,"總冠軍":11461,"在於":11462,"常見":11463,"面積":11464,"桃園市":11465,"全新":11466,"西蘭":11467,"游泳":11468,"能否":11469,"合併":11470,"信任":11471,"滿足":11472,"台北市長":11473,"危害":11474,"已被":11475,"有望":11476,"中間":11477,"喊話":11478,"主權":11479,"命令":11480,"龍頭":11481,"專頁":11482,"懷孕":11483,"的目標":11484,"罰款":11485,"普通":11486,"決心":11487,"開罰":11488,"氣氛":11489,"等到":11490,"處長":11491,"特區":11492,"婦女":11493,"義大利":11494,"侵犯":11495,"首位":11496,"感受":11497,"支出":11498,"生日":11499,"大多數":11500,"信仰":11501,"警局":11502,"特別是":11503,"法人":11504,"流感":11505,"萬噸":11506,"做到":11507,"在全球":11508,"商店":11509,"日環球財經簡訊":11510,"原始連結更多":11511,"天然":11512,"全身":11513,"身亡":11514,"上網":11515,"抱怨":11516,">%;":11517,"模擬":11518,"下載":11519,"命中":11520,"想法":11521,"熱火":11522,"進展":11523,"健保":11524,"按摩":11525,"秩序":11526,"衣服":11527,"阿嬤":11528,"不論":11529,"火力":11530,"破口":11531,"大滿貫":11532,"理解":11533,"短短":11534,">~<":11535,"並表示":11536,"出面":11537,"執政":11538,"陣雨":11539,"企圖":11540,"在一起":11541,"警報":11542,"印象":11543,"每個人":11544,"數據顯示":11545,"馬來西亞":11546,"二軍":11547,"家族":11548,"超市":11549,"約有":11550,"遺體":11551,"早在":11552,"實際上":11553,"理念":11554,"做了":11555,"死者":11556,"管道":11557,"辭職":11558,"自費":11559,"許可":11560,"一大":11561,"好吃":11562,"等地":11563,"軍人":11564,"連敗":11565,"在推特":11566,"意願":11567,"台灣人":11568,"相關的":11569,"台北報導":11570,"東京奧運":11571,"也曾":11572,"創意":11573,"農業":11574,"鋼鐵":11575,"將與":11576,"日宣布":11577,"大雨":11578,"相較":11579,"所有的":11580,"故障":11581,"台東":11582,"干預":11583,"聚會":11584,"車上":11585,"廁所":11586,"分局":11587,"少女":11588,"葡萄":11589,"複雜":11590,"主張":11591,"廣泛":11592,"程式":11593,"調查中":11594,"是個":11595,"認同":11596,"轉移":11597,"不當":11598,"住宅":11599,"有很多":11600,"限電":11601,"》<":11602,"預購":11603,"不排除":11604,"進步":11605,"今天下午":11606,"不少網友":11607,"下面請看一組":11608,"化學":11609,"送到":11610,"開啟":11611,"首季":11612,"疫情嚴峻":11613,"中華民國":11614,"日表示":11615,"驚人":11616,"發病":11617,"獲報":11618,"發文表示":11619,"轎車":11620,"並於":11621,"兩隊":11622,"面板":11623,"女將":11624,"淘汰":11625,"臨床":11626,"同一":11627,"不幸":11628,"比特":11629,"只會":11630,"秘密":11631,"一看":11632,"同住":11633,"柏忌":11634,"核酸檢測":11635,"成年":11636,"志工":11637,"保守":11638,"早餐":11639,"主要股指":11640,"宣導":11641,"帳戶":11642,"拘留":11643,"舞弊":11644,"吞下":11645,"農民":11646,"追查":11647,"迄今":11648,"......":11649,"讓我們":11650,"民主黨人":11651,"輝瑞":11652,"哪些":11653,"爾夫":11654,"指責":11655,"的學生":11656,"股匯":11657,"!」<":11658,"第五":11659,"變異":11660,"抵制":11661,"震驚":11662,"癌症":11663,"主要股指收盤":11664,"人氣":11665,"學家":11666,"收在":11667,"率先":11668,"而已":11669,"捷克":11670,"過度":11671,"召開記者會":11672,"上演":11673,"和其他":11674,"就讀":11675,"賽的":11676,"高鐵":11677,"剛好":11678,"移工":11679,"純益":11680,"能在":11681,"彼此":11682,"港警":11683,"進攻":11684,"一帶":11685,"延伸":11686,"報復":11687,"演唱":11688,"外長":11689,"男單":11690,"直升":11691,"被害":11692,"台商":11693,"百姓":11694,"緩解":11695,"人以上":11696,"信用":11697,"單場":11698,"對上":11699,"案的":11700,"寫道":11701,"就好":11702,"門市":11703,"我要":11704,"配戴口罩":11705,"金門":11706,"制定":11707,"想像":11708,"嘗試":11709,"理想":11710,"比賽中":11711,"公益":11712,"付出":11713,"畢竟":11714,"味全龍":11715,"巴黎":11716,"總是":11717,"抗疫":11718,"據悉":11719,"罪名":11720,"修改":11721,"住在":11722,"職籃":11723,"世紀":11724,"提交":11725,"材料":11726,"真的是":11727,"辯論":11728,"修法":11729,"又有":11730,"正義":11731,"柔道":11732,"英雄":11733,"per12":11734,"東部":11735,"前的":11736,"法治":11737,"為此":11738,"家裡":11739,"虧損":11740,"勢力":11741,"各大":11742,"旁邊":11743,"有助":11744,"北韓":11745,"女生":11746,"聯手":11747,"便利":11748,"前總統":11749,"年級":11750,"中文":11751,"提及":11752,"登上":11753,"而不是":11754,"路邊":11755,"短期":11756,"起火":11757,"共產":11758,"大跌":11759,"復甦":11760,"前後":11761,"防治":11762,"進行了":11763,"拿出":11764,"」、「<":11765,"哪裡":11766,"效力":11767,"連署":11768,"全聯":11769,"當初":11770,"總監":11771,"國內外":11772,"智能":11773,"肌肉":11774,">%、":11775,"催淚":11776,"其中包括":11777,"僅有":11778,"我很":11779,"歧視":11780,"祝福":11781,">..":11782,"管制措施":11783,"只剩":11784,"會不會":11785,"使用者":11786,"升至":11787,"本土病例":11788,"隊的":11789,"所謂的":11790,"法規":11791,"福利":11792,"請撥打":11793,"時報":11794,"留在":11795,"記得":11796,"進度":11797,"快訊":11798,"話題":11799,"可是":11800,"女神":11801,"正面":11802,"緊急狀態":11803,"基層":11804,"顏色":11805,"交手":11806,"坦承":11807,"點名":11808,"就不":11809,"敦促":11810,"亞太電視":11811,"的活動":11812,"也不會":11813,"提早":11814,"動力":11815,"海上":11816,"適當":11817,"研究所":11818,"可愛":11819,"對待":11820,"萬戶":11821,"協定":11822,"驅逐":11823,"傍晚":11824,"失望":11825,"忍不住":11826,"華航":11827,">!":11828,"我們會":11829,"集體":11830,"萬劑":11831,"視察":11832,"等於":11833,"贏球":11834,"黨主席":11835,"在內":11836,"場地":11837,"好友":11838,"用品":11839,"下台":11840,"循環":11841,"於今日":11842,"連任":11843,"關切":11844,"大流行":11845,"格蘭":11846,"永續":11847,"這就是":11848,"糾紛":11849,"號種子":11850,"股匯市":11851,"化的":11852,"意思":11853,"無症狀":11854,"句話":11855,"憤怒":11856,"收看":11857,"上面":11858,"下車":11859,"自行車":11860,"提告":11861,"華裔":11862,"雞蛋":11863,"受害者":11864,"裁判":11865,"重挫":11866,"不在":11867,"封閉":11868,"污染":11869,"趕快":11870,"防禦率":11871,">。[":11872,"高爾夫":11873,"會面":11874,"一國兩制":11875,"職場":11876,"卻被":11877,"台南市":11878,"分數":11879,"職務":11880,"傷勢":11881,"查詢":11882,"身心":11883,"新一":11884,"棒球場":11885,"究竟":11886,"所得":11887,"但仍":11888,"闖入":11889,"興達":11890,"委會":11891,"完美":11892,"救護車":11893,"前來":11894,"大漲":11895,"這份":11896,"女網友":11897,"撤回":11898,"的生活":11899,"常常":11900,"快篩":11901,"是為了":11902,"質詢":11903,"村民":11904,"民生":11905,"用水":11906,"」。▲":11907,"力挺":11908,"圖片":11909,"比亞":11910,"毫無":11911,"新唐人亞太電視":11912,"從未":11913,"稽查":11914,"這兩":11915,"風波":11916,"大家都":11917,"新型冠狀病毒":11918,"下週":11919,"度過":11920,"一邊":11921,"上有":11922,"注射":11923,"追求":11924,"何時":11925,"沒有任何":11926,"歷史新高":11927,"直升機":11928,"料理":11929,"豬肉":11930,"不讓":11931,"個國家":11932,"售價":11933,"歌手":11934,"推進":11935,"期望":11936,"今天上午":11937,"理事長":11938,"有利":11939,"留意":11940,"致力":11941,"更多的":11942,"富豪":11943,"小學":11944,"工資":11945,"這場比賽":11946,"疫情持續":11947,"言論自由":11948,"比特幣":11949,"故意":11950,"肇事":11951,"黨籍":11952,"改為":11953,"比如":11954,"紓困":11955,"關懷":11956,"支持者":11957,"泡麵":11958,"公路":11959,"特斯":11960,"疼痛":11961,"這對":11962,"放寬":11963,"血清":11964,"百貨":11965,"的關鍵":11966,"缺水":11967,"拍賣":11968,"受困":11969,"受惠":11970,"三分球":11971,"多年來":11972,"很大的":11973,"一名網友":11974,"出手":11975,"充分":11976,"副主席":11977,"平衡":11978,"年紀":11979,"演習":11980,"隊員":11981,"廢水":11982,"情勢":11983,"報導說":11984,"幼兒園":11985,"只好":11986,"條款":11987,"檢視":11988,"的安全":11989,"釋出":11990,"殺人":11991,"全體":11992,"藻礁":11993,"間諜":11994,"住戶":11995,"坐在":11996,"標普":11997,"自殺":11998,"回饋":11999,"巡邏":12000,"睡眠":12001,"預定":12002,"日財經速瞄":12003,"年內":12004,"痛批":12005,"食用":12006,"目擊":12007,"即便":12008,"期徒刑":12009,"開槍":12010,"製造業":12011,"冠狀病毒疾病":12012,"一事":12013,"巡迴":12014,"多家":12015,"戰力":12016,"搜索":12017,"是什麼":12018,"比分":12019,"犧牲":12020,"抓捕":12021,"日子":12022,"今天的財經":12023,"下雨":12024,"打電話":12025,"他們在":12026,"學測":12027,"總共":12028,"這波":12029,"再加上":12030,"固定":12031,"的關係":12032,"航運":12033,"退黨":12034,"衛冕":12035,"交往":12036,"天使":12037,"漂亮":12038,"認真":12039,"用來":12040,"的中":12041,"這件事":12042,"原油":12043,"德里":12044,"損害":12045,"輔導":12046,"網友們":12047,"是美國":12048,"loc3":12049,"搶購":12050,"傷亡":12051,"疫情警戒":12052,"一個人":12053,"將繼續":12054,"他還":12055,"擴張":12056,"中國人":12057,"一直在":12058,"人受傷":12059,"八大":12060,"新年":12061,"設定":12062,"一條":12063,"個小時":12064,"心的":12065,"我會":12066,"的機率":12067,"最高的":12068,"被告":12069,"提出的":12070,"低於標準":12071,"瘋狂":12072,"語言":12073,"週刊":12074,"日全球":12075,"蛋白":12076,"反擊":12077,"我就":12078,"梅雨":12079,"」,「":12080,"並不是":12081,"公分":12082,"進而":12083,"出現在":12084,"水情":12085,"生的":12086,"看來":12087,"作家":12088,"身邊":12089,"航空公司":12090,"兩大":12091,"喝酒":12092,"分別是":12093,"加劇":12094,"發行":12095,"籃網":12096,"觀點":12097,"公費":12098,"無失分":12099,"公社":12100,"喬治":12101,"客場":12102,"新莊":12103,"歲以上":12104,"的東西":12105,"祭出":12106,"浪費":12107,"物質":12108,"獅隊":12109,"頭部":12110,"現有":12111,"男女":12112,"舞台":12113,"消息人士":12114,"承擔":12115,"最重要":12116,"瑞典":12117,"進去":12118,"困擾":12119,"晶圓":12120,"關押":12121,"刊登":12122,"搭載":12123,"生育":12124,"證券":12125,"急救":12126,"集中檢疫所":12127,"分子":12128,"國的":12129,"大火":12130,"替代":12131,"角度":12132,"滿意":12133,"太魯閣號":12134,"優質":12135,"官媒":12136,"弱勢":12137,"讓我":12138,"特斯拉":12139,"所需":12140,"每月":12141,"的台灣":12142,"取代":12143,"聯辦":12144,"病毒疫情":12145,"的報導":12146,"訪民":12147,"興建":12148,"日全球股匯市":12149,"期限":12150,"工作的":12151,"舉辦的":12152,"出色":12153,"撤銷":12154,"造型":12155,"金山":12156,"呼籲民眾":12157,"上前":12158,"它的":12159,"幾個月":12160,"打球":12161,"裁定":12162,"我們要":12163,"新北市長":12164,"培訓":12165,"高峰":12166,"病毒的":12167,"感染者":12168,"內行":12169,"只見":12170,"司長":12171,"盟友":12172,"眾人":12173,"上下":12174,"攜帶":12175,"頒獎":12176,"世代":12177,"遠距":12178,"群聚案":12179,"不停":12180,"日舉行":12181,"災難":12182,"原住民":12183,"考場":12184,"與中國":12185,"在內的":12186,"的香港":12187,"追平":12188,"阿根":12189,"日報導":12190,"終止":12191,"的態度":12192,"粉絲專頁":12193,"阿根廷":12194,"大師":12195,">;":12196,"人為":12197,"全隊":12198,"停車場":12199,"中有":12200,"長照":12201,"降至":12202,"?」、「":12203,"主播":12204,"優秀":12205,"日到":12206,"入住":12207,"千元":12208,"引來":12209,"註冊":12210,"傳染病":12211,"施工":12212,"水平":12213,"打擊率":12214,"不需要":12215,"司令":12216,"禮物":12217,"稅後":12218,"規格":12219,"是否會":12220,"的第一":12221,"若有":12222,"鄰居":12223,"巨頭":12224,"強硬":12225,"造成的":12226,"感染源不明":12227,"]▲":12228,"捐贈":12229,"發放":12230,"?」<":12231,"上街":12232,"中聯辦":12233,"羽球":12234,"中表示":12235,"主辦單位":12236,"上個月":12237,"激增":12238,"的疫苗":12239,"貨車":12240,"全案":12241,"見面":12242,"也有網友":12243,"實驗室":12244,"不然":12245,"制止":12246,"亮眼":12247,"座位":12248,"與美國":12249,"若是":12250,"許多網友":12251,"外交部":12252,"裝備":12253,"血壓":12254,"陸軍":12255,"製造商":12256,"在外":12257,"網賽":12258,"震盪":12259,"的疫情":12260,"交給":12261,"在一":12262,"的可能性":12263,"戰鬥":12264,"的政治":12265,"遺憾":12266,"長時間":12267,"十年":12268,"味道":12269,"塞爾":12270,"有局部":12271,"的防疫":12272,"高壓":12273,"日本政府":12274,"打數":12275,"沒人":12276,"的決定":12277,"的說法":12278,"邪惡":12279,"加盟":12280,"當日":12281,"全年":12282,"專利":12283,"港版":12284,"惡意":12285,"日開始":12286,"東區":12287,"遶境":12288,"電視台":12289,"打得":12290,"左投":12291,"充電":12292,"警覺":12293,"先進":12294,"感恩":12295,"蛋糕":12296,"小的":12297,"被控":12298,"這邊":12299,"確診人數":12300,"意味著":12301,"事態":12302,"將由":12303,"廣州":12304,"審理":12305,"販售":12306,"這款":12307,"機師染疫":12308,"主因":12309,"多項":12310,"建制":12311,"供應商":12312,"出版":12313,"培養":12314,"她也":12315,"遼寧":12316,"應該要":12317,"為期":12318,"衛星":12319,"一隻":12320,"合計":12321,"生效":12322,"重慶":12323,"主角":12324,"始終":12325,"寶寶":12326,"錄影":12327,"多歲男性":12328,"升高":12329,"早已":12330,"驚見":12331,"瞭解":12332,"紅燈":12333,"開出":12334,"前進":12335,"答案":12336,"大學生":12337,"著名":12338,"號碼":12339,"吃飯":12340,"我不":12341,"連鎖":12342,"一連":12343,"實名":12344,"強的":12345,"期盼":12346,"薪水":12347,"醜聞":12348,"第二季":12349,"太太":12350,"幸運":12351,"查獲":12352,"課綱":12353,"帶回":12354,"還不":12355,"室外":12356,"構成":12357,"白宮":12358,"逃逸":12359,"還好":12360,"氣溫":12361,"自家":12362,"讓他們":12363,"象徵":12364,"進帳":12365,"護理師":12366,"球后":12367,"道瓊":12368,"老虎":12369,"人大":12370,"缺席":12371,"血液":12372,"施打疫苗":12373,"回合":12374,"計程":12375,"就是要":12376,"紐約市":12377,"專屬":12378,"捐款":12379,"親友":12380,"首戰":12381,"現在的":12382,"名額":12383,"專門":12384,"歷經":12385,"還可以":12386,"展望":12387,"研判":12388,"在過去":12389,"是他":12390,"毆打":12391,"開設":12392,"另一個":12393,"報到":12394,"得以":12395,"簽名":12396,"試試":12397,"不一樣":12398,"達克":12399,"颱風":12400,"一口氣":12401,"備受":12402,"在疫情":12403,"罹難":12404,"委託":12405,"扮演":12406,"爭奪":12407,"血栓":12408,"從小":12409,"日經":12410,"森林":12411,"裁決":12412,"迎接":12413,"使用的":12414,"南非":12415,"央行":12416,"官兵":12417,"認爲":12418,"。《":12419,"漏洞":12420,"群眾":12421,"進駐":12422,"體壇":12423,"入侵":12424,"學聯":12425,"達成協議":12426,"中南部":12427,"機密":12428,"預料":12429,"週末":12430,"重創":12431,"麻煩":12432,"報導指出":12433,"增強":12434,"成就":12435,"才發現":12436,"美國職籃":12437,"三壘":12438,"性別":12439,"比利":12440,"電商":12441,"經典賽":12442,"投訴":12443,"攀升":12444,"議長":12445,"隔天":12446,"產量":12447,"給他":12448,"陪伴":12449,"org12":12450,"有民眾":12451,"深入":12452,"當晚":12453,"維權人士":12454,"一早":12455,"保育":12456,"合照":12457,"轉播":12458,"過後":12459,"計程車":12460,"中斷":12461,"仍未":12462,"停業":12463,"為由":12464,"的主要":12465,"禮拜":12466,"街道":12467,"長者":12468,"新聞自由":12469,"乾淨":12470,"曾到":12471,"洗腦":12472,"上路":12473,"不受":12474,"但也":12475,"入圍":12476,"本月":12477,"脂肪":12478,"代表處":12479,"加權":12480,"度的":12481,"查看":12482,"正是":12483,"讓民眾":12484,"響應":12485,"其中有":12486,"我也":12487,"把握":12488,"日晚":12489,"高速":12490,"因應新冠肺炎疫情":12491,"不應":12492,"仔細":12493,"行銷":12494,"打線":12495,"補貼":12496,"折起":12497,"東半部":12498,"認為是":12499,"分配":12500,"真是":12501,"大法官":12502,"滿滿":12503,"基本上":12504,"克斯":12505,"可怕":12506,"各自":12507,"多達":12508,"子的":12509,"防衛":12510,"上周":12511,"原先":12512,"給我":12513,"罹患":12514,"風格":12515,"還是要":12516,"喜愛":12517,"年起":12518,"經紀":12519,"不料":12520,"在美":12521,"人被":12522,"植物":12523,"熟悉":12524,"的調查":12525,"舊金山":12526,"港版國安法":12527,"優於":12528,"從來":12529,"拉開":12530,"隱私":12531,"新聞稿":12532,"當地時間":12533,"分流":12534,"市場的":12535,"網球公開賽":12536,"具備":12537,"嬰兒":12538,"景點":12539,"人心":12540,"分為":12541,"吃到":12542,"放鬆":12543,"無關":12544,"貼文一出":12545,"對台灣":12546,"的行動":12547,"社交媒體":12548,"再來":12549,"早前":12550,"貿易協議":12551,"羅東":12552,"與邊境":12553,"西區":12554,"面試":12555,"香港政府":12556,"世界上":12557,"真正的":12558,"月中旬":12559,"也可":12560,"傳遞":12561,"自從":12562,"基本法":12563,"大阪":12564,"拜登政府":12565,"以免":12566,"演說":12567,"截至目前":12568,"大爆發":12569,"長輩":12570,"依賴":12571,"單打":12572,"我在":12573,"的確":12574,"壓力大":12575,"帶走":12576,"重建":12577,"資格賽":12578,"天宮":12579,"天後":12580,"容量":12581,"觀念":12582,"頻頻":12583,"房地產":12584,"現行":12585,"美國經濟":12586,"接觸史":12587,"董事會":12588,"不對":12589,"樣的":12590,"此時":12591,"在這個":12592,"表決":12593,"靠近":12594,"五大":12595,"動員":12596,"多種":12597,"憂心":12598,"年初":12599,"催淚彈":12600,"不敵":12601,"不容易":12602,"國產":12603,"歐美":12604,"滲透":12605,"熱身":12606,"路段":12607,"卻是":12608,"手法":12609,"犯案":12610,"發推文":12611,"堅定":12612,"多了":12613,"太大":12614,"月以來":12615,"某些":12616,"阿拉":12617,"萬美元的":12618,"太空人":12619,"兩週":12620,"大專":12621,"美軍":12622,"打進":12623,"更大":12624,"黨內":12625,"人家":12626,"佛羅":12627,"已經在":12628,"會被":12629,"稱讚":12630,"致死":12631,"不出":12632,"國道":12633,"夫婦":12634,"撞上":12635,"舉動":12636,"陸媒":12637,"北海":12638,"青少年":12639,"未經":12640,"衰退":12641,"疫情監測":12642,"不變":12643,"數學":12644,"你想":12645,"公所":12646,"小區":12647,"解鎖":12648,"出現了":12649,"第二次":12650,"元的":12651,"痛苦":12652,"綁架":12653,"行經":12654,"震撼":12655,"目前的":12656,"將對":12657,"食材":12658,"下面請看一組環球財經簡訊":12659,"到來":12660,"身穿":12661,"投資者":12662,"主導":12663,"二十":12664,"沒辦法":12665,"統治":12666,"科學家":12667,"處理器":12668,"是很":12669,"湧入":12670,"酒吧":12671,"聯網":12672,"無人機":12673,"包裝":12674,"現年":12675,"裡的":12676,"銷量":12677,"仍是":12678,"分打點":12679,"將從":12680,"深厚":12681,"終結":12682,"非法移民":12683,"之中":12684,"人選":12685,"休士頓":12686,"作者":12687,"到現在":12688,"巴馬":12689,"松山":12690,"革命":12691,"行政長官":12692,"智庫":12693,"體重":12694,"舒服":12695,"評論員":12696,"中和":12697,"指考":12698,"情況下":12699,"建制派":12700,"上季":12701,"假日":12702,"阿公":12703,"聯合聲明":12704,"萬華區":12705,"含有":12706,"將以":12707,"比數":12708,"但因":12709,"武裝":12710,"的外":12711,"體制":12712,"無緣":12713,"作法":12714,"出軌":12715,"最有":12716,"的就是":12717,"竊取":12718,"儘快":12719,"所屬":12720,"清場":12721,">》<":12722,"紐約州":12723,"下半年":12724,"潛在":12725,"走向":12726,"共計":12727,"本國籍":12728,"位數":12729,"四大":12730,"培育":12731,"對香港":12732,"修訂":12733,"回覆":12734,"最重要的":12735,"老翁":12736,"路人":12737,"門檻":12738,"職員":12739,"贊助":12740,"可以看到":12741,"並要求":12742,"中醫":12743,"弟弟":12744,"的車":12745,"被問到":12746,"則在":12747,"場面":12748,"──":12749,"極端":12750,"民族":12751,"高風險":12752,"睡覺":12753,"武力":12754,"罷工":12755,"被警方":12756,"要在":12757,"陪同":12758,"集結":12759,"經濟成長":12760,"修復":12761,"新功能":12762,"通話":12763,"月起":12764,"被判":12765,"女童":12766,"後衛":12767,"火星":12768,"間的":12769,"提問":12770,"無限":12771,"聊天":12772,"達州":12773,"開除":12774,"不得不":12775,"但這":12776,"差異":12777,"預警":12778,"公務員":12779,"地說":12780,"提供的":12781,"匯流":12782,"老年":12783,"新冠疫苗":12784,"大小":12785,"居然":12786,"火腿":12787,"排名第":12788,"立法會":12789,"嚴厲":12790,"四川":12791,"實質":12792,"闖進":12793,"民眾的":12794,"也希望":12795,"打了":12796,"簽約":12797,"世界排名第":12798,"說話":12799,"追究":12800,"哥哥":12801,"干擾":12802,"挺進":12803,"時尚":12804,"仇恨":12805,"本周":12806,"點半":12807,"有著":12808,"罪嫌":12809,"落在":12810,"防堵":12811,"群體":12812,"新人":12813,"排行":12814,"法辦":12815,"登板":12816,"雨傘運動":12817,"效率":12818,"施政":12819,"本季第":12820,"與邊境管制措施":12821,"疫情監測與邊境管制措施":12822,"並以":12823,"前夕":12824,"打到":12825,"其他人":12826,"會後":12827,"業界":12828,"搜尋":12829,"踴躍":12830,"上半場":12831,"過了":12832,"紐約報導":12833,"基金會":12834,"中環":12835,"予以":12836,"再增":12837,"台電":12838,"說的":12839,"難度":12840,"入場":12841,"帶來的":12842,"入選":12843,"標語":12844,"對他":12845,"手套":12846,"東北":12847,"興達電廠":12848,"主投":12849,"宣言":12850,"美日":12851,"的人數":12852,"不慎":12853,"斯達克":12854,"此役":12855,"溫度":12856,"大使館":12857,"但她":12858,"新冠疫情":12859,"副作用":12860,"因而":12861,"決策":12862,"喬治亞":12863,"一壘":12864,"壟斷":12865,"感受到":12866,"蔬菜":12867,"如果你":12868,"庫存":12869,"讓你":12870,"沒有人":12871,"發布的":12872,"事宜":12873,"大獎":12874,"很可能":12875,"泛民":12876,"賓州":12877,"活動的":12878,"回報":12879,"多久":12880,"挑選":12881,"裁員":12882,"無論是":12883,"引擎":12884,"花了":12885,"第一階段":12886,"受到影響":12887,"比利時":12888,"大增":12889,"恐懼":12890,"不動":12891,"夏天":12892,"日後":12893,"早期":12894,"打氣":12895,"混亂":12896,"回收":12897,"防疫升級":12898,"人民的":12899,"給了":12900,"請求":12901,"連假":12902,"運動會":12903,"原因是":12904,"試場":12905,"謹慎":12906,"安全的":12907,"不容":12908,"優異":12909,"到的":12910,"時說":12911,"河北":12912,"田徑":12913,"進香":12914,"鄰近":12915,"高等":12916,"搭機":12917,"電台":12918,"本土疫情":12919,"原定":12920,"板橋":12921,"現實":12922,"大生":12923,"等症狀":12924,"藍色":12925,"頭髮":12926,"事項":12927,"寵物":12928,"後面":12929,"商家":12930,"當事":12931,"部落":12932,"出院":12933,"實習":12934,"演藝":12935,"幅度":12936,"所在":12937,"都將":12938,"首勝":12939,"奪下":12940,"玩笑":12941,"出來的":12942,"不利":12943,"任命":12944,"位在":12945,"考驗":12946,"人群":12947,"審議":12948,"聚焦":12949,"公正":12950,"獎牌":12951,"的相關":12952,"下周":12953,"義務":12954,"通緝":12955,"可以在":12956,"被害人":12957,"時機":12958,"火勢":12959,"信用卡":12960,"就送":12961,"拍下":12962,"離職":12963,"零星":12964,"在臉書社團":12965,"在去年":12966,"讓大家":12967,"頭痛":12968,"小米":12969,"額外":12970,"周年":12971,"和解":12972,"展覽":12973,"推遲":12974,"美國職棒":12975,"流傳":12976,"開盤":12977,"高階":12978,"女王":12979,"自稱":12980,"里長":12981,"文字":12982,"看著":12983,"這類":12984,"市的":12985,"水量":12986,"球衣":12987,"飲酒":12988,"才有":12989,"per13":12990,"準備好":12991,"難道":12992,"三天":12993,"全校":12994,"的朋友":12995,"肆虐":12996,"發生的":12997,"增加了":12998,"一處":12999,"哪個":13000,"我相信":13001,"火車":13002,"印度疫情":13003,"加碼送":13004,"婚禮":13005,"強勢":13006,"手中":13007,"研議":13008,"結帳":13009,"面上":13010,"顯著":13011,"商場":13012,"相互":13013,"金鐘":13014,"另一方面":13015,"卻在":13016,"各個":13017,"更為":13018,">%,<":13019,"未來的":13020,"學術":13021,"後方":13022,"車廂":13023,"冷氣":13024,"在大":13025,"大電信":13026,"妹妹":13027,"無線":13028,"白天":13029,"被敲":13030,"再生":13031,"勇敢":13032,"將來":13033,"確診案例":13034,"附近的":13035,"不建議":13036,"利潤":13037,"回去":13038,"大關":13039,"拿著":13040,"政改":13041,"的成績":13042,"真普選":13043,"重量":13044,"上了":13045,"地主":13046,"場館":13047,"康復":13048,"美麗":13049,"負面":13050,"強迫":13051,"截止":13052,"體育館":13053,"小型":13054,"忘記":13055,"高齡":13056,"例境外移入":13057,"泡泡":13058,"輸入":13059,"困境":13060,"百年":13061,"行駛":13062,"啟用":13063,"局面":13064,"巴勒":13065,"計票":13066,"亮相":13067,"和美國":13068,"已於":13069,"而非":13070,"共享":13071,"新生":13072,"車手":13073,"工程師":13074,"他強調":13075,"有趣":13076,"百人":13077,"較去年同期":13078,"發生了":13079,"同胞":13080,"暗示":13081,"有時":13082,"有什麼":13083,"步驟":13084,"芯片":13085,"處罰":13086,"進出":13087,"掩蓋":13088,"移除":13089,"巴勒斯坦":13090,"到案":13091,"海巡":13092,"我們在":13093,"相當於":13094,"備戰":13095,"好幾":13096,"首例":13097,"巨蛋":13098,"必須要":13099,"佩戴口罩":13100,"在日本":13101,"山東":13102,"的感覺":13103,"第一線":13104,"主流":13105,"平等":13106,"賽程":13107,"至少有":13108,"!「":13109,"一旁":13110,"下旬":13111,"代價":13112,"口味":13113,"日公布":13114,"總數":13115,"則有":13116,"去世":13117,"深刻":13118,"照護":13119,"巨人":13120,"效應":13121,"管控":13122,"蒙古":13123,"選項":13124,"保存":13125,"另一名":13126,"本地":13127,"欺詐":13128,"三級":13129,"停機":13130,"商機":13131,"歌曲":13132,"清真":13133,"萬個":13134,"軌道":13135,"類股":13136,"愛國":13137,"有了":13138,"祝賀":13139,"虛擬":13140,"辦事":13141,"兩黨":13142,"登陸":13143,"則說":13144,"場域":13145,"小子":13146,"愛情":13147,"播放":13148,"公共場所":13149,"傳奇":13150,"派遣":13151,"與會":13152,"不大":13153,"不應該":13154,"專注":13155,"的那":13156,"規畫":13157,"陽春":13158,"暫停營業":13159,"屍體":13160,"檢舉":13161,"通膨":13162,"尷尬":13163,"激勵":13164,"過往":13165,"大臣":13166,"單純":13167,"復出":13168,"紅襪":13169,"鐵路":13170,"香港特首":13171,"》、":13172,"三年":13173,"大遊行":13174,"日將":13175,"每人":13176,"傷者":13177,"各位":13178,"完工":13179,"最強":13180,"民陣":13181,"粉專":13182,"被抓":13183,"!」、「":13184,"我希望":13185,"收費":13186,"更好的":13187,"有期徒刑":13188,"糖尿":13189,"誇張":13190,"其次":13191,"勝投":13192,"的結果":13193,"近平":13194,"隊史":13195,"日前在":13196,"申辦優惠":13197,"主力":13198,"才知道":13199,"暫緩":13200,"核四":13201,"加快":13202,"彈性":13203,"欣賞":13204,"玩家":13205,"英語":13206,"跟進":13207,"過敏":13208,"驚訝":13209,"也許":13210,"玩具":13211,"行車":13212,"如果有":13213,"將其":13214,"開賽":13215,"月底開賣":13216,"刻意":13217,"會晤":13218,"申辦優惠加碼送":13219,"得主":13220,"成分":13221,"會中":13222,"洋將":13223,"花費":13224,"明白":13225,"流程":13226,"與此":13227,"貨櫃":13228,"命中率":13229,"充足":13230,"全家":13231,"帶你":13232,"怎樣":13233,"自己是":13234,"推薦影音":13235,"紫色月底開賣":13236,"獎勵":13237,"關門":13238,"在臉書上":13239,"大電信預購":13240,"習近平":13241,"於今日確診":13242,"福建":13243,"脫歐":13244,"一再":13245,"公寓":13246,"成的":13247,"日內":13248,"無力":13249,"目的是":13250,"影響力":13251,"俄國":13252,"升息":13253,"拉克":13254,"次數":13255,"波士頓":13256,"腫瘤":13257,"道德":13258,"孕婦":13259,"定位":13260,"新低":13261,"部位":13262,"郵件":13263,"黃色":13264,"上次":13265,"但卻":13266,"們的":13267,"入黨":13268,"大麻":13269,"狗狗":13270,"警示":13271,"車主":13272,"個性":13273,"對台":13274,"年間":13275,"率領":13276,"車的":13277,"體操":13278,"報導稱":13279,"』,":13280,"保安":13281,"吸收":13282,"大運":13283,"布局":13284,"戰術":13285,"統一獅":13286,"她表示":13287,"發球":13288,"看過":13289,"舞蹈":13290,"跌破":13291,"清真寺":13292,"受損":13293,"有一名":13294,"派員":13295,"芝加":13296,"識別":13297,"首長":13298,"確診的":13299,"澎湖":13300,"生素":13301,"眼鏡":13302,"第三級":13303,"洪水":13304,"登山":13305,"的同時":13306,"血清抗體":13307,"芝加哥":13308,"也可能":13309,"各式":13310,"守備":13311,"雲端":13312,"方面的":13313,"就已經":13314,"是誰":13315,"歐洲":13316,"科醫師":13317,"社會主義":13318,"主管機關":13319,"往往":13320,"挑釁":13321,"新品":13322,"腐敗":13323,"賺錢":13324,"藥品":13325,"驚傳":13326,"實名制":13327,"不確定":13328,"友善":13329,"大讚":13330,"正妹":13331,"班機":13332,"量測":13333,"今天宣布":13334,"一段時間":13335,"入學":13336,"還將":13337,"活動史":13338,"推出的":13339,"分局長":13340,"圖書":13341,"學童":13342,"是最":13343,"牛肉":13344,"的她":13345,"罷免":13346,"院所":13347,"驚喜":13348,"是一種":13349,"呼吸道":13350,"頻率":13351,"我們將":13352,"他指出":13353,"任職":13354,"俱樂":13355,"被打":13356,"除非":13357,"演唱會":13358,"大廈":13359,"永久":13360,"也已":13361,"涉案":13362,"漲價":13363,"號召":13364,"選出":13365,"還原":13366,"你這樣":13367,"就開始":13368,"政變":13369,"選秀":13370,"駭客":13371,"四個":13372,"年在":13373,"限量":13374,"上限":13375,"包圍":13376,"因爲":13377,"日益":13378,"不要再":13379,"以上的":13380,"知情人士":13381,"佳績":13382,"每一":13383,"水位":13384,"舉報":13385,"談話":13386,"賽冠軍":13387,"一律":13388,"一系列":13389,"中說":13390,"溫暖":13391,"跟我":13392,"俱樂部":13393,"凸顯":13394,"學年度":13395,"強行":13396,"火災":13397,"花園":13398,"孩子的":13399,"假期":13400,"全市":13401,"全都":13402,"新興":13403,"皆為":13404,"財富":13405,"學生的":13406,"電影票":13407,"劑疫苗":13408,"新鮮":13409,"亞軍":13410,"有許多":13411,"源頭":13412,"糖尿病":13413,"分手":13414,"幹部":13415,"教官":13416,"落幕":13417,"轉載":13418,"上千":13419,"調閱":13420,"預告":13421,"自己在":13422,"期貨":13423,"潛艦":13424,"用電":13425,"被視為":13426,"守住":13427,"據點":13428,"斯特":13429,"是對":13430,"機械":13431,"與其他":13432,"過世":13433,"下班":13434,"名列":13435,"單季":13436,"導彈":13437,"悼念":13438,"是以":13439,"求助":13440,"波及":13441,"退役":13442,"香港警方":13443,">&":13444,"」?":13445,"佛州":13446,"初期":13447,"將他":13448,"詐欺":13449,"開庭":13450,"的球員":13451,"問題的":13452,"所有人":13453,"小時內":13454,"前一天":13455,"同志":13456,"慢性":13457,"教室":13458,"群組":13459,"金屬":13460,"博物":13461,"途徑":13462,"鏈接":13463,"性侵":13464,"找不到":13465,"替補":13466,"下臺":13467,"病情":13468,"便當":13469,"意圖":13470,"是不":13471,"淵源":13472,"積分":13473,"致命":13474,"子彈":13475,"是非常":13476,"組長":13477,"馬路":13478,"所以我們":13479,"人與":13480,"原文":13481,"喪生":13482,"火警":13483,"現階段":13484,"迎來":13485,"高喊":13486,"兩個月":13487,"差不多":13488,"常委":13489,"待遇":13490,"用了":13491,"進行的":13492,"住家":13493,"的做法":13494,"站出來":13495,"這不是":13496,"影響到":13497,"死亡病例":13498,"提議":13499,"適用":13500,"雷霆":13501,"士兵":13502,"技巧":13503,"瑞拉":13504,"車道":13505,"重回":13506,"提醒民眾":13507,"鏡週刊":13508,"世界各地":13509,"他將":13510,"從而":13511,"東森":13512,"率為":13513,"邊界":13514,"與台灣":13515,"豪宅":13516,"參觀":13517,"國旗":13518,"治安":13519,"老百姓":13520,"被指":13521,"這家":13522,"雙手":13523,"入境後":13524,"再見":13525,"就可":13526,"被發現":13527,"製程":13528,"全球經濟":13529,"保健":13530,"創業":13531,"找出":13532,"敗給":13533,"暴動":13534,"的國際":13535,"行徑":13536,"限定":13537,"播出":13538,"不只是":13539,"偵查":13540,"氧化":13541,"獨家":13542,"在推特上":13543,"去做":13544,"確診感染":13545,"保養":13546,"強賽":13547,"涵蓋":13548,"軟件":13549,"郵寄":13550,"代言":13551,"送出":13552,"長大":13553,"夏季":13554,"外推":13555,"失聯":13556,"志願":13557,"露出":13558,"。「<":13559,"因疫情":13560,"地的":13561,"奧運會":13562,"不必":13563,"庇護":13564,"的政策":13565,"請看今天的財經":13566,"例行賽":13567,"休旅":13568,"場上":13569,"審判":13570,"警方表示":13571,"全台大停電":13572,"武漢肺炎疫情":13573,"也宣布":13574,"宿舍":13575,"遠離":13576,"黨團":13577,"一舉":13578,"下場":13579,"到處":13580,"到達":13581,"三重":13582,"再抽":13583,"外線":13584,"會見":13585,"標示":13586,"轉向":13587,"途中":13588,"造假":13589,"指揮官陳時中":13590,"成效":13591,"正當":13592,"一群":13593,"做為":13594,"奇怪":13595,"長榮":13596,"美國和":13597,"這是一個":13598,"的一些":13599,"佛羅里":13600,"則以":13601,"哥倫":13602,"深度":13603,"金鶯":13604,"現在是":13605,"到現場":13606,"包商":13607,"對我":13608,"校內":13609,"的他":13610,"的選手":13611,"美東":13612,"驚呼":13613,"本土案例":13614,"彰化縣":13615,"上月":13616,"塑膠":13617,"後再":13618,"有個":13619,"毛利率":13620,"野生":13621,"午餐":13622,"可達":13623,"外帶":13624,"關節":13625,"不清楚":13626,"中壢":13627,"但我":13628,"說要":13629,"運營":13630,"研究員":13631,"越來越多":13632,"加大":13633,"災害":13634,"相機":13635,"陣容":13636,"博物館":13637,"收集":13638,"茶室":13639,"錄音":13640,"可能在":13641,"還有人":13642,"後果":13643,"的聲音":13644,"警消":13645,"受訪者":13646,"夢想家":13647,"北海道":13648,"吾爾":13649,"引渡":13650,"強力":13651,"戲劇":13652,"黑幫":13653,"下修":13654,"享有":13655,"個多":13656,"厲害":13657,"猜測":13658,"在接受":13659,"孩童":13660,"復健":13661,"收益":13662,"火山":13663,"租金":13664,"陣營":13665,"必要的":13666,"偏愛":13667,"內政":13668,"剩下":13669,"招生":13670,"方的":13671,"的能力":13672,"的方法":13673,"維吾爾":13674,"駁回":13675,"新增病例":13676,"、「":13677,"保羅":13678,"嚇壞":13679,"描述":13680,"通通":13681,"首爾":13682,"前鋒":13683,"是我":13684,"景氣":13685,"減輕":13686,"較為":13687,"貿易談判":13688,"奇摩":13689,"支撐":13690,"期滿":13691,"特蘭":13692,"站上":13693,"致詞":13694,"船員":13695,"體內":13696,"濫用":13697,"的影片":13698,"出血":13699,"剝奪":13700,"小三":13701,"底下":13702,"指引":13703,"有超過":13704,"生存":13705,"領事":13706,"加密":13707,"安裝":13708,"暴跌":13709,"民宅":13710,"監察":13711,"與此同時":13712,"又是":13713,"斯科":13714,"測驗":13715,"阿里":13716,"總統的":13717,"這麼多":13718,"吃的":13719,"否決":13720,"房東":13721,"才剛":13722,"時段":13723,"動機":13724,"封殺":13725,"演練":13726,"碼頭":13727,"印度的":13728,"如同":13729,"成人":13730,"春季":13731,"豆腐":13732,"資料顯示":13733,"就以":13734,"恆生":13735,"抨擊":13736,"英格蘭":13737,"近況":13738,"一名男子":13739,"也因此":13740,"前景":13741,"就職":13742,"據報導":13743,"的數據":13744,"那邊":13745,"太平":13746,"搭檔":13747,"結論":13748,"股權":13749,"目前在":13750,"國內新增":13751,"億歐元":13752,"怎麼辦":13753,"不小心":13754,"但有":13755,"轉自":13756,"了吧":13757,"光是":13758,"提起":13759,"議院":13760,"骨折":13761,"市場預期":13762,"多歲女性":13763,"即日起至":13764,"交換":13765,"人流":13766,"倒數":13767,"地面":13768,"當作":13769,"羈押":13770,"船隻":13771,"的一部分":13772,"抗議者":13773,"早就":13774,"昏迷":13775,"雙邊":13776,"房貸":13777,"時常":13778,"服用":13779,"炎熱":13780,"三級警戒":13781,"存款":13782,"擺脫":13783,"政務":13784,"清理":13785,"連霸":13786,"緊急事態":13787,">▪":13788,"休閒":13789,"型的":13790,"奧斯":13791,"安置":13792,"差點":13793,"收治":13794,"核准":13795,"海關":13796,"物價":13797,"病床":13798,"這些人":13799,"傷口":13800,"懲罰":13801,"波蘭":13802,"獲選":13803,"不合":13804,"副市長":13805,"強大":13806,"很少":13807,"講座":13808,"更多人":13809,"星期一":13810,"但現在":13811,"地鐵":13812,"很重要":13813,"操控":13814,"海岸":13815,"淨利":13816,"滑雪":13817,"看完":13818,"多處":13819,"妨害":13820,"撞擊":13821,"更換":13822,"筆電":13823,"走了":13824,"衛生單位":13825,"在網路上":13826,"獲准":13827,"的要求":13828,"署長":13829,"資助":13830,"阿拉伯":13831,"一級":13832,"多雲":13833,"姓女子":13834,"日出現":13835,"節奏":13836,"外交官":13837,"上台":13838,"流動":13839,"港元":13840,"獨特":13841,"請大家":13842,"麵包":13843,"受訪時":13844,"下半":13845,"好轉":13846,"服員":13847,"營造":13848,"的兩":13849,"面前":13850,"餐點":13851,"驗證":13852,"壓力大調查":13853,"人事":13854,"填就送":13855,"幸好":13856,"犀牛":13857,"肚子":13858,"黨派":13859,"中國經濟":13860,"退休壓力大調查":13861,"再抽電影票":13862,"五月":13863,"車子":13864,"適應":13865,"掌握更多":13866,"熱身賽":13867,"勝出":13868,"手持":13869,"自由的":13870,"承受":13871,"台北市黨部":13872,"大新功能":13873,"愛心":13874,"走出":13875,"那裡":13876,"頻繁":13877,"代工":13878,"在國際":13879,"在大陸":13880,"求救":13881,"洋投":13882,"費城":13883,"戴口罩解鎖":13884,"傳播鏈":13885,"不管是":13886,"聽證會":13887,"不易":13888,"原訂":13889,"報道":13890,"的需求":13891,"稍微":13892,"中繼":13893,"內湖":13894,"搜救":13895,"清消":13896,"現況":13897,"男生":13898,",《":13899,"」「":13900,"他對":13901,"回顧":13902,"少了":13903,"快試試":13904,"網址":13905,"縮短":13906,"限時":13907,"雙雙":13908,"選舉人":13909,"在臉書發文":13910,"你想用":13911,"也對":13912,"旗艦":13913,"辨識":13914,"嚴選":13915,"大道":13916,"的研究":13917,"護照":13918,"都已經":13919,"追蹤尋找":13920,"分區輪流":13921,"一日":13922,"模樣":13923,"汽油":13924,"並列第":13925,"不建議你這樣":13926,"追蹤尋找什麼":13927,"不建議你這樣用":13928,"對比":13929,"快更新":13930,"放心":13931,"放緩":13932,"服裝":13933,"美網":13934,"買房":13935,"連線":13936,"霸凌":13937,"更多新":13938,"快試試戴口罩解鎖":13939,"人妻":13940,"很久":13941,"手感":13942,"比重":13943,"職缺":13944,"見證":13945,"這樣做":13946,"下半場":13947,"人次":13948,"做得":13949,"冬季":13950,"巨大的":13951,"布魯":13952,"慘遭":13953,"是台灣":13954,"縮小":13955,"英里":13956,"補償":13957,"都已":13958,"加入風運動粉絲專頁":13959,"國內外體壇":13960,"帶你掌握更多":13961,"國內外體壇動態":13962,"帶你掌握更多國內外體壇動態":13963,"上門":13964,"下架":13965,"內閣":13966,"曾有":13967,"熱點":13968,"燃燒":13969,"過於":13970,"採取行動":13971,"終場以":13972,"如有疑似症狀":13973,"保守派":13974,"連日":13975,"重傷":13976,"日本土":13977,"深厚淵源":13978,"客運":13979,"徵收":13980,"獎項":13981,"直落":13982,"美女":13983,"進軍":13984,"身分證":13985,"太陽能":13986,"光芒":13987,"冷凍":13988,"大聲":13989,"核廢水":13990,"處置":13991,"融資":13992,"偏愛色":13993,"深厚淵源曝光":13994,"將成為":13995,"很容易":13996,"有信心":13997,"案發":13998,"走上":13999,"人道":14000,"個資":14001,"探索":14002,"股份":14003,"送給":14004,"可能有":14005,"法輪大法日":14006,"表情":14007,"開球":14008,"上壘":14009,"巴士":14010,"熱鬧":14011,"的內容":14012,"的最大":14013,"納斯達克":14014,"罰金":14015,"首場":14016,"驗出":14017,"交代":14018,"名學生":14019,"定序":14020,"年開始":14021,"掉了":14022,"此案":14023,"艱難":14024,"關聯":14025,"歷史上":14026,"夫人":14027,"實行":14028,"部會":14029,"一堆":14030,"亞利":14031,"成熟":14032,"第六":14033,"連環":14034,":“":14035,"級分":14036,"都市":14037,"住宿":14038,"原料":14039,"會讓":14040,"盈餘":14041,"資安":14042,"還表示":14043,"這次的":14044,"澳幣":14045,"罪行":14046,"罷課":14047,"逼近":14048,"美國大選":14049,"低調":14050,"入口":14051,"其後":14052,"男人":14053,"疫情擴散":14054,"相關單位":14055,"範圍內":14056,"刷新":14057,"橫幅":14058,"的女":14059,"的健康":14060,"而被":14061,"星期三":14062,"哥倫比亞":14063,"一周":14064,"但因為":14065,"就沒有":14066,"思想":14067,"等問題":14068,"飾演":14069,"小時候":14070,"共和黨人":14071,"亞利桑":14072,"分之":14073,"印地":14074,"更高":14075,"會再":14076,"次長":14077,"的三":14078,"蘋果不建議你這樣用":14079,"的精神":14080,"福原":14081,"量的":14082,"上去":14083,"內瑞拉":14084,"嚴防":14085,"大門":14086,"委內瑞拉":14087,"是中國":14088,"走到":14089,"鑽石":14090,"颶風":14091,"如期":14092,"產權":14093,"高官":14094,"org13":14095,"今日上午":14096,"並與":14097,"國手":14098,"決勝":14099,"重複":14100,"電網":14101,">+<":14102,"加工":14103,"加重":14104,"捕手":14105,"算是":14106,"精準":14107,"路易":14108,"銀牌":14109,"雙打":14110,"網友熱議":14111,"迫使":14112,"民衆":14113,"為例":14114,"簽下":14115,"阿密":14116,"冷靜":14117,"大谷":14118,"快艇":14119,"槍手":14120,"羅馬":14121,"銅牌":14122,"雙重":14123,"個月的":14124,"喬治亞州":14125,"不該":14126,"來講":14127,"共機":14128,"建置":14129,"從去年":14130,"既然":14131,"條文":14132,"的反":14133,"邁阿密":14134,"上訪":14135,"季度":14136,"訊後":14137,"頭殼":14138,"魔術":14139,"已經是":14140,"不實":14141,"主人":14142,"明尼":14143,"會繼續":14144,"輕微":14145,"支持台灣":14146,"悲劇":14147,"第二級":14148,"價值觀":14149,"工地":14150,"房市":14151,"美味":14152,"被稱為":14153,"騎車":14154,"藝術家":14155,"天然氣":14156,"周圍":14157,"執勤":14158,"奈米":14159,"攔截":14160,"活躍":14161,"會議上":14162,"視頻顯示":14163,"商圈":14164,"天天":14165,"手上":14166,"找回":14167,"笑翻":14168,"紐西蘭":14169,"這時":14170,"他就":14171,"來愈":14172,"的世界":14173,"簽訂":14174,"要有":14175,"其他國家":14176,"丹麥":14177,"廚房":14178,"日媒":14179,"的公司":14180,"終點":14181,"西武":14182,"一時":14183,"占比":14184,"店內":14185,"引爆":14186,"撥款":14187,"無罪":14188,"破發":14189,"以利":14190,"寶座":14191,"往來":14192,"火鍋":14193,"瘋傳":14194,"媒體人":14195,"單一":14196,"特地":14197,"警力":14198,"較高":14199,"運送":14200,"同住家人":14201,"三接":14202,"不堪":14203,"不安":14204,"各方":14205,"宣誓":14206,"將被":14207,"浙江":14208,"福島":14209,"謊言":14210,"難民":14211,"香港恆生":14212,"寫著":14213,"最早":14214,"校友":14215,"激動":14216,"維亞":14217,"樂天桃猿":14218,"愈來愈":14219,"維修":14220,"西部":14221,"降到":14222,"星期五":14223,"印地安":14224,"假的":14225,"公主":14226,"堅守":14227,"有時候":14228,"更多新頭殼":14229,"小將":14230,"帶給":14231,"微信":14232,"會計":14233,"殺害":14234,"炸彈":14235,"萬例":14236,"首局":14237,"目前已經":14238,"工作者":14239,"一件":14240,"推測":14241,"熱愛":14242,"輸球":14243,"量體溫":14244,"道瓊斯":14245,"更多新頭殼報導":14246,">+":14247,"之亂":14248,"吃緊":14249,"清單":14250,"美金":14251,"警方在":14252,"也指出":14253,"堅決":14254,"推翻":14255,"獨裁":14256,"的壓力":14257,"遊樂":14258,"隱形":14259,"雨量":14260,"外交部長":14261,"亞利桑那":14262,"在網上":14263,"帶有":14264,"招募":14265,"模範":14266,"一對":14267,"上揚":14268,"前線":14269,"勇氣":14270,"思潮":14271,"救治":14272,"販賣":14273,"風景":14274,"射擊":14275,"崗位":14276,"會持續":14277,"月間":14278,"訂閱":14279,"送辦":14280,"題目":14281,"動物園":14282,"拍到":14283,"新秀":14284,"的發展":14285,"票房":14286,"號的":14287,"險勝":14288,"希望大家":14289,"》、《":14290,"動能":14291,"平手":14292,"消化":14293,"當沖":14294,"繳納":14295,"飆升":14296,"電子股":14297,"外野手":14298,"任期":14299,"大力":14300,"已達":14301,"感冒":14302,"沒能":14303,"報告指出":14304,"半夜":14305,"學民":14306,"感嘆":14307,"星座":14308,"死於":14309,"減肥":14310,"買了":14311,"警察局":14312,"下殺":14313,"修煉":14314,"標誌":14315,"盡力":14316,"看出":14317,"看守":14318,"遊覽":14319,"更多東森":14320,"大氣":14321,"美的":14322,"輸給":14323,"不禁":14324,"併購":14325,"獲獎":14326,"表揚":14327,"諷刺":14328,"道奇":14329,"門診":14330,"預賽":14331,"勞動節":14332,"季增":14333,"比起":14334,"選戰":14335,"第三級警戒":14336,"在家中":14337,"廢棄":14338,"愛爾":14339,"梅花":14340,"一軍":14341,"一陣":14342,"五一":14343,"拆除":14344,"爸媽":14345,"的威脅":14346,"脫離":14347,"菁英":14348,"該國":14349,"前會長":14350,"同比":14351,"幕後":14352,"新制":14353,"月下旬":14354,"為台灣":14355,"挪威":14356,"珍惜":14357,"等候":14358,"萬張":14359,"認知":14360,"防控":14361,"非裔":14362,"星期四":14363,"辦事處":14364,"之所以":14365,"到醫院":14366,"在這裡":14367,"後才":14368,"抵抗":14369,"錦賽":14370,"指揮中心表示":14371,"系列賽":14372,"消防員":14373,"以北":14374,"侵害":14375,"保釋":14376,"好文":14377,"左派":14378,"性能":14379,"數千":14380,"空域":14381,"訊號":14382,"比賽的":14383,"最終以":14384,"機組人員":14385,"太過":14386,"樣子":14387,"相隔":14388,"賽車":14389,"隱藏":14390,"今日下午":14391,"福原愛":14392,"不上":14393,"但目前":14394,"元素":14395,"場的":14396,"失智":14397,"對流":14398,"得很":14399,"是全球":14400,"熱潮":14401,"老實":14402,"逃犯":14403,"營養師":14404,"的重要性":14405,"致力於":14406,"全館":14407,"完善":14408,"掌控":14409,"本文":14410,"作收":14411,"創始":14412,"參選人":14413,"爆紅":14414,"破產":14415,"膝蓋":14416,"蒐集":14417,"競爭力":14418,"促使":14419,"十大":14420,"罰鍰":14421,"逃離":14422,"進來":14423,"有助於":14424,"共產主義":14425,"鏡週刊報導":14426,"定義":14427,"明明":14428,"波動":14429,"港媒":14430,"變遷":14431,"新任":14432,"江蘇":14433,"海鮮":14434,"除此":14435,"當事人":14436,"一共":14437,"一顆":14438,"南下":14439,"各縣市":14440,"嬌生":14441,"車隊":14442,"伊拉克":14443,"很好的":14444,"登錄":14445,"精選":14446,"親子":14447,"孩子們":14448,"下次":14449,"代謝":14450,"挹注":14451,"此戰":14452,"相關鏈接":14453,"不會有":14454,"之一的":14455,"短暫陣雨":14456,"住處":14457,"傾向":14458,"哈哈":14459,"大三":14460,"締造":14461,"轉變":14462,"連接":14463,"還被":14464,"本土個案":14465,"宜蘭縣":14466,"高中生":14467,"消防局":14468,"槍擊案":14469,"履行":14470,"發聲明":14471,"總獎金":14472,"臺北":14473,"台灣加權":14474,"更多鏡週刊報導":14475,"肺炎疫情":14476,"延長賽":14477,"嚴選好文":14478,"嚴選好文一次看":14479,"不法":14480,"外的":14481,"沙特":14482,"牛奶":14483,"走勢":14484,"邊緣":14485,"停在":14486,"情侶":14487,"會是":14488,"犯規":14489,"獲取":14490,"難得":14491,"今年第":14492,"主要貨幣":14493,"氣勢":14494,"老鷹":14495,"量能":14496,"防空":14497,"如果是":14498,"份子":14499,"保住":14500,"加護":14501,"港口":14502,"讓台灣":14503,"日本日經":14504,"畢業生":14505,"並向":14506,"回升":14507,"惡劣":14508,"文學":14509,"穿上":14510,"目前正在":14511,"決賽中":14512,"你要":14513,"敘利亞":14514,"沒事":14515,"球王":14516,"轉發":14517,"還未":14518,"上海綜合":14519,"維權律師":14520,"他和":14521,"偷渡":14522,"心中":14523,"總額":14524,"說不":14525,"第一名":14526,"相關新聞影音":14527,"也成為":14528,"季節":14529,"日職":14530,"服飾":14531,"碰上":14532,"不去":14533,"之處":14534,"伊斯":14535,"傳聞":14536,"力道":14537,"技能":14538,"湖南":14539,"給你":14540,"還需要":14541,"組成的":14542,"在北京":14543,"完畢":14544,"探視":14545,"混合":14546,"行列":14547,"車內":14548,"首日":14549,"疫苗施打":14550,"網友在":14551,"行政令":14552,"有些人":14553,"大勝":14554,"明日":14555,"的男子":14556,"相繼":14557,"聯署":14558,"確診數":14559,"大陸遊客":14560,"到過":14561,"新西蘭":14562,"相似":14563,"空服員":14564,"腳步":14565,"近距離":14566,"馬祖":14567,"並強調":14568,"來港":14569,"死因":14570,"港澳":14571,"玉米":14572,"竟是":14573,"開玩笑":14574,"顛覆":14575,"去年底":14576,"喪命":14577,"埃及":14578,"女雙":14579,"推行":14580,"樣本":14581,"滅火":14582,"稅率":14583,"自信":14584,"今日表示":14585,"也提到":14586,"內地":14587,"啦啦":14588,"就曾":14589,"我們希望":14590,"當地的":14591,"》[":14592,"並稱":14593,"密集":14594,"幹事":14595,"式的":14596,"我都":14597,"攝取":14598,"物料":14599,"私下":14600,"第二輪":14601,"企業的":14602,"川普政府":14603,"上映":14604,"亞馬":14605,"偶像":14606,"波疫情":14607,"翻譯":14608,"貓咪":14609,"馬斯":14610,"預計在":14611,"中山":14612,"偏鄉":14613,"巫師":14614,"無效":14615,"認罪":14616,"贊成":14617,"起飛":14618,"大消毒":14619,"幾十":14620,"春訓":14621,"每一個":14622,"物理":14623,"驚險":14624,"不少民眾":14625,"富邦悍將":14626,"房務":14627,"早日":14628,"暫居":14629,"王子":14630,"這張":14631,"台灣時間":14632,"政府總部":14633,"國際主要貨幣":14634,"最新的":14635,"機器人":14636,"歐美主要股指收盤":14637,"國際主要貨幣匯率":14638,">」、「":14639,"國王":14640,"性感":14641,"牙齒":14642,"per14":14643,"亞馬遜":14644,"/—":14645,"不便":14646,"公職":14647,"天王":14648,"學長":14649,"級的":14650,"一面":14651,"搶先":14652,"早盤":14653,"用途":14654,"矛盾":14655,"解答":14656,"已經被":14657,"熱烈討論":14658,"漁船":14659,"美聯":14660,"關卡":14661,"陌生":14662,"他與":14663,"停留":14664,"分組":14665,"慈善":14666,"請假":14667,"。」▲":14668,"日進行":14669,"縮減":14670,"雇主":14671,"頒發":14672,"問題上":14673,"失業率":14674,"名員工":14675,"牛棚":14676,"理論":14677,"跑者":14678,"明星賽":14679,"圖書館":14680,"之內":14681,"他會":14682,"輸出":14683,"返家":14684,"也不是":14685,"出身":14686,"和中國":14687,"場合":14688,"平方":14689,"生肖":14690,"的經驗":14691,"航母":14692,"跨國":14693,"。▼":14694,"如下":14695,"打席":14696,"旗下的":14697,"桌球":14698,"海底":14699,"兩家":14700,"初選":14701,"受理":14702,"年多":14703,"心裡":14704,"治理":14705,"生氣":14706,"纖維":14707,"接受媒體":14708,"研究人員":14709,"動手":14710,"單身":14711,"地上":14712,"相處":14713,"繁榮":14714,"學民思潮":14715,"方艙":14716,"滿壘":14717,"租屋":14718,"類的":14719,"亞洲主要股指收盤":14720,">」。":14721,"後就":14722,"檔案":14723,"澳網":14724,"的責任":14725,"國防部長":14726,"時事評論員":14727,"七一":14728,"來關注":14729,"名義":14730,"夜間":14731,"燃煤":14732,"的權利":14733,"繁星":14734,"奶粉":14735,"比率":14736,"毫米":14737,"舒適":14738,"任何人":14739,"回台":14740,"接力":14741,"有一些":14742,"死了":14743,"的最新":14744,"糟糕":14745,"遲遲":14746,"重的":14747,"美國對":14748,"中止":14749,"姓名":14750,"榮譽":14751,"過量":14752,"除此之外":14753,"不行":14754,"出任":14755,"市區":14756,"很棒":14757,"招牌":14758,"效益":14759,"最初":14760,"熱量":14761,"聯名":14762,"行情":14763,"日本的":14764,"的一次":14765,"》。":14766,"先是":14767,"受歡迎":14768,"強度":14769,"日晚上":14770,"殘骸":14771,"煽動":14772,"的畫面":14773,"該校":14774,"雨勢":14775,"管理局":14776,"但沒有":14777,"洲際":14778,"採訪時":14779,"奇摩值":14780,"填就送奇摩值":14781,"加徵":14782,"已是":14783,"準確":14784,"追問":14785,"今天公布":14786,"。”<":14787,"愛爾蘭":14788,"動用":14789,"威斯":14790,"對峙":14791,"戀愛":14792,"找來":14793,"改造":14794,"會場":14795,"獨自":14796,"足以":14797,"生活中心":14798,"萬華茶藝館":14799,"三名":14800,"地圖":14801,"心態":14802,"氣炸":14803,"以便":14804,"內野":14805,"受邀":14806,"好處":14807,"操縱":14808,"通俄":14809,"通行":14810,"但由於":14811,"凍結":14812,"好了":14813,"拉警報":14814,"的言論":14815,"細菌":14816,"買家":14817,"領取":14818,"總統府":14819,"以來的":14820,"最多的":14821,"稅後純益":14822,"比去年":14823,"水電":14824,"隨便":14825,"台灣大":14826,"發表會":14827,"位的":14828,"很高":14829,"死刑":14830,"小時後":14831,"以為是":14832,"上線":14833,"並依":14834,"分裂":14835,"匿名":14836,"名稱":14837,"在未來":14838,"接收":14839,"洗衣":14840,"無數":14841,"股利":14842,"行人":14843,"辯護":14844,"開學":14845,"我們必須":14846,"發展的":14847,"不公平":14848,"僅次":14849,"最嚴重":14850,"深受":14851,"當成":14852,",,":14853,"好消息":14854,"寬鬆":14855,"就此":14856,"摧毀":14857,"日中午":14858,"時起":14859,"的合作":14860,"要把":14861,"總統大選":14862,"多國":14863,"比照":14864,"維生素":14865,"該州":14866,"軍艦":14867,":[":14868,"又被":14869,"外面":14870,"是從":14871,"盡速":14872,"請願":14873,"證人":14874,"跑到":14875,"陽明":14876,"奧巴馬":14877,"層樓":14878,"滅絕":14879,"滾地球":14880,"簡報":14881,"美媒":14882,"今日推薦影音":14883,"排行榜":14884,"再創":14885,"學會":14886,"對策":14887,"說道":14888,"倒地":14889,"克力":14890,"而出":14891,"送上":14892,"官員表示":14893,"例本土病例":14894,"克服":14895,"小吃":14896,"抑制":14897,"求償":14898,"讀者":14899,"下一個":14900,"並呼籲":14901,"北港":14902,"在聲明中":14903,"家電":14904,"抹黑":14905,"拉圭":14906,"聚餐":14907,"美國將":14908,"一批":14909,"我知道":14910,"而來":14911,"選舉結果":14912,"共和黨":14913,"同行":14914,"宮廟":14915,"讓學生":14916,"我們也":14917,"星期二":14918,"乾旱":14919,"壓迫":14920,"強拆":14921,"河南":14922,"游擊":14923,"爵士":14924,"的事件":14925,"過關":14926,"中國政府":14927,"休旅車":14928,"副局長":14929,"嫌疑":14930,"港幣":14931,"的情形":14932,"螞蟻":14933,"中心的":14934,"衛生紙":14935,"化解":14936,"幫派":14937,"年終":14938,"指稱":14939,"月薪":14940,"理性":14941,"穿越":14942,"動線":14943,"很開心":14944,"的特":14945,"終身":14946,"虛假":14947,"阻擋":14948,"傳產":14949,"兩度":14950,"月開始":14951,"有線":14952,"三個月":14953,"不懂":14954,"不穩定":14955,"可在":14956,"增幅":14957,"引進":14958,"新款":14959,"燃料":14960,"的位置":14961,"甚至還":14962,"專家認為":14963,"一整":14964,"同一天":14965,"審核":14966,"直擊":14967,"觀賞":14968,"賣出":14969,"轉為":14970,"頂尖":14971,"台美":14972,"告別":14973,"多倫":14974,"很高興":14975,"收容":14976,"示範":14977,"輔助":14978,"往前":14979,"時任":14980,"突發":14981,"設有":14982,"評價":14983,"通路":14984,"雷達":14985,"遊覽車":14986,"來不及":14987,"公頃":14988,"場景":14989,"外觀":14990,"曾於":14991,"感染風險":14992,">、、":14993,"上半年":14994,"不已":14995,"同性":14996,"看似":14997,"點出":14998,"口感":14999,"封王":15000,"溫網":15001,"男孩":15002,"發送":15003,"臉部":15004,"開門":15005,"進行調查":15006,"今日公布":15007,"不舒服":15008,"中期":15009,"前一":15010,"報紙":15011,"的價格":15012,"要注意":15013,"買賣":15014,"體力":15015,"嘉義縣":15016,"信號":15017,"內心":15018,"到第":15019,"為本國籍":15020,"送餐":15021,"通車":15022,"今天是":15023,"設計師":15024,"中小":15025,"債券":15026,"冬奧":15027,"或其他":15028,"鬆懈":15029,"美國駐":15030,"加護病房":15031,"暴露":15032,"曾表示":15033,"酷刑":15034,"目前為止":15035,"聯邦政府":15036,"社群媒體":15037,"展出":15038,"搖擺":15039,"這幾天":15040,"再起":15041,"接手":15042,"控訴":15043,"消除":15044,"皇家":15045,"看不到":15046,"我們有":15047,"二壘安打":15048,"不願意":15049,"偽造":15050,"勢必":15051,"名譽":15052,"收藏":15053,"林口":15054,"的首":15055,"繳稅":15056,"老將":15057,"的人士":15058,"或者是":15059,"也紛紛":15060,"冰箱":15061,"在他":15062,"戴著":15063,"種種":15064,"貨物":15065,"還得":15066,"頭的":15067,"網友紛紛":15068,"完全沒有":15069,"蘋果創辦人":15070,"美東時間":15071,"逃犯條例":15072,"偉大":15073,"及其他":15074,"場先發":15075,"大盤":15076,"姊妹":15077,"瓦斯":15078,"破裂":15079,"顯得":15080,"因為他":15081,"各級":15082,"的環境":15083,"論文":15084,"警方調查":15085,"社會的":15086,"介於":15087,"待釐清":15088,"眾志":15089,"表面":15090,"解封":15091,"適時":15092,"陽光":15093,"其實是蘋果創辦人":15094,"上百":15095,"中港":15096,"減緩":15097,"西南":15098,"轄區":15099,"金曲":15100,"的比賽中":15101,"勒索":15102,"喉嚨":15103,"的手":15104,"的說":15105,"眼淚":15106,"電競":15107,"預報":15108,"抗議活動":15109,"生涯第":15110,"免疫力":15111,"十足":15112,"市政府":15113,"流量":15114,"耳機":15115,"身體健康":15116,"更多東森新聞報導":15117,"直指":15118,"翻攝":15119,"請辭":15120,"這也":15121,"防線":15122,"依規定":15123,"尺寸":15124,"拖延":15125,"東奧":15126,"架構":15127,"查證":15128,"調度":15129,"出一":15130,"判處":15131,"根州":15132,"聲請":15133,"萊豬":15134,"提升至":15135,"副所長":15136,"在英國":15137,"堪稱":15138,"女學生":15139,"旅美":15140,"期的":15141,"王牌":15142,"現狀":15143,"盤點":15144,"祈禱":15145,"開展":15146,"命運":15147,"更大的":15148,"火車站":15149,"跌美元":15150,"開轟":15151,"難過":15152,"黨媒":15153,"也無法":15154,"以確保":15155,"兼顧":15156,"又在":15157,"撞死":15158,"會將":15159,"的過程":15160,"要去":15161,"離世":15162,"常見的":15163,"儲存":15164,"吉林":15165,"年薪":15166,"建造":15167,"有不少":15168,"模糊":15169,"歷程":15170,"爾的":15171,"過失":15172,"開了":15173,"我們都":15174,"豐富的":15175,"也呼籲":15176,"傳承":15177,"兩種":15178,"專區":15179,"監禁":15180,"覆蓋":15181,"賣壓":15182,"loc4":15183,"冠軍賽":15184,"外界質疑":15185,"東京都":15186,"上任後":15187,"停工":15188,"出遊":15189,"單日本土":15190,"復興":15191,"滯留":15192,"祈福":15193,"禁區":15194,"請勿":15195,"軍機":15196,"轉換":15197,"進入社區感染":15198,"知識產權":15199,"低於標準桿":15200,"不可以":15201,"客車":15202,"滋事":15203,"簡直":15204,"紅包":15205,"落敗":15206,"被人":15207,"訂定":15208,"讓原":15209,"貴的":15210,"那種":15211,"高點":15212,"加班":15213,"台鐵":15214,"拿來":15215,"時程":15216,"版的":15217,"雞排":15218,"我們是":15219,"四年":15220,"市議員":15221,"驕傲":15222,"所以我":15223,"北京當局":15224,"不僅是":15225,"史上最":15226,"人染疫":15227,"含量":15228,"里約":15229,"降溫":15230,"創始人":15231,"災區":15232,"競技":15233,"職位":15234,"飛往":15235,"死亡率":15236,"恢復正常":15237,"下方":15238,"勾結":15239,"求職":15240,"漢堡":15241,"無視":15242,"轉戰":15243,"零件":15244,"一帶一路":15245,"之戰":15246,"分左右":15247,"單車":15248,"天津":15249,"引導":15250,"服役":15251,"的速度":15252,"禁藥":15253,"胡椒":15254,"這一點":15255,"三人":15256,"動畫":15257,"形勢":15258,"是一名":15259,"月在":15260,"研討":15261,"北市府":15262,"結果顯示":15263,"公牛":15264,"型態":15265,"後發現":15266,"留守":15267,"的承諾":15268,"碰到":15269,"金錢":15270,"錯過":15271,"點燃":15272,"負責任":15273,"專案小組":15274,"啦啦隊":15275,"多倫多":15276,"也因為":15277,"供給":15278,"原物料":15279,"宣示":15280,"得點":15281,"憂慮":15282,"未滿":15283,"約為":15284,"舉重":15285,"隔板":15286,"面向":15287,"疫情期間":15288,"削減":15289,"引用":15290,"曾與":15291,"溫馨":15292,"衝撞":15293,"見狀":15294,"賓士":15295,"過年":15296,"里程":15297,"隧道":15298,"民眾在":15299,"蛋白質":15300,"供水":15301,"球賽":15302,"的紀錄":15303,"絕食":15304,"那樣":15305,"外國人":15306,"以此":15307,"克拉":15308,"副教授":15309,"巧克力":15310,"徵才":15311,"流出":15312,"滑手機":15313,"的故事":15314,"趨緩":15315,"這條":15316,"黑客":15317,"國內疫情":15318,"外媒報導":15319,"人工智慧":15320,"一支":15321,"交付":15322,"保全":15323,"持股":15324,"黑暗":15325,"還是會":15326,"集會活動":15327,"看守所":15328,"也強調":15329,"歲男童":15330,"活摘":15331,"清水":15332,"災情":15333,"緊密":15334,"漲美元":15335,"萬瓩":15336,"語音":15337,"軍演":15338,"遠遠":15339,"第二天":15340,"重新開放":15341,"了很多":15342,"出境":15343,"審慎":15344,"極限":15345,"申訴":15346,"警署":15347,"群聚事件":15348,"日報報導":15349,"在現場":15350,"大人":15351,"新機":15352,"查核":15353,"燈號":15354,"解放":15355,"阻撓":15356,"公文":15357,"天空":15358,"性騷擾":15359,"所未":15360,"時至":15361,"有無":15362,"的努力":15363,"類型":15364,"黨魁":15365,">,.":15366,"因為他們":15367,"防疫工作":15368,"授權轉載":15369,"並對":15370,"內外":15371,"吞敗":15372,"均為":15373,"多起":15374,"果然":15375,"送回":15376,"都不會":15377,"酒測":15378,"聯邦參議員":15379,"集中在":15380,"一向":15381,"專欄":15382,"幕僚":15383,"旺角":15384,"漲停":15385,"萬的":15386,"首節":15387,"上週五":15388,"下了":15389,"男星":15390,"的現象":15391,"這件":15392,"子公司":15393,"專責":15394,"層級":15395,"目睹":15396,"與其":15397,"親密":15398,"目前正":15399,",《<":15400,"包機":15401,"區議會":15402,"各州":15403,"探討":15404,"次保送":15405,"欺騙":15406,"神秘":15407,"防疫規定":15408,"還是有":15409,"回應了":15410,"成員國":15411,"古巴":15412,"在印度":15413,"心聲":15414,"教堂":15415,"暴雨":15416,"用心":15417,"講述":15418,"謠言":15419,"持續疫情監測與邊境管制措施":15420,"再添":15421,"半小時":15422,"第七":15423,"致歉":15424,"西瓜":15425,"青春":15426,"我們現在":15427,"科技公司":15428,"採訪時表示":15429,"每股純益":15430,"出租":15431,"增至":15432,"專機":15433,"成爲":15434,"發票":15435,"質量":15436,"配備":15437,"可疑":15438,"大都會":15439,"完封":15440,"戴好":15441,"朝野":15442,"的所有":15443,"等相關":15444,"輩子":15445,"注意到":15446,"監視器畫面":15447,"罹難者":15448,"中正":15449,"低迷":15450,"可說是":15451,"向美國":15452,"大喊":15453,"權的":15454,"跑道":15455,"雷雨":15456,"駕車":15457,"進行消毒":15458,"旅遊泡泡":15459,"獲報後":15460,"也不能":15461,"判定":15462,"外洩":15463,"大大":15464,"我有":15465,"異議":15466,"的天氣":15467,"腸胃":15468,"發生一起":15469,"之路":15470,"克里":15471,"分歧":15472,"豁免":15473,"進球":15474,"人員的":15475,"基礎設施":15476,"任內":15477,"但如果":15478,"每週":15479,"無辜":15480,"總體":15481,"買到":15482,"一生":15483,"內幕":15484,"次的":15485,"水源":15486,"看得":15487,"解讀":15488,"騎兵":15489,"影片中":15490,"嚇到":15491,"嚇得":15492,"的規定":15493,"藝文":15494,"貶值":15495,"起源":15496,"這筆":15497,"選區":15498,"冠軍的":15499,"基隆市":15500,"座談":15501,"檢警":15502,"洗錢":15503,"清晰":15504,"糧食":15505,"輻射":15506,"智慧型":15507,"下一代":15508,"例為":15509,"姆斯":15510,"救助":15511,"短時間":15512,"船上":15513,"融入":15514,"身高":15515,"餐館":15516,"希望在":15517,"高雄市長":15518,"百分之":15519,"不像":15520,"卻沒有":15521,"各校":15522,"安徽":15523,"打臉":15524,"沉默":15525,"法網":15526,"為題":15527,"這回":15528,"飼主":15529,"甚至是":15530,"高等法院":15531,"伊斯蘭":15532,"手指":15533,"旱象":15534,"最美":15535,"的狀態":15536,"網頁":15537,"賣超":15538,"通風":15539,"人是":15540,"去了":15541,"大甲":15542,"子宮":15543,"就說":15544,"已將":15545,"板凳":15546,"氛圍":15547,"瘟疫":15548,"致敬":15549,"防制":15550,"表示自己":15551,"一一":15552,"九龍":15553,"平日":15554,"復工":15555,"忘錄":15556,"旨在":15557,"最為":15558,"歷年":15559,"法第":15560,"訪台":15561,"高檔":15562,"香港人權":15563,"梅花座":15564,"則為":15565,"包裹":15566,"在台北":15567,"家園":15568,"廢除":15569,"癥狀":15570,"星期六":15571,"職業生涯":15572,"日常生活":15573,"口角":15574,"在新":15575,"年至":15576,"效能":15577,"教訓":15578,"每位":15579,"津貼":15580,"清空":15581,"的人權":15582,">」<":15583,"正確的":15584,"也開始":15585,"外型":15586,"洗澡":15587,"連帶":15588,"餐敘":15589,"確診者足跡":15590,"久的":15591,"召回":15592,"我現在":15593,"戰場":15594,"抓下":15595,"的產品":15596,"自助":15597,"要不要":15598,"超標":15599,"酒後":15600,"陣線":15601,"鴻海":15602,"發生後":15603,"運動的":15604,"備忘錄":15605,"已超過":15606,"武術":15607,"物流":15608,"視覺":15609,"難免":15610,"日本首相":15611,"必須在":15612,"前面":15613,"就怕":15614,"會對":15615,"趁著":15616,"駐印度":15617,"休假":15618,"小聯盟":15619,"就不會":15620,"手臂":15621,"放入":15622,"有任何":15623,"穩健":15624,"讓網友":15625,"販毒":15626,"今天以":15627,"大家一起":15628,"必要時":15629,"去看":15630,"多年的":15631,"控球":15632,"換上":15633,"要讓":15634,"還包括":15635,"阻礙":15636,"美國在":15637,"氣候變遷":15638,"往返":15639,"發炎":15640,"進到":15641,"系統的":15642,"解決問題":15643,"國會議員":15644,"入獄":15645,"兩場":15646,"出於":15647,"出道":15648,"反覆":15649,"吃了":15650,"收視":15651,"橡皮":15652,"自製":15653,"討厭":15654,"農村":15655,"反駁":15656,"客機":15657,"持刀":15658,"激進":15659,"的長":15660,"的運動":15661,"雙語":15662,"未來將":15663,"獲得了":15664,"在地上":15665,"一方面":15666,"亮點":15667,"列居家隔離":15668,"唱歌":15669,"在哪":15670,"地利":15671,"樂團":15672,"水氣":15673,"的食物":15674,"美式":15675,"過多":15676,"黑龍":15677,"執政黨":15678,"專輯":15679,"就把":15680,"東方":15681,"莫斯科":15682,"議案":15683,"領軍":15684,"美國與":15685,"出現的":15686,"立法會議員":15687,"不顧":15688,"二審":15689,"創立":15690,"墜落":15691,"火燒":15692,"自去年":15693,"龐大":15694,"事件的":15695,"北京的":15696,"不分":15697,"奇蹟":15698,"政要":15699,"未成年":15700,"篩選":15701,"過去的":15702,"南投縣":15703,"黑龍江":15704,"奶奶":15705,"宣判":15706,"後悔":15707,"手部":15708,"教頭":15709,"查出":15710,"界的":15711,"盤查":15712,"能讓":15713,"虐待":15714,"遊騎兵":15715,"意識到":15716,"不下":15717,"但我們":15718,"制服":15719,"商討":15720,"幾次":15721,"歡呼":15722,"的醫療":15723,"腎臟":15724,"要做":15725,"諸多":15726,"降落":15727,">%[":15728,"傳染性":15729,"備詢":15730,"受益":15731,"圍堵":15732,"核電":15733,"示警":15734,"納稅":15735,"落差":15736,"代表團":15737,"個月內":15738,"一座":15739,"不時":15740,"及接觸史":15741,"啤酒":15742,"好球":15743,"抱歉":15744,"拍板":15745,"謀殺":15746,"上班族":15747,"屏東縣":15748,"僅次於":15749,"也為":15750,"傑出":15751,"的母親":15752,"舉例":15753,"說出":15754,"跟他":15755,"返國":15756,"最後的":15757,"單日新增":15758,"短暫雨":15759,"延伸閱讀":15760,"一百":15761,"北上":15762,"本質":15763,"犯嫌":15764,"確幸":15765,"民主的":15766,"陰性報告":15767,"互聯網":15768,"交接":15769,"帶到":15770,"拜託":15771,"最嚴重的":15772,"沿海":15773,"稱的":15774,"西藏":15775,"讚揚":15776,"豪華":15777,"較低":15778,"雙城":15779,"經濟學":15780,"其中一名":15781,"英國首相":15782,"出貨量":15783,"事先":15784,"五年":15785,"卸任":15786,"常態":15787,"心跳":15788,"清除":15789,"的貼文":15790,"艦隊":15791,"病毒檢測":15792,"如果沒有":15793,"說明會":15794,"在與":15795,"契約":15796,"延遲":15797,"從中國":15798,"是香港":15799,"曾任":15800,"籌備":15801,"證書":15802,"這座":15803,"銀河":15804,"武漢市":15805,"陽春砲":15806,">?":15807,"也以":15808,"數以":15809,"時光":15810,"浪漫":15811,"的角色":15812,"良心":15813,"疫苗後":15814,"世界紀錄":15815,"一審":15816,"不怕":15817,"來做":15818,"兆美元":15819,"在紐約":15820,"約談":15821,"誠信":15822,"當時的":15823,"關注的":15824,"節目中":15825,"國中會考":15826,"地址":15827,"夏威":15828,"好事":15829,"廣大":15830,"疏散":15831,"的報告":15832,"發現有":15833,"夏威夷":15834,"上半":15835,"二級":15836,"交由":15837,"在野":15838,"從中":15839,"核電廠":15840,"org14":15841,"一台":15842,"中醫師":15843,"交出":15844,"將可":15845,"徹查":15846,"日止":15847,"更重要":15848,"正好":15849,"移植":15850,"農產品":15851,"年前的":15852,"消防人員":15853,"你是":15854,"偵測":15855,"投進":15856,"燭光":15857,"盜竊":15858,"經貿":15859,"補習":15860,"香港民眾":15861,"星期天":15862,">「<":15863,"截圖":15864,"毫不":15865,"留學生":15866,"的立場":15867,"腦死":15868,"請問":15869,"傳達":15870,"功效":15871,"打工":15872,"折扣":15873,"暴龍":15874,"查緝":15875,"環團":15876,"第一位":15877,"分鐘後":15878,"新竹縣":15879,"領事館":15880,"呈陽性":15881,"姿勢":15882,"婚宴":15883,"對著":15884,"永和":15885,"熱心":15886,"的企業":15887,"笑容":15888,"走路":15889,">%、<":15890,"目前有":15891,"非常好":15892,"公開信":15893,"八大行業":15894,"不符合":15895,"嚴肅":15896,"大方":15897,"大腦":15898,"年僅":15899,"往年":15900,"景象":15901,"清洗":15902,"的自由":15903,"的挑戰":15904,"私立":15905,"萎縮":15906,"鄉民":15907,"配置":15908,"重心":15909,"頂級":15910,"駐港":15911,"變異株":15912,"不喜歡":15913,"前方":15914,"副部長":15915,"天下":15916,"媳婦":15917,"師傅":15918,"急速":15919,"的效果":15920,"萬人次":15921,"月底前":15922,"競爭對手":15923,"目擊者":15924,"印地安人":15925,"三十":15926,"位居":15927,"信徒":15928,"信義":15929,"假訊息":15930,"副主任":15931,"大於":15932,"就已":15933,"控告":15934,"神奇":15935,"維斯":15936,"調漲":15937,"追加":15938,"一直是":15939,"遊行隊伍":15940,"總冠軍賽":15941,"倡議":15942,"出場":15943,"動議":15944,"大膽":15945,"散播":15946,"最愛":15947,"期許":15948,"淡水":15949,"碩士":15950,"詭異":15951,"重摔":15952,"比較好":15953,"音樂會":15954,"上空":15955,"二度":15956,"僅剩":15957,"在港":15958,"小確幸":15959,"局失":15960,"帶頭":15961,"這個問題":15962,"一款":15963,"億人":15964,"又說":15965,"局無失分":15966,"振興":15967,"有錢":15968,"漸漸":15969,"病逝":15970,"萬輛":15971,"大陸民眾":15972,"大量的":15973,"例本土個案":15974,"中毒":15975,"前所未":15976,"我愛":15977,"核定":15978,"標籤":15979,"焦慮":15980,"聰明":15981,"著手":15982,"中風":15983,"全文":15984,"接任":15985,"救災":15986,"角逐":15987,"讓自己":15988,"達人":15989,"覺得很":15990,"台北市議員":15991,"公共衛生":15992,"上升到":15993,"並指出":15994,"停水":15995,"北投":15996,"就這樣":15997,"我嚴防":15998,"甜點":15999,"的員工":16000,"首個":16001,"高出":16002,"調查顯示":16003,"不同意":16004,"受訪時表示":16005,"來臨":16006,"停擺":16007,"公然":16008,"專題":16009,"對其":16010,"後援":16011,"戶數":16012,"抄截":16013,"正治":16014,"睽違":16015,"科興":16016,"貨機":16017,"跌倒":16018,"跑步":16019,"較去年":16020,"阿公店":16021,"亞特蘭":16022,"個別":16023,"周遭":16024,"意志":16025,"慰問":16026,"汙染":16027,"煞車":16028,"生長":16029,"義大":16030,"能有":16031,"警惕":16032,"跆拳":16033,"已經開始":16034,"結束了":16035,"身體狀況":16036,"有關的":16037,"臨床試驗":16038,">。」":16039,"上看":16040,"兩會":16041,"各類":16042,"已完成":16043,"攝氏":16044,"的海":16045,"的力量":16046,"菜鳥":16047,"血糖":16048,"量產":16049,"高科技":16050,"萬元的":16051,"委員會主席":16052,"表達對":16053,"提高警覺":16054,"一句":16055,"容忍":16056,"日早上":16057,"養生":16058,"教練團":16059,"分別在":16060,"分布":16061,"卡車":16062,"單月":16063,"很明顯":16064,"檢出":16065,"還可":16066,"陳情":16067,"第二個":16068,"新一代":16069,"天堂":16070,"導入":16071,"收緊":16072,"組件":16073,"雲南":16074,"解決方案":16075,"生命危險":16076,"人和":16077,"戒備":16078,"落網":16079,"變電":16080,"豪小子":16081,"不等":16082,"南方":16083,"卡羅":16084,"天母":16085,"局的":16086,"影視":16087,"忘了":16088,"那是":16089,"高血壓":16090,"更多相關新聞":16091,"國立":16092,"最少":16093,"會造成":16094,"法令":16095,"的兒子":16096,"膨脹":16097,"良好的":16098,"陳男":16099,"發現了":16100,"國際組織":16101,"提供了":16102,"密切接觸者":16103,"巡迴賽":16104,"塞爾維亞":16105,"亞利桑那州":16106,"國際主要貨幣匯率美元":16107,"。──":16108,"三次":16109,"勇奪":16110,"娃娃":16111,"專制":16112,"年半":16113,"手續":16114,"正值":16115,"看這裡":16116,"種植":16117,"警衛":16118,"開工":16119,"連續第":16120,"開幕戰":16121,"超前部署":16122,"加密貨幣":16123,"中資":16124,"人人":16125,"他有":16126,"儲備":16127,"天后":16128,"女大生":16129,"奶茶":16130,"形態":16131,"是被":16132,"生理":16133,"腦部":16134,"陰影":16135,"台灣選手":16136,"增加到":16137,"宜蘭遊藝場":16138,"緊急事態宣言":16139,"上來":16140,"分泌":16141,"反抗":16142,"毀損":16143,"現今":16144,"肢體":16145,"變動":16146,"閉門":16147,"經濟學家":16148,"發起人":16149,"首都華盛頓":16150,">《":16151,"中學":16152,"平板":16153,"減產":16154,"版權":16155,"超出":16156,"阿姨":16157,"大陸的":16158,"合作的":16159,"足夠的":16160,"不希望":16161,"勤務":16162,"區議員":16163,"大隊":16164,"性質":16165,"授課":16166,"救出":16167,"矚目":16168,"級別":16169,"複賽":16170,"親王":16171,"評委":16172,"首盤":16173,"國民教育":16174,"世衛":16175,"仍以":16176,"傳喚":16177,"又要":16178,"日於":16179,"極大":16180,"白沙":16181,"遺產":16182,"開刀":16183,"第三季":16184,"演藝圈":16185,"方艙醫院":16186,"不捨":16187,"低潮":16188,"法說":16189,"瀏覽":16190,"為他":16191,"科系":16192,"種類":16193,"網購":16194,"緩慢":16195,"頒獎典禮":16196,"即刻":16197,"多萬":16198,"業主":16199,"榮獲":16200,"樂園":16201,"經由":16202,"美墨":16203,"老鼠":16204,"薩斯":16205,"農場":16206,"遇上":16207,"世界棒球":16208,"新聞網報導":16209,"基因定序":16210,"一中":16211,"一把":16212,"了對":16213,"多樣":16214,"懲處":16215,"日正式":16216,"濃度":16217,"的孩子":16218,"航行":16219,"行使":16220,"通道":16221,"電費":16222,"確定病例":16223,"對我們":16224,"日是":16225,"香港眾志":16226,"的一切":16227,"特區政府":16228,"通俄門":16229,"周一":16230,"女人":16231,"已向":16232,"後者":16233,"硬體":16234,"科目":16235,"西雅":16236,"那就是":16237,"來看看":16238,"在家裡":16239,"也相當":16240,"劇烈":16241,"國營":16242,"柏林":16243,"滾動":16244,"財長":16245,"離去":16246,"青睞":16247,"飛球":16248,"希望透過":16249,"的一項":16250,"邊境牆":16251,"成交量":16252,"哈爾":16253,"年第":16254,"接替":16255,"有必要":16256,"案情":16257,"殘酷":16258,"為避免":16259,"的網友":16260,"直至":16261,"能見":16262,"西半部":16263,"違約":16264,"公鹿":16265,"噴霧":16266,"將面臨":16267,"年減":16268,"彷彿":16269,"普及":16270,"街上":16271,"買超":16272,"轟炸":16273,"我們需要":16274,"目標是":16275,"基礎建設":16276,"亞洲主要股指收盤日本日經":16277,"主打":16278,"加息":16279,"抖音":16280,"領航":16281,"首批":16282,"馬刺":16283,"體能":16284,"維持在":16285,"桃園市長":16286,"之子":16287,"到期":16288,"妥善":16289,"患有":16290,"收取":16291,"聽說":16292,"色彩":16293,"角落":16294,"健康監測":16295,"為了讓":16296,"大三元":16297,"依序":16298,"保單":16299,"將進行":16300,"廠房":16301,"會出現":16302,"添加":16303,"因為疫情":16304,"世界大賽":16305,"保護力":16306,"另一位":16307,"建築物":16308,"不符":16309,"個股":16310,"十二":16311,"博覽":16312,"反制":16313,"喝水":16314,"在該":16315,"學子":16316,"家樂":16317,"成都":16318,"月至":16319,"東北部":16320,"獨行":16321,"的訊息":16322,"紅雀":16323,"維多":16324,"親共":16325,"間接":16326,"一線":16327,"下一步":16328,"也已經":16329,"嚴正":16330,"在我":16331,"威廉":16332,"對付":16333,"屋主":16334,"得獎":16335,"日與":16336,"有過":16337,"警車":16338,"高端":16339,"黑名單":16340,"加油站":16341,"這段時間":16342,"健身房":16343,"到美國":16344,"台積":16345,"業的":16346,"英國政府":16347,"我嚴防新冠肺炎":16348,"西雅圖":16349,"大橋":16350,"密碼":16351,"幾週":16352,"情人":16353,"拓展":16354,"疑問":16355,"筆記":16356,"罰球":16357,"而這":16358,"誠實":16359,"辣椒":16360,"難關":16361,"點的":16362,"世界球后":16363,"關注組":16364,"兆元":16365,"同盟":16366,"密歇":16367,"就知道":16368,"有問題":16369,"有消息":16370,"派對":16371,"自願":16372,"被敲出":16373,"許多民眾":16374,"跆拳道":16375,"主嫌":16376,"區間":16377,"只想":16378,"台獨":16379,"巴基":16380,"把它":16381,"未料":16382,"生前":16383,"聽取":16384,"親戚":16385,"的一種":16386,"當地居民":16387,"有多少":16388,"宗教自由":16389,"不准":16390,"人命":16391,"劈腿":16392,"四處":16393,"干涉":16394,"第二階段":16395,"不適症狀":16396,"嚴格的":16397,"也提醒":16398,"使館":16399,"再現":16400,"增設":16401,"大礙":16402,"心疼":16403,"發的":16404,"觀測":16405,"車頭":16406,"自己也":16407,"威斯康":16408,"不出來":16409,"口腔":16410,"將軍":16411,"對應":16412,"更能":16413,"的日子":16414,"秉持":16415,"羨慕":16416,"聖火":16417,"花旗":16418,"要到":16419,"遞交":16420,"離岸":16421,"正常的":16422,"共軍":16423,"國有":16424,"打敗":16425,"摘下":16426,"放置":16427,"模組":16428,"珠寶":16429,"的作用":16430,"感染人數":16431,"國際機場":16432,"不明感染源":16433,"不動產":16434,"撕裂":16435,"書面":16436,"槍枝":16437,"熱帶":16438,"納州":16439,"聯會":16440,"這讓":16441,"第一天":16442,"為主題":16443,"巴基斯坦":16444,"上架":16445,"不下去":16446,"並說":16447,"乾脆":16448,"了美國":16449,"交保":16450,"宛如":16451,"撞到":16452,"泡沫":16453,"練球":16454,"邁入":16455,"院校":16456,"麥克":16457,"全面消毒":16458,"有效的":16459,"應用程式":16460,"中印":16461,"四強":16462,"曾被":16463,"車廠":16464,"健康的":16465,"採檢結果":16466,"老闆娘":16467,"一架":16468,"偉大的":16469,"兩項":16470,"爆冷":16471,"石頭":16472,"聲浪":16473,"誓言":16474,"護航":16475,"賦予":16476,"造訪":16477,"金塊":16478,"設計的":16479,"在此之前":16480,"上陣":16481,"低點":16482,"住房":16483,"傳言":16484,"出示":16485,"合適":16486,"學年":16487,"母公司":16488,"沿途":16489,"花東":16490,"號稱":16491,"走進":16492,"鑑定":16493,"三項":16494,"分砲":16495,"即將在":16496,"回頭":16497,"因傷":16498,"國土":16499,"她是":16500,"已成為":16501,"強大的":16502,"最長":16503,"的患者":16504,"粉紅":16505,"肥胖":16506,"融合":16507,"解析":16508,"其他地區":16509,"葡萄牙":16510,"五大訴求":16511,"。★":16512,"中崙":16513,"出事":16514,"天文":16515,"強生":16516,"想起":16517,"改成":16518,"敵人":16519,"短片":16520,"脫困":16521,"還有網友":16522,"最後以":16523,"貿易代表":16524,"網站上":16525,"印尼籍":16526,"也出現":16527,"付款":16528,"侮辱":16529,"半數":16530,"名機師":16531,"妥協":16532,"差別":16533,"旅宿":16534,"派人":16535,"落地":16536,"藉口":16537,"高三":16538,"美國媒體":16539,"萬人死亡":16540,"下降到":16541,"作客":16542,"尼泊":16543,"度以上":16544,"情事":16545,"照常":16546,"爭執":16547,"生病":16548,"的日本":16549,"的決心":16550,"稅收":16551,"而他":16552,"該案":16553,"領館":16554,"總統候選人":16555,"紀錄片":16556,"也未":16557,"國文":16558,"在今天":16559,"幽默":16560,"懶人":16561,"條約":16562,"總幹事":16563,"開場":16564,"per15":16565,"英國的":16566,"。▲▼":16567,"一樣的":16568,"怎麼樣":16569,"生產的":16570,"標準桿":16571,"民調顯示":16572,"中指出":16573,"任意":16574,"伴侶":16575,"全中":16576,"兩地":16577,"周三":16578,"潛力":16579,"澤西":16580,"答應":16581,"違背":16582,"政府官員":16583,"公里的":16584,"抗爭者":16585,"]《":16586,"但他們":16587,"全港":16588,"兩者":16589,"國泰":16590,"巨星":16591,"救濟":16592,"疲勞":16593,"網傳":16594,"美容":16595,"製品":16596,"外界關注":16597,"行政區":16598,"正治綜合報導":16599,"亞特蘭大":16600,"二次":16601,"增添":16602,"專用":16603,"廟方":16604,"延誤":16605,"扣除":16606,"極度":16607,"的市民":16608,"立院":16609,"籌碼":16610,"裁罰":16611,"這篇":16612,"適逢":16613,"今天說":16614,"。◎":16615,"並進行":16616,"奧地利":16617,"模仿":16618,"特權":16619,"的錢":16620,"陣中":16621,"魅力":16622,"醫院的":16623,"右外野":16624,"沒什麼":16625,"生技":16626,"負荷":16627,"頭銜":16628,"我們可以":16629,"民間團體":16630,"聖誕節":16631,"他不":16632,"伺服":16633,"公報":16634,"卻不":16635,"喪失":16636,"市政":16637,"新創":16638,"跟蹤":16639,"門外":16640,"領土":16641,"相關報導":16642,"太空站":16643,"最有價值":16644,"副總裁":16645,"姐姐":16646,"搶修":16647,"是為":16648,"晚會":16649,"暴政":16650,"橫掃":16651,"沒收":16652,"的歷史":16653,"禁賽":16654,"一名女網友":16655,"聯邦眾議員":16656,"智慧型手機":16657,"中火":16658,"斥責":16659,"法定":16660,"流血":16661,"管線":16662,"點左右":16663,"台海":16664,"失利":16665,"屠殺":16666,"按讚":16667,"框架":16668,"雙位數":16669,"提供給":16670,"例外":16671,"到香港":16672,"南港":16673,"周末":16674,"大腿":16675,"實踐":16676,"席位":16677,"張貼":16678,"我沒有":16679,"歸隊":16680,"沒了":16681,"活力":16682,"淪為":16683,"的最後":16684,"的父親":16685,"車用":16686,"經紀人":16687,"布魯克":16688,"維多利亞":16689,"並由":16690,"保衛":16691,"勸導":16692,"學期":16693,"曾是":16694,"眉角":16695,"證件":16696,"變數":16697,"買的":16698,"民眾說":16699,"主場迎戰":16700,"記憶體":16701,"郵寄選票":16702,"白沙屯":16703,"主教":16704,"將為":16705,"把他":16706,"搶下":16707,"改採":16708,"本壘":16709,"極為":16710,"水中":16711,"督導":16712,"等方式":16713,"聯席":16714,"象隊":16715,"身價":16716,"防暴":16717,"降息":16718,"院內":16719,"首要":16720,">%。[":16721,"政治人物":16722,"對此表示":16723,"因應疫情":16724,"不代表":16725,"乖乖":16726,"亞運":16727,"嘉賓":16728,"婚後":16729,"控管":16730,"看待":16731,"頭號種子":16732,"推特上":16733,"相較於":16734,"遠距教學":16735,"五十":16736,"今早":16737,"多地":16738,"大致":16739,"小鳥":16740,"微笑":16741,"揭曉":16742,"繼承":16743,"致電":16744,"輪值":16745,"湖北省":16746,"生育率":16747,"能見度":16748,"家鄉":16749,"營利":16750,"老舊":16751,"自小":16752,"被擊出":16753,"調降":16754,"通脹":16755,"隨意":16756,"頻傳":16757,"聲明表示":16758,"照片中":16759,"一年多":16760,"來得":16761,"女方":16762,"遏制":16763,"飆出":16764,"要求政府":16765,"緬甸軍方":16766,"中共":16767,"中鋒":16768,"也因":16769,"單獨":16770,"崛起":16771,"放大":16772,"為自己":16773,"皇帝":16774,"藥廠":16775,"蘿蔔":16776,"該法案":16777,"持續加強":16778,"分鐘內":16779,"佛羅里達州":16780,"獨行俠":16781,"售票":16782,"嘲諷":16783,"抱著":16784,"柴油":16785,"用手":16786,"總桿":16787,"這兩個":16788,"報告顯示":16789,"產生的":16790,"隱瞞疫情":16791,"長照機構":16792,"伺服器":16793,"$<":16794,"一號":16795,"之旅":16796,"場次":16797,"妨礙":16798,"日新增":16799,"肺癌":16800,"若要":16801,"院方":16802,"宣布將":16803,"服務業":16804,"連環爆":16805,"些時候":16806,"合一":16807,"奪金":16808,"層面":16809,"打下":16810,"班級":16811,"白俄羅斯":16812,"試題":16813,"開局":16814,"領隊":16815,"進入第":16816,"根本是":16817,"不開放":16818,"劇情":16819,"向來":16820,"密西":16821,"平民":16822,"搖頭":16823,"碰撞":16824,"空襲":16825,"給付":16826,"美術":16827,"跨越":16828,"防疫破口":16829,"國防部":16830,"修正案":16831,"備用":16832,"北方":16833,"台新":16834,"台語":16835,"向上":16836,"在前":16837,"執照":16838,"擊中":16839,"犯下":16840,"皮書":16841,"福克斯":16842,"藍營":16843,"遊艇":16844,"不穩":16845,"全大運":16846,"嚴謹":16847,"政院":16848,"格局":16849,"牛排":16850,"的時刻":16851,"臉上":16852,"談論":16853,"網友紛紛留言":16854,"計劃在":16855,"野生動物":16856,"受疫情影響":16857,"器材":16858,"外部":16859,"最危險":16860,"片段":16861,"的有":16862,"的可能":16863,"結局":16864,"綠能":16865,"萬多":16866,"調高":16867,"迴避":16868,"黑人":16869,">,「":16870,"決議案":16871,"奧斯卡":16872,"再有":16873,"出庭":16874,"反觀":16875,"台大":16876,"射手":16877,"殖利率":16878,"法制":16879,"波特":16880,"清零":16881,"這兩天":16882,"倒塌":16883,"公會":16884,"囂張":16885,"學位":16886,"居檢":16887,"我說":16888,"有權":16889,"榜首":16890,"的對象":16891,"關係的":16892,"加以":16893,"威爾":16894,"打卡":16895,"緊繃":16896,"自責":16897,"西門":16898,"挑戰賽":16899,"原本的":16900,"攤商":16901,"款項":16902,"準則":16903,"缺口":16904,"養成":16905,"體質":16906,"新聞發布":16907,"梅雨季":16908,"下挫":16909,"公立":16910,"周四":16911,"惡法":16912,"施行":16913,"獎盃":16914,"節日":16915,"缺電":16916,"飆漲":16917,">./":16918,"看到了":16919,"侵犯人權":16920,"尼泊爾":16921,">@":16922,"上車":16923,"下調":16924,"不允許":16925,"千名":16926,"平反":16927,"爺爺":16928,"給她":16929,"肝臟":16930,"釣出":16931,"高手":16932,"服務的":16933,"刊登於":16934,"但還是":16935,"南區":16936,"參議院":16937,"同日":16938,"外匯":16939,"思維":16940,"探病":16941,"改寫":16942,"深化":16943,"精采":16944,"緩和":16945,"總決賽":16946,"腹瀉":16947,"該如何":16948,"請民眾":16949,"質問":16950,"第一的":16951,"美中貿易戰":16952,"則由":16953,"大考":16954,"屋頂":16955,"猛烈":16956,"病故":16957,"親屬":16958,"訂購":16959,"下水":16960,"地理":16961,"德納":16962,"想說":16963,"撲滅":16964,"收回":16965,"日召開":16966,"燃氣":16967,"維園":16968,"缺陣":16969,"耐心":16970,"能不能":16971,"走高":16972,"通勤":16973,"民眾對":16974,"防疫物資":16975,"病毒株":16976,"領域的":16977,"尼亞州":16978,"吃到飽":16979,"入海":16980,"全廠":16981,"到台灣":16982,"屋內":16983,"忽略":16984,"撤軍":16985,"林匹":16986,"樓梯":16987,"歲以下":16988,"笑稱":16989,"護士":16990,"這則":16991,"這一次":16992,"兩棲":16993,"平臺":16994,"極權":16995,"的動作":16996,"研擬":16997,"綜藝":16998,"開花":16999,"馬德里":17000,"今天凌晨":17001,"去年的":17002,"大家的":17003,"唯一的":17004,"名人賽":17005,"雲林縣":17006,"嬌生疫苗":17007,"世界棒球經典賽":17008,"不被":17009,"口水":17010,"可用":17011,"在當地":17012,"心血管":17013,"搶劫":17014,"胸部":17015,"訪談":17016,"長征":17017,"更多世界":17018,"全球疫情":17019,"關鍵時刻":17020,"基本面":17021,"社群平台":17022,"上調":17023,"公噸":17024,"分差":17025,"士氣":17026,"幹嘛":17027,"憑藉":17028,"無安打":17029,"的軍事":17030,"遏止":17031,"郵局":17032,"驚呆":17033,"產品的":17034,"反送中運動":17035,"並有":17036,"中英":17037,"也認為":17038,"分之一":17039,"和香港":17040,"應考":17041,"推升":17042,"改進":17043,"機型":17044,"珍珠":17045,"的措施":17046,"萬一":17047,"零組件":17048,"霸氣":17049,"美國首都華盛頓":17050,"台灣在":17051,"政策的":17052,"國內疫情升溫":17053,"的事實":17054,"歐美主要股指收盤德國":17055,"一代":17056,"外海":17057,"學金":17058,"廟宇":17059,"日曾":17060,"泛民主派":17061,"發酵":17062,"觸控":17063,"警訊":17064,"調查結果":17065,"的人們":17066,"小時的":17067,"例本土確診":17068,"事發後":17069,"只剩下":17070,"更多世界日報報導":17071,"名選手":17072,"太久":17073,"尊嚴":17074,"小弟":17075,"抓到":17076,"縱火":17077,"總量":17078,"績效":17079,"赴美":17080,"飼養":17081,"安全性":17082,"追蹤報導":17083,"也與":17084,"寶貝":17085,"是因":17086,"晚餐":17087,"更要":17088,"海運":17089,"無疑":17090,"評審":17091,"輪胎":17092,"陸戰":17093,"因為我":17094,"時間點":17095,"詐騙集團":17096,"一塊":17097,"人行":17098,"他被":17099,"加拉":17100,"史以來":17101,"和他":17102,"安慰":17103,"對陣":17104,"民運":17105,"濃煙":17106,"的個人":17107,"處境":17108,"里斯":17109,"重罰":17110,"隨機":17111,"香港記者":17112,"注意的是":17113,"主辦方":17114,"國產疫苗":17115,"動脈":17116,"商人":17117,"基準":17118,"堅強":17119,"擁抱":17120,"港區":17121,"誤導":17122,"郵輪":17123,"開戰":17124,"甚至有":17125,"恢復供電":17126,"做好準備":17127,"匡列接觸者":17128,"公升":17129,"哀悼":17130,"投書":17131,"海報":17132,"砲轟":17133,"美好":17134,"香蕉":17135,"驅離":17136,"指揮中心指出":17137,"是否能":17138,"優化":17139,"分發":17140,"在記者會上":17141,"強推":17142,"會影響":17143,"的媽媽":17144,"等同":17145,"續約":17146,"較大":17147,"這部":17148,"高通":17149,"因為我們":17150,"接受治療":17151,"...<":17152,"新一輪":17153,"一連串":17154,"上岸":17155,"你知道":17156,"兵力":17157,"南京":17158,"大哥":17159,"房產":17160,"更改":17161,"無出國":17162,"爆怨":17163,"貨運":17164,"世界法輪大法日":17165,"傳出有":17166,"馬斯克":17167,"加熱":17168,"及早":17169,"大媽":17170,"新娘":17171,"步行":17172,"狀元":17173,"脖子":17174,"被認為是":17175,"解散":17176,"貝爾":17177,"軍政府":17178,"黃蜂":17179,"無法接受":17180,"促成":17181,"參訪":17182,"口氣":17183,"在網路":17184,"損傷":17185,"格外":17186,"榮耀":17187,"水的":17188,"海峽":17189,"海面":17190,"認可":17191,"貪污":17192,"懶人包":17193,"但也有":17194,"募款":17195,"各有":17196,"向警方":17197,"扣押":17198,"擴展":17199,"日當天":17200,"月營收":17201,"有機":17202,"校慶":17203,"詳情":17204,"路過":17205,"沒有辦法":17206,"明顯的":17207,"完整的":17208,"娛樂中心":17209,"##":17210,"上游":17211,"例與":17212,"向前":17213,"在其":17214,"在一個":17215,"外流":17216,"多歲的":17217,"大國":17218,"封后":17219,"廠區":17220,"所致":17221,"的空間":17222,"綠燈":17223,"蒸發":17224,"輕易":17225,"通告":17226,"避開":17227,"都必須":17228,"第二波":17229,"之餘":17230,"也應":17231,"實地":17232,"序列":17233,"惶惶":17234,"無須":17235,"的老":17236,"這隻":17237,"雙北市":17238,"世界各國":17239,"經濟發展":17240,"也就是說":17241,"侵略":17242,"停靠":17243,"官司":17244,"客家":17245,"建商":17246,"從此":17247,"檢控":17248,"氣球":17249,"炒作":17250,"等因素":17251,"綠營":17252,"艦艇":17253,"落馬":17254,"養老":17255,"點此":17256,"台灣是":17257,"中國大陸的":17258,"原來是":17259,"他要":17260,"公道":17261,"受災":17262,"散布":17263,"流失":17264,"的設計":17265,"的信息":17266,"遵循":17267,"離譜":17268,"高漲":17269,"我們就":17270,"更多新聞":17271,"如果我們":17272,"匯流排":17273,"上榜":17274,"不算":17275,"叫做":17276,"合同":17277,"扭曲":17278,"拳擊":17279,"更容易":17280,"氣得":17281,"療法":17282,"運河":17283,"檢驗陰性報告":17284,"一艘":17285,"也特別":17286,"你可以":17287,"加薩":17288,"師父":17289,"我真的":17290,"捕捉":17291,"會導致":17292,"有更多":17293,"標題":17294,"玫瑰":17295,"行李":17296,"我們已經":17297,"你們的":17298,"你會":17299,"已掌握":17300,"灣仔":17301,"無預警":17302,"自救":17303,"讓步":17304,"運算":17305,"門前":17306,"鮭魚":17307,"目前沒有":17308,"這樣子":17309,"合作夥伴":17310,"檢察長":17311,"日全球股匯市一":17312,"僅僅":17313,"公約":17314,"分開":17315,"則認為":17316,"地板":17317,"流浪":17318,"的律師":17319,"的案例":17320,"莫德納":17321,"衝浪":17322,"他們會":17323,"相關視頻":17324,"同時也是":17325,"那麼多":17326,"房屋稅":17327,"宣告不治":17328,"從來沒有":17329,"領航猿":17330,"]▲<":17331,"不成":17332,"它是":17333,"校院":17334,"比對":17335,"都需要":17336,"聯合新聞網":17337,"旅行社":17338,"不完":17339,"他希望":17340,"信眾":17341,"兩周":17342,"別再":17343,"及相關":17344,"平權":17345,"年期":17346,"未有":17347,"每小時":17348,"的投資":17349,"複製":17350,"今年以來":17351,"舉行了":17352,"引發熱議":17353,"供稱":17354,"全明星":17355,"分店":17356,"勝負":17357,"我方":17358,"接待":17359,"擦撞":17360,"的後":17361,"的妻子":17362,"誠意":17363,"龍蝦":17364,"美國副總統":17365,"不過他":17366,"全球最大":17367,"自動駕駛":17368,"聚集在":17369,"兩院":17370,"公義":17371,"列出":17372,"十一":17373,"參拜":17374,"天安":17375,"揚言":17376,"擴充":17377,"某種":17378,"比去年同期":17379,"海南":17380,"的看法":17381,"觸身":17382,"走私":17383,"這將":17384,"首富":17385,"更多追蹤報導":17386,"第一輪":17387,"決定是否":17388,"鋒面通過":17389,"事務所":17390,"輕鬆報稅":17391,"也從":17392,"五股":17393,"可透過":17394,"同場":17395,"小牛":17396,"底線":17397,"改名":17398,"新建":17399,"有興趣":17400,"聲量":17401,"育兒":17402,"臨檢":17403,"通貨":17404,"限水":17405,"經濟體":17406,"幫助球隊":17407,"低溫":17408,"年到":17409,"恰恰":17410,"支球隊":17411,"是我們":17412,"未知":17413,"的技術":17414,"罰單":17415,"肺部":17416,"致勝":17417,"視角":17418,"違憲":17419,"經濟增長":17420,"地方法院":17421,"股東會":17422,"種族滅絕":17423,"移送法辦":17424,"也好":17425,"二壘打":17426,"副院長":17427,"區塊":17428,"夢幻":17429,"大連":17430,"完了":17431,"帛琉":17432,"機動":17433,"理賠":17434,"確切":17435,"置信":17436,"翔平":17437,"腳踝":17438,"都無法":17439,"美國公民":17440,"國家主席":17441,"非常重要":17442,"修正草案":17443,"兌換":17444,"固醇":17445,"多吃":17446,"總會":17447,"合作媒體":17448,"駐印度代表處":17449,"三讀":17450,"但對":17451,"倒閉":17452,"大律師":17453,"季的":17454,"擁擠":17455,"日發布":17456,"正視":17457,"消耗":17458,"維穩":17459,"縣的":17460,"變更":17461,"負債":17462,"退伍":17463,"黨的":17464,"本土疫情升溫":17465,"第三節":17466,"也透露":17467,"但其實":17468,"歹徒":17469,"減稅":17470,"無需":17471,"獲授權轉載":17472,"的女兒":17473,"跳舞":17474,"都不能":17475,"鑑於":17476,"黨領袖":17477,"今年是":17478,"病毒傳播":17479,"出現發燒":17480,"上學":17481,"以巴":17482,"信託":17483,"假新聞":17484,"億日圓":17485,"動盪":17486,"勝差":17487,"想過":17488,"拿起":17489,"流入":17490,"滿了":17491,"漁民":17492,"窗戶":17493,"躺在":17494,"通信":17495,"消息一出":17496,"再生能源":17497,"。》":17498,"半決賽":17499,"所做的":17500,"掉落":17501,"暴徒":17502,"步道":17503,"殯儀":17504,"的風":17505,"的關注":17506,"的法律":17507,"聖地":17508,"道理":17509,"鄉村":17510,"陳述":17511,"願望":17512,"美國輝瑞":17513,"朋友們":17514,"獅子會前會長":17515,"並依指示":17516,"丟掉":17517,"傳說":17518,"指南":17519,"暑假":17520,"潛水":17521,"的最佳":17522,"祈求":17523,"較多":17524,"鬥爭":17525,"所有眉角":17526,"原文刊登於":17527,"新制小確幸":17528,"滑手機輕鬆報稅":17529,"所有眉角看這裡":17530,"不需":17531,"不高":17532,"乘坐":17533,"全新的":17534,"失守":17535,"就很":17536,"思議":17537,"急性":17538,"最具":17539,"有感":17540,"牠們":17541,"的過程中":17542,"考題":17543,"萬桶":17544,"補選":17545,"見過":17546,"這批":17547,"配套":17548,"重災區":17549,"防疫政策":17550,"之前的":17551,"外交政策":17552,"接下來的":17553,"及時診斷":17554,"不論是":17555,"成年人":17556,"老實說":17557,"原文刊登於合作媒體":17558,"二代":17559,"來回":17560,"勝選":17561,"區內":17562,"委書記":17563,"巴拉圭":17564,"態勢":17565,"接見":17566,"溜馬":17567,"灰熊":17568,"王室":17569,"的比例":17570,"稍後":17571,"繁殖":17572,"邁進":17573,"駁斥":17574,"駐日":17575,"他們是":17576,"的一年":17577,"當地政府":17578,"侵入":17579,"對華":17580,"就診":17581,"憲兵":17582,"每個月":17583,"美國前":17584,"香港民主":17585,"今年初":17586,"相關規定":17587,"檢疫期滿":17588,"上市公司":17589,"財政部長":17590,"?」,":17591,"做什麼":17592,"偷拍":17593,"冒險":17594,"孫子":17595,"實務":17596,"摩托":17597,"港人的":17598,"甜蜜":17599,"產地":17600,"界人士":17601,"破門":17602,"節省":17603,"組別":17604,"起了":17605,"運氣":17606,"不過在":17607,"退黨精選":17608,"個人的":17609,"反正":17610,"帆船":17611,"應試":17612,"日登場":17613,"機的":17614,"貼心":17615,"防疫警戒":17616,"就是在":17617,"支持的":17618,"第二大":17619,"聲明說":17620,"另一半":17621,"營業場所":17622,"敲出安打":17623,"受訪表示":17624,"強烈譴責":17625,"意識形態":17626,"競選團隊":17627,"中將":17628,"之道":17629,"到訪":17630,"功夫":17631,"名嘴":17632,"大廳":17633,"掃描":17634,"揮出":17635,"無可":17636,"瞄準":17637,"磋商":17638,"試著":17639,"貪腐":17640,"都去過":17641,"指揮部":17642,"申請納入":17643,"籃球聯賽":17644,"林匹克":17645,"公關":17646,"前年":17647,"在台中":17648,"州市":17649,"文中":17650,"獲釋":17651,"理財":17652,"的建議":17653,"高度關注":17654,"走上街頭":17655,"里程碑":17656,"到位":17657,"將再":17658,"情感":17659,"抵台":17660,"服刑":17661,"石門":17662,"部桃":17663,"靈活":17664,"首轟":17665,"根據美國":17666,"科技股":17667,"傳統的":17668,"環球體育":17669,"送往醫院":17670,"大谷翔平":17671,"台積電":17672,"將依":17673,"為人":17674,"那就":17675,"都說":17676,"日本職棒":17677,"的一份":17678,"的一天":17679,"參加了":17680,"選舉的":17681,"執行官":17682,"這種情況":17683,"美國職棒大聯盟":17684,"分區輪流停電":17685,"中興":17686,"封面":17687,"我可以":17688,"更快":17689,"洩漏":17690,"無所":17691,"返鄉":17692,"配件":17693,"駐美":17694,"展開調查":17695,"全廠停機":17696,"卻發現":17697,"存活":17698,"心力":17699,"攤位":17700,"教會":17701,"期刊":17702,"缺失":17703,"耶路":17704,"聽見":17705,"衝上":17706,"運行":17707,"頭上":17708,"高價":17709,"可能的":17710,"檢驗中":17711,"高球賽":17712,"搭機前":17713,"太平洋":17714,"廢棄物":17715,"有線電視":17716,"代替":17717,"冷戰":17718,"工商":17719,"有能力":17720,"水分":17721,"稅務":17722,"自來":17723,"運轉":17724,"遭人":17725,"一定的":17726,"苗栗縣":17727,"智能手機":17728,"觸身球":17729,"殯儀館":17730,"上屆":17731,"不合理":17732,"做準備":17733,"先行":17734,"只不過":17735,"夜晚":17736,"天價":17737,"就將":17738,"彩券":17739,"抓住":17740,"教士":17741,"斥資":17742,"模特":17743,"的理由":17744,"空調":17745,"精進":17746,"著名的":17747,"視野":17748,"今日在":17749,"都是在":17750,"呼籲市民":17751,"不可思議":17752,"天安門":17753,"個州":17754,"參謀":17755,"城區":17756,"填寫":17757,"忽視":17758,"樂趣":17759,"翻轉":17760,"聲響":17761,"腹部":17762,"隨之":17763,"隨身":17764,"健康狀況":17765,"研究中心":17766,"共和國":17767,"報酬":17768,"床上":17769,"沒多久":17770,"煙火":17771,"產學":17772,"疏失":17773,"的症狀":17774,"的家人":17775,"的想法":17776,"真心":17777,"眼神":17778,"組的":17779,"船長":17780,"被判刑":17781,"訪港":17782,"超音":17783,"遇難":17784,"館長":17785,"酒精消毒":17786,"茶藝館群聚案":17787,"被問及":17788,"哈爾濱":17789,"更多新聞推薦":17790,"一來":17791,"仍持續":17792,"光復":17793,"北北":17794,"合格":17795,"外加":17796,"多加":17797,"她認為":17798,"姐妹":17799,"已開始":17800,"平靜":17801,"復活":17802,"指令":17803,"捲入":17804,"族裔":17805,"普篩":17806,"清明":17807,"漲勢":17808,"男方":17809,"贏家":17810,"看到的":17811,"第三方":17812,"畢業後":17813,"公務人員":17814,"路易斯":17815,"橡皮艇":17816,"一分":17817,"主演":17818,"二手":17819,"儘量":17820,"升值":17821,"掙扎":17822,"收下":17823,"本國":17824,"本案":17825,"機上":17826,"櫃檯":17827,"用藥":17828,"與他":17829,"追逐":17830,"這群":17831,"陽台":17832,"」。「":17833,"相關人員":17834,"組織的":17835,"先生說":17836,"不適合":17837,"違反了":17838,"有利於":17839,"兌現":17840,"店面":17841,"憂鬱":17842,"擬申請納入":17843,"火速":17844,"的人員":17845,"讚賞":17846,"養殖":17847,"政府在":17848,"年齡下修":17849,"嘉義市":17850,"實在太":17851,"大考中心":17852,"下落":17853,"不聽":17854,"善良":17855,"專心":17856,"會以":17857,"止步":17858,"等國":17859,"與人":17860,"與家人":17861,"買下":17862,"輕症":17863,"鄉鎮":17864,"最後一次":17865,"新唐人電視":17866,"健保卡":17867,"發球局":17868,"元件":17869,"八卦":17870,"加薪":17871,"屏幕":17872,"管治":17873,"蓄水":17874,"希望能夠":17875,"嚴重影響":17876,"一起來":17877,"一直以來":17878,"一定是":17879,"提高到":17880,"銷售額":17881,"明尼蘇":17882,"則是在":17883,"士尼":17884,"奉獻":17885,"媽咪":17886,"實境":17887,"專政":17888,"拓荒":17889,"為陰性":17890,"的選舉":17891,"邁向":17892,"銅鑼":17893,"防疫作為":17894,"感到非常":17895,"種族歧視":17896,"心臟病":17897,"無症狀感染者":17898,"一家人":17899,"上衣":17900,"中學生":17901,"但要":17902,"僵局":17903,"前提":17904,"容納":17905,"敲安":17906,"朝天宮":17907,"爆廢":17908,"發明":17909,"缺貨":17910,"說了":17911,"讓美國":17912,"迪士尼":17913,"日內檢驗陰性報告":17914,"最有價值球員":17915,"擬申請納入緊急狀態":17916,"下週一":17917,"做生意":17918,"偷偷":17919,"利康":17920,"友誼":17921,"大腸":17922,"年時":17923,"幼稚":17924,"德基":17925,"是沒有":17926,"火葬":17927,"精品":17928,"與前":17929,"若能":17930,"鈔票":17931,"電源":17932,"鼓舞":17933,"疫苗接種年齡下修":17934,"人心惶惶":17935,"氧化碳":17936,"單日本土再增":17937,"都去過哪":17938,"茶藝館群聚案都去過哪":17939,"偶爾":17940,"動保":17941,"友好":17942,"在白宮":17943,"威權":17944,"對她":17945,"底特":17946,"彌補":17947,"從沒":17948,"房租":17949,"投保":17950,"撒冷":17951,"文明":17952,"是指":17953,"椅子":17954,"機能":17955,"突變":17956,"處的":17957,"里蘭":17958,"集合":17959,"首波":17960,"就醫採檢":17961,"耶路撒冷":17962,"!!":17963,"一手":17964,"休斯":17965,"放下":17966,"浴室":17967,"球的":17968,"的病毒":17969,"站的":17970,"美髮":17971,"親人":17972,"財運":17973,"趁機":17974,"附上":17975,"院區":17976,"陣子":17977,"驅動":17978,"他們將":17979,"預計將":17980,"北海道擬申請納入緊急狀態":17981,"變電所":17982,"卡在":17983,"在比賽":17984,"好成績":17985,"會館":17986,"海嘯":17987,"癱瘓":17988,"破紀錄":17989,"荒謬":17990,"這部分":17991,"今天起":17992,"學生會":17993,"一直到":17994,"歷史的":17995,"持有搭機前":17996,"不服":17997,"化妝":17998,"十五":17999,"挨轟":18000,"敲定":18001,"衝進":18002,"跳機":18003,"軍售":18004,"都相當":18005,"電郵":18006,"可以說是":18007,"成功的":18008,"帶領下":18009,"和前":18010,"噁心":18011,"應付":18012,"手槍":18013,"的新聞":18014,"的視頻":18015,"皇后":18016,"腳踏":18017,"蒙面":18018,"要看":18019,"賭場":18020,"非必要":18021,"題材":18022,"因為有":18023,"有限公司":18024,"住所":18025,"只需":18026,"城鎮":18027,"派系":18028,"跟你":18029,"達標":18030,"隔壁":18031,"org15":18032,"調查報告":18033,"接種後":18034,"關鍵字":18035,"交易所":18036,"傳染力":18037,"底特律":18038,"之地":18039,"分成":18040,"可樂":18041,"司司長":18042,"年華":18043,"建構":18044,"戰局":18045,"段時間":18046,"珍貴":18047,"白人":18048,"至醫院":18049,"邏輯":18050,"預言":18051,"美元的":18052,"持續擴大":18053,"不會再":18054,"這是我":18055,"代表隊":18056,"穩定的":18057,"一哥":18058,"九二":18059,"劇本":18060,"印太":18061,"均有":18062,"安東":18063,"曬出":18064,"材質":18065,"滅證":18066,"的資訊":18067,"議論":18068,"跌停":18069,"世界的":18070,"其中一":18071,"參與者":18072,"中部以北":18073,"司令部":18074,"不給":18075,"出獄":18076,"威力":18077,"對自己":18078,"左手":18079,"新店":18080,"智利":18081,"棒的":18082,"番茄":18083,"自拍":18084,"說服":18085,"車款":18086,"遊玩":18087,"難怪":18088,"新增的":18089,".<":18090,"力拚":18091,"升空":18092,"卻有":18093,"四名":18094,"回擊":18095,"把關":18096,"擅自":18097,"教導":18098,"整備":18099,"輕取":18100,"輛車":18101,"辱罵":18102,"進程":18103,"閃電":18104,"訪問時":18105,"原則上":18106,"氣象局":18107,"動向":18108,"吃完":18109,"對媒體":18110,"抗旱":18111,"排出":18112,"排黑":18113,"會更":18114,"模型":18115,"裡頭":18116,"醫藥":18117,"陷阱":18118,"離奇":18119,"冠軍戰":18120,"分析認為":18121,"媽媽的":18122,"吸引了":18123,"老年人":18124,"補習班":18125,"也非常":18126,"可愛的":18127,"善意":18128,"報考":18129,"天量":18130,"少子":18131,"扭轉":18132,"擊退":18133,"時裝":18134,"有史以來":18135,"空姐":18136,"賽中":18137,"躲避":18138,"連連":18139,"黑社會":18140,"通知書":18141,"醫療資源":18142,"近期無出國":18143,"的大型":18144,"中央流行疫情指揮中心指揮官":18145,"也向":18146,"到目前為止":18147,"套房":18148,"市占":18149,"幾位":18150,"想不到":18151,"據稱":18152,"放送":18153,"為確保":18154,"當你":18155,"眼前":18156,"舉措":18157,"遣返":18158,"邀集":18159,"通緝犯":18160,"例子":18161,"倉庫":18162,"函送":18163,"布萊":18164,"撰寫":18165,"溫和":18166,"相近":18167,"航線":18168,"見的":18169,"請點此":18170,"電線":18171,"調查發現":18172,"行政命令":18173,"平均每":18174,"交叉":18175,"但未":18176,"前兩":18177,"創紀錄":18178,"力度":18179,"匯款":18180,"國歌":18181,"在中國大陸":18182,"外傳":18183,"拉麵":18184,"業餘":18185,"照曝光":18186,"號誌":18187,"身手":18188,"鋼琴":18189,"鑰匙":18190,"長久":18191,"公布了":18192,"機師確診":18193,"就有網友":18194,"資深媒體人":18195,"短期內":18196,"傷兵":18197,"元朗":18198,"創歷史新高":18199,"反壟斷":18200,"委任":18201,"尖沙":18202,"巨額":18203,"市集":18204,"後仍":18205,"潛伏":18206,"猶豫":18207,"的核心":18208,"科長":18209,"薩克":18210,"誤會":18211,"警政":18212,"超夯":18213,"報導引述":18214,"」。▲<":18215,"學校的":18216,"面對面":18217,"遊行到":18218,"桃園機場":18219,"流行病":18220,"美國輝瑞疫苗接種年齡下修":18221,"侵擾":18222,"及通報":18223,"心靈":18224,"據報":18225,"支全壘打":18226,"更在":18227,"港股":18228,"無意":18229,"立案":18230,"被封":18231,"視力":18232,"連同":18233,"都知道":18234,"可能要":18235,"工作機會":18236,"自由車":18237,"中央疫情指揮中心":18238,"飛行員":18239,"自我健康監測":18240,"餐飲業":18241,"取勝":18242,"大事":18243,"姊姊":18244,"季減":18245,"小學生":18246,"水資源":18247,"法拉":18248,"絕不":18249,"被感染":18250,"要將":18251,"目前已有":18252,"最高法院":18253,"?」「":18254,"聯合品牌":18255,"確實有":18256,"密歇根州":18257,"並依指示配戴口罩":18258,"問到":18259,"大數據":18260,"廣西":18261,"氣的":18262,"異地":18263,"花錢":18264,"貧窮":18265,"轉彎":18266,"生活中":18267,"勞動力":18268,"上一軍":18269,"一套":18270,"天數":18271,"撤僑":18272,"沙發":18273,"球速":18274,"發給":18275,"賽場":18276,"走在":18277,"遭警方":18278,"類別":18279,"疫情發展":18280,"進行中":18281,"運動影音":18282,"什麼時候":18283,"累計確診":18284,"國家安全顧問":18285,"個多月":18286,"通貨膨脹":18287,"一句話":18288,"下秒":18289,"但不":18290,"作證":18291,"周五":18292,"多半":18293,"巴爾的":18294,"我不知道":18295,"投籃":18296,"權威":18297,"歲男":18298,"民營":18299,"炸雞":18300,"率達":18301,"討債":18302,"釀成":18303,"視訊會議":18304,"精彩運動影音":18305,"內有":18306,"內衣":18307,"分至":18308,"歡樂":18309,"歲男子":18310,"滋味":18311,"熱絡":18312,"猶太":18313,"當街":18314,"的計劃":18315,"都非常":18316,"闖紅燈":18317,"今日宣布":18318,"第二名":18319,"醫療院所":18320,"重量級":18321,"以利及時診斷":18322,"副秘書長":18323,"務人員":18324,"取自":18325,"回復":18326,"家公司":18327,"工藝":18328,"往後":18329,"必備":18330,"情節":18331,"愛好":18332,"懂得":18333,"拉出":18334,"持槍":18335,"施放":18336,"日確診":18337,"清查":18338,"穆斯":18339,"精緻":18340,"義工":18341,"被要求":18342,"調節":18343,"議程":18344,"順序":18345,"已經超過":18346,">-,":18347,"大陸網友":18348,"研究發現":18349,"最高可":18350,"擴大採檢":18351,"做事":18352,"公衛":18353,"單局":18354,"在微博":18355,"壽司":18356,"居留":18357,"巨型":18358,"情境":18359,"營區":18360,"狂飆":18361,"等罪":18362,"贏了":18363,"逐年":18364,"這點":18365,"難題":18366,"電臺":18367,"全球的":18368,"民主黨":18369,"不清":18370,"並提供":18371,"升到":18372,"印第":18373,"周二":18374,"奠定":18375,"好評":18376,"小小":18377,"改選":18378,"文創":18379,"橄欖":18380,"現役":18381,"的路":18382,"說自己":18383,"贈送":18384,"政府對":18385,"希望可以":18386,"英國變異株":18387,"選舉舞弊":18388,"專家表示":18389,"分享的貼文":18390,"控制的":18391,"新竹市":18392,"過來人":18393,"先馳":18394,"出不":18395,"分離":18396,"取締":18397,"圖為":18398,"壽命":18399,"既有":18400,"月到":18401,"機身":18402,"深感":18403,"總成績":18404,"至關":18405,"解體":18406,"起床":18407,"露面":18408,"順暢":18409,"經濟的":18410,"澄清湖":18411,"先馳得點":18412,"以待":18413,"媒合":18414,"度假":18415,"日對":18416,"熱水":18417,"的全球":18418,"的資料":18419,"破千":18420,"翻覆":18421,"背後的":18422,"身影":18423,"金盃":18424,"舉行記者會":18425,"年輕的":18426,"這起事件":18427,"滿滿的":18428,"不確定性":18429,"三位":18430,"光電":18431,"再爆":18432,"向媒體":18433,"在後":18434,"恭喜":18435,"惡性":18436,"接管":18437,"擾台":18438,"東家":18439,"產值":18440,"超高":18441,"退賽":18442,"發生衝突":18443,"持續加強疫情監測與邊境管制措施":18444,"拓荒者":18445,"傳給":18446,"有心":18447,"民事":18448,"留學":18449,"發光":18450,"的服務":18451,"社長":18452,"變形":18453,"跳電":18454,"轉到":18455,"願景":18456,"今天也":18457,"同時主動":18458,"聲明退出":18459,"了一項":18460,"一般人":18461,"接下來請看今天的財經":18462,"安東尼":18463,"並依指示配戴口罩儘速就醫":18464,"以利及時診斷及通報":18465,"之家":18466,"人間":18467,"他沒有":18468,"兩人的":18469,"切勿":18470,"反攻":18471,"據說":18472,"收押":18473,"攻城":18474,"注重":18475,"火化":18476,"的原":18477,"舒緩":18478,"處所":18479,"行事":18480,"規律":18481,"這一切":18482,"!」[":18483,"反對派":18484,"休士頓火箭":18485,"研討會":18486,"低收入":18487,"光明":18488,"出征":18489,"分領先":18490,"務卿":18491,"同年":18492,"悄悄":18493,"我自己":18494,"放到":18495,"的選擇":18496,"的關稅":18497,"碎片":18498,"突襲":18499,"詹姆斯":18500,"重演":18501,"現在已經":18502,"製造的":18503,"攝影師":18504,"最重要的是":18505,"匯流排故障":18506,"劇中":18507,"外套":18508,"專員":18509,"我已經":18510,"挺身":18511,"握手":18512,"救人":18513,"死傷":18514,"的方向":18515,"社工":18516,"豬瘟":18517,"軍官":18518,"較少":18519,"連戰":18520,"疫情擴大":18521,"今天報導":18522,"甚至連":18523,"至今已":18524,"推文說":18525,"住院隔離":18526,"一黨":18527,"問責":18528,"場均":18529,"夜店":18530,"平息":18531,"的社會":18532,"花生":18533,"跌至":18534,"跟隨":18535,"農曆":18536,"飽受":18537,"國際油價":18538,"市場需求":18539,">》,":18540,"第三次":18541,"日起至":18542,"不滿意":18543,"亥俄":18544,"例調查中":18545,"俄亥俄":18546,"切入":18547,"尋常":18548,"尋釁":18549,"市中心":18550,"心動":18551,"打入":18552,"日被":18553,"案子":18554,"此一":18555,"洽談":18556,"混雙":18557,"無懼":18558,"發作":18559,"起跑":18560,"都拉斯":18561,"鄉親":18562,"錄製":18563,"關頭":18564,"餅乾":18565,"美國選手":18566,"政府和":18567,"世界第":18568,"新唐人亞太電視整理報導":18569,"雞排妹":18570,"美國首都華盛頓報導":18571,"乳癌":18572,"低估":18573,"創建":18574,"北美":18575,"增多":18576,"姓教練":18577,"導師":18578,"常會":18579,"數百萬":18580,"為甚麼":18581,"特徵":18582,"產檢":18583,"的意見":18584,"相反":18585,"約定":18586,"胎兒":18587,"興農":18588,"藍綠":18589,"賭博":18590,"的人民":18591,"其他的":18592,"研發的":18593,"陸媒報導":18594,"搖擺州":18595,"博覽會":18596,"上萬":18597,"不止":18598,"仍可":18599,"分散":18600,"副總理":18601,"在主場":18602,"報價":18603,"強風":18604,"應援":18605,"我還":18606,"戰火":18607,"房地":18608,"新一波":18609,"景觀":18610,"樓市":18611,"氣憤":18612,"父子":18613,"爾瓦":18614,"的賽事":18615,"的文章":18616,"草莓":18617,"試劑":18618,"長賜":18619,"開支":18620,"駕照":18621,"安全帽":18622,"成為全球":18623,"引發網友":18624,"電子郵件":18625,"金融機構":18626,"開幕式":18627,"密切關注":18628,"九二共識":18629,"上一次":18630,"以下的":18631,"墾丁":18632,"應急":18633,"控股":18634,"施加":18635,"最受":18636,"牙醫":18637,"的家庭":18638,"相應":18639,"短線":18640,"茶葉":18641,"藥局":18642,"轉機":18643,"遍及":18644,"雨水":18645,"龐大的":18646,"因此在":18647,"達成共識":18648,"航空器":18649,"值得注意的是":18650,"在野黨":18651,"一部":18652,"交談":18653,"奧林匹克":18654,"客服":18655,"批發":18656,"拯救":18657,"撤出":18658,"改裝":18659,"日舉辦":18660,"樹林":18661,"每桶":18662,"水域":18663,"的地區":18664,"背部":18665,"腸道":18666,"自發":18667,"芒果":18668,"要是":18669,"香港人的":18670,"什麼事":18671,"首席執行官":18672,"印象深刻":18673,"永續發展":18674,"全是":18675,"兼任":18676,"出海":18677,"卡片":18678,"國慶":18679,"外科":18680,"戰況":18681,"打過":18682,"日再":18683,"淇淋":18684,"的指控":18685,"約會":18686,"給出":18687,"網壇":18688,"號在":18689,"起初":18690,"過濾":18691,"鐵人":18692,"鬆綁":18693,"點到":18694,"畢業典禮":18695,"購物中心":18696,">../—":18697,"之意":18698,"今後":18699,"墮胎":18700,"想辦法":18701,"日深夜":18702,"有害":18703,"檢調":18704,"次助攻":18705,"渴望":18706,"重組":18707,"靈魂":18708,"我們看到":18709,"通過了":18710,"民主自由":18711,"這麼做":18712,"電影院":18713,"中市":18714,"也跟著":18715,"休養":18716,"依靠":18717,"保密":18718,"又以":18719,"可行":18720,"對不起":18721,"性命":18722,"持平":18723,"接送":18724,"時隔":18725,"會與":18726,"溫泉":18727,"百名":18728,"的案件":18729,"脅迫":18730,"致信":18731,"被網友":18732,"軟銀":18733,"過渡":18734,"開的":18735,"疫情衝擊":18736,"其中一個":18737,"個月後":18738,"第三輪":18739,"預期的":18740,"半導體產業":18741,"呼應":18742,"單節":18743,"姓女":18744,"安定":18745,"援引":18746,"日以":18747,"書豪":18748,"本賽季":18749,"的限制":18750,"觸及":18751,"這幾":18752,"消息稱":18753,"個人申請":18754,"一年一度":18755,"參賽者":18756,"的心情":18757,"聯合新聞網獲授權轉載":18758,"享用":18759,"但若":18760,"博蒂":18761,"去買":18762,"嘴巴":18763,"學歷":18764,"安撫":18765,"尼斯":18766,"尾聲":18767,"左外野":18768,"張男":18769,"擴增":18770,"旁的":18771,"標的":18772,"都以":18773,"野火":18774,"目前仍":18775,"臉書直播":18776,"員工確診":18777,"第四季":18778,"解除隔離":18779,"疫情爆發以來":18780,"中期選舉":18781,"公有":18782,"分隊":18783,"包辦":18784,"壓倒":18785,"已要求":18786,"所為":18787,"極力":18788,"檸檬":18789,"的標準":18790,"超跑":18791,"錯了":18792,"開跑":18793,"。」,":18794,"可以用":18795,"另外還有":18796,"完全不":18797,"史上第":18798,"下面我們":18799,"解放軍":18800,"銅鑼灣":18801,"尋釁滋事":18802,"五個":18803,"亞錦賽":18804,"他曾":18805,"凝聚":18806,"北台灣":18807,"大同":18808,"從美國":18809,"歲時":18810,"縱容":18811,"老饕":18812,"色的":18813,"萬片":18814,"關說":18815,"雷陣雨":18816,"首座":18817,"可以讓":18818,"就業機會":18819,"出局後":18820,"站在一起":18821,"印第安":18822,"。●":18823,"一筆":18824,"傳單":18825,"千多":18826,"在意":18827,"拖累":18828,"搞笑":18829,"源自":18830,"溫哥":18831,"男嬰":18832,"當機":18833,"的信":18834,"而不":18835,"致癌":18836,"默默":18837,"一名女子":18838,"甚至在":18839,"通過的":18840,"了一份":18841,"知名的":18842,"告知醫師旅遊史及接觸史":18843,"量測體溫":18844,"同時主動告知醫師旅遊史及接觸史":18845,"南北":18846,"安平":18847,"布袋":18848,"影劇":18849,"想知道":18850,"打的":18851,"承辦":18852,"查明":18853,"灣區":18854,"的病例":18855,"童年":18856,"豪門":18857,"都表示":18858,"風傳媒":18859,"高市":18860,"高調":18861,"中國在":18862,"病毒疫苗":18863,"學生們":18864,"去年在":18865,"選手們":18866,"時期的":18867,"這件事情":18868,"穆斯林":18869,"一票":18870,"上帝":18871,"了一些":18872,"供貨":18873,"兒女":18874,"嘉年華":18875,"定調":18876,"帽子":18877,"往上":18878,"我家":18879,"手的":18880,"投稿":18881,"披薩":18882,"更具":18883,"歡慶":18884,"特性":18885,"痕跡":18886,"登入":18887,"的手機":18888,"蘇聯":18889,"講師":18890,"車牌":18891,"遍布":18892,"限於":18893,"可能導致":18894,"保護自己":18895,"到底是":18896,"咳嗽等":18897,"一提":18898,"估值":18899,"分球":18900,"刑法":18901,"別人的":18902,"名男子":18903,"吸睛":18904,"嗆聲":18905,"射箭":18906,"對立":18907,"文書":18908,"日和":18909,"最主要":18910,"果粉":18911,"的功能":18912,"的女性":18913,"目光":18914,"空污":18915,"繳交":18916,"衍生":18917,"真的有":18918,"發表的":18919,"只要有":18920,"外界認為":18921,"俄羅斯的":18922,"發起的":18923,"初步調查":18924,"活摘器官":18925,"自來水":18926,"不宜":18927,"中等":18928,"他命":18929,"周六":18930,"巴巴":18931,"後備":18932,"從業":18933,"海灘":18934,"的最高":18935,"的球迷":18936,"神明":18937,"裝飾":18938,"遭逮":18939,"開辦":18940,"韓元":18941,"per16":18942,"指揮中心公布":18943,"社會大眾":18944,"電子煙":18945,"簡單的":18946,"身心障礙":18947,"在醫院":18948,"多頭":18949,"大排":18950,"宵禁":18951,"履歷":18952,"工時":18953,"查扣":18954,"棉花":18955,"治癒":18956,"盤後":18957,"被認為":18958,"載著":18959,"本土確診":18960,"完成了":18961,"提升到":18962,"這一天":18963,"回來了":18964,"如有發燒":18965,"商務部":18966,"上將":18967,"住了":18968,"兌美元":18969,"出沒":18970,"削弱":18971,"嚇傻":18972,"墊底":18973,"廣達":18974,"慶生":18975,"政客":18976,"日才":18977,"有兩":18978,"此後":18979,"治港":18980,"溫布":18981,"疑惑":18982,"素養":18983,"脆弱":18984,"要用":18985,"金馬":18986,"陝西":18987,"患者的":18988,"禁止飲食":18989,"週二表示":18990,"房貸利率":18991,"溫哥華":18992,"]「<":18993,"下個":18994,"之星":18995,"也要求":18996,"內蒙古":18997,"學運":18998,"對他們":18999,"水手":19000,"海邊":19001,"滑落":19002,"獨居":19003,"盜壘":19004,"相差":19005,"祕書":19006,"科大":19007,"策劃":19008,"舅舅":19009,"逃亡":19010,"這天":19011,"達比":19012,"鑒於":19013,"的人生":19014,"研究團隊":19015,"醫療機構":19016,"紛紛表示":19017,"清潔消毒":19018,"傳染病防治":19019,"人身":19020,"六都":19021,"再創新高":19022,"剩餘":19023,"古典":19024,"同為":19025,"外包商":19026,"年年":19027,"急著":19028,"擬定":19029,"減弱":19030,"潮流":19031,"牌照":19032,"的訴求":19033,"縮水":19034,"蔬果":19035,"製藥":19036,"責失":19037,"發生過":19038,"媒體的":19039,"單日新高":19040,"胡椒噴霧":19041,"下單":19042,"到中國":19043,"哈登":19044,"回事":19045,"沉重":19046,"特種":19047,"肌膚":19048,"轟出":19049,"鼻子":19050,"這是他":19051,"民主國家":19052,"不能再":19053,"在美國的":19054,"南部地區":19055,"短時間內":19056,"一杯":19057,"不開":19058,"且有":19059,"世大運":19060,"事前":19061,"來瘋":19062,"十幾":19063,"另據":19064,"在中":19065,"大安":19066,"大減":19067,"就任":19068,"最重":19069,"淪陷":19070,"為首":19071,"環節":19072,"皆有":19073,"神山":19074,"負起":19075,"超高壓":19076,"離島":19077,"新聞簡訊":19078,"其他網友":19079,"生命跡象":19080,"了許多":19081,"來台灣":19082,"卻遭":19083,"可靠":19084,"天才":19085,"她和":19086,"富商":19087,"於今年":19088,"日期間":19089,"的危險":19090,"的原則":19091,"說謊":19092,"醬油":19093,"沒有什麼":19094,"持續延燒":19095,"部分地區":19096,"萬人確診":19097,"球場上":19098,"紀念館":19099,"大約有":19100,"預算案":19101,"驅逐艦":19102,"==":19103,"傳輸":19104,"億萬":19105,"已故":19106,"巴塞":19107,"會先":19108,"有零星":19109,"灰狼":19110,"發全壘打":19111,"盡可能":19112,"職責":19113,"與日本":19114,"著重":19115,"要先":19116,"追撞":19117,"防曬":19118,"個案接觸者":19119,"有一位":19120,"美中關係":19121,"足球賽":19122,"陪同下":19123,"少子化":19124,"一番":19125,"亮麗":19126,"仍會":19127,"僅是":19128,"實用":19129,"就沒":19130,"成以上":19131,"旅程":19132,"最差":19133,"條第":19134,"樓價":19135,
[...]
