{"version":"1.0","truncation":null,"padding":null,"added_tokens":[{"id":0,"special":true,"content":"<unk>","single_word":false,"lstrip":false,"rstrip":false,"normalized":false},{"id":1,"special":true,"content":"[CLS]","single_word":false,"lstrip":false,"rstrip":false,"normalized":false},{"id":2,"special":true,"content":"[SEP]","single_word":false,"lstrip":false,"rstrip":false,"normalized":false},{"id":3,"special":true,"content":"[PAD]","single_word":false,"lstrip":false,"rstrip":false,"normalized":false},{"id":4,"special":true,"content":"[MASK]","single_word":false,"lstrip":false,"rstrip":false,"normalized":false},{"id":5,"special":true,"content":"<en>","single_word":false,"lstrip":false,"rstrip":false,"normalized":false},{"id":6,"special":true,"content":"<num>","single_word":false,"lstrip":false,"rstrip":false,"normalized":false},{"id":7,"special":true,"content":"<per0>","single_word":false,"lstrip":false,"rstrip":false,"normalized":false},{"id":8,"special":true,"content":"<per1>","single_word":false,"lstrip":false,"rstrip":false,"normalized":false},{"id":9,"special":true,"content":"<per2>","single_word":false,"lstrip":false,"rstrip":false,"normalized":false},{"id":10,"special":true,"content":"<per3>","single_word":false,"lstrip":false,"rstrip":false,"normalized":false},{"id":11,"special":true,"content":"<per4>","single_word":false,"lstrip":false,"rstrip":false,"normalized":false},{"id":12,"special":true,"content":"<per5>","single_word":false,"lstrip":false,"rstrip":false,"normalized":false},{"id":13,"special":true,"content":"<per6>","single_word":false,"lstrip":false,"rstrip":false,"normalized":false},{"id":14,"special":true,"content":"<per7>","single_word":false,"lstrip":false,"rstrip":false,"normalized":false},{"id":15,"special":true,"content":"<per8>","single_word":false,"lstrip":false,"rstrip":false,"normalized":false},{"id":16,"special":true,"content":"<per9>","single_word":false,"lstrip":false,"rstrip":false,"normalized":false},{"id":17,"special":true,"content":"<org0>","single_word":false,"lstrip":false,"rstrip":false,"normalized":false},{"id":18,"special":true,"content":"<org1>","single_word":false,"lstrip":false,"rstrip":false,"normalized":false},{"id":19,"special":true,"content":"<org2>","single_word":false,"lstrip":false,"rstrip":false,"normalized":false},{"id":20,"special":true,"content":"<org3>","single_word":false,"lstrip":false,"rstrip":false,"normalized":false},{"id":21,"special":true,"content":"<org4>","single_word":false,"lstrip":false,"rstrip":false,"normalized":false},{"id":22,"special":true,"content":"<org5>","single_word":false,"lstrip":false,"rstrip":false,"normalized":false},{"id":23,"special":true,"content":"<org6>","single_word":false,"lstrip":false,"rstrip":false,"normalized":false},{"id":24,"special":true,"content":"<org7>","single_word":false,"lstrip":false,"rstrip":false,"normalized":false},{"id":25,"special":true,"content":"<org8>","single_word":false,"lstrip":false,"rstrip":false,"normalized":false},{"id":26,"special":true,"content":"<org9>","single_word":false,"lstrip":false,"rstrip":false,"normalized":false},{"id":27,"special":true,"content":"<loc0>","single_word":false,"lstrip":false,"rstrip":false,"normalized":false},{"id":28,"special":true,"content":"<loc1>","single_word":false,"lstrip":false,"rstrip":false,"normalized":false},{"id":29,"special":true,"content":"<loc2>","single_word":false,"lstrip":false,"rstrip":false,"normalized":false},{"id":30,"special":true,"content":"<loc3>","single_word":false,"lstrip":false,"rstrip":false,"normalized":false},{"id":31,"special":true,"content":"<loc4>","single_word":false,"lstrip":false,"rstrip":false,"normalized":false},{"id":32,"special":true,"content":"<loc5>","single_word":false,"lstrip":false,"rstrip":false,"normalized":false},{"id":33,"special":true,"content":"<loc6>","single_word":false,"lstrip":false,"rstrip":false,"normalized":false},{"id":34,"special":true,"content":"<loc7>","single_word":false,"lstrip":false,"rstrip":false,"normalized":false},{"id":35,"special":true,"content":"<loc8>","single_word":false,"lstrip":false,"rstrip":false,"normalized":false},{"id":36,"special":true,"content":"<loc9>","single_word":false,"lstrip":false,"rstrip":false,"normalized":false}],"normalizer":null,"pre_tokenizer":{"type":"Whitespace"},"post_processor":null,"decoder":null,"model":{"type":"BPE","dropout":null,"unk_token":"<unk>","continuing_subword_prefix":null,"end_of_word_suffix":null,"fuse_unk":false,"vocab":{"<unk>":0,"[CLS]":1,"[SEP]":2,"[PAD]":3,"[MASK]":4,"<en>":5,"<num>":6,"<per0>":7,"<per1>":8,"<per2>":9,"<per3>":10,"<per4>":11,"<per5>":12,"<per6>":13,"<per7>":14,"<per8>":15,"<per9>":16,"<org0>":17,"<org1>":18,"<org2>":19,"<org3>":20,"<org4>":21,"<org5>":22,"<org6>":23,"<org7>":24,"<org8>":25,"<org9>":26,"<loc0>":27,"<loc1>":28,"<loc2>":29,"<loc3>":30,"<loc4>":31,"<loc5>":32,"<loc6>":33,"<loc7>":34,"<loc8>":35,"<loc9>":36,"!":37,"+":38,",":39,"-":40,".":41,"/":42,"0":43,"1":44,"2":45,"3":46,"4":47,"5":48,"6":49,"7":50,"8":51,"9":52,":":53,"<":54,">":55,"?":56,"E":57,"P":58,"S":59,"[":60,"]":61,"c":62,"e":63,"g":64,"k":65,"l":66,"m":67,"n":68,"o":69,"p":70,"r":71,"u":72,"~":73,"、":74,"。":75,"《":76,"》":77,"「":78,"」":79,"㖔":80,"㗎":81,"㚬":82,"㩦":83,"㵢":84,"㹴":85,"䅲":86,"䠷":87,"䡗":88,"一":89,"丁":90,"七":91,"丅":92,"万":93,"丈":94,"三":95,"上":96,"下":97,"不":98,"丐":99,"丑":100,"且":101,"丕":102,"世":103,"丘":104,"丙":105,"丞":106,"丟":107,"並":108,"丨":109,"个":110,"丫":111,"中":112,"丰":113,"串":114,"丶":115,"丸":116,"丹":117,"为":118,"主":119,"丼":120,"丿":121,"乃":122,"久":123,"么":124,"之":125,"乍":126,"乎":127,"乏":128,"乒":129,"乓":130,"乖":131,"乗":132,"乘":133,"乙":134,"九":135,"乞":136,"也":137,"乩":138,"乳":139,"乾":140,"亀":141,"亁":142,"亂":143,"了":144,"予":145,"争":146,"事":147,"二":148,"于":149,"云":150,"互":151,"五":152,"井":153,"亙":154,"些":155,"亞":156,"亟":157,"亡":158,"亢":159,"交":160,"亥":161,"亦":162,"亨":163,"享":164,"京":165,"亭":166,"亮":167,"亲":168,"亳":169,"人":170,"亻":171,"什":172,"仁":173,"仄":174,"仆":175,"仇":176,"今":177,"介":178,"仍":179,"仏":180,"仔":181,"仕":182,"他":183,"仗":184,"付":185,"仙":186,"仟":187,"代":188,"令":189,"以":190,"仨":191,"仰":192,"仲":193,"件":194,"任":195,"份":196,"仿":197,"企":198,"伃":199,"伉":200,"伊":201,"伍":202,"伎":203,"伏":204,"伐":205,"休":206,"伕":207,"伙":208,"会":209,"伝":210,"伯":211,"估":212,"伴":213,"伶":214,"伸":215,"伺":216,"似":217,"伽":218,"佃":219,"但":220,"佇":221,"佈":222,"位":223,"低":224,"住":225,"佐":226,"佑":227,"体":228,"佔":229,"何":230,"佘":231,"余":232,"佛":233,"作":234,"佝":235,"你":236,"佢":237,"佣":238,"佩":239,"佬":240,"佮":241,"佯":242,"佰":243,"佳":244,"併":245,"佶":246,"佻":247,"佼":248,"佾":249,"使":250,"侃":251,"侄":252,"來":253,"侈":254,"侊":255,"例":256,"侍":257,"侏":258,"侑":259,"侖":260,"侗":261,"供":262,"依":263,"価":264,"侮":265,"侯":266,"侵":267,"侶":268,"侷":269,"便":270,"俁":271,"係":272,"促":273,"俄":274,"俊":275,"俍":276,"俎":277,"俏":278,"俐":279,"俑":280,"俗":281,"俘":282,"俚":283,"保":284,"俞":285,"俟":286,"俠":287,"信":288,"俢":289,"俣":290,"俤":291,"俥":292,"修":293,"俯":294,"俱":295,"俳":296,"俸":297,"俺":298,"俾":299,"倆":300,"倉":301,"個":302,"倌":303,"倍":304,"倏":305,"們":306,"倒":307,"倔":308,"倖":309,"倘":310,"候":311,"倚":312,"倜":313,"借":314,"倡":315,"倢":316,"倦":317,"倩":318,"倪":319,"倫":320,"倭":321,"倰":322,"值":323,"偃":324,"假":325,"偈":326,"偉":327,"偌":328,"偎":329,"偏":330,"偒":331,"偕":332,"做":333,"停":334,"健":335,"偲":336,"側":337,"偵":338,"偶":339,"偷":340,"偽":341,"傀":342,"傅":343,"傍":344,"傑":345,"傘":346,"備":347,"傢":348,"傣":349,"催":350,"傭":351,"傲":352,"傳":353,"債":354,"傷":355,"傻":356,"傾":357,"僂":358,"僅":359,"僊":360,"像":361,"僑":362,"僕":363,"僚":364,"僥":365,"僧":366,"僮":367,"僱":368,"僵":369,"價":370,"僻":371,"儀":372,"儂":373,"億":374,"儆":375,"儉":376,"儋":377,"儒":378,"儕":379,"儘":380,"償":381,"儡":382,"儣":383,"優":384,"儲":385,"儷":386,"儸":387,"儻":388,"儼":389,"儿":390,"兀":391,"允":392,"元":393,"兄":394,"充":395,"兆":396,"兇":397,"先":398,"光":399,"克":400,"兌":401,"免":402,"児":403,"兑":404,"兒":405,"兔":406,"兗":407,"党":408,"兜":409,"兢":410,"入":411,"內":412,"全":413,"兩":414,"八":415,"公":416,"六":417,"兮":418,"共":419,"关":420,"兴":421,"兵":422,"其":423,"具":424,"典":425,"兹":426,"养":427,"兼":428,"冀":429,"内":430,"円":431,"冇":432,"冉":433,"冊":434,"再":435,"冒":436,"冕":437,"冗":438,"写":439,"冚":440,"冠":441,"冤":442,"冥":443,"冨":444,"冪":445,"冬":446,"冰":447,"冲":448,"决":449,"冴":450,"况":451,"冶":452,"冷":453,"冽":454,"凃":455,"凄":456,"凅":457,"准":458,"凈":459,"凉":460,"凊":461,"凋":462,"凌":463,"凍":464,"减":465,"凑":466,"凖":467,"凜":468,"凝":469,"几":470,"凡":471,"凪":472,"凰":473,"凱":474,"凳":475,"凶":476,"凸":477,"凹":478,"出":479,"函":480,"刀":481,"刁":482,"刃":483,"分":484,"切":485,"刈":486,"刊":487,"刎":488,"刑":489,"划":490,"列":491,"初":492,"判":493,"別":494,"刨":495,"利":496,"刪":497,"别":498,"刮":499,"到":500,"制":501,"刷":502,"券":503,"刺":504,"刻":505,"剁":506,"剃":507,"則":508,"剉":509,"削":510,"剋":511,"剌":512,"前":513,"剎":514,"剔":515,"剖":516,"剛":517,"剝":518,"剩":519,"剪":520,"剮":521,"副":522,"割":523,"創":524,"剷":525,"剽":526,"剿":527,"劃":528,"劇":529,"劈":530,"劉":531,"劊":532,"劍":533,"劏":534,"劑":535,"力":536,"功":537,"加":538,"劣":539,"动":540,"助":541,"努":542,"劫":543,"劬":544,"劭":545,"劵":546,"効":547,"劾":548,"势":549,"勁":550,"勃":551,"勇":552,"勉":553,"勍":554,"勒":555,"動":556,"勘":557,"務":558,"勛":559,"勝":560,"勞":561,"募":562,"勢":563,"勤":564,"勳":565,"勵":566,"勸":567,"勺":568,"勻":569,"勾":570,"勿":571,"包":572,"匆":573,"匈":574,"匍":575,"匏":576,"匐":577,"匕":578,"化":579,"北":580,"匙":581,"匝":582,"匠":583,"匡":584,"匣":585,"匪":586,"匭":587,"匯":588,"匱":589,"匹":590,"医":591,"匾":592,"匿":593,"區":594,"十":595,"千":596,"卅":597,"升":598,"午":599,"卉":600,"半":601,"卍":602,"卑":603,"卒":604,"卓":605,"協":606,"单":607,"南":608,"博":609,"卜":610,"卞":611,"占":612,"卡":613,"卦":614,"卯":615,"印":616,"危":617,"即":618,"却":619,"卵":620,"卷":621,"卸":622,"卹":623,"卻":624,"卿":625,"厄":626,"厓":627,"厘":628,"厚":629,"厝":630,"原":631,"厥":632,"厦":633,"厭":634,"厲":635,"厶":636,"去":637,"叁":638,"参":639,"參":640,"又":641,"叉":642,"及":643,"友":644,"双":645,"反":646,"収":647,"叔":648,"取":649,"受":650,"叛":651,"叟":652,"叠":653,"叡":654,"叢":655,"口":656,"古":657,"句":658,"另":659,"叨":660,"叩":661,"只":662,"叫":663,"召":664,"叭":665,"叮":666,"可":667,"台":668,"叱":669,"史":670,"右":671,"叵":672,"号":673,"司":674,"叻":675,"叼":676,"吁":677,"吃":678,"各":679,"吆":680,"合":681,"吉":682,"吊":683,"吋":684,"同":685,"名":686,"后":687,"吏":688,"吐":689,"向":690,"吒":691,"吔":692,"君":693,"吝":694,"吞":695,"吟":696,"吠":697,"否":698,"吧":699,"吩":700,"含":701,"吭":702,"吮":703,"吱":704,"吳":705,"吵":706,"吶":707,"吸":708,"吹":709,"吻":710,"吼":711,"吾":712,"吿":713,"呀":714,"呂":715,"呃":716,"呆":717,"呈":718,"呉":719,"告":720,"呎":721,"呐":722,"呢":723,"呤":724,"呦":725,"周":726,"呱":727,"味":728,"呵":729,"呷":730,"呸":731,"呻":732,"呼":733,"命":734,"咀":735,"咁":736,"咄":737,"咆":738,"咋":739,"和":740,"咎":741,"咐":742,"咒":743,"咔":744,"咕":745,"咖":746,"咗":747,"咘":748,"咚":749,"咥":750,"咦":751,"咧":752,"咨":753,"咩":754,"咪":755,"咫":756,"咬":757,"咱":758,"咲":759,"咳":760,"咸":761,"咻":762,"咽":763,"咾":764,"哀":765,"品":766,"哄":767,"哆":768,"哇":769,"哈":770,"哉":771,"哋":772,"哎":773,"哏":774,"哖":775,"哞":776,"哟":777,"員":778,"哥":779,"哦":780,"哧":781,"哨":782,"哩":783,"哪":784,"哭":785,"哮":786,"哲":787,"哺":788,"哼":789,"哽":790,"唁":791,"唄":792,"唅":793,"唆":794,"唇":795,"唉":796,"唏":797,"唐":798,"唑":799,"唔":800,"唦":801,"唧":802,"唬":803,"售":804,"唯":805,"唰":806,"唱":807,"唳":808,"唷":809,"唸":810,"唾":811,"啃":812,"啄":813,"商":814,"啉":815,"啊":816,"問":817,"啓":818,"啕":819,"啖":820,"啜":821,"啞":822,"啟":823,"啡":824,"啣":825,"啤":826,"啥":827,"啦":828,"啪":829,"啲":830,"啵":831,"啷":832,"啻":833,"啼":834,"啾":835,"喀":836,"喂":837,"喃":838,"善":839,"喆":840,"喇":841,"喉":842,"喊":843,"喋":844,"喎":845,"喔":846,"喘":847,"喙":848,"喚":849,"喜":850,"喝":851,"喧":852,"喪":853,"喫":854,"喬":855,"單":856,"喱":857,"喲":858,"喳":859,"喵":860,"喹":861,"喺":862,"喻":863,"嗄":864,"嗅":865,"嗆":866,"嗇":867,"嗎":868,"嗑":869,"嗓":870,"嗔":871,"嗖":872,"嗚":873,"嗜":874,"嗝":875,"嗡":876,"嗣":877,"嗤":878,"嗦":879,"嗨":880,"嗩":881,"嗯":882,"嗰":883,"嗲":884,"嗶":885,"嗽":886,"嘀":887,"嘅":888,"嘆":889,"嘈":890,"嘉":891,"嘌":892,"嘍":893,"嘎":894,"嘔":895,"嘖":896,"嘗":897,"嘛":898,"嘜":899,"嘞":900,"嘟":901,"嘩":902,"嘮":903,"嘯":904,"嘰":905,"嘲":906,"嘴":907,"嘶":908,"嘸":909,"嘹":910,"嘻":911,"嘿":912,"噁":913,"噌":914,"噍":915,"噎":916,"噓":917,"噔":918,"噗":919,"噘":920,"噚":921,"噠":922,"噢":923,"噤":924,"噥":925,"器":926,"噩":927,"噪":928,"噬":929,"噯":930,"噱":931,"噴":932,"噶":933,"噸":934,"噹":935,"噻":936,"嚀":937,"嚅":938,"嚇":939,"嚎":940,"嚏":941,"嚐":942,"嚓":943,"嚕":944,"嚙":945,"嚟":946,"嚥":947,"嚨":948,"嚮":949,"嚴":950,"嚶":951,"嚷":952,"嚼":953,"囁":954,"囂":955,"囈":956,"囉":957,"囊":958,"囍":959,"囑":960,"囓":961,"囔":962,"囚":963,"四":964,"囝":965,"回":966,"囟":967,"因":968,"囡":969,"囤":970,"囧":971,"囪":972,"囫":973,"困":974,"囱":975,"図":976,"囹":977,"固":978,"国":979,"囿":980,"圃":981,"圄":982,"圇":983,"圈":984,"國":985,"圍":986,"圏":987,"園":988,"圓":989,"圖":990,"團":991,"圜":992,"土":993,"在":994,"圭":995,"圮":996,"地":997,"圳":998,"圾":999,"址":1000,"坂":1001,"均":1002,"坊":1003,"坍":1004,"坎":1005,"坏":1006,"坐":1007,"坑":1008,"坡":1009,"坢":1010,"坣":1011,"坤":1012,"坦":1013,"坨":1014,"坪":1015,"坯":1016,"坳":1017,"坵":1018,"坷":1019,"垂":1020,"垃":1021,"型":1022,"垛":1023,"垜":1024,"垠":1025,"垢":1026,"垣":1027,"垮":1028,"垵":1029,"垻":1030,"埀":1031,"埂":1032,"埃":1033,"埆":1034,"埈":1035,"埋":1036,"城":1037,"埔":1038,"埕":1039,"域":1040,"埠":1041,"埤":1042,"埨":1043,"埭":1044,"執":1045,"埸":1046,"培":1047,"基":1048,"埼":1049,"堀":1050,"堂":1051,"堅":1052,"堆":1053,"堇":1054,"堊":1055,"堡":1056,"堤":1057,"堪":1058,"堯":1059,"堰":1060,"報":1061,"場":1062,"堵":1063,"堺":1064,"塊":1065,"塌":1066,"塍":1067,"塏":1068,"塑":1069,"塔":1070,"塗":1071,"塘":1072,"塚":1073,"塞":1074,"塡":1075,"塢":1076,"塩":1077,"填":1078,"塭":1079,"塱":1080,"塵":1081,"塹":1082,"塾":1083,"境":1084,"墅":1085,"墉":1086,"墊":1087,"墓":1088,"増":1089,"墘":1090,"墜":1091,"增":1092,"墟":1093,"墨":1094,"墩":1095,"墮":1096,"墳":1097,"墶":1098,"墾":1099,"壁":1100,"壅":1101,"壇":1102,"壑":1103,"壓":1104,"壕":1105,"壘":1106,"壞":1107,"壟":1108,"壠":1109,"壢":1110,"壤":1111,"壩":1112,"士":1113,"壬":1114,"壮":1115,"壯":1116,"売":1117,"壶":1118,"壹":1119,"壺":1120,"壽":1121,"夀":1122,"夆":1123,"変":1124,"夏":1125,"夔":1126,"夕":1127,"外":1128,"夙":1129,"多":1130,"夜":1131,"夠":1132,"夢":1133,"夥":1134,"大":1135,"天":1136,"太":1137,"夫":1138,"夭":1139,"央":1140,"夯":1141,"失":1142,"夲":1143,"夷":1144,"夸":1145,"夾":1146,"奄":1147,"奇":1148,"奈":1149,"奉":1150,"奎":1151,"奏":1152,"奐":1153,"契":1154,"奔":1155,"奕":1156,"套":1157,"奚":1158,"奠":1159,"奢":1160,"奥":1161,"奧":1162,"奨":1163,"奪":1164,"奬":1165,"奮":1166,"女":1167,"奴":1168,"奶":1169,"奸":1170,"她":1171,"奼":1172,"好":1173,"妁":1174,"如":1175,"妃":1176,"妄":1177,"妊":1178,"妍":1179,"妏":1180,"妒":1181,"妓":1182,"妖":1183,"妘":1184,"妙":1185,"妝":1186,"妞":1187,"妡":1188,"妣":1189,"妤":1190,"妥":1191,"妨":1192,"妮":1193,"妯":1194,"妲":1195,"妳":1196,"妹":1197,"妺":1198,"妻":1199,"妽":1200,"妾":1201,"姆":1202,"姈":1203,"姊":1204,"始":1205,"姍":1206,"姐":1207,"姑":1208,"姓":1209,"委":1210,"姚":1211,"姜":1212,"姝":1213,"姣":1214,"姥":1215,"姦":1216,"姨":1217,"姪":1218,"姬":1219,"姸":1220,"姻":1221,"姿":1222,"威":1223,"娃":1224,"娌":1225,"娑":1226,"娓":1227,"娗":1228,"娘":1229,"娛":1230,"娜":1231,"娟":1232,"娠":1233,"娥":1234,"娩":1235,"娶":1236,"娼":1237,"婀":1238,"婁":1239,"婆":1240,"婉":1241,"婊":1242,"婕":1243,"婚":1244,"婞":1245,"婢":1246,"婦":1247,"婧":1248,"婪":1249,"婭":1250,"婷":1251,"婿":1252,"媄":1253,"媒":1254,"媗":1255,"媚":1256,"媛":1257,"媜":1258,"媧":1259,"媲":1260,"媳":1261,"媽":1262,"嫁":1263,"嫂":1264,"嫉":1265,"嫌":1266,"嫖":1267,"嫗":1268,"嫚":1269,"嫡":1270,"嫣":1271,"嫦":1272,"嫩":1273,"嫰":1274,"嫲":1275,"嫵":1276,"嫻":1277,"嬅":1278,"嬈":1279,"嬉":1280,"嬋":1281,"嬌":1282,"嬛":1283,"嬢":1284,"嬤":1285,"嬪":1286,"嬰":1287,"嬲":1288,"嬴":1289,"嬷":1290,"嬸":1291,"嬿":1292,"孀":1293,"孃":1294,"子":1295,"孑":1296,"孓":1297,"孔":1298,"孕":1299,"字":1300,"存":1301,"孚":1302,"孛":1303,"孜":1304,"孝":1305,"孟":1306,"孢":1307,"季":1308,"孤":1309,"孥":1310,"学":1311,"孩":1312,"孫":1313,"孬":1314,"孰":1315,"孱":1316,"孳":1317,"孵":1318,"學":1319,"孺":1320,"孽":1321,"孿":1322,"宀":1323,"它":1324,"宅":1325,"宇":1326,"守":1327,"安":1328,"宋":1329,"完":1330,"宏":1331,"宕":1332,"宗":1333,"官":1334,"宙":1335,"定":1336,"宛":1337,"宜":1338,"宝":1339,"实":1340,"実":1341,"客":1342,"宣":1343,"室":1344,"宥":1345,"宦":1346,"宫":1347,"宮":1348,"宰":1349,"害":1350,"宴":1351,"宵":1352,"家":1353,"宸":1354,"容":1355,"宿":1356,"寂":1357,"寃":1358,"寄":1359,"寅":1360,"密":1361,"寇":1362,"富":1363,"寐":1364,"寒":1365,"寓":1366,"寗":1367,"寛":1368,"寞":1369,"察":1370,"寡":1371,"寢":1372,"寥":1373,"實":1374,"寧":1375,"寨":1376,"審":1377,"寫":1378,"寬":1379,"寮":1380,"寰":1381,"寵":1382,"寶":1383,"寸":1384,"寺":1385,"寿":1386,"封":1387,"専":1388,"尃":1389,"射":1390,"将":1391,"將":1392,"專":1393,"尉":1394,"尊":1395,"尋":1396,"對":1397,"導":1398,"小":1399,"少":1400,"尖":1401,"尚":1402,"尤":1403,"尪":1404,"尬":1405,"就":1406,"尷":1407,"尸":1408,"尹":1409,"尺":1410,"尻":1411,"尼":1412,"尾":1413,"尿":1414,"局":1415,"屁":1416,"居":1417,"屆":1418,"屈":1419,"届":1420,"屋":1421,"屌":1422,"屍":1423,"屎":1424,"屏":1425,"屐":1426,"屑":1427,"展":1428,"屜":1429,"属":1430,"屠":1431,"屢":1432,"層":1433,"履":1434,"屬":1435,"屯":1436,"山":1437,"屹":1438,"岀":1439,"岌":1440,"岐":1441,"岑":1442,"岔":1443,"岡":1444,"岩":1445,"岬":1446,"岱":1447,"岳":1448,"岸":1449,"峇":1450,"峋":1451,"峒":1452,"峙":1453,"峠":1454,"峨":1455,"峪":1456,"峭":1457,"峮":1458,"峯":1459,"峰":1460,"峴":1461,"島":1462,"峻":1463,"峽":1464,"崁":1465,"崇":1466,"崎":1467,"崑":1468,"崔":1469,"崖":1470,"崗":1471,"崙":1472,"崛":1473,"崢":1474,"崩":1475,"崴":1476,"崽":1477,"嵄":1478,"嵋":1479,"嵌":1480,"嵎":1481,"嵐":1482,"嵓":1483,"嵙":1484,"嵜":1485,"嵩":1486,"嵬":1487,"嵵":1488,"嵿":1489,"嶂":1490,"嶄":1491,"嶇":1492,"嶋":1493,"嶙":1494,"嶝":1495,"嶸":1496,"嶺":1497,"嶼":1498,"嶽":1499,"巂":1500,"巋":1501,"巍":1502,"巒":1503,"巔":1504,"巖":1505,"川":1506,"州":1507,"巡":1508,"巢":1509,"工":1510,"左":1511,"巧":1512,"巨":1513,"巫":1514,"差":1515,"己":1516,"已":1517,"巳":1518,"巴":1519,"巷":1520,"巽":1521,"巾":1522,"巿":1523,"市":1524,"布":1525,"帆":1526,"师":1527,"希":1528,"帑":1529,"帔":1530,"帕":1531,"帖":1532,"帙":1533,"帚":1534,"帛":1535,"帝":1536,"帥":1537,"師":1538,"席":1539,"帯":1540,"帰":1541,"帳":1542,"帶":1543,"帷":1544,"常":1545,"帽":1546,"幀":1547,"幄":1548,"幅":1549,"幇":1550,"幌":1551,"幔":1552,"幕":1553,"幗":1554,"幛":1555,"幟":1556,"幡":1557,"幢":1558,"幣":1559,"幫":1560,"干":1561,"平":1562,"年":1563,"并":1564,"幸":1565,"幹":1566,"幻":1567,"幼":1568,"幽":1569,"幾":1570,"庁":1571,"広":1572,"庄":1573,"庇":1574,"床":1575,"序":1576,"庒":1577,"底":1578,"庖":1579,"店":1580,"庚":1581,"府":1582,"度":1583,"座":1584,"庫":1585,"庭":1586,"庲":1587,"庵":1588,"庶":1589,"康":1590,"庸":1591,"庹":1592,"廁":1593,"廂":1594,"廃":1595,"廈":1596,"廉":1597,"廊":1598,"廋":1599,"廍":1600,"廓":1601,"廔":1602,"廖":1603,"廚":1604,"廝":1605,"廟":1606,"廠":1607,"廡":1608,"廢":1609,"廣":1610,"廬":1611,"廳":1612,"廵":1613,"延":1614,"廷":1615,"廸":1616,"建":1617,"廿":1618,"弄":1619,"弈":1620,"弊":1621,"弋":1622,"式":1623,"弒":1624,"弓":1625,"弔":1626,"引":1627,"弗":1628,"弘":1629,"弛":1630,"弟":1631,"弦":1632,"弧":1633,"弩":1634,"弭":1635,"弱":1636,"張":1637,"強":1638,"强":1639,"弼":1640,"彆":1641,"彈":1642,"彊":1643,"彌":1644,"彎":1645,"当":1646,"彗":1647,"彙":1648,"彚":1649,"彜":1650,"彝":1651,"彡":1652,"形":1653,"彣":1654,"彤":1655,"彥":1656,"彦":1657,"彩":1658,"彪":1659,"彬":1660,"彭":1661,"彰":1662,"影":1663,"彵":1664,"彷":1665,"役":1666,"彼":1667,"彿":1668,"往":1669,"征":1670,"待":1671,"徇":1672,"很":1673,"徉":1674,"徊":1675,"律":1676,"後":1677,"徐":1678,"徑":1679,"徒":1680,"得":1681,"徘":1682,"徙":1683,"徜":1684,"從":1685,"徠":1686,"御":1687,"徧":1688,"徨":1689,"復":1690,"循":1691,"徬":1692,"微":1693,"徳":1694,"徵":1695,"德":1696,"徹":1697,"徽":1698,"心":1699,"忄":1700,"必":1701,"忌":1702,"忍":1703,"忐":1704,"忑":1705,"忒":1706,"忖":1707,"志":1708,"忘":1709,"忙":1710,"忝":1711,"忠":1712,"忡":1713,"忤":1714,"忪":1715,"快":1716,"忱":1717,"念":1718,"忸":1719,"忻":1720,"忽":1721,"忿":1722,"怀":1723,"怎":1724,"怏":1725,"怒":1726,"怔":1727,"怕":1728,"怖":1729,"怙":1730,"怜":1731,"思":1732,"怠":1733,"怡":1734,"急":1735,"怦":1736,"性":1737,"怨":1738,"怩":1739,"怪":1740,"怫":1741,"怯":1742,"怵":1743,"恁":1744,"恂":1745,"恃":1746,"恆":1747,"恊":1748,"恋":1749,"恍":1750,"恐":1751,"恒":1752,"恕":1753,"恙":1754,"恢":1755,"恣":1756,"恤":1757,"恥":1758,"恨":1759,"恩":1760,"恪":1761,"恫":1762,"恬":1763,"恭":1764,"息":1765,"恰":1766,"恵":1767,"恿":1768,"悄":1769,"悅":1770,"悉":1771,"悌":1772,"悍":1773,"悔":1774,"悖":1775,"悚":1776,"悛":1777,"悟":1778,"悠":1779,"患":1780,"悦":1781,"悧":1782,"您":1783,"悩":1784,"悲":1785,"悴":1786,"悵":1787,"悶":1788,"悸":1789,"悻":1790,"悼":1791,"悽":1792,"情":1793,"惆":1794,"惋":1795,"惑":1796,"惕":1797,"惘":1798,"惚":1799,"惜":1800,"惟":1801,"惠":1802,"惡":1803,"惢":1804,"惦":1805,"惰":1806,"惱":1807,"想":1808,"惴":1809,"惶":1810,"惹":1811,"惺":1812,"惻":1813,"愁":1814,"愆":1815,"愈":1816,"愉":1817,"意":1818,"愓":1819,"愕":1820,"愚":1821,"愛":1822,"愜":1823,"感":1824,"愣":1825,"愧":1826,"愫":1827,"愴":1828,"愷":1829,"愾":1830,"愿":1831,"慄":1832,"慈":1833,"慉":1834,"態":1835,"慌":1836,"慍":1837,"慎":1838,"慕":1839,"慘":1840,"慚":1841,"慟":1842,"慢":1843,"慣":1844,"慧":1845,"慨":1846,"慫":1847,"慬":1848,"慮":1849,"慰":1850,"慵":1851,"慶":1852,"慷":1853,"慽":1854,"慾":1855,"憂":1856,"憊":1857,"憋":1858,"憎":1859,"憐":1860,"憑":1861,"憒":1862,"憔":1863,"憚":1864,"憝":1865,"憤":1866,"憧":1867,"憨":1868,"憩":1869,"憫":1870,"憬":1871,"憲":1872,"憶":1873,"憾":1874,"懂":1875,"懇":1876,"懈":1877,"應":1878,"懊":1879,"懋":1880,"懐":1881,"懟":1882,"懦":1883,"懨":1884,"懲":1885,"懵":1886,"懶":1887,"懷":1888,"懸":1889,"懺":1890,"懼":1891,"懾":1892,"懿":1893,"戀":1894,"戈":1895,"戊":1896,"戌":1897,"戍":1898,"戎":1899,"成":1900,"我":1901,"戒":1902,"戕":1903,"或":1904,"戚":1905,"戛":1906,"戟":1907,"戡":1908,"截":1909,"戮":1910,"戰":1911,"戲":1912,"戳":1913,"戴":1914,"戶":1915,"户":1916,"戸":1917,"戻":1918,"戽":1919,"戾":1920,"房":1921,"所":1922,"扁":1923,"扇":1924,"扈":1925,"扉":1926,"手":1927,"才":1928,"扎":1929,"扒":1930,"打":1931,"扔":1932,"托":1933,"扛":1934,"扞":1935,"扣":1936,"扭":1937,"扮":1938,"扯":1939,"扳":1940,"扶":1941,"批":1942,"扺":1943,"扼":1944,"找":1945,"承":1946,"技":1947,"抄":1948,"抉":1949,"把":1950,"抑":1951,"抒":1952,"抓":1953,"投":1954,"抖":1955,"抗":1956,"折":1957,"抚":1958,"抛":1959,"抜":1960,"报":1961,"抨":1962,"披":1963,"抬":1964,"抱":1965,"抵":1966,"抹":1967,"抺":1968,"押":1969,"抽":1970,"抿":1971,"拂":1972,"拄":1973,"担":1974,"拆":1975,"拇":1976,"拈":1977,"拉":1978,"拊":1979,"拋":1980,"拌":1981,"拍":1982,"拎":1983,"拐":1984,"拒":1985,"拓":1986,"拔":1987,"拖":1988,"拗":1989,"拘":1990,"拙":1991,"拚":1992,"招":1993,"拜":1994,"括":1995,"拭":1996,"拮":1997,"拯":1998,"拱":1999,"拳":2000,"拴":2001,"拷":2002,"拼":2003,"拽":2004,"拾":2005,"拿":2006,"持":2007,"挂":2008,"指":2009,"挈":2010,"按":2011,"挑":2012,"挖":2013,"挨":2014,"挪":2015,"挫":2016,"振":2017,"挵":2018,"挹":2019,"挺":2020,"挽":2021,"挾":2022,"捂":2023,"捅":2024,"捆":2025,"捉":2026,"捋":2027,"捌":2028,"捍":2029,"捎":2030,"捏":2031,"捐":2032,"捕":2033,"捜":2034,"损":2035,"换":2036,"捧":2037,"捨":2038,"捩":2039,"捫":2040,"捭":2041,"据":2042,"捱":2043,"捲":2044,"捶":2045,"捷":2046,"捺":2047,"捻":2048,"掀":2049,"掂":2050,"掃":2051,"掄":2052,"掇":2053,"授":2054,"掉":2055,"掌":2056,"掏":2057,"掐":2058,"排":2059,"掖":2060,"掘":2061,"掙":2062,"掛":2063,"掠":2064,"採":2065,"探":2066,"掣":2067,"接":2068,"掦":2069,"控":2070,"推":2071,"掩":2072,"措":2073,"掬":2074,"掮":2075,"掰":2076,"揀":2077,"揄":2078,"揆":2079,"揉":2080,"揍":2081,"描":2082,"提":2083,"插":2084,"揖":2085,"揚":2086,"換":2087,"揠":2088,"握":2089,"揣":2090,"揩":2091,"揪":2092,"揭":2093,"揮":2094,"援":2095,"揶":2096,"揸":2097,"揹":2098,"揺":2099,"損":2100,"搏":2101,"搐":2102,"搓":2103,"搔":2104,"搖":2105,"搗":2106,"搜":2107,"搞":2108,"搡":2109,"搥":2110,"搧":2111,"搪":2112,"搬":2113,"搭":2114,"搵":2115,"搶":2116,"携":2117,"搾":2118,"摀":2119,"摃":2120,"摇":2121,"摍":2122,"摑":2123,"摒":2124,"摔":2125,"摘":2126,"摜":2127,"摞":2128,"摟":2129,"摧":2130,"摩":2131,"摯":2132,"摳":2133,"摷":2134,"摸":2135,"摹":2136,"摺":2137,"摻":2138,"撂":2139,"撃":2140,"撇":2141,"撈":2142,"撐":2143,"撒":2144,"撓":2145,"撕":2146,"撘":2147,"撙":2148,"撞":2149,"撢":2150,"撣":2151,"撤":2152,"撥":2153,"撩":2154,"撫":2155,"撬":2156,"播":2157,"撮":2158,"撰":2159,"撲":2160,"撸":2161,"撻":2162,"撼":2163,"撿":2164,"擀":2165,"擁":2166,"擂":2167,"擄":2168,"擅":2169,"擇":2170,"擊":2171,"擋":2172,"操":2173,"擎":2174,"擒":2175,"擔":2176,"擘":2177,"據":2178,"擠":2179,"擢":2180,"擣":2181,"擤":2182,"擦":2183,"擬":2184,"擰":2185,"擱":2186,"擲":2187,"擴":2188,"擷":2189,"擺":2190,"擻":2191,"擼":2192,"擾":2193,"攀":2194,"攆":2195,"攉":2196,"攏":2197,"攔":2198,"攘":2199,"攙":2200,"攜":2201,"攝":2202,"攞":2203,"攢":2204,"攣":2205,"攤":2206,"攪":2207,"攫":2208,"攬":2209,"支":2210,"攰":2211,"收":2212,"攸":2213,"改":2214,"攻":2215,"放":2216,"政":2217,"故":2218,"效":2219,"敍":2220,"敏":2221,"救":2222,"敕":2223,"敗":2224,"敘":2225,"教":2226,"敝":2227,"敞":2228,"敢":2229,"散":2230,"敦":2231,"敬":2232,"数":2233,"敲":2234,"整":2235,"敵":2236,"敷":2237,"數":2238,"敻":2239,"斂":2240,"斃":2241,"文":2242,"斌":2243,"斐":2244,"斑":2245,"斕":2246,"斗":2247,"料":2248,"斛":2249,"斜":2250,"斟":2251,"斡":2252,"斤":2253,"斥":2254,"斧":2255,"斬":2256,"斯":2257,"新":2258,"斷":2259,"方":2260,"於":2261,"施":2262,"旁":2263,"旂":2264,"旅":2265,"旋":2266,"旎":2267,"族":2268,"旖":2269,"旗":2270,"无":2271,"既":2272,"日":2273,"旦":2274,"旨":2275,"早":2276,"旬":2277,"旭":2278,"旮":2279,"旯":2280,"旱":2281,"旳":2282,"时":2283,"旺":2284,"旼":2285,"昀":2286,"昂":2287,"昆":2288,"昇":2289,"昊":2290,"昌":2291,"明":2292,"昏":2293,"易":2294,"昔":2295,"昕":2296,"昜":2297,"星":2298,"映":2299,"昤":2300,"春":2301,"昧":2302,"昨":2303,"昫":2304,"昭":2305,"是":2306,"昰":2307,"昱":2308,"昴":2309,"昶":2310,"時":2311,"晃":2312,"晉":2313,"晏":2314,"晒":2315,"晗":2316,"晚":2317,"晛":2318,"晝":2319,"晟":2320,"晤":2321,"晦":2322,"晧":2323,"晨":2324,"普":2325,"景":2326,"晰":2327,"晳":2328,"晴":2329,"晶":2330,"智":2331,"晾":2332,"暄":2333,"暇":2334,"暈":2335,"暉":2336,"暌":2337,"暐":2338,"暑":2339,"暖":2340,"暗":2341,"暘":2342,"暝":2343,"暢":2344,"暦":2345,"暨":2346,"暫":2347,"暮":2348,"暱":2349,"暳":2350,"暴":2351,"暸":2352,"暹":2353,"曁":2354,"曄":2355,"曆":2356,"曇":2357,"曈":2358,"曉":2359,"曕":2360,"曖":2361,"曙":2362,"曚":2363,"曜":2364,"曝":2365,"曠":2366,"曦":2367,"曨":2368,"曩":2369,"曬":2370,"曰":2371,"曲":2372,"曳":2373,"更":2374,"曷":2375,"書":2376,"曹":2377,"曼":2378,"曾":2379,"替":2380,"最":2381,"會":2382,"月":2383,"有":2384,"朋":2385,"服":2386,"朔":2387,"朕":2388,"朗":2389,"望":2390,"朝":2391,"期":2392,"朦":2393,"朧":2394,"木":2395,"未":2396,"末":2397,"本":2398,"札":2399,"朮":2400,"朱":2401,"朴":2402,"朵":2403,"机":2404,"朽":2405,"杆":2406,"杉":2407,"李":2408,"杏":2409,"材":2410,"村":2411,"杓":2412,"杖":2413,"杙":2414,"杜":2415,"杞":2416,"束":2417,"来":2418,"杭":2419,"杮":2420,"杯":2421,"杰":2422,"東":2423,"杳":2424,"杵":2425,"杷":2426,"松":2427,"板":2428,"枇":2429,"枉":2430,"枋":2431,"析":2432,"枕":2433,"林":2434,"枚":2435,"果":2436,"枝":2437,"枬":2438,"枯":2439,"枰":2440,"枱":2441,"枳":2442,"枴":2443,"架":2444,"枷":2445,"枸":2446,"柄":2447,"柊":2448,"柏":2449,"某":2450,"柑":2451,"柒":2452,"染":2453,"柔":2454,"柘":2455,"柚":2456,"柢":2457,"查":2458,"柩":2459,"柬":2460,"柯":2461,"柱":2462,"柳":2463,"柴":2464,"柵":2465,"査":2466,"柾":2467,"柿":2468,"栃":2469,"栓":2470,"栖":2471,"栗":2472,"栞":2473,"校":2474,"栢":2475,"栩":2476,"株":2477,"核":2478,"根":2479,"格":2480,"栽":2481,"桀":2482,"桁":2483,"桂":2484,"桃":2485,"桅":2486,"框":2487,"案":2488,"桉":2489,"桌":2490,"桎":2491,"桐":2492,"桑":2493,"桓":2494,"桔":2495,"桖":2496,"桜":2497,"桮":2498,"桶":2499,"桿":2500,"梁":2501,"梃":2502,"梅":2503,"梆":2504,"梏":2505,"梓":2506,"梔":2507,"梗":2508,"條":2509,"梟":2510,"梠":2511,"梢":2512,"梦":2513,"梧":2514,"梨":2515,"梭":2516,"梯":2517,"械":2518,"梳":2519,"梵":2520,"梶":2521,"棄":2522,"棉":2523,"棋":2524,"棍":2525,"棒":2526,"棕":2527,"棗":2528,"棘":2529,"棚":2530,"棟":2531,"棠":2532,"棣":2533,"棧":2534,"棪":2535,"森":2536,"棱":2537,"棲":2538,"棵":2539,"棺":2540,"棻":2541,"椅":2542,"植":2543,"椎":2544,"椏":2545,"椒":2546,"椪":2547,"椬":2548,"椰":2549,"椴":2550,"椿":2551,"楂":2552,"楊":2553,"楓":2554,"楔":2555,"楚":2556,"楝":2557,"楞":2558,"楠":2559,"楣":2560,"楨":2561,"楫":2562,"業":2563,"極":2564,"楷":2565,"楹":2566,"楽":2567,"概":2568,"榆":2569,"榔":2570,"榕":2571,"榖":2572,"榛":2573,"榜":2574,"榨":2575,"榫":2576,"榭":2577,"榮":2578,"榴":2579,"榶":2580,"榷":2581,"榻":2582,"槁":2583,"構":2584,"槌":2585,"槍":2586,"槐":2587,"槓":2588,"様":2589,"槤":2590,"槨":2591,"槳":2592,"槽":2593,"槿":2594,"樁":2595,"樂":2596,"樊":2597,"樋":2598,"樑":2599,"樓":2600,"標":2601,"樞":2602,"樟":2603,"模":2604,"樣":2605,"横":2606,"樸":2607,"樹":2608,"樺":2609,"樽":2610,"橄":2611,"橇":2612,"橈":2613,"橋":2614,"橍":2615,"橘":2616,"橙":2617,"機":2618,"橡":2619,"橢":2620,"橫":2621,"檀":2622,"檄":2623,"檎":2624,"檐":2625,"檔":2626,"檜":2627,"檢":2628,"檨":2629,"檬":2630,"檯":2631,"檳":2632,"檸":2633,"檻":2634,"櫂":2635,"櫃":2636,"櫈":2637,"櫓":2638,"櫚":2639,"櫛":2640,"櫟":2641,"櫥":2642,"櫪":2643,"櫫":2644,"櫳":2645,"櫸":2646,"櫺":2647,"櫻":2648,"欄":2649,"欉":2650,"權":2651,"欐":2652,"欒":2653,"欖":2654,"欠":2655,"次":2656,"欣":2657,"欲":2658,"欸":2659,"欹":2660,"欺":2661,"欽":2662,"款":2663,"歇":2664,"歉":2665,"歌":2666,"歎":2667,"歐":2668,"歛":2669,"歡":2670,"止":2671,"正":2672,"此":2673,"步":2674,"武":2675,"歧":2676,"歩":2677,"歪":2678,"歬":2679,"歲":2680,"歳":2681,"歷":2682,"歸":2683,"歹":2684,"死":2685,"歿":2686,"殁":2687,"殂":2688,"殃":2689,"殆":2690,"殉":2691,"殊":2692,"残":2693,"殖":2694,"殘":2695,"殞":2696,"殤":2697,"殫":2698,"殭":2699,"殮":2700,"殯":2701,"殲":2702,"段":2703,"殷":2704,"殺":2705,"殻":2706,"殼":2707,"殿":2708,"毀":2709,"毁":2710,"毅":2711,"毆":2712,"毋":2713,"母":2714,"毎":2715,"每":2716,"毐":2717,"毒":2718,"毓":2719,"比":2720,"毗":2721,"毛":2722,"毫":2723,"毯":2724,"毽":2725,"氂":2726,"氈":2727,"氏":2728,"民":2729,"氓":2730,"氖":2731,"気":2732,"氙":2733,"氚":2734,"氛":2735,"氟":2736,"氣":2737,"氤":2738,"氦":2739,"氧":2740,"氨":2741,"氪":2742,"氫":2743,"氬":2744,"氮":2745,"氯":2746,"氰":2747,"水":2748,"永":2749,"氹":2750,"氾":2751,"汀":2752,"汁":2753,"求":2754,"汆":2755,"汎":2756,"汐":2757,"汔":2758,"汕":2759,"汗":2760,"汙":2761,"汚":2762,"汛":2763,"汝":2764,"汞":2765,"江":2766,"池":2767,"污":2768,"汪":2769,"汰":2770,"汱":2771,"汲":2772,"汴":2773,"汶":2774,"決":2775,"汽":2776,"汾":2777,"沁":2778,"沂":2779,"沃":2780,"沅":2781,"沆":2782,"沈":2783,"沉":2784,"沌":2785,"沐":2786,"沒":2787,"沓":2788,"沖":2789,"沙":2790,"沛":2791,"没":2792,"沢":2793,"沫":2794,"沬":2795,"沮":2796,"沱":2797,"河":2798,"沸":2799,"油":2800,"治":2801,"沼":2802,"沽":2803,"沾":2804,"沿":2805,"況":2806,"泄":2807,"泉":2808,"泊":2809,"泌":2810,"泐":2811,"泓":2812,"法":2813,"泗":2814,"泛":2815,"泡":2816,"波":2817,"泣":2818,"泥":2819,"注":2820,"泪":2821,"泫":2822,"泮":2823,"泯":2824,"泰":2825,"泱":2826,"泳":2827,"泵":2828,"洄":2829,"洋":2830,"洐":2831,"洗":2832,"洙":2833,"洛":2834,"洞":2835,"洢":2836,"津":2837,"洨":2838,"洩":2839,"洪":2840,"洱":2841,"洲":2842,"洵":2843,"洶":2844,"活":2845,"洽":2846,"派":2847,"流":2848,"浄":2849,"浙":2850,"浚":2851,"浜":2852,"浣":2853,"浤":2854,"浥":2855,"浦":2856,"浩":2857,"浪":2858,"浬":2859,"浮":2860,"浯":2861,"浴":2862,"海":2863,"浸":2864,"浹":2865,"涂":2866,"涅":2867,"涇":2868,"消":2869,"涉":2870,"涌":2871,"涎":2872,"涓":2873,"涕":2874,"涪":2875,"涮":2876,"涯":2877,"液":2878,"涵":2879,"涸":2880,"涼":2881,"淀":2882,"淂":2883,"淄":2884,"淅":2885,"淆":2886,"淇":2887,"淋":2888,"淌":2889,"淑":2890,"淒":2891,"淖":2892,"淘":2893,"淚":2894,"淡":2895,"淢":2896,"淤":2897,"淦":2898,"淨":2899,"淩":2900,"淪":2901,"淫":2902,"淬":2903,"淮":2904,"淯":2905,"深":2906,"淳":2907,"淵":2908,"淶":2909,"混":2910,"淸":2911,"淹":2912,"淺":2913,"添":2914,"清":2915,"渉":2916,"渙":2917,"減":2918,"渝":2919,"渟":2920,"渠":2921,"渡":2922,"渣":2923,"渤":2924,"渥":2925,"渦":2926,"温":2927,"測":2928,"渭":2929,"港":2930,"渲":2931,"渴":2932,"游":2933,"渺":2934,"渼":2935,"渾":2936,"湃":2937,"湄":2938,"湊":2939,"湍":2940,"湖":2941,"湘":2942,"湛":2943,"湟":2944,"湧":2945,"湮":2946,"湯":2947,"湳":2948,"湾":2949,"満":2950,"溉":2951,"溏":2952,"源":2953,"準":2954,"溜":2955,"溝":2956,"溢":2957,"溥":2958,"溪":2959,"溫":2960,"溯":2961,"溱":2962,"溶":2963,"溺":2964,"溼":2965,"滂":2966,"滄":2967,"滅":2968,"滇":2969,"滉":2970,"滋":2971,"滌":2972,"滎":2973,"滑":2974,"滔":2975,"滕":2976,"滙":2977,"满":2978,"滬":2979,"滯":2980,"滲":2981,"滴":2982,"滷":2983,"滸":2984,"滾":2985,"滿":2986,"漁":2987,"漂":2988,"漆":2989,"漉":2990,"漏":2991,"漓":2992,"演":2993,"漠":2994,"漢":2995,"漣":2996,"漥":2997,"漩":2998,"漪":2999,"漫":3000,"漬":3001,"漱":3002,"漲":3003,"漳":3004,"漸":3005,"漾":3006,"漿":3007,"潁":3008,"潄":3009,"潑":3010,"潔":3011,"潘":3012,"潛":3013,"潟":3014,"潢":3015,"潤":3016,"潦":3017,"潭":3018,"潮":3019,"潯":3020,"潰":3021,"潸":3022,"潺":3023,"潼":3024,"澀":3025,"澄":3026,"澆":3027,"澇":3028,"澈":3029,"澍":3030,"澎":3031,"澐":3032,"澔":3033,"澗":3034,"澡":3035,"澤":3036,"澧":3037,"澱":3038,"澳":3039,"澹":3040,"激":3041,"濁":3042,"濂":3043,"濃":3044,"濕":3045,"濘":3046,"濛":3047,"濟":3048,"濠":3049,"濡":3050,"濤":3051,"濫":3052,"濬":3053,"濯":3054,"濰":3055,"濱":3056,"濶":3057,"濺":3058,"濾":3059,"瀁":3060,"瀆":3061,"瀉":3062,"瀋":3063,"瀏":3064,"瀑":3065,"瀓":3066,"瀕":3067,"瀚":3068,"瀛":3069,"瀜":3070,"瀝":3071,"瀟":3072,"瀣":3073,"瀧":3074,"瀨":3075,"瀬":3076,"瀰":3077,"瀲":3078,"瀾":3079,"灃":3080,"灌":3081,"灑":3082,"灒":3083,"灕":3084,"灘":3085,"灝":3086,"灣":3087,"灧":3088,"灩":3089,"火":3090,"灰":3091,"灶":3092,"灸":3093,"灼":3094,"災":3095,"炆":3096,"炊":3097,"炎":3098,"炒":3099,"炔":3100,"炖":3101,"炘":3102,"炙":3103,"炤":3104,"炫":3105,"炬":3106,"炭":3107,"炮":3108,"炯":3109,"炳":3110,"炷":3111,"炸":3112,"点":3113,"為":3114,"烈":3115,"烊":3116,"烏":3117,"烘":3118,"烙":3119,"烚":3120,"烝":3121,"烤":3122,"热":3123,"烯":3124,"烴":3125,"烷":3126,"烹":3127,"烽":3128,"烿":3129,"焉":3130,"焊":3131,"焌":3132,"焗":3133,"焙":3134,"焚":3135,"無":3136,"焢":3137,"焦":3138,"焯":3139,"焰":3140,"然":3141,"焼":3142,"煉":3143,"煊":3144,"煌":3145,"煎":3146,"煕":3147,"煙":3148,"煜":3149,"煞":3150,"煤":3151,"煥":3152,"煦":3153,"照":3154,"煨":3155,"煩":3156,"煬":3157,"煮":3158,"煲":3159,"煸":3160,"煽":3161,"熄":3162,"熊":3163,"熏":3164,"熒":3165,"熔":3166,"熖":3167,"熙":3168,"熜":3169,"熟":3170,"熠":3171,"熨":3172,"熬":3173,"熱":3174,"熹":3175,"熾":3176,"燁":3177,"燃":3178,"燄":3179,"燈":3180,"燉":3181,"燎":3182,"燐":3183,"燒":3184,"燕":3185,"燙":3186,"燜":3187,"營":3188,"燠":3189,"燥":3190,"燦":3191,"燧":3192,"燬":3193,"燭":3194,"燴":3195,"燻":3196,"燼":3197,"燿":3198,"爀":3199,"爆":3200,"爈":3201,"爌":3202,"爍":3203,"爐":3204,"爚":3205,"爛":3206,"爪":3207,"爬":3208,"爭":3209,"爰":3210,"爱":3211,"爲":3212,"爵":3213,"父":3214,"爸":3215,"爹":3216,"爺":3217,"爽":3218,"爾":3219,"牀":3220,"牂":3221,"牆":3222,"片":3223,"版":3224,"牌":3225,"牒":3226,"牖":3227,"牘":3228,"牙":3229,"牛":3230,"牟":3231,"牠":3232,"牡":3233,"牢":3234,"牧":3235,"物":3236,"牲":3237,"牴":3238,"特":3239,"牽":3240,"犀":3241,"犁":3242,"犄":3243,"犇":3244,"犒":3245,"犛":3246,"犠":3247,"犡":3248,"犢":3249,"犧":3250,"犬":3251,"犮":3252,"犯":3253,"狀":3254,"狂":3255,"狄":3256,"狎":3257,"狐":3258,"狒":3259,"狗":3260,"狙":3261,"狛":3262,"狠":3263,"狡":3264,"狨":3265,"狩":3266,"狸":3267,"狹":3268,"狺":3269,"狼":3270,"狽":3271,"猁":3272,"猊":3273,"猖":3274,"猗":3275,"猙":3276,"猛":3277,"猜":3278,"猝":3279,"猞":3280,"猥":3281,"猩":3282,"猪":3283,"猫":3284,"猴":3285,"猶":3286,"猷":3287,"猾":3288,"猿":3289,"獁":3290,"獄":3291,"獅":3292,"獎":3293,"獒":3294,"獗":3295,"獠":3296,"獨":3297,"獫":3298,"獬":3299,"獮":3300,"獰":3301,"獲":3302,"獴":3303,"獵":3304,"獷":3305,"獸":3306,"獺":3307,"獻":3308,"獼":3309,"獾":3310,"玄":3311,"玆":3312,"率":3313,"玉":3314,"王":3315,"玖":3316,"玟":3317,"玢":3318,"玥":3319,"玧":3320,"玩":3321,"玫":3322,"现":3323,"玲":3324,"玳":3325,"玷":3326,"玹":3327,"玻":3328,"玼":3329,"珀":3330,"珂":3331,"珅":3332,"珈":3333,"珊":3334,"珍":3335,"珞":3336,"珠":3337,"珥":3338,"珩":3339,"班":3340,"珮":3341,"珺":3342,"現":3343,"琁":3344,"球":3345,"琄":3346,"琅":3347,"理":3348,"琉":3349,"琋":3350,"琚":3351,"琢":3352,"琥":3353,"琦":3354,"琪":3355,"琬":3356,"琮":3357,"琲":3358,"琳":3359,"琴":3360,"琵":3361,"琶":3362,"琹":3363,"琺":3364,"瑀":3365,"瑁":3366,"瑄":3367,"瑈":3368,"瑋":3369,"瑍":3370,"瑕":3371,"瑗":3372,"瑙":3373,"瑚":3374,"瑛":3375,"瑜":3376,"瑞":3377,"瑟":3378,"瑠":3379,"瑣":3380,"瑤":3381,"瑧":3382,"瑨":3383,"瑩":3384,"瑪":3385,"瑯":3386,"瑰":3387,"瑾":3388,"璀":3389,"璃":3390,"璇":3391,"璉":3392,"璋":3393,"璘":3394,"璜":3395,"璞":3396,"璟":3397,"璣":3398,"璦":3399,"璧":3400,"璨":3401,"環":3402,"璽":3403,"瓈":3404,"瓊":3405,"瓏":3406,"瓔":3407,"瓜":3408,"瓢":3409,"瓣":3410,"瓤":3411,"瓦":3412,"瓩":3413,"瓴":3414,"瓶":3415,"瓷":3416,"甄":3417,"甌":3418,"甍":3419,"甕":3420,"甘":3421,"甚":3422,"甜":3423,"生":3424,"產":3425,"産":3426,"甥":3427,"甦":3428,"用":3429,"甩":3430,"甪":3431,"甫":3432,"甬":3433,"甭":3434,"甯":3435,"田":3436,"由":3437,"甲":3438,"申":3439,"男":3440,"甸":3441,"町":3442,"画":3443,"畀":3444,"畇":3445,"界":3446,"畏":3447,"畔":3448,"留":3449,"畚":3450,"畜":3451,"畝":3452,"畢":3453,"略":3454,"畦":3455,"番":3456,"畫":3457,"畬":3458,"畯":3459,"異":3460,"畲":3461,"當":3462,"畸":3463,"畹":3464,"畿":3465,"疆":3466,"疇":3467,"疊":3468,"疋":3469,"疏":3470,"疑":3471,"疔":3472,"疙":3473,"疚":3474,"疝":3475,"疣":3476,"疤":3477,"疫":3478,"疰":3479,"疱":3480,"疲":3481,"疵":3482,"疸":3483,"疹":3484,"疼":3485,"疽":3486,"疾":3487,"痂":3488,"病":3489,"症":3490,"痊":3491,"痍":3492,"痔":3493,"痕":3494,"痘":3495,"痙":3496,"痛":3497,"痞":3498,"痠":3499,"痢":3500,"痣":3501,"痤":3502,"痧":3503,"痰":3504,"痱":3505,"痲":3506,"痴":3507,"痹":3508,"痺":3509,"痼":3510,"痾":3511,"痿":3512,"瘀":3513,"瘁":3514,"瘋":3515,"瘍":3516,"瘓":3517,"瘜":3518,"瘟":3519,"瘠":3520,"瘡":3521,"瘤":3522,"瘦":3523,"瘧":3524,"瘩":3525,"瘴":3526,"瘸":3527,"瘻":3528,"瘼":3529,"癀":3530,"療":3531,"癆":3532,"癇":3533,"癌":3534,"癒":3535,"癖":3536,"癘":3537,"癟":3538,"癡":3539,"癢":3540,"癥":3541,"癬":3542,"癮":3543,"癰":3544,"癱":3545,"癲":3546,"癸":3547,"発":3548,"登":3549,"發":3550,"白":3551,"百":3552,"皂":3553,"的":3554,"皆":3555,"皇":3556,"皈":3557,"皎":3558,"皐":3559,"皓":3560,"皖":3561,"皙":3562,"皚":3563,"皪":3564,"皮":3565,"皰":3566,"皴":3567,"皺":3568,"皿":3569,"盂":3570,"盃":3571,"盅":3572,"盆":3573,"盈":3574,"益":3575,"盎":3576,"盒":3577,"盔":3578,"盗":3579,"盙":3580,"盛":3581,"盜":3582,"盞":3583,"盟":3584,"盡":3585,"監":3586,"盤":3587,"盥":3588,"盧":3589,"盪":3590,"目":3591,"盯":3592,"盱":3593,"盲":3594,"直":3595,"相":3596,"盹":3597,"盼":3598,"盾":3599,"省":3600,"眈":3601,"眉":3602,"看":3603,"県":3604,"眛":3605,"眞":3606,"真":3607,"眠":3608,"眨":3609,"眩":3610,"眭":3611,"眶":3612,"眷":3613,"眸":3614,"眺":3615,"眼":3616,"眾":3617,"着":3618,"睇":3619,"睏":3620,"睒":3621,"睛":3622,"睜":3623,"睞":3624,"睡":3625,"睢":3626,"督":3627,"睥":3628,"睦":3629,"睨":3630,"睪":3631,"睫":3632,"睬":3633,"睹":3634,"睽":3635,"睾":3636,"睿":3637,"瞄":3638,"瞇":3639,"瞌":3640,"瞎":3641,"瞑":3642,"瞓":3643,"瞞":3644,"瞟":3645,"瞠":3646,"瞥":3647,"瞧":3648,"瞪":3649,"瞬":3650,"瞭":3651,"瞰":3652,"瞳":3653,"瞻":3654,"瞼":3655,"矇":3656,"矍":3657,"矓":3658,"矗":3659,"矚":3660,"矛":3661,"矜":3662,"矢":3663,"矣":3664,"知":3665,"矧":3666,"矩":3667,"短":3668,"矮":3669,"矯":3670,"石":3671,"矸":3672,"矻":3673,"矽":3674,"砂":3675,"砌":3676,"砍":3677,"砒":3678,"研":3679,"砝":3680,"砥":3681,"砦":3682,"砧":3683,"砭":3684,"砰":3685,"砲":3686,"破":3687,"砷":3688,"砸":3689,"硃":3690,"硅":3691,"硏":3692,"硐":3693,"硒":3694,"硝":3695,"硫":3696,"硬":3697,"确":3698,"硯":3699,"硼":3700,"碁":3701,"碇":3702,"碉":3703,"碌":3704,"碎":3705,"碑":3706,"碗":3707,"碘":3708,"碟":3709,"碧":3710,"碩":3711,"碰":3712,"碲":3713,"碳":3714,"碴":3715,"碸":3716,"確":3717,"碼":3718,"碾":3719,"磁":3720,"磅":3721,"磊":3722,"磋":3723,"磐":3724,"磕":3725,"磚":3726,"磡":3727,"磨":3728,"磯":3729,"磷":3730,"磺":3731,"礁":3732,"礎":3733,"礑":3734,"礙":3735,"礡":3736,"礦":3737,"礪":3738,"礫":3739,"礴":3740,"示":3741,"社":3742,"祀":3743,"祂":3744,"祇":3745,"祈":3746,"祉":3747,"祐":3748,"祓":3749,"祕":3750,"祖":3751,"祛":3752,"祜":3753,"祝":3754,"神":3755,"祟":3756,"祠":3757,"祢":3758,"祥":3759,"票":3760,"祭":3761,"祺":3762,"祼":3763,"祿":3764,"禀":3765,"禁":3766,"禊":3767,"禍":3768,"禎":3769,"福":3770,"禓":3771,"禕":3772,"禛":3773,"禤":3774,"禦":3775,"禧":3776,"禩":3777,"禪":3778,"禮":3779,"禰":3780,"禱":3781,"禳":3782,"禹":3783,"禽":3784,"禾":3785,"禿":3786,"秀":3787,"私":3788,"秃":3789,"秉":3790,"秋":3791,"秏":3792,"秐":3793,"科":3794,"秒":3795,"秘":3796,"秞":3797,"租":3798,"秤":3799,"秦":3800,"秧":3801,"秩":3802,"移":3803,"稀":3804,"稅":3805,"稈":3806,"稉":3807,"程":3808,"稍":3809,"税":3810,"稔":3811,"稕":3812,"稗":3813,"稚":3814,"稜":3815,"稟":3816,"稠":3817,"種":3818,"稱":3819,"稲":3820,"稷":3821,"稻":3822,"稼":3823,"稽":3824,"稿":3825,"穀":3826,"穆":3827,"穌":3828,"積":3829,"穎":3830,"穏":3831,"穗":3832,"穠":3833,"穢":3834,"穩":3835,"穫":3836,"穴":3837,"究":3838,"穹":3839,"空":3840,"穿":3841,"突":3842,"窄":3843,"窈":3844,"窒":3845,"窕":3846,"窖":3847,"窗":3848,"窘":3849,"窟":3850,"窠":3851,"窣":3852,"窩":3853,"窪":3854,"窮":3855,"窯":3856,"窴":3857,"窸":3858,"窺":3859,"窿":3860,"竄":3861,"竅":3862,"竇":3863,"竈":3864,"竉":3865,"竊":3866,"立":3867,"竑":3868,"站":3869,"竜":3870,"竟":3871,"章":3872,"竣":3873,"童":3874,"竭":3875,"端":3876,"競":3877,"竸":3878,"竹":3879,"竺":3880,"竿":3881,"笅":3882,"笈":3883,"笑":3884,"笙":3885,"笛":3886,"笠":3887,"符":3888,"笨":3889,"笫":3890,"第":3891,"笭":3892,"笹":3893,"筆":3894,"等":3895,"筊":3896,"筋":3897,"筍":3898,"筏":3899,"筐":3900,"筑":3901,"筒":3902,"答":3903,"策":3904,"筠":3905,"筢":3906,"筱":3907,"筴":3908,"筶":3909,"筷":3910,"箇":3911,"箋":3912,"箍":3913,"箏":3914,"箔":3915,"箕":3916,"算":3917,"箝":3918,"管":3919,"箬":3920,"箭":3921,"箱":3922,"箴":3923,"箸":3924,"節":3925,"範":3926,"篆":3927,"篇":3928,"築":3929,"篝":3930,"篠":3931,"篡":3932,"篤":3933,"篩":3934,"篳":3935,"篷":3936,"簇":3937,"簌":3938,"簍":3939,"簏":3940,"簑":3941,"簝":3942,"簡":3943,"簣":3944,"簧":3945,"簫":3946,"簷":3947,"簸":3948,"簽":3949,"簾":3950,"簿":3951,"籃":3952,"籌":3953,"籍":3954,"籐":3955,"籟":3956,"籠":3957,"籤":3958,"籬":3959,"籮":3960,"籲":3961,"米":3962,"籽":3963,"籾":3964,"粄":3965,"粉":3966,"粑":3967,"粒":3968,"粕":3969,"粗":3970,"粘":3971,"粙":3972,"粛":3973,"粟":3974,"粥":3975,"粧":3976,"粱":3977,"粵":3978,"粹":3979,"粼":3980,"粽":3981,"精":3982,"粿":3983,"糅":3984,"糊":3985,"糍":3986,"糕":3987,"糖":3988,"糗":3989,"糙":3990,"糜":3991,"糞":3992,"糟":3993,"糠":3994,"糢":3995,"糥":3996,"糧":3997,"糨":3998,"糬":3999,"糯":4000,"糰":4001,"糶":4002,"糸":4003,"系":4004,"糾":4005,"紀":4006,"紂":4007,"約":4008,"紅":4009,"紆":4010,"紇":4011,"紉":4012,"紊":4013,"紋":4014,"納":4015,"紐":4016,"紓":4017,"純":4018,"紕":4019,"紗":4020,"紘":4021,"紙":4022,"級":4023,"紛":4024,"紜":4025,"素":4026,"紡":4027,"索":4028,"紫":4029,"紮":4030,"累":4031,"細":4032,"紳":4033,"紹":4034,"絀":4035,"終":4036,"絃":4037,"組":4038,"絆":4039,"経":4040,"結":4041,"絕":4042,"絛":4043,"絜":4044,"絞":4045,"絡":4046,"絢":4047,"給":4048,"絨":4049,"絮":4050,"統":4051,"絲":4052,"絳":4053,"絶":4054,"絹":4055,"綁":4056,"綉":4057,"綏":4058,"綑":4059,"經":4060,"継":4061,"続":4062,"綜":4063,"綠":4064,"綢":4065,"綣":4066,"綫":4067,"綬":4068,"維":4069,"綰":4070,"綱":4071,"網":4072,"綴":4073,"綵":4074,"綸":4075,"綹":4076,"綺":4077,"綻":4078,"綽":4079,"綾":4080,"綿":4081,"緃":4082,"緊":4083,"緋":4084,"総":4085,"緑":4086,"緒":4087,"緘":4088,"線":4089,"緝":4090,"緞":4091,"締":4092,"緣":4093,"編":4094,"緩":4095,"緬":4096,"緯":4097,"緱":4098,"緲":4099,"練":4100,"緹":4101,"緻":4102,"縈":4103,"縉":4104,"縊":4105,"縐":4106,"縛":4107,"縝":4108,"縣":4109,"縧":4110,"縫":4111,"縭":4112,"縮":4113,"縱":4114,"縴":4115,"縷":4116,"縹":4117,"總":4118,"績":4119,"繁":4120,"繃":4121,"繆":4122,"繋":4123,"織":4124,"繕":4125,"繚":4126,"繞":4127,"繡":4128,"繩":4129,"繪":4130,"繫":4131,"繭":4132,"繳":4133,"繹":4134,"繼":4135,"繽":4136,"繾":4137,"纂":4138,"續":4139,"纍":4140,"纏":4141,"纓":4142,"纔":4143,"纖":4144,"纘":4145,"纜":4146,"红":4147,"级":4148,"纪":4149,"纯":4150,"纸":4151,"纾":4152,"组":4153,"细":4154,"结":4155,"给":4156,"统":4157,"绰":4158,"缐":4159,"缓":4160,"缘":4161,"缷":4162,"缸":4163,"缺":4164,"缽":4165,"罄":4166,"罈":4167,"罍":4168,"罐":4169,"网":4170,"罔":4171,"罕":4172,"罘":4173,"罟":4174,"罨":4175,"罩":4176,"罪":4177,"置":4178,"罰":4179,"署":4180,"罵":4181,"罷":4182,"罹":4183,"羅":4184,"羈":4185,"羊":4186,"羌":4187,"美":4188,"羔":4189,"羚":4190,"羞":4191,"羡":4192,"群":4193,"羥":4194,"羨":4195,"義":4196,"羮":4197,"羯":4198,"羲":4199,"羶":4200,"羸":4201,"羹":4202,"羽":4203,"羿":4204,"翀":4205,"翁":4206,"翅":4207,"翊":4208,"翌":4209,"翎":4210,"習":4211,"翔":4212,"翟":4213,"翠":4214,"翡":4215,"翩":4216,"翬":4217,"翰":4218,"翱":4219,"翹":4220,"翻":4221,"翼":4222,"耀":4223,"老":4224,"考":4225,"耄":4226,"者":4227,"耆":4228,"耋":4229,"而":4230,"耍":4231,"耐":4232,"耕":4233,"耗":4234,"耘":4235,"耙":4236,"耦":4237,"耳":4238,"耶":4239,"耽":4240,"耿":4241,"聆":4242,"聊":4243,"聎":4244,"聒":4245,"联":4246,"聖":4247,"聘":4248,"聚":4249,"聞":4250,"聯":4251,"聰":4252,"聲":4253,"聳":4254,"聴":4255,"聶":4256,"職":4257,"聼":4258,"聽":4259,"聾":4260,"聿":4261,"肄":4262,"肅":4263,"肆":4264,"肇":4265,"肉":4266,"肋":4267,"肌":4268,"肓":4269,"肖":4270,"肘":4271,"肚":4272,"肛":4273,"肝":4274,"股":4275,"肢":4276,"肥":4277,"肩":4278,"肪":4279,"肫":4280,"肯":4281,"肱":4282,"育":4283,"肴":4284,"肺":4285,"肽":4286,"胃":4287,"胄":4288,"胆":4289,"背":4290,"胎":4291,"胖":4292,"胗":4293,"胚":4294,"胛":4295,"胜":4296,"胝":4297,"胞":4298,"胡":4299,"胤":4300,"胥":4301,"胭":4302,"胯":4303,"胰":4304,"胱":4305,"胳":4306,"胴":4307,"胸":4308,"胺":4309,"胼":4310,"能":4311,"脂":4312,"脅":4313,"脆":4314,"脇":4315,"脈":4316,"脉":4317,"脊":4318,"脖":4319,"脘":4320,"脚":4321,"脛":4322,"脢":4323,"脣":4324,"脧":4325,"脩":4326,"脫":4327,"脯":4328,"脱":4329,"脹":4330,"脾":4331,"腆":4332,"腈":4333,"腋":4334,"腎":4335,"腐":4336,"腑":4337,"腓":4338,"腔":4339,"腕":4340,"腠":4341,"腥":4342,"腦":4343,"腩":4344,"腫":4345,"腮":4346,"腰":4347,"腱":4348,"腳":4349,"腴":4350,"腸":4351,"腹":4352,"腺":4353,"腻":4354,"腿":4355,"膀":4356,"膈":4357,"膊":4358,"膏":4359,"膕":4360,"膚":4361,"膛":4362,"膜":4363,"膝":4364,"膠":4365,"膨":4366,"膩":4367,"膳":4368,"膴":4369,"膺":4370,"膻":4371,"膽":4372,"膾":4373,"膿":4374,"臀":4375,"臂":4376,"臃":4377,"臆":4378,"臉":4379,"臊":4380,"臍":4381,"臗":4382,"臘":4383,"臚":4384,"臟":4385,"臣":4386,"臥":4387,"臧":4388,"臨":4389,"自":4390,"臬":4391,"臭":4392,"至":4393,"致":4394,"臺":4395,"臻":4396,"臼":4397,"舀":4398,"舅":4399,"舆":4400,"與":4401,"興":4402,"舉":4403,"舊":4404,"舌":4405,"舍":4406,"舐":4407,"舒":4408,"舔":4409,"舖":4410,"舗":4411,"舘":4412,"舛":4413,"舜":4414,"舞":4415,"舟":4416,"舢":4417,"舨":4418,"航":4419,"般":4420,"舵":4421,"舶":4422,"舷":4423,"船":4424,"舺":4425,"艇":4426,"艉":4427,"艋":4428,"艏":4429,"艘":4430,"艙":4431,"艤":4432,"艦":4433,"良":4434,"艱":4435,"色":4436,"艷":4437,"艸":4438,"艾":4439,"芃":4440,"芊":4441,"芋":4442,"芍":4443,"芎":4444,"芒":4445,"芙":4446,"芛":4447,"芝":4448,"芠":4449,"芡":4450,"芢":4451,"芥":4452,"芧":4453,"芩":4454,"芫":4455,"芬":4456,"芭":4457,"芮":4458,"芯":4459,"花":4460,"芳":4461,"芷":4462,"芸":4463,"芹":4464,"芻":4465,"芽":4466,"苑":4467,"苒":4468,"苓":4469,"苔":4470,"苖":4471,"苗":4472,"苙":4473,"苛":4474,"苜":4475,"苞":4476,"苟":4477,"苡":4478,"苣":4479,"若":4480,"苦":4481,"苧":4482,"苯":4483,"英":4484,"苳":4485,"苷":4486,"苺":4487,"苿":4488,"茁":4489,"茂":4490,"范":4491,"茄":4492,"茅":4493,"茉":4494,"茗":4495,"茜":4496,"茨":4497,"茫":4498,"茭":4499,"茯":4500,"茱":4501,"茲":4502,"茴":4503,"茵":4504,"茶":4505,"茸":4506,"茹":4507,"茼":4508,"荀":4509,"荃":4510,"草":4511,"荊":4512,"荏":4513,"荐":4514,"荒":4515,"荔":4516,"荖":4517,"荳":4518,"荷":4519,"荸":4520,"荻":4521,"荼":4522,"荽":4523,"莆":4524,"莉":4525,"莊":4526,"莎":4527,"莒":4528,"莓":4529,"莖":4530,"莘":4531,"莛":4532,"莞":4533,"莠":4534,"莢":4535,"莧":4536,"莪":4537,"莫":4538,"莽":4539,"莿":4540,"菀":4541,"菁":4542,"菅":4543,"菇":4544,"菈":4545,"菉":4546,"菊":4547,"菌":4548,"菏":4549,"菓":4550,"菖":4551,"菘":4552,"菜":4553,"菟":4554,"菠":4555,"菩":4556,"華":4557,"菰":4558,"菱":4559,"菲":4560,"菸":4561,"萁":4562,"萃":4563,"萄":4564,"萊":4565,"萌":4566,"萍":4567,"萎":4568,"萓":4569,"萜":4570,"萣":4571,"萬":4572,"萱":4573,"萵":4574,"萼":4575,"落":4576,"葆":4577,"葉":4578,"葑":4579,"葒":4580,"著":4581,"葚":4582,"葛":4583,"葡":4584,"董":4585,"葦":4586,"葩":4587,"葫":4588,"葬":4589,"葭":4590,"葯":4591,"葱":4592,"葳":4593,"葵":4594,"葶":4595,"葷":4596,"葺":4597,"蒂":4598,"蒐":4599,"蒔":4600,"蒙":4601,"蒜":4602,"蒞":4603,"蒟":4604,"蒡":4605,"蒲":4606,"蒸":4607,"蒻":4608,"蒼":4609,"蒽":4610,"蒿":4611,"蓁":4612,"蓄":4613,"蓆":4614,"蓉":4615,"蓊":4616,"蓋":4617,"蓓":4618,"蓬":4619,"蓮":4620,"蓿":4621,"蔑":4622,"蔓":4623,"蔔":4624,"蔗":4625,"蔘":4626,"蔚":4627,"蔡":4628,"蔣":4629,"蔥":4630,"蔦":4631,"蔫":4632,"蔬":4633,"蔭":4634,"蔴":4635,"蔻":4636,"蔽":4637,"蕁":4638,"蕃":4639,"蕈":4640,"蕉":4641,"蕊":4642,"蕎":4643,"蕗":4644,"蕙":4645,"蕨":4646,"蕩":4647,"蕪":4648,"蕫":4649,"蕭":4650,"蕯":4651,"蕷":4652,"蕾":4653,"薄":4654,"薇":4655,"薈":4656,"薊":4657,"薏":4658,"薑":4659,"薔":4660,"薛":4661,"薦":4662,"薨":4663,"薩":4664,"薪":4665,"薫":4666,"薯":4667,"薰":4668,"薺":4669,"薾":4670,"藉":4671,"藍":4672,"藏":4673,"藐":4674,"藕":4675,"藜":4676,"藝":4677,"藤":4678,"藥":4679,"藩":4680,"藪":4681,"藴":4682,"藷":4683,"藹":4684,"藺":4685,"藻":4686,"藿":4687,"蘅":4688,"蘆":4689,"蘇":4690,"蘊":4691,"蘋":4692,"蘑":4693,"蘩":4694,"蘭":4695,"蘸":4696,"蘿":4697,"虌":4698,"虎":4699,"虐":4700,"虔":4701,"處":4702,"虚":4703,"虛":4704,"虜":4705,"虞":4706,"號":4707,"虧":4708,"虫":4709,"虬":4710,"虯":4711,"虱":4712,"虹":4713,"虻":4714,"蚊":4715,"蚋":4716,"蚌":4717,"蚓":4718,"蚜":4719,"蚣":4720,"蚤":4721,"蚪":4722,"蚯":4723,"蚱":4724,"蚴":4725,"蚵":4726,"蚶":4727,"蛀":4728,"蛆":4729,"蛇":4730,"蛋":4731,"蛔":4732,"蛙":4733,"蛛":4734,"蛞":4735,"蛟":4736,"蛤":4737,"蛭":4738,"蛹":4739,"蛻":4740,"蛾":4741,"蜀":4742,"蜂":4743,"蜆":4744,"蜇":4745,"蜈":4746,"蜊":4747,"蜍":4748,"蜒":4749,"蜓":4750,"蜘":4751,"蜚":4752,"蜜":4753,"蜢":4754,"蜥":4755,"蜴":4756,"蜷":4757,"蜻":4758,"蜿":4759,"蝌":4760,"蝎":4761,"蝓":4762,"蝕":4763,"蝗":4764,"蝙":4765,"蝞":4766,"蝟":4767,"蝠":4768,"蝦":4769,"蝨":4770,"蝮":4771,"蝴":4772,"蝶":4773,"蝸":4774,"蝽":4775,"螂":4776,"螃":4777,"螄":4778,"螈":4779,"融":4780,"螞":4781,"螟":4782,"螢":4783,"螨":4784,"螫":4785,"螭":4786,"螯":4787,"螳":4788,"螺":4789,"螻":4790,"蟀":4791,"蟄":4792,"蟋":4793,"蟎":4794,"蟑":4795,"蟒":4796,"蟠":4797,"蟬":4798,"蟲":4799,"蟳":4800,"蟹":4801,"蟻":4802,"蟾":4803,"蠃":4804,"蠅":4805,"蠊":4806,"蠍":4807,"蠑":4808,"蠓":4809,"蠔":4810,"蠕":4811,"蠟":4812,"蠢":4813,"蠣":4814,"蠱":4815,"蠵":4816,"蠶":4817,"蠻":4818,"血":4819,"衆":4820,"衊":4821,"行":4822,"衍":4823,"術":4824,"街":4825,"衙":4826,"衛":4827,"衝":4828,"衞":4829,"衡":4830,"衢":4831,"衣":4832,"表":4833,"衩":4834,"衪":4835,"衫":4836,"衰":4837,"衷":4838,"衹":4839,"袁":4840,"袂":4841,"袈":4842,"袋":4843,"袍":4844,"袒":4845,"袓":4846,"袖":4847,"袞":4848,"袤":4849,"袪":4850,"被":4851,"袱":4852,"裁":4853,"裂":4854,"装":4855,"裊":4856,"裎":4857,"裏":4858,"裔":4859,"裕":4860,"裘":4861,"裙":4862,"補":4863,"裝":4864,"裟":4865,"裡":4866,"裨":4867,"裩":4868,"裬":4869,"裱":4870,"裳":4871,"裴":4872,"裵":4873,"裸":4874,"裹":4875,"製":4876,"褂":4877,"複":4878,"褐":4879,"褒":4880,"褓":4881,"褔":4882,"褕":4883,"褚":4884,"褥":4885,"褪":4886,"褫":4887,"褲":4888,"褵":4889,"褶":4890,"褸":4891,"褻":4892,"襁":4893,"襄":4894,"襎":4895,"襖":4896,"襝":4897,"襟":4898,"襠":4899,"襤":4900,"襪":4901,"襬":4902,"襯":4903,"襲":4904,"西":4905,"要":4906,"覃":4907,"覆":4908,"見":4909,"規":4910,"覓":4911,"視":4912,"覚":4913,"覦":4914,"覧":4915,"親":4916,"覬":4917,"覲":4918,"覷":4919,"覺":4920,"覽":4921,"觀":4922,"见":4923,"角":4924,"觔":4925,"解":4926,"觥":4927,"觴":4928,"觸":4929,"言":4930,"訂":4931,"訃":4932,"計":4933,"訊":4934,"訌":4935,"討":4936,"訐":4937,"訓":4938,"訕":4939,"訖":4940,"託":4941,"記":4942,"訛":4943,"訝":4944,"訟":4945,"訢":4946,"訣":4947,"訥":4948,"訪":4949,"設":4950,"許":4951,"訴":4952,"訶":4953,"診":4954,"註":4955,"証":4956,"訾":4957,"詆":4958,"詐":4959,"詑":4960,"詔":4961,"評":4962,"詛":4963,"詞":4964,"詠":4965,"詡":4966,"詢":4967,"詣":4968,"試":4969,"詩":4970,"詫":4971,"詬":4972,"詭":4973,"詮":4974,"詰":4975,"話":4976,"該":4977,"詳":4978,"詹":4979,"詼":4980,"誅":4981,"誆":4982,"誇":4983,"誌":4984,"認":4985,"誒":4986,"誓":4987,"誔":4988,"誕":4989,"誘":4990,"語":4991,"誠":4992,"誡":4993,"誣":4994,"誤":4995,"誥":4996,"誦":4997,"誨":4998,"說":4999,"説":5000,"読":5001,"誰":5002,"課":5003,"誹":5004,"誼":5005,"調":5006,"諄":5007,"談":5008,"諉":5009,"請":5010,"諏":5011,"諒":5012,"論":5013,"諗":5014,"諛":5015,"諜":5016,"諠":5017,"諡":5018,"諦":5019,"諧":5020,"諫":5021,"諭":5022,"諮":5023,"諱":5024,"諳":5025,"諴":5026,"諶":5027,"諷":5028,"諸":5029,"諺":5030,"諼":5031,"諾":5032,"謀":5033,"謁":5034,"謂":5035,"謄":5036,"謅":5037,"謊":5038,"謎":5039,"謐":5040,"謔":5041,"謖":5042,"謗":5043,"謙":5044,"講":5045,"謝":5046,"謠":5047,"謢":5048,"謦":5049,"謨":5050,"謫":5051,"謬":5052,"謳":5053,"謹":5054,"謾":5055,"譁":5056,"證":5057,"譎":5058,"譏":5059,"識":5060,"譙":5061,"譚":5062,"譜":5063,"譟":5064,"警":5065,"譬":5066,"譯":5067,"議":5068,"譴":5069,"護":5070,"譽":5071,"讀":5072,"讃":5073,"讉":5074,"變":5075,"讒":5076,"讓":5077,"讖":5078,"讚":5079,"讞":5080,"诉":5081,"诊":5082,"说":5083,"谢":5084,"谷":5085,"谿":5086,"豁":5087,"豆":5088,"豇":5089,"豈":5090,"豉":5091,"豊":5092,"豌":5093,"豎":5094,"豐":5095,"豔":5096,"豚":5097,"象":5098,"豢":5099,"豪":5100,"豫":5101,"豬":5102,"豹":5103,"豺":5104,"貂":5105,"貅":5106,"貉":5107,"貌":5108,"貍":5109,"貎":5110,"貓":5111,"貔":5112,"貘":5113,"貝":5114,"貞":5115,"負":5116,"財":5117,"貢":5118,"貧":5119,"貨":5120,"販":5121,"貪":5122,"貫":5123,"責":5124,"貯":5125,"貲":5126,"貳":5127,"貴":5128,"貶":5129,"買":5130,"貸":5131,"費":5132,"貼":5133,"貽":5134,"貿":5135,"賀":5136,"賁":5137,"賂":5138,"賃":5139,"賄":5140,"賅":5141,"資":5142,"賈":5143,"賊":5144,"賑":5145,"賒":5146,"賓":5147,"賚":5148,"賜":5149,"賞":5150,"賠":5151,"賡":5152,"賢":5153,"賣":5154,"賤":5155,"賦":5156,"質":5157,"賬":5158,"賭":5159,"賴":5160,"賸":5161,"賺":5162,"購":5163,"賽":5164,"贅":5165,"贈":5166,"贊":5167,"贋":5168,"贍":5169,"贏":5170,"贓":5171,"贖":5172,"贗":5173,"贛":5174,"赢":5175,"赤":5176,"赦":5177,"赫":5178,"赭":5179,"走":5180,"赳":5181,"赴":5182,"起":5183,"趁":5184,"超":5185,"越":5186,"趕":5187,"趙":5188,"趟":5189,"趣":5190,"趨":5191,"足":5192,"趴":5193,"趾":5194,"跆":5195,"跋":5196,"跌":5197,"跎":5198,"跑":5199,"跘":5200,"跚":5201,"跛":5202,"距":5203,"跟":5204,"跡":5205,"跣":5206,"跤":5207,"跨":5208,"跩":5209,"跪":5210,"路":5211,"跳":5212,"跺":5213,"踉":5214,"踏":5215,"踐":5216,"踝":5217,"踞":5218,"踢":5219,"踩":5220,"踪":5221,"踫":5222,"踮":5223,"踰":5224,"踱":5225,"踴":5226,"踵":5227,"踹":5228,"蹂":5229,"蹄":5230,"蹇":5231,"蹈":5232,"蹉":5233,"蹊":5234,"蹋":5235,"蹌":5236,"蹓":5237,"蹕":5238,"蹟":5239,"蹣":5240,"蹤":5241,"蹦":5242,"蹩":5243,"蹬":5244,"蹭":5245,"蹲":5246,"蹴":5247,"蹶":5248,"蹺":5249,"蹼":5250,"躁":5251,"躄":5252,"躇":5253,"躉":5254,"躊":5255,"躋":5256,"躍":5257,"躑":5258,"躡":5259,"躥":5260,"躦":5261,"躪":5262,"身":5263,"躬":5264,"躲":5265,"躺":5266,"軀":5267,"車":5268,"軋":5269,"軌":5270,"軍":5271,"軒":5272,"軔":5273,"軚":5274,"軛":5275,"軟":5276,"転":5277,"軫":5278,"軮":5279,"軰":5280,"軸":5281,"軻":5282,"軼":5283,"軽":5284,"軾":5285,"較":5286,"載":5287,"輊":5288,"輒":5289,"輓":5290,"輔":5291,"輕":5292,"輚":5293,"輛":5294,"輜":5295,"輝":5296,"輟":5297,"輦":5298,"輩":5299,"輪":5300,"輯":5301,"輸":5302,"輻":5303,"輾":5304,"輿":5305,"轂":5306,"轄":5307,"轅":5308,"轆":5309,"轉":5310,"轍":5311,"轎":5312,"轟":5313,"车":5314,"辛":5315,"辜":5316,"辟":5317,"辣":5318,"辦":5319,"辧":5320,"辨":5321,"辭":5322,"辮":5323,"辯":5324,"辰":5325,"辱":5326,"農":5327,"辶":5328,"辺":5329,"辻":5330,"込":5331,"达":5332,"迂":5333,"迄":5334,"迅":5335,"迌":5336,"迎":5337,"近":5338,"迓":5339,"返":5340,"还":5341,"这":5342,"迢":5343,"迥":5344,"迦":5345,"迪":5346,"迫":5347,"迭":5348,"述":5349,"迴":5350,"迷":5351,"迸":5352,"迹":5353,"迺":5354,"追":5355,"退":5356,"送":5357,"逃":5358,"逅":5359,"逆":5360,"逍":5361,"透":5362,"逐":5363,"途":5364,"逕":5365,"逗":5366,"這":5367,"通":5368,"逛":5369,"逝":5370,"逞":5371,"速":5372,"造":5373,"逡":5374,"逢":5375,"連":5376,"逭":5377,"逮":5378,"週":5379,"進":5380,"逵":5381,"逸":5382,"逹":5383,"逼":5384,"逾":5385,"遁":5386,"遂":5387,"遇":5388,"遊":5389,"運":5390,"遍":5391,"過":5392,"遏":5393,"遐":5394,"遑":5395,"道":5396,"達":5397,"違":5398,"遙":5399,"遛":5400,"遜":5401,"遝":5402,"遞":5403,"遠":5404,"遢":5405,"遣":5406,"遥":5407,"遨":5408,"適":5409,"遭":5410,"遮":5411,"遲":5412,"遴":5413,"遵":5414,"遶":5415,"遷":5416,"選":5417,"遺":5418,"遼":5419,"遽":5420,"避":5421,"邀":5422,"邁":5423,"邂":5424,"邃":5425,"還":5426,"邇":5427,"邈":5428,"邉":5429,"邊":5430,"邋":5431,"邏":5432,"邑":5433,"邕":5434,"邙":5435,"邢":5436,"那":5437,"邦":5438,"邨":5439,"邪":5440,"邯":5441,"邰":5442,"邱":5443,"邳":5444,"邵":5445,"邸":5446,"郁":5447,"郊":5448,"郎":5449,"郗":5450,"郝":5451,"郡":5452,"部":5453,"郭":5454,"郵":5455,"郷":5456,"都":5457,"鄂":5458,"鄆":5459,"鄉":5460,"鄒":5461,"鄔":5462,"鄕":5463,"鄙":5464,"鄞":5465,"鄧":5466,"鄭":5467,"鄰":5468,"鄲":5469,"鄴":5470,"鄺":5471,"酈":5472,"酉":5473,"酊":5474,"酋":5475,"酌":5476,"配":5477,"酒":5478,"酗":5479,"酚":5480,"酣":5481,"酥":5482,"酩":5483,"酪":5484,"酬":5485,"酮":5486,"酯":5487,"酵":5488,"酶":5489,"酷":5490,"酸":5491,"醂":5492,"醃":5493,"醇":5494,"醉":5495,"醋":5496,"醌":5497,"醍":5498,"醐":5499,"醒":5500,"醛":5501,"醜":5502,"醞":5503,"醣":5504,"醫":5505,"醬":5506,"醮":5507,"醯":5508,"醱":5509,"醴":5510,"醸":5511,"醺":5512,"釀":5513,"釁":5514,"采":5515,"釉":5516,"釋":5517,"里":5518,"重":5519,"野":5520,"量":5521,"釐":5522,"金":5523,"釔":5524,"釕":5525,"釗":5526,"釘":5527,"釜":5528,"針":5529,"釣":5530,"釦":5531,"釧":5532,"釨":5533,"釩":5534,"釵":5535,"鈀":5536,"鈅":5537,"鈈":5538,"鈉":5539,"鈊":5540,"鈍":5541,"鈎":5542,"鈐":5543,"鈑":5544,"鈔":5545,"鈕":5546,"鈞":5547,"鈣":5548,"鈦":5549,"鈴":5550,"鈷":5551,"鈺":5552,"鈽":5553,"鈾":5554,"鈿":5555,"鉀":5556,"鉄":5557,"鉅":5558,"鉉":5559,"鉍":5560,"鉑":5561,"鉗":5562,"鉚":5563,"鉛":5564,"鉢":5565,"鉤":5566,"鉬":5567,"鉭":5568,"鉸":5569,"鉻":5570,"鉾":5571,"鉿":5572,"銀":5573,"銃":5574,"銅":5575,"銑":5576,"銓":5577,"銖":5578,"銘":5579,"銜":5580,"銠":5581,"銥":5582,"銨":5583,"銪":5584,"銫":5585,"銬":5586,"銲":5587,"銳":5588,"銷":5589,"銹":5590,"銻":5591,"銼":5592,"鋁":5593,"鋅":5594,"鋉":5595,"鋌":5596,"鋏":5597,"鋐":5598,"鋒":5599,"鋗":5600,"鋤":5601,"鋪":5602,"鋯":5603,"鋰":5604,"鋸":5605,"鋼":5606,"錄":5607,"錆":5608,"錐":5609,"錘":5610,"錙":5611,"錚":5612,"錛":5613,"錠":5614,"錡":5615,"錢":5616,"錤":5617,"錦":5618,"錧":5619,"錨":5620,"錩":5621,"錫":5622,"錮":5623,"錯":5624,"録":5625,"錳":5626,"錶":5627,"錸":5628,"錼":5629,"鍊":5630,"鍋":5631,"鍍":5632,"鍘":5633,"鍚":5634,"鍛":5635,"鍠":5636,"鍥":5637,"鍬":5638,"鍮":5639,"鍰":5640,"鍵":5641,"鍶":5642,"鍾":5643,"鎂":5644,"鎊":5645,"鎏":5646,"鎔":5647,"鎖":5648,"鎗":5649,"鎘":5650,"鎚":5651,"鎢":5652,"鎧":5653,"鎩":5654,"鎮":5655,"鎯":5656,"鎰":5657,"鎳":5658,"鎵":5659,"鏃":5660,"鏈":5661,"鏑":5662,"鏖":5663,"鏗":5664,"鏘":5665,"鏞":5666,"鏟":5667,"鏡":5668,"鏢":5669,"鏤":5670,"鏽":5671,"鐐":5672,"鐔":5673,"鐘":5674,"鐠":5675,"鐡":5676,"鐧":5677,"鐫":5678,"鐮":5679,"鐲":5680,"鐵":5681,"鐶":5682,"鐸":5683,"鐹":5684,"鐺":5685,"鑄":5686,"鑊":5687,"鑑":5688,"鑒":5689,"鑛":5690,"鑠":5691,"鑢":5692,"鑣":5693,"鑫":5694,"鑰":5695,"鑲":5696,"鑴":5697,"鑷":5698,"鑼":5699,"鑽":5700,"鑾":5701,"鑿":5702,"钾":5703,"错":5704,"镁":5705,"镜":5706,"長":5707,"門":5708,"閃":5709,"閆":5710,"閉":5711,"開":5712,"閎":5713,"閏":5714,"閑":5715,"閒":5716,"間":5717,"閔":5718,"閘":5719,"閡":5720,"関":5721,"閣":5722,"閤":5723,"閥":5724,"閨":5725,"閩":5726,"閭":5727,"閱":5728,"閲":5729,"閵":5730,"閹":5731,"閻":5732,"閾":5733,"闆":5734,"闇":5735,"闈":5736,"闊":5737,"闌":5738,"闓":5739,"闔":5740,"闕":5741,"闖":5742,"闗":5743,"關":5744,"闡":5745,"闢":5746,"问":5747,"阜":5748,"阠":5749,"阪":5750,"阮":5751,"阱":5752,"防":5753,"阻":5754,"阿":5755,"陀":5756,"陃":5757,"附":5758,"陋":5759,"陌":5760,"降":5761,"限":5762,"陛":5763,"陝":5764,"陞":5765,"陡":5766,"院":5767,"陣":5768,"除":5769,"险":5770,"陪":5771,"陰":5772,"陲":5773,"陳":5774,"陵":5775,"陶":5776,"陷":5777,"陸":5778,"陽":5779,"隅":5780,"隆":5781,"隈":5782,"隊":5783,"隋":5784,"隍":5785,"階":5786,"随":5787,"隔":5788,"隕":5789,"隘":5790,"隙":5791,"際":5792,"障":5793,"隣":5794,"隧":5795,"隨":5796,"險":5797,"隰":5798,"隱":5799,"隴":5800,"隷":5801,"隸":5802,"隻":5803,"隼":5804,"雀":5805,"雁":5806,"雃":5807,"雄":5808,"雅":5809,"集":5810,"雇":5811,"雉":5812,"雋":5813,"雌":5814,"雍":5815,"雕":5816,"雖":5817,"雙":5818,"雛":5819,"雜":5820,"雞":5821,"離":5822,"難":5823,"雨":5824,"雩":5825,"雪":5826,"雫":5827,"雯":5828,"雲":5829,"零":5830,"雷":5831,"雹":5832,"電":5833,"需":5834,"霄":5835,"霆":5836,"震":5837,"霈":5838,"霉":5839,"霊":5840,"霍":5841,"霎":5842,"霏":5843,"霑":5844,"霓":5845,"霖":5846,"霙":5847,"霜":5848,"霞":5849,"霧":5850,"霰":5851,"露":5852,"霸":5853,"霹":5854,"霾":5855,"靂":5856,"靄":5857,"靈":5858,"青":5859,"靖":5860,"静":5861,"靚":5862,"靛":5863,"靜":5864,"非":5865,"靠":5866,"靡":5867,"面":5868,"靦":5869,"靨":5870,"革":5871,"靭":5872,"靱":5873,"靳":5874,"靴":5875,"靶":5876,"鞄":5877,"鞅":5878,"鞋":5879,"鞍":5880,"鞏":5881,"鞕":5882,"鞘":5883,"鞠":5884,"鞣":5885,"鞦":5886,"鞭":5887,"韁":5888,"韆":5889,"韋":5890,"韌":5891,"韓":5892,"韙":5893,"韜":5894,"韞":5895,"韭":5896,"音":5897,"韶":5898,"韻":5899,"韾":5900,"響":5901,"頁":5902,"頂":5903,"頃":5904,"項":5905,"順":5906,"頇":5907,"須":5908,"頌":5909,"頎":5910,"預":5911,"頑":5912,"頒":5913,"頓":5914,"頔":5915,"頗":5916,"領":5917,"頜":5918,"頡":5919,"頣":5920,"頤":5921,"頭":5922,"頰":5923,"頷":5924,"頸":5925,"頹":5926,"頻":5927,"頽":5928,"顆":5929,"題":5930,"額":5931,"顎":5932,"顏":5933,"顔":5934,"願":5935,"顛":5936,"類":5937,"顢":5938,"顥":5939,"顧":5940,"顫":5941,"顯":5942,"顰":5943,"顱":5944,"顳":5945,"顴":5946,"项":5947,"顾":5948,"领":5949,"额":5950,"風":5951,"颯":5952,"颱":5953,"颳":5954,"颶":5955,"颼":5956,"飄":5957,"飆":5958,"飛":5959,"食":5960,"飢":5961,"飧":5962,"飩":5963,"飪":5964,"飭":5965,"飯":5966,"飲":5967,"飴":5968,"飼":5969,"飽":5970,"飾":5971,"餃":5972,"餅":5973,"養":5974,"餌":5975,"餐":5976,"餒":5977,"餓":5978,"餔":5979,"餘":5980,"餚":5981,"餛":5982,"餞":5983,"餡":5984,"館":5985,"餬":5986,"餵":5987,"餽":5988,"餾":5989,"餿":5990,"饀":5991,"饅":5992,"饈":5993,"饋":5994,"饌":5995,"饑":5996,"饒":5997,"饕":5998,"饗":5999,"饞":6000,"首":6001,"馗":6002,"香":6003,"馥":6004,"馨":6005,"馬":6006,"馭":6007,"馮":6008,"馱":6009,"馳":6010,"馴":6011,"駁":6012,"駄":6013,"駐":6014,"駑":6015,"駒":6016,"駕":6017,"駙":6018,"駛":6019,"駝":6020,"駡":6021,"駭":6022,"駱":6023,"駿":6024,"騁":6025,"騅":6026,"騎":6027,"騏":6028,"騒":6029,"騖":6030,"騙":6031,"騫":6032,"騰":6033,"騷":6034,"驀":6035,"驁":6036,"驃":6037,"驅":6038,"驊":6039,"驍":6040,"驒":6041,"驕":6042,"驗":6043,"驚":6044,"驛":6045,"驟":6046,"驢":6047,"驥":6048,"驪":6049,"驫":6050,"骨":6051,"骯":6052,"骰":6053,"骷":6054,"骸":6055,"骺":6056,"骼":6057,"髂":6058,"髃":6059,"髄":6060,"髎":6061,"髏":6062,"髒":6063,"髓":6064,"體":6065,"髕":6066,"髖":6067,"高":6068,"髙":6069,"髦":6070,"髪":6071,"髭":6072,"髮":6073,"髯":6074,"髻":6075,"鬃":6076,"鬆":6077,"鬍":6078,"鬚":6079,"鬟":6080,"鬢":6081,"鬣":6082,"鬥":6083,"鬧":6084,"鬨":6085,"鬩":6086,"鬱":6087,"鬼":6088,"魁":6089,"魂":6090,"魄":6091,"魅":6092,"魏":6093,"魔":6094,"魘":6095,"魚":6096,"魛":6097,"魟":6098,"魠":6099,"魨":6100,"魩":6101,"魯":6102,"魷":6103,"鮋":6104,"鮑":6105,"鮟":6106,"鮪":6107,"鮫":6108,"鮭":6109,"鮮":6110,"鯃":6111,"鯉":6112,"鯊":6113,"鯓":6114,"鯖":6115,"鯛":6116,"鯡":6117,"鯢":6118,"鯤":6119,"鯧":6120,"鯨":6121,"鯪":6122,"鯰":6123,"鯷":6124,"鯽":6125,"鰆":6126,"鰈":6127,"鰍":6128,"鰓":6129,"鰡":6130,"鰣":6131,"鰤":6132,"鰥":6133,"鰩":6134,"鰭":6135,"鰱":6136,"鰲":6137,"鰹":6138,"鰺":6139,"鰻":6140,"鱂":6141,"鱅":6142,"鱇":6143,"鱈":6144,"鱉":6145,"鱒":6146,"鱔":6147,"鱗":6148,"鱘":6149,"鱝":6150,"鱟":6151,"鱧":6152,"鱪":6153,"鱲":6154,"鱷":6155,"鱸":6156,"鱺":6157,"鲁":6158,"鲭":6159,"鲵":6160,"鳥":6161,"鳧":6162,"鳩":6163,"鳯":6164,"鳳":6165,"鳴":6166,"鳶":6167,"鴆":6168,"鴉":6169,"鴐":6170,"鴒":6171,"鴕":6172,"鴛":6173,"鴞":6174,"鴟":6175,"鴦":6176,"鴨":6177,"鴯":6178,"鴴":6179,"鴻":6180,"鴿":6181,"鵑":6182,"鵜":6183,"鵝":6184,"鵟":6185,"鵠":6186,"鵡":6187,"鵪":6188,"鵬":6189,"鵯":6190,"鵰":6191,"鵲":6192,"鶉":6193,"鶓":6194,"鶘":6195,"鶩":6196,"鶯":6197,"鶴":6198,"鶻":6199,"鶼":6200,"鶿":6201,"鷂":6202,"鷄":6203,"鷈":6204,"鷗":6205,"鷥":6206,"鷲":6207,"鷴":6208,"鷸":6209,"鷹":6210,"鷺":6211,"鷿":6212,"鸕":6213,"鸚":6214,"鸛":6215,"鸝":6216,"鸞":6217,"鹵":6218,"鹹":6219,"鹼":6220,"鹽":6221,"鹿":6222,"麂":6223,"麒":6224,"麓":6225,"麗":6226,"麝":6227,"麟":6228,"麥":6229,"麩":6230,"麴":6231,"麵":6232,"麻":6233,"麼":6234,"麽":6235,"麾":6236,"黃":6237,"黄":6238,"黍":6239,"黎":6240,"黏":6241,"黑":6242,"黒":6243,"黔":6244,"默":6245,"黛":6246,"黜":6247,"黝":6248,"點":6249,"黥":6250,"黦":6251,"黨":6252,"黯":6253,"黴":6254,"黷":6255,"鼇":6256,"鼎":6257,"鼓":6258,"鼠":6259,"鼩":6260,"鼬":6261,"鼯":6262,"鼻":6263,"鼽":6264,"鼾":6265,"齁":6266,"齊":6267,"齋":6268,"齎":6269,"齒":6270,"齜":6271,"齟":6272,"齡":6273,"齣":6274,"齦":6275,"齧":6276,"齪":6277,"齬":6278,"齲":6279,"齷":6280,"龍":6281,"龎":6282,"龐":6283,"龔":6284,"龕":6285,"龜":6286,"﨑":6287,"𠽾":6288,"𡚒":6289,"𢭃":6290,"𥚃":6291,"𥴊":6292,"𨑨":6293,"𩻸":6294,"nu":6295,"num":6296,"er":6297,"per":6298,"or":6299,"org":6300,"en":6301,"EP":6302,"SEP":6303,"per0":6304,",<":6305,"org0":6306,"per1":6307,"。<":6308,"表示":6309,"org1":6310,">.":6311,"、<":6312,">,":6313,"台灣":6314,">.<":6315,"」、":6316,"」、「":6317,"per2":6318,"」,":6319,"><":6320,"報導":6321,",「":6322,"沒有":6323,"。」":6324,"org2":6325,"更多":6326,"]<":6327,"自己":6328,"網友":6329,"疫情":6330,">、<":6331,"」。":6332,"可以":6333,"疫苗":6334,"per3":6335,"民眾":6336,"美國":6337,"目前":6338,":「":6339,"因為":6340,"新聞":6341,"中國":6342,"可能":6343,"lo":6344,"loc":6345,"nk":6346,"unk":6347,"今天":6348,"指出":6349,"。[":6350,"今年":6351,"不過":6352,"確診":6353,"中心":6354,"org3":6355,"活動":6356,"進行":6357,"發現":6358,"一個":6359,"「<":6360,"相關":6361,"防疫":6362,"時間":6363,"學生":6364,"我們":6365,"就是":6366,"已經":6367,"今日":6368,"人員":6369,"第一":6370,":<":6371,"認為":6372,"工作":6373,"提供":6374,"政府":6375,"警方":6376,"北市":6377,"per4":6378,"發生":6379,"公司":6380,"loc0":6381,"使用":6382,"一名":6383,"因此":6384,"..":6385,"接種":6386,"/<":6387,"日本":6388,"出現":6389,"指揮":6390,"希望":6391,">-":6392,"影響":6393,"問題":6394,"持續":6395,"去年":6396,"其中":6397,"印度":6398,"他們":6399,">、":6400,"現在":6401,"開始":6402,"調查":6403,"不是":6404,"還有":6405,"!<":6406,"其他":6407,"透過":6408,"學校":6409,"以及":6410,"什麼":6411,"org4":6412,"機師":6413,"這樣":6414,"安全":6415,"記者":6416,"許多":6417,"男子":6418,"國家":6419,"新冠":6420,"還是":6421,"真的":6422,"這個":6423,"大家":6424,"未來":6425,"全球":6426,"看到":6427,"手機":6428,"服務":6429,"最後":6430,"如果":6431,"不會":6432,"指揮中心":6433,"也有":6434,"健康":6435,"要求":6436,"包括":6437,"相當":6438,"部分":6439,"生活":6440,"都是":6441,"per5":6442,"國際":6443,"無法":6444,"甚至":6445,">,<":6446,"根據":6447,"日前":6448,"除了":6449,"合作":6450,"臉書":6451,"不少":6452,"同時":6453,"雖然":6454,"也是":6455,"成為":6456,"口罩":6457,"肺炎":6458,"的人":6459,"超過":6460,"萬元":6461,"總統":6462,"市場":6463,"造成":6464,"所以":6465,">。":6466,"感染":6467,"一次":6468,"發展":6469,">」":6470,"地區":6471,"是否":6472,"增加":6473,"狀況":6474,"分享":6475,"針對":6476,"對於":6477,"為了":6478,"推出":6479,"台中":6480,"需要":6481,"結果":6482,"?<":6483,"機會":6484,"個月":6485,">:":6486,"當時":6487,"現場":6488,"曝光":6489,"一起":6490,"計畫":6491,"知道":6492,"應該":6493,"非常":6494,"另外":6495,"員工":6496,"教育":6497,"公布":6498,"宣布":6499,"強調":6500,"提醒":6501,"這些":6502,"代表":6503,"母親":6504,"比賽":6505,"期間":6506,"其實":6507,"事件":6508,"朋友":6509,"投資":6510,"完成":6511,"媽媽":6512,"社會":6513,"醫師":6514,"設計":6515,"由於":6516,"經濟":6517,"管理":6518,"孩子":6519,"之後":6520,"網路":6521,"特別":6522,"處理":6523,"方式":6524,"接觸":6525,"病毒":6526,"重要":6527,"檢疫":6528,"世界":6529,"org5":6530,"億元":6531,"過去":6532,"建議":6533,"不要":6534,"安打":6535,"採檢":6536,"嚴重":6537,"直接":6538,"醫院":6539,"對此":6540,"運動":6541,"新冠肺炎":6542,"大陸":6543,"影片":6544,"地方":6545,"人的":6546,"染疫":6547,"覺得":6548,"說明":6549,"關係":6550,"台北市":6551,"接受":6552,"支持":6553,"症狀":6554,"小時":6555,"的是":6556,">/":6557,"第二":6558,"協助":6559,"比較":6560,"媒體":6561,"」<":6562,"討論":6563,"高雄":6564,">:<":6565,"想到":6566,"蘋果":6567,"不同":6568,"表現":6569,"起來":6570,"回應":6571,"美元":6572,"這是":6573,"進入":6574,"成長":6575,"環境":6576,"per6":6577,"飯店":6578,"先發":6579,"教練":6580,"下午":6581,"系統":6582,"加上":6583,"個人":6584,"隔離":6585,"照片":6586,"很多":6587,"桃園":6588,"企業":6589,"導致":6590,">-<":6591,"所有":6592,">[":6593,"決定":6594,"獲得":6595,"新增":6596,"富特":6597,"功能":6598,"諾富特":6599,"不能":6600,"大學":6601,"研究":6602,"治療":6603,"選擇":6604,"只是":6605,"一定":6606,"一下":6607,"參與":6608,"中央":6609,"產業":6610,"需求":6611,"台北":6612,"只有":6613,"原因":6614,"資料":6615,"以上":6616,"產品":6617,"準備":6618,"發文":6619,"面對":6620,"風險":6621,"情況":6622,"自己的":6623,"死亡":6624,"只要":6625,"都有":6626,"沒想到":6627,"受到":6628,"重點":6629,"出來":6630,"家人":6631,"必須":6632,"參加":6633,"顯示":6634,"疑似":6635,"時候":6636,"醫療":6637,"內容":6638,"紀錄":6639,"駕駛":6640,"擴大":6641,"這次":6642,"業者":6643,"舉辦":6644,"對方":6645,"預計":6646,"措施":6647,"個案":6648,"國內":6649,"怎麼":6650,"規定":6651,"專家":6652,"了解":6653,"提升":6654,"開放":6655,"?」":6656,"通過":6657,"最高":6658,"一樣":6659,"技術":6660,"。」<":6661,"近日":6662,"國中":6663,">/<":6664,"紛紛":6665,"透露":6666,"引發":6667,"大的":6668,"消費":6669,"至於":6670,"一直":6671,"科技":6672,"前往":6673,"資訊":6674,"上午":6675,"申請":6676,"也會":6677,"一步":6678,"執行":6679,"都會":6680,"主要":6681,"則是":6682,"繼續":6683,"警察":6684,"身體":6685,"施打":6686,"議員":6687,"通報":6688,"...":6689,"在臉書":6690,"貼文":6691,"畫面":6692,"過程":6693,"!」":6694,"政策":6695,"不到":6696,"新聞報導":6697,"上的":6698,"任何":6699,"居家":6700,"關鍵":6701,"提出":6702,"消息":6703,"平台":6704,"最新":6705,"病例":6706,"單位":6707,"此外":6708,"社區":6709,"行為":6710,"分析":6711,"旅館":6712,"報告":6713,"新聞網":6714,"近期":6715,"也不":6716,"完全":6717,"行動":6718,"他的":6719,"整理":6720,"經過":6721,"緊急":6722,"人數":6723,"歲的":6724,"老師":6725,"分鐘":6726,"有多":6727,"成功":6728,"優惠":6729,"方面":6730,"共同":6731,"好的":6732,"保護":6733,"新高":6734,"org6":6735,"注意":6736,"分別":6737,"留言":6738,"台南":6739,"兩人":6740,"電影":6741,"兄弟":6742,"女子":6743,"努力":6744,"學習":6745,"用戶":6746,"就會":6747,"提到":6748,"意外":6749,"有人":6750,"全國":6751,"維持":6752,"兒子":6753,"當地":6754,"不僅":6755,"電子":6756,"呼籲":6757,"不斷":6758,"台股":6759,"旅遊":6760,"立委":6761,"但是":6762,"安排":6763,"就有":6764,"加入":6765,"壓力":6766,"目標":6767,"英國":6768,"的一":6769,"而且":6770,"下來":6771,"聯盟":6772,"女兒":6773,"團隊":6774,"per7":6775,"董事":6776,"歷史":6777,"本土":6778,"穩定":6779,"投手":6780,"員警":6781,"戴口罩":6782,"能力":6783,"品牌":6784,"才能":6785,"避免":6786,"年的":6787,"工程":6788,"積極":6789,"鋒面":6790,"機組":6791,"容易":6792,"舉行":6793,"中的":6794,"進一步":6795,"以來":6796,"雙方":6797,"距離":6798,"系列":6799,"至少":6800,"追蹤":6801,"一般":6802,"萬人":6803,"三立":6804,"高中":6805,"引起":6806,"如何":6807,"就醫":6808,"專業":6809,"第三":6810,"原本":6811,"這種":6812,"昨天":6813,"最近":6814,"有一":6815,"價格":6816,"感謝":6817,"包含":6818,"主管":6819,"調整":6820,"新北市":6821,"小孩":6822,"了一":6823,"觀察":6824,"月底":6825,"之前":6826,"女性":6827,"委員":6828,"市長":6829,"家長":6830,"母親節":6831,"加強":6832,"選手":6833,"正式":6834,"三立新聞網":6835,"全台":6836,"家庭":6837,"作為":6838,"球隊":6839,"人士":6840,"會議":6841,"一次看":6842,"幫助":6843,"文化":6844,"連續":6845,"突然":6846,"擔任":6847,"或是":6848,"loc1":6849,"了嗎":6850,"聲明":6851,"減少":6852,"看這":6853,"挑戰":6854,"附近":6855,"晚間":6856,"擔心":6857,"日起":6858,"考試":6859,"讓他":6860,"電話":6861,"關注":6862,"人民":6863,"局長":6864,"喜歡":6865,"推動":6866,"發表":6867,"配合":6868,"降雨":6869,"年輕":6870,"之一":6871,"再度":6872,"姓男子":6873,"監視":6874,"讀書":6875,"數據":6876,"利用":6877,"營收":6878,"機車":6879,">「":6880,"全面":6881,"智慧":6882,"打擊":6883,"能夠":6884,"老闆":6885,"確定":6886,"正常":6887,"外交":6888,"更新":6889,"流行":6890,"這麼":6891,"本季":6892,"年來":6893,"漫畫":6894,"專線":6895,"遊戲":6896,"主動":6897,"立即":6898,"解決":6899,"根本":6900,"會有":6901,"傳出":6902,"明顯":6903,"香港":6904,"公開":6905,"是在":6906,"昨日":6907,"政治":6908,"綜合":6909,"負責":6910,">:「":6911,"正在":6912,"發布":6913,"立刻":6914,"外界":6915,"消毒":6916,"敲出":6917,"線上":6918,"成績":6919,"最終":6920,"各科":6921,"經驗":6922,"吸引":6923,"文章":6924,"訓練":6925,"男童":6926,"主席":6927,"取得":6928,"方案":6929,"水庫":6930,"連結":6931,"爆發":6932,"空間":6933,"因應":6934,"考生":6935,"衝刺":6936,"最大":6937,"檢查":6938,"邀請":6939,"事情":6940,"結束":6941,"入境":6942,"改善":6943,"推薦":6944,"保持":6945,"拜登":6946,"衛生":6947,"每天":6948,"並且":6949,"將在":6950,"體驗":6951,"派出":6952,"階段":6953,"」。<":6954,"動物":6955,"課程":6956,"擁有":6957,"記者會":6958,"交通":6959,"送醫":6960,"在地":6961,"指數":6962,"只能":6963,"感覺":6964,"所長":6965,"陰性":6966,"餐廳":6967,"商品":6968,"事故":6969,"台幣":6970,"詢問":6971,"生產":6972,"的時候":6973,"銀行":6974,"節目":6975,"相關新聞":6976,"球員":6977,"粉絲":6978,"發言":6979,"交易":6980,"攻擊":6981,"整理包":6982,"質疑":6983,"危險":6984,"紫色":6985,"長期":6986,"開發":6987,"以為":6988,"另一":6989,"期待":6990,"」[":6991,"供應":6992,"的話":6993,"檢驗":6994,"南部":6995,"通知":6996,"必考":6997,"對象":6998,"成立":6999,"打造":7000,"掌握":7001,"間學校":7002,"偷看":7003,"辦理":7004,"晶片":7005,"畢業":7006,"年前":7007,"拿下":7008,"重點一次看":7009,"自主":7010,"大補":7011,"統計":7012,"聯合":7013,"身分":7014,"必考重點一次看":7015,"來說":7016,"接觸者":7017,"作業":7018,"機構":7019,"這樣的":7020,"受傷":7021,"舒壓":7022,"公尺":7023,"順利":7024,"累了嗎":7025,"航空":7026,"資源":7027,"考衝刺":7028,"大補帖":7029,"竟然":7030,"設備":7031,"來自":7032,"各科必考重點一次看":7033,"秒偷看":7034,"有多鬧":7035,"看這間學校":7036,"讀書累了嗎":7037,"漫畫舒壓":7038,"考衝刺大補帖":7039,"秒偷看漫畫舒壓":7040,"看這間學校有多鬧":7041,"秒偷看漫畫舒壓一下":7042,"疾病":7043,"終於":7044,"規劃":7045,"達到":7046,"提高":7047,"患者":7048,"電腦":7049,"這一":7050,"預期":7051,"外送":7052,"影音":7053,"想要":7054,"群聚":7055,"責任":7056,"後續":7057,"org7":7058,"照顧":7059,"然而":7060,"實施":7061,"一度":7062,"業務":7063,"更是":7064,"製造":7065,"價值":7066,"年度":7067,"當天":7068,"per8":7069,"一些":7070,"凌晨":7071,"情形":7072,"東西":7073,"有關":7074,"離開":7075,"遭到":7076,"監視器":7077,"出席":7078,"評估":7079,"符合":7080,"生命":7081,"家屬":7082,"自由":7083,"澳洲":7084,"媽祖":7085,"先前":7086,"隨著":7087,"後來":7088,"恢復":7089,"攝影":7090,"防疫旅館":7091,"證實":7092,"回家":7093,"得到":7094,"不適":7095,"尤其":7096,"官方":7097,"疫情指揮中心":7098,"疫苗接種":7099,"也在":7100,"事後":7101,"億美元":7102,"應用":7103,"網站":7104,"確認":7105,"足跡":7106,"三振":7107,"告知":7108,"陽性":7109,"至今":7110,"機組員":7111,"才會":7112,"控制":7113,"不滿":7114,"北部":7115,"組織":7116,"購買":7117,"讓人":7118,"議題":7119,"音樂":7120,"找到":7121,"知名":7122,"展開":7123,"山區":7124,"消防":7125,"平均":7126,"規模":7127,"來到":7128,"電動":7129,"台灣的":7130,"市府":7131,"我的":7132,"整體":7133,"機場":7134,"帶來":7135,"最多":7136,"清楚":7137,"一點":7138,"搭乘":7139,"累計":7140,"讓她":7141,"諾富特飯店":7142,"陸續":7143,"男友":7144,"將於":7145,"有些":7146,"鼓勵":7147,"都不":7148,"主任":7149,"藝術":7150,"幾乎":7151,"訊息":7152,"重新":7153,"各地":7154,"法院":7155,"冠軍":7156,"一出":7157,"高達":7158,"原來":7159,"太空":7160,"釐清":7161,"就能":7162,"左右":7163,"務必":7164,"他說":7165,"感到":7166,"金融":7167,"統一":7168,"之外":7169,"接著":7170,"免費":7171,"反應":7172,"消費者":7173,"自然":7174,"先生":7175,"境外":7176,"日在":7177,"公里":7178,"還要":7179,"教學":7180,"結婚":7181,"嫌犯":7182,"大量":7183,"確實":7184,"這名":7185,"店家":7186,"有網友":7187,"專案":7188,"首度":7189,"落實":7190,"更多三立新聞網":7191,"更多三立新聞網報導":7192,"嘉義":7193,"快速":7194,"遇到":7195,"新冠肺炎疫情":7196,"將會":7197,"檢測":7198,"發言人":7199,"新的":7200,"中華":7201,"我國":7202,"男性":7203,"營運":7204,"像是":7205,"到底":7206,"領域":7207,"數位":7208,"停車":7209,"印尼":7210,"為何":7211,"電信":7212,"基本":7213,"幫忙":7214,"直呼":7215,"變成":7216,"傳統":7217,"案件":7218,"同樣":7219,"的大":7220,"一年":7221,"限制":7222,"。「":7223,"局上":7224,"實際":7225,"汽車":7226,"領先":7227,"提醒您":7228,"直到":7229,"教育會":7230,"危機":7231,"結合":7232,"同學":7233,"酒駕":7234,"黑衣":7235,"社團":7236,"職棒":7237,"開心":7238,"壘打":7239,"離婚":7240,"加碼":7241,"方向":7242,"辦法":7243,"人才":7244,"如今":7245,"好吃":7246,"新台幣":7247,"退休":7248,"教師":7249,"競爭":7250,"到場":7251,"爸爸":7252,"改變":7253,"國中教育會":7254,"有效":7255,"今日新聞":7256,"味全":7257,"作品":7258,"必要":7259,"東京":7260,"區域":7261,"拍攝":7262,"標準":7263,"事實":7264,"派出所":7265,"一天":7266,"支援":7267,"董事長":7268,"客戶":7269,"展現":7270,"召開":7271,"降低":7272,"成員":7273,"」。[":7274,"就業":7275,"校長":7276,"妻子":7277,"態度":7278,"還在":7279,"不得":7280,"到了":7281,"女友":7282,"相信":7283,"國中教育會考衝刺大補帖":7284,"年增":7285,"老公":7286,"車輛":7287,"再次":7288,"視新聞報導":7289,"考量":7290,"勞工":7291,"樂天":7292,"登場":7293,"公車":7294,"手術":7295,"開車":7296,"她的":7297,"金額":7298,"願意":7299,"如此":7300,"首次":7301,"國小":7302,"事業":7303,"多歲":7304,"捷運":7305,"蟑螂":7306,"也將":7307,"彰化":7308,"機關":7309,"經營":7310,"不用":7311,"然後":7312,"來源":7313,"十分":7314,"父母":7315,"閱讀":7316,"來看":7317,"原始":7318,"自行":7319,"師生":7320,"補助":7321,"校園":7322,"食物":7323,"產生":7324,"表達":7325,"廠商":7326,"衝突":7327,"委員會":7328,"天氣":7329,"整個":7330,"都在":7331,"父親":7332,"也讓":7333,"公告":7334,"更多民":7335,"地點":7336,"尋找":7337,"搭配":7338,"小心":7339,"行政":7340,"辦公":7341,"隨後":7342,"更多民視新聞報導":7343,"韓國":7344,"歡迎":7345,"以下":7346,"而是":7347,"上班":7348,"之間":7349,"獲利":7350,"動作":7351,"似乎":7352,"黑衣人":7353,"大眾":7354,"每年":7355,"集團":7356,"場比賽":7357,"局下":7358,"面臨":7359,"導體":7360,"半導體":7361,"令人":7362,"他也":7363,"儘管":7364,"品質":7365,"公斤":7366,"新竹":7367,"生涯":7368,"裡面":7369,"此次":7370,"看更多":7371,"勞動":7372,"最佳":7373,"奧運":7374,"接種疫苗":7375,"拒絕":7376,"毒品":7377,"那麼":7378,"受訪":7379,"精神":7380,"啟動":7381,"科學":7382,"抗體":7383,"時中":7384,"管制":7385,"公共":7386,"股價":7387,"是一":7388,"傷害":7389,"熱議":7390,"羅斯":7391,"關心":7392,"電視":7393,"發出":7394,"完整":7395,"撥打":7396,"不知道":7397,"支安打":7398,"告訴":7399,"在家":7400,"基金":7401,"官員":7402,"也能":7403,"運輸":7404,"條件":7405,"兩個":7406,"咖啡":7407,"不好":7408,"犯罪":7409,"上漲":7410,"範圍":7411,"球場":7412,"黨部":7413,"可能會":7414,"出賽":7415,"人口":7416,"開賣":7417,"一路":7418,"多元":7419,"集中":7420,"就在":7421,"晚上":7422,"有機會":7423,"後的":7424,"違反":7425,"陳時中":7426,"逮捕":7427,"解釋":7428,"銷售":7429,"指揮官":7430,"上市":7431,"也要":7432,"案例":7433,"戴上":7434,"的情況":7435,"團體":7436,"中央流行":7437,"不只":7438,"![":7439,"籃板":7440,"報名":7441,"球迷":7442,"台中市":7443,"投入":7444,"呈現":7445,"回到":7446,"突破":7447,"保送":7448,"司機":7449,"資格":7450,"採用":7451,"悍將":7452,"創辦":7453,"崩潰":7454,"收到":7455,"截至":7456,"為主":7457,"好奇":7458,"中央流行疫情指揮中心":7459,"俄羅斯":7460,"製作":7461,"證明":7462,"不可":7463,"原始連結":7464,"儘速":7465,"並未":7466,"預估":7467,"呼吸":7468,"採取":7469,"下一":7470,"傳播":7471,"千萬":7472,"第一次":7473,"旅客":7474,"直播":7475,"短暫":7476,"購物":7477,"局部":7478,"居家隔離":7479,"中信":7480,"各種":7481,"民主":7482,"絕對":7483,"鏡頭":7484,"創新":7485,"公園":7486,"累積":7487,"的問題":7488,"園區":7489,"多數":7490,"名單":7491,"地球":7492,"超級":7493,"以前":7494,"同意":7495,"當然":7496,"大幅":7497,"時代":7498,"per9":7499,"新北":7500,"狀態":7501,"過程中":7502,"這項":7503,"他在":7504,"威脅":7505,"意見":7506,"國外":7507,"經理":7508,"當場":7509,"」!":7510,"確保":7511,"保險":7512,"花蓮":7513,"位置":7514,"影像":7515,"的新":7516,"接獲":7517,">。<":7518,"營養":7519,"社群":7520,"強化":7521,"不明":7522,"傳染":7523,"認識":7524,"一位":7525,"的小":7526,"習慣":7527,"多次":7528,"法律":7529,"利率":7530,"屏東":7531,"屬於":7532,"勇士":7533,"隨即":7534,"中國大陸":7535,"做出":7536,"來越":7537,"馬上":7538,"救援":7539,"夫妻":7540,"看了":7541,"不錯":7542,"尚未":7543,"場所":7544,"考慮":7545,"部長":7546,"族群":7547,"發燒":7548,"申辦":7549,"模式":7550,"越來越":7551,"全壘打":7552,"工具":7553,"居民":7554,"車禍":7555,"騎士":7556,"社交":7557,"交流":7558,"故事":7559,"該名":7560,"校方":7561,"建立":7562,"org8":7563,"創辦人":7564,"不住":7565,"偵辦":7566,"保障":7567,"小組":7568,"收入":7569,"研發":7570,"真相":7571,"這裡":7572,"速度":7573,"富邦":7574,"的方式":7575,"你們":7576,"肯定":7577,"類似":7578,"股票":7579,"來的":7580,"加油":7581,"在台灣":7582,"方便":7583,"國人":7584,"反對":7585,"做好":7586,"全部":7587,"出局":7588,"預購":7589,"三分":7590,"防疫專線":7591,"居家檢疫":7592,"一張":7593,"當下":7594,"休息":7595,"建設":7596,"更加":7597,"洗手":7598,"職業":7599,"軍事":7600,"公務":7601,"營業":7602,"爭議":7603,"道路":7604,"其實是":7605,"綜合報導":7606,"戴上口罩":7607,"半年":7608,"機率":7609,"基礎":7610,"乘客":7611,"變化":7612,"為什麼":7613,"的民眾":7614,"重大":7615,"任務":7616,"錄取":7617,"效果":7618,"已有":7619,"操作":7620,"排除":7621,"日晚間":7622,"緊張":7623,"中部":7624,"下降":7625,"仍有":7626,"經常":7627,"可能是":7628,"於是":7629,"據了解":7630,"兒童":7631,"相對":7632,"鳳梨":7633,"人在":7634,"北京":7635,"移入":7636,"超商":7637,"選舉":7638,"即將":7639,"承諾":7640,"爆料":7641,"泰國":7642,"演出":7643,"一段":7644,"升級":7645,"遊客":7646,"內的":7647,"學測":7648,"溝通":7649,"二軍":7650,"中信兄弟":7651,"就要":7652,"起訴":7653,"國籍":7654,"大型":7655,"同期":7656,"婆婆":7657,"初步":7658,"都要":7659,"下去":7660,"維護":7661,"不但":7662,"逐漸":7663,"違規":7664,"程序":7665,"帶動":7666,"生態":7667,"開幕":7668,">」,":7669,"人生":7670,"各國":7671,"創作":7672,"螢幕":7673,"並不":7674,"曾經":7675,"角色":7676,"防護":7677,"批評":7678,"半部":7679,"飲料":7680,"並非":7681,"廣告":7682,"成本":7683,"涉嫌":7684,"達成":7685,"客人":7686,"一定要":7687,"助攻":7688,"取消":7689,"共有":7690,"建築":7691,"互動":7692,"還沒":7693,"不足":7694,"的地方":7695,"身上":7696,"太多":7697,"看起來":7698,"和平":7699,"醫學":7700,"內部":7701,"外送員":7702,"城市":7703,"賽事":7704,"項目":7705,"每股":7706,"可望":7707,"現金":7708,"位於":7709,"的時間":7710,"失分":7711,"律師":7712,"健康管理":7713,"味全龍":7714,"氣候":7715,"百萬":7716,"資金":7717,"主題":7718,"大樓":7719,"有的":7720,"下的":7721,"事發":7722,"得知":7723,"都沒有":7724,"禁止":7725,"黑道":7726,"全力":7727,"報警":7728,"接近":7729,"等人":7730,"可愛":7731,"值得":7732,"路上":7733,"美食":7734,"簡單":7735,"坦言":7736,"宜蘭":7737,"方法":7738,"不少人":7739,"主持":7740,"數量":7741,"是不是":7742,"檢察":7743,"貢獻":7744,"」,<":7745,"加速":7746,"公投":7747,"權益":7748,"藥物":7749,"爭取":7750,"說法":7751,"都能":7752,"救護":7753,"自動":7754,"並沒有":7755,"女星":7756,"是因為":7757,"報案":7758,"存在":7759,"不管":7760,"外野":7761,"教授":7762,"境外移入":7763,"即可":7764,"困難":7765,"測試":7766,"確診者":7767,"主場":7768,"機制":7769,"當中":7770,"改革":7771,"藉由":7772,"重視":7773,"唯一":7774,"工業":7775,"趨勢":7776,"周邊":7777,"聽到":7778,"天內":7779,"就可以":7780,"會在":7781,"老婆":7782,"縣市":7783,"作用":7784,"例如":7785,"依照":7786,"趕緊":7787,"青年":7788,"延長":7789,"擊出":7790,"具有":7791,"護理":7792,"拿到":7793,"檢討":7794,"丈夫":7795,"廢水":7796,"傻眼":7797,"協會":7798,"裝置":7799,"修正":7800,"對手":7801,"有沒有":7802,"一家":7803,"匡列":7804,"觀眾":7805,"不治":7806,"因素":7807,"德國":7808,"尊重":7809,"單日":7810,"直言":7811,"詐騙":7812,"聲音":7813,"英文":7814,"成交":7815,"接下來":7816,"的水":7817,"真實":7818,"檢方":7819,"變種":7820,"夥伴":7821,"氧氣":7822,"監測":7823,"來了":7824,"即使":7825,"紐約":7826,"適合":7827,"協議":7828,"觀光":7829,"部門":7830,"抗議":7831,"機師染疫":7832,"住院":7833,"的高":7834,"上一":7835,"報稅":7836,"家中":7837,"反而":7838,"恐怕":7839,"阿嬤":7840,"紛紛留言":7841,"中職":7842,"法人":7843,"好好":7844,"律賓":7845,"情緒":7846,"菲律賓":7847,"疑似症狀":7848,"電動車":7849,"審查":7850,"以後":7851,"移送":7852,"給予":7853,"都很":7854,"出爐":7855,"全場":7856,"友人":7857,"帶著":7858,"軟體":7859,"幼兒":7860,"不敢":7861,"快新聞":7862,"性的":7863,"放棄":7864,"訪問":7865,"不想":7866,"冠狀":7867,"」:":7868,"形象":7869,"得分":7870,"特殊":7871,"次三振":7872,"你的":7873,"有點":7874,"抵達":7875,"辦公室":7876,"警局":7877,"制度":7878,"店員":7879,"費用":7880,"感情":7881,"預約":7882,"法官":7883,"的狀況":7884,"程度":7885,"投資人":7886,"出國":7887,"曝光後":7888,"暴力":7889,"清潔":7890,"真的很":7891,"延燒":7892,"指考":7893,"柔道":7894,"工廠":7895,"規範":7896,"設置":7897,"飲食":7898,"基隆":7899,"難以":7900,"許多人":7901,"也很":7902,"海洋":7903,"連勝":7904,"涉及":7905,"主委":7906,"內行":7907,"分局":7908,"女網友":7909,"時期":7910,"聯繫":7911,"史上":7912,"懷疑":7913,"最低":7914,"自主健康管理":7915,"+<":7916,"來台":7917,"全新":7918,"夢想":7919,"無奈":7920,"通常":7921,"還能":7922,"成果":7923,"工作人員":7924,"對話":7925,"辛苦":7926,"支付":7927,"環保":7928,"輕鬆":7929,"指示":7930,"還會":7931,"堅持":7932,"親自":7933,"看見":7934,"用餐":7935,"優勢":7936,"外籍":7937,"第一季":7938,"同仁":7939,"一名網友":7940,"實在":7941,"同住":7942,"使用者":7943,"小朋友":7944,"策略":7945,"創下":7946,"總教練":7947,"血清":7948,"判決":7949,"實驗":7950,"排放":7951,"旅遊史":7952,"出的":7953,"也沒有":7954,"魯閣":7955,"網紅":7956,"也說":7957,"道歉":7958,"意識":7959,"整合":7960,"明天":7961,"的好":7962,"的心":7963,"自我":7964,"冠狀病毒":7965,"特色":7966,"太魯閣":7967,"失控":7968,"登記":7969,"婦人":7970,"萬噸":7971,"產能":7972,"中午":7973,"per10":7974,"當局":7975,"的事":7976,"便宜":7977,"身材":7978,"力量":7979,"房屋":7980,"試試":7981,"大電信":7982,"高雄市":7983,"發揮":7984,"出口":7985,"獲報":7986,"緬甸":7987,"之下":7988,"轉型":7989,"希望能":7990,"執行長":7991,"處分":7992,"體育":7993,"徒刑":7994,"生物":7995,"就算":7996,"打點":7997,"本來":7998,"南韓":7999,"少年":8000,"雲林":8001,"核心":8002,"身為":8003,"醫生":8004,"多人":8005,"比例":8006,"跟著":8007,"不良":8008,"檢察官":8009,"一場":8010,"也被":8011,"百分":8012,"運用":8013,"我們的":8014,"壓力大":8015,"就送":8016,"房間":8017,"新功能":8018,"持有":8019,"補充":8020,"打開":8021,"解鎖":8022,"原則":8023,"不少網友":8024,"鎖定":8025,"網路上":8026,"加碼送":8027,"亞裔":8028,"經典":8029,"美國總統":8030,"早上":8031,"高度":8032,"基地":8033,"年後":8034,"破壞":8035,"證據":8036,"他表示":8037,"停止":8038,"重要的":8039,"折起":8040,"日下午":8041,"轎車":8042,"別人":8043,"才是":8044,"放在":8045,"這場":8046,"版本":8047,"曾在":8048,"公分":8049,"薪資":8050,"受害":8051,"負擔":8052,"利益":8053,"兩天":8054,"臺灣":8055,"原始連結更多":8056,"上升":8057,"最快":8058,"提前":8059,"合約":8060,"電池":8061,"排名":8062,"法國":8063,"被害":8064,"開季":8065,"社交距離":8066,"陣雨":8067,"在台":8068,"參考":8069,"幾天":8070,"終場":8071,"越南":8072,"防範":8073,"視訊":8074,"loc2":8075,",「<":8076,"指定":8077,"今天表示":8078,"深厚":8079,"苗栗":8080,"警告":8081,"同步":8082,"漲幅":8083,"並在":8084,"依法":8085,"優先":8086,"感動":8087,"指控":8088,"移動":8089,"申辦優惠":8090,"料理":8091,"回來":8092,"最大的":8093,"每個":8094,"目的":8095,"自費":8096,"一同":8097,"嚴峻":8098,"條例":8099,"帶領":8100,"病患":8101,"月底開賣":8102,"申辦優惠加碼送":8103,"逆轉":8104,"紫色月底開賣":8105,"大電信預購":8106,"理由":8107,"變種病毒":8108,"同事":8109,"執法":8110,"職場":8111,"回歸":8112,"立場":8113,"競賽":8114,"近年":8115,"org9":8116,"早餐":8117,"但他":8118,"說是":8119,"預防":8120,"午後":8121,"年輕人":8122,"一切":8123,"剛好":8124,"國民":8125,"衝擊":8126,"那個":8127,"紀念":8128,"密切":8129,"無論":8130,"的重要":8131,"豐富":8132,"人民幣":8133,"飛行":8134,"多少":8135,"水情":8136,"概念":8137,"娛樂":8138,"不知":8139,"戰略":8140,"第一時間":8141,"正確":8142,"也有人":8143,"並無":8144,"各項":8145,"瞬間":8146,"興趣":8147,"」、「<":8148,"下雨":8149,"推特":8150,"明年":8151,"股市":8152,"這段":8153,"創意":8154,"月中":8155,"加坡":8156,"台商":8157,"獨立":8158,"第四":8159,"告知醫師":8160,"澄清":8161,"嚴格":8162,"武漢":8163,"上網":8164,"診所":8165,"認定":8166,"對外":8167,"感染源":8168,"各界":8169,"電影票":8170,"想用":8171,"計算":8172,"再抽":8173,"梅雨":8174,"錯誤":8175,"一看":8176,"旅行":8177,"時表示":8178,"上場":8179,"大雨":8180,"一開始":8181,"下車":8182,"打者":8183,"~<":8184,"住民":8185,"垃圾":8186,"每次":8187,"設施":8188,"食品":8189,"一間":8190,"女生":8191,"攻下":8192,"知識":8193,"門口":8194,"季後":8195,"更有":8196,"遶境":8197,"官網":8198,"糾紛":8199,"貿易":8200,"新加坡":8201,"延伸":8202,"很難":8203,"熱門":8204,"貼出":8205,"不夠":8206,"不建議":8207,"空氣":8208,"總經理":8209,"肇事":8210,"無人":8211,"相同":8212,"土地":8213,"所幸":8214,"邊境":8215,"大概":8216,"懷孕":8217,"都沒":8218,"精彩":8219,"勤洗手":8220,"付費":8221,"刪除":8222,"擊敗":8223,"時許":8224,"即時":8225,"也可以":8226,"領導":8227,"民國":8228,"表演":8229,"認證":8230,"典禮":8231,"背景":8232,"賣場":8233,"人力":8234,"院長":8235,"發文表示":8236,"就讀":8237,"安心":8238,"白色":8239,"解除":8240,"信心":8241,"出門":8242,"賽後":8243,"發生在":8244,"仍然":8245,"暫時":8246,"真正":8247,"許多網友":8248,"你這樣":8249,"對抗":8250,"謝謝":8251,"進口":8252,"不再":8253,"就好":8254,"防禦":8255,"?」、「":8256,"不多":8257,"創造":8258,"回憶":8259,"面試":8260,"拍照":8261,"神經":8262,"可見":8263,"填就送":8264,"工會":8265,"退休壓力大":8266,"再抽電影票":8267,"退休壓力大調查":8268,"全案":8269,"健身":8270,"心理":8271,"稍早":8272,"路線":8273,"車站":8274,"缺水":8275,"他們的":8276,"確診病例":8277,"兩名":8278,"靠著":8279,"於今日":8280,"深夜":8281,"經歷":8282,"訂單":8283,"賠償":8284,"一個月":8285,"形成":8286,"連假":8287,"經費":8288,"路口":8289,"預測":8290,"儘速就醫":8291,"]「":8292,"下載":8293,"有局部":8294,"純益":8295,"臨時":8296,"違法":8297,"先發投手":8298,"貼文一出":8299,"能源":8300,"藉此":8301,"高的":8302,"應該是":8303,"婚姻":8304,"日上午":8305,"看好":8306,"告知醫師旅遊史":8307,"也沒":8308,"奇摩":8309,"蛋糕":8310,"回國":8311,"失去":8312,"搶救":8313,"車上":8314,"迅速":8315,"淵源":8316,"自身":8317,"共識":8318,"即日起":8319,"及時":8320,"偏愛":8321,"只見":8322,"打算":8323,"物品":8324,"物資":8325,"過來":8326,"健保":8327,"會員":8328,"決議":8329,"熱烈":8330,"的機會":8331,"防疫措施":8332,"身體不適":8333,">!":8334,"一輛":8335,"二壘":8336,"仍在":8337,"大批":8338,"印度疫情":8339,"提告":8340,"造型":8341,"隊友":8342,"也就是":8343,"回饋":8344,"笑說":8345,"點多":8346,"也表示":8347,"資產":8348,"路邊":8349,"常見":8350,"台東":8351,"永續":8352,"召集":8353,"名的":8354,"意義":8355,"收在":8356,"華航":8357,"驚見":8358,"武漢肺炎":8359,"北韓":8360,"平常":8361,"忍不住":8362,"投出":8363,"醫護":8364,"延續":8365,"本身":8366,"現象":8367,"依據":8368,"公費":8369,"暫停":8370,"演員":8371,"觀看":8372,"返台":8373,"桃園市":8374,"出貨":8375,"大使":8376,"的照片":8377,"是否有":8378,"便利":8379,"執政":8380,"大約":8381,"退場":8382,"件事":8383,"打疫苗":8384,"等等":8385,"旗下":8386,"湖人":8387,"為止":8388,"紅燈":8389,"這位":8390,"但在":8391,"大會":8392,"年級":8393,"很大":8394,"多歲男性":8395,"玻璃":8396,"不了":8397,"太陽":8398,"平時":8399,"房子":8400,"黨員":8401,"戴口罩解鎖":8402,"大新功能":8403,"幸福":8404,"眾人":8405,"?[":8406,"廁所":8407,"不及":8408,"協調":8409,"抱怨":8410,"桃猿":8411,"結構":8412,"東半部":8413,"出生":8414,"強勁":8415,"追蹤尋找":8416,"你這樣用":8417,"你想用":8418,"所得":8419,"搭載":8420,"不建議你這樣用":8421,"追蹤尋找什麼":8422,"快更新":8423,"快試試":8424,"快試試戴口罩解鎖":8425,"交往":8426,"這起":8427,"全身":8428,"惡化":8429,"詳細":8430,"通訊":8431,"顧問":8432,"首季":8433,"享受":8434,"介紹":8435,"全聯":8436,"業績":8437,"下跌":8438,"南投":8439,"接到":8440,"日的":8441,"理事":8442,"隊長":8443,"黑色":8444,"就連":8445,"藝人":8446,"輔導":8447,"深厚淵源":8448,"人工":8449,"反映":8450,"滿足":8451,"者的":8452,"網友們":8453,"台北報導":8454,"投球":8455,"在臉書社團":8456,"大眾運輸":8457,"偏愛色":8458,"深厚淵源曝光":8459,"上傳":8460,"我覺得":8461,"明確":8462,"推廣":8463,"數學":8464,"水果":8465,"申報":8466,"級分":8467,"黃金":8468,"外媒":8469,"等待":8470,"分析師":8471,"喜愛":8472,"查詢":8473,"售價":8474,"大聯盟":8475,"當年":8476,"檢疫所":8477,"寫下":8478,"有所":8479,"等到":8480,"股東":8481,"上課":8482,"免疫":8483,"失誤":8484,"縣長":8485,"記憶":8486,"年齡":8487,"採購":8488,"一人":8489,"用的":8490,"可能性":8491,"血清抗體":8492,"平安":8493,"攜手":8494,"逃逸":8495,"小姐":8496,"住在":8497,"宣告":8498,"尋求":8499,"日凌晨":8500,"每日":8501,"竟是":8502,"海軍":8503,"餐飲":8504,"論壇":8505,"蘋果不建議你這樣用":8506,"子女":8507,"授權":8508,"分別為":8509,"三星":8510,"獎金":8511,"目前已":8512,"中華職棒":8513,"培育":8514,"家的":8515,"很快":8516,"撞上":8517,"日常":8518,"障礙":8519,"市民":8520,"才發現":8521,"掀起":8522,"棒球":8523,"航班":8524,"一半":8525,"而言":8526,"儀式":8527,"志工":8528,"機器":8529,"意願":8530,"三立新聞網提醒您":8531,"消失":8532,"依舊":8533,"很好":8534,"不見":8535,"吃到":8536,"現代":8537,"變得":8538,"他人":8539,"或者":8540,"保育":8541,"海域":8542,"充電":8543,"出去":8544,"老人":8545,"草案":8546,"促進":8547,"對戰":8548,"犯案":8549,"不太":8550,"帳號":8551,"檢視":8552,"相較":8553,"參賽":8554,"只好":8555,"或許":8556,"有限":8557,"用水":8558,"女孩":8559,"留下":8560,"行經":8561,"人氣":8562,"不佳":8563,"人類":8564,"否認":8565,"近來":8566,"恐怖":8567,"最後一":8568,"公社":8569,"導演":8570,"資深":8571,"去年同期":8572,"罪嫌":8573,"並將":8574,"出發":8575,"議會":8576,"隨時":8577,"鄰居":8578,"飛機":8579,"商業":8580,"在這":8581,"處理器":8582,"疑慮":8583,"的部分":8584,"言論":8585,"名額":8586,"封鎖":8587,"而已":8588,"判斷":8589,"穿著":8590,"很有":8591,"現身":8592,"列車":8593,"籃網":8594,"公益":8595,"長輩":8596,"....":8597,"中南部":8598,"千元":8599,"好幾":8600,"味道":8601,"喝酒":8602,"創新高":8603,"火箭":8604,"計劃":8605,"打數":8606,"站在":8607,"縣府":8608,"合理":8609,"爆出":8610,"總計":8611,"優質":8612,"升溫":8613,"多名":8614,"多年":8615,"專屬":8616,"金門":8617,"同時也":8618,"太魯閣號":8619,"全數":8620,"分局長":8621,"多的":8622,"指導":8623,"清晨":8624,">~<":8625,"打完":8626,"過的":8627,"印象":8628,"異常":8629,"秘書":8630,"外推":8631,"感受":8632,"防禦率":8633,"上訴":8634,"也都":8635,"今晚":8636,"如有":8637,"若是":8638,"衣服":8639,"填就送奇摩":8640,"填就送奇摩值":8641,"家裡":8642,"海外":8643,"長照":8644,"定期":8645,"出一":8646,"供應鏈":8647,"事務":8648,"好像":8649,"本國籍":8650,"組成":8651,"中國的":8652,"人權":8653,"充滿":8654,"兩岸":8655,"旁邊":8656,"萬劑":8657,"航運":8658,"真的是":8659,"人潮":8660,"財報":8661,"加拿":8662,"無失分":8663,"紅色":8664,"泡麵":8665,"當初":8666,"受惠":8667,"外出":8668,"本次":8669,"眼睛":8670,"移工":8671,"疫情影響":8672,"也有網友":8673,"一旁":8674,"戶外":8675,"販售":8676,"賽前":8677,"進而":8678,"高層":8679,"台北市黨部":8680,"大生":8681,"守護":8682,"心臟":8683,"數字":8684,"有望":8685,"練習":8686,"程式":8687,"年底":8688,"核廢水":8689,"黨主席":8690,"-<":8691,"月初":8692,"簽署":8693,"三大":8694,"不然":8695,"卻被":8696,"薪水":8697,"血栓":8698,"台南市":8699,"事實上":8700,"施工":8701,"空軍":8702,"疫苗的":8703,"上前":8704,"力的":8705,"否則":8706,"常常":8707,"診斷":8708,"超越":8709,"實現":8710,"恐嚇":8711,"頻道":8712,"室內":8713,"病人":8714,"罕見":8715,"停車場":8716,"此事":8717,"法辦":8718,"主動通報":8719,"統一獅":8720,"不論":8721,"慢慢":8722,"能量":8723,"面板":8724,"救護車":8725,"外國":8726,"心情":8727,"意思":8728,"思考":8729,"可是":8730,"新品":8731,"月份":8732,"細節":8733,"報到":8734,"生日":8735,"研判":8736,"壓制":8737,"天的":8738,"泡泡":8739,"現行":8740,"聯絡":8741,"住戶":8742,"指標":8743,"而在":8744,"肥皂":8745,"天使":8746,"峰會":8747,"急救":8748,"所謂":8749,"提案":8750,"開啟":8751,"領袖":8752,"驚人":8753,"介入":8754,"合併":8755,"少女":8756,"我是":8757,"追查":8758,"季後賽":8759,"一軍":8760,"具體":8761,"地下":8762,"小米":8763,"想像":8764,"綠色":8765,"送往":8766,"顏色":8767,"的原因":8768,"per11":8769,"單場":8770,"身心":8771,"出面":8772,"外資":8773,"她說":8774,"進帳":8775,"遺體":8776,"!」、「":8777,"將近":8778,"損失":8779,"管道":8780,"關閉":8781,"運作":8782,"陷入":8783,"動力":8784,"記得":8785,"上任":8786,"延後":8787,"時刻":8788,"期徒刑":8789,"財產":8790,"打擊率":8791,"就像":8792,"趕快":8793,"學年度":8794,"老翁":8795,"震盪":8796,"台灣人":8797,"實習":8798,"晶圓":8799,"氣象":8800,"滿滿":8801,"總是":8802,"請先":8803,"預算":8804,"修法":8805,"設定":8806,"他是":8807,"明星":8808,"納入":8809,"規畫":8810,"還原":8811,"帳戶":8812,"最好":8813,"海巡":8814,"良好":8815,"面的":8816,"可惜":8817,"保持社交距離":8818,"釋出":8819,"冠狀病毒疾病":8820,"軍方":8821,"一口":8822,"中間":8823,"房務":8824,"核酸":8825,"起火":8826,"寵物":8827,"諮詢":8828,"關懷":8829,"飲酒":8830,"入住":8831,"強烈":8832,"藻礁":8833,"西武":8834,"車主":8835,"幼兒園":8836,"中壢":8837,"國防":8838,"罹難":8839,"進度":8840,"錄影":8841,"加拿大":8842,"一隻":8843,"看看":8844,"困擾":8845,"培養":8846,"長的":8847,"不當":8848,"基層":8849,"元的":8850,"分數":8851,"留意":8852,"背後":8853,"這款":8854,"點名":8855,"出現疑似症狀":8856,"宣導":8857,"推薦影音":8858,"一旦":8859,"大部分":8860,"的前":8861,"評委":8862,"勞動節":8863,"大多":8864,"學者":8865,"就被":8866,"稅後":8867,"都可以":8868,"重症":8869,"航空公司":8870,"不起":8871,"兩年":8872,"到案":8873,"半場":8874,"闖入":8875,"區的":8876,"想法":8877,"的事情":8878,"黨籍":8879,"列為":8880,"團結":8881,"組合":8882,"雞蛋":8883,"被害人":8884,"休旅":8885,"口味":8886,"寶寶":8887,"從事":8888,"文件":8889,"注射":8890,"搭乘大眾運輸":8891,"免付費":8892,"動態":8893,"將持續":8894,"擴散":8895,"限定":8896,"世代":8897,"廣播":8898,"開打":8899,"頭部":8900,"一壘":8901,"人物":8902,"全民":8903,"從小":8904,"看法":8905,"腫瘤":8906,"不同的":8907,"名字":8908,"理想":8909,"歷史新高":8910,"畢竟":8911,"遠距":8912,"帶回":8913,"民調":8914,"路段":8915,"全程":8916,"參選":8917,"坦承":8918,"例本土":8919,"短缺":8920,"能在":8921,"結帳":8922,"很多人":8923,"勝利":8924,"後方":8925,"重返":8926,"召集人":8927,"學院":8928,"行銷":8929,"觀念":8930,"還好":8931,"食材":8932,"弱勢":8933,"開出":8934,"以外":8935,"哪裡":8936,"昨晚":8937,"查獲":8938,"用於":8939,"規格":8940,"計程":8941,"宣傳":8942,"務必告知醫師旅遊史":8943,"保證":8944,"兩國":8945,"的美":8946,"車道":8947,"會不會":8948,"五一":8949,"名為":8950,"咳嗽":8951,"限量":8952,"今天在":8953,"女神":8954,"年紀":8955,"強制":8956,"落後":8957,"詐欺":8958,"在美國":8959,"她也":8960,"搜索":8961,"是要":8962,"水量":8963,"不慎":8964,"哥哥":8965,"火腿":8966,"短短":8967,"又有":8968,"進去":8969,"一波":8970,"不如":8971,"幾年":8972,"民間":8973,"。」[":8974,"主角":8975,"入學":8976,"形式":8977,"正妹":8978,"盤中":8979,"等級":8980,"答案":8981,"撥打防疫專線":8982,"大小":8983,"清真":8984,"測驗":8985,"好友":8986,"實力":8987,"松山":8988,"長達":8989,"計程車":8990,"例確診":8991,"天宮":8992,"目擊":8993,"貨車":8994,"開除":8995,"org10":8996,"最新報導":8997,"制裁":8998,"有助":8999,"農民":9000,"蘋果創辦人":9001,"以往":9002,"投票":9003,"疼痛":9004,"騷擾":9005,"國道":9006,"的工作":9007,"試圖":9008,"另有":9009,"拿出":9010,"洋基":9011,"生育":9012,"發表會":9013,"其實是蘋果創辦人":9014,"免付費防疫專線":9015,"三壘":9016,"合計":9017,"設立":9018,"新冠疫情":9019,"肥皂勤洗手":9020,"最好的":9021,"臨床":9022,"若身體不適":9023,"超前":9024,"施打疫苗":9025,"們的":9026,"大戰":9027,"引來":9028,"皮膚":9029,"路人":9030,"關於":9031,"顧客":9032,"並戴上口罩":9033,"依然":9034,"克蘭":9035,"其餘":9036,"逐步":9037,"嘗試":9038,"請主動通報":9039,"天內出現疑似症狀":9040,"回國若身體不適":9041,"請先撥打防疫專線":9042,"並戴上口罩儘速就醫":9043,"天內出現疑似症狀請先撥打防疫專線":9044,"回國若身體不適請主動通報":9045,"上週":9046,"時的":9047,"照護":9048,"信用":9049,"則表示":9050,"力挺":9051,"在今年":9052,"大利":9053,"委託":9054,"理解":9055,"承認":9056,"排隊":9057,"模擬":9058,"清真寺":9059,"圖片":9060,"盡快":9061,"一定會":9062,"連敗":9063,"那些":9064,"體溫":9065,"一種":9066,"債務":9067,"打破":9068,"農業":9069,"鋼鐵":9070,"防範新冠肺炎":9071,"坐在":9072,"破口":9073,"高溫":9074,"人確診":9075,"弟弟":9076,"完美":9077,"彼此":9078,"眾多":9079,"車子":9080,"出動":9081,"打電話":9082,"的風險":9083,"這也是":9084,"警員":9085,"慶祝":9086,"招生":9087,"監督":9088,"移民":9089,"關切":9090,"兩位":9091,"合照":9092,"快訊":9093,"愛的":9094,"成了":9095,"死者":9096,"號碼":9097,"調閱":9098,"兩大":9099,"句話":9100,"浪費":9101,"球團":9102,"大選":9103,"特定":9104,"稱為":9105,"若有":9106,"面積":9107,"實體":9108,"專利":9109,"誇張":9110,"個性":9111,"在此":9112,"房價":9113,"隔天":9114,"同住家人":9115,"百分點":9116,"於今日確診":9117,"公所":9118,"回答":9119,"的學生":9120,"請撥打":9121,"進步":9122,"尤其是":9123,"基於":9124,"現有":9125,"理念":9126,"東京奧運":9127,"篩檢":9128,"司法":9129,"身邊":9130,"上述":9131,"作戰":9132,"打線":9133,"生肖":9134,"行程":9135,"都被":9136,"上有":9137,"也可":9138,"亮眼":9139,"居然":9140,"每月":9141,"返回":9142,"進場":9143,"龍頭":9144,"即便":9145,"夜市":9146,"檢舉":9147,"細胞":9148,"美中":9149,"認真":9150,"不幸":9151,"個百分點":9152,"限時":9153,"題目":9154,"風格":9155,"例行":9156,"不一樣":9157,"並於":9158,"三分球":9159,"仔細":9160,"他認為":9161,"心的":9162,"提早":9163,"病房":9164,"陪伴":9165,"雨量":9166,"伊朗":9167,"應變":9168,"福利":9169,"防止":9170,"公民":9171,"外包":9172,"大讚":9173,"家族":9174,"替代":9175,"第一個":9176,"職缺":9177,"肌肉":9178,"還是要":9179,"董事會":9180,"不小心":9181,"全世界":9182,"水準":9183,"規則":9184,"不動":9185,"化的":9186,"年代":9187,"期滿":9188,"視為":9189,"痛批":9190,"門市":9191,"高級":9192,":「<":9193,"理事長":9194,"下週":9195,"具備":9196,"固定":9197,"送到":9198,"幸運":9199,"把握":9200,"本人":9201,"美方":9202,"身亡":9203,"上海":9204,"地位":9205,"英語":9206,"上面":9207,"地震":9208,"是什麼":9209,"東部":9210,"疫調":9211,"財務":9212,"長者":9213,"新冠疫苗":9214,"北港":9215,"熱情":9216,"被問":9217,"重申":9218,"已經有":9219,"車的":9220,"不願":9221,"在外":9222,"烏克蘭":9223,"祝福":9224,"話題":9225,"還說":9226,"一片":9227,"傷勢":9228,"僅有":9229,"洋投":9230,"興奮":9231,"開罰":9232,"集中檢疫所":9233,"少數":9234,"星座":9235,"星期":9236,"有可能":9237,"玩家":9238,"的情況下":9239,"不容易":9240,"優秀":9241,"副所長":9242,"戰機":9243,"調查中":9244,"富邦悍將":9245,"狗狗":9246,"相比":9247,"風暴":9248,"主義":9249,"啟用":9250,"妨害":9251,"群聚感染":9252,"一致":9253,"以色":9254,"出血":9255,"刺激":9256,"回收":9257,"幾個":9258,"記錄":9259,"歲以上":9260,"血管":9261,"部隊":9262,"負責人":9263,"姓女子":9264,"開槍":9265,"的影響":9266,"禮物":9267,"送辦":9268,"也不會":9269,"化學":9270,"資本":9271,"雲端":9272,"上路":9273,"使得":9274,"哪些":9275,"追求":9276,"這波":9277,"全校":9278,"副作用":9279,"訊後":9280,"的機率":9281,"三重":9282,"她在":9283,"火星":9284,"非法":9285,"以色列":9286,"付出":9287,"戰績":9288,"擔憂":9289,"透明":9290,"全館":9291,"嬌生":9292,"打出":9293,"期盼":9294,"法案":9295,"高階":9296,"按照":9297,"新疆":9298,"樂天桃猿":9299,"是由":9300,"警消":9301,"了一個":9302,"女童":9303,"學長":9304,"已在":9305,"接連":9306,"查看":9307,"人死亡":9308,"或無法":9309,"白天":9310,"一大":9311,"海上":9312,"聯賽":9313,"確診個案":9314,"例境外移入":9315,"入黨":9316,"景點":9317,"電廠":9318,"只剩":9319,"對決":9320,"成年":9321,"植物":9322,"焦點":9323,"籃球":9324,"繁星":9325,"親友":9326,"何時":9327,"好手":9328,"放寬":9329,"讓你":9330,"以北":9331,"保留":9332,"歧視":9333,"監控":9334,"總理":9335,"一邊":9336,"吃飯":9337,"是有":9338,"此役":9339,"禮拜":9340,"近年來":9341,"中和":9342,"偵查":9343,"再加上":9344,"分打點":9345,"商店":9346,"喊話":9347,"的行為":9348,"跡象":9349,"長榮":9350,"培訓":9351,"挑選":9352,"美日":9353,"應該要":9354,"允許":9355,"外觀":9356,"完工":9357,"小學":9358,"最強":9359,"法規":9360,"下殺":9361,"分手":9362,"單純":9363,"定位":9364,"應使用":9365,"自家":9366,"風波":9367,"出軌":9368,"權利":9369,"正面":9370,"麵包":9371,"大廠":9372,"萬美元":9373,"害怕":9374,"攜帶":9375,"沒人":9376,"!」<":9377,"學童":9378,"的關係":9379,"評論":9380,"務必戴上口罩":9381,"土耳":9382,"差異":9383,"拍下":9384,"貨幣":9385,"質詢":9386,"上下":9387,"人妻":9388,"增長":9389,"我想":9390,"有趣":9391,"一個人":9392,"保持社交距離時":9393,"回覆":9394,"日至":9395,"有著":9396,"演唱":9397,"語言":9398,"通緝":9399,"隊伍":9400,"高鐵":9401,"土耳其":9402,"之亂":9403,"住宅":9404,"公平":9405,"展望":9406,"春季":9407,"搭乘大眾運輸或無法":9408,"應使用肥皂勤洗手":9409,"搭乘大眾運輸或無法保持社交距離時":9410,"事態":9411,"在場":9412,"教官":9413,"涉案":9414,"變異":9415,"進駐":9416,"麻煩":9417,"上周":9418,"互相":9419,"人為":9420,"加州":9421,"多個":9422,"當事":9423,"盡量":9424,"直升":9425,"行駛":9426,"部署":9427,"三個":9428,"估計":9429,"危害":9430,"早期":9431,"主要是":9432,"友善":9433,"生的":9434,"男女":9435,"發動":9436,"類股":9437,"兩隊":9438,"商機":9439,"按摩":9440,"聯邦":9441,"過度":9442,"體重":9443,"今天上午":9444,"!「":9445,"上演":9446,"外長":9447,"此戰":9448,"聊天":9449,"今日推薦影音":9450,"合法":9451,"哪個":9452,"殺人":9453,"蛋白":9454,"解答":9455,"推出的":9456,"但仍":9457,"快樂":9458,"偏鄉":9459,"失敗":9460,"會談":9461,"繳出":9462,"認同":9463,"不料":9464,"乾淨":9465,"巴西":9466,"教室":9467,"決心":9468,"per12":9469,"相關的":9470,"小時候":9471,"基金會":9472,"不可能":9473,"市值":9474,"打席":9475,"校內":9476,"案發":9477,"看完":9478,"證券":9479,"出入":9480,"我就":9481,"百年":9482,"的國家":9483,"行車":9484,"零星":9485,"潛艦":9486,"的她":9487,"足夠":9488,"日本政府":9489,"了吧":9490,"前後":9491,"戰爭":9492,"才知道":9493,"日期":9494,"缺乏":9495,"處於":9496,"適當":9497,"開會":9498,"餐點":9499,"首位":9500,">..":9501,"主辦":9502,"包裝":9503,"居住":9504,"展示":9505,"文字":9506,"深入":9507,"相機":9508,"開設":9509,"提及":9510,"民宅":9511,"電梯":9512,"分配":9513,"妹妹":9514,"惡意":9515,"癌症":9516,"等於":9517,"粉專":9518,"地方政府":9519,"撞擊":9520,"改為":9521,"財經":9522,"一事":9523,"便當":9524,"子的":9525,"守備":9526,"種族":9527,"買房":9528,"主播":9529,"情勢":9530,"是一個":9531,"水電":9532,"媒體報導":9533,"假日":9534,"戰力":9535,"毛利率":9536,"的目標":9537,"罹患":9538,"舞台":9539,"萬名":9540,"主持人":9541,"大谷":9542,"幸好":9543,"物理":9544,"給我":9545,"義大利":9546,"門檻":9547,"大規模":9548,"當沖":9549,"還沒有":9550,"在於":9551,"更好":9552,"研議":9553,"角度":9554,"賺錢":9555,"這邊":9556,"短暫陣雨":9557,"基因":9558,"學年":9559,"發行":9560,"瞭解":9561,"讓民眾":9562,"還可以":9563,"驚呼":9564,"住家":9565,"充分":9566,"多雲":9567,"婦女":9568,"應對":9569,"的朋友":9570,"看過":9571,"祭出":9572,"選項":9573,"大甲":9574,"東森":9575,"決賽":9576,"處長":9577,"中崙":9578,"在一起":9579,"月的":9580,"聲稱":9581,"街頭":9582,"急診":9583,"試驗":9584,"護理師":9585,"國務":9586,"復甦":9587,"性別":9588,"武器":9589,"玩具":9590,"第五":9591,"股利":9592,"一處":9593,"三接":9594,"各大":9595,"巡邏":9596,"捐贈":9597,"樂觀":9598,"火警":9599,"發射":9600,"資安":9601,"代表處":9602,"保存":9603,"她們":9604,"所需":9605,"普通":9606,"事宜":9607,"太大":9608,"的生活":9609,"的比賽":9610,"的態度":9611,"移除":9612,"跟我":9613,"領航":9614,"不對":9615,"引擎":9616,"效率":9617,"新莊":9618,"立法":9619,"警報":9620,"遵守":9621,"醫護人員":9622,"一條":9623,"也曾":9624,"的東西":9625,"贏球":9626,"首勝":9627,"休旅車":9628,"不停":9629,"傷口":9630,"機械":9631,"舒服":9632,"電商":9633,"驚喜":9634,"高齡":9635,"台灣大":9636,"一份":9637,"搜尋":9638,"普遍":9639,"福島":9640,"高速":9641,"之際":9642,"前來":9643,"只會":9644,"外型":9645,"百貨":9646,"空中":9647,"搭機":9648,"森林":9649,"聯手":9650,"工人":9651,"手套":9652,"有民眾":9653,"氣炸":9654,"溫度":9655,"現任":9656,"腦死":9657,"霸凌":9658,"夢想家":9659,"不排除":9660,"先進":9661,"前方":9662,"國軍":9663,"在網路上":9664,"槍擊":9665,"為陰性":9666,"看來":9667,"給他":9668,"表揚":9669,"野生":9670,"靠近":9671,"不久":9672,"做到":9673,"失蹤":9674,"筆電":9675,"雨勢":9676,"餐敘":9677,"差點":9678,"是個":9679,"有期徒刑":9680,"模範":9681,"為本國籍":9682,"發票":9683,"的表現":9684,"這件事":9685,"本週":9686,"熟悉":9687,"示威":9688,"讓學生":9689,"台北市長":9690,">」、「":9691,"口感":9692,"平衡":9693,"永遠":9694,"見面":9695,"熱烈討論":9696,"仇恨":9697,"做的":9698,"塑膠":9699,"差距":9700,"廚房":9701,"忘記":9702,"貨機":9703,"org11":9704,"低於":9705,"時常":9706,"模樣":9707,"美味":9708,"過世":9709,"首先":9710,"人家":9711,"原住民":9712,"大阪":9713,"火力":9714,"登上":9715,"知情":9716,"豆腐":9717,"賓士":9718,"門票":9719,"難度":9720,"短暫雨":9721,"並不是":9722,"出了":9723,"對台灣":9724,"文學":9725,"漲價":9726,"發病":9727,"科醫師":9728,"頭痛":9729,"馬路":9730,"今天下午":9731,"孩子的":9732,"上壘":9733,"主張":9734,"形容":9735,"新生":9736,"相隔":9737,"複雜":9738,"貓咪":9739,"雙北":9740,"分別是":9741,"監視器畫面":9742,"兩次":9743,"卻是":9744,"命中":9745,"昏迷":9746,"英雄":9747,"貨櫃":9748,">+":9749,"一週":9750,"盤查":9751,"這場比賽":9752,"新型":9753,"但也":9754,"優異":9755,"將他":9756,"房東":9757,"故意":9758,"主管機關":9759,"秘書長":9760,"左投":9761,"支出":9762,"玩笑":9763,"隱私":9764,"相關新聞影音":9765,"上千":9766,"卻在":9767,"旗艦":9768,"沒辦法":9769,"營養師":9770,"信用卡":9771,"生意":9772,"當日":9773,"等症狀":9774,"致力":9775,"長大":9776,"院所":9777,"難道":9778,"體系":9779,"以免":9780,"出售":9781,"執勤":9782,"容量":9783,"約有":9784,"被打":9785,"該公司":9786,"過往":9787,"前的":9788,"流程":9789,"漂亮":9790,"私人":9791,"酒店":9792,"飼主":9793,"不在":9794,"不容":9795,"分為":9796,"女王":9797,"工地":9798,"有一名":9799,"毫米":9800,"笑翻":9801,"變遷":9802,"審理":9803,"落在":9804,"防治":9805,"但因":9806,"助理":9807,"大漲":9808,"數十":9809,"時尚":9810,"舉動":9811,"飛彈":9812,"下周":9813,"受影響":9814,"排行":9815,"激烈":9816,"總共":9817,"公布的":9818,"嚇壞":9819,"每個人":9820,"裁判":9821,"機組人員":9822,"下半年":9823,"代理":9824,"差不多":9825,"愛情":9826,"明明":9827,"治安":9828,"西亞":9829,"隊史":9830,"騎車":9831,"網友在":9832,"出現在":9833,"單身":9834,"國文":9835,"尷尬":9836,"後面":9837,"步驟":9838,"火車":9839,"超市":9840,"過失":9841,"顯然":9842,"太太":9843,"日職":9844,"翻攝":9845,"課綱":9846,"雜誌":9847,"食用":9848,"大家都":9849,"多久":9850,"期望":9851,"演藝":9852,"火鍋":9853,"藍色":9854,"讓原":9855,"高於":9856,"網友熱議":9857,"美國的":9858,"大考":9859,"我也":9860,"早已":9861,"的他":9862,"公路":9863,"判刑":9864,"秘密":9865,"羈押":9866,"軌道":9867,"辨識":9868,"延伸閱讀":9869,"領航猿":9870,"修復":9871,"拿著":9872,"澎湖":9873,"退出":9874,"人都":9875,"反彈":9876,"撞死":9877,"材料":9878,"火勢":9879,"談判":9880,"全年":9881,"的手":9882,"科系":9883,"耳機":9884,"報導指出":9885,"新冠病毒":9886,"直升機":9887,"出戰":9888,"同一":9889,"屆時":9890,"捐款":9891,"洗衣":9892,"前進":9893,"對流":9894,"會中":9895,"算是":9896,"談到":9897,"請勿":9898,"工程師":9899,"新款":9900,"有什麼":9901,"象徵":9902,"重啟":9903,"指揮中心表示":9904,"才剛":9905,"製程":9906,"試場":9907,"讓我":9908,"迎接":9909,"更多新":9910,"中繼":9911,"做法":9912,"是他":9913,"求償":9914,"爆炸":9915,"男生":9916,"週刊":9917,"印度的":9918,"位在":9919,"境內":9920,"失智":9921,"旱象":9922,"表態":9923,"驅逐":9924,"嚴重的":9925,"一堆":9926,"有利":9927,"洋將":9928,"罰金":9929,"較為":9930,"遊行":9931,"陌生":9932,"出手":9933,"各式":9934,"捕手":9935,"睡覺":9936,"停辦":9937,"回報":9938,"建置":9939,"離職":9940,"動物園":9941,"仍是":9942,"信任":9943,"天然":9944,"的不":9945,"主人":9946,"慘遭":9947,"看不":9948,"許可":9949,"酒測":9950,"雙語":9951,"第一線":9952,"到現在":9953,"後就":9954,"據悉":9955,"求救":9956,"求職":9957,"酒精":9958,"使用的":9959,"太空人":9960,"半夜":9961,"探索":9962,"比數":9963,"瘋狂":9964,"的支持":9965,"稽查":9966,"親王":9967,"」?":9968,"不禁":9969,"保養":9970,"見到":9971,"販毒":9972,"其他人":9973,"名機師":9974,"場先發":9975,"技能":9976,"攻勢":9977,"罰款":9978,"並表示":9979,"月間":9980,"演說":9981,"職務":9982,"部落":9983,"首例":9984,"一代":9985,"世紀":9986,"吃的":9987,"本周":9988,"用品":9989,"肚子":9990,"遭遇":9991,"一時":9992,"新人":9993,"滿壘":9994,"短期":9995,"表情":9996,"試題":9997,"記者會上":9998,"哈哈":9999,"愛心":10000,"買了":10001,"復出":10002,"日媒":10003,"爆紅":10004,"爸媽":10005,"追平":10006,"重摔":10007,"印尼籍":10008,"專訪":10009,"有許多":10010,"秩序":10011,"車廂":10012,"酒吧":10013,"頭殼":10014,"第二季":10015,"下滑":10016,"內湖":10017,"新鮮":10018,"痛苦":10019,"的確":10020,"踴躍":10021,"就是要":10022,"博士":10023,"小客":10024,"房地":10025,"發起":10026,"陽明":10027,"本季第":10028,"占比":10029,"型的":10030,"是為了":10031,"曾到":10032,"看著":10033,"花了":10034,"衛星":10035,"過量":10036,"旅遊泡泡":10037,"主因":10038,"月起":10039,"租屋":10040,"血壓":10041,"阿富":10042,"首相":10043,"更多東森":10044,"高中生":10045,"將是":10046,"留在":10047,"繳稅":10048,"興建":10049,"讓大家":10050,"但這":10051,"冷氣":10052,"徵才":10053,"性能":10054,"意味":10055,"署長":10056,"老實":10057,"裡的":10058,"迄今":10059,"還不":10060,"更多新頭殼":10061,"更多新頭殼報導":10062,"中方":10063,"作法":10064,"回去":10065,"小三":10066,"林口":10067,"此舉":10068,"漲停":10069,"開學":10070,"陪同":10071,"管制措施":10072,"將由":10073,"比特":10074,"配戴口罩":10075,"骨折":10076,"阿富汗":10077,"人次":10078,"出版":10079,"受困":10080,"單季":10081,"日到":10082,"早就":10083,"登板":10084,"的影片":10085,"行業":10086,"印地":10087,"布局":10088,"才有":10089,"標示":10090,"被告":10091,"偷渡":10092,"多了":10093,"我要":10094,"求助":10095,"派員":10096,"白沙":10097,"虧損":10098,"通通":10099,"更多相關新聞":10100,"自己是":10101,"政府的":10102,"交給":10103,"共計":10104,"再生":10105,"奇怪":10106,"微博":10107,"的活動":10108,"陽春":10109,"入境後":10110,"?」<":10111,"富豪":10112,"水氣":10113,"游泳":10114,"為此":10115,"義務":10116,"重創":10117,"國家的":10118,"受訪時":10119,"下令":10120,"停課":10121,"日報":10122,"會被":10123,"每人":10124,"親子":10125,"防衛":10126,"巫師":10127,"引述":10128,"後再":10129,"憂心":10130,"登錄":10131,"緩解":10132,"美股":10133,"群組":10134,"車內":10135,"可以看到":10136,"不需要":10137,"俄國":10138,"全家":10139,"動手":10140,"座位":10141,"校友":10142,"球星":10143,"相互":10144,"致死":10145,"甚至還":10146,"一顆":10147,"列入":10148,"加盟":10149,"的貼文":10150,"簽約":10151,"劑疫苗":10152,"季增":10153,"循環":10154,"會長":10155,"的就是":10156,"精準":10157,"專案小組":10158,"房市":10159,"政黨":10160,"鄰近":10161,"阻止":10162,"loc3":10163,"警方調查":10164,"獲報後":10165,"印地安":10166,"人體":10167,"企圖":10168,"住宿":10169,"宗教":10170,"歷經":10171,"總裁":10172,"貸款":10173,"連鎖":10174,"工作的":10175,"多種":10176,"底下":10177,"有意":10178,"維修":10179,"補習":10180,"部位":10181,"預告":10182,"馬來":10183,"驗出":10184,"一名男子":10185,"緊急事態":10186,"截至目前":10187,"個資":10188,"再見":10189,"天後":10190,"抗疫":10191,"時機":10192,"獅隊":10193,"獨家":10194,"酒後":10195,"隊員":10196,"住處":10197,"停在":10198,"又是":10199,"大麻":10200,"心中":10201,"物料":10202,"重建":10203,"人們":10204,"傷亡":10205,"徹底":10206,"聚集":10207,"警方表示":10208,"以為是":10209,"名學生":10210,"扮演":10211,"美麗":10212,"要有":10213,"跑到":10214,"之間的":10215,"不應":10216,"也希望":10217,"但卻":10218,"但她":10219,"到的":10220,"援助":10221,"收容":10222,"組長":10223,"過了":10224,"一名女網友":10225,"傳產":10226,"優於":10227,"全美":10228,"則說":10229,"口角":10230,"大多數":10231,"新機":10232,"牛肉":10233,"的感覺":10234,"途中":10235,"結束後":10236,"中山":10237,"嚇得":10238,"大火":10239,"幅度":10240,"找不到":10241,"日表示":10242,"營造":10243,"黨內":10244,"電子股":10245,"不法":10246,"犧牲":10247,"福建":10248,"跌幅":10249,"還有人":10250,"身分證":10251,"大考中心":10252,"全都":10253,"批准":10254,"但因為":10255,"和解":10256,"日後":10257,"用來":10258,"警覺":10259,"金牌":10260,"三年":10261,"下旬":10262,"地說":10263,"婚禮":10264,"幫派":10265,"次數":10266,"清空":10267,"今日表示":10268,"白沙屯":10269,"協商":10270,"圖書":10271,"會後":10272,"有時":10273,"比重":10274,"獎勵":10275,"馬祖":10276,"地區的":10277,"中華民國":10278,">。[":10279,"一審":10280,"下班":10281,"取代":10282,"視察":10283,"顯著":10284,">、、":10285,"追蹤報導":10286,"自行車":10287,"情侶":10288,"日子":10289,"明日":10290,"智能":10291,"樣子":10292,"欣賞":10293,"里長":10294,"重量":10295,"公寓":10296,"女學生":10297,"宿舍":10298,"就可":10299,"罰鍰":10300,"過後":10301,"震驚":10302,"早在":10303,"睡眠":10304,"虛擬":10305,"輝瑞":10306,"開轟":10307,"動能":10308,"很高":10309,"得以":10310,"煞車":10311,"賽季":10312,"身份":10313,"衛生單位":10314,"位數":10315,"冷凍":10316,"家電":10317,"專門":10318,"巨大":10319,"此時":10320,"海底":10321,"盡速":10322,"不行":10323,"全隊":10324,"周年":10325,"對上":10326,"廢棄":10327,"月薪":10328,"漏洞":10329,"考題":10330,"處置":10331,"通車":10332,"驚傳":10333,"中表示":10334,"原先":10335,"大專":10336,"歌手":10337,"考場":10338,"這兩":10339,"更多追蹤報導":10340,"聯合品牌":10341,"並以":10342,"刻意":10343,"已於":10344,"年起":10345,"校慶":10346,"被敲":10347,"額外":10348,"點出":10349,"疫苗施打":10350,"外交部":10351,"下場":10352,"不大":10353,"再來":10354,"協定":10355,"將有":10356,"成就":10357,"景氣":10358,"湧入":10359,"特地":10360,"與中國":10361,"達人":10362,"間的":10363,"集結":10364,"網友紛紛":10365,"安全的":10366,"彰化縣":10367,"做了":10368,"勝投":10369,"嬰兒":10370,"打了":10371,"滿意":10372,"終止":10373,"觸控":10374,"金屬":10375,"馬來西亞":10376,"下方":10377,"刑事":10378,"有了":10379,"福原":10380,"站上":10381,"華為":10382,"輸入":10383,"開盤":10384,"受害者":10385,"一件":10386,"五月":10387,"人事":10388,"吃緊":10389,"大盤":10390,"始終":10391,"得點":10392,"以上的":10393,"不易":10394,"乾旱":10395,"小的":10396,"成熟":10397,"洗澡":10398,"當作":10399,"讓他們":10400,"露出":10401,"嬌生疫苗":10402,"一項":10403,"另一個":10404,"最危險":10405,"橡皮":10406,"無線":10407,"犯嫌":10408,"足球":10409,"適用":10410,"預定":10411,"首都":10412,"體操":10413,"現在的":10414,"前總統":10415,"我會":10416,"效益":10417,"氣氛":10418,"當前":10419,"裝備":10420,"豪宅":10421,"遼寧":10422,"鋒面通過":10423,"氣候變遷":10424,"傷者":10425,"多達":10426,"拍到":10427,"未能":10428,"甜點":10429,"的關鍵":10430,"美女":10431,"梅雨季":10432,">+<":10433,"國安":10434,"在中國":10435,"很久":10436,"德里":10437,"找出":10438,"有很多":10439,"眼鏡":10440,"驚訝":10441,"一台":10442,"到來":10443,"則有":10444,"南下":10445,"日出現":10446,"服飾":10447,"樣的":10448,"涵蓋":10449,"電競":10450,"頭髮":10451,"飾演":10452,"新北市長":10453,"月中旬":10454,"罹難者":10455,"動機":10456,"台鐵":10457,"寫道":10458,"推進":10459,"期限":10460,"東北":10461,"相處":10462,"稍微":10463,"自稱":10464,"致詞":10465,"討厭":10466,"稅後純益":10467,"制止":10468,"商圈":10469,"在疫情":10470,"時事":10471,"溫暖":10472,"車頭":10473,"選人":10474,"怎麼辦":10475,"傍晚":10476,"多項":10477,"也因此":10478,"女方":10479,"會再":10480,"深刻":10481,"不管是":10482,"將與":10483,"拍賣":10484,"會是":10485,"花東":10486,"返家":10487,"日前在":10488,"二審":10489,"入侵":10490,"內野":10491,"堅定":10492,"大關":10493,"打氣":10494,"棒球場":10495,"業界":10496,"更多東森新聞報導":10497,"公佈":10498,"嚇到":10499,"多位":10500,"彈性":10501,"挹注":10502,"施壓":10503,"條款":10504,"火燒":10505,"無關":10506,"說要":10507,"創業":10508,"博物":10509,"的需求":10510,"表明":10511,"西哥":10512,"震撼":10513,"一對":10514,"因而":10515,"媳婦":10516,"尺寸":10517,"找來":10518,"查緝":10519,"氣溫":10520,"現況":10521,"雷達":10522,"新聞稿":10523,"婚後":10524,"孩童":10525,"手法":10526,"收盤":10527,"效能":10528,"日內":10529,"更好的":10530,"紅包":10531,"職員":10532,"近況":10533,"部份":10534,">》":10535,"原物料":10536,"墨西哥":10537,"技巧":10538,"探視":10539,"權力":10540,"熱量":10541,"究竟":10542,"能否":10543,"加工":10544,"打到":10545,"推測":10546,"此案":10547,"率先":10548,"與會":10549,"行情":10550,"語音":10551,"發生一起":10552,"經濟成長":10553,"嘉義縣":10554,"當事人":10555,"主投":10556,"加護":10557,"就不":10558,"悲劇":10559,"檢警":10560,"無安打":10561,"的疫苗":10562,"舒適":10563,"說話":10564,"機師確診":10565,"個小時":10566,"全中":10567,"全體":10568,"屋主":10569,"應考":10570,"模組":10571,"歷程":10572,"的說法":10573,"防守":10574,"接觸史":10575,"下架":10576,"吞下":10577,"小型":10578,"度過":10579,"打臉":10580,"敏感":10581,"斯拉":10582,"的防疫":10583,"特別是":10584,"出來的":10585,"福原愛":10586,"中文":10587,"原料":10588,"大三":10589,"奶茶":10590,"後發現":10591,"現階段":10592,"的台灣":10593,"聯名":10594,"輔助":10595,"轉移":10596,"返國":10597,"都市":10598,"光是":10599,"共享":10600,"戲劇":10601,"的可能性":10602,"駭客":10603,"提醒民眾":10604,"因應新冠肺炎疫情":10605,"一陣":10606,"保全":10607,"冰箱":10608,"出遊":10609,"勇敢":10610,"大師":10611,"那邊":10612,"鄉民":10613,"面上":10614,"公司的":10615,"不動產":10616,"演唱會":10617,"三天":10618,"交換":10619,"十大":10620,"國會":10621,"將以":10622,"就已經":10623,"感受到":10624,"成人":10625,"更大":10626,"蔓延":10627,"註冊":10628,"財政":10629,"關節":10630,"今年的":10631,"第一名":10632,"拜登政府":10633,"中有":10634,"來愈":10635,"傳遞":10636,"千人":10637,"司令":10638,"捍衛":10639,"更為":10640,"最重要":10641,"核准":10642,"水源":10643,"無限":10644,"科目":10645,"稅率":10646,"終結":10647,"網上":10648,"駐日":10649,"印地安人":10650,"可怕":10651,"女大生":10652,"毀損":10653,"淨利":10654,"是否會":10655,"呼籲民眾":10656,"一周":10657,"偵測":10658,"小弟":10659,"居檢":10660,"廣場":10661,"毫無":10662,"現實":10663,"祈福":10664,"要不要":10665,"週年":10666,"阿公":10667,"博物館":10668,"來不及":10669,"入海":10670,"公頃":10671,"力道":10672,"行徑":10673,"通路":10674,"鏡週刊":10675,"如果是":10676,"以利":10677,"做為":10678,"到現場":10679,"有時候":10680,"核四":10681,"正義":10682,"監獄":10683,"看出":10684,"身穿":10685,"疫情監測":10686,"生活中心":10687,"在全球":10688,"愈來愈":10689,"收購":10690,"聚會":10691,"華裔":10692,"頻頻":10693,"其中有":10694,"運動影音":10695,"公務員":10696,"偽造":10697,"商務":10698,"學期":10699,"年間":10700,"戀愛":10701,"放鬆":10702,"檔案":10703,"無力":10704,"牛棚":10705,"特斯拉":10706,"集體":10707,"表示自己":10708,"每股純益":10709,"精彩運動影音":10710,"及其":10711,"安裝":10712,"展覽":10713,"污染":10714,"減輕":10715,"生氣":10716,"豬肉":10717,"核酸檢測":10718,"被問到":10719,"橡皮艇":10720,"不變":10721,"中美":10722,"完畢":10723,"慢性":10724,"民生":10725,"漢堡":10726,"繳納":10727,"藥品":10728,"上門":10729,"主權":10730,"偶像":10731,"則在":10732,"台新":10733,"後才":10734,"收費":10735,"派遣":10736,"買賣":10737,"黑幫":10738,"基本上":10739,"不合":10740,"北投":10741,"同行":10742,"強勢":10743,"心裡":10744,"成效":10745,"滾地球":10746,"該校":10747,"年內":10748,"往往":10749,"裁定":10750,"連接":10751,"類的":10752,"陰性報告":10753,"一面":10754,"中火":10755,"初期":10756,"可說是":10757,"台大":10758,"在內":10759,"太過":10760,"成的":10761,"牛奶":10762,"連署":10763,"進攻":10764,"頒獎":10765,"高檔":10766,"一段時間":10767,"正是":10768,"水區":10769,"汽油":10770,"西瓜":10771,"響應":10772,"聯合聲明":10773,"召開記者會":10774,"機器人":10775,"依規定":10776,"備詢":10777,"很大的":10778,"所屬":10779,"瓦斯":10780,"私立":10781,"迎來":10782,"這對":10783,"點半":10784,"如果有":10785,"失聯":10786,"最愛":10787,"服員":10788,"真是":10789,"雙城":10790,"常見的":10791,"官兵":10792,"宣言":10793,"志願":10794,"成分":10795,"招牌":10796,"攻城":10797,"滅證":10798,"落差":10799,"比特幣":10800,"供稱":10801,"倒數":10802,"動畫":10803,"厲害":10804,"完善":10805,"對台":10806,"幹部":10807,"搜救":10808,"擦撞":10809,"有個":10810,"的畫面":10811,"支持者":10812,"中斷":10813,"之子":10814,"入場":10815,"拿來":10816,"氧化":10817,"獨特":10818,"用途":10819,"見狀":10820,"一口氣":10821,"上線":10822,"不已":10823,"作家":10824,"列居家隔離":10825,"吸收":10826,"四大":10827,"我都":10828,"效力":10829,"波及":10830,"的車":10831,"的相關":10832,"較去年同期":10833,"在臉書上":10834,"主力":10835,"午餐":10836,"受理":10837,"各校":10838,"增強":10839,"搶先":10840,"本月":10841,"果粉":10842,"獨自":10843,"產學":10844,"釣出":10845,"難得":10846,"雷雨":10847,"不要再":10848,"上一軍":10849,"並與":10850,"各自":10851,"回台":10852,"專頁":10853,"對應":10854,"導入":10855,"搖頭":10856,"有無":10857,"有一個":10858,"發電":10859,"百人":10860,"西半部":10861,"隱藏":10862,"確診的":10863,"吃到飽":10864,"並依":10865,"子宮":10866,"店內":10867,"性侵":10868,"未料":10869,"比照":10870,"除此":10871,"雇主":10872,"亮相":10873,"報考":10874,"推文":10875,"歲男":10876,"租金":10877,"訴求":10878,"這份":10879,"這時":10880,"台灣是":10881,"國內新增":10882,"不讓":10883,"副總統":10884,"去過":10885,"手上":10886,"最美":10887,"朝天宮":10888,"監管":10889,"缺席":10890,"請求":10891,"財運":10892,"未來的":10893,"事項":10894,"娃娃":10895,"挑釁":10896,"改造":10897,"萬例":10898,"per13":10899,"今日上午":10900,"老闆娘":10901,"邊境管制措施":10902,"亮點":10903,"其次":10904,"出院":10905,"奧斯":10906,"姓教練":10907,"存款":10908,"宣稱":10909,"登山":10910,"總監":10911,"不懂":10912,"主嫌":10913,"反擊":10914,"在去年":10915,"大礙":10916,"完封":10917,"找回":10918,"檢出":10919,"獲選":10920,"王子":10921,"發放":10922,"的安全":10923,"美金":10924,"警戒":10925,"譴責":10926,"長時間":10927,"移送法辦":10928,"一帶":10929,"一早":10930,"時程":10931,"最重要的":10932,"核定":10933,"為台灣":10934,"珍惜":10935,"融入":10936,"讓網友":10937,"送餐":10938,"進展":10939,"遺憾":10940,"量測":10941,"予以":10942,"勢力":10943,"深度":10944,"的消息":10945,"落網":10946,"請問":10947,"跑者":10948,"遠離":10949,"陳男":10950,"之中":10951,"性感":10952,"感嘆":10953,"日舉行":10954,"男人":10955,"發炎":10956,"等相關":10957,"經紀":10958,"舅舅":10959,"訴訟":10960,"降至":10961,"隨便":10962,"研究所":10963,"外包商":10964,"備受":10965,"平日":10966,"恐慌":10967,"版權":10968,"的經驗":10969,"盈餘":10970,"碰到":10971,"聚焦":10972,"自信":10973,"花費":10974,"沒有任何":10975,"影片中":10976,"死亡人數":10977,"一整":10978,"客場":10979,"層樓":10980,"心跳":10981,"招募":10982,"撤離":10983,"台灣時間":10984,"傳播鏈":10985,"除此之外":10986,"也已":10987,"判處":10988,"如同":10989,"專注":10990,"日公布":10991,"是誰":10992,"條文":10993,"縮短":10994,"進到":10995,"關卡":10996,"更多鏡週刊":10997,"中部以北":10998,"更多鏡週刊報導":10999,"修改":11000,"十年":11001,"囂張":11002,"場域":11003,"大學生":11004,"奶奶":11005,"好轉":11006,"洛杉":11007,"熱心":11008,"穿上":11009,"迎戰":11010,"中常":11011,"代工":11012,"拉開":11013,"會持續":11014,"班機":11015,"發聲":11016,"這回":11017,"都已經":11018,"重複":11019,"難過":11020,"青少年":11021,"類型":11022,"上去":11023,"前夕":11024,"嚴防":11025,"天母":11026,"激勵":11027,"軍人":11028,"這張":11029,"重傷":11030,"門診":11031,"阿里":11032,"」,「":11033,"加油站":11034,"不堪":11035,"日進行":11036,"日宣布":11037,"是以":11038,"是台灣":11039,"滅火":11040,"而不是":11041,"色的":11042,"衝撞":11043,"還被":11044,"限水":11045,"檢疫期滿":11046,"的重要性":11047,"上次":11048,"台美":11049,"姓名":11050,"據點":11051,"深受":11052,"溫馨":11053,"瘋傳":11054,"西蘭":11055,"要在":11056,"販賣":11057,"競爭力":11058,"公務人員":11059,"洛杉磯":11060,"仍未":11061,"承擔":11062,"指稱":11063,"支撐":11064,"等地":11065,"遊覽":11066,"活動史":11067,"攻城獅":11068,"不出":11069,"也提到":11070,"受損":11071,"和其他":11072,"引進":11073,"減肥":11074,"連環":11075,"不必":11076,"他就":11077,"函送":11078,"夏天":11079,"復健":11080,"案情":11081,"被發現":11082,"跌倒":11083,"風景":11084,"高峰":11085,"供應商":11086,"宣告不治":11087,"一款":11088,"傳聞":11089,"利亞":11090,"可達":11091,"往前":11092,"擴張":11093,"攀升":11094,"歲男童":11095,"波疫情":11096,"脂肪":11097,"與邊境管制措施":11098,"走到":11099,"飼養":11100,"第一階段":11101,"舉辦的":11102,"保護力":11103,"疫情監測與邊境管制措施":11104,"候選人":11105,"停電":11106,"圖擷":11107,"地上":11108,"多樣":11109,"大人":11110,"救治":11111,"東奧":11112,"次保送":11113,"涉毒":11114,"為例":11115,"紐西蘭":11116,"要去":11117,"走勢":11118,"配備":11119,"目前已經":11120,"國際社會":11121,"社區感染":11122,"加護病房":11123,"一日":11124,"保單":11125,"報復":11126,"對他":11127,"拉警報":11128,"查核":11129,"格式":11130,"櫃檯":11131,"認知":11132,"轄區":11133,"自己在":11134,"變異株":11135,"一群":11136,"分的":11137,"加班":11138,"啦啦":11139,"時段":11140,"架構":11141,"給付":11142,"謹慎":11143,"遊樂":11144,"適應":11145,"網友紛紛留言":11146,"其他地區":11147,"附近的":11148,"交保":11149,"另一名":11150,"名譽":11151,"多年來":11152,"寫著":11153,"引導":11154,"採訪":11155,"演習":11156,"火災":11157,"視覺":11158,"輩子":11159,"遭受":11160,"支持台灣":11161,"一中":11162,"上限":11163,"人選":11164,"場面":11165,"市議員":11166,"德州":11167,"播放":11168,"果然":11169,"相似":11170,"等罪":11171,"讓台灣":11172,"通膨":11173,"還是會":11174,"也指出":11175,"信眾":11176,"動保":11177,"取自":11178,"既然":11179,"正當":11180,"比率":11181,"物質":11182,"獎項":11183,"私下":11184,"邊緣":11185,"提供的":11186,"好了":11187,"平等":11188,"熱鬧":11189,"被警方":11190,"說的":11191,"預報":11192,"飛球":11193,"在臉書發文":11194,"?」,":11195,"不舒服":11196,"先是":11197,"場地":11198,"外洩":11199,"密碼":11200,"庫存":11201,"意圖":11202,"水位":11203,"蔬菜":11204,"設有":11205,"贏得":11206,"配置":11207,"可以在":11208,"有一些":11209,"低調":11210,"國產":11211,"局勢":11212,"浪漫":11213,"臉部":11214,"運送":11215,"也可能":11216,"兩種":11217,"更高":11218,"板橋":11219,"破千":11220,"這就是":11221,"配件":11222,"颱風":11223,"智慧型":11224,"消防局":11225,"不便":11226,"克力":11227,"大方":11228,"毆打":11229,"比起":11230,"游擊":11231,"無罪":11232,"的女":11233,"美術":11234,"與台灣":11235,"訊號":11236,"非裔":11237,"擴大採檢":11238,"學子":11239,"巨人":11240,"投稿":11241,"球季":11242,"發佈":11243,"而非":11244,"訂定":11245,"走向":11246,"檢驗中":11247,"無論是":11248,"不受":11249,"代言":11250,"假期":11251,"內心":11252,"兼顧":11253,"在大":11254,"專區":11255,"屋內":11256,"機密":11257,"治理":11258,"石門":11259,"自小客":11260,"再創":11261,"參議員":11262,"或其他":11263,"打卡":11264,"投訴":11265,"敲安":11266,"智庫":11267,"法第":11268,"當選":11269,"編輯":11270,"進出":11271,"闖紅燈":11272,"不少民眾":11273,"一舉":11274,"不只是":11275,"供水":11276,"按讚":11277,"教士":11278,"的情形":11279,"羨慕":11280,"處罰":11281,"財神":11282,"賽車":11283,"驗證":11284,"org12":11285,"疫情升溫":11286,"台北市議員":11287,"照片中":11288,"另一半":11289,"不實":11290,"新興":11291,"東區":11292,"歌曲":11293,"爺爺":11294,"理賠":11295,"當成":11296,"自助":11297,"萬戶":11298,"訂閱":11299,"講座":11300,"鐵路":11301,"難免":11302,"高等":11303,"但有":11304,"分區":11305,"地面":11306,"實務":11307,"審慎":11308,"度的":11309,"手段":11310,"揭露":11311,"這類":11312,"上個月":11313,"享有":11314,"剛剛":11315,"折扣":11316,"獅子":11317,"環團":11318,"病情":11319,"老虎":11320,"辣椒":11321,"選民":11322,"學生的":11323,"所有的":11324,"人工智慧":11325,"中崙派出所":11326,"下次":11327,"休閒":11328,"分之":11329,"因疫情":11330,"在野":11331,"審議":11332,"牛排":11333,"獲准":11334,"稱讚":11335,"西區":11336,"警界":11337,"適時":11338,"防制":11339,"製造業":11340,"太空站":11341,"排行榜":11342,"判定":11343,"到處":11344,"可透過":11345,"名稱":11346,"契約":11347,"方男":11348,"更換":11349,"為題":11350,"結局":11351,"聲請":11352,"西方":11353,"買到":11354,"面向":11355,"影響力":11356,"分享的貼文":11357,"國務卿":11358,"交手":11359,"夜間":11360,"客家":11361,"廣大":11362,"曾有":11363,"次長":11364,"獨行":11365,"用心":11366,"的聲音":11367,"船員":11368,"隻蟑螂":11369,"預警":11370,"宛如":11371,"打工":11372,"花旗":11373,"超標":11374,"銷量":11375,"沒有人":11376,"去年底":11377,"個人申請":11378,"倒地":11379,"停水":11380,"公升":11381,"升高":11382,"場景":11383,"她表示":11384,"氣得":11385,"老饕":11386,"自從":11387,"舞蹈":11388,"目前的":11389,"我們會":11390,"說明會":11391,"內政":11392,"單月":11393,"地圖":11394,"外面":11395,"車用":11396,"開玩笑":11397,"造成的":11398,"詐騙集團":11399,"陽春砲":11400,"夫婦":11401,"廣泛":11402,"提名":11403,"決策":11404,"腳步":11405,"走了":11406,"部會":11407,"多歲女性":11408,"假的":11409,"入口":11410,"型態":11411,"它的":11412,"局投球":11413,"屍體":11414,"授課":11415,"效應":11416,"流量":11417,"碰撞":11418,"觸身":11419,"進香":11420,"所謂的":11421,"評委召集人":11422,"不該":11423,"也強調":11424,"困境":11425,"感恩":11426,"持刀":11427,"期許":11428,"未經":11429,"警示":11430,"趁著":11431,"較高":11432,"目前在":11433,"關鍵字":11434,"數據顯示":11435,"信義":11436,"新制":11437,"月下旬":11438,"演講":11439,"病床":11440,"篩選":11441,"荷蘭":11442,"詭異":11443,"走出":11444,"轉換":11445,"那種":11446,"發展的":11447,"即日起至":11448,"健保卡":11449,"遊覽車":11450,"也不是":11451,"儲存":11452,"孕婦":11453,"對比":11454,"後悔":11455,"我在":11456,"描述":11457,"有錢":11458,"波鋒面":11459,"災難":11460,"為期":11461,"石頭":11462,"美式":11463,"轉播":11464,"送給":11465,"阿姨":11466,"生育率":11467,"劈腿":11468,"台積":11469,"季節":11470,"展出":11471,"幹嘛":11472,"很少":11473,"損害":11474,"收益":11475,"期貨":11476,"汙染":11477,"淇淋":11478,"生存":11479,"看似":11480,"芒果":11481,"要注意":11482,"霸氣":11483,"領取":11484,"最高的":11485,"日報報導":11486,"」「":11487,"中正":11488,"他指出":11489,"元素":11490,"就以":11491,"得很":11492,"抓到":11493,"流傳":11494,"空服員":11495,"行列":11496,"要把":11497,"車廠":11498,"隱形":11499,"採檢結果":11500,"也因為":11501,"壟斷":11502,"小吃":11503,"局無失分":11504,"巧克力":11505,"帶有":11506,"查證":11507,"每一":11508,"法說":11509,"燃燒":11510,"爆廢":11511,"男的":11512,"的網友":11513,"聯網":11514,"見證":11515,"調漲":11516,"金錢":11517,"頻繁":11518,"確診機師":11519,"認為是":11520,"市場的":11521,"也相當":11522,"代謝":11523,"信徒":11524,"大獎":11525,"天天":11526,"日開始":11527,"有感":11528,"水餃":11529,"的第":11530,"美髮":11531,"蒐集":11532,"運算":11533,"還得":11534,"高點":11535,"二壘安打":11536,"久的":11537,"出身":11538,"又被":11539,"國立":11540,"大聲":11541,"媒合":11542,"子彈":11543,"廟宇":11544,"情事":11545,"早盤":11546,"潛在":11547,"班牙":11548,"級的":11549,"素養":11550,"西班牙":11551,"長官":11552,"零售":11553,"最新的":11554,"畢業生":11555,"有助於":11556,"乖乖":11557,"交接":11558,"到醫院":11559,"卻發現":11560,"從未":11561,"比利":11562,"海岸":11563,"硬體":11564,"約談":11565,"與其他":11566,"補貼":11567,"請辭":11568,"部桃":11569,"體內":11570,"今日公布":11571,"設計的":11572,"實際上":11573,"上班族":11574,"動員":11575,"就這樣":11576,"怎樣":11577,"核電廠":11578,"清理":11579,"的能力":11580,"老舊":11581,"跑道":11582,"這間":11583,"過於":11584,"已經在":11585,"還是有":11586,"未來將":11587,"內行人":11588,"觸身球":11589,"加快":11590,"就怕":11591,"想說":11592,"是最":11593,"本案":11594,"球衣":11595,"產檢":11596,"自撞":11597,"賣壓":11598,"鑑定":11599,"首長":11600,"比較好":11601,"下半":11602,"不定":11603,"少了":11604,"排黑":11605,"漁船":11606,"老鼠":11607,"萬七":11608,"葡萄":11609,"頭的":11610,"這次的":11611,"獨行俠":11612,"上了":11613,"主打":11614,"也成為":11615,"交付":11616,"出道":11617,"大流行":11618,"心聲":11619,"情報":11620,"的說":11621,"祈求":11622,"網址":11623,"考驗":11624,"肢體":11625,"親戚":11626,"識別":11627,"贊助":11628,"遲遲":11629,"上月":11630,"勒索":11631,"可在":11632,"失望":11633,"帶給":11634,"拆除":11635,"會讓":11636,"機型":11637,"熱愛":11638,"聰明":11639,"被迫":11640,"軍艦":11641,"錯過":11642,"更多的":11643,"國家安全":11644,"覺得很":11645,"桃園市長":11646,"警察局":11647,"公共場所":11648,"一共":11649,"上架":11650,"客運":11651,"的孩子":11652,"自責":11653,"不會有":11654,"萬元的":11655,"成交量":11656,"長照機構":11657,"信託":11658,"加密":11659,"右外野":11660,"回升":11661,"干擾":11662,"幾個月":11663,"很容易":11664,"從來":11665,"懲處":11666,"收藏":11667,"會上":11668,"流浪":11669,"獲獎":11670,"被擊出":11671,"相關單位":11672,"北部地區":11673,"地理":11674,"寶貝":11675,"對著":11676,"彩券":11677,"提問":11678,"放心":11679,"清水":11680,"為由":11681,"的設計":11682,"繁殖":11683,"財富":11684,"進來":11685,"龍蝦":11686,"冠軍賽":11687,"上映":11688,"十足":11689,"學會":11690,"學術":11691,"往來":11692,"心動":11693,"林女":11694,"槍手":11695,"總部":11696,"黨團":11697,"更多人":11698,"今日下午":11699,"安全帽":11700,"補習班":11701,"一連":11702,"上車":11703,"傳承":11704,"八卦":11705,"分砲":11706,"刷新":11707,"回頭":11708,"回顧":11709,"宣佈":11710,"無緣":11711,"理論":11712,"的位置":11713,"雙邊":11714,"黃色":11715,"不穩定":11716,"分子":11717,"大氣":11718,"實質":11719,"局失":11720,"平板":11721,"槍枝":11722,"每位":11723,"沒事":11724,"皆為":11725,"重回":11726,"隧道":11727,"房屋稅":11728,"外媒報導":11729,"下台":11730,"不去":11731,"單一":11732,"好消息":11733,"帶走":11734,"引爆":11735,"扣除":11736,"的環境":11737,"盟友":11738,"督導":11739,"笑容":11740,"負面":11741,"連線":11742,"雙雙":11743,"全球疫情":11744,"消防員":11745,"啦啦隊":11746,"一一":11747,"不清楚":11748,"巨蛋":11749,"的男子":11750,"群體":11751,"跟他":11752,"通行":11753,"高風險":11754,"影響到":11755,"...<":11756,"原來是":11757,"但目前":11758,"分流":11759,"周遭":11760,"大道":11761,"奈米":11762,"安置":11763,"已達":11764,"更能":11765,"服役":11766,"災害":11767,"的過程":11768,"轉為":11769,"出國史":11770,"不捨":11771,"二壘打":11772,"倫敦":11773,"制定":11774,"心疼":11775,"手中":11776,"拍板":11777,"未滿":11778,"視角":11779,"里程":11780,"更多社會":11781,"可能有":11782,"其他網友":11783,"演藝圈":11784,"上半場":11785,"不分":11786,"優化":11787,"在哪":11788,"大喊":11789,"大爆發":11790,"歷年":11791,"激動":11792,"破裂":11793,"穿越":11794,"貼心":11795,"遠傳":11796,"駐印度":11797,"更多世界":11798,"已經是":11799,"大三元":11800,"一句":11801,"不應該":11802,"公噸":11803,"名人":11804,"就開始":11805,"憤怒":11806,"掉了":11807,"撞到":11808,"斯坦":11809,"添加":11810,"產量":11811,"的外":11812,"跌破":11813,"輕微":11814,"教練團":11815,"所有人":11816,"黑衣人闖入":11817,"命中率":11818,"佳績":11819,"公眾":11820,"凸顯":11821,"參觀":11822,"向警方":11823,"往返":11824,"抗旱":11825,"抱歉":11826,"查出":11827,"校院":11828,"格局":11829,"無症狀":11830,"男星":11831,"網頁":11832,"螞蟻":11833,"超跑":11834,"過敏":11835,"點此":11836,"必須要":11837,"這麼多":11838,"媽祖遶境":11839,"如有疑似症狀":11840,"緊急事態宣言":11841,"圖書館":11842,"更多世界日報報導":11843,"受邀":11844,"合一":11845,"我有":11846,"早日":11847,"第六":11848,"腦部":11849,"金塊":11850,"雙手":11851,"不上":11852,"去做":11853,"吳男":11854,"太平":11855,"宮廟":11856,"已被":11857,"漸漸":11858,"的健康":11859,"能讓":11860,"請假":11861,"買的":11862,"重的":11863,"電力":11864,"青春":11865,"今天宣布":11866,"情況下":11867,"更多社會相關新聞":11868,">」。":11869,"侵害":11870,"募款":11871,"各位":11872,"啤酒":11873,"學金":11874,"攝取":11875,"繼承":11876,"翻譯":11877,"落跑":11878,"被敲出":11879,"確診人數":11880,"呼吸道":11881,"不利":11882,"任職":11883,"個多":11884,"新娘":11885,"暴動":11886,"皇帝":11887,"草莓":11888,"遊艇":11889,"重挫":11890,"鑾轎":11891,"除非":11892,"發現有":11893,"注意到":11894,"應用程式":11895,"有些人":11896,"不等":11897,"保健":11898,"大跌":11899,"將其":11900,"年初":11901,"換上":11902,"減煤":11903,"甄選":11904,"男方":11905,"的內容":11906,"能見":11907,"與美國":11908,"舉例":11909,"運勢":11910,"鑰匙":11911,"持續延燒":11912,"提出的":11913,"根本是":11914,"檢驗陰性報告":11915,"藝術家":11916,"也紛紛":11917,"別再":11918,"增設":11919,"大門":11920,"封面":11921,"很重要":11922,"撤銷":11923,"滿月":11924,"王牌":11925,"的第一":11926,"省水":11927,"職涯":11928,"西門":11929,"遭逮":11930,"零件":11931,"就有網友":11932,"作者":11933,"各縣市":11934,"天后":11935,"對待":11936,"忘了":11937,"我嚴防":11938,"珍貴":11939,"看得":11940,"義警":11941,"與人":11942,"資費":11943,"接種後":11944,"社群媒體":11945,"社群平台":11946,"滿滿的":11947,"全中運":11948,"我嚴防新冠肺炎":11949,"元件":11950,"動脈":11951,"匯流":11952,"彷彿":11953,"所在":11954,"日將":11955,"李男":11956,"的兒子":11957,"結節":11958,"行的":11959,"較去年":11960,"今年第":11961,"預計在":11962,"另一方面":11963,"例行賽":11964,">?":11965,"上榜":11966,"也特別":11967,"前面":11968,"各個":11969,"喉嚨":11970,"地址":11971,"姓女":11972,"專題":11973,"步道":11974,"民意":11975,"流出":11976,"滿額":11977,"笑稱":11978,"號召":11979,"退役":11980,"集會":11981,"持續擴大":11982,"回應了":11983,"單日新增":11984,"東半部地區":11985,"駐日代表":11986,"圖擷自":11987,"刊登":11988,"加重":11989,"北上":11990,"參訪":11991,"在日本":11992,"多處":11993,"手感":11994,"拜託":11995,"文創":11996,"晉級":11997,"模糊":11998,"永和":11999,"的三":12000,"簽訂":12001,"買超":12002,"傳說":12003,"商家":12004,"喪命":12005,"已完成":12006,"市區":12007,"文書":12008,"材質":12009,"犯行":12010,"狂飆":12011,"的合作":12012,"的發展":12013,"筆記":12014,"終盤":12015,"通話":12016,"開門":12017,"關聯":12018,"指揮中心指出":12019,"南投縣":12020,"一支":12021,"也對":12022,"二十":12023,"出租":12024,"原廠":12025,"後仍":12026,"捕捉":12027,"榮獲":12028,"櫃台":12029,"津貼":12030,"的媽媽":12031,"還可":12032,"首日":12033,"合作的":12034,"個月的":12035,"一生":12036,"上岸":12037,"份子":12038,"供給":12039,"創立":12040,"吃法":12041,"國營":12042,"宣示":12043,"是我":12044,"給你":12045,"經由":12046,"號的":12047,"被依":12048,"轉向":12049,"駁回":12050,"在地上":12051,"科學家":12052,"上來":12053,"人包":12054,"人心":12055,"入選":12056,"前年":12057,"匯率":12058,"含有":12059,"嚇傻":12060,"大增":12061,"奪冠":12062,"文一出":12063,"殘骸":12064,"珍珠":12065,"約會":12066,"評價":12067,"警力":12068,"車牌":12069,"追問":12070,"遭人":12071,"還需要":12072,"防堵":12073,"騎兵":12074,"生命危險":12075,"飲料店":12076,"件事情":12077,"剩下":12078,"夢幻":12079,"姊妹":12080,"已是":12081,"打球":12082,"抵制":12083,"殖利率":12084,"紅襪":12085,"駕車":12086,"和平穩定":12087,"雲林縣":12088,"槍擊案":12089,"不喜歡":12090,"之處":12091,"加劇":12092,"安慰":12093,"座談":12094,"張男":12095,"生理":12096,"田壘":12097,"睽違":12098,"碩士":12099,"神秘":12100,"腳踏":12101,"超夯":12102,"釋放":12103,"陳女":12104,"記憶體":12105,"心態":12106,"截圖":12107,"手指":12108,"的特":12109,"船隻":12110,"調度":12111,"送出":12112,"這家":12113,"逼近":12114,"陽台":12115,"手機報稅":12116,"相當於":12117,"搭機前":12118,"能見度":12119,"上季":12120,"不願意":12121,"化解":12122,"向上":12123,"嚴正":12124,"大賽":12125,"孫子":12126,"已掌握":12127,"年薪":12128,"承受":12129,"時光":12130,"會計":12131,"火速":12132,"爭執":12133,"率領":12134,"而來":12135,"這輛":12136,"選秀":12137,"確診再":12138,"北市黨部":12139,"發生的":12140,"帶來的":12141,"不良事件":12142,"執政黨":12143,"也太":12144,"人行":12145,"名嘴":12146,"待遇":12147,"得獎":12148,"是很":12149,"甜蜜":12150,"病逝":12151,"這隻":12152,"週四":12153,"選出":12154,"關說":12155,"離譜":12156,"驚呆":12157,"疫情嚴峻":12158,"駕駛座":12159,"日常生活":12160,"白沙屯媽祖":12161,"智慧型手機":12162,"。「<":12163,"不符":12164,"在他":12165,"多家":12166,"師傅":12167,"師資":12168,"應援":12169,"應試":12170,"新建":12171,"本壘":12172,"的母親":12173,"示警":12174,"精進":12175,"纖維":12176,"跳舞":12177,"開刀":12178,"無法接受":12179,"為了讓":12180,"屏東縣":12181,"中止":12182,"但我":12183,"分差":12184,"吵架":12185,"周末":12186,"國王":12187,"壽司":12188,"大哥":12189,"天數":12190,"套餐":12191,"姿勢":12192,"守住":12193,"年多":12194,"強迫":12195,"珊瑚":12196,"聲響":12197,"若要":12198,"觀賞":12199,"資料顯示":12200,"受到影響":12201,"中央流行疫情指揮中心指揮官":12202,"也提醒":12203,"你是":12204,"保住":12205,"偷拍":12206,"國的":12207,"墜落":12208,"審核":12209,"日曾":12210,"機種":12211,"減碳":12212,"的故事":12213,"說道":12214,"議長":12215,"贈送":12216,"路過":12217,"都不會":12218,"面前":12219,"更多生活":12220,"今日在":12221,"更多生活相關新聞":12222,"不像":12223,"冰淇淋":12224,"則為":12225,"單車":12226,"大腿":12227,"對策":12228,"探病":12229,"放大":12230,"有不少":12231,"沒什麼":12232,"浴室":12233,"激增":12234,"翔平":12235,"遺產":12236,"鬆懈":12237,"更多新聞":12238,"大家一起":12239,"受訪時表示":12240,"持有搭機前":12241,"......":12242,"一再":12243,"前一天":12244,"及早":12245,"吐司":12246,"失業":12247,"女人":12248,"日圓":12249,"無出國史":12250,"績效":12251,"誤會":12252,"降到":12253,"首戰":12254,"孩子們":12255,"引發熱議":12256,"資格賽":12257,"一律":12258,"不時":12259,"主流":12260,"交由":12261,"但現在":12262,"勤務":12263,"大膽":12264,"年以來":12265,"新一代":12266,"火車站":12267,"玉米":12268,"甜美":12269,"萬張":12270,"遊玩":12271,"遊騎兵":12272,"餐會":12273,"鬧事":12274,"魅力":12275,"許多民眾":12276,"粉絲專頁":12277,"必要的":12278,"奧斯卡":12279,"比利時":12280,"上看":12281,"在網路":12282,"多頭":12283,"少子":12284,"就曾":12285,"左外野":12286,"年在":12287,"建商":12288,"掉落":12289,"接手":12290,"擺脫":12291,"機身":12292,"沙發":12293,"競選":12294,"較低":12295,"量體溫":12296,"雨水":12297,"更多國際":12298,"總統府":12299,"畢業後":12300,"消防人員":12301,"主機":12302,"乾脆":12303,"他強調":12304,"先後":12305,"外海":12306,"媽咪":12307,"小學生":12308,"救出":12309,"春訓":12310,"燃料":12311,"糖尿":12312,"翻轉":12313,"茶葉":12314,"首轟":12315,"個月內":12316,"在家中":12317,"豐富的":12318,"一系列":12319,"並強調":12320,"伯斯":12321,"克服":12322,"南非":12323,"堪稱":12324,"方公尺":12325,"最重":12326,"有興趣":12327,"科大":12328,"筆錄":12329,"等問題":12330,"網曝":12331,"總體":12332,"過年":12333,"黃男":12334,"抗體陽性":12335,"廢棄物":12336,"日內檢驗陰性報告":12337,"一把":12338,"不代表":12339,"劇情":12340,"台海":12341,"在印度":12342,"場合":12343,"從去年":12344,"我愛":12345,"照曝光":12346,"登入":12347,"縮小":12348,"航母":12349,"試辦":12350,"讓媽媽":12351,"民眾說":12352,"感染風險":12353,"新型冠狀病毒":12354,"制服":12355,"加熱":12356,"反覆":12357,"吃完":12358,"好禮":12359,"工資":12360,"快艇":12361,"拿起":12362,"替補":12363,"次的":12364,"每週":12365,"氛圍":12366,"用了":12367,"神明":12368,"萬的":12369,"讀者":12370,"走進":12371,"起飛":12372,"遇上":12373,"飲酒過量":12374,"個國家":12375,"四處":12376,"專用":12377,"手臂":12378,"整起":12379,"當晚":12380,"秉持":12381,"蓄水":12382,"解析":12383,"講話":12384,"跑步":12385,"重心":12386,"陣容":12387,"難怪":12388,"首局":12389,"員工確診":12390,"英國變異株":12391,"大谷翔平":12392,"更多新聞推薦":12393,"前所長":12394,"去買":12395,"天文":12396,"天量":12397,"慶生":12398,"旅宿":12399,"深化":12400,"理財":12401,"的中":12402,"肺癌":12403,"解渴":12404,"賣超":12405,"走路":12406,"近距離":12407,"送回":12408,"館長":12409,"龍象":12410,"per14":12411,"因為疫情":12412,"引起網友":12413,"電視台":12414,"越來越多":12415,"六都":12416,"大媽":12417,"大致":12418,"對中國":12419,"就學":12420,"推升":12421,"暑假":12422,"某些":12423,"比對":12424,"熱絡":12425,"男網友":12426,"疏失":12427,"的方法":12428,"直擊":12429,"簽下":12430,"罰單":12431,"而他":12432,"視野":12433,"調高":12434,"請點此":12435,"鞋款":12436,"首場":12437,"桃園機場":12438,"大學指考":12439,"製造商":12440,">「<":12441,"上發文":12442,"不敵":12443,"不確定":12444,"偶爾":12445,"分布":12446,"升學":12447,"噁心":12448,"好物":12449,"我很":12450,"景觀":12451,"會面":12452,"標的":12453,"清查":12454,"滅證據":12455,"眼神":12456,"示範":12457,"神奇":12458,"股權":12459,"該如何":12460,"身高":12461,"逃離":12462,"連帶":12463,"疫情爆發":12464,"第三方":12465,"仇恨犯罪":12466,"下單":12467,"偷偷":12468,"傑出":12469,"傾向":12470,"再增":12471,"外的":12472,"大安":12473,"將來":12474,"就說":12475,"抑制":12476,"模仿":12477,"氣喘":12478,"混亂":12479,"近期無出國史":12480,"通緝犯":12481,"觸控的":12482,"台積電":12483,"匯流新聞網":12484,"但其實":12485,"共和":12486,"副市長":12487,"在這個":12488,"布里":12489,"改裝":12490,"月亮":12491,"有名":12492,"服用":12493,"熱潮":12494,"球數":12495,"田徑":12496,"給她":12497,"繳交":12498,"長打":12499,"預售":12500,"頻率":12501,"貼文曝光後":12502,"完全沒有":12503,"就醫採檢":12504,"貨機機師":12505,"知情人士":12506,"老實說":12507,"更多國際相關新聞":12508,"糖尿病":12509,"也許":12510,"信息":12511,"兩周":12512,"出色":12513,"勢必":12514,"半小時":12515,"卻沒有":12516,"周圍":12517,"就沒有":12518,"接見":12519,"控訴":12520,"提起":12521,"救印度":12522,"爵士":12523,"現狀":12524,"直指":12525,"腸胃":12526,"舉重":12527,"裡頭":12528,"希望透過":12529,"解決方案":12530,"受訪表示":12531,"開幕戰":12532,"實驗室":12533,"領導人":12534,"下一個":12535,"客服":12536,"封城":12537,"就知道":12538,"播出":12539,"改名":12540,"放榜":12541,"死因":12542,"種類":12543,"精品":12544,"華人":12545,"趨緩":12546,"週五":12547,"閨密":12548,"雙重":12549,"頂尖":12550,"染疫機師":12551,"任何人":12552,"中外野":12553,"之所以":12554,"停工":12555,"吃了":12556,"命令":12557,"地的":12558,"將從":12559,"心力":12560,"搶購":12561,"構成":12562,"潑灑":12563,"王室":12564,"禁見":12565,"科長":12566,"聚餐":12567,"真的有":12568,"匡列接觸者":12569,"物資救印度":12570,"出貨量":12571,"水電工":12572,"個別":12573,"卡在":12574,"吃過":12575,"外線":12576,"定義":12577,"實用":12578,"就把":12579,"常態":12580,"打撈":12581,"日於":12582,"林男":12583,"海鮮":12584,"自治":12585,"血糖":12586,"當時的":12587,"南部地區":12588,"住院隔離":12589,"阿里山":12590,"任內":12591,"備戰":12592,"再添":12593,"則以":12594,"德基":12595,"攝護":12596,"月營收":12597,"歲以下":12598,"無辜":12599,"考上":12600,"融合":12601,"談話":12602,"論文":12603,"責失":12604,"轉變":12605,"麗菜":12606,"自己也":12607,"因為他":12608,"健康監測":12609,"房務主管":12610,"攝護腺":12611,"不高":12612,"在台北":12613,"夏季":12614,"大於":12615,"實作":12616,"想不到":12617,"救災":12618,"新創":12619,"月開始":12620,"目睹":12621,"簡訊":12622,"網絡":12623,"脖子":12624,"說出":12625,"輪胎":12626,"驅動":12627,"甚至是":12628,"本土病例":12629,"外界質疑":12630,"東京相隔":12631,"傳染病":12632,"過來人":12633,"也呼籲":12634,"佩戴口罩":12635,"冷靜":12636,"半局":12637,"可上訴":12638,"大隊":12639,"密集":12640,"幕後":12641,"店的":12642,"急捐":12643,"想起":12644,"未成年":12645,"每個月":12646,"比去年":12647,"濃煙":12648,"現今":12649,"色彩":12650,"著手":12651,"這幾天":12652,"。」「":12653,"個月確診再":12654,"各國急捐":12655,"個月確診再破千":12656,"各國急捐物資救印度":12657,"一塊":12658,"但也有":12659,"切除":12660,"在內的":12661,"奪下":12662,"接送":12663,"新任":12664,"有問題":12665,"牠們":12666,"率為":12667,"眼淚":12668,"讓自己":12669,"賣出":12670,"第二次":12671,"一壘手":12672,"休假":12673,"動線":12674,"南港":12675,"媒報導":12676,"年減":12677,"抱著":12678,"拓展":12679,"洗車":12680,"活躍":12681,"的產品":12682,"的精神":12683,"空域":12684,"管控":12685,"都已":12686,"飆升":12687,"鮭魚":12688,"生命跡象":12689,"血清抗體陽性":12690,"不論是":12691,"多雲到":12692,"下秒":12693,"不孕":12694,"不怕":12695,"刺青":12696,"前科":12697,"墾丁":12698,"實名":12699,"式的":12700,"德納":12701,"或雷雨":12702,"房貸":12703,"曾於":12704,"最有":12705,"檢調":12706,"歡慶":12707,"獲勝":12708,"被逮":12709,"賈伯斯":12710,"邁入":12711,"題材":12712,"其中一名":12713,"紐約市":12714,"這段時間":12715,"野生動物":12716,"三名":12717,"中獎":12718,"台日":12719,"年時":12720,"往年":12721,"拘役":12722,"書展":12723,"模特":12724,"燃煤":12725,"等罪嫌":12726,"緊密":12727,"華盛":12728,"被人":12729,"量產":12730,"附上":12731,"養成":12732,"原本的":12733,"嘉義市":12734,"身心障礙":12735,"來臨":12736,"來講":12737,"侵犯":12738,"保守":12739,"個股":12740,"做得":12741,"到達":12742,"又要":12743,"將依":12744,"工藝":12745,"極端":12746,"櫻桃":12747,"沒了":12748,"的天氣":12749,"紓困":12750,"缺貨":12751,"考選":12752,"蓄水量":12753,"送上":12754,"這讓":12755,"驚覺":12756,"今天公布":12757,"分享自己":12758,"喜歡的":12759,"必要時":12760,"機師染疫案":12761,"賈伯斯偏愛色":12762,"並由":12763,"二度":12764,"你要":12765,"兆元":12766,"利潤":12767,"器材":12768,"國泰":12769,"女士":12770,"強大":12771,"循線":12772,"懶人包":12773,"擴增":12774,"景象":12775,"椅子":12776,"滑手機":12777,"潛力":12778,"炸雞":12779,"焦慮":12780,"的同時":12781,"美景":12782,"艦艇":12783,"落地":12784,"追究":12785,"隔壁":12786,"驚險":12787,"希望大家":12788,"臉書社團":12789,"修正草案":12790,"實在太":12791,"其實是蘋果創辦人賈伯斯偏愛色":12792,"華盛頓":12793,"上半":12794,"來得":12795,"傳奇":12796,"傳達":12797,"全新的":12798,"包裹":12799,"單局":12800,"姓婦人":12801,"廟方":12802,"急性":12803,"探討":12804,"既有":12805,"日晚上":12806,"比亞":12807,"生技":12808,"稅額":12809,"簡直":12810,"聲量":12811,"胸部":12812,"能有":12813,"腎臟":12814,"要讓":12815,"親密":12816,"請大家":12817,"陣子":12818,"民眾的":12819,"loc4":12820,"運動員":12821,"出局後":12822,"基隆市":12823,"大使館":12824,"龍象大戰":12825,"並要求":12826,"主導":12827,"來做":12828,"出示":12829,"告別":12830,"大力":12831,"手搖":12832,"會造成":12833,"月至":12834,"美容":12835,"莫德納":12836,"變更":12837,"都將":12838,"陳情":12839,"青睞":12840,"一直在":12841,"發表聲明":12842,"例本土病例":12843,"蛋白質":12844,"多雲到晴":12845,"亞洲":12846,"依賴":12847,"光芒":12848,"各類":12849,"學系":12850,"實境":12851,"手槍":12852,"投保":12853,"政變":12854,"教訓":12855,"普及":12856,"有零星":12857,"期的":12858,"此前":12859,"法令":12860,"爆怨":12861,"空姐":12862,"翻覆":12863,"老年":12864,"角落":12865,"首波":12866,"美國人":12867,"媽媽的":12868,"台北清真寺":12869,"確定病例":12870,"主辦單位":12871,"中毒":12872,"人犯":12873,"來回":12874,"全市":12875,"包包":12876,"口腔":12877,"各方":12878,"吞敗":12879,"射擊":12880,"市占":12881,"強的":12882,"投案":12883,"提議":12884,"每周":12885,"終身":12886,"而出":12887,"臺北":12888,"荷包":12889,"躺在":12890,"車款":12891,"輪值":12892,"開了":12893,"電源":12894,"org13":12895,"接受媒體":12896,"機場防疫旅館":12897,"一名網友在":12898,"太魯閣號事故":12899,"格式化":12900,"公然":12901,"好事":12902,"學科":12903,"就很":12904,"康復":12905,"日正式":12906,"樂園":12907,"樂團":12908,"標籤":12909,"海南":12910,"瀏覽":12911,"牛結節":12912,"瑞典":12913,"的價格":12914,"臨檢":12915,"該案":12916,"較多":12917,"過馬路":12918,"都相當":12919,"醬油":12920,"離去":12921,"鳥類":12922,">,「":12923,"持續加強":12924,"甚至有":12925,"小時內":12926,"新竹縣":12927,"完整的":12928,"可愛的":12929,"!」,":12930,"二代":12931,"人受傷":12932,"但還是":12933,"停留":12934,"內幕":12935,"博覽":12936,"卻不":12937,"嫌疑":12938,"專長":12939,"尋獲":12940,"局面":12941,"強度":12942,"情感":12943,"戰術":12944,"房客":12945,"故障":12946,"校系":12947,"民族":12948,"沒多久":12949,"版的":12950,"綠營":12951,"網購":12952,"蘆洲":12953,"血液":12954,"行人":12955,"貼圖":12956,"這不是":12957,"體力":12958,"龐大":12959,"確診數":12960,"日本媒體":12961,"這樣子":12962,"諾富特群聚":12963,"事發後":12964,"依序":12965,"持股":12966,"撲滅":12967,"有必要":12968,"死刑":12969,"的一個":12970,"表面":12971,"解讀":12972,"警紀":12973,"變動":12974,"豪華":12975,"走高":12976,"超車":12977,"軍機":12978,"順序":12979,"首席":12980,"解決問題":12981,"東京都":12982,"酒測值":12983,"少子化":12984,"之餘":12985,"也透露":12986,"僅剩":12987,"劇烈":12988,"區間":12989,"好運":12990,"建造":12991,"從中":12992,"思維":12993,"揭曉":12994,"擴充":12995,"明白":12996,"會出現":12997,"第七":12998,"約為":12999,"肆虐":13000,"補償":13001,"討債":13002,"證書":13003,"超狂":13004,"離岸":13005,"時間點":13006,"設計師":13007,"上任後":13008,"遼寧號":13009,"在野黨":13010,"件數":13011,"加權":13012,"均為":13013,"大腸":13014,"天堂":13015,"如下":13016,"官媒":13017,"暖心":13018,"會將":13019,"有位":13020,"查扣":13021,"犯規":13022,"的要求":13023,"能不能":13024,"自來":13025,"貨物":13026,"超高":13027,"過多":13028,"五一勞動節":13029,"。」,":13030,"但由於":13031,"傳單":13032,"公鹿":13033,"各有":13034,"在現場":13035,"將可":13036,"尼亞":13037,"指責":13038,"活力":13039,"深耕":13040,"潛水":13041,"烘焙":13042,"發作":13043,"看待":13044,"隨意":13045,"雞肉":13046,"經濟學":13047,"敲出安打":13048,"二館":13049,"但如果":13050,"前一":13051,"廠房":13052,"恐懼":13053,"抹黑":13054,"水瓶":13055,"綠能":13056,"罷免":13057,"自製":13058,"被控":13059,"要是":13060,"載著":13061,"金控":13062,"陽光":13063,"聲明中":13064,"且有":13065,"交出":13066,"兩者":13067,"包圍":13068,"喇叭":13069,"外帶":13070,"天價":13071,"就近":13072,"履歷":13073,"店面":13074,"建案":13075,"強力":13076,"後果":13077,"折疊":13078,"持槍":13079,"最少":13080,"服裝":13081,"朝聖":13082,"殺害":13083,"火葬":13084,"的那":13085,"的醫療":13086,"皇家":13087,"觀點":13088,"起跑":13089,"週六":13090,"金牛":13091,"今天的":13092,"房務部":13093,"交代":13094,"享用":13095,"代價":13096,"位的":13097,"低溫":13098,"充足":13099,"內衣":13100,"南區":13101,"台語":13102,"在推特":13103,"專欄":13104,"從沒":13105,"有礙":13106,"疑惑":13107,"百元":13108,"種植":13109,"縮減":13110,"虐待":13111,"雞排":13112,"頻傳":13113,"首批":13114,"大家的":13115,"是一種":13116,"集中在":13117,"無人機":13118,"外推方案":13119,"氧化碳":13120,"牛結節疹":13121,"上台":13122,"上廁所":13123,"分泌":13124,"台獨":13125,"帶頭":13126,"收押":13127,"更在":13128,"棒的":13129,"氣憤":13130,"牙醫":13131,"的公司":13132,"短時間":13133,"稱的":13134,"股息":13135,"育兒":13136,"腦壓":13137,"術後":13138,"被視為":13139,"諷刺":13140,"證照":13141,"賭場":13142,"這也":13143,"邊坡":13144,"顯得":13145,"月底前":13146,"」!<":13147,"中風":13148,"他命":13149,"先馳":13150,"分開":13151,"勇氣":13152,"及其他":13153,"受歡迎":13154,"吸睛":13155,"國手":13156,"工讀":13157,"挨轟":13158,"接收":13159,"收集":13160,"時起":13161,"無須":13162,"現年":13163,"節奏":13164,"精緻":13165,"綠線":13166,"致敬":13167,"與其":13168,"荳荳":13169,"足以":13170,"進行採檢":13171,"調查釐清":13172,"安全性":13173,"社會大眾":13174,"嚴重影響":13175,"準備好":13176,"為主題":13177,"相較於":13178,"先馳得點":13179,",,":13180,"上銬":13181,"不完":13182,"事先":13183,"口氣":13184,"嗆聲":13185,"四個":13186,"學弟":13187,"射手":13188,"已將":13189,"延期":13190,"心碎":13191,"我不":13192,"投進":13193,"抵台":13194,"接任":13195,"猜測":13196,"的國際":13197,"神器":13198,"種種":13199,"組件":13200,"衝進":13201,"裝潢":13202,"觀測":13203,"護照":13204,"輸球":13205,"追撞":13206,"阿伯":13207,"預料":13208,"疫情期間":13209,"過去的":13210,"鋒面接近":13211,"基礎建設":13212,"苗栗縣":13213,"遠距教學":13214,"博覽會":13215,"也未":13216,"兩度":13217,"兩棲":13218,"分左右":13219,"匯款":13220,"多加":13221,"安平":13222,"很開心":13223,"攻佔":13224,"政院":13225,"月租":13226,"猶豫":13227,"用藥":13228,"發明":13229,"節水":13230,"約定":13231,"群眾":13232,"育嬰":13233,"膝蓋":13234,"辱罵":13235,"隨身":13236,"電線":13237,"靜脈":13238,"風味":13239,"首爾":13240,"首選":13241,"目前正":13242,"還有待":13243,"衛生紙":13244,"億美元的":13245,"有網友在":13246,"不錯的":13247,"調閱監視器":13248,"中捷":13249,"伺服":13250,"例為":13251,"傳言":13252,"傳輸":13253,"副局長":13254,"合適":13255,"名義":13256,"場次":13257,"外套":13258,"大都會":13259,"就不會":13260,"幽默":13261,"情人":13262,"投信":13263,"校區":13264,"機能":13265,"波動":13266,"淨空":13267,"生素":13268,"男大生":13269,"的錢":13270,"缺失":13271,"賞花":13272,"鈔票":13273,"錄音":13274,"相關報導":13275,"國內外":13276,"本土個案":13277,"模特兒":13278,"中醫":13279,"也已經":13280,"人夫":13281,"介面":13282,"保母":13283,"卡片":13284,"即刻":13285,"名列":13286,"唱歌":13287,"嚴謹":13288,"委會":13289,"左轉":13290,"巴黎":13291,"市集":13292,"廣達":13293,"暗示":13294,"海邊":13295,"理性":13296,"產後":13297,"脫離":13298,"艦隊":13299,"讓我們":13300,"跟你":13301,"身價":13302,"金山":13303,"開辦":13304,"目前為止":13305,"報告指出":13306,"不適症狀":13307,"黑衣人闖":13308,"外籍機師":13309,"目擊者":13310,"人染疫":13311,"套房":13312,"巡迴":13313,"文中":13314,"日止":13315,"日中午":13316,"油價":13317,"用手":13318,"的角色":13319,"萬一":13320,"要到":13321,"解放":13322,"開跑":13323,"開高":13324,"日本的":13325,"政治人物":13326,"主審":13327,"他還":13328,"前妻":13329,"及接觸史":13330,"在當地":13331,"堅決":13332,"大勝":13333,"將成為":13334,"帛琉":13335,"性騷擾":13336,"挫傷":13337,"放置":13338,"政權":13339,"教導":13340,"會以":13341,"物流":13342,"的狀態":13343,"突發":13344,"航行":13345,"被撞":13346,"跨越":13347,"軍隊":13348,"高端":13349,"美髮師":13350,"三個月":13351,"傳喚":13352,"天下":13353,"妥善":13354,"情境":13355,"戰鬥":13356,"港口":13357,"熱點":13358,"起跳":13359,"連任":13360,"重點整理":13361,"航空器":13362,"這起事件":13363,"也無法":13364,"共機":13365,"取締":13366,"外科":13367,"太久":13368,"實地":13369,"年第":13370,"建構":13371,"我家":13372,"放入":13373,"暴龍":13374,"漲勢":13375,"菜鳥":13376,"警政":13377,"酥雞":13378,"飆漲":13379,"目前正在":13380,"電子煙":13381,"至少有":13382,"模範母親":13383,"三度":13384,"作收":13385,"反觀":13386,"同場":13387,"好投":13388,"好球":13389,"差別":13390,"往上":13391,"投顧":13392,"日與":13393,"民俗":13394,"清明":13395,"玫瑰":13396,"甄試":13397,"番茄":13398,"的你":13399,"自殺":13400,"菜色":13401,"街口":13402,"貨運":13403,"起初":13404,"遺失":13405,"零食":13406,"類別":13407,"高麗菜":13408,"麻痺":13409,"可能在":13410,"出現了":13411,"一般人":13412,"意味著":13413,"有礙健康":13414,"一館":13415,"一家人":13416,"也不能":13417,"低潮":13418,"劉男":13419,"地板":13420,"對她":13421,"憂鬱":13422,"更重要":13423,"牛隻":13424,"的事件":13425,"的努力":13426,"相驗":13427,"竊取":13428,"給了":13429,"薯條":13430,"證件":13431,"辦事":13432,"農曆":13433,"集水區":13434,"馬達":13435,"活動的":13436,"醫師表示":13437,"消息人士":13438,"提高警覺":13439,"駐印度代表處":13440,"一座":13441,"不下":13442,"人是":13443,"兌換":13444,"到過":13445,"加大":13446,"好處":13447,"如期":13448,"小小":13449,"戴著":13450,"日益":13451,"海報":13452,"濃度":13453,"無效":13454,"無數":13455,"的員工":13456,"直說":13457,"萊豬":13458,"藍牙":13459,"車手":13460,"迷你":13461,"運氣":13462,"還將":13463,"離世":13464,"難題":13465,"外交官":13466,"一線":13467,"不穩":13468,"乳癌":13469,"他有":13470,"僅供":13471,"北台灣":13472,"天王":13473,"專班":13474,"小聯盟":13475,"懷念":13476,"最早":13477,"會先":13478,"朝野":13479,"款項":13480,"源頭":13481,"班級":13482,"的服務":13483,"的結果":13484,"的對象":13485,"砂石":13486,"確幸":13487,"至醫院":13488,"融資":13489,"走在":13490,"較少":13491,"邏輯":13492,"頂級":13493,"顏值":13494,"默默":13495,"送醫後":13496,"救護人員":13497,"正確的":13498,"缺水危機":13499,"永續發展":13500,"臨床試驗":13501,"衛生單位安排":13502,"伺服器":13503,"公主":13504,"則認為":13505,"善意":13506,"增添":13507,"定序":13508,"年半":13509,"幼童":13510,"情節":13511,"改成":13512,"放下":13513,"數百":13514,"水資源":13515,"畫素":13516,"的手機":13517,"真心":13518,"碼頭":13519,"網民":13520,"華語":13521,"這幾":13522,"這部分":13523,"適逢":13524,"還未":13525,"鋼琴":13526,"錦標":13527,"不過在":13528,"現在是":13529,"指揮中心指揮官":13530,"世界上":13531,"自主管理":13532,"早餐店":13533,"聯合品牌運動":13534,"上衣":13535,"不符合":13536,"代打":13537,"出場":13538,"出沒":13539,"原文":13540,"商場":13541,"安定":13542,"年僅":13543,"是對":13544,"最長":13545,"檳榔":13546,"獎學金":13547,"男孩":13548,"的經濟":13549,"的主要":13550,"的責任":13551,"皆有":13552,"研討":13553,"聲押":13554,"腹部":13555,"良好的":13556,"花錢":13557,"開的":13558,"高三":13559,"服務的":13560,">」<":13561,"影片請點此":13562,"萬人次":13563,"例外":13564,"信仰":13565,"倉庫":13566,"原訂":13567,"品項":13568,"執照":13569,"奶油":13570,"廠區":13571,"張貼":13572,"捷克":13573,"摺疊":13574,"洲際":13575,"湮滅證據":13576,"甜甜":13577,"的功能":13578,"皇后":13579,"要做":13580,"要先":13581,"跟進":13582,"跨國":13583,"釀成":13584,"頭皮":13585,"音樂會":13586,"終場以":13587,"自小客車":13588,"刷卡":13589,"可行":13590,"救命":13591,"斯特":13592,"比如":13593,"混合":13594,"竊盜":13595,"被捕":13596,"視力":13597,"途徑":13598,"週三":13599,"邀集":13600,"首節":13601,"高血壓":13602,"點擊":13603,"活動中心":13604,"防疫規定":13605,"外交部長":13606,"山區有局部":13607,"體育館":13608,"不成":13609,"仍待":13610,"兩個月":13611,"印太":13612,"卻有":13613,"周四":13614,"帥氣":13615,"年開始":13616,"挖角":13617,"日方":13618,"的中國":13619,"的資訊":13620,"的食物":13621,"答應":13622,"美軍":13623,"聽見":13624,"胎兒":13625,"脫困":13626,"藍營":13627,"號稱":13628,"該怎麼":13629,"開口":13630,"院方":13631,"雙殺":13632,"餅乾":13633,"因此在":13634,"注意的是":13635,"真正的":13636,"妨害公務":13637,"種族歧視":13638,"、「":13639,"一輩子":13640,"三讀":13641,"也應":13642,"也認為":13643,"公職":13644,"劑量":13645,"包商":13646,"吃起來":13647,"名師生":13648,"含量":13649,"因子":13650,"外銷":13651,"姊姊":13652,"家具":13653,"改選":13654,"施政":13655,"極為":13656,"沿海":13657,"當機":13658,"訪台":13659,"豈料":13660,"車身":13661,"通風":13662,"台灣鳳梨":13663,"網友留言":13664,"資料庫":13665,"一樣的":13666,"紛紛表示":13667,"晶片短缺":13668,"不適合":13669,"自我健康監測":13670,"及時診斷":13671,"替代役":13672,"致力於":13673,"並依指示":13674,"也為":13675,"也跟著":13676,"付款":13677,"兩家":13678,"公文":13679,"別人的":13680,"口水":13681,"只想":13682,"大大":13683,"女警":13684,"好評":13685,"家暴":13686,"幫他":13687,"很可能":13688,"恭喜":13689,"曾任":13690,"校舍":13691,"極限":13692,"淡水":13693,"漁港":13694,"球的":13695,"男嬰":13696,"而這":13697,"葬禮":13698,"讓孩子":13699,"買氣":13700,"震怒":13701,"驚嚇":13702,"台灣在":13703,"消息一出":13704,"確實有":13705,"或者是":13706,"上百":13707,"下水":13708,"他和":13709,"劇中":13710,"報酬":13711,"拉圭":13712,"晚餐":13713,"最為":13714,"正好":13715,"空調":13716,"續航":13717,"自願":13718,"誠意":13719,"逐年":13720,"遭爆":13721,"關稅":13722,"馬力":13723,"鴻海":13724,"相關人員":13725,"機車騎士":13726,"檢驗結果":13727,"傳染力":13728,"布里悍":13729,"並列":13730,"人有":13731,"作出":13732,"分發":13733,"到貨":13734,"到台灣":13735,"外表":13736,"我真的":13737,"改進":13738,"更要":13739,"會比較":13740,"武裝":13741,"特報":13742,"發問":13743,"的研究":13744,"的訊息":13745,"的現象":13746,"結論":13747,"美好":13748,"蒐證":13749,"覆蓋":13750,"買家":13751,"車速":13752,"輕生":13753,"鄉長":13754,"陸軍":13755,"鬆綁":13756,"網友看了":13757,"比賽中":13758,"現金股利":13759,"北港朝天宮":13760,"入境後至":13761,"不顧":13762,"之虞":13763,"人間":13764,"他與":13765,"出海":13766,"受不了":13767,"嚴厲":13768,"女主角":13769,"對不起":13770,"恰恰":13771,"截止":13772,"收下":13773,"收視":13774,"改寫":13775,"是全球":13776,"樓梯":13777,"武力":13778,"水管":13779,"派系":13780,"清洗":13781,"生長":13782,"眼前":13783,"砲轟":13784,"萬個":13785,"藍綠":13786,"讓使用者":13787,"這筆":13788,"目前有":13789,"便利商店":13790,"冠狀病毒疾病疫情":13791,"房地產":13792,"海底撈":13793,"全被":13794,"出境":13795,"均有":13796,"奇蹟":13797,"學員":13798,"實踐":13799,"州的":13800,"往後":13801,"慘死":13802,"時報":13803,"桐花":13804,"消化":13805,"滿貫":13806,"無視":13807,"營利":13808,"的過程中":13809,"社工":13810,"票房":13811,"童年":13812,"總數":13813,"聽完":13814,"著重":13815,"被稱為":13816,"起司":13817,"載運":13818,"這部":13819,"驅離":13820,"高壓":13821,"媒體人":13822,"高雄市長":13823,"一直以來":13824,"排黑條款":13825,"一部":13826,"上方":13827,"不限":13828,"兒女":13829,"卻因":13830,"可憐":13831,"可疑":13832,"可處":13833,"名男子":13834,"層級":13835,"床上":13836,"後援":13837,"懂得":13838,"放到":13839,"曾與":13840,"有心":13841,"柴油":13842,"清晰":13843,"目的是":13844,"相近":13845,"研擬":13846,"碰上":13847,"等因素":13848,"聽聞":13849,"被封":13850,"路旁":13851,"躲避":13852,"輻射":13853,"轉載":13854,"迴轉":13855,"進軍":13856,"配套":13857,"阻擋":13858,"雙位數":13859,"頭獎":13860,"願景":13861,"一名女子":13862,"萬元以下":13863,"一定是":13864,"梅雨鋒面":13865,"產學合作":13866,"僅供參考":13867,"依違反":13868,"分至":13869,"創歷史新高":13870,"匿名":13871,"在校":13872,"報請":13873,"忽略":13874,"推估":13875,"暴增":13876,"減緩":13877,"甘霖":13878,"的原":13879,"的長":13880,"的父親":13881,"看護":13882,"絕不":13883,"袋子":13884,"買一":13885,"電機":13886,"靠山":13887,"他們在":13888,"世界紀錄":13889,"身體狀況":13890,"本土案例":13891,"最多的":13892,"解除隔離":13893,"值班":13894,"器官":13895,"姐姐":13896,"委屈":13897,"它們":13898,"將人":13899,"小確幸":13900,"就此":13901,"工商":13902,"新低":13903,"日舉辦":13904,"樂趣":13905,"測謊":13906,"漁民":13907,"王男":13908,"的概念":13909,"節約":13910,"綠燈":13911,"致命":13912,"致歉":13913,"說自己":13914,"購屋":13915,"醫事":13916,"險勝":13917,"今天凌晨":13918,"其中包括":13919,"原因是":13920,"開發者":13921,"到底是":13922,"新竹市":13923,"氣象局":13924,"無安打比賽":13925,"火葬場":13926,"錦標賽":13927,"並提供":13928,"之旅":13929,"加薪":13930,"台籍":13931,"回溫":13932,"增雨":13933,"大數據":13934,"她是":13935,"感測":13936,"披薩":13937,"改判":13938,"時至":13939,"民宿":13940,"煩惱":13941,"發全壘打":13942,"的決定":13943,"的動作":13944,"網美":13945,"說到":13946,"超大":13947,"逃生":13948,"週末":13949,"道奇":13950,"邊界":13951,"首創":13952,"魔術":13953,"工作者":13954,"好吃的":13955,"不得不":13956,"夫妻倆":13957,"成交值":13958,"氧氣瓶":13959,"一面倒":13960,"石門水庫":13961,"、、":13962,"三人":13963,"下了":13964,"不清":13965,"作答":13966,"債券":13967,"出事":13968,"安撫":13969,"年年":13970,"後座":13971,"想吃":13972,"手環":13973,"接軌":13974,"時發現":13975,"某天":13976,"汐止":13977,"澳門":13978,"盜壘":13979,"盡力":13980,"總額":13981,"致電":13982,"醫藥":13983,"餵食":13984,"高科技":13985,"美國政府":13986,"分鐘後":13987,"考選部":13988,".<":13989,"也開始":13990,"他會":13991,"借提":13992,"先行":13993,"公公":13994,"划算":13995,"化妝":13996,"原能":13997,"可用":13998,"嚴肅":13999,"察覺":14000,"左側":14001,"年華":14002,"影劇":14003,"患有":14004,"想過":14005,"慈善":14006,"把他":14007,"拉麵":14008,"每公升":14009,"烏龍":14010,"產地":14011,"腳踝":14012,"舞場":14013,"視障":14014,"跨領域":14015,"開工":14016,"開賽":14017,"隊的":14018,"領軍":14019,"第一天":14020,"警方在":14021,"健康狀況":14022,"下降到":14023,"中市":14024,"但若":14025,"傷重":14026,"屏幕":14027,"已超過":14028,"抽菸":14029,"拿去":14030,"準則":14031,"滋味":14032,"登陸":14033,"的老":14034,"花生":14035,"處女":14036,"認了":14037,"輸出":14038,"電台":14039,"負責任":14040,"發布的":14041,"延長賽":14042,"不安":14043,"並指出":14044,"包庇":14045,"場上":14046,"多半":14047,"姓駕駛":14048,"就直接":14049,"急忙":14050,"救人":14051,"末節":14052,"流動":14053,"無照":14054,"生前":14055,"用電":14056,"甲狀":14057,"的專業":14058,"神山":14059,"穩健":14060,"細菌":14061,"縱火":14062,"美的":14063,"起床":14064,"靈活":14065,"驚悚":14066,"鮪魚":14067,"如果你":14068,"高中職":14069,"恢復正常":14070,"不算":14071,"串聯":14072,"個保送":14073,"制憲":14074,"升值":14075,"同框":14076,"增進":14077,"外部":14078,"字頭":14079,"將大":14080,"專輯":14081,"導師":14082,"小龍":14083,"房租":14084,"新秀":14085,"會考":14086,"樓的":14087,"正值":14088,"滲透":14089,"白襪":14090,"籌備":14091,"被網友":14092,"要選":14093,"諸多":14094,"護國":14095,"賽程":14096,"辯稱":14097,"降落":14098,"零組件":14099,"確診案例":14100,"日本職棒":14101,"這樣做":14102,"的人生":14103,"千萬不要":14104,"太陽能":14105,"!!":14106,"不服":14107,"主演":14108,"之戰":14109,"也宣布":14110,"兆美元":14111,"副院長":14112,"單價":14113,"在第":14114,"夜店":14115,"天秤":14116,"天蠍":14117,"巴拉圭":14118,"得主":14119,"從此":14120,"我方":14121,"活潑":14122,"滯留":14123,"瑞士":14124,"生病":14125,"發送":14126,"的樣子":14127,"目光":14128,"相親":14129,"禁令":14130,"窗戶":14131,"節省":14132,"缺點":14133,"聖火":14134,"起駕":14135,"路面":14136,"較大":14137,"輕傷":14138,"邁進":14139,"都說":14140,"量能":14141,"韻律":14142,"提供給":14143,"調查結果":14144,"研究員":14145,"緊急送醫":14146,"正常的":14147,"接觸者採檢":14148,"排名第":14149,"娛樂中心":14150,"航運股":14151,"西武獅":14152,"財經相關新聞":14153,"甲狀腺":14154,"中小":14155,"兩款":14156,"則貼文":14157,"劇本":14158,"合格":14159,"周三":14160,"在意":14161,"場出賽":14162,"大地":14163,"學位":14164,"學業":14165,"寫作":14166,"廣東":14167,"慰問":14168,"暫緩":14169,"暴露":14170,"書記":14171,"板凳":14172,"溫泉":14173,"濫用":14174,"父子":14175,"疏忽":14176,"發光":14177,"科罰金":14178,"籌碼":14179,"與他人":14180,"跳出來":14181,"輪流":14182,"避開":14183,"邁向":14184,"頭上":14185,"騎機車":14186,"驕傲":14187,"高興":14188,"龍隊":14189,"沒有辦法":14190,"更多財經相關新聞":14191,"感染者":14192,"專業的":14193,"發出後":14194,"所得稅":14195,"連環爆":14196,"//":14197,"一來":14198,"並有":14199,"串流":14200,"公報":14201,"卻遭":14202,"卻突然":14203,"又在":14204,"口服":14205,"單獨":14206,"宣判":14207,"局數":14208,"性質":14209,"指引":14210,"放射":14211,"斷層":14212,"火辣":14213,"特點":14214,"的愛":14215,"臉上":14216,"英里":14217,"相關規定":14218,"學校的":14219,"幫助球隊":14220,"創作者":14221,"不平":14222,"也與":14223,"也非常":14224,"五大":14225,"仲介":14226,"供電":14227,"兩人的":14228,"區公所":14229,"反駁":14230,"土城":14231,"對台灣的":14232,"平手":14233,"年以上":14234,"幼稚":14235,"復興":14236,"惡性":14237,"房產":14238,"控球":14239,"攤位":14240,"是一名":14241,"更大的":14242,"有任何":14243,"短線":14244,"裁罰":14245,"評鑑":14246,"證人":14247,"車型":14248,"長賜":14249,"間接":14250,"日本首相":14251,"生活中":14252,"分享了":14253,"第二階段":14254,"用戶觀看":14255,"那麼多":14256,"超前部署":14257,"失智症":14258,"叔叔":14259,"同日":14260,"性格":14261,"把它":14262,"抽獎":14263,"撤軍":14264,"率達":14265,"的紀錄":14266,"的看法":14267,"納稅":14268,"緊繃":14269,"衝上":14270,"陷阱":14271,"離島":14272,"美國職棒":14273,"不過他":14274,"真的太":14275,"健康的":14276,"市場需求":14277,"國內累計":14278,"送往醫院":14279,"一提":14280,"不需":14281,"再起":14282,"分成":14283,"多歲的":14284,"季減":14285,"展演":14286,"州長":14287,"把關":14288,"曬出":14289,"會更":14290,"桃花":14291,"樓層":14292,"海運":14293,"滾動":14294,"為人":14295,"祝賀":14296,"立體":14297,"職災":14298,"舒緩":14299,"西南":14300,"身影":14301,"點心":14302,"所以我們":14303,"不同意":14304,"明顯的":14305,"文章來源":14306,"柔道館":14307,"人力銀行":14308,"公費接種":14309,"不可以":14310,"付錢":14311,"份量":14312,"北北":14313,"吸毒":14314,"多年的":14315,"奇景":14316,"契機":14317,"小黃":14318,"序列":14319,"想知道":14320,"掃描":14321,"擴產":14322,"日間":14323,"是非常":14324,"會場":14325,"水的":14326,"猛獅":14327,"的路":14328,"社福":14329,"與前":14330,"花園":14331,"調薪":14332,"辦案":14333,"那時候":14334,"都可":14335,"開球":14336,"隨機":14337,"雷射":14338,"食道":14339,">-,":14340,"機師的":14341,"病毒株":14342,"產業的":14343,"不僅是":14344,"呼吸心跳":14345,"外長會議":14346,"過失致死":14347,"不出來":14348,"入園":14349,"冒險":14350,"前提":14351,"及通報":14352,"命理":14353,"外遇":14354,"屋頂":14355,"手錶":14356,"日式":14357,"服刑":14358,"業的":14359,"樂部":14360,"氣質":14361,"滿級分":14362,"獨居":14363,"生效":14364,"盤點":14365,"種子":14366,"簽名":14367,"續約":14368,"訂購":14369,"認養":14370,"輿論":14371,"這群":14372,"這兩天":14373,"除罪":14374,"風向":14375,"甚至在":14376,"是否為":14377,"第二波":14378,"醫療口罩":14379,"意外發現":14380,"產生的":14381,"醫學系":14382,"一頭":14383,"三項":14384,"主計":14385,"其它":14386,"再擴大":14387,"分領先":14388,"加以":14389,"右側":14390,"外國人":14391,"屁股":14392,"我還":14393,"手續":14394,"攻堅":14395,"新課綱":14396,"日由":14397,"是從":14398,"有更多":14399,"歐元":14400,"毅力":14401,"毫不":14402,"清除":14403,"痕跡":14404,"耐心":14405,"被騙":14406,"轉戰":14407,"頁面":14408,"項鍊":14409,"餘元":14410,"高價":14411,"外送平台":14412,"日晚間在":14413,"就好了":14414,"大阪府":14415,"群體免疫":14416,"上修":14417,"上頭":14418,"下半場":14419,"伴侶":14420,"卻又":14421,"女優":14422,"寬鬆":14423,"專心":14424,"小說":14425,"思議":14426,"悠遊":14427,"成大":14428,"搞笑":14429,"書面":14430,"曾文":14431,"療癒":14432,"移轉":14433,"買進":14434,"追緝":14435,"追逐":14436,"違停":14437,"那是":14438,"鄉鎮":14439,"點數":14440,"今天是":14441,"還有網友":14442,"合作夥伴":14443,"地方法院":14444,"看這裡":14445,"砂石車":14446,"不雅":14447,"但要":14448,"保佑":14449,"刑警":14450,"升空":14451,"學費":14452,"崛起":14453,"所致":14454,"技藝":14455,"抄截":14456,"拉扯":14457,"新光":14458,"新住民":14459,"派人":14460,"生殖":14461,"看不到":14462,"石虎":14463,"稅務":14464,"自住":14465,"補強":14466,"調節":14467,"超強":14468,"運河":14469,"長相":14470,"香蕉":14471,"發生了":14472,"系統的":14473,"腳踏車":14474,"韻律體操":14475,"一杯":14476,"中等":14477,"俱樂部":14478,"利多":14479,"友好":14480,"呼應":14481,"嘉年華":14482,"好不容易":14483,"家鄉":14484,"導覽":14485,"就像是":14486,"川普":14487,"巨蟹":14488,"後衛":14489,"微笑":14490,"忘錄":14491,"惡煞":14492,"技職":14493,"控管":14494,"改建":14495,"新店":14496,"時任":14497,"最初":14498,"每一個":14499,"民代":14500,"準確":14501,"火山":14502,"無期徒刑":14503,"當街":14504,"的兩":14505,"相約":14506,"硬碟":14507,"確切":14508,"粉紅":14509,"警車":14510,"買了一":14511,"超音":14512,"身障":14513,"per15":14514,"今年初":14515,"其他國家":14516,"新冠肺炎疫苗":14517,"研究團隊":14518,"醫療院所":14519,"之一的":14520,"備忘錄":14521,"好嗎":14522,"季營收":14523,"客製":14524,"封閉":14525,"尖叫":14526,"影視":14527,"後也":14528,"成以上":14529,"氣勢":14530,"演練":14531,"燈號":14532,"的行動":14533,"竹苗":14534,"總會":14535,"老鷹":14536,"聽了":14537,"萬多":14538,"衍生":14539,"謀殺":14540,"轉彎":14541,"飛航":14542,"體質":14543,"學生在":14544,"經驗老實說":14545,"呼吸器":14546,"初步調查":14547,"空氣品質":14548,"優質先發":14549,"只剩下":14550,"洗衣機":14551,"原能會":14552,"一級":14553,"不忍":14554,"人文":14555,"仍以":14556,"他要":14557,"借錢":14558,"及東":14559,"受疫情影響":14560,"名黑衣人":14561,"增多":14562,"天生":14563,"子公司":14564,"就沒":14565,"座椅":14566,"強硬":14567,"很好的":14568,"我認為":14569,"戴好":14570,"手部":14571,"是真的":14572,"熊貓":14573,"的想法":14574,"胞胎":14575,"自爆":14576,"裁決":14577,"這條":14578,"這篇":14579,"韓職":14580,"增加了":14581,"企業的":14582,"醫療資源":14583,"引發網友":14584,"人才培育":14585,"範圍內":14586,"自費接種":14587,"合併營收":14588,"評委會":14589,"大甲媽":14590,"持續加強疫情監測與邊境管制措施":14591,"之家":14592,"善用":14593,"在未來":14594,"將繼續":14595,"就診":14596,"年以下":14597,"幾次":14598,"接力":14599,"收治":14600,"有別":14601,"歹徒":14602,"燃氣":14603,"界線":14604,"督察":14605,"砸電腦":14606,"立院":14607,"等候":14608,"自認":14609,"詮釋":14610,"調味":14611,"變形":14612,"負荷":14613,"購入":14614,"同時主動":14615,"貼文發出後":14616,"學習歷程":14617,"不可思議":14618,"上千隻蟑螂":14619,"配戴口罩儘速就醫":14620,"以利及時診斷":14621,"並依指示配戴口罩儘速就醫":14622,"以利及時診斷及通報":14623,"下課":14624,"公會":14625,"刀流":14626,"劇場":14627,"千金":14628,"去看":14629,"及相關":14630,"向法院":14631,"吸入":14632,"在二軍":14633,"場均":14634,"壓迫":14635,"女的":14636,"年至":14637,"拖吊":14638,"整個人":14639,"日來":14640,"旺季":14641,"是因":14642,"案的":14643,"法庭":14644,"潮流":14645,"為空":14646,"為避免":14647,"的方向":14648,"空品":14649,"簡報":14650,"聯制":14651,"自備":14652,"衣物":14653,"褲子":14654,"視線":14655,"達標":14656,"開箱":14657,"顏面":14658,"飆出":14659,"首要":14660,"相關資訊":14661,"工作室":14662,"這些人":14663,"期間並無":14664,"死亡病例":14665,"受訪者":14666,"有局部短暫雨":14667,"經濟成長率":14668,"爆廢公社":14669,"航空器感染":14670,"?「":14671,"上學":14672,"不准":14673,"也因":14674,"修訂":14675,"偏少":14676,"兩週":14677,"出清":14678,"到校":14679,"北方":14680,"可樂":14681,"善款":14682,"嘴巴":14683,"回溯":14684,"堅強":14685,"大臣":14686,"失掉":14687,"密度":14688,"快閃":14689,"房仲":14690,"撕裂":14691,"攔查":14692,"散布":14693,"有機":14694,"注重":14695,"為基礎":14696,"生了":14697,"的球員":14698,"精選":14699,"緩慢":14700,"考區":14701,"聽說":14702,"賭博":14703,"輕易":14704,"郵件":14705,"長征":14706,"開展":14707,"離奇":14708,"警方到場":14709,"社會責任":14710,"公里處":14711,"晶圓代工":14712,"自助餐":14713,"實名制":14714,"人列居家隔離":14715,"但也有人":14716,"低收入":14717,"光電":14718,"卡車":14719,"向來":14720,"在大陸":14721,"外傳":14722,"奉獻":14723,"左手":14724,"恐龍":14725,"是被":14726,"有超過":14727,"派對":14728,"火化":14729,"熱度":14730,"特性":14731,"甚麼":14732,"的力量":14733,"的立場":14734,"砸毀":14735,"街道":14736,"要將":14737,"配戴":14738,"鑽石":14739,"開著":14740,"風潮":14741,"點的":14742,"今日宣布":14743,"指揮中心統計":14744,"維持在":14745,"第三節":14746,"根本沒":14747,"水情拉警報":14748,"自責分":14749,"!」。":14750,"上游":14751,"上半年":14752,"下手":14753,"例不明":14754,"例航空器感染":14755,"侮辱":14756,"做事":14757,"共鳴":14758,"刑法":14759,"受限":14760,"四年":14761,"國考":14762,"徐男":14763,"打過":14764,"新德里":14765,"活化":14766,"用路人":14767,"等方式":14768,"管管":14769,"結石":14770,"處所":14771,"警訊":14772,"貼近":14773,"配上":14774,"今年第一季":14775,"警方獲報":14776,"希望可以":14777,"告知醫師旅遊史及接觸史":14778,"人行道":14779,"同時主動告知醫師旅遊史及接觸史":14780,"一句話":14781,"之道":14782,"人檢驗中":14783,"位居":14784,"促銷":14785,"停靠":14786,"勇奪":14787,"反正":14788,"命運":14789,"士頓":14790,"外流":14791,"外站":14792,"將提供":14793,"帶到":14794,"延遲":14795,"忙碌":14796,"放送":14797,"永慶":14798,"沒收":14799,"發聲明":14800,"的政策":14801,"的挑戰":14802,"皇上":14803,"繳費":14804,"萬畫素":14805,"認罪":14806,"讓不少":14807,"還不錯":14808,"都無法":14809,"陰影":14810,"首發":14811,"服務處":14812,"是否能":14813,"另外還有":14814,"只要有":14815,"怎麼會":14816,"一直是":14817,"警察局長":14818,"考試院":14819,"節目中":14820,"打造的":14821,"再抽電影票相關新聞影音":14822,"限時下殺":14823,"驅逐艦":14824,"收容人":14825,"一到":14826,"不認識":14827,"不合理":14828,"入手":14829,"分裂":14830,"四月":14831,"在國際":14832,"埃及":14833,"多起":14834,"學家":14835,"對我":14836,"強大的":14837,"攔截":14838,"於今年":14839,"歸隊":14840,"泡沫":14841,"流感":14842,"清單":14843,"潑蟑":14844,"牙齒":14845,"的女性":14846,"的效果":14847,"趁機":14848,"跑去":14849,"輕忽":14850,"都需要":14851,"難關":14852,"馬拉":14853,"民眾對":14854,"今天舉行":14855,"我們也":14856,"生活品質":14857,"照片來源":14858,"個案接觸者":14859,"怎麼樣":14860,"...」、「":14861,"知名的":14862,"宜蘭縣":14863,"密切接觸者":14864,"一旁的":14865,"主帥":14866,"低迷":14867,"公衛":14868,"共軍":14869,"則由":14870,"加持":14871,"十二":14872,"原價":14873,"原定":14874,"在高雄":14875,"地表":14876,"年金":14877,"後疫情":14878,"急著":14879,"您的":14880,"愛上":14881,"抨擊":14882,"拍片":14883,"救難":14884,"日早上":14885,"曖昧":14886,"氣球":14887,"洋砲":14888,"洩漏":14889,"無匡列接觸者":14890,"瑕疵":14891,"生下":14892,"的可能":14893,"的速度":14894,"看傻":14895,"繁榮":14896,"罹癌":14897,"芝麻":14898,"警局長":14899,"鍵盤":14900,"因為有":14901,"產品的":14902,"身體健康":14903,"觀察到":14904,"境外生":14905,"下一代":14906,"創新號":14907,"不良反應":14908,"確診個案中":14909,"事前":14910,"二級":14911,"人命":14912,"備起來":14913,"再現":14914,"冷血":14915,"列出":14916,"口袋":14917,"姓主嫌":14918,"學歷":14919,"必備":14920,"打得":14921,"掃黑":14922,"掌控":14923,"村民":14924,"止痛":14925,"歲童":14926,"減重":14927,"申訴":14928,"股份":14929,"落幕":14930,"藝文":14931,"蘿蔔":14932,"襲擊":14933,"課題":14934,"費城":14935,"趕到現場":14936,"辭職":14937,"農場":14938,"雞腿":14939,"離家":14940,"馬斯":14941,"特別的":14942,"死亡率":14943,"有多少":14944,"的一部分":14945,"有一位":14946,"降雨量":14947,"終於在":14948,"消防隊":14949,"生涯第":14950,"一張照片":14951,"幼稚園":14952,"中油":14953,"休養":14954,"僅次":14955,"公立":14956,"周五":14957,"和他":14958,"報價":14959,"應是":14960,"接駁":14961,"握手":14962,"新版":14963,"日登場":14964,"會對":14965,"格蘭":14966,"條規定":14967,"榮耀":14968,"樂見":14969,"檢定":14970,"水車":14971,"物價":14972,"猥褻":14973,"的學校":14974,"的資料":14975,"的空間":14976,"皆為陰性":14977,"神情":14978,"要多":14979,"要看":14980,"負起":14981,"造訪":14982,"遇過":14983,"運量":14984,"重機":14985,"野手":14986,"長得":14987,"鞭炮":14988,"高架":14989,"鼻子":14990,"民眾在":14991,"進行檢疫":14992,"小時後":14993,"第二劑":14994,"發文指出":14995,"畫面中":14996,"分鐘內":14997,"絕對是":14998,"值得一提":14999,"自動駕駛":15000,"百分之":15001,"美國總統拜登":15002,"犧牲打":15003,"匯流新聞網記者":15004,"期間並無症狀":15005,"之地":15006,"佈局":15007,"促使":15008,"南京":15009,"去了":15010,"台電":15011,"問到":15012,"在臺":15013,"在哪裡":15014,"大同":15015,"姓嫌犯":15016,"婚變":15017,"季的":15018,"平面":15019,"心靈":15020,"扶助":15021,"搜出":15022,"方位":15023,"易科罰金":15024,"模型":15025,"檸檬":15026,"歲男子":15027,"用完":15028,"緩起訴":15029,"考古":15030,"腹瀉":15031,"行使":15032,"評審":15033,"賽道":15034,"迴響":15035,"遭撞":15036,"錯了":15037,"防空":15038,"阻塞":15039,"靈感":15040,"駕照":15041,"體制":15042,"org14":15043,">.+":15044,"作業系統":15045,"攝影機":15046,"還要再":15047,"澄清湖":15048,"繁星推薦":15049,"天然氣":15050,"影劇新聞":15051,"之路":15052,"來台灣":15053,"勇於":15054,"宴會":15055,"實聯制":15056,"布袋":15057,"日召開":15058,"歐洲":15059,"特價":15060,"留學":15061,"的報導":15062,"的規定":15063,"眉角":15064,"研習":15065,"碎片":15066,"私校":15067,"管線":15068,"節能":15069,"總處":15070,"罪名":15071,"腸道":15072,"與家人":15073,"莫名":15074,"衰退":15075,"要價":15076,"質感":15077,"趴趴":15078,"載具":15079,"運價":15080,"陣中":15081,"首打席":15082,"確診新冠肺炎":15083,"什麼事":15084,"手機的":15085,"指揮中心發言人":15086,"提升守護":15087,"主場迎戰":15088,"提升守護力":15089,"一手":15090,"不下去":15091,"人道":15092,"以此":15093,"但沒想到":15094,"命題":15095,"外傷":15096,"大立":15097,"已採檢":15098,"攔下":15099,"明尼":15100,"最慘":15101,"榮譽":15102,"正向":15103,"無預警":15104,"爭吵":15105,"發給":15106,"的數據":15107,"網驚":15108,"肉品":15109,"藥廠":15110,"螢火":15111,"見過":15112,"貴人":15113,"還曾":15114,"那裡":15115,"都非常":15116,"首款":15117,"駐駕":15118,"高手":15119,"鵜鶘":15120,"黨派":15121,"出現發燒":15122,"其中一":15123,"比較多":15124,"都會有":15125,"半導體產業":15126,"確診者足跡":15127,"意識到":15128,"健身房":15129,"移除為空":15130,"一向":15131,"上揚":15132,"上空":15133,"之意":15134,"二手":15135,"併發":15136,"侵入":15137,"價差":15138,"到期":15139,"區塊":15140,"卻沒":15141,"只需":15142,"名員工":15143,"固醇":15144,"均衡":15145,"多款":15146,"導航":15147,"已無":15148,"平鎮":15149,"忍痛":15150,"更容易":15151,"校務":15152,"格外":15153,"款這裡":15154,"永久":15155,"滑梯":15156,"的美國":15157,"的最大":15158,"的作品":15159,"社宅":15160,"笑死":15161,"給自己":15162,"網笑":15163,"美技":15164,"說了":15165,"護欄":15166,"買單":15167,"跟蹤":15168,"選到":15169,"領隊":15170,"黑白":15171,"台灣人民":15172,"防疫懶人包":15173,"什麼時候":15174,"攝影師":15175,"不好意思":15176,"熱門議題":15177,"多種醫療口罩":15178,"得點圈":15179,"超夯款這裡":15180,"移除為空號":15181,"防疫懶人包備起來":15182,"超夯款這裡挑選":15183,"一番":15184,"他對":15185,"但對":15186,"你可以":15187,"原諒":15188,"幫你":15189,"心血管":15190,"擅自":15191,"散播":15192,"有信心":15193,"桌上":15194,"歡樂":15195,"歲女":15196,"決勝":15197,"海峽":15198,"炸彈":15199,"特徵":15200,"產值":15201,"眼尖":15202,"等十大":15203,"聯電":15204,"行事":15205,"被判":15206,"走入":15207,"趕抵":15208,"跑回":15209,"過關":15210,"遏止":15211,"都必須":15212,"鄉親":15213,"關門":15214,"阪神":15215,"雙子":15216,"驚艷":15217,"更多影劇新聞":15218,"發生後":15219,"希望他":15220,"生活的":15221,"朋友的":15222,"商品經驗老實說":15223,"年前的":15224,"現行犯":15225,"地下水":15226,"時事關鍵字":15227,"加密貨幣":15228,"里程碑":15229,"三角":15230,"九二":15231,"二刀流":15232,"五年":15233,"人陰性":15234,"促成":15235,"做成":15236,"億支":15237,"兩場":15238,"列自主健康管理":15239,"回復":15240,"回鑾":15241,"地主":15242,"將她":15243,"很像":15244,"復活":15245,"徵收":15246,"找尋":15247,"有夠":15248,"有能力":15249,"此一":15250,"步行":15251,"濕地":15252,"炒房":15253,"特權":15254,"球賽":15255,"當兵":15256,"的計畫":15257,"秘訣":15258,"精采":15259,"裝飾":15260,"身旁":15261,"追到":15262,"通勤":15263,"閃避":15264,"鞋子":15265,"頓時":15266,"台灣好手":15267,"真的好":15268,"施打率":15269,"至少要":15270,"成員國":15271,"時代的":15272,"富邦勇士":15273,"第四節":15274,"再抽電影票今日推薦影音":15275,"現代人":15276,"法說會":15277,"一筆":15278,"一號":15279,"之星":15280,"倡議":15281,"僑民":15282,"內外":15283,"兼具":15284,"大王":15285,"大鬧":15286,"失守":15287,"才被":15288,"掙扎":15289,"搭公車":15290,"旺盛":15291,"查明":15292,"玉山":15293,"界的":15294,"的決心":15295,"線的":15296,"肥胖":15297,"胸痛":15298,"豪門":15299,"賣家":15300,"車隊":15301,"這才":15302,"這兩個":15303,"速球":15304,"連霸":15305,"那就是":15306,"配發":15307,"鉅星":15308,"順暢":15309,"騎乘":15310,"點餐":15311,"億元的":15312,"交易量":15313,"疫苗接種假":15314,"為什麼要":15315,"保證金":15316,">!<":15317,"不吃":15318,"不著":15319,"也引起":15320,"亮麗":15321,"億劑":15322,"刑責":15323,"創傷":15324,"叫做":15325,"同業":15326,"向前":15327,"因案":15328,"墊底":15329,"天花":15330,"容忍":15331,"幕僚":15332,"應屆":15333,"撤換":15334,"教務":15335,"旗下的":15336,"暴斃":15337,"月以來":15338,"本場":15339,"橫跨":15340,"水溝":15341,"流水":15342,"熱銷":15343,"疲勞":15344,"的選擇":15345,"盛行":15346,"破獲":15347,"考前":15348,"舊金山":15349,"船長":15350,"調降":15351,"運轉":15352,"郵局":15353,"阿拉":15354,"飛犧牲打":15355,"學生們":15356,"警方獲報後":15357,"所以我":15358,"感到相當":15359,"外野手":15360,"這段期間":15361,"大雨特報":15362,"雲端發票":15363,"福島核廢水":15364,"房地合一":15365,"超音波":15366,"不開車":15367,"五十":15368,"人頭":15369,"修圖":15370,"切割":15371,"前幾天":15372,"包機":15373,"南市":15374,"反制":15375,"口號":15376,"只不過":15377,"喪失":15378,"在台中":15379,"基準":15380,"多國":15381,"奪勝":15382,"就已":15383,"張照片":15384,"教材":15385,"日夜":15386,"更具":15387,"流失":15388,"淚崩":15389,"溫柔":15390,"潑蟑螂":15391,"的成績":15392,"聯發":15393,"聯結":15394,"自拍":15395,"自去年":15396,"般的":15397,"蔬果":15398,"藍寶":15399,"裝設":15400,"警官":15401,"走上":15402,"軍政府":15403,"軟銀":15404,"農藥":15405,"這件事情":15406,"遵循":15407,"都不能":15408,"雖有":15409,"靈魂":15410,"養殖":15411,"當地的":15412,"不僅如此":15413,"一般民眾":15414,"群聚事件":15415,"護理人員":15416,"通訊軟體":15417,"游泳池":15418,"截至目前國內累計":15419,"火燒車":15420,"太平洋":15421,"值得一提的是":15422,"螢火蟲":15423,"上陣":15424,"也以":15425,"人住院隔離":15426,"仰賴":15427,"但沒有":15428,"你會":15429,"兵庫":15430,"力拚":15431,"卻因為":15432,"命名":15433,"嘉賓":15434,"好在":15435,"姓員警":15436,"將對":15437,"巴克":15438,"延誤":15439,"想辦法":15440,"抽血":15441,"揚言":15442,"更快":15443,"更進一步":15444,"最愛的":15445,"月光":15446,"波蘭":15447,"注入":15448,"測量":15449,"球速":15450,"的理由":15451,"看診":15452,"真人":15453,"秘境":15454,"符號":15455,"紅火":15456,"結算":15457,"美照":15458,"長久":15459,"顯見":15460,"可以透過":15461,"進行的":15462,"一起來":15463,"有效的":15464,"柔道童":15465,"大雨勢":15466,"印象深刻":15467,"內湖店":15468,"加權指數":15469,"鉅星匯":15470,"並向":15471,"人解除隔離":15472,"兒少":15473,"內有":15474,"化身":15475,"周一":15476,"學程":15477,"定讞":15478,"幹事":15479,"悲痛":15480,"惡劣":15481,"憲法":15482,"承辦":15483,"振興":15484,"收取":15485,"改採":15486,"最具":15487,"朝向":15488,"氣體":15489,"灰色":15490,"珠寶":15491,"競技":15492,"等同":15493,"綁定":15494,"翻黑":15495,"請來":15496,"逃兵":15497,"透天":15498,"馬路上":15499,"高通":15500,"今天說":15501,"就是在":15502,"出現的":15503,"雖然有":15504,"諾富特案":15505,"!」[":15506,"鋒面影響":15507,"當然是":15508,"值得注意的是":15509,"趴趴走":15510,"大立光":15511,"人住院隔離中":15512,"不肯":15513,"共犯":15514,"吸菸":15515,"壽命":15516,"大運":15517,"好玩":15518,"姓教官":15519,"對向":15520,"巨頭":15521,"已婚":15522,"愛吃":15523,"應徵":15524,"撤僑":15525,"曾是":15526,"案子":15527,"水中":15528,"滋事":15529,"熱火":15530,"眼看":15531,"製氧":15532,"複製":15533,"要怎麼":15534,"親民":15535,"詳情":15536,"說他":15537,"課本":15538,"豆漿":15539,"貴的":15540,"農村":15541,"速食":15542,"還算":15543,"都府":15544,"都不是":15545,"錢包":15546,"雨區":15547,"麥當":15548,"日本火腿":15549,"送醫急救":15550,"社群網站":15551,"市占率":15552,"聯發科":15553,"。」、「":15554,"一併":15555,"不一":15556,"不被":15557,"也從":15558,"也持續":15559,"仍持續":15560,"例調查中":15561,"價錢":15562,"公權力":15563,"切勿":15564,"前陣子":15565,"升上一軍":15566,"單親":15567,"大廳":15568,"大海":15569,"央行":15570,"就職":15571,"座的":15572,"拉長":15573,"放進":15574,"斥資":15575,"春天":15576,"會晤":15577,"棉花":15578,"權值":15579,"殺出":15580,"物體":15581,"的考生":15582,"紅茶":15583,"總量":15584,"被動":15585,"親人":15586,"誠實":15587,"較大雨勢":15588,"逆向":15589,"逗趣":15590,"遍布":15591,"配息":15592,"重罰":15593,"可以說是":15594,"電話號碼":15595,"傳出有":15596,"公尺的":15597,"花蓮縣":15598,"一組":15599,"不好的":15600,"不方便":15601,"並不會":15602,"人祥":15603,"分工":15604,"分隊":15605,"參拜":15606,"圓滿":15607,"幫我":15608,"感冒":15609,"掛牌":15610,"推車":15611,"搭上":15612,"擴展":15613,"擺放":15614,"收斂":15615,"改編":15616,"最嚴重":15617,"會很":15618,"會把":15619,"有成":15620,"榜首":15621,"橫濱":15622,"滅絕":15623,"灰狼":15624,"物聯網":15625,"的味道":15626,"的做法":15627,"究竟是":15628,"立夏":15629,"莊人祥":15630,"要他":15631,"記載":15632,"跑鞋":15633,"辛勞":15634,"逃亡":15635,"連連":15636,"防丟":15637,"雙魚":15638,"電費":15639,"頂樓":15640,"食慾":15641,"駐處":15642,"高低":15643,"高出":15644,"台中捷運":15645,"經濟發展":15646,"引發討論":15647,"交流道":15648,"路上觀察":15649,"診所就醫":15650,"印度疫情失控":15651,"美術館":15652,"今日公布國內新增":15653,"新型冠狀病毒肺炎":15654,"護國神山":15655,"九二共識":15656,"不解":15657,"主治":15658,"以便":15659,"企劃":15660,"偷吃":15661,"全台灣":15662,"兩隻":15663,"列印":15664,"到一半":15665,"副總":15666,"反壟斷":15667,"同志":15668,"嘲諷":15669,"國宅":15670,"國策":15671,"場的":15672,"孫女":15673,"少見":15674,"山東":15675,"市政":15676,"打回":15677,"撻伐":15678,"日期間":15679,"會影響":15680,"有待":15681,"此項":15682,"沒問題":15683,"深感":15684,"獲取":15685,"異狀":15686,"病變":15687,"的政治":15688,"禮貌":15689,"缺口":15690,"蛋黃":15691,"要用":15692,"跟大家":15693,"選戰":15694,"鐵人":15695,"靠這些":15696,"頒發":15697,"騎樓":15698,"體諒":15699,"就是因為":15700,"甚至連":15701,"第二個":15702,"也會有":15703,"共同努力":15704,"外界關注":15705,"至今已":15706,"直播主":15707,"超商買":15708,"自來水":15709,"麥當勞":15710,"也提供":15711,"亞太":15712,"以確保":15713,"倒塌":15714,"健檢":15715,"偵訊":15716,"傷兵":15717,"全是":15718,"反霸凌":15719,"嚴辦":15720,"圖案":15721,"夜晚":15722,"換新":15723,"散步":15724,"新手":15725,"會與":15726,"有肌":15727,"東方":15728,"歲時":15729,"泌尿":15730,"法治":15731,"無需":15732,"熱身":15733,"燙傷":15734,"症候":15735,"白宮":15736,"的重點":15737,"的家人":15738,"看的":15739,"私密":15740,"翻身":15741,"考取":15742,"被抓":15743,"輪到":15744,"送至":15745,"進修":15746,"邀約":15747,"阮男":15748,"希望能夠":15749,"一定的":15750,"太空船":15751,"勞工朋友":15752,"公共危險":15753,"的心情":15754,"節約用水":15755,"一團":15756,"一百":15757,"不爽":15758,"之內":15759,"人人":15760,"卸任":15761,"受災":15762,"合體":15763,"在台北市":15764,"大樹":15765,"寫真":15766,"對岸":15767,"巨大的":15768,"心肌":15769,"撿到":15770,"故無匡列接觸者":15771,"施行":15772,"死了":15773,"流鼻":15774,"為自己":15775,"生小孩":15776,"田中":15777,"畫作":15778,"的女兒":15779,"統測":15780,"與他":15781,"霸主":15782,"高山":15783,"防疫人員":15784,"關係的":15785,"一直到":15786,"就有一名":15787,"穩定的":15788,"進一步釐清":15789,"綜合外媒報導":15790,"最終以":15791,"事務所":15792,"很高興":15793,"罹難者家屬":15794,"一帶一路":15795,"傷重不治":15796,"路上觀察學院":15797,"三十":15798,"丟蟑螂":15799,"來襲":15800,"則會":15801,"則回應":15802,"又以":15803,"名嫌犯":15804,"在網上":15805,"多多":15806,"大罵":15807,"天降":15808,"存活":15809,"就因":15810,"影城":15811,"徒步":15812,"心想":15813,"念書":15814,"怒批":15815,"手持":15816,"接替":15817,"擁抱":15818,"月時":15819,"有如":15820,"有雨":15821,"極度":15822,"櫻花":15823,"江蘇":15824,"演技":15825,"無可":15826,"牠的":15827,"用力":15828,"的症狀":15829,"移植":15830,"站的":15831,"站穩":15832,"聯訪":15833,"背部":15834,"菜單":15835,"藍鳥":15836,"街上":15837,"這點":15838,"造假":15839,"過境":15840,"達比":15841,"酒醉":15842,"金馬":15843,"飲品":15844,"驚豔":15845,"疫情擴大":15846,"疫苗後":15847,"進行調查":15848,"希望在":15849,"受到疫情影響":15850,"調整為":15851,"不對勁":15852,"翻攝自":15853,"」...":15854,"一棟":15855,"一方面":15856,"下個":15857,"再爆":15858,"出水":15859,"副組長":15860,"友達":15861,"和朋友":15862,"喝水":15863,"單節":15864,"在今天":15865,"學柔道":15866,"室外":15867,"寶座":15868,"平地":15869,"年成長":15870,"康橋":15871,"恐有":15872,"憑藉":15873,"成品":15874,"才不會":15875,"捲入":15876,"搶攻":15877,"月線":15878,"有在":15879,"洗錢":15880,"現役":15881,"疑問":15882,"發酵":15883,"矚目":15884,"科主任":15885,"竄出":15886,"緩刑":15887,"聽取":15888,"肺部":15889,"製品":15890,"誤解":15891,"警衛":15892,"身上的":15893,"輛車":15894,"轉身":15895,"這支":15896,"連忙":15897,"闖進":15898,"體能":15899,"防疫破口":15900,"社會的":15901,"只要在":15902,"對方的":15903,"的話題":15904,"防護衣":15905,"年以下有期徒刑":15906,"國策顧問":15907,"一千":15908,"不來":15909,"使館":15910,"修憲":15911,"做什麼":15912,"優良":15913,"剛開始":15914,"協力":15915,"各級":15916,"在這裡":15917,"填寫":15918,"多萬":15919,"姓老翁":15920,"實戰":15921,"小港":15922,"巡防":15923,"擅長":15924,"散發":15925,"日及":15926,"春節":15927,"期刊":15928,"淪陷":15929,"湧現":15930,"痠痛":15931,"的患者":15932,"的意思":15933,"精密":15934,"翻倍":15935,"考科":15936,"英聽":15937,"訪談":15938,"請回":15939,"購票":15940,"週一":15941,"長年":15942,"電纜":15943,"可以讓":15944,"美國與":15945,"活動期間":15946,"必須在":15947,"顯示器":15948,"方面的":15949,"千萬別":15950,"接獲通報":15951,"原住民族":15952,"達比修":15953,"不影響":15954,"並透過":15955,"也證實":15956,"他將":15957,"低估":15958,"侵略":15959,"分組":15960,"前天":15961,"前景":15962,"同為":15963,"員林":15964,"堅尼":15965,"天空":15966,"娘家":15967,"官邸":15968,"年到":15969,"形狀":15970,"所學校":15971,"抖音":15972,"抵抗":15973,"拿出來":15974,"接單":15975,"撫養":15976,"旅程":15977,"會同":15978,"月子":15979,"有線":15980,"歌迷":15981,"民事":15982,"無助":15983,"的時刻":15984,"瞄準":15985,"神轎":15986,"經貿":15987,"縱放":15988,"耳朵":15989,"聖誕":15990,"若能":15991,"蘭嶼":15992,"製成":15993,"解說":15994,"返鄉":15995,"逃跑":15996,"通道":15997,"釀禍":15998,"難民":15999,"露營":16000,"馬桶":16001,"高市":16002,"麥克":16003,"點燃":16004,"國際組織":16005,"面對面":16006,"了一些":16007,"另一位":16008,"勞動部":16009,"年齡層":16010,"藻礁公投":16011,"塑膠袋":16012,"美式賣場":16013,"一樓":16014,"之同住家人":16015,"交友":16016,"凝聚":16017,"出包":16018,"卻未":16019,"在過去":16020,"大了":16021,"失靈":16022,"姐妹":16023,"將為":16024,"對中":16025,"就想":16026,"層面":16027,"年新高":16028,"捕獲":16029,"操控":16030,"日因":16031,"星巴克":16032,"最難":16033,"染黑":16034,"樣貌":16035,"法制":16036,"海面":16037,"病友":16038,"的商品":16039,"的模樣":16040,"盛舉":16041,"總價":16042,"行員":16043,"說謊":16044,"調升":16045,"證物":16046,"資政":16047,"轉帳":16048,"過當":16049,"預訂":16050,"類對象":16051,"都是在":16052,"同時也是":16053,"產業發展":16054,"兒子的":16055,"竟然是":16056,"數位化":16057,"發出聲明":16058,"在家裡":16059,"陳時中表示":16060,"一連串":16061,"一分":16062,"中學":16063,"串連":16064,"也透過":16065,"入圍":16066,"分之一":16067,"則可":16068,"各家":16069,"各隊":16070,"大事":16071,"接續":16072,"搭檔":16073,"核災":16074,"機的":16075,"演奏":16076,"熄火":16077,"營建":16078,"爭奪":16079,"的多":16080,"的壓力":16081,"的案例":16082,"綜藝":16083,"聖母":16084,"謠言":16085,"超好吃":16086,"轉發":16087,"追回":16088,"遭控":16089,"那天":16090,"進行消毒":16091,"其中包含":16092,"第二名":16093,"疑似是":16094,"保護自己":16095,"送醫不治":16096,"數位轉型":16097,"關心您":16098,"機師染疫事件":16099,"國防部長":16100,"全民省水":16101,"請勿模仿":16102,"不應求":16103,"小龍女":16104,"全民省水靠這些":16105,"不開":16106,"並對":16107,"做過":16108,"共襄":16109,"吸食":16110,"完後":16111,"小貨車":16112,"居留":16113,"後者":16114,"心得":16115,"性命":16116,"打壓":16117,"披露":16118,"搭車":16119,"極大":16120,"機上":16121,"的技術":16122,"秒懂":16123,"經查":16124,"而被":16125,"肌瘤":16126,"自有":16127,"複合":16128,"該怎麼辦":16129,"起了":16130,"起底":16131,"這台":16132,"過濾":16133,"那就":16134,"防水":16135,"題型":16136,"香氣":16137,"網友表示":16138,"持續疫情監測與邊境管制措施":16139,"經濟復甦":16140,"蘋果發表會":16141,"表現亮眼":16142,"新增的":16143,"行政區":16144,"電視劇":16145,"購物中心":16146,"台北市黨部評委召集人":16147,"債務糾紛":16148,"德基水庫":16149,"缺水危機提升守護力":16150,"超夯款這裡挑選水情拉警報":16151,"有肌勵":16152,"任期":16153,"低頭":16154,"你有":16155,"你知道":16156,"供不應求":16157,"偏高":16158,"備用":16159,"兩地":16160,"劇組":16161,"勝負":16162,"北捷":16163,"含氚":16164,"士兵":16165,"妨礙":16166,"就將":16167,"憑證":16168,"扶養":16169,"把人":16170,"拜訪":16171,"日籍":16172,"日深夜":16173,"是美國":16174,"本地":16175,"標誌":16176,"權責":16177,"水分":16178,"照常":16179,"特區":16180,"的投資":16181,"的治療":16182,"的女子":16183,"盡可能":16184,"紀律":16185,"行李":16186,"該處":16187,"買盤":16188,"重現":16189,"順便":16190,"顆三分球":16191,"餐館":16192,"因為我":16193,"第一位":16194,"機師案":16195,"也就是說":16196,"中山區":16197,"伸出":16198,"保有":16199,"入獄":16200,"名下":16201,"嘔吐":16202,"已成為":16203,"建物":16204,"復古":16205,"態勢":16206,"打下":16207,"昔日":16208,"是為":16209,"未遂":16210,"本屆":16211,"樹林":16212,"燈光":16213,"猶如":16214,"環球":16215,"的最佳":16216,"礦工":16217,"缺陣":16218,"美豬":16219,"老街":16220,"育有":16221,"船上":16222,"西部":16223,"評議":16224,"議論":16225,"趕到":16226,"路徑":16227,"追加":16228,"這天":16229,"逮人":16230,"道理":16231,"除名":16232,"陶瓷":16233,"頸部":16234,"驚爆":16235,"體型":16236,"鯊魚":16237,"防疫旅宿":16238,"的人數":16239,"個月後":16240,"提醒大家":16241,"回應表示":16242,"也不知道":16243,"入境時":16244,"下一秒":16245,"報警處理":16246,"資本支出":16247,"座談會":16248,"症候群":16249,"共襄盛舉":16250,"並說":16251,"今早":16252,"今下午":16253,"分隔":16254,"勝率":16255,"及案":16256,"反而是":16257,"受益":16258,"對自己":16259,"就表示":16260,"店裡":16261,"店長":16262,"待在":16263,"怒轟":16264,"搶下":16265,"放過":16266,"旱災":16267,"曾被":16268,"有過":16269,"爆棚":16270,"片段":16271,"的意見":16272,"的核心":16273,"私房":16274,"紅線":16275,"英鎊":16276,"製毒":16277,"跟隨":16278,"這一次":16279,"逮到":16280,"體會":16281,"可以用":16282,"我們在":16283,"已經被":16284,"北市府":16285,">-.":16286,"看到的":16287,"服務業":16288,"如果沒有":16289,"是否要":16290,"接觸到":16291,"運動家":16292,"舉行的":16293,"挑戰賽":16294,"證明文件":16295,"同期新高":16296,"水情吃緊":16297,"再生能源":16298,"一艘":16299,"下一步":16300,"不給":16301,"作客":16302,"例移除為空號":16303,"全食":16304,"列席":16305,"到位":16306,"動向":16307,"吃得":16308,"同年":16309,"哭了":16310,"國旗":16311,"場館":16312,"大橋":16313,"她和":16314,"威少":16315,"將進行":16316,"尊嚴":16317,"想問":16318,"憾事":16319,"抱持":16320,"拿鐵":16321,"擁擠":16322,"更改":16323,"會繼續":16324,"月球":16325,"檔期":16326,"水平":16327,"洋蔥":16328,"激素":16329,"瀕臨":16330,"無意":16331,"當心":16332,"的基礎":16333,"的日子":16334,"笑了":16335,"糟糕":16336,"荔枝":16337,"該國":16338,"讓更多":16339,"跌停":16340,"這句話":16341,"違背":16342,"都知道":16343,"配偶":16344,"量的":16345,"鑑別":16346,"開庭":16347,"防線":16348,"日本人":16349,"嚴重不良事件":16350,"大學學測":16351,"病例數":16352,"接獲報案":16353,"加油打氣":16354,"簡單的":16355,"工業區":16356,"全場最高":16357,"中南部山區":16358,"到案說明":16359,"圖片來源":16360,"成年人":16361,"主治醫師":16362,":[":16363,"三種":16364,"任意":16365,"作息":16366,"內建":16367,"公正":16368,"升格":16369,"反省":16370,"商標":16371,"圓夢":16372,"婚宴":16373,"將推出":16374,"就來":16375,"工安":16376,"工時":16377,"康乃":16378,"換算":16379,"攝氏":16380,"文物":16381,"明定":16382,"曼谷":16383,"標題":16384,"正視":16385,"水手":16386,"為因應":16387,"生子":16388,"的後":16389,"的網路":16390,"的足跡":16391,"編列":16392,"緩和":16393,"聲援":16394,"變換":16395,"質問":16396,"車位":16397,"車門":16398,"選在":16399,"附加":16400,"領養":16401,"駐外":16402,"甚至還有":16403,"畫面曝光":16404,"當地居民":16405,"競爭對手":16406,"三分之一":16407,"目擊民眾":16408,"偵查隊":16409,"執勤至":16410,"羈押禁見":16411,"輝瑞疫苗":16412,"總體檢":16413,"一動":16414,"一戶":16415,"不希望":16416,"假裝":16417,"偏低":16418,"優點":16419,"再加":16420,"副教授":16421,"喪禮":16422,"回台灣":16423,"地檢":16424,"地鐵":16425,"失事":16426,"奠定":16427,"干涉":16428,"復原":16429,"想買":16430,"應付":16431,"我自己":16432,"拓荒":16433,"排入海":16434,"插管":16435,"擾台":16436,"救助":16437,"早晚":16438,"沒在":16439,"液體":16440,"炒飯":16441,"然大":16442,"猛烈":16443,"的選手":16444,"相差":16445,"稀釋":16446,"立方公尺":16447,"綁架":16448,"置信":16449,"老家":16450,"螺絲":16451,"行蹤":16452,"規避":16453,"觸及":16454,"變數":16455,"變身":16456,"路況":16457,"輪椅":16458,"配料":16459,"鐵板":16460,"雷陣雨":16461,"首見":16462,"相關通報":16463,"我們要":16464,"發生意外":16465,"為了避免":16466,"運動會":16467,"偽造文書":16468,"中常會":16469,"整起事件":16470,"之稱的":16471,"也向":16472,"二次":16473,"五號":16474,"亞軍":16475,"估值":16476,"傳給":16477,"入門":16478,"再由":16479,"出勤":16480,"前瞻":16481,"取水":16482,"噴飛":16483,"回想":16484,"在後":16485,"士氣":16486,"嫩妻":16487,"左營":16488,"已向":16489,"市價":16490,"帶回家":16491,"張女":16492,"我沒有":16493,"扭曲":16494,"民進":16495,"法定":16496,"狀元":16497,"療法":16498,"的疫情":16499,"的地點":16500,"直球":16501,"看準":16502,"總冠軍賽":16503,"繽紛":16504,"肌膚":16505,"自曝":16506,"言語":16507,"賺到":16508,"趕往":16509,"道德":16510,"鎮壓":16511,"開立":16512,"開花":16513,"面目":16514,"頂標":16515,"點到":16516,"黨代表":16517,"台灣中華職棒":16518,"第一劑":16519,"公司治理":16520,"其中案":16521,"真的會":16522,"管理員":16523,"重點是":16524,"醫療體系":16525,"專家認為":16526,"引起熱議":16527,"引起網友熱議":16528,"捷運站":16529,"公共衛生":16530,"好奇詢問":16531,"超級月亮":16532,"防護力":16533,"短暫陣雨或雷雨":16534,"百貨公司":16535,"扣除額":16536,"辦事處":16537,"天花板":16538,"製氧機":16539,"一棒":16540,"上調":16541,"不打":16542,"中興":16543,"二樓":16544,"人車":16545,"但從":16546,"公道":16547,"分離":16548,"務實":16549,"半數":16550,"外匯":16551,"大叔":16552,"學分":16553,"對美國":16554,"巨型":16555,"收穫":16556,"春雨":16557,"林園":16558,"標語":16559,"殊榮":16560,"殯儀":16561,"水利":16562,"沿著":16563,"深的":16564,"溜滑梯":16565,"無價":16566,"珍愛":16567,"理髮":16568,"產線":16569,"的花":16570,"的學習":16571,"社長":16572,"維生素":16573,"聆聽":16574,"行走":16575,"試著":16576,"過大":16577,"青菜":16578,"駁斥":16579,"驚奇":16580,"髒話":16581,"疫情擴散":16582,"已經開始":16583,"發生過":16584,"資料來源":16585,"也不用":16586,"消防車":16587,"基本面":16588,"公斤的":16589,"官員表示":16590,"股東會":16591,"餐飲業":16592,"例不明及":16593,"不小":16594,"中年":16595,"了許多":16596,"倒是":16597,"出任":16598,"到第":16599,"功課":16600,"回流":16601,"地院":16602,"好成績":16603,"存摺":16604,"官司":16605,"宵夜":16606,"小編":16607,"尾盤":16608,"局用":16609,"往下":16610,"愛犬":16611,"戀情":16612,"戰場":16613,"戰局":16614,"擊中":16615,"攸關":16616,"月台":16617,"條第":16618,"標章":16619,"次高":16620,"款式":16621,"段時間":16622,"沒能":16623,"為他":16624,"疏散":16625,"痛心":16626,"發的":16627,"的價值":16628,"盛大":16629,"眼光":16630,"等議題":16631,"簡易":16632,"精華":16633,"缺料":16634,"聲浪":16635,"肉粽":16636,"被爆":16637,"贊成":16638,"逾百":16639,"配色":16640,"開局":16641,"降溫":16642,"鬥毆":16643,"點左右":16644,"應該會":16645,"諾富特員工":16646,"沒想到卻":16647,"則是在":16648,"校方表示":16649,"大批網友":16650,"陪同下":16651,"與他人接觸":16652,"除罪化":16653,"權值股":16654,"一期":16655,"不說":16656,"也感謝":16657,"仍須":16658,"保密":16659,"出問題":16660,"分類":16661,"功夫":16662,"包容":16663,"同盟":16664,"喊出":16665,"報銷":16666,"多方":16667,"將至":16668,"局被敲":16669,"巧合":16670,"拉回":16671,"拍戲":16672,"日以":16673,"日新增":16674,"日對戰":16675,"歐美":16676,"氣泡":16677,"混住":16678,"濃厚":16679,"煙火":16680,"爾夫":16681,"的最新":16682,"盛開":16683,"票價":16684,"線索":16685,"美學":16686,"自覺":16687,"認可":16688,"貼紙":16689,"運彩":16690,"都得":16691,"院校":16692,"類科":16693,"首輪":16694,"目前仍":16695,"今年度":16696,"除了有":16697,"臉書粉專":16698,"台中市長":16699,"系列賽":16700,"全面消毒":16701,"專案報告":16702,"返台後":16703,"咳嗽症狀":16704,"陌生人":16705,"藍寶堅尼":16706,"反霸凌專線":16707,"主廚":16708,"也在臉書":16709,"令他":16710,"估算":16711,"優雅":16712,"加分":16713,"包辦":16714,"古代":16715,"召回":16716,"台幹":16717,"右手":16718,"善盡":16719,"圖像":16720,"士尼":16721,"士林":16722,"就先":16723,"巴士":16724,"幫她":16725,"很喜歡":16726,"手遊":16727,"指令":16728,"排出":16729,"探究":16730,"救生":16731,"是指":16732,"是用":16733,"永康":16734,"為首":16735,"牆壁":16736,"犯下":16737,"簡章":16738,"胸口":16739,"號公車":16740,"走低":16741,"跟監":16742,"路易":16743,"返臺":16744,"遭拒":16745,"鐵道":16746,"闖關":16747,"順位":16748,"領土":16749,"高飛犧牲打":16750,"鳳山":16751,"黑暗":16752,"目前沒有":16753,"發生的機率":16754,"這個問題":16755,"高雄港":16756,"?」「":16757,"吸引不少":16758,"知名度":16759,"先生說":16760,"大量的":16761,"酒駕撞死":16762,"上升到":16763,"變種病毒株":16764,"組成的":16765,"適當防護":16766,"租屋處":16767,"殯儀館":16768,"》<":16769,"三餐":16770,"不順":16771,"中彈":16772,"也必須":16773,"介於":16774,"仍不":16775,"低薪":16776,"例新型冠狀病毒肺炎":16777,"倒臥":16778,"停放":16779,"兩黨":16780,"再創新高":16781,"勞保":16782,"周六":16783,"和台灣":16784,"增幅":16785,"外星":16786,"室友":16787,"就發現":16788,"席次":16789,"悲傷":16790,"挽回":16791,"探測":16792,"操縱":16793,"未知":16794,"未與他人接觸":16795,"水煮":16796,"無虞":16797,"猝死":16798,"用手機":16799,"的歷史":16800,"短片":16801,"破門":16802,"科興":16803,"積分":16804,"等單位":16805,"算法":16806,"老爸":16807,"肩膀":16808,"自強":16809,"自請":16810,"辭世":16811,"迪士尼":16812,"邊的":16813,"錦賽":16814,"院會":16815,"陳屍":16816,"雷霆":16817,"顱內":16818,"人員的":16819,"國家主席":16820,"指揮中心公布":16821,"根據了解":16822,"桃園領航猿":16823,"治療後":16824,"專家曝":16825,"近日在":16826,"行動支付":16827,"有人在":16828,"本土感染":16829,"母親節前夕":16830,"交通工具":16831,"監視器影像":16832,"展開調查":16833,"這名男子":16834,"領域的":16835,"接種疫苗後":16836,"毒品案":16837,"集中檢疫":16838,"不明原因":16839,"該名網友":16840,"建築物":16841,"本來就":16842,"武漢肺炎疫情":16843,"晶圓廠":16844,"看不下去":16845,"大專校院":16846,"客製化":16847,"三級":16848,"下山":16849,"並請":16850,"並進行":16851,"了一下":16852,"人群":16853,"倉儲":16854,"儀器":16855,"副董事長":16856,"合影":16857,"在澳洲":16858,"在國外":16859,"夫人":16860,"好喝":16861,"孤單":16862,"年約":16863,"幼鳥":16864,"廣角":16865,"心目":16866,"心中的":16867,"我也是":16868,"手腳":16869,"抓住":16870,"是她":16871,"是中國":16872,"書中":16873,"氣的":16874,"淪為":16875,"烤肉":16876,"玩耍":16877,"相繼":16878,"硬幣":16879,"簽證":16880,"衝破":16881,"負債":16882,"買雙":16883,"跨域":16884,"選票":16885,"都以":16886,"韓元":16887,"預言":16888,"結果出爐":16889,"最高可":16890,"訪問時":16891,"自費採檢":16892,"能源轉型":16893,"結帳再":16894,"足夠的":16895,"賓士車":16896,"滿意度":16897,"量測體溫":16898,"全球疫情大流行":16899,"解放軍":16900,"僅次於":16901,"!「<":16902,"不喝酒":16903,"並配合":16904,"之上":16905,"分店":16906,"別的":16907,"到大":16908,"吃素":16909,"回嗆":16910,"大腦":16911,"大逆轉":16912,"姑姑":16913,"季中":16914,"家園":16915,"崗位":16916,"市售":16917,"彌補":16918,"彩繪":16919,"怒了":16920,"懲罰":16921,"我跟":16922,"打扮":16923,"打炒房":16924,"招收":16925,"挖出":16926,"擦傷":16927,"政務":16928,"新郎":16929,"時隔":16930,"月到":16931,"校外":16932,"框架":16933,"歪樓":16934,"沒錯":16935,"消除":16936,"滿載":16937,"炒作":16938,"現貨":16939,"療程":16940,"的海":16941,"的機師":16942,"的案件":16943,"的承諾":16944,"租賃":16945,"肌力":16946,"與妻子":16947,"要再":16948,"規律":16949,"誕生":16950,"逝世":16951,"錄製":16952,"靠北":16953,"革命":16954,"中心主任":16955,"雖然沒有":16956,"管理局":16957,"透露自己":16958,"關鍵時刻":16959,"平台上":16960,"當地時間":16961,"台股今天":16962,"目標是":16963,"系列活動":16964,"研討會":16965,"?」。":16966,"一則":16967,"世衛":16968,"丟掉":16969,"也出現":16970,"乾燥":16971,"亂丟":16972,"信賴":16973,"傾倒":16974,"內閣":16975,"再享":16976,"品嚐":16977,"地雷":16978,"天上":16979,"年才":16980,"復發":16981,"心生":16982,"悄悄":16983,"把自己":16984,"招待":16985,"斯科":16986,"新年":16987,"日就":16988,"有害":16989,"查看這":16990,"母女":16991,"民幣":16992,"水上":16993,"沿途":16994,"深圳":16995,"爾蒙":16996,"環節":16997,"病史":16998,"的言論":16999,"秋冬":17000,"等不適症狀":17001,"給出":17002,"線條":17003,"老化":17004,"自菲律賓":17005,"號誌":17006,"行竊":17007,"車體":17008,"轄內":17009,"農會":17010,"逛街":17011,"遭黑衣人闖入":17012,"遺症":17013,"長髮":17014,"隱匿":17015,"首座":17016,"鹹酥雞":17017,"覺得自己":17018,"環境的":17019,"國內疫情":17020,"日起至":17021,"展現出":17022,"地球上":17023,"經理人":17024,"成交金額":17025,"國防部":17026,"求職者":17027,"曾文水庫":17028,"例新型冠狀病毒肺炎相關通報":17029,"查看這則貼文":17030,"上櫃":17031,"並稱":17032,"也想":17033,"也不要":17034,"事證":17035,"以致":17036,"來賓":17037,"億人":17038,"全開":17039,"凍結":17040,"升上":17041,"名叫":17042,"和牛":17043,"四強":17044,"地瓜":17045,"夏威":17046,"定案":17047,"將針對":17048,"就對":17049,"快點":17050,"忽視":17051,"指南":17052,"揭牌":17053,"擄人":17054,"水泥":17055,"滿地":17056,"火熱":17057,"災情":17058,"特考":17059,"盛事":17060,"眾議員":17061,"祖父":17062,"自嘲":17063,"解散":17064,"試營運":17065,"調職":17066,"讓許多":17067,"近幾年":17068,"過夜":17069,"銜接":17070,"零錢":17071,"黃蜂":17072,"目前已有":17073,"因為他們":17074,"不過也有網友":17075,"調查後":17076,"透過臉書":17077,"台中港":17078,"兩人在":17079,"昨日公布":17080,"評估後":17081,"研發的":17082,"營業額":17083,"初步掌握":17084,"同住者":17085,"國民黨":17086,"如有發燒":17087,"服飾出清":17088,"經紀公司":17089,"終盤上漲":17090,"聯合品牌運動服飾出清":17091,"夏威夷":17092,"聯合品牌運動服飾出清一件":17093,"下游":17094,"不開放":17095,"仍維持":17096,"低價":17097,"假設":17098,"分期":17099,"剩餘":17100,"同台":17101,"四肢":17102,"地形":17103,"地獄":17104,"增至":17105,"大笑":17106,"她認為":17107,"好久":17108,"學霸":17109,"家事":17110,"巴基":17111,"干預":17112,"得好":17113,"怒嗆":17114,"手工":17115,"揭密":17116,"教職員":17117,"敵人":17118,"更可":17119,"有幾":17120,"架次":17121,"機捷":17122,"歲女童":17123,"母子":17124,"水塔":17125,"焦糖":17126,"熱對流":17127,"理工":17128,"的同學":17129,"的形象":17130,"石油":17131,"破解":17132,"空拍":17133,"網一看":17134,"緊接著":17135,"與社會":17136,"藍委":17137,"謊言":17138,"轉診":17139,"鑑識":17140,"去年的":17141,"醫院的":17142,"影片曝光後":17143,"研究人員":17144,"南部山區":17145,"將會在":17146,"即將到來":17147,"國籍航空":17148,"史上最":17149,"輕鬆報稅":17150,"高度關注":17151,"帶領下":17152,"旅行社":17153,"三大法人":17154,"各式各":17155,"獨特的":17156,"拓荒者":17157,"三次":17158,"不走":17159,"也得":17160,"了幾":17161,"交叉":17162,"人得分":17163,"伴隨":17164,"兩項":17165,"公克":17166,"出路":17167,"到中國":17168,"動工":17169,"友誼":17170,"各單位":17171,"哥倫":17172,"園遊":17173,"場內":17174,"女乘客":17175,"好跑鞋":17176,"對照":17177,"市的":17178,"平價":17179,"戰士":17180,"托育":17181,"按鈕":17182,"新臺":17183,"水腫":17184,"洽談":17185,"為印尼籍":17186,"痛罵":17187,"發想":17188,"的發生":17189,"紓解":17190,"美好的":17191,"自救":17192,"落淚":17193,"陪考":17194,"非洲":17195,"食安":17196,"中心的":17197,"健康一下":17198,"安打失":17199,"對此表示":17200,"飯店員工":17201,"台股今日":17202,"進一步說明":17203,"母親節買雙":17204,"每天都":17205,"開發的":17206,"老人家":17207,"讓你心動":17208,"立法委員":17209,"讓媽媽健康一下":17210,"母親節買雙好跑鞋":17211,"一聽":17212,"一身":17213,"七大":17214,"了啦":17215,"令她":17216,"佩服":17217,"偏遠":17218,"全文":17219,"全方位":17220,"再以":17221,"啟發":17222,"噪音":17223,"回來了":17224,"團員":17225,"大愛":17226,"如願":17227,"威特":17228,"娘娘":17229,"定調":17230,"尼克":17231,"急速":17232,"成這樣":17233,"挺台":17234,"接待":17235,"搭捷運":17236,"曾表示":17237,"月在":17238,"母艦":17239,"炎熱":17240,"為求":17241,"用到":17242,"異動":17243,"病故":17244,"百姓":17245,"福斯":17246,"第十":17247,"職人":17248,"職位":17249,"貼上":17250,"走過":17251,"這座":17252,"這幾年":17253,"雞翅":17254,"願望":17255,"類動物":17256,"體積":17257,"高一":17258,"台灣有":17259,"一個中國":17260,"防疫工作":17261,"今日凌晨":17262,"最後一次":17263,"需要的":17264,"染疫風險":17265,"醫療應變":17266,"有一天":17267,"電腦斷層":17268,"尤其在":17269,"裡面的":17270,"上市櫃":17271,"黑道入黨":17272,"清潔人員":17273,"人工增雨":17274,"珍惜生命":17275,"經紀人":17276,"游擊手":17277,"主計總處":17278,"三軍":17279,"不倫":17280,"不一定":17281,"也無":17282,"也推出":17283,"代工廠":17284,"供貨":17285,"倘若":17286,"去醫院":17287,"好康":17288,"委任":17289,"存股":17290,"容納":17291,"審判":17292,"寶山":17293,"小孩子":17294,"就得":17295,"師長":17296,"忍受":17297,"忙著":17298,"惹議":17299,"救濟":17300,"日有":17301,"日報導":17302,"早前":17303,"最讓你心動":17304,"東北部":17305,"為案":17306,"為目標":17307,"當家":17308,"的嗎":17309,"的比例":17310,"盜刷":17311,"等紅燈":17312,"紡織":17313,"網全":17314,"網銀":17315,"聽力":17316,"萬海":17317,"講師":17318,"越多":17319,"跟她":17320,"路肩":17321,"轉機":17322,"這塊":17323,"通電話":17324,"遠端":17325,"那樣":17326,"都認為":17327,"醒來":17328,"鑑於":17329,"間諜":17330,"阻礙":17331,"電圖":17332,"鬼滅":17333,"沒有什麼":17334,"活動中":17335,"防疫政策":17336,"國家公園":17337,"日前往":17338,"成為全球":17339,"投資者":17340,"用戶數":17341,"發布新聞稿":17342,"男童父親":17343,"派出所長":17344,"航空母艦":17345,"疫情指揮中心指揮官":17346,"至今仍":17347,"公費疫苗":17348,"新品最讓你心動":17349,"起火原因":17350,"開除黨籍":17351,"哪個新品最讓你心動":17352,"傳產股":17353,"不孕症":17354,"轉載自":17355,"止痛藥":17356,"巴基斯坦":17357,"一查":17358,"一道":17359,"三雄":17360,"不勝":17361,"丹麥":17362,"乙級":17363,"也於":17364,"也都是":17365,"二氧化碳":17366,"偷走":17367,"克斯":17368,"公約":17369,"冒出":17370,"勝選":17371,"北海":17372,"原型":17373,"古蹟":17374,"合歡":17375,"品種":17376,"哥大":17377,"商城":17378,"喬治":17379,"在學校":17380,"影后":17381,"必看":17382,"才會有":17383,"新車":17384,"日是":17385,"是沒有":17386,"時就":17387,"桌球":17388,"演變成":17389,"熊熊":17390,"片中":17391,"疑遭":17392,"發威":17393,"的電影":17394,"組副組長":17395,"給人":17396,"被罵":17397,"要如何":17398,"要小心":17399,"說過":17400,"譽為":17401,"輸給":17402,"連戰":17403,"鎮瀾":17404,"開銷":17405,"難忘":17406,"飛往":17407,"飽受":17408,"高分":17409,"高職":17410,"點選":17411,"第一節":17412,"萬元交保":17413,"母親的":17414,"駕駛人":17415,"積極推動":17416,"以來的":17417,"第三季":17418,"交通事故":17419,"鼓勵民眾":17420,"拒絕暴力":17421,"藥物治療":17422,"夥伴關係":17423,"高等法院":17424,"大安區":17425,"手搖飲":17426,"金牛座":17427,"聯結車":17428,"不起訴":17429,"也請":17430,"也都有":17431,"也引發":17432,"仍可":17433,"仍需":17434,"保拉":17435,"傳送":17436,"僅能":17437,"公教":17438,"吐槽":17439,"哪種":17440,"善良":17441,"塞車":17442,"壞球":17443,"多一點":17444,"奪金":17445,"尚在":17446,"很棒":17447,"接殺":17448,"推案":17449,"損壞":17450,"擺設":17451,"收拾":17452,"放閃":17453,"敦促":17454,"新一波":17455,"斷裂":17456,"日再":17457,"最主要":17458,"期程":17459,"機動":17460,"求學":17461,"沒看到":17462,"男神":17463,"百日":17464,"的未來":17465,"的企業":17466,"的標準":17467,"穿戴":17468,"維吾":17469,"腫脹":17470,"蜂蜜":17471,"醜聞":17472,"金曲":17473,"開鍘":17474,"齊聚":17475,"per16":17476,"沒有大礙":17477,"中國政府":17478,"可能會有":17479,"手機市場":17480,"非常好":17481,"醫療物資":17482,"預計今年":17483,"...」":17484,"進一步調查":17485,"符合資格":17486,"停車位":17487,"中央流行疫情指揮中心今日公布國內新增":17488,"時代力量":17489,"營業時間":17490,"中部地區":17491,"主題日":17492,"執法過當":17493,"保育員":17494,"有趣的是":17495,"模範勞工":17496,"頒獎典禮":17497,"茶葉蛋":17498,"交出手機":17499,"育嬰留":17500,"有別於":17501,"新臺幣":17502,">。」":17503,"一聲":17504,"三成":17505,"上街":17506,"下跪":17507,"仍會":17508,"但對於":17509,"倒在":17510,"停下":17511,"停招":17512,"公股":17513,"南方":17514,"又不":17515,"叫囂":17516,"在美":17517,"外人":17518,"大意":17519,"好想":17520,"子裡":17521,"學區":17522,"安靜":17523,"就讓":17524,"引用":17525,"或缺":17526,"戶籍":17527,"拉抬":17528,"挨了":17529,"挨批":17530,"擴及":17531,"收納":17532,"改口":17533,"旋轉":17534,"會報":17535,"月才":17536,"朝著":17537,"止血":17538,"歲生日":17539,"死傷":17540,"溜馬":17541,"無所":17542,"無疑":17543,"物種":17544,"膀胱":17545,"萬餘元":17546,"蒙古":17547,"觸犯":17548,"賭客":17549,"走紅":17550,"跳出":17551,"轉往":17552,"還會有":17553,"那時":17554,"重疊":17555,"長程":17556,"門外":17557,"黨職":17558,"自己有":17559,"接種率":17560,"教育訓練":17561,"這是一個":17562,"產品線":17563,"只要是":17564,"醫療機構":17565,"駕駛的":17566,"工程車":17567,"大幅提升":17568,"擊出安打":17569,"資深媒體人":17570,"稅後淨利":17571,"不一樣的":17572,"替代方案":17573,"全校師生":17574,"質詢時":17575,"三接外推":17576,"遊樂區":17577,"動保處":17578,"兵庫縣":17579,"例調查中另":17580,"防丟神器":17581,"維吾爾":17582,"一命":17583,"上節目":17584,"丟棄":17585,"也要求":17586,"了不少":17587,"假訊息":17588,"加拉":17589,"喝醉":17590,"回事":17591,"圓形":17592,"奧客":17593,"好心":17594,"安卓":17595,"將再":17596,"專機":17597,"已連續":17598,"市政府":17599,"很好吃":17600,"打掃":17601,"投注":17602,"放上":17603,"放學":17604,"敗給":17605,"日文":17606,"暢旺":17607,"核子":17608,"清淤":17609,"漁業":17610,"用地":17611,"發育":17612,"白飯":17613,"的議題":17614,"的習慣":17615,"的原則":17616,"看他":17617,"秀出":17618,"約在":17619,"聽過":17620,"菁英":17621,"菸品":17622,"裝修":17623,"視頻":17624,"變天":17625,"讓粉絲":17626,"豐原":17627,"財物":17628,"買下":17629,"跑車":17630,"退貨":17631,"都覺得":17632,"鄉公所":17633,"風水":17634,"骨頭":17635,"高喊":17636,"麻醉":17637,"點作收":17638,"民眾可":17639,"可能造成":17640,"今天也":17641,"警方也":17642,"完成後":17643,"過去在":17644,"一年多":17645,"年增率":17646,"累積雨量":17647,"不良行為":17648,"不知情":17649,"代言人":17650,"一股":17651,"一萬":17652,"一開":17653,"並肩":17654,"中時":17655,"中小學":17656,"之類的":17657,"亂象":17658,"亮燈":17659,"兼任":17660,"到最後":17661,"前線":17662,"募資":17663,"南向":17664,"司長":17665,"哀悼":17666,"品嘗":17667,"因傷":17668,"囤房":17669,"威力":17670,"守門":17671,"已要求":17672,"帳單":17673,"念頭":17674,"我媽":17675,"提報":17676,"操盤":17677,"整整":17678,"時會":17679,"更嚴重":17680,"最常":17681,"最討厭":17682,"未見":17683,"極力":17684,"死於":17685,"每一位":17686,"消耗":17687,"滷味":17688,"登機":17689,"的運動":17690,"矛盾":17691,"紅海":17692,"總算":17693,"聯會":17694,"職權":17695,"背後的":17696,"芝加":17697,"蒜頭":17698,"藉口":17699,"處境":17700,"試務":17701,"轉頭":17702,"遍及":17703,"遭警方":17704,"遴選":17705,"重度":17706,"門號":17707,"閨蜜":17708,"網友也":17709,"可能要":17710,"印度政府":17711,"結果顯示":17712,"決定將":17713,"選擇題":17714,"資料照":17715,"引發爭議":17716,"目標價":17717,"進一步指出":17718,"金融股":17719,"陳時中說":17720,"仍有待":17721,"唯一的":17722,"下雨了":17723,"台東縣":17724,"地下室":17725,"把握機會":17726,"公共場所活動史":17727,"終盤下跌":17728,"預售屋":17729,"馬拉松":17730,"鎮瀾宮":17731,">>":17732,"]「<":17733,"不做":17734,"人際":17735,"但他們":17736,"傳來":17737,"兵力":17738,"分歧":17739,"前男友":17740,"參謀":17741,"可供":17742,"四川":17743,"在桃園":17744,"地勤":17745,"她與":17746,"就因為":17747,"布丁":17748,"布魯":17749,"影展":17750,"後遺症":17751,"從業":17752,"我知道":17753,"打的":17754,"指甲":17755,"掛在":17756,"搖晃":17757,"擴建":17758,"日和":17759,"是可以":17760,"有異":17761,"機要":17762,"歡呼":17763,"流向":17764,"涉犯":17765,"渲染":17766,"當靠山":17767,"病歿":17768,"省錢":17769,"磋商":17770,"祈禱":17771,"祈雨":17772,"移到":17773,"等著":17774,"老天":17775,"處的":17776,"設廠":17777,"講述":17778,"賣掉":17779,"超出":17780,"錯愕":17781,"附設":17782,"非營利":17783,"面子":17784,"飼料":17785,"今天新增":17786,"不過也有人":17787,"今日娛樂":17788,"增加到":17789,"直接在":17790,"諾富特染疫":17791,"用戶的":17792,"女兒的":17793,"鋒面報到":17794,"群聚案":17795,"疫苗接種率":17796,"都不敢":17797,"的大型":17798,"開車不喝酒":17799,"史上第":17800,"辛苦了":17801,"喝酒不開車":17802,"所需的":17803,"跟我說":17804,"個多月":17805,"自請處分":17806,"今日娛樂推薦影音":17807,"一秒":17808,"下放":17809,"不妨":17810,"中鋒":17811,"中指出":17812,"了很多":17813,"仍要":17814,"俗稱":17815,"傳訊":17816,"僵局":17817,"前夫":17818,"副總經理":17819,"副駕駛座":17820,"北區":17821,"區長":17822,"千名":17823,"去找":17824,"嗨翻":17825,"四季":17826,"在西":17827,"在路上":17828,"堅守":17829,"多萬元":17830,"天就":17831,"太高":17832,"奪得":17833,"家人的":17834,"導向":17835,"小隊長":17836,"島嶼":17837,"引領":17838,"彩色":17839,"很不":17840,"得手":17841,"德保拉":17842,"所在地":17843,"提領":17844,"撞臉":17845,"擋風":17846,"放假":17847,"整修":17848,"文表示":17849,"旁的":17850,"暗黑":17851,"有何":17852,"東家":17853,"橫掃":17854,"此類":17855,"歸還":17856,"渴望":17857,"病況":17858,"矯正":17859,"破案":17860,"細則":17861,"羯座":17862,"老先生":17863,"衝到":17864,"表決":17865,"讚賞":17866,"買起來":17867,"防火":17868,"顯現":17869,"風氣":17870,"美國和":17871,"可能的":17872,"我們是":17873,"其他的":17874,"不會再":17875,"根據統計":17876,">」?":17877,"這是他":17878,"所有眉角":17879,"台南市長":17880,"的一些":17881,"一般的":17882,"不可或缺":17883,"的狀況下":17884,"柔道教練":17885,"時期的":17886,"咳嗽等不適症狀":17887,"松山之亂":17888,"有利於":17889,"新制小確幸":17890,"遊覽車司機":17891,"滑手機輕鬆報稅":17892,"短時間內":17893,"芝加哥":17894,"所有眉角看這裡":17895,"不宜":17896,"人和":17897,"代替":17898,"併購":17899,"元元":17900,"內戰":17901,"全教":17902,"八德":17903,"前任":17904,"助陣":17905,"卓越":17906,"原創":17907,"去世":17908,"同居":17909,"因工作":17910,"園方":17911,"外賣":17912,"少子女":17913,"已故":17914,"從頭":17915,"心房":17916,"打成":17917,"拉斯":17918,"文末":17919,"施作":17920,"本尊":17921,"杜絕":17922,"楊男":17923,"機票":17924,"洗腎":17925,"物件":17926,"科威特":17927,"稅收":17928,"紅人":17929,"素食":17930,"編隊":17931,"罰球":17932,"興起":17933,"莫斯科":17934,"視鏡":17935,"解題":17936,"註記":17937,"買不到":17938,"轉介":17939,"運抵":17940,"隨之":17941,"雙北市":17942,"雙胞胎":17943,"機師與":17944,"連續安打":17945,"年輕時":17946,"召開臨時":17947,"第一季營收":17948,"公分的":17949,"自費疫苗":17950,"攜手合作":17951,"大多為":17952,"坦承犯行":17953,"熟悉的":17954,"試題與":17955,"一陣子":17956,"中常委":17957,"毅力號":17958,"」、<":17959,"上身":17960,"保安":17961,"個字":17962,"停產":17963,"僅是":17964,"僅限":17965,"僑胞":17966,"億日圓":17967,"內褲":17968,"共度":17969,"出征":17970,"力士":17971,"勝差":17972,"北路":17973,"又能":17974,"只需要":17975,"寄生":17976,"小腿":17977,"強生":17978,"快要":17979,"思想":17980,"意象":17981,"我已經":17982,"我現在":17983,"所提":17984,"扛起":17985,"改款":17986,"放話":17987,"暴投":17988,"有兩":17989,"樹木":17990,"氏症":17991,"泳池":17992,"洽詢":17993,"清醒":17994,"潰瘍":17995,"無故":17996,"狹窄":17997,"琉球":17998,"的趨勢":17999,"窒息":18000,"言行":18001,"趣味":18002,"跨境":18003,"退伍":18004,"這艘":18005,"連同":18006,"連開":18007,"運行":18008,"過熱":18009,"遠遠":18010,"適度":18011,"還特別":18012,"郡王":18013,"難易":18014,"黨中央":18015,"今年以來":18016,"其中以":18017,"雖然是":18018,"市場殺出":18019,"完成接種":18020,"出來了":18021,"提升至":18022,"有一點":18023,"幾乎是":18024,"上市公司":18025,"製作人":18026,"能在防丟神器":18027,"打破界線":18028,"這波鋒面":18029,"案發後":18030,"大甲媽祖":18031,"蓄水率":18032,"流鼻水":18033,"達比修有":18034,"地檢署":18035,"醫療應變組副組長":18036,"能在防丟神器市場殺出":18037,"下二軍":18038,"之光":18039,"也針對":18040,"但隨著":18041,"你我":18042,"冷藏":18043,"出差":18044,"出走":18045,"升至":18046,"反撲":18047,"可靠":18048,"可觸控的":18049,"名醫":18050,"咖哩":18051,"四技":18052,"女老師":18053,"女主管":18054,"愛好":18055,"抗爭":18056,"指紋":18057,"接班":18058,"推行":18059,"日確診":18060,"日清晨":18061,"未有":18062,"槍砲":18063,"沒觸控的":18064,"流通":18065,"清朝":18066,"清算":18067,"漏水":18068,"火線":18069,"痛哭":18070,"白人":18071,"的家":18072,"的世界":18073,"福特":18074,"竟有":18075,"粉紅色":18076,"締造":18077,"縣內":18078,"與日本":18079,"艱難":18080,"評選":18081,"越野":18082,"迫使":18083,"退化":18084,"這三":18085,"進化":18086,"選修":18087,"選拔":18088,"陣營":18089,"雙贏":18090,"風吹":18091,"org15":18092,"美國在":18093,"中國在":18094,"真的要":18095,"的人才":18096,"經濟體":18097,"下來的":18098,"根本就是":18099,"昨日晚間":18100,"因應疫情":18101,"衛生局":18102,"送醫搶救":18103,"價值觀":18104,"各地的":18105,"黨部主委":18106,"出局數":18107,"一段影片":18108,"紛紛留言表示":18109,"視訊會議":18110,"娛樂圈":18111,"處理器打破界線":18112,"被問及":18113,"發病前":18114,"自治條例":18115,"紅海嗎":18116,"能在防丟神器市場殺出紅海嗎":18117,"上分享":18118,"下面":18119,"不忘":18120,"不振":18121,"之爭":18122,"他自己":18123,"伊士":18124,"住進":18125,"保費":18126,"先在":18127,"克里":18128,"免稅":18129,"再多":18130,"半世紀":18131,"南北":18132,"多為":18133,"太慢":18134,"平穩":18135,"戰隊":18136,"投奔":18137,"拘留":18138,"持平":18139,"援手":18140,"損傷":18141,"曼達":18142,"此文一出":18143,"殉職":18144,"殘酷":18145,"殺手":18146,"比分":18147,"海水":18148,"為準":18149,"球棒":18150,"的金":18151,"皆可":18152,"窮到":18153,"竊賊":18154,"紙箱":18155,"縱容":18156,"美到":18157,"股王":18158,"背包":18159,"著名":18160,"蘇達":18161,"蘇伊士":18162,"衝出":18163,"衰竭":18164,"被感染":18165,"資歷":18166,"身兼":18167,"躲在":18168,"轟出":18169,"遺傳":18170,"配送":18171,"長約":18172,"開業":18173,"電量":18174,"風光":18175,"高薪":18176,"進行接觸者採檢":18177,"發生口角":18178,"調查發現":18179,"萬元以上":18180,"之後的":18181,"運動品牌":18182,"討論後":18183,"的一種":18184,"文章授權":18185,"開發商":18186,"不滿意":18187,"判決書":18188,"物理治療":18189,"醫事人員":18190,"北海道":18191,"一套":18192,"一是":18193,"並呼籲":18194,"伸手":18195,"你在":18196,"做完":18197,"典型":18198,"勝出":18199,"北斗":18200,"即將在":18201,"受騙":18202,"同一個":18203,"增訂":18204,"壞了":18205,"大國":18206,"學士":18207,"客廳":18208,"對峙":18209,"小偷":18210,"尼泊":18211,"市面上":18212,"希臘":18213,"感應":18214,"應有":18215,"我可以":18216,"戒指":18217,"所為":18218,"扭傷":18219,"抬頭":18220,"招呼":18221,"擬定":18222,"擺在":18223,"攤販":18224,"月增":18225,"母校":18226,"沿線":18227,"浙江":18228,"準時":18229,"火大":18230,"無鉛":18231,"燒毀":18232,"獎號":18233,"用在":18234,"百億":18235,"盤後":18236,"空汙":18237,"等不到":18238,"萬件":18239,"製的":18240,"觀感":18241,"貧窮":18242,"跨界":18243,"隔年":18244,"頭暈":18245,"飛官":18246,"高爾夫":18247,"麵條":18248,"」。「":18249,"目前是":18250,"生活費":18251,"非常感謝":18252,"重要性":18253,"媒體詢問":18254,"這是我":18255,"完全沒":18256,"電子菸":18257,"萬人民幣":18258,"就業機會":18259,"大幅成長":18260,"黑道背景":18261,"機師染疫風暴":18262,"受惠於":18263,"狗狗幣":18264,"植物人":18265,"示威者":18266,"收容所":18267,"遼寧艦":18268,"入境後至防疫旅館":18269,"燃氣機組":18270,"併發症":18271,"康乃馨":18272,"尼泊爾":18273,">?<":18274,"上山":18275,"下體":18276,"丟臉":18277,"中日":18278,"來吃":18279,"健全":18280,"到目前為止":18281,"前鋒":18282,"副校長":18283,"十五":18284,"半個月":18285,"只在":18286,"喝了":18287,"四名":18288,"在與":18289,"女婿":18290,"定價":18291,"專責":18292,"專車":18293,"年與":18294,"徵求":18295,"心電圖":18296,"怎料":18297,"感激":18298,"把我":18299,"拜拜":18300,"換成":18301,"改用":18302,"日才":18303,"是好":18304,"時空":18305,"某航空公司":18306,"槍械":18307,"求婚":18308,"法拉":18309,"清消":18310,"照明":18311,"特使":18312,"率的":18313,"當他":18314,"禁忌":18315,"笑話":18316,"而不":18317,"與國際":18318,"荒謬":18319,"讓外界":18320,"路跑":18321,"還包括":18322,"防災":18323,"集合":18324,"頭份":18325,"頭期":18326,"高額":18327,"點頭":18328,"因為是":18329,"進行了":18330,"宣布將":18331,"分別在":18332,"留言表示":18333,"本季首勝":18334,"成立的":18335,"來自於":18336,"五一連假":18337,"最危險的地方":18338,">》<":18339,"學弟妹":18340,"可行性":18341,"低收入戶":18342,"天降甘霖":18343,"蘋果發表會重點整理":18344,"擋風玻璃":18345,"九太":18346,"但也有網友":18347,"信號":18348,"儘快":18349,"兇手":18350,"合力":18351,"在新":18352,"威爾":18353,"字樣":18354,"家門":18355,"度假":18356,"弱的":18357,"後又":18358,"後將":18359,"打火":18360,"找人":18361,"挖礦":18362,"捐助":18363,"提交":18364,"摩斯":18365,"撇步":18366,"日為":18367,"是我們":18368,"暗藏":18369,"曾赴":18370,"有需要":18371,"標榜":18372,"氣到":18373,"治癒":18374,"法式":18375,"海嘯":18376,"生菌":18377,"發達":18378,"的使用":18379,"第八":18380,"筆試":18381,"紛爭":18382,"組員":18383,"統治":18384,"網傳":18385,"繪本":18386,"自衛":18387,"衛教":18388,"被列為":18389,"觀音":18390,"許久":18391,"請民眾":18392,"譁然":18393,"贏家":18394,"踩踏":18395,"身手":18396,"適用於":18397,"那斯":18398,"雙人":18399,"雙向":18400,"靈異":18401,"飆罵":18402,"目前仍在":18403,"學生會":18404,"發生衝突":18405,"調查局":18406,"這些都是":18407,"需求強勁":18408,"預計將":18409,"優惠活動":18410,"根本沒有":18411,"陰性證明":18412,"機組員檢疫":18413,"更多民視新聞報導快新聞":18414,"接獲民眾":18415,"學測成績":18416,"高級中等":18417,"訊後依":18418,"高速公路":18419,"東北風":18420,"支持台灣參與":18421,"後疫情時代":18422,"明尼蘇達":18423,"不甘":18424,"人與":18425,"何況":18426,"價位":18427,"全大運":18428,"利康":18429,"化石":18430,"千隻蟑螂":18431,"反攻":18432,"召委":18433,"名接觸者":18434,"在該":18435,"多重":18436,"大街":18437,"大自然":18438,"彈藥":18439,"想想":18440,"愛爾":18441,"提款":18442,"撰寫":18443,"日為止":18444,"是哪":18445,"更二審":18446,"最嚴重的":18447,"會選擇":18448,"有意義":18449,"棍棒":18450,"油脂":18451,"治國":18452,"淘汰":18453,"源自":18454,"炫耀":18455,"狂轟":18456,"的臉":18457,"的黑":18458,"的基本":18459,"真面目":18460,"砍傷":18461,"禁區":18462,"稱號":18463,"穆斯":18464,"純網銀":18465,"羽球":18466,"育成":18467,"舞者":18468,"荷爾蒙":18469,"親近":18470,"護送":18471,"財團":18472,"車流":18473,"辭去":18474,"通信":18475,"重慶":18476,"降稅":18477,"院內":18478,"隱瞞":18479,"鞠躬":18480,"預先":18481,"美國將":18482,"工作機會":18483,"當時他":18484,"經濟部":18485,"先發輪值":18486,"研究顯示":18487,"技術的":18488,"科技業":18489,"完全不":18490,"這麼做":18491,"順利完成":18492,"第四季":18493,">../":18494,"電商平台":18495,"致詞時":18496,"最重要的是":18497,"水瓶座":18498,"工讀生":18499,"文章授權轉載自":18500,"上加":18501,"上將":18502,"今上午":18503,"以輕":18504,"住所":18505,"保鮮":18506,"典範":18507,"前立委":18508,"加值":18509,"十幾":18510,"味覺":18511,"喜好":18512,"在我":18513,"型號":18514,"埋伏":18515,"塞爾":18516,"太快":18517,"女郎":18518,"姓男童":18519,"實測":18520,"尚有":18521,"居高":18522,"微波":18523,"徹查":18524,"心律":18525,"應立即":18526,"我相信":18527,"抹茶":18528,"按鍵":18529,"掃蕩":18530,"推展":18531,"搶劫":18532,"旅外":18533,"最喜歡":18534,"本文":18535,"栽培":18536,"機隊":18537,"瀏海":18538,"疏導":18539,"疲憊":18540,"糧食":18541,"紅雀":18542,"終端":18543,"絕佳":18544,"若以":18545,"親切":18546,"貴賓":18547,"走揚":18548,"起薪":18549,"逆勢":18550,"造謠":18551,"重拾":18552,"鎮暴":18553,"鐵皮":18554,"限期":18555,"除役":18556,"集氣":18557,"雲系":18558,"電路":18559,"台灣選手":18560,"美國國務卿":18561,"今天舉辦":18562,"全球經濟":18563,"最後一天":18564,"如果要":18565,"資料照片":18566,"國中小":18567,"就會有":18568,"萬人確診":18569,"聲明表示":18570,"自主權":18571,"受傷的":18572,"應用在":18573,"電信業者":18574,"內行曝":18575,"免疫力":18576,"應變中心":18577,"聯合品牌鞋款":18578,"中時新聞網":18579,"》[":18580,"一年的":18581,"三月":18582,"上天":18583,"不理想":18584,"中古":18585,"低點":18586,"出新":18587,"分最高":18588,"勸導":18589,"千萬元":18590,"反問":18591,"大片":18592,"好表現":18593,"就分享":18594,"屬實":18595,"恩愛":18596,"慈濟":18597,"才可以":18598,"推擠":18599,"搶走":18600,"敗投":18601,"新春":18602,"是許多":18603,"普查":18604,"月全食":18605,"杜鵑":18606,"死人":18607,"混血":18608,"溫室":18609,"獸醫師":18610,"班次":18611,"的家庭":18612,"真能":18613,"禁賽":18614,"細心":18615,"緊盯":18616,"罰則":18617,"腹痛":18618,"與一般":18619,"花海":18620,"親屬":18621,"言之":18622,"課堂":18623,"課業":18624,"謊稱":18625,"變革":18626,"賣的":18627,"起身":18628,"載人":18629,"速率":18630,"還需":18631,"鍛鍊":18632,"開戶":18633,"開關":18634,"額度":18635,"不過有":18636,"已經超過":18637,"健康檢查":18638,"總統大選":18639,"採檢陰性":18640,"表現優異":18641,"產業鏈":18642,"預計於":18643,"行動電話":18644,"智慧手機":18645,"並且在":18646,"生產的":18647,"這一切":18648,"歡迎民眾":18649,"銷售額":18650,"地球日":18651,"便利性":18652,"新鮮人":18653,"近況曝光":18654,"飛球出局":18655,"熱身賽":18656,"七成":18657,"三節":18658,"不絕":18659,"也遭":18660,"二段":18661,"人中":18662,"但不":18663,"但今年":18664,"停下來":18665,"充實":18666,"公婆":18667,"分層":18668,"包廂":18669,"只差":18670,"可至":18671,"台產":18672,"喜悅":18673,"噩耗":18674,"噴發":18675,"在工作":18676,"多年前":18677,"好多":18678,"完投":18679,"害人":18680,"實況":18681,"就跟":18682,"巨星":18683,"已進入":18684,"廣州":18685,"後會":18686,"手作":18687,"排骨":18688,"日經":18689,"更讓":18690,"本國":18691,"核電":18692,"歲兒":18693,"水井":18694,"沉重":18695,"法醫":18696,"泳裝":18697,"海豚":18698,"漫遊":18699,"激戰":18700,"爆滿":18701,"玩遊戲":18702,"疑因":18703,"發售":18704,"白蟻":18705,"的我":18706,"的用戶":18707,"盡情":18708,"看板":18709,"碳排放":18710,"票選":18711,"空污":18712,"立馬":18713,"糖世代":18714,"網狂":18715,"缺錢":18716,"而有":18717,"聯想":18718,"血流":18719,"補給":18720,"補選":18721,"貴婦":18722,"跑出":18723,"路燈":18724,"較小":18725,"近視":18726,"遇見":18727,"違者":18728,"閃電":18729,"開創":18730,"驚人的":18731,"鬥爭":18732,"鱷魚":18733,"黨魁":18734,"台灣與":18735,"台灣民眾":18736,"loc5":18737,"日本網友":18738,"最後在":18739,"根據日本媒體":18740,"決定要":18741,"疑似因為":18742,"投手教練":18743,">:「<":18744,"期待的":18745,"傳統的":18746,"離婚後":18747,"表達對":18748,"自動化":18749,"報稅季":18750,"抵達現場":18751,"清潔消毒":18752,"感染源不明":18753,"感染源調查中":18754,"重啟核四":18755,"三讀通過":18756,"撕裂傷":18757,"受災戶":18758,"執勤至美國":18759,"蘇伊士運河":18760,"無鉛汽油":18761,"穆斯林":18762,"也只有":18763,"亞錦賽":18764,"交所":18765,"仍舊":18766,"低落":18767,"保羅":18768,"信箱":18769,"個孩子":18770,"偉大":18771,"先將":18772,"刀械":18773,"創高":18774,"可提供":18775,"吃掉":18776,"報紙":18777,"大排":18778,"大消毒":18779,"客氣":18780,"尾聲":18781,"尾隨":18782,"層次":18783,"履行":18784,"底部":18785,"所稅":18786,"所大學":18787,"把球":18788,"招聯會":18789,"指名":18790,"撞進":18791,"滑落":18792,"為提升":18793,"熱水":18794,"的範圍":18795,"盒子":18796,"直至":18797,"福爾":18798,"立案":18799,"網咖":18800,"肥大":18801,"致勝":18802,"被摔":18803,"要點":18804,"觸法":18805,"諒解":18806,"警惕":18807,"送一":18808,"這也讓":18809,"都用":18810,"酒瓶":18811,"顛覆":18812,"一個是":18813,">-」":18814,"過去曾":18815,"小時的":18816,"主管確診":18817,"新北市議員":18818,"成績單":18819,"在地人":18820,"患者的":18821,"咖啡廳":18822,"每股盈餘":18823,"次三振與":18824,"無奈表示":18825,"安心專線":18826,"台北市黨部主委":18827,"核酸檢驗":18828,"火鍋店":18829,"記者會上表示":18830,"滅火器":18831,"檢疫期滿後":18832,"獅子座":18833,"更重要的是":18834,"五成":18835,"人名單":18836,"仍無法":18837,"但我們":18838,"來電":18839,"個名額":18840,"停用":18841,"內裝":18842,"剝奪":18843,"加裝":18844,"加開":18845,"原地":18846,"可惡":18847,"台的":18848,"和美國":18849,"外來":18850,"奇葩":18851,"好笑":18852,"富商":18853,"對其":18854,
[...]
