{"version":"1.0","truncation":null,"padding":null,"added_tokens":[{"id":0,"special":true,"content":"[UNK]","single_word":false,"lstrip":false,"rstrip":false,"normalized":false},{"id":1,"special":true,"content":"[CLS]","single_word":false,"lstrip":false,"rstrip":false,"normalized":false},{"id":2,"special":true,"content":"[SEP]","single_word":false,"lstrip":false,"rstrip":false,"normalized":false},{"id":3,"special":true,"content":"[PAD]","single_word":false,"lstrip":false,"rstrip":false,"normalized":false},{"id":4,"special":true,"content":"[MASK]","single_word":false,"lstrip":false,"rstrip":false,"normalized":false}],"normalizer":null,"pre_tokenizer":{"type":"Whitespace"},"post_processor":null,"decoder":null,"model":{"type":"BPE","dropout":null,"unk_token":"[UNK]","continuing_subword_prefix":null,"end_of_word_suffix":null,"fuse_unk":false,"vocab":{"[UNK]":0,"[CLS]":1,"[SEP]":2,"[PAD]":3,"[MASK]":4,"\b":5,"\u001d":6,"!":7,"\"":8,"#":9,"$":10,"%":11,"&":12,"'":13,"(":14,")":15,"*":16,"+":17,",":18,"-":19,".":20,"/":21,"0":22,"1":23,"2":24,"3":25,"4":26,"5":27,"6":28,"7":29,"8":30,"9":31,":":32,";":33,"<":34,"=":35,">":36,"?":37,"@":38,"A":39,"B":40,"C":41,"D":42,"E":43,"F":44,"G":45,"H":46,"I":47,"J":48,"K":49,"L":50,"M":51,"N":52,"O":53,"P":54,"Q":55,"R":56,"S":57,"T":58,"U":59,"V":60,"W":61,"X":62,"Y":63,"Z":64,"[":65,"\\":66,"]":67,"^":68,"_":69,"`":70,"a":71,"b":72,"c":73,"d":74,"e":75,"f":76,"g":77,"h":78,"i":79,"j":80,"k":81,"l":82,"m":83,"n":84,"o":85,"p":86,"q":87,"r":88,"s":89,"t":90,"u":91,"v":92,"w":93,"x":94,"y":95,"z":96,"{":97,"|":98,"}":99,"~":100,"£":101,"©":102,"ª":103,"«":104,"¬":105,"­":106,"®":107,"°":108,"±":109,"²":110,"³":111,"´":112,"µ":113,"·":114,"º":115,"»":116,"¼":117,"½":118,"Á":119,"Â":120,"Ä":121,"Å":122,"È":123,"É":124,"Ê":125,"Ð":126,"Ó":127,"Ö":128,"×":129,"Ø":130,"Ü":131,"ß":132,"à":133,"á":134,"â":135,"ã":136,"ä":137,"å":138,"æ":139,"ç":140,"è":141,"é":142,"ë":143,"ì":144,"í":145,"î":146,"ï":147,"ñ":148,"ò":149,"ó":150,"ô":151,"õ":152,"ö":153,"÷":154,"ù":155,"ú":156,"û":157,"ü":158,"ý":159,"Ā":160,"ā":161,"ă":162,"ą":163,"ć":164,"Č":165,"č":166,"đ":167,"ē":168,"ė":169,"ę":170,"ě":171,"ğ":172,"ģ":173,"ī":174,"İ":175,"ı":176,"Ł":177,"ł":178,"ń":179,"ņ":180,"ň":181,"ŋ":182,"ō":183,"ő":184,"ř":185,"ś":186,"Ş":187,"ş":188,"Š":189,"š":190,"ū":191,"ů":192,"ű":193,"ź":194,"ż":195,"ž":196,"ƒ":197,"ư":198,"ǔ":199,"ɑ":200,"ɔ":201,"ə":202,"ɚ":203,"ɛ":204,"ɝ":205,"ɞ":206,"ɪ":207,"ʃ":208,"ʊ":209,"ʌ":210,"ʚ":211,"ˇ":212,"ˊ":213,"ˋ":214,"˘":215,"˙":216,"˚":217,"ˣ":218,"̀":219,"́":220,"̄":221,"̆":222,"̍":223,"̧":224,"͟":225,"͵":226,"Β":227,"Δ":228,"Ο":229,"Σ":230,"α":231,"β":232,"γ":233,"δ":234,"η":235,"θ":236,"μ":237,"π":238,"ω":239,"Ѕ":240,"А":241,"Б":242,"В":243,"Г":244,"Д":245,"З":246,"И":247,"К":248,"М":249,"Н":250,"О":251,"П":252,"Р":253,"С":254,"Т":255,"У":256,"Ф":257,"Х":258,"Ч":259,"Ы":260,"Э":261,"Я":262,"а":263,"б":264,"в":265,"г":266,"д":267,"е":268,"ж":269,"з":270,"и":271,"й":272,"к":273,"л":274,"м":275,"н":276,"о":277,"п":278,"р":279,"с":280,"т":281,"у":282,"ф":283,"х":284,"ц":285,"ч":286,"ш":287,"щ":288,"ы":289,"ь":290,"э":291,"ю":292,"я":293,"ё":294,"ं":295,"ई":296,"ए":297,"ग":298,"च":299,"ज":300,"भ":301,"म":302,"य":303,"र":304,"ल":305,"ा":306,"ी":307,"े":308,"ก":309,"ข":310,"ค":311,"ง":312,"จ":313,"ช":314,"ซ":315,"ด":316,"ต":317,"ท":318,"น":319,"บ":320,"ป":321,"ฟ":322,"ภ":323,"ม":324,"ย":325,"ร":326,"ล":327,"ว":328,"ส":329,"ห":330,"อ":331,"ะ":332,"ั":333,"า":334,"ิ":335,"ี":336,"ื":337,"ุ":338,"ู":339,"เ":340,"แ":341,"ไ":342,"็":343,"่":344,"้":345,"๊":346,"๋":347,"ဆ":348,"န":349,"မ":350,"လ":351,"ာ":352,"ီ":353,"ူ":354,"်":355,"ြ":356,"ბ":357,"თ":358,"ი":359,"ლ":360,"ს":361,"ᄀ":362,"ᄁ":363,"ᄂ":364,"ᄃ":365,"ᄄ":366,"ᄅ":367,"ᄆ":368,"ᄇ":369,"ᄈ":370,"ᄉ":371,"ᄊ":372,"ᄋ":373,"ᄌ":374,"ᄍ":375,"ᄎ":376,"ᄏ":377,"ᄐ":378,"ᄑ":379,"ᄒ":380,"ᅡ":381,"ᅢ":382,"ᅣ":383,"ᅥ":384,"ᅦ":385,"ᅧ":386,"ᅨ":387,"ᅩ":388,"ᅪ":389,"ᅬ":390,"ᅭ":391,"ᅮ":392,"ᅯ":393,"ᅰ":394,"ᅱ":395,"ᅲ":396,"ᅳ":397,"ᅴ":398,"ᅵ":399,"ᆨ":400,"ᆫ":401,"ᆭ":402,"ᆯ":403,"ᆷ":404,"ᆸ":405,"ᆻ":406,"ᆼ":407,"ᇂ":408,"ᐡ":409,"ᗩ":410,"ᵉ":411,"ṇ":412,"ạ":413,"Ả":414,"ấ":415,"ầ":416,"ẹ":417,"ẽ":418,"ế":419,"ề":420,"ễ":421,"ị":422,"ồ":423,"ộ":424,"ớ":425,"ờ":426,"ợ":427,"ử":428,"ữ":429,"​":430,"‌":431,"‍":432,"‎":433,"‐":434,"‑":435,"–":436,"—":437,"―":438,"‘":439,"’":440,"“":441,"”":442,"•":443,"…":444,"‧":445,"‪":446,"‬":447,"‭":448,"‰":449,"′":450,"″":451,"‵":452,"※":453,"‼":454,"⁄":455,"⁠":456,"⁣":457,"⁶":458,"⁷":459,"₂":460,"€":461,"⃟":462,"⃣":463,"℃":464,"℅":465,"ℓ":466,"℠":467,"™":468,"⅓":469,"Ⅰ":470,"Ⅱ":471,"Ⅲ":472,"Ⅹ":473,"Ↄ":474,"←":475,"↑":476,"→":477,"↓":478,"↘":479,"⇒":480,"∀":481,"−":482,"∕":483,"∞":484,"∴":485,"∶":486,"∼":487,"≈":488,"≠":489,"≤":490,"≥":491,"≦":492,"≧":493,"⊙":494,"⋯":495,"⏰":496,"①":497,"②":498,"③":499,"④":500,"⑤":501,"⑥":502,"⑦":503,"⑧":504,"⑴":505,"⑵":506,"⑶":507,"Ⓞ":508,"ⓓ":509,"─":510,"│":511,"╭":512,"╮":513,"╯":514,"╰":515,"╱":516,"╳":517,"▇":518,"█":519,"▉":520,"▊":521,"▋":522,"▌":523,"▍":524,"▎":525,"■":526,"□":527,"▪":528,"▲":529,"△":530,"▶":531,"▷":532,"▸":533,"►":534,"▼":535,"◀":536,"◆":537,"◉":538,"○":539,"◎":540,"●":541,"◢":542,"◤":543,"◯":544,"☀":545,"★":546,"☆":547,"☐":548,"☑":549,"☞":550,"☠":551,"☯":552,"☺":553,"♀":554,"♂":555,"♡":556,"♥":557,"♦":558,"♪":559,"♬":560,"♻":561,"⚖":562,"⚠":563,"⚡":564,"⛄":565,"⛔":566,"⛱":567,"⛸":568,"⛹":569,"⛽":570,"✈":571,"✊":572,"✋":573,"✌":574,"✎":575,"✔":576,"✕":577,"✝":578,"✥":579,"✦":580,"✨":581,"✸":582,"✿":583,"❄":584,"❌":585,"❔":586,"❗":587,"❘":588,"❣":589,"❤":590,"❶":591,"❷":592,"❸":593,"❹":594,"❺":595,"❻":596,"❼":597,"❽":598,"❾":599,"➊":600,"➋":601,"➔":602,"➡":603,"➤":604,"⠀":605,"⬇":606,"⭐":607,"⭕":608,"⸺":609,"⺠":610,"⻆":611,"⻑":612,"⻛":613,"⼀":614,"⼆":615,"⼈":616,"⼊":617,"⼋":618,"⼑":619,"⼒":620,"⼗":621,"⼜":622,"⼝":623,"⼟":624,"⼠":625,"⼤":626,"⼦":627,"⼩":628,"⼭":629,"⼯":630,"⼼":631,"⼾":632,"⼿":633,"⽂":634,"⽅":635,"⽇":636,"⽉":637,"⽐":638,"⽕":639,"⽗":640,"⽣":641,"⽤":642,"⽥":643,"⽩":644,"⽬":645,"⽯":646,"⽰":647,"⽴":648,"⽹":649,"⽽":650,"⾁":651,"⾃":652,"⾄":653,"⾊":654,"⾏":655,"⾓":656,"⾛":657,"⾜":658,"⾝":659,"⾦":660,"⾨":661,"⾬":662,"⾸":663,"⾼":664,"⿈":665,"⿊":666,"⿎":667,"、":668,"。":669,"々":670,"〇":671,"〈":672,"〉":673,"《":674,"》":675,"「":676,"」":677,"『":678,"』":679,"【":680,"】":681,"〒":682,"〔":683,"〕":684,"〖":685,"〗":686,"〜":687,"〝":688,"〞":689,"〡":690,"ぁ":691,"あ":692,"ぃ":693,"い":694,"う":695,"え":696,"ぉ":697,"お":698,"か":699,"が":700,"き":701,"ぎ":702,"く":703,"ぐ":704,"け":705,"げ":706,"こ":707,"ご":708,"さ":709,"ざ":710,"し":711,"じ":712,"す":713,"ず":714,"せ":715,"ぜ":716,"そ":717,"ぞ":718,"た":719,"だ":720,"ち":721,"っ":722,"つ":723,"づ":724,"て":725,"で":726,"と":727,"ど":728,"な":729,"に":730,"ぬ":731,"ね":732,"の":733,"は":734,"ば":735,"ぱ":736,"ひ":737,"び":738,"ぴ":739,"ふ":740,"ぶ":741,"ぷ":742,"へ":743,"べ":744,"ぺ":745,"ほ":746,"ぼ":747,"ぽ":748,"ま":749,"み":750,"む":751,"め":752,"も":753,"ゃ":754,"や":755,"ゅ":756,"ゆ":757,"ょ":758,"よ":759,"ら":760,"り":761,"る":762,"れ":763,"ろ":764,"わ":765,"ゐ":766,"を":767,"ん":768,"゙":769,"゚":770,"ァ":771,"ア":772,"ィ":773,"イ":774,"ウ":775,"ェ":776,"エ":777,"ォ":778,"オ":779,"カ":780,"ガ":781,"キ":782,"ギ":783,"ク":784,"グ":785,"ケ":786,"ゲ":787,"コ":788,"ゴ":789,"サ":790,"ザ":791,"シ":792,"ジ":793,"ス":794,"ズ":795,"セ":796,"ゼ":797,"ソ":798,"タ":799,"ダ":800,"チ":801,"ヂ":802,"ッ":803,"ツ":804,"テ":805,"デ":806,"ト":807,"ド":808,"ナ":809,"ニ":810,"ヌ":811,"ネ":812,"ノ":813,"ハ":814,"バ":815,"パ":816,"ヒ":817,"ビ":818,"ピ":819,"フ":820,"ブ":821,"プ":822,"ヘ":823,"ベ":824,"ペ":825,"ホ":826,"ボ":827,"ポ":828,"マ":829,"ミ":830,"ム":831,"メ":832,"モ":833,"ャ":834,"ヤ":835,"ュ":836,"ユ":837,"ョ":838,"ヨ":839,"ラ":840,"リ":841,"ル":842,"レ":843,"ロ":844,"ワ":845,"ン":846,"ヴ":847,"ヶ":848,"・":849,"ー":850,"ヽ":851,"ㄅ":852,"ㄆ":853,"ㄇ":854,"ㄈ":855,"ㄉ":856,"ㄊ":857,"ㄋ":858,"ㄌ":859,"ㄍ":860,"ㄎ":861,"ㄏ":862,"ㄐ":863,"ㄑ":864,"ㄒ":865,"ㄓ":866,"ㄔ":867,"ㄕ":868,"ㄖ":869,"ㄗ":870,"ㄘ":871,"ㄙ":872,"ㄚ":873,"ㄛ":874,"ㄜ":875,"ㄝ":876,"ㄞ":877,"ㄟ":878,"ㄠ":879,"ㄡ":880,"ㄢ":881,"ㄣ":882,"ㄤ":883,"ㄥ":884,"ㄧ":885,"ㄨ":886,"ㄩ":887,"ㅅ":888,"ㅇ":889,"ㅈ":890,"ㅋ":891,"ㅎ":892,"ㅜ":893,"ㅠ":894,"㈡":895,"㈥":896,"㊃":897,"㊅":898,"㊐":899,"㎎":900,"㖔":901,"㗎":902,"㚬":903,"㨗":904,"㩦":905,"㮔":906,"㵢":907,"㷧":908,"㷫":909,"㹴":910,"㼈":911,"䁐":912,"䅲":913,"䓬":914,"䕶":915,"䠷":916,"䡗":917,"䭲":918,"䴉":919,"一":920,"丁":921,"七":922,"丅":923,"万":924,"丈":925,"三":926,"上":927,"下":928,"不":929,"与":930,"丐":931,"丑":932,"且":933,"丕":934,"世":935,"丘":936,"丙":937,"丞":938,"丟":939,"两":940,"並":941,"丨":942,"个":943,"丫":944,"中":945,"丰":946,"串":947,"丶":948,"丸":949,"丹":950,"为":951,"主":952,"丼":953,"丿":954,"乃":955,"久":956,"么":957,"之":958,"乍":959,"乎":960,"乏":961,"乒":962,"乓":963,"乖":964,"乗":965,"乘":966,"乙":967,"九":968,"乞":969,"也":970,"乩":971,"乳":972,"乾":973,"亀":974,"亁":975,"亂":976,"了":977,"予":978,"争":979,"事":980,"二":981,"于":982,"云":983,"互":984,"五":985,"井":986,"亘":987,"亙":988,"些":989,"亜":990,"亞":991,"亟":992,"亡":993,"亢":994,"交":995,"亥":996,"亦":997,"亨":998,"享":999,"京":1000,"亭":1001,"亮":1002,"亲":1003,"亳":1004,"人":1005,"亻":1006,"什":1007,"仁":1008,"仄":1009,"仆":1010,"仇":1011,"今":1012,"介":1013,"仍":1014,"仏":1015,"仔":1016,"仕":1017,"他":1018,"仗":1019,"付":1020,"仙":1021,"仝":1022,"仞":1023,"仟":1024,"代":1025,"令":1026,"以":1027,"仨":1028,"仰":1029,"仲":1030,"件":1031,"价":1032,"任":1033,"份":1034,"仿":1035,"企":1036,"伃":1037,"伉":1038,"伊":1039,"伍":1040,"伎":1041,"伏":1042,"伐":1043,"休":1044,"伕":1045,"众":1046,"伙":1047,"会":1048,"伝":1049,"伯":1050,"估":1051,"伴":1052,"伶":1053,"伸":1054,"伺":1055,"似":1056,"伽":1057,"佃":1058,"但":1059,"佇":1060,"佈":1061,"位":1062,"低":1063,"住":1064,"佐":1065,"佑":1066,"体":1067,"佔":1068,"何":1069,"佗":1070,"佘":1071,"余":1072,"佚":1073,"佛":1074,"作":1075,"佝":1076,"佞":1077,"佟":1078,"你":1079,"佢":1080,"佣":1081,"佤":1082,"佩":1083,"佬":1084,"佮":1085,"佯":1086,"佰":1087,"佳":1088,"併":1089,"佶":1090,"佻":1091,"佼":1092,"佾":1093,"使":1094,"侃":1095,"侄":1096,"來":1097,"侈":1098,"侊":1099,"例":1100,"侍":1101,"侏":1102,"侑":1103,"侖":1104,"侗":1105,"侘":1106,"供":1107,"依":1108,"価":1109,"侮":1110,"侯":1111,"侵":1112,"侶":1113,"侷":1114,"便":1115,"俁":1116,"係":1117,"促":1118,"俄":1119,"俊":1120,"俋":1121,"俍":1122,"俎":1123,"俏":1124,"俐":1125,"俑":1126,"俗":1127,"俘":1128,"俚":1129,"保":1130,"俞":1131,"俟":1132,"俠":1133,"信":1134,"俢":1135,"俣":1136,"俤":1137,"俥":1138,"俬":1139,"修":1140,"俯":1141,"俱":1142,"俳":1143,"俵":1144,"俸":1145,"俺":1146,"俾":1147,"倆":1148,"倉":1149,"個":1150,"倌":1151,"倍":1152,"倏":1153,"們":1154,"倒":1155,"倔":1156,"倖":1157,"倘":1158,"候":1159,"倚":1160,"倜":1161,"倞":1162,"借":1163,"倡":1164,"倢":1165,"値":1166,"倦":1167,"倨":1168,"倩":1169,"倪":1170,"倫":1171,"倬":1172,"倭":1173,"倰":1174,"值":1175,"偃":1176,"假":1177,"偈":1178,"偉":1179,"偌":1180,"偎":1181,"偏":1182,"偒":1183,"偕":1184,"做":1185,"停":1186,"健":1187,"偱":1188,"偲":1189,"側":1190,"偵":1191,"偶":1192,"偷":1193,"偽":1194,"傀":1195,"傅":1196,"傈":1197,"傍":1198,"傑":1199,"傕":1200,"傘":1201,"備":1202,"傢":1203,"傣":1204,"催":1205,"傭":1206,"傲":1207,"傳":1208,"債":1209,"傷":1210,"傻":1211,"傾":1212,"僂":1213,"僅":1214,"僊":1215,"像":1216,"僑":1217,"僕":1218,"僚":1219,"僥":1220,"僧":1221,"僩":1222,"僬":1223,"僭":1224,"僮":1225,"僱":1226,"僳":1227,"僵":1228,"價":1229,"僻":1230,"僾":1231,"儀":1232,"儁":1233,"儂":1234,"億":1235,"儆":1236,"儉":1237,"儋":1238,"儎":1239,"儐":1240,"儒":1241,"儕":1242,"儘":1243,"償":1244,"儡":1245,"儣":1246,"優":1247,"儲":1248,"儷":1249,"儸":1250,"儻":1251,"儼":1252,"儿":1253,"兀":1254,"允":1255,"元":1256,"兄":1257,"充":1258,"兆":1259,"兇":1260,"先":1261,"光":1262,"克":1263,"兌":1264,"免":1265,"児":1266,"兑":1267,"兒":1268,"兔":1269,"兗":1270,"党":1271,"兜":1272,"兢":1273,"入":1274,"內":1275,"全":1276,"兩":1277,"兪":1278,"八":1279,"公":1280,"六":1281,"兮":1282,"共":1283,"关":1284,"兴":1285,"兵":1286,"其":1287,"具":1288,"典":1289,"兹":1290,"养":1291,"兼":1292,"冀":1293,"内":1294,"円":1295,"冇":1296,"冉":1297,"冊":1298,"册":1299,"再":1300,"冏":1301,"冑":1302,"冒":1303,"冕":1304,"冗":1305,"写":1306,"冚":1307,"冠":1308,"冢":1309,"冤":1310,"冥":1311,"冧":1312,"冨":1313,"冪":1314,"冬":1315,"冰":1316,"冲":1317,"决":1318,"冴":1319,"况":1320,"冶":1321,"冷":1322,"冼":1323,"冽":1324,"凃":1325,"凄":1326,"凅":1327,"准":1328,"凈":1329,"凉":1330,"凊":1331,"凋":1332,"凌":1333,"凍":1334,"减":1335,"凑":1336,"凖":1337,"凜":1338,"凝":1339,"几":1340,"凡":1341,"処":1342,"凪":1343,"凭":1344,"凰":1345,"凱":1346,"凳":1347,"凶":1348,"凸":1349,"凹":1350,"出":1351,"函":1352,"刀":1353,"刁":1354,"刃":1355,"分":1356,"切":1357,"刈":1358,"刊":1359,"刎":1360,"刑":1361,"划":1362,"列":1363,"初":1364,"判":1365,"別":1366,"刨":1367,"利":1368,"刪":1369,"别":1370,"刮":1371,"到":1372,"制":1373,"刷":1374,"券":1375,"刺":1376,"刻":1377,"剁":1378,"剃":1379,"則":1380,"剉":1381,"削":1382,"剋":1383,"剌":1384,"前":1385,"剎":1386,"剔":1387,"剖":1388,"剛":1389,"剜":1390,"剝":1391,"剥":1392,"剩":1393,"剪":1394,"剮":1395,"副":1396,"割":1397,"創":1398,"剷":1399,"剽":1400,"剿":1401,"劃":1402,"劇":1403,"劈":1404,"劉":1405,"劊":1406,"劍":1407,"劏":1408,"劑":1409,"力":1410,"功":1411,"加":1412,"劣":1413,"动":1414,"助":1415,"努":1416,"劫":1417,"劬":1418,"劭":1419,"励":1420,"労":1421,"劵":1422,"効":1423,"劾":1424,"势":1425,"勁":1426,"勃":1427,"勅":1428,"勇":1429,"勉":1430,"勍":1431,"勒":1432,"動":1433,"勗":1434,"勘":1435,"務":1436,"勛":1437,"勝":1438,"勞":1439,"募":1440,"勠":1441,"勢":1442,"勤":1443,"勧":1444,"勲":1445,"勳":1446,"勵":1447,"勸":1448,"勺":1449,"勻":1450,"勾":1451,"勿":1452,"包":1453,"匆":1454,"匈":1455,"匍":1456,"匏":1457,"匐":1458,"匕":1459,"化":1460,"北":1461,"匙":1462,"匜":1463,"匝":1464,"匠":1465,"匡":1466,"匣":1467,"匪":1468,"匭":1469,"匯":1470,"匱":1471,"匹":1472,"区":1473,"医":1474,"匾":1475,"匿":1476,"區":1477,"十":1478,"千":1479,"卅":1480,"升":1481,"午":1482,"卉":1483,"半":1484,"卍":1485,"卑":1486,"卒":1487,"卓":1488,"協":1489,"单":1490,"南":1491,"単":1492,"博":1493,"卜":1494,"卞":1495,"占":1496,"卡":1497,"卦":1498,"卧":1499,"卯":1500,"印":1501,"危":1502,"即":1503,"却":1504,"卵":1505,"卷":1506,"卸":1507,"卹":1508,"卺":1509,"卻":1510,"卿":1511,"厄":1512,"厓":1513,"厘":1514,"厚":1515,"厝":1516,"原":1517,"厠":1518,"厥":1519,"厦":1520,"厨":1521,"厭":1522,"厲":1523,"厶":1524,"去":1525,"叁":1526,"参":1527,"參":1528,"又":1529,"叉":1530,"及":1531,"友":1532,"双":1533,"反":1534,"収":1535,"发":1536,"叔":1537,"取":1538,"受":1539,"变":1540,"叙":1541,"叛":1542,"叟":1543,"叠":1544,"叡":1545,"叢":1546,"口":1547,"古":1548,"句":1549,"另":1550,"叨":1551,"叩":1552,"只":1553,"叫":1554,"召":1555,"叭":1556,"叮":1557,"可":1558,"台":1559,"叱":1560,"史":1561,"右":1562,"叵":1563,"叶":1564,"号":1565,"司":1566,"叻":1567,"叼":1568,"吁":1569,"吃":1570,"各":1571,"吆":1572,"合":1573,"吉":1574,"吊":1575,"吋":1576,"同":1577,"名":1578,"后":1579,"吏":1580,"吐":1581,"向":1582,"吒":1583,"吔":1584,"君":1585,"吝":1586,"吞":1587,"吟":1588,"吠":1589,"吡":1590,"否":1591,"吧":1592,"吩":1593,"含":1594,"吭":1595,"吮":1596,"吱":1597,"吲":1598,"吳":1599,"吵":1600,"吶":1601,"吸":1602,"吹":1603,"吻":1604,"吼":1605,"吾":1606,"吿":1607,"呀":1608,"呂":1609,"呃":1610,"呄":1611,"呆":1612,"呈":1613,"呉":1614,"告":1615,"呎":1616,"呐":1617,"呢":1618,"呣":1619,"呤":1620,"呦":1621,"周":1622,"呱":1623,"味":1624,"呵":1625,"呶":1626,"呷":1627,"呸":1628,"呻":1629,"呼":1630,"命":1631,"咀":1632,"咁":1633,"咄":1634,"咆":1635,"咋":1636,"和":1637,"咎":1638,"咏":1639,"咐":1640,"咒":1641,"咔":1642,"咕":1643,"咖":1644,"咗":1645,"咘":1646,"咚":1647,"咤":1648,"咥":1649,"咦":1650,"咧":1651,"咨":1652,"咩":1653,"咪":1654,"咫":1655,"咬":1656,"咯":1657,"咱":1658,"咲":1659,"咳":1660,"咶":1661,"咸":1662,"咻":1663,"咽":1664,"咾":1665,"咿":1666,"哀":1667,"品":1668,"哄":1669,"哆":1670,"哇":1671,"哈":1672,"哉":1673,"哋":1674,"响":1675,"哎":1676,"哏":1677,"哒":1678,"哖":1679,"哚":1680,"哞":1681,"哟":1682,"員":1683,"哥":1684,"哦":1685,"哧":1686,"哨":1687,"哩":1688,"哪":1689,"哭":1690,"哮":1691,"哲":1692,"哺":1693,"哼":1694,"哽":1695,"唁":1696,"唄":1697,"唅":1698,"唆":1699,"唇":1700,"唉":1701,"唏":1702,"唐":1703,"唑":1704,"唔":1705,"唦":1706,"唧":1707,"唬":1708,"售":1709,"唯":1710,"唰":1711,"唱":1712,"唳":1713,"唷":1714,"唸":1715,"唾":1716,"啃":1717,"啄":1718,"商":1719,"啉":1720,"啊":1721,"問":1722,"啓":1723,"啕":1724,"啖":1725,"啜":1726,"啞":1727,"啟":1728,"啡":1729,"啣":1730,"啤":1731,"啥":1732,"啦":1733,"啪":1734,"啲":1735,"啵":1736,"啶":1737,"啷":1738,"啻":1739,"啼":1740,"啾":1741,"喀":1742,"喁":1743,"喂":1744,"喃":1745,"善":1746,"喆":1747,"喇":1748,"喉":1749,"喊":1750,"喋":1751,"喎":1752,"喏":1753,"喔":1754,"喘":1755,"喙":1756,"喚":1757,"喜":1758,"喝":1759,"喧":1760,"喨":1761,"喪":1762,"喫":1763,"喬":1764,"單":1765,"喱":1766,"喲":1767,"喳":1768,"喵":1769,"営":1770,"喹":1771,"喺":1772,"喻":1773,"喽":1774,"嗄":1775,"嗅":1776,"嗆":1777,"嗇":1778,"嗎":1779,"嗑":1780,"嗒":1781,"嗓":1782,"嗔":1783,"嗖":1784,"嗚":1785,"嗜":1786,"嗝":1787,"嗡":1788,"嗣":1789,"嗤":1790,"嗦":1791,"嗨":1792,"嗩":1793,"嗯":1794,"嗰":1795,"嗲":1796,"嗶":1797,"嗷":1798,"嗽":1799,"嘀":1800,"嘅":1801,"嘆":1802,"嘈":1803,"嘉":1804,"嘌":1805,"嘍":1806,"嘎":1807,"嘒":1808,"嘔":1809,"嘖":1810,"嘗":1811,"嘛":1812,"嘜":1813,"嘞":1814,"嘟":1815,"嘧":1816,"嘩":1817,"嘮":1818,"嘯":1819,"嘰":1820,"嘲":1821,"嘴":1822,"嘶":1823,"嘸":1824,"嘹":1825,"嘻":1826,"嘿":1827,"噁":1828,"噌":1829,"噍":1830,"噎":1831,"噓":1832,"噔":1833,"噗":1834,"噘":1835,"噙":1836,"噚":1837,"噠":1838,"噢":1839,"噤":1840,"噥":1841,"器":1842,"噩":1843,"噪":1844,"噬":1845,"噯":1846,"噱":1847,"噴":1848,"噶":1849,"噸":1850,"噹":1851,"噻":1852,"嚀":1853,"嚅":1854,"嚇":1855,"嚎":1856,"嚏":1857,"嚐":1858,"嚓":1859,"嚕":1860,"嚙":1861,"嚞":1862,"嚟":1863,"嚥":1864,"嚨":1865,"嚮":1866,"嚴":1867,"嚶":1868,"嚷":1869,"嚼":1870,"囁":1871,"囂":1872,"囈":1873,"囉":1874,"囊":1875,"囍":1876,"囑":1877,"囓":1878,"囔":1879,"囚":1880,"四":1881,"囝":1882,"回":1883,"囟":1884,"因":1885,"囡":1886,"団":1887,"囤":1888,"囧":1889,"囪":1890,"囫":1891,"困":1892,"囱":1893,"囲":1894,"図":1895,"囷":1896,"囹":1897,"固":1898,"国":1899,"囿":1900,"圃":1901,"圄":1902,"圇":1903,"圈":1904,"國":1905,"圍":1906,"圏":1907,"園":1908,"圓":1909,"圖":1910,"團":1911,"圜":1912,"土":1913,"在":1914,"圩":1915,"圭":1916,"圮":1917,"地":1918,"圳":1919,"圻":1920,"圾":1921,"址":1922,"坂":1923,"均":1924,"坊":1925,"坌":1926,"坍":1927,"坎":1928,"坏":1929,"坐":1930,"坑":1931,"坡":1932,"坢":1933,"坣":1934,"坤":1935,"坦":1936,"坨":1937,"坪":1938,"坯":1939,"坳":1940,"坵":1941,"坷":1942,"垂":1943,"垃":1944,"型":1945,"垚":1946,"垛":1947,"垜":1948,"垠":1949,"垢":1950,"垣":1951,"垫":1952,"垮":1953,"垵":1954,"垻":1955,"埀":1956,"埂":1957,"埃":1958,"埆":1959,"埈":1960,"埋":1961,"城":1962,"埏":1963,"埔":1964,"埕":1965,"域":1966,"埠":1967,"埤":1968,"埨":1969,"埭":1970,"埴":1971,"執":1972,"埸":1973,"培":1974,"基":1975,"埼":1976,"堀":1977,"堂":1978,"堃":1979,"堅":1980,"堆":1981,"堇":1982,"堉":1983,"堊":1984,"堡":1985,"堤":1986,"堪":1987,"堯":1988,"堰":1989,"報":1990,"場":1991,"堵":1992,"堺":1993,"塊":1994,"塌":1995,"塍":1996,"塏":1997,"塑":1998,"塔":1999,"塗":2000,"塘":2001,"塚":2002,"塞":2003,"塡":2004,"塢":2005,"塩":2006,"填":2007,"塭":2008,"塱":2009,"塵":2010,"塹":2011,"塾":2012,"墀":2013,"境":2014,"墅":2015,"墉":2016,"墊":2017,"墓":2018,"増":2019,"墘":2020,"墜":2021,"增":2022,"墟":2023,"墣":2024,"墨":2025,"墩":2026,"墮":2027,"墳":2028,"墶":2029,"墻":2030,"墾":2031,"壁":2032,"壅":2033,"壇":2034,"壑":2035,"壓":2036,"壕":2037,"壘":2038,"壞":2039,"壟":2040,"壠":2041,"壢":2042,"壤":2043,"壩":2044,"士":2045,"壬":2046,"壮":2047,"壯":2048,"売":2049,"壶":2050,"壹":2051,"壺":2052,"壼":2053,"壽":2054,"夀":2055,"夆":2056,"変":2057,"夌":2058,"复":2059,"夏":2060,"夐":2061,"夔":2062,"夕":2063,"外":2064,"夙":2065,"多":2066,"夜":2067,"够":2068,"夠":2069,"夢":2070,"夤":2071,"夥":2072,"大":2073,"天":2074,"太":2075,"夫":2076,"夭":2077,"央":2078,"夯":2079,"失":2080,"夲":2081,"夷":2082,"夸":2083,"夾":2084,"奄":2085,"奇":2086,"奈":2087,"奉":2088,"奎":2089,"奏":2090,"奐":2091,"契":2092,"奔":2093,"奕":2094,"套":2095,"奘":2096,"奚":2097,"奠":2098,"奢":2099,"奥":2100,"奧":2101,"奨":2102,"奩":2103,"奪":2104,"奬":2105,"奮":2106,"女":2107,"奴":2108,"奶":2109,"奷":2110,"奸":2111,"她":2112,"奼":2113,"好":2114,"妁":2115,"如":2116,"妃":2117,"妄":2118,"妊":2119,"妍":2120,"妏":2121,"妒":2122,"妓":2123,"妖":2124,"妘":2125,"妙":2126,"妝":2127,"妞":2128,"妡":2129,"妣":2130,"妤":2131,"妥":2132,"妨":2133,"妮":2134,"妯":2135,"妲":2136,"妳":2137,"妹":2138,"妺":2139,"妻":2140,"妽":2141,"妾":2142,"姆":2143,"姈":2144,"姉":2145,"姊":2146,"始":2147,"姍":2148,"姐":2149,"姑":2150,"姓":2151,"委":2152,"姙":2153,"姚":2154,"姜":2155,"姝":2156,"姣":2157,"姥":2158,"姦":2159,"姨":2160,"姪":2161,"姫":2162,"姬":2163,"姮":2164,"姵":2165,"姸":2166,"姻":2167,"姼":2168,"姿":2169,"威":2170,"娃":2171,"娉":2172,"娌":2173,"娑":2174,"娓":2175,"娗":2176,"娘":2177,"娛":2178,"娜":2179,"娞":2180,"娟":2181,"娠":2182,"娣":2183,"娥":2184,"娩":2185,"娪":2186,"娳":2187,"娶":2188,"娼":2189,"婀":2190,"婁":2191,"婆":2192,"婉":2193,"婊":2194,"婌":2195,"婕":2196,"婗":2197,"婚":2198,"婞":2199,"婢":2200,"婦":2201,"婧":2202,"婪":2203,"婭":2204,"婴":2205,"婷":2206,"婿":2207,"媁":2208,"媃":2209,"媄":2210,"媒":2211,"媓":2212,"媖":2213,"媗":2214,"媚":2215,"媛":2216,"媜":2217,"媞":2218,"媠":2219,"媧":2220,"媲":2221,"媳":2222,"媽":2223,"媾":2224,"嫁":2225,"嫂":2226,"嫈":2227,"嫉":2228,"嫌":2229,"嫖":2230,"嫗":2231,"嫘":2232,"嫙":2233,"嫚":2234,"嫡":2235,"嫣":2236,"嫦":2237,"嫩":2238,"嫰":2239,"嫲":2240,"嫵":2241,"嫺":2242,"嫻":2243,"嬅":2244,"嬈":2245,"嬉":2246,"嬋":2247,"嬌":2248,"嬗":2249,"嬙":2250,"嬛":2251,"嬝":2252,"嬢":2253,"嬤":2254,"嬪":2255,"嬰":2256,"嬲":2257,"嬴":2258,"嬷":2259,"嬸":2260,"嬿":2261,"孀":2262,"孃":2263,"子":2264,"孑":2265,"孓":2266,"孔":2267,"孕":2268,"孖":2269,"字":2270,"存":2271,"孙":2272,"孚":2273,"孛":2274,"孜":2275,"孝":2276,"孟":2277,"孢":2278,"季":2279,"孤":2280,"孥":2281,"学":2282,"孩":2283,"孫":2284,"孬":2285,"孰":2286,"孱":2287,"孳":2288,"孵":2289,"學":2290,"孺":2291,"孽":2292,"孿":2293,"宀":2294,"它":2295,"宅":2296,"宇":2297,"守":2298,"安":2299,"宋":2300,"完":2301,"宏":2302,"宓":2303,"宕":2304,"宗":2305,"官":2306,"宙":2307,"定":2308,"宛":2309,"宜":2310,"宝":2311,"实":2312,"実":2313,"客":2314,"宣":2315,"室":2316,"宥":2317,"宦":2318,"宫":2319,"宮":2320,"宰":2321,"害":2322,"宴":2323,"宵":2324,"家":2325,"宸":2326,"容":2327,"宿":2328,"寀":2329,"寂":2330,"寃":2331,"寄":2332,"寅":2333,"密":2334,"寇":2335,"富":2336,"寐":2337,"寒":2338,"寓":2339,"寗":2340,"寛":2341,"寝":2342,"寞":2343,"察":2344,"寡":2345,"寢":2346,"寥":2347,"實":2348,"寧":2349,"寨":2350,"審":2351,"寫":2352,"寬":2353,"寮":2354,"寯":2355,"寰":2356,"寳":2357,"寵":2358,"寶":2359,"寸":2360,"对":2361,"寺":2362,"导":2363,"対":2364,"寿":2365,"封":2366,"専":2367,"尃":2368,"射":2369,"将":2370,"將":2371,"專":2372,"尉":2373,"尊":2374,"尋":2375,"對":2376,"導":2377,"小":2378,"少":2379,"尖":2380,"尚":2381,"尢":2382,"尤":2383,"尪":2384,"尬":2385,"就":2386,"尷":2387,"尸":2388,"尹":2389,"尺":2390,"尻":2391,"尼":2392,"尽":2393,"尾":2394,"尿":2395,"局":2396,"屁":2397,"屄":2398,"居":2399,"屆":2400,"屈":2401,"届":2402,"屋":2403,"屌":2404,"屍":2405,"屎":2406,"屏":2407,"屐":2408,"屑":2409,"展":2410,"屜":2411,"属":2412,"屠":2413,"屢":2414,"屣":2415,"層":2416,"履":2417,"屬":2418,"屯":2419,"山":2420,"屴":2421,"屹":2422,"岀":2423,"岌":2424,"岐":2425,"岑":2426,"岔":2427,"岛":2428,"岡":2429,"岩":2430,"岫":2431,"岬":2432,"岭":2433,"岱":2434,"岳":2435,"岷":2436,"岸":2437,"峇":2438,"峋":2439,"峒":2440,"峙":2441,"峟":2442,"峠":2443,"峨":2444,"峪":2445,"峭":2446,"峮":2447,"峯":2448,"峰":2449,"峱":2450,"峴":2451,"島":2452,"峸":2453,"峻":2454,"峽":2455,"崁":2456,"崇":2457,"崎":2458,"崐":2459,"崑":2460,"崔":2461,"崖":2462,"崗":2463,"崙":2464,"崚":2465,"崛":2466,"崢":2467,"崧":2468,"崩":2469,"崳":2470,"崴":2471,"崵":2472,"崽":2473,"嵂":2474,"嵄":2475,"嵇":2476,"嵋":2477,"嵌":2478,"嵎":2479,"嵐":2480,"嵓":2481,"嵗":2482,"嵙":2483,"嵜":2484,"嵩":2485,"嵬":2486,"嵵":2487,"嵿":2488,"嶂":2489,"嶄":2490,"嶇":2491,"嶋":2492,"嶔":2493,"嶙":2494,"嶝":2495,"嶢":2496,"嶸":2497,"嶺":2498,"嶼":2499,"嶽":2500,"巂":2501,"巃":2502,"巋":2503,"巍":2504,"巒":2505,"巓":2506,"巔":2507,"巖":2508,"川":2509,"州":2510,"巡":2511,"巢":2512,"巣":2513,"工":2514,"左":2515,"巧":2516,"巨":2517,"巫":2518,"差":2519,"己":2520,"已":2521,"巳":2522,"巴":2523,"巷":2524,"巹":2525,"巽":2526,"巾":2527,"巿":2528,"市":2529,"布":2530,"帆":2531,"师":2532,"希":2533,"帍":2534,"帑":2535,"帔":2536,"帕":2537,"帖":2538,"帙":2539,"帚":2540,"帛":2541,"帝":2542,"帟":2543,"帥":2544,"師":2545,"席":2546,"帯":2547,"帰":2548,"帳":2549,"帶":2550,"帷":2551,"常":2552,"帽":2553,"幀":2554,"幃":2555,"幄":2556,"幅":2557,"幇":2558,"幌":2559,"幔":2560,"幕":2561,"幗":2562,"幛":2563,"幞":2564,"幟":2565,"幡":2566,"幢":2567,"幣":2568,"幫":2569,"干":2570,"平":2571,"年":2572,"并":2573,"幷":2574,"幸":2575,"幹":2576,"幻":2577,"幼":2578,"幽":2579,"幾":2580,"庀":2581,"庁":2582,"広":2583,"庄":2584,"庇":2585,"床":2586,"庋":2587,"序":2588,"庒":2589,"底":2590,"庖":2591,"店":2592,"庚":2593,"府":2594,"庠":2595,"度":2596,"座":2597,"庫":2598,"庭":2599,"庲":2600,"庵":2601,"庶":2602,"康":2603,"庸":2604,"庹":2605,"庾":2606,"廁":2607,"廂":2608,"廃":2609,"廄":2610,"廈":2611,"廉":2612,"廊":2613,"廋":2614,"廍":2615,"廓":2616,"廔":2617,"廖":2618,"廚":2619,"廝":2620,"廟":2621,"廠":2622,"廡":2623,"廢":2624,"廣":2625,"廬":2626,"廰":2627,"廳":2628,"廵":2629,"延":2630,"廷":2631,"廸":2632,"建":2633,"廿":2634,"弁":2635,"异":2636,"弄":2637,"弈":2638,"弊":2639,"弋":2640,"弌":2641,"式":2642,"弒":2643,"弓":2644,"弔":2645,"引":2646,"弗":2647,"弘":2648,"弛":2649,"弟":2650,"弥":2651,"弦":2652,"弧":2653,"弩":2654,"弭":2655,"弱":2656,"張":2657,"強":2658,"强":2659,"弼":2660,"彆":2661,"彈":2662,"彊":2663,"彌":2664,"彎":2665,"当":2666,"彗":2667,"彙":2668,"彚":2669,"彜":2670,"彝":2671,"彞":2672,"彡":2673,"形":2674,"彣":2675,"彤":2676,"彥":2677,"彦":2678,"彧":2679,"彩":2680,"彪":2681,"彬":2682,"彭":2683,"彰":2684,"影":2685,"彳":2686,"彵":2687,"彷":2688,"役":2689,"彼":2690,"彿":2691,"往":2692,"征":2693,"徂":2694,"待":2695,"徇":2696,"很":2697,"徉":2698,"徊":2699,"律":2700,"後":2701,"徐":2702,"徑":2703,"徒":2704,"徕":2705,"得":2706,"徘":2707,"徙":2708,"徜":2709,"從":2710,"徠":2711,"御":2712,"徧":2713,"徨":2714,"復":2715,"循":2716,"徬":2717,"徭":2718,"微":2719,"徳":2720,"徵":2721,"德":2722,"徹":2723,"徽":2724,"心":2725,"忄":2726,"必":2727,"忌":2728,"忍":2729,"忐":2730,"忑":2731,"忒":2732,"忖":2733,"志":2734,"忘":2735,"忙":2736,"応":2737,"忝":2738,"忠":2739,"忡":2740,"忤":2741,"忪":2742,"快":2743,"忱":2744,"念":2745,"忸":2746,"忻":2747,"忽":2748,"忿":2749,"怀":2750,"怎":2751,"怏":2752,"怒":2753,"怔":2754,"怕":2755,"怖":2756,"怙":2757,"怜":2758,"思":2759,"怠":2760,"怡":2761,"急":2762,"怦":2763,"性":2764,"怨":2765,"怩":2766,"怪":2767,"怫":2768,"怯":2769,"怵":2770,"怹":2771,"恁":2772,"恂":2773,"恃":2774,"恆":2775,"恊":2776,"恋":2777,"恍":2778,"恐":2779,"恒":2780,"恕":2781,"恙":2782,"恢":2783,"恣":2784,"恤":2785,"恥":2786,"恨":2787,"恩":2788,"恪":2789,"恫":2790,"恬":2791,"恭":2792,"息":2793,"恰":2794,"恵":2795,"恿":2796,"悄":2797,"悅":2798,"悉":2799,"悌":2800,"悍":2801,"悒":2802,"悔":2803,"悖":2804,"悚":2805,"悛":2806,"悟":2807,"悠":2808,"患":2809,"悦":2810,"悧":2811,"您":2812,"悩":2813,"悪":2814,"悱":2815,"悲":2816,"悴":2817,"悵":2818,"悶":2819,"悸":2820,"悻":2821,"悼":2822,"悽":2823,"情":2824,"惆":2825,"惇":2826,"惋":2827,"惑":2828,"惕":2829,"惘":2830,"惚":2831,"惜":2832,"惟":2833,"惠":2834,"惡":2835,"惢":2836,"惣":2837,"惦":2838,"惨":2839,"惰":2840,"惱":2841,"想":2842,"惴":2843,"惶":2844,"惹":2845,"惺":2846,"惻":2847,"愁":2848,"愆":2849,"愈":2850,"愉":2851,"愎":2852,"意":2853,"愓":2854,"愔":2855,"愕":2856,"愚":2857,"愛":2858,"愜":2859,"感":2860,"愣":2861,"愧":2862,"愨":2863,"愫":2864,"愴":2865,"愷":2866,"愾":2867,"愿":2868,"慄":2869,"慇":2870,"慈":2871,"慉":2872,"態":2873,"慌":2874,"慍":2875,"慎":2876,"慕":2877,"慘":2878,"慚":2879,"慜":2880,"慟":2881,"慢":2882,"慣":2883,"慧":2884,"慨":2885,"慫":2886,"慬":2887,"慮":2888,"慰":2889,"慱":2890,"慵":2891,"慶":2892,"慷":2893,"慽":2894,"慾":2895,"憂":2896,"憊":2897,"憋":2898,"憎":2899,"憐":2900,"憑":2901,"憒":2902,"憓":2903,"憔":2904,"憚":2905,"憝":2906,"憤":2907,"憧":2908,"憨":2909,"憩":2910,"憫":2911,"憬":2912,"憲":2913,"憶":2914,"憾":2915,"懂":2916,"懇":2917,"懈":2918,"應":2919,"懊":2920,"懋":2921,"懐":2922,"懕":2923,"懟":2924,"懦":2925,"懨":2926,"懲":2927,"懵":2928,"懶":2929,"懷":2930,"懸":2931,"懺":2932,"懼":2933,"懾":2934,"懿":2935,"戀":2936,"戈":2937,"戊":2938,"戌":2939,"戍":2940,"戎":2941,"成":2942,"我":2943,"戒":2944,"戕":2945,"或":2946,"戚":2947,"戛":2948,"戟":2949,"戡":2950,"戦":2951,"戩":2952,"截":2953,"戮":2954,"戰":2955,"戲":2956,"戳":2957,"戴":2958,"戶":2959,"户":2960,"戸":2961,"戻":2962,"戽":2963,"戾":2964,"房":2965,"所":2966,"扁":2967,"扇":2968,"扈":2969,"扉":2970,"手":2971,"才":2972,"扎":2973,"扑":2974,"扒":2975,"打":2976,"扔":2977,"払":2978,"托":2979,"扛":2980,"扞":2981,"扣":2982,"扦":2983,"扭":2984,"扮":2985,"扯":2986,"扳":2987,"扶":2988,"批":2989,"扺":2990,"扼":2991,"找":2992,"承":2993,"技":2994,"抄":2995,"抇":2996,"抉":2997,"把":2998,"抑":2999,"抒":3000,"抓":3001,"投":3002,"抖":3003,"抗":3004,"折":3005,"抚":3006,"抛":3007,"抜":3008,"抝":3009,"报":3010,"抨":3011,"披":3012,"抬":3013,"抱":3014,"抵":3015,"抹":3016,"抺":3017,"押":3018,"抽":3019,"抿":3020,"拂":3021,"拄":3022,"担":3023,"拆":3024,"拇":3025,"拈":3026,"拉":3027,"拊":3028,"拋":3029,"拌":3030,"拍":3031,"拎":3032,"拐":3033,"拒":3034,"拓":3035,"拔":3036,"拖":3037,"拗":3038,"拘":3039,"拙":3040,"拚":3041,"招":3042,"拜":3043,"拠":3044,"括":3045,"拭":3046,"拮":3047,"拯":3048,"拱":3049,"拳":3050,"拴":3051,"拷":3052,"拼":3053,"拽":3054,"拾":3055,"拿":3056,"持":3057,"挂":3058,"指":3059,"挈":3060,"按":3061,"挑":3062,"挖":3063,"挨":3064,"挪":3065,"挫":3066,"振":3067,"挲":3068,"挵":3069,"挹":3070,"挺":3071,"挽":3072,"挾":3073,"捂":3074,"捅":3075,"捆":3076,"捉":3077,"捋":3078,"捌":3079,"捍":3080,"捎":3081,"捏":3082,"捐":3083,"捕":3084,"捜":3085,"损":3086,"换":3087,"捧":3088,"捨":3089,"捩":3090,"捫":3091,"捭":3092,"据":3093,"捱":3094,"捲":3095,"捶":3096,"捷":3097,"捺":3098,"捻":3099,"掀":3100,"掂":3101,"掃":3102,"掄":3103,"掇":3104,"授":3105,"掉":3106,"掌":3107,"掏":3108,"掐":3109,"排":3110,"掖":3111,"掘":3112,"掙":3113,"掛":3114,"掠":3115,"採":3116,"探":3117,"掣":3118,"接":3119,"掦":3120,"控":3121,"推":3122,"掩":3123,"措":3124,"掬":3125,"掮":3126,"掰":3127,"揀":3128,"揄":3129,"揆":3130,"揉":3131,"揍":3132,"描":3133,"提":3134,"插":3135,"揖":3136,"揚":3137,"換":3138,"揠":3139,"握":3140,"揣":3141,"揩":3142,"揪":3143,"揭":3144,"揮":3145,"揳":3146,"援":3147,"揶":3148,"揸":3149,"揹":3150,"揺":3151,"搆":3152,"搋":3153,"損":3154,"搏":3155,"搐":3156,"搓":3157,"搔":3158,"搖":3159,"搗":3160,"搜":3161,"搞":3162,"搡":3163,"搥":3164,"搦":3165,"搧":3166,"搪":3167,"搬":3168,"搭":3169,"搵":3170,"搶":3171,"携":3172,"搾":3173,"摀":3174,"摁":3175,"摂":3176,"摃":3177,"摄":3178,"摇":3179,"摍":3180,"摑":3181,"摒":3182,"摔":3183,"摘":3184,"摜":3185,"摞":3186,"摟":3187,"摧":3188,"摩":3189,"摮":3190,"摯":3191,"摳":3192,"摷":3193,"摸":3194,"摹":3195,"摺":3196,"摻":3197,"撂":3198,"撃":3199,"撅":3200,"撇":3201,"撈":3202,"撐":3203,"撑":3204,"撒":3205,"撓":3206,"撕":3207,"撘":3208,"撙":3209,"撚":3210,"撞":3211,"撢":3212,"撣":3213,"撤":3214,"撥":3215,"撩":3216,"撫":3217,"撬":3218,"播":3219,"撮":3220,"撰":3221,"撲":3222,"撸":3223,"撻":3224,"撼":3225,"撾":3226,"撿":3227,"擀":3228,"擁":3229,"擂":3230,"擄":3231,"擅":3232,"擇":3233,"擊":3234,"擋":3235,"操":3236,"擎":3237,"擒":3238,"擔":3239,"擕":3240,"擘":3241,"據":3242,"擠":3243,"擢":3244,"擣":3245,"擤":3246,"擦":3247,"擧":3248,"擬":3249,"擰":3250,"擱":3251,"擲":3252,"擴":3253,"擷":3254,"擺":3255,"擻":3256,"擼":3257,"擾":3258,"攀":3259,"攆":3260,"攉":3261,"攏":3262,"攔":3263,"攘":3264,"攙":3265,"攜":3266,"攝":3267,"攞":3268,"攢":3269,"攣":3270,"攤":3271,"攥":3272,"攪":3273,"攫":3274,"攬":3275,"支":3276,"攰":3277,"收":3278,"攸":3279,"改":3280,"攻":3281,"放":3282,"政":3283,"故":3284,"效":3285,"敍":3286,"敏":3287,"救":3288,"敕":3289,"敖":3290,"敗":3291,"敘":3292,"教":3293,"敝":3294,"敞":3295,"敢":3296,"散":3297,"敦":3298,"敬":3299,"数":3300,"敲":3301,"整":3302,"敵":3303,"敷":3304,"數":3305,"敻":3306,"斂":3307,"斃":3308,"文":3309,"斌":3310,"斐":3311,"斑":3312,"斕":3313,"斗":3314,"料":3315,"斛":3316,"斜":3317,"斟":3318,"斡":3319,"斤":3320,"斥":3321,"斧":3322,"斫":3323,"斬":3324,"斯":3325,"新":3326,"斷":3327,"方":3328,"於":3329,"施":3330,"旁":3331,"旂":3332,"旅":3333,"旆":3334,"旋":3335,"旌":3336,"旎":3337,"族":3338,"旖":3339,"旗":3340,"无":3341,"既":3342,"日":3343,"旦":3344,"旨":3345,"早":3346,"旬":3347,"旭":3348,"旮":3349,"旯":3350,"旱":3351,"旳":3352,"旴":3353,"时":3354,"旺":3355,"旻":3356,"旼":3357,"昀":3358,"昂":3359,"昆":3360,"昇":3361,"昉":3362,"昊":3363,"昌":3364,"昍":3365,"明":3366,"昏":3367,"易":3368,"昔":3369,"昕":3370,"昜":3371,"昝":3372,"昞":3373,"星":3374,"映":3375,"昤":3376,"春":3377,"昧":3378,"昨":3379,"昫":3380,"昭":3381,"是":3382,"昰":3383,"昱":3384,"昴":3385,"昶":3386,"昺":3387,"晁":3388,"時":3389,"晃":3390,"晉":3391,"晋":3392,"晌":3393,"晏":3394,"晒":3395,"晗":3396,"晙":3397,"晚":3398,"晛":3399,"晝":3400,"晞":3401,"晟":3402,"晢":3403,"晤":3404,"晦":3405,"晧":3406,"晨":3407,"普":3408,"景":3409,"晰":3410,"晳":3411,"晴":3412,"晶":3413,"智":3414,"晾":3415,"暁":3416,"暂":3417,"暄":3418,"暇":3419,"暈":3420,"暉":3421,"暌":3422,"暎":3423,"暐":3424,"暑":3425,"暖":3426,"暗":3427,"暘":3428,"暝":3429,"暠":3430,"暢":3431,"暦":3432,"暨":3433,"暪":3434,"暫":3435,"暮":3436,"暱":3437,"暳":3438,"暴":3439,"暸":3440,"暹":3441,"曁":3442,"曄":3443,"曆":3444,"曇":3445,"曈":3446,"曉":3447,"曕":3448,"曖":3449,"曙":3450,"曛":3451,"曜":3452,"曝":3453,"曠":3454,"曦":3455,"曨":3456,"曩":3457,"曬":3458,"曰":3459,"曲":3460,"曳":3461,"更":3462,"曷":3463,"書":3464,"曹":3465,"曺":3466,"曼":3467,"曾":3468,"替":3469,"最":3470,"會":3471,"月":3472,"有":3473,"朋":3474,"服":3475,"朔":3476,"朕":3477,"朗":3478,"朘":3479,"望":3480,"朝":3481,"期":3482,"朦":3483,"朧":3484,"木":3485,"未":3486,"末":3487,"本":3488,"札":3489,"朮":3490,"朱":3491,"朴":3492,"朵":3493,"朶":3494,"机":3495,"朽":3496,"杆":3497,"杉":3498,"杋":3499,"李":3500,"杏":3501,"材":3502,"村":3503,"杓":3504,"杖":3505,"杙":3506,"杜":3507,"杞":3508,"束":3509,"条":3510,"来":3511,"杭":3512,"杮":3513,"杯":3514,"杰":3515,"東":3516,"杳":3517,"杵":3518,"杷":3519,"松":3520,"板":3521,"枇":3522,"枉":3523,"枋":3524,"析":3525,"枒":3526,"枕":3527,"林":3528,"枘":3529,"枚":3530,"果":3531,"枝":3532,"枬":3533,"枯":3534,"枱":3535,"枳":3536,"枴":3537,"架":3538,"枷":3539,"枸":3540,"柄":3541,"柊":3542,"柏":3543,"某":3544,"柑":3545,"柒":3546,"染":3547,"柔":3548,"柘":3549,"柚":3550,"柢":3551,"查":3552,"柩":3553,"柬":3554,"柯":3555,"柱":3556,"柳":3557,"柴":3558,"柵":3559,"柺":3560,"査":3561,"柾":3562,"柿":3563,"栃":3564,"栄":3565,"栅":3566,"栒":3567,"栓":3568,"栖":3569,"栗":3570,"栞":3571,"栟":3572,"校":3573,"栢":3574,"栩":3575,"株":3576,"栭":3577,"栱":3578,"核":3579,"根":3580,"格":3581,"栽":3582,"桀":3583,"桁":3584,"桂":3585,"桃":3586,"桅":3587,"框":3588,"桇":3589,"案":3590,"桉":3591,"桌":3592,"桎":3593,"桐":3594,"桑":3595,"桓":3596,"桔":3597,"桖":3598,"桜":3599,"桮":3600,"桲":3601,"桴":3602,"桶":3603,"桿":3604,"梁":3605,"梃":3606,"梅":3607,"梆":3608,"梏":3609,"梓":3610,"梔":3611,"梗":3612,"梘":3613,"條":3614,"梟":3615,"梠":3616,"梢":3617,"梦":3618,"梧":3619,"梨":3620,"梭":3621,"梯":3622,"械":3623,"梳":3624,"梵":3625,"梶":3626,"棃":3627,"棄":3628,"棆":3629,"棉":3630,"棋":3631,"棍":3632,"棒":3633,"棓":3634,"棕":3635,"棗":3636,"棘":3637,"棚":3638,"棝":3639,"棟":3640,"棠":3641,"棣":3642,"棧":3643,"棨":3644,"棪":3645,"森":3646,"棱":3647,"棲":3648,"棵":3649,"棺":3650,"棻":3651,"棼":3652,"椅":3653,"椉":3654,"植":3655,"椎":3656,"椏":3657,"椒":3658,"椪":3659,"椬":3660,"椰":3661,"椴":3662,"椹":3663,"椿":3664,"楂":3665,"楊":3666,"楓":3667,"楔":3668,"楙":3669,"楚":3670,"楝":3671,"楞":3672,"楠":3673,"楢":3674,"楣":3675,"楨":3676,"楫":3677,"業":3678,"極":3679,"楷":3680,"楹":3681,"楽":3682,"概":3683,"榆":3684,"榊":3685,"榔":3686,"榕":3687,"榖":3688,"榛":3689,"榜":3690,"榤":3691,"榨":3692,"榫":3693,"榭":3694,"榮":3695,"榲":3696,"榳":3697,"榴":3698,"榶":3699,"榷":3700,"榻":3701,"槁":3702,"槃":3703,"構":3704,"槌":3705,"槍":3706,"槎":3707,"槐":3708,"槓":3709,"様":3710,"槤":3711,"槨":3712,"槪":3713,"槲":3714,"槳":3715,"槺":3716,"槻":3717,"槽":3718,"槿":3719,"樁":3720,"樂":3721,"樊":3722,"樋":3723,"樑":3724,"樓":3725,"標":3726,"樞":3727,"樟":3728,"模":3729,"樣":3730,"横":3731,"樫":3732,"樵":3733,"樸":3734,"樹":3735,"樺":3736,"樽":3737,"橄":3738,"橇":3739,"橈":3740,"橋":3741,"橍":3742,"橘":3743,"橙":3744,"機":3745,"橡":3746,"橢":3747,"橫":3748,"檀":3749,"檄":3750,"檎":3751,"檐":3752,"檔":3753,"檜":3754,"檟":3755,"檡":3756,"檢":3757,"檨":3758,"檬":3759,"檯":3760,"檳":3761,"檸":3762,"檻":3763,"櫂":3764,"櫃":3765,"櫆":3766,"櫈":3767,"櫓":3768,"櫚":3769,"櫛":3770,"櫟":3771,"櫥":3772,"櫧":3773,"櫪":3774,"櫫":3775,"櫳":3776,"櫸":3777,"櫺":3778,"櫻":3779,"欄":3780,"欉":3781,"權":3782,"欐":3783,"欒":3784,"欖":3785,"欠":3786,"次":3787,"欣":3788,"欲":3789,"欵":3790,"欸":3791,"欹":3792,"欺":3793,"欽":3794,"款":3795,"歆":3796,"歇":3797,"歉":3798,"歌":3799,"歎":3800,"歐":3801,"歕":3802,"歛":3803,"歡":3804,"止":3805,"正":3806,"此":3807,"步":3808,"武":3809,"歧":3810,"歩":3811,"歪":3812,"歬":3813,"歯":3814,"歲":3815,"歳":3816,"歴":3817,"歷":3818,"歸":3819,"歹":3820,"死":3821,"歿":3822,"殁":3823,"殂":3824,"殃":3825,"殄":3826,"殆":3827,"殉":3828,"殊":3829,"残":3830,"殖":3831,"殘":3832,"殛":3833,"殞":3834,"殤":3835,"殫":3836,"殭":3837,"殮":3838,"殯":3839,"殲":3840,"殴":3841,"段":3842,"殷":3843,"殺":3844,"殻":3845,"殼":3846,"殿":3847,"毀":3848,"毁":3849,"毅":3850,"毆":3851,"毋":3852,"母":3853,"毎":3854,"每":3855,"毐":3856,"毒":3857,"毓":3858,"比":3859,"毗":3860,"毘":3861,"毛":3862,"毫":3863,"毯":3864,"毽":3865,"氂":3866,"氈":3867,"氏":3868,"民":3869,"氓":3870,"氖":3871,"気":3872,"氘":3873,"氙":3874,"氚":3875,"氛":3876,"氟":3877,"氡":3878,"氣":3879,"氤":3880,"氦":3881,"氧":3882,"氨":3883,"氪":3884,"氫":3885,"氬":3886,"氮":3887,"氯":3888,"氰":3889,"氳":3890,"水":3891,"氶":3892,"氷":3893,"永":3894,"氹":3895,"氾":3896,"汀":3897,"汁":3898,"求":3899,"汆":3900,"汎":3901,"汐":3902,"汔":3903,"汕":3904,"汗":3905,"汙":3906,"汚":3907,"汛":3908,"汜":3909,"汝":3910,"汞":3911,"江":3912,"池":3913,"污":3914,"汪":3915,"汭":3916,"汯":3917,"汰":3918,"汱":3919,"汲":3920,"汴":3921,"汶":3922,"決":3923,"汽":3924,"汾":3925,"沁":3926,"沂":3927,"沃":3928,"沅":3929,"沆":3930,"沈":3931,"沉":3932,"沌":3933,"沏":3934,"沐":3935,"沒":3936,"沓":3937,"沖":3938,"沙":3939,"沛":3940,"没":3941,"沢":3942,"沫":3943,"沬":3944,"沮":3945,"沱":3946,"河":3947,"沸":3948,"油":3949,"治":3950,"沼":3951,"沽":3952,"沾":3953,"沿":3954,"況":3955,"泄":3956,"泅":3957,"泉":3958,"泊":3959,"泌":3960,"泐":3961,"泓":3962,"泔":3963,"法":3964,"泗":3965,"泛":3966,"泠":3967,"泡":3968,"波":3969,"泣":3970,"泥":3971,"注":3972,"泪":3973,"泫":3974,"泮":3975,"泯":3976,"泰":3977,"泱":3978,"泳":3979,"泵":3980,"洄":3981,"洋":3982,"洐":3983,"洒":3984,"洗":3985,"洙":3986,"洛":3987,"洞":3988,"洢":3989,"洣":3990,"津":3991,"洧":3992,"洨":3993,"洩":3994,"洪":3995,"洱":3996,"洲":3997,"洳":3998,"洵":3999,"洶":4000,"洸":4001,"洹":4002,"洺":4003,"活":4004,"洽":4005,"派":4006,"流":4007,"浄":4008,"浅":4009,"浙":4010,"浚":4011,"浜":4012,"浣":4013,"浤":4014,"浥":4015,"浦":4016,"浩":4017,"浪":4018,"浬":4019,"浮":4020,"浯":4021,"浴":4022,"海":4023,"浸":4024,"浹":4025,"涂":4026,"涅":4027,"涇":4028,"消":4029,"涉":4030,"涌":4031,"涎":4032,"涓":4033,"涔":4034,"涕":4035,"涛":4036,"涪":4037,"涮":4038,"涯":4039,"液":4040,"涵":4041,"涸":4042,"涼":4043,"淀":4044,"淂":4045,"淅":4046,"淆":4047,"淇":4048,"淋":4049,"淌":4050,"淑":4051,"淒":4052,"淖":4053,"淘":4054,"淙":4055,"淚":4056,"淝":4057,"淞":4058,"淡":4059,"淢":4060,"淤":4061,"淦":4062,"淨":4063,"淩":4064,"淪":4065,"淫":4066,"淬":4067,"淮":4068,"淯":4069,"深":4070,"淳":4071,"淵":4072,"淶":4073,"混":4074,"淸":4075,"淹":4076,"淺":4077,"添":4078,"清":4079,"渉":4080,"渕":4081,"渙":4082,"渚":4083,"減":4084,"渝":4085,"渟":4086,"渠":4087,"渡":4088,"渣":4089,"渤":4090,"渥":4091,"渦":4092,"温":4093,"測":4094,"渭":4095,"港":4096,"渰":4097,"渲":4098,"渴":4099,"游":4100,"渺":4101,"渼":4102,"渾":4103,"湃":4104,"湄":4105,"湅":4106,"湊":4107,"湋":4108,"湍":4109,"湎":4110,"湓":4111,"湖":4112,"湘":4113,"湛":4114,"湟":4115,"湧":4116,"湮":4117,"湯":4118,"湳":4119,"湼":4120,"湾":4121,"満":4122,"溉":4123,"溏":4124,"源":4125,"準":4126,"溘":4127,"溜":4128,"溝":4129,"溟":4130,"溢":4131,"溥":4132,"溪":4133,"溫":4134,"溯":4135,"溱":4136,"溶":4137,"溺":4138,"溼":4139,"滂":4140,"滄":4141,"滅":4142,"滇":4143,"滉":4144,"滋":4145,"滌":4146,"滎":4147,"滐":4148,"滑":4149,"滔":4150,"滕":4151,"滙":4152,"滚":4153,"满":4154,"滬":4155,"滯":4156,"滲":4157,"滴":4158,"滷":4159,"滸":4160,"滾":4161,"滿":4162,"漁":4163,"漂":4164,"漆":4165,"漉":4166,"漏":4167,"漓":4168,"演":4169,"漕":4170,"漙":4171,"漚":4172,"漠":4173,"漢":4174,"漣":4175,"漥":4176,"漩":4177,"漪":4178,"漫":4179,"漬":4180,"漭":4181,"漯":4182,"漱":4183,"漲":4184,"漳":4185,"漸":4186,"漾":4187,"漿":4188,"潁":4189,"潄":4190,"潑":4191,"潔":4192,"潘":4193,"潛":4194,"潟":4195,"潢":4196,"潤":4197,"潦":4198,"潭":4199,"潮":4200,"潯":4201,"潰":4202,"潸":4203,"潺":4204,"潼":4205,"潾":4206,"澀":4207,"澄":4208,"澆":4209,"澇":4210,"澈":4211,"澍":4212,"澎":4213,"澐":4214,"澔":4215,"澗":4216,"澡":4217,"澤":4218,"澧":4219,"澯":4220,"澱":4221,"澳":4222,"澹":4223,"激":4224,"濁":4225,"濂":4226,"濃":4227,"濕":4228,"濘":4229,"濛":4230,"濟":4231,"濠":4232,"濡":4233,"濤":4234,"濫":4235,"濬":4236,"濮":4237,"濯":4238,"濰":4239,"濱":4240,"濶":4241,"濺":4242,"濾":4243,"瀁":4244,"瀅":4245,"瀆":4246,"瀉":4247,"瀋":4248,"瀏":4249,"瀑":4250,"瀓":4251,"瀕":4252,"瀘":4253,"瀚":4254,"瀛":4255,"瀜":4256,"瀝":4257,"瀞":4258,"瀟":4259,"瀠":4260,"瀣":4261,"瀧":4262,"瀨":4263,"瀬":4264,"瀰":4265,"瀲":4266,"瀾":4267,"灃":4268,"灌":4269,"灑":4270,"灒":4271,"灕":4272,"灘":4273,"灜":4274,"灝":4275,"灣":4276,"灧":4277,"灩":4278,"火":4279,"灰":4280,"灶":4281,"灸":4282,"灼":4283,"災":4284,"炅":4285,"炆":4286,"炉":4287,"炊":4288,"炎":4289,"炒":4290,"炔":4291,"炖":4292,"炘":4293,"炙":4294,"炤":4295,"炩":4296,"炫":4297,"炬":4298,"炭":4299,"炮":4300,"炯":4301,"炳":4302,"炵":4303,"炷":4304,"炸":4305,"点":4306,"為":4307,"烈":4308,"烊":4309,"烏":4310,"烔":4311,"烘":4312,"烙":4313,"烚":4314,"烜":4315,"烝":4316,"烟":4317,"烤":4318,"热":4319,"烯":4320,"烱":4321,"烴":4322,"烷":4323,"烹":4324,"烽":4325,"烿":4326,"焉":4327,"焊":4328,"焌":4329,"焗":4330,"焙":4331,"焚":4332,"焜":4333,"無":4334,"焢":4335,"焦":4336,"焮":4337,"焯":4338,"焰":4339,"焱":4340,"然":4341,"焼":4342,"煅":4343,"煇":4344,"煉":4345,"煊":4346,"煋":4347,"煌":4348,"煎":4349,"煒":4350,"煕":4351,"煖":4352,"煙":4353,"煚":4354,"煜":4355,"煞":4356,"煤":4357,"煥":4358,"煦":4359,"照":4360,"煨":4361,"煩":4362,"煬":4363,"煮":4364,"煲":4365,"煸":4366,"煽":4367,"熄":4368,"熈":4369,"熊":4370,"熏":4371,"熒":4372,"熔":4373,"熖":4374,"熙":4375,"熜":4376,"熟":4377,"熠":4378,"熨":4379,"熬":4380,"熱":4381,"熵":4382,"熹":4383,"熾":4384,"燁":4385,"燃":4386,"燄":4387,"燈":4388,"燉":4389,"燊":4390,"燎":4391,"燐":4392,"燒":4393,"燕":4394,"燙":4395,"燜":4396,"營":4397,"燠":4398,"燥":4399,"燦":4400,"燧":4401,"燬":4402,"燭":4403,"燮":4404,"燴":4405,"燹":4406,"燻":4407,"燼":4408,"燾":4409,"燿":4410,"爀":4411,"爆":4412,"爈":4413,"爌":4414,"爍":4415,"爐":4416,"爚":4417,"爛":4418,"爝":4419,"爨":4420,"爪":4421,"爬":4422,"爭":4423,"爰":4424,"爱":4425,"爲":4426,"爵":4427,"父":4428,"爸":4429,"爹":4430,"爺":4431,"爻":4432,"爽":4433,"爾":4434,"牀":4435,"牂":4436,"牆":4437,"片":4438,"版":4439,"牌":4440,"牒":4441,"牖":4442,"牘":4443,"牙":4444,"牛":4445,"牟":4446,"牠":4447,"牡":4448,"牢":4449,"牧":4450,"物":4451,"牯":4452,"牲":4453,"牴":4454,"特":4455,"牽":4456,"犀":4457,"犁":4458,"犄":4459,"犇":4460,"犒":4461,"犛":4462,"犠":4463,"犡":4464,"犢":4465,"犧":4466,"犬":4467,"犮":4468,"犯":4469,"状":4470,"犽":4471,"狀":4472,"狂":4473,"狄":4474,"狎":4475,"狐":4476,"狒":4477,"狗":4478,"狙":4479,"狛":4480,"狠":4481,"狡":4482,"狨":4483,"狩":4484,"狷":4485,"狸":4486,"狹":4487,"狺":4488,"狼":4489,"狽":4490,"猁":4491,"猊":4492,"猎":4493,"猖":4494,"猗":4495,"猙":4496,"猛":4497,"猜":4498,"猝":4499,"猞":4500,"猥":4501,"猩":4502,"猪":4503,"猫":4504,"献":4505,"猴":4506,"猶":4507,"猷":4508,"猾":4509,"猿":4510,"獁":4511,"獄":4512,"獅":4513,"獎":4514,"獐":4515,"獒":4516,"獗":4517,"獠":4518,"獨":4519,"獫":4520,"獬":4521,"獮":4522,"獰":4523,"獲":4524,"獴":4525,"獵":4526,"獷":4527,"獸":4528,"獺":4529,"獻":4530,"獼":4531,"獾":4532,"玄":4533,"玆":4534,"率":4535,"玉":4536,"王":4537,"玎":4538,"玓":4539,"玖":4540,"玗":4541,"玟":4542,"玠":4543,"玢":4544,"玥":4545,"玦":4546,"玧":4547,"玨":4548,"玩":4549,"玫":4550,"玭":4551,"现":4552,"玲":4553,"玳":4554,"玷":4555,"玹":4556,"玻":4557,"玼":4558,"珀":4559,"珂":4560,"珅":4561,"珆":4562,"珈":4563,"珉":4564,"珊":4565,"珍":4566,"珏":4567,"珛":4568,"珞":4569,"珠":4570,"珣":4571,"珥":4572,"珦":4573,"珩":4574,"班":4575,"珮":4576,"珺":4577,"珽":4578,"現":4579,"琁":4580,"球":4581,"琄":4582,"琅":4583,"理":4584,"琇":4585,"琉":4586,"琊":4587,"琋":4588,"琍":4589,"琚":4590,"琛":4591,"琝":4592,"琡":4593,"琢":4594,"琤":4595,"琥":4596,"琦":4597,"琨":4598,"琪":4599,"琬":4600,"琮":4601,"琰":4602,"琲":4603,"琳":4604,"琴":4605,"琵":4606,"琶":4607,"琹":4608,"琺":4609,"瑀":4610,"瑁":4611,"瑄":4612,"瑈":4613,"瑋":4614,"瑍":4615,"瑒":4616,"瑕":4617,"瑗":4618,"瑙":4619,"瑚":4620,"瑛":4621,"瑜":4622,"瑞":4623,"瑟":4624,"瑠":4625,"瑢":4626,"瑣":4627,"瑤":4628,"瑧":4629,"瑨":4630,"瑩":4631,"瑪":4632,"瑭":4633,"瑯":4634,"瑰":4635,"瑱":4636,"瑶":4637,"瑽":4638,"瑾":4639,"璀":4640,"璁":4641,"璃":4642,"璇":4643,"璉":4644,"璋":4645,"璐":4646,"璘":4647,"璜":4648,"璞":4649,"璟":4650,"璠":4651,"璣":4652,"璥":4653,"璦":4654,"璧":4655,"璨":4656,"環":4657,"璽":4658,"璿":4659,"瓈":4660,"瓊":4661,"瓏":4662,"瓔":4663,"瓚":4664,"瓜":4665,"瓢":4666,"瓣":4667,"瓤":4668,"瓦":4669,"瓩":4670,"瓴":4671,"瓶":4672,"瓷":4673,"瓿":4674,"甄":4675,"甌":4676,"甍":4677,"甑":4678,"甕":4679,"甘":4680,"甚":4681,"甜":4682,"生":4683,"產":4684,"産":4685,"甥":4686,"甦":4687,"用":4688,"甩":4689,"甪":4690,"甫":4691,"甬":4692,"甭":4693,"甯":4694,"田":4695,"由":4696,"甲":4697,"申":4698,"男":4699,"甸":4700,"町":4701,"画":4702,"甾":4703,"畀":4704,"畇":4705,"畊":4706,"界":4707,"畏":4708,"畑":4709,"畔":4710,"留":4711,"畚":4712,"畜":4713,"畝":4714,"畢":4715,"略":4716,"畦":4717,"番":4718,"畫":4719,"畬":4720,"畯":4721,"異":4722,"畲":4723,"當":4724,"畸":4725,"畹":4726,"畿":4727,"疄":4728,"疆":4729,"疇":4730,"疊":4731,"疋":4732,"疏":4733,"疑":4734,"疔":4735,"疙":4736,"疚":4737,"疝":4738,"疣":4739,"疤":4740,"疥":4741,"疪":4742,"疫":4743,"疰":4744,"疱":4745,"疲":4746,"疵":4747,"疸":4748,"疹":4749,"疼":4750,"疽":4751,"疾":4752,"痂":4753,"痃":4754,"病":4755,"症":4756,"痊":4757,"痍":4758,"痔":4759,"痕":4760,"痘":4761,"痙":4762,"痛":4763,"痞":4764,"痟":4765,"痠":4766,"痢":4767,"痣":4768,"痤":4769,"痧":4770,"痩":4771,"痰":4772,"痱":4773,"痲":4774,"痴":4775,"痹":4776,"痺":4777,"痼":4778,"痾":4779,"痿":4780,"瘀":4781,"瘁":4782,"瘂":4783,"瘋":4784,"瘍":4785,"瘓":4786,"瘕":4787,"瘙":4788,"瘜":4789,"瘟":4790,"瘠":4791,"瘡":4792,"瘢":4793,"瘤":4794,"瘦":4795,"瘧":4796,"瘩":4797,"瘴":4798,"瘸":4799,"瘻":4800,"瘼":4801,"癀":4802,"療":4803,"癆":4804,"癇":4805,"癉":4806,"癌":4807,"癒":4808,"癖":4809,"癘":4810,"癟":4811,"癡":4812,"癢":4813,"癥":4814,"癬":4815,"癭":4816,"癮":4817,"癰":4818,"癱":4819,"癲":4820,"癸":4821,"発":4822,"登":4823,"發":4824,"白":4825,"百":4826,"皂":4827,"的":4828,"皆":4829,"皇":4830,"皈":4831,"皋":4832,"皎":4833,"皓":4834,"皖":4835,"皙":4836,"皚":4837,"皪":4838,"皮":4839,"皰":4840,"皴":4841,"皺":4842,"皿":4843,"盂":4844,"盃":4845,"盅":4846,"盆":4847,"盈":4848,"益":4849,"盎":4850,"盒":4851,"盔":4852,"盗":4853,"盙":4854,"盛":4855,"盜":4856,"盞":4857,"盟":4858,"盡":4859,"監":4860,"盤":4861,"盥":4862,"盧":4863,"盪":4864,"目":4865,"盯":4866,"盱":4867,"盲":4868,"直":4869,"相":4870,"盹":4871,"盼":4872,"盾":4873,"省":4874,"眈":4875,"眉":4876,"看":4877,"県":4878,"眛":4879,"眞":4880,"真":4881,"眠":4882,"眥":4883,"眨":4884,"眩":4885,"眭":4886,"眶":4887,"眷":4888,"眸":4889,"眺":4890,"眼":4891,"眾":4892,"着":4893,"睇":4894,"睏":4895,"睒":4896,"睚":4897,"睛":4898,"睜":4899,"睞":4900,"睡":4901,"睢":4902,"督":4903,"睥":4904,"睦":4905,"睨":4906,"睪":4907,"睫":4908,"睬":4909,"睭":4910,"睹":4911,"睽":4912,"睾":4913,"睿":4914,"瞄":4915,"瞅":4916,"瞇":4917,"瞌":4918,"瞎":4919,"瞑":4920,"瞓":4921,"瞞":4922,"瞟":4923,"瞠":4924,"瞥":4925,"瞧":4926,"瞪":4927,"瞬":4928,"瞭":4929,"瞰":4930,"瞳":4931,"瞻":4932,"瞼":4933,"瞿":4934,"矇":4935,"矌":4936,"矍":4937,"矓":4938,"矗":4939,"矚":4940,"矛":4941,"矜":4942,"矞":4943,"矢":4944,"矣":4945,"知":4946,"矧":4947,"矩":4948,"短":4949,"矮":4950,"矯":4951,"石":4952,"矸":4953,"矻":4954,"矽":4955,"砂":4956,"砌":4957,"砍":4958,"砒":4959,"研":4960,"砝":4961,"砡":4962,"砣":4963,"砥":4964,"砦":4965,"砧":4966,"砭":4967,"砰":4968,"砲":4969,"破":4970,"砷":4971,"砸":4972,"硃":4973,"硅":4974,"硏":4975,"硐":4976,"硒":4977,"硝":4978,"硫":4979,"硬":4980,"确":4981,"硯":4982,"硼":4983,"碁":4984,"碇":4985,"碉":4986,"碌":4987,"碎":4988,"碑":4989,"碗":4990,"碘":4991,"碟":4992,"碣":4993,"碧":4994,"碩":4995,"碰":4996,"碲":4997,"碳":4998,"碴":4999,"碸":5000,"確":5001,"碼":5002,"碾":5003,"磁":5004,"磅":5005,"磊":5006,"磋":5007,"磐":5008,"磕":5009,"磚":5010,"磡":5011,"磢":5012,"磨":5013,"磯":5014,"磷":5015,"磺":5016,"礁":5017,"礎":5018,"礑":5019,"礙":5020,"礡":5021,"礦":5022,"礪":5023,"礫":5024,"礴":5025,"示":5026,"礼":5027,"礽":5028,"社":5029,"祀":5030,"祁":5031,"祂":5032,"祇":5033,"祈":5034,"祉":5035,"祐":5036,"祓":5037,"祕":5038,"祖":5039,"祙":5040,"祚":5041,"祛":5042,"祜":5043,"祝":5044,"神":5045,"祟":5046,"祠":5047,"祡":5048,"祢":5049,"祥":5050,"票":5051,"祭":5052,"祺":5053,"祼":5054,"祿":5055,"禀":5056,"禁":5057,"禊":5058,"禍":5059,"禎":5060,"福":5061,"禓":5062,"禕":5063,"禛":5064,"禡":5065,"禤":5066,"禦":5067,"禧":5068,"禪":5069,"禮":5070,"禰":5071,"禱":5072,"禳":5073,"禹":5074,"禽":5075,"禾":5076,"禿":5077,"秀":5078,"私":5079,"秃":5080,"秈":5081,"秉":5082,"秋":5083,"秏":5084,"秐":5085,"科":5086,"秒":5087,"秘":5088,"秝":5089,"秞":5090,"租":5091,"秤":5092,"秦":5093,"秧":5094,"秩":5095,"秭":5096,"秸":5097,"移":5098,"稀":5099,"稅":5100,"稈":5101,"稉":5102,"程":5103,"稍":5104,"税":5105,"稔":5106,"稕":5107,"稗":5108,"稚":5109,"稜":5110,"稞":5111,"稟":5112,"稠":5113,"種":5114,"稱":5115,"稲":5116,"稷":5117,"稻":5118,"稼":5119,"稽":5120,"稿":5121,"穀":5122,"穆":5123,"穌":5124,"積":5125,"穎":5126,"穏":5127,"穗":5128,"穠":5129,"穢":5130,"穣":5131,"穩":5132,"穫":5133,"穱":5134,"穴":5135,"究":5136,"穹":5137,"空":5138,"穿":5139,"突":5140,"窄":5141,"窈":5142,"窒":5143,"窕":5144,"窖":5145,"窗":5146,"窘":5147,"窟":5148,"窠":5149,"窣":5150,"窩":5151,"窪":5152,"窮":5153,"窯":5154,"窳":5155,"窴":5156,"窸":5157,"窺":5158,"窿":5159,"竄":5160,"竅":5161,"竇":5162,"竈":5163,"竉":5164,"竊":5165,"立":5166,"竑":5167,"站":5168,"竜":5169,"竟":5170,"章":5171,"竣":5172,"童":5173,"竦":5174,"竪":5175,"竭":5176,"端":5177,"競":5178,"竸":5179,"竹":5180,"竺":5181,"竽":5182,"竿":5183,"笅":5184,"笆":5185,"笈":5186,"笏":5187,"笐":5188,"笑":5189,"笙":5190,"笛":5191,"笞":5192,"笠":5193,"符":5194,"笨":5195,"笫":5196,"第":5197,"笭":5198,"笹":5199,"笿":5200,"筆":5201,"等":5202,"筊":5203,"筋":5204,"筌":5205,"筍":5206,"筏":5207,"筐":5208,"筑":5209,"筒":5210,"答":5211,"策":5212,"筠":5213,"筢":5214,"筱":5215,"筴":5216,"筵":5217,"筶":5218,"筷":5219,"箇":5220,"箋":5221,"箍":5222,"箎":5223,"箏":5224,"箐":5225,"箔":5226,"箕":5227,"箖":5228,"算":5229,"箝":5230,"管":5231,"箬":5232,"箭":5233,"箱":5234,"箴":5235,"箸":5236,"箿":5237,"節":5238,"篁":5239,"範":5240,"篆":5241,"篇":5242,"築":5243,"篙":5244,"篝":5245,"篠":5246,"篡":5247,"篤":5248,"篩":5249,"篪":5250,"篳":5251,"篷":5252,"簇":5253,"簌":5254,"簍":5255,"簏":5256,"簑":5257,"簝":5258,"簞":5259,"簡":5260,"簣":5261,"簤":5262,"簧":5263,"簪":5264,"簫":5265,"簷":5266,"簸":5267,"簽":5268,"簾":5269,"簿":5270,"籂":5271,"籃":5272,"籌":5273,"籍":5274,"籐":5275,"籓":5276,"籟":5277,"籠":5278,"籤":5279,"籬":5280,"籮":5281,"籲":5282,"米":5283,"籽":5284,"籾":5285,"粄":5286,"粉":5287,"粑":5288,"粒":5289,"粔":5290,"粕":5291,"粗":5292,"粘":5293,"粙":5294,"粛":5295,"粟":5296,"粢":5297,"粥":5298,"粧":5299,"粱":5300,"粲":5301,"粵":5302,"粹":5303,"粼":5304,"粽":5305,"精":5306,"粿":5307,"糅":5308,"糊":5309,"糍":5310,"糕":5311,"糖":5312,"糗":5313,"糙":5314,"糜":5315,"糝":5316,"糞":5317,"糟":5318,"糠":5319,"糢":5320,"糥":5321,"糧":5322,"糨":5323,"糬":5324,"糯":5325,"糰":5326,"糶":5327,"糸":5328,"系":5329,"糾":5330,"紀":5331,"紂":5332,"約":5333,"紅":5334,"紆":5335,"紇":5336,"紈":5337,"紉":5338,"紊":5339,"紋":5340,"納":5341,"紐":5342,"紓":5343,"純":5344,"紕":5345,"紗":5346,"紘":5347,"紙":5348,"級":5349,"紛":5350,"紜":5351,"素":5352,"紡":5353,"索":5354,"紫":5355,"紬":5356,"紮":5357,"累":5358,"細":5359,"紳":5360,"紹":5361,"紺":5362,"紾":5363,"絀":5364,"終":5365,"絃":5366,"組":5367,"絆":5368,"経":5369,"結":5370,"絕":5371,"絛":5372,"絜":5373,"絝":5374,"絞":5375,"絡":5376,"絢":5377,"給":5378,"絨":5379,"絭":5380,"絮":5381,"統":5382,"絲":5383,"絳":5384,"絵":5385,"絶":5386,"絹":5387,"綁":5388,"綉":5389,"綏":5390,"綑":5391,"經":5392,"継":5393,"続":5394,"綜":5395,"綠":5396,"綢":5397,"綣":5398,"綦":5399,"綫":5400,"綬":5401,"維":5402,"綮":5403,"綰":5404,"綱":5405,"網":5406,"綴":5407,"綵":5408,"綸":5409,"綹":5410,"綺":5411,"綻":5412,"綽":5413,"綾":5414,"綿":5415,"緁":5416,"緃":5417,"緄":5418,"緊":5419,"緋":5420,"総":5421,"緑":5422,"緒":5423,"緖":5424,"緗":5425,"緘":5426,"線":5427,"緝":5428,"緞":5429,"締":5430,"緣":5431,"編":5432,"緩":5433,"緬":5434,"緯":5435,"緱":5436,"緲":5437,"練":5438,"緹":5439,"緻":5440,"縄":5441,"縈":5442,"縉":5443,"縊":5444,"縐":5445,"縑":5446,"縕":5447,"縛":5448,"縝":5449,"縞":5450,"縟":5451,"縣":5452,"縥":5453,"縦":5454,"縧":5455,"縫":5456,"縭":5457,"縮":5458,"縱":5459,"縴":5460,"縷":5461,"縹":5462,"總":5463,"績":5464,"繁":5465,"繃":5466,"繆":5467,"繇":5468,"繋":5469,"繒":5470,"織":5471,"繕":5472,"繚":5473,"繞":5474,"繡":5475,"繩":5476,"繪":5477,"繫":5478,"繭":5479,"繳":5480,"繹":5481,"繻":5482,"繼":5483,"繽":5484,"繾":5485,"纂":5486,"纇":5487,"續":5488,"纍":5489,"纏":5490,"纓":5491,"纔":5492,"纖":5493,"纘":5494,"纜":5495,"红":5496,"级":5497,"纪":5498,"纯":5499,"纸":5500,"纾":5501,"组":5502,"细":5503,"终":5504,"结":5505,"给":5506,"绝":5507,"统":5508,"绣":5509,"绰":5510,"缅":5511,"缐":5512,"缓":5513,"缘":5514,"缝":5515,"缩":5516,"缷":5517,"缸":5518,"缺":5519,"缽":5520,"罄":5521,"罈":5522,"罌":5523,"罍":5524,"罐":5525,"罔":5526,"罕":5527,"罘":5528,"罝":5529,"罟":5530,"罠":5531,"罡":5532,"罣":5533,"罨":5534,"罩":5535,"罪":5536,"置":5537,"罰":5538,"署":5539,"罵":5540,"罷":5541,"罹":5542,"羅":5543,"羈":5544,"羊":5545,"羋":5546,"羌":5547,"美":5548,"羔":5549,"羚":5550,"羞":5551,"羡":5552,"羢":5553,"羣":5554,"群":5555,"羥":5556,"羨":5557,"義":5558,"羮":5559,"羯":5560,"羲":5561,"羶":5562,"羸":5563,"羹":5564,"羼":5565,"羽":5566,"羿":5567,"翀":5568,"翁":5569,"翃":5570,"翅":5571,"翊":5572,"翌":5573,"翎":5574,"習":5575,"翔":5576,"翘":5577,"翟":5578,"翠":5579,"翡":5580,"翩":5581,"翬":5582,"翰":5583,"翱":5584,"翳":5585,"翹":5586,"翻":5587,"翼":5588,"耀":5589,"老":5590,"考":5591,"耄":5592,"者":5593,"耆":5594,"耋":5595,"而":5596,"耍":5597,"耐":5598,"耕":5599,"耗":5600,"耘":5601,"耙":5602,"耦":5603,"耳":5604,"耶":5605,"耽":5606,"耿":5607,"聆":5608,"聊":5609,"聎":5610,"聒":5611,"联":5612,"聖":5613,"聘":5614,"聚":5615,"聞":5616,"聯":5617,"聰":5618,"聲":5619,"聳":5620,"聴":5621,"聶":5622,"職":5623,"聼":5624,"聽":5625,"聾":5626,"聿":5627,"肄":5628,"肅":5629,"肆":5630,"肇":5631,"肉":5632,"肋":5633,"肌":5634,"肓":5635,"肖":5636,"肘":5637,"肚":5638,"肛":5639,"肝":5640,"股":5641,"肢":5642,"肥":5643,"肩":5644,"肪":5645,"肫":5646,"肯":5647,"肱":5648,"育":5649,"肴":5650,"肺":5651,"肽":5652,"胃":5653,"胄":5654,"胆":5655,"背":5656,"胎":5657,"胕":5658,"胖":5659,"胗":5660,"胚":5661,"胛":5662,"胜":5663,"胝":5664,"胞":5665,"胡":5666,"胤":5667,"胥":5668,"胭":5669,"胯":5670,"胰":5671,"胱":5672,"胳":5673,"胴":5674,"胸":5675,"胺":5676,"胼":5677,"能":5678,"脂":5679,"脅":5680,"脆":5681,"脇":5682,"脈":5683,"脉":5684,"脊":5685,"脒":5686,"脖":5687,"脘":5688,"脚":5689,"脛":5690,"脢":5691,"脣":5692,"脧":5693,"脩":5694,"脫":5695,"脯":5696,"脱":5697,"脲":5698,"脹":5699,"脾":5700,"腆":5701,"腈":5702,"腋":5703,"腎":5704,"腐":5705,"腑":5706,"腓":5707,"腔":5708,"腕":5709,"腠":5710,"腥":5711,"腦":5712,"腩":5713,"腫":5714,"腮":5715,"腰":5716,"腱":5717,"腳":5718,"腴":5719,"腸":5720,"腹":5721,"腺":5722,"腻":5723,"腿":5724,"膀":5725,"膈":5726,"膊":5727,"膏":5728,"膕":5729,"膚":5730,"膛":5731,"膜":5732,"膝":5733,"膠":5734,"膨":5735,"膩":5736,"膳":5737,"膴":5738,"膺":5739,"膻":5740,"膽":5741,"膾":5742,"膿":5743,"臀":5744,"臂":5745,"臃":5746,"臆":5747,"臉":5748,"臊":5749,"臍":5750,"臏":5751,"臗":5752,"臘":5753,"臚":5754,"臟":5755,"臣":5756,"臥":5757,"臧":5758,"臨":5759,"自":5760,"臬":5761,"臭":5762,"至":5763,"致":5764,"臺":5765,"臻":5766,"臼":5767,"臾":5768,"舀":5769,"舄":5770,"舅":5771,"舆":5772,"與":5773,"興":5774,"舉":5775,"舊":5776,"舋":5777,"舌":5778,"舍":5779,"舐":5780,"舒":5781,"舔":5782,"舖":5783,"舗":5784,"舘":5785,"舛":5786,"舜":5787,"舞":5788,"舟":5789,"舢":5790,"舨":5791,"航":5792,"舫":5793,"般":5794,"舵":5795,"舶":5796,"舷":5797,"船":5798,"舺":5799,"艇":5800,"艉":5801,"艋":5802,"艏":5803,"艘":5804,"艙":5805,"艤":5806,"艦":5807,"艮":5808,"良":5809,"艱":5810,"色":5811,"艷":5812,"艸":5813,"艾":5814,"芃":5815,"芊":5816,"芋":5817,"芍":5818,"芎":5819,"芐":5820,"芒":5821,"芓":5822,"芙":5823,"芛":5824,"芝":5825,"芠":5826,"芡":5827,"芢":5828,"芥":5829,"芧":5830,"芨":5831,"芩":5832,"芪":5833,"芫":5834,"芬":5835,"芭":5836,"芮":5837,"芯":5838,"花":5839,"芳":5840,"芷":5841,"芸":5842,"芹":5843,"芻":5844,"芽":5845,"芾":5846,"苑":5847,"苒":5848,"苓":5849,"苔":5850,"苕":5851,"苖":5852,"苗":5853,"苙":5854,"苛":5855,"苜":5856,"苞":5857,"苟":5858,"苡":5859,"苣":5860,"若":5861,"苦":5862,"苧":5863,"苯":5864,"英":5865,"苳":5866,"苷":5867,"苹":5868,"苺":5869,"苻":5870,"苾":5871,"苿":5872,"茁":5873,"茂":5874,"范":5875,"茄":5876,"茅":5877,"茉":5878,"茗":5879,"茜":5880,"茨":5881,"茫":5882,"茬":5883,"茭":5884,"茯":5885,"茱":5886,"茲":5887,"茴":5888,"茵":5889,"茶":5890,"茸":5891,"茹":5892,"茻":5893,"茼":5894,"荀":5895,"荃":5896,"荅":5897,"荇":5898,"草":5899,"荊":5900,"荏":5901,"荐":5902,"荒":5903,"荔":5904,"荖":5905,"荣":5906,"荳":5907,"荷":5908,"荸":5909,"荻":5910,"荼":5911,"荽":5912,"莆":5913,"莉":5914,"莊":5915,"莎":5916,"莒":5917,"莓":5918,"莖":5919,"莘":5920,"莛":5921,"莞":5922,"莠":5923,"莢":5924,"莧":5925,"莨":5926,"莪":5927,"莫":5928,"莽":5929,"莿":5930,"菀":5931,"菁":5932,"菅":5933,"菇":5934,"菈":5935,"菉":5936,"菊":5937,"菌":5938,"菏":5939,"菓":5940,"菖":5941,"菘":5942,"菜":5943,"菟":5944,"菠":5945,"菡":5946,"菩":5947,"菫":5948,"華":5949,"菰":5950,"菱":5951,"菲":5952,"菸":5953,"萁":5954,"萃":5955,"萄":5956,"萊":5957,"萌":5958,"萍":5959,"萎":5960,"萓":5961,"萜":5962,"萣":5963,"萩":5964,"萬":5965,"萱":5966,"萵":5967,"萼":5968,"落":5969,"萾":5970,"葆":5971,"葇":5972,"葉":5973,"葑":5974,"葒":5975,"著":5976,"葚":5977,"葛":5978,"葡":5979,"董":5980,"葦":5981,"葩":5982,"葫":5983,"葬":5984,"葭":5985,"葯":5986,"葱":5987,"葳":5988,"葵":5989,"葶":5990,"葷":5991,"葺":5992,"蒂":5993,"蒐":5994,"蒑":5995,"蒔":5996,"蒖":5997,"蒙":5998,"蒜":5999,"蒝":6000,"蒞":6001,"蒟":6002,"蒡":6003,"蒨":6004,"蒲":6005,"蒸":6006,"蒻":6007,"蒼":6008,"蒽":6009,"蒿":6010,"蓀":6011,"蓁":6012,"蓄":6013,"蓆":6014,"蓉":6015,"蓊":6016,"蓋":6017,"蓑":6018,"蓒":6019,"蓓":6020,"蓬":6021,"蓮":6022,"蓳":6023,"蓽":6024,"蓿":6025,"蔑":6026,"蔓":6027,"蔔":6028,"蔗":6029,"蔘":6030,"蔚":6031,"蔡":6032,"蔣":6033,"蔥":6034,"蔦":6035,"蔫":6036,"蔬":6037,"蔭":6038,"蔴":6039,"蔻":6040,"蔽":6041,"蕁":6042,"蕃":6043,"蕈":6044,"蕉":6045,"蕊":6046,"蕎":6047,"蕓":6048,"蕗":6049,"蕙":6050,"蕞":6051,"蕨":6052,"蕩":6053,"蕪":6054,"蕫":6055,"蕭":6056,"蕯":6057,"蕷":6058,"蕾":6059,"薀":6060,"薄":6061,"薅":6062,"薇":6063,"薈":6064,"薊":6065,"薏":6066,"薑":6067,"薔":6068,"薛":6069,"薦":6070,"薨":6071,"薩":6072,"薪":6073,"薫":6074,"薬":6075,"薯":6076,"薰":6077,"薹":6078,"薺":6079,"薾":6080,"藉":6081,"藍":6082,"藏":6083,"藐":6084,"藔":6085,"藕":6086,"藜":6087,"藝":6088,"藤":6089,"藥":6090,"藩":6091,"藪":6092,"藴":6093,"藷":6094,"藹":6095,"藺":6096,"藻":6097,"藼":6098,"藿":6099,"蘅":6100,"蘆":6101,"蘇":6102,"蘊":6103,"蘋":6104,"蘑":6105,"蘖":6106,"蘚":6107,"蘩":6108,"蘭":6109,"蘸":6110,"蘺":6111,"蘿":6112,"虌":6113,"虎":6114,"虐":6115,"虔":6116,"處":6117,"虚":6118,"虛":6119,"虜":6120,"虞":6121,"號":6122,"虢":6123,"虧":6124,"虫":6125,"虬":6126,"虯":6127,"虱":6128,"虹":6129,"虻":6130,"蚊":6131,"蚋":6132,"蚌":6133,"蚓":6134,"蚜":6135,"蚣":6136,"蚤":6137,"蚩":6138,"蚪":6139,"蚯":6140,"蚱":6141,"蚴":6142,"蚵":6143,"蚶":6144,"蛀":6145,"蛄":6146,"蛆":6147,"蛇":6148,"蛋":6149,"蛙":6150,"蛛":6151,"蛞":6152,"蛟":6153,"蛤":6154,"蛭":6155,"蛸":6156,"蛹":6157,"蛻":6158,"蛾":6159,"蜀":6160,"蜂":6161,"蜃":6162,"蜆":6163,"蜇":6164,"蜈":6165,"蜉":6166,"蜊":6167,"蜍":6168,"蜑":6169,"蜒":6170,"蜓":6171,"蜘":6172,"蜚":6173,"蜜":6174,"蜢":6175,"蜥":6176,"蜱":6177,"蜴":6178,"蜷":6179,"蜻":6180,"蜿":6181,"蝌":6182,"蝎":6183,"蝓":6184,"蝕":6185,"蝗":6186,"蝙":6187,"蝞":6188,"蝟":6189,"蝠":6190,"蝣":6191,"蝦":6192,"蝨":6193,"蝮":6194,"蝴":6195,"蝶":6196,"蝸":6197,"蝽":6198,"螂":6199,"螃":6200,"螄":6201,"螈":6202,"融":6203,"螞":6204,"螟":6205,"螢":6206,"螨":6207,"螫":6208,"螭":6209,"螯":6210,"螳":6211,"螵":6212,"螺":6213,"螻":6214,"蟀":6215,"蟄":6216,"蟋":6217,"蟎":6218,"蟑":6219,"蟒":6220,"蟠":6221,"蟬":6222,"蟲":6223,"蟳":6224,"蟹":6225,"蟻":6226,"蟾":6227,"蠃":6228,"蠅":6229,"蠊":6230,"蠋":6231,"蠍":6232,"蠑":6233,"蠓":6234,"蠔":6235,"蠕":6236,"蠟":6237,"蠢":6238,"蠣":6239,"蠱":6240,"蠵":6241,"蠶":6242,"蠻":6243,"血":6244,"衆":6245,"衊":6246,"行":6247,"衍":6248,"術":6249,"衕":6250,"街":6251,"衙":6252,"衛":6253,"衝":6254,"衞":6255,"衡":6256,"衢":6257,"衣":6258,"表":6259,"衩":6260,"衪":6261,"衫":6262,"衰":6263,"衷":6264,"衹":6265,"衽":6266,"衿":6267,"袁":6268,"袂":6269,"袈":6270,"袋":6271,"袍":6272,"袐":6273,"袒":6274,"袓":6275,"袖":6276,"袞":6277,"袤":6278,"袪":6279,"被":6280,"袱":6281,"袽":6282,"裁":6283,"裂":6284,"装":6285,"裊":6286,"裎":6287,"裏":6288,"裔":6289,"裕":6290,"裘":6291,"裙":6292,"補":6293,"裝":6294,"裟":6295,"裡":6296,"裨":6297,"裩":6298,"裪":6299,"裬":6300,"裱":6301,"裳":6302,"裴":6303,"裵":6304,"裸":6305,"裹":6306,"製":6307,"裾":6308,"褀":6309,"褂":6310,"複":6311,"褐":6312,"褒":6313,"褓":6314,"褔":6315,"褕":6316,"褘":6317,"褙":6318,"褚":6319,"褥":6320,"褪":6321,"褫":6322,"褲":6323,"褵":6324,"褶":6325,"褸":6326,"褻":6327,"襁":6328,"襄":6329,"襎":6330,"襖":6331,"襝":6332,"襟":6333,"襠":6334,"襤":6335,"襦":6336,"襪":6337,"襬":6338,"襯":6339,"襲":6340,"西":6341,"要":6342,"覃":6343,"覆":6344,"見":6345,"規":6346,"覓":6347,"視":6348,"覚":6349,"覡":6350,"覦":6351,"覧":6352,"親":6353,"覬":6354,"覲":6355,"観":6356,"覷":6357,"覺":6358,"覽":6359,"觀":6360,"见":6361,"角":6362,"觔":6363,"解":6364,"觥":6365,"觫":6366,"觳":6367,"觴":6368,"觸":6369,"言":6370,"訂":6371,"訃":6372,"計":6373,"訊":6374,"訌":6375,"討":6376,"訐":6377,"訒":6378,"訓":6379,"訕":6380,"訖":6381,"託":6382,"記":6383,"訛":6384,"訝":6385,"訟":6386,"訢":6387,"訣":6388,"訥":6389,"訪":6390,"設":6391,"許":6392,"訳":6393,"訴":6394,"訶":6395,"診":6396,"註":6397,"証":6398,"訾":6399,"詆":6400,"詎":6401,"詐":6402,"詑":6403,"詒":6404,"詔":6405,"評":6406,"詛":6407,"詞":6408,"詠":6409,"詡":6410,"詢":6411,"詣":6412,"試":6413,"詩":6414,"詫":6415,"詬":6416,"詭":6417,"詮":6418,"詰":6419,"話":6420,"該":6421,"詳":6422,"詹":6423,"詼":6424,"誅":6425,"誆":6426,"誇":6427,"誌":6428,"認":6429,"誒":6430,"誓":6431,"誔":6432,"誕":6433,"誘":6434,"語":6435,"誠":6436,"誡":6437,"誣":6438,"誤":6439,"誥":6440,"誦":6441,"誨":6442,"說":6443,"説":6444,"読":6445,"誰":6446,"課":6447,"誹":6448,"誼":6449,"調":6450,"諂":6451,"諄":6452,"談":6453,"諉":6454,"請":6455,"諍":6456,"諏":6457,"諒":6458,"論":6459,"諗":6460,"諛":6461,"諜":6462,"諠":6463,"諡":6464,"諤":6465,"諦":6466,"諧":6467,"諫":6468,"諭":6469,"諮":6470,"諱":6471,"諳":6472,"諴":6473,"諶":6474,"諷":6475,"諸":6476,"諺":6477,"諼":6478,"諾":6479,"謀":6480,"謁":6481,"謂":6482,"謄":6483,"謅":6484,"謊":6485,"謎":6486,"謐":6487,"謔":6488,"謖":6489,"謗":6490,"謙":6491,"講":6492,"謝":6493,"謠":6494,"謢":6495,"謦":6496,"謨":6497,"謫":6498,"謬":6499,"謳":6500,"謹":6501,"謾":6502,"譁":6503,"證":6504,"譎":6505,"譏":6506,"譖":6507,"識":6508,"譙":6509,"譚":6510,"譜":6511,"譞":6512,"譟":6513,"警":6514,"譫":6515,"譬":6516,"譭":6517,"譯":6518,"議":6519,"譴":6520,"護":6521,"譽":6522,"讀":6523,"讃":6524,"變":6525,"讎":6526,"讒":6527,"讓":6528,"讖":6529,"讚":6530,"讞":6531,"诉":6532,"诊":6533,"说":6534,"谢":6535,"谷":6536,"谿":6537,"豁":6538,"豆":6539,"豇":6540,"豈":6541,"豉":6542,"豊":6543,"豋":6544,"豌":6545,"豎":6546,"豐":6547,"豔":6548,"豚":6549,"象":6550,"豢":6551,"豪":6552,"豫":6553,"豬":6554,"豸":6555,"豹":6556,"豺":6557,"貂":6558,"貅":6559,"貉":6560,"貌":6561,"貍":6562,"貎":6563,"貓":6564,"貔":6565,"貘":6566,"貝":6567,"貞":6568,"負":6569,"財":6570,"貢":6571,"貧":6572,"貨":6573,"販":6574,"貪":6575,"貫":6576,"責":6577,"貯":6578,"貰":6579,"貲":6580,"貳":6581,"貴":6582,"貶":6583,"買":6584,"貸":6585,"貹":6586,"費":6587,"貼":6588,"貽":6589,"貿":6590,"賀":6591,"賁":6592,"賂":6593,"賃":6594,"賄":6595,"賅":6596,"資":6597,"賈":6598,"賊":6599,"賑":6600,"賒":6601,"賓":6602,"賚":6603,"賜":6604,"賝":6605,"賞":6606,"賠":6607,"賡":6608,"賢":6609,"賣":6610,"賤":6611,"賦":6612,"質":6613,"賬":6614,"賭":6615,"賴":6616,"賸":6617,"賺":6618,"購":6619,"賽":6620,"贅":6621,"贈":6622,"贊":6623,"贋":6624,"贍":6625,"贏":6626,"贓":6627,"贖":6628,"贗":6629,"贛":6630,"财":6631,"费":6632,"赔":6633,"赢":6634,"赤":6635,"赦":6636,"赧":6637,"赫":6638,"赭":6639,"赯":6640,"走":6641,"赳":6642,"赴":6643,"赶":6644,"起":6645,"趁":6646,"超":6647,"越":6648,"趕":6649,"趙":6650,"趟":6651,"趣":6652,"趨":6653,"足":6654,"趴":6655,"趺":6656,"趾":6657,"趿":6658,"跆":6659,"跋":6660,"跌":6661,"跎":6662,"跑":6663,"跘":6664,"跚":6665,"跛":6666,"距":6667,"跟":6668,"跡":6669,"跣":6670,"跤":6671,"跨":6672,"跩":6673,"跪":6674,"跫":6675,"路":6676,"跳":6677,"践":6678,"跺":6679,"踅":6680,"踉":6681,"踊":6682,"踏":6683,"踐":6684,"踝":6685,"踞":6686,"踟":6687,"踢":6688,"踩":6689,"踪":6690,"踫":6691,"踮":6692,"踰":6693,"踱":6694,"踴":6695,"踵":6696,"踹":6697,"蹂":6698,"蹄":6699,"蹇":6700,"蹈":6701,"蹉":6702,"蹊":6703,"蹋":6704,"蹌":6705,"蹓":6706,"蹕":6707,"蹟":6708,"蹠":6709,"蹣":6710,"蹤":6711,"蹦":6712,"蹩":6713,"蹬":6714,"蹭":6715,"蹲":6716,"蹴":6717,"蹶":6718,"蹺":6719,"蹼":6720,"躁":6721,"躂":6722,"躄":6723,"躅":6724,"躇":6725,"躉":6726,"躊":6727,"躋":6728,"躍":6729,"躑":6730,"躕":6731,"躝":6732,"躡":6733,"躥":6734,"躦":6735,"躪":6736,"身":6737,"躬":6738,"躱":6739,"躲":6740,"躹":6741,"躺":6742,"躼":6743,"軀":6744,"車":6745,"軋":6746,"軌":6747,"軍":6748,"軒":6749,"軔":6750,"軚":6751,"軛":6752,"軟":6753,"転":6754,"軫":6755,"軮":6756,"軰":6757,"軸":6758,"軻":6759,"軼":6760,"軽":6761,"軾":6762,"較":6763,"載":6764,"輊":6765,"輒":6766,"輓":6767,"輔":6768,"輕":6769,"輚":6770,"輛":6771,"輜":6772,"輝":6773,"輟":6774,"輦":6775,"輩":6776,"輪":6777,"輯":6778,"輳":6779,"輸":6780,"輻":6781,"輾":6782,"輿":6783,"轂":6784,"轄":6785,"轅":6786,"轆":6787,"轉":6788,"轍":6789,"轎":6790,"轟":6791,"车":6792,"轻":6793,"辛":6794,"辜":6795,"辟":6796,"辣":6797,"辦":6798,"辧":6799,"辨":6800,"辭":6801,"辮":6802,"辯":6803,"辰":6804,"辱":6805,"農":6806,"辵":6807,"辶":6808,"辺":6809,"辻":6810,"込":6811,"达":6812,"迂":6813,"迄":6814,"迅":6815,"迌":6816,"迎":6817,"近":6818,"迓":6819,"返":6820,"还":6821,"这":6822,"迢":6823,"迤":6824,"迥":6825,"迦":6826,"迨":6827,"迪":6828,"迫":6829,"迭":6830,"述":6831,"迴":6832,"迷":6833,"迸":6834,"迹":6835,"迺":6836,"追":6837,"退":6838,"送":6839,"逃":6840,"逅":6841,"逆":6842,"逍":6843,"透":6844,"逐":6845,"递":6846,"途":6847,"逕":6848,"逗":6849,"逘":6850,"這":6851,"通":6852,"逛":6853,"逝":6854,"逞":6855,"速":6856,"造":6857,"逡":6858,"逢":6859,"連":6860,"逭":6861,"逮":6862,"週":6863,"進":6864,"逵":6865,"逶":6866,"逸":6867,"逹":6868,"逼":6869,"逾":6870,"遁":6871,"遂":6872,"遅":6873,"遇":6874,"遊":6875,"運":6876,"遍":6877,"過":6878,"遏":6879,"遐":6880,"遑":6881,"道":6882,"達":6883,"違":6884,"遙":6885,"遛":6886,"遜":6887,"遝":6888,"遞":6889,"遠":6890,"遢":6891,"遣":6892,"遥":6893,"遨":6894,"適":6895,"遭":6896,"遮":6897,"遲":6898,"遴":6899,"遵":6900,"遶":6901,"遷":6902,"選":6903,"遺":6904,"遼":6905,"遽":6906,"避":6907,"邀":6908,"邁":6909,"邂":6910,"邃":6911,"還":6912,"邇":6913,"邈":6914,"邉":6915,"邊":6916,"邋":6917,"邏":6918,"邐":6919,"邑":6920,"邕":6921,"邙":6922,"邢":6923,"那":6924,"邦":6925,"邨":6926,"邪":6927,"邯":6928,"邰":6929,"邱":6930,"邳":6931,"邵":6932,"邸":6933,"郁":6934,"郃":6935,"郅":6936,"郊":6937,"郎":6938,"郗":6939,"郝":6940,"郡":6941,"郢":6942,"郤":6943,"部":6944,"郭":6945,"郵":6946,"郷":6947,"都":6948,"鄂":6949,"鄆":6950,"鄉":6951,"鄒":6952,"鄔":6953,"鄕":6954,"鄙":6955,"鄞":6956,"鄢":6957,"鄧":6958,"鄭":6959,"鄰":6960,"鄱":6961,"鄲":6962,"鄴":6963,"鄺":6964,"酇":6965,"酈":6966,"酉":6967,"酊":6968,"酋":6969,"酌":6970,"配":6971,"酐":6972,"酒":6973,"酔":6974,"酗":6975,"酚":6976,"酡":6977,"酢":6978,"酣":6979,"酥":6980,"酩":6981,"酪":6982,"酬":6983,"酮":6984,"酯":6985,"酰":6986,"酳":6987,"酵":6988,"酶":6989,"酷":6990,"酸":6991,"醂":6992,"醃":6993,"醇":6994,"醉":6995,"醋":6996,"醌":6997,"醍":6998,"醐":6999,"醒":7000,"醖":7001,"醚":7002,"醛":7003,"醜":7004,"醞":7005,"醣":7006,"醫":7007,"醬":7008,"醮":7009,"醯":7010,"醰":7011,"醱":7012,"醴":7013,"醸":7014,"醺":7015,"釀":7016,"釁":7017,"釅":7018,"釆":7019,"采":7020,"釉":7021,"釋":7022,"里":7023,"重":7024,"野":7025,"量":7026,"釐":7027,"金":7028,"釔":7029,"釕":7030,"釗":7031,"釘":7032,"釜":7033,"針":7034,"釣":7035,"釦":7036,"釧":7037,"釨":7038,"釩":7039,"釵":7040,"釹":7041,"鈀":7042,"鈁":7043,"鈅":7044,"鈈":7045,"鈉":7046,"鈊":7047,"鈍":7048,"鈎":7049,"鈐":7050,"鈑":7051,"鈔":7052,"鈕":7053,"鈜":7054,"鈞":7055,"鈣":7056,"鈥":7057,"鈦":7058,"鈴":7059,"鈷":7060,"鈸":7061,"鈺":7062,"鈽":7063,"鈾":7064,"鈿":7065,"鉀":7066,"鉄":7067,"鉅":7068,"鉆":7069,"鉉":7070,"鉍":7071,"鉑":7072,"鉗":7073,"鉚":7074,"鉛":7075,"鉢":7076,"鉤":7077,"鉦":7078,"鉬":7079,"鉭":7080,"鉸":7081,"鉻":7082,"鉾":7083,"鉿":7084,"銀":7085,"銃":7086,"銅":7087,"銈":7088,"銍":7089,"銑":7090,"銓":7091,"銖":7092,"銘":7093,"銜":7094,"銠":7095,"銣":7096,"銦":7097,"銨":7098,"銩":7099,"銪":7100,"銫":7101,"銬":7102,"銲":7103,"銳":7104,"銷":7105,"銹":7106,"銻":7107,"銼":7108,"鋁":7109,"鋃":7110,"鋅":7111,"鋉":7112,"鋌":7113,"鋏":7114,"鋐":7115,"鋒":7116,"鋕":7117,"鋗":7118,"鋤":7119,"鋪":7120,"鋬":7121,"鋭":7122,"鋯":7123,"鋰":7124,"鋸":7125,"鋼":7126,"錂":7127,"錄":7128,"錆":7129,"錐":7130,"錘":7131,"錙":7132,"錚":7133,"錛":7134,"錞":7135,"錠":7136,"錡":7137,"錢":7138,"錤":7139,"錦":7140,"錧":7141,"錨":7142,"錩":7143,"錫":7144,"錬":7145,"錮":7146,"錯":7147,"錱":7148,"録":7149,"錳":7150,"錶":7151,"錸":7152,"錼":7153,"鍀":7154,"鍇":7155,"鍊":7156,"鍋":7157,"鍍":7158,"鍘":7159,"鍚":7160,"鍛":7161,"鍠":7162,"鍥":7163,"鍬":7164,"鍮":7165,"鍰":7166,"鍵":7167,"鍶":7168,"鍺":7169,"鍼":7170,"鍾":7171,"鎂":7172,"鎊":7173,"鎌":7174,"鎏":7175,"鎔":7176,"鎖":7177,"鎗":7178,"鎘":7179,"鎚":7180,"鎢":7181,"鎧":7182,"鎩":7183,"鎬":7184,"鎮":7185,"鎯":7186,"鎰":7187,"鎳":7188,"鎵":7189,"鎿":7190,"鏃":7191,"鏈":7192,"鏑":7193,"鏖":7194,"鏗":7195,"鏘":7196,"鏜":7197,"鏞":7198,"鏟":7199,"鏡":7200,"鏢":7201,"鏤":7202,"鏽":7203,"鐐":7204,"鐔":7205,"鐘":7206,"鐙":7207,"鐠":7208,"鐡":7209,"鐧":7210,"鐫":7211,"鐮":7212,"鐲":7213,"鐳":7214,"鐵":7215,"鐶":7216,"鐸":7217,"鐹":7218,"鐺":7219,"鐽":7220,"鑄":7221,"鑊":7222,"鑌":7223,"鑑":7224,"鑒":7225,"鑛":7226,"鑠":7227,"鑢":7228,"鑣":7229,"鑫":7230,"鑭":7231,"鑰":7232,"鑲":7233,"鑴":7234,"鑷":7235,"鑼":7236,"鑽":7237,"鑾":7238,"鑿":7239,"钾":7240,"锐":7241,"错":7242,"镁":7243,"镜":7244,"長":7245,"門":7246,"閃":7247,"閆":7248,"閉":7249,"開":7250,"閎":7251,"閏":7252,"閑":7253,"閒":7254,"間":7255,"閔":7256,"閘":7257,"閡":7258,"関":7259,"閣":7260,"閤":7261,"閥":7262,"閨":7263,"閩":7264,"閭":7265,"閱":7266,"閲":7267,"閵":7268,"閹":7269,"閻":7270,"閾":7271,"闀":7272,"闃":7273,"闆":7274,"闇":7275,"闈":7276,"闊":7277,"闌":7278,"闍":7279,"闓":7280,"闔":7281,"闕":7282,"闖":7283,"闗":7284,"闘":7285,"關":7286,"闡":7287,"闢":7288,"门":7289,"问":7290,"闻":7291,"阆":7292,"阜":7293,"阠":7294,"阡":7295,"阪":7296,"阮":7297,"阱":7298,"防":7299,"阶":7300,"阻":7301,"阿":7302,"陀":7303,"陃":7304,"附":7305,"陋":7306,"陌":7307,"降":7308,"限":7309,"陔":7310,"陛":7311,"陜":7312,"陝":7313,"陞":7314,"陡":7315,"院":7316,"陣":7317,"除":7318,"险":7319,"陪":7320,"陰":7321,"陲":7322,"陳":7323,"陵":7324,"陶":7325,"陷":7326,"陸":7327,"険":7328,"陽":7329,"隅":7330,"隆":7331,"隈":7332,"隊":7333,"隋":7334,"隍":7335,"階":7336,"随":7337,"隔":7338,"隕":7339,"隘":7340,"隙":7341,"際":7342,"障":7343,"隠":7344,"隣":7345,"隧":7346,"隨":7347,"險":7348,"隱":7349,"隴":7350,"隷":7351,"隸":7352,"隻":7353,"隼":7354,"隽":7355,"雀":7356,"雁":7357,"雃":7358,"雄":7359,"雅":7360,"集":7361,"雇":7362,"雉":7363,"雋":7364,"雌":7365,"雍":7366,"雕":7367,"雖":7368,"雙":7369,"雛":7370,"雜":7371,"雞":7372,"離":7373,"難":7374,"雨":7375,"雩":7376,"雪":7377,"雫":7378,"雯":7379,"雱":7380,"雲":7381,"零":7382,"雷":7383,"雹":7384,"電":7385,"需":7386,"霄":7387,"霆":7388,"震":7389,"霈":7390,"霉":7391,"霊":7392,"霍":7393,"霎":7394,"霏":7395,"霑":7396,"霓":7397,"霖":7398,"霙":7399,"霜":7400,"霞":7401,"霠":7402,"霧":7403,"霰":7404,"露":7405,"霸":7406,"霹":7407,"霾":7408,"靂":7409,"靄":7410,"靆":7411,"靈":7412,"靉":7413,"青":7414,"靓":7415,"靖":7416,"静":7417,"靚":7418,"靛":7419,"靜":7420,"非":7421,"靠":7422,"靡":7423,"面":7424,"靣":7425,"靦":7426,"靨":7427,"革":7428,"靭":7429,"靳":7430,"靴":7431,"靶":7432,"靼":7433,"鞄":7434,"鞅":7435,"鞋":7436,"鞍":7437,"鞏":7438,"鞕":7439,"鞘":7440,"鞠":7441,"鞣":7442,"鞦":7443,"鞭":7444,"鞮":7445,"韁":7446,"韃":7447,"韆":7448,"韋":7449,"韌":7450,"韓":7451,"韙":7452,"韜":7453,"韞":7454,"韡":7455,"韭":7456,"音":7457,"韵":7458,"韶":7459,"韻":7460,"韾":7461,"響":7462,"頁":7463,"頂":7464,"頃":7465,"項":7466,"順":7467,"頇":7468,"須":7469,"頌":7470,"頎":7471,"頏":7472,"預":7473,"頑":7474,"頒":7475,"頓":7476,"頔":7477,"頗":7478,"領":7479,"頜":7480,"頡":7481,"頣":7482,"頤":7483,"頭":7484,"頰":7485,"頴":7486,"頷":7487,"頸":7488,"頹":7489,"頻":7490,"頽":7491,"顆":7492,"題":7493,"額":7494,"顎":7495,"顏":7496,"顔":7497,"顗":7498,"願":7499,"顙":7500,"顛":7501,"類":7502,"顢":7503,"顥":7504,"顧":7505,"顫":7506,"顯":7507,"顰":7508,"顱":7509,"顳":7510,"顴":7511,"项":7512,"顾":7513,"领":7514,"颕":7515,"额":7516,"風":7517,"颯":7518,"颱":7519,"颳":7520,"颶":7521,"颺":7522,"颼":7523,"飄":7524,"飆":7525,"飇":7526,"飈":7527,"飛":7528,"食":7529,"飢":7530,"飧":7531,"飩":7532,"飪":7533,"飭":7534,"飮":7535,"飯":7536,"飲":7537,"飴":7538,"飼":7539,"飽":7540,"飾":7541,"餃":7542,"餅":7543,"餉":7544,"養":7545,"餌":7546,"餐":7547,"餑":7548,"餒":7549,"餓":7550,"餔":7551,"餘":7552,"餚":7553,"餛":7554,"餞":7555,"餡":7556,"館":7557,"餬":7558,"餵":7559,"餽":7560,"餾":7561,"餿":7562,"饀":7563,"饃":7564,"饅":7565,"饈":7566,"饉":7567,"饋":7568,"饌":7569,"饑":7570,"饒":7571,"饕":7572,"饗":7573,"饜":7574,"饞":7575,"首":7576,"馗":7577,"香":7578,"馥":7579,"馨":7580,"馬":7581,"馭":7582,"馮":7583,"馱":7584,"馳":7585,"馴":7586,"駁":7587,"駄":7588,"駅":7589,"駐":7590,"駑":7591,"駒":7592,"駕":7593,"駙":7594,"駛":7595,"駝":7596,"駡":7597,"駪":7598,"駭":7599,"駱":7600,"駿":7601,"騁":7602,"騂":7603,"騄":7604,"騅":7605,"騉":7606,"騎":7607,"騏":7608,"騒":7609,"験":7610,"騖":7611,"騙":7612,"騥":7613,"騫":7614,"騮":7615,"騰":7616,"騷":7617,"驀":7618,"驁":7619,"驃":7620,"驄":7621,"驅":7622,"驊":7623,"驍":7624,"驒":7625,"驕":7626,"驗":7627,"驚":7628,"驛":7629,"驟":7630,"驢":7631,"驥":7632,"驪":7633,"驫":7634,"骨":7635,"骯":7636,"骰":7637,"骷":7638,"骸":7639,"骺":7640,"骼":7641,"髂":7642,"髄":7643,"髎":7644,"髏":7645,"髒":7646,"髓":7647,"體":7648,"髕":7649,"髖":7650,"髗":7651,"高":7652,"髙":7653,"髦":7654,"髪":7655,"髭":7656,"髮":7657,"髯":7658,"髻":7659,"鬃":7660,"鬆":7661,"鬍":7662,"鬚":7663,"鬟":7664,"鬢":7665,"鬣":7666,"鬥":7667,"鬧":7668,"鬨":7669,"鬩":7670,"鬪":7671,"鬰":7672,"鬱":7673,"鬼":7674,"魁":7675,"魂":7676,"魄":7677,"魅":7678,"魍":7679,"魎":7680,"魏":7681,"魑":7682,"魔":7683,"魘":7684,"魚":7685,"魛":7686,"魟":7687,"魠":7688,"魨":7689,"魩":7690,"魯":7691,"魷":7692,"鮋":7693,"鮑":7694,"鮟":7695,"鮪":7696,"鮫":7697,"鮭":7698,"鮮":7699,"鮸":7700,"鯁":7701,"鯃":7702,"鯉":7703,"鯊":7704,"鯓":7705,"鯔":7706,"鯖":7707,"鯛":7708,"鯡":7709,"鯢":7710,"鯤":7711,"鯧":7712,"鯨":7713,"鯪":7714,"鯮":7715,"鯰":7716,"鯷":7717,"鯽":7718,"鰆":7719,"鰈":7720,"鰍":7721,"鰓":7722,"鰡":7723,"鰣":7724,"鰤":7725,"鰥":7726,"鰩":7727,"鰭":7728,"鰱":7729,"鰲":7730,"鰷":7731,"鰹":7732,"鰺":7733,"鰻":7734,"鱂":7735,"鱅":7736,"鱇":7737,"鱈":7738,"鱉":7739,"鱒":7740,"鱔":7741,"鱗":7742,"鱘":7743,"鱝":7744,"鱟":7745,"鱧":7746,"鱪":7747,"鱲":7748,"鱷":7749,"鱸":7750,"鱺":7751,"鱻":7752,"鲁":7753,"鲍":7754,"鲜":7755,"鲨":7756,"鲭":7757,"鲵":7758,"鳥":7759,"鳧":7760,"鳩":7761,"鳯":7762,"鳳":7763,"鳴":7764,"鳶":7765,"鴆":7766,"鴉":7767,"鴐":7768,"鴒":7769,"鴕":7770,"鴛":7771,"鴞":7772,"鴟":7773,"鴣":7774,"鴦":7775,"鴨":7776,"鴯":7777,"鴴":7778,"鴻":7779,"鴿":7780,"鵑":7781,"鵜":7782,"鵝":7783,"鵟":7784,"鵠":7785,"鵡":7786,"鵪":7787,"鵬":7788,"鵯":7789,"鵰":7790,"鵲":7791,"鶇":7792,"鶉":7793,"鶓":7794,"鶘":7795,"鶚":7796,"鶩":7797,"鶯":7798,"鶴":7799,"鶻":7800,"鶼":7801,"鶿":7802,"鷂":7803,"鷄":7804,"鷈":7805,"鷓":7806,"鷗":7807,"鷥":7808,"鷲":7809,"鷴":7810,"鷸":7811,"鷹":7812,"鷺":7813,"鷿":7814,"鸕":7815,"鸚":7816,"鸛":7817,"鸝":7818,"鸞":7819,"鹵":7820,"鹹":7821,"鹼":7822,"鹽":7823,"鹿":7824,"麂":7825,"麃":7826,"麋":7827,"麒":7828,"麓":7829,"麗":7830,"麝":7831,"麟":7832,"麥":7833,"麩":7834,"麴":7835,"麵":7836,"麻":7837,"麼":7838,"麽":7839,"麾":7840,"黃":7841,"黄":7842,"黍":7843,"黎":7844,"黏":7845,"黐":7846,"黑":7847,"黒":7848,"黔":7849,"默":7850,"黛":7851,"黜":7852,"黝":7853,"點":7854,"黠":7855,"黥":7856,"黦":7857,"黧":7858,"黨":7859,"黯":7860,"黴":7861,"黷":7862,"黻":7863,"鼇":7864,"鼎":7865,"鼐":7866,"鼓":7867,"鼔":7868,"鼠":7869,"鼩":7870,"鼬":7871,"鼯":7872,"鼻":7873,"鼽":7874,"鼾":7875,"齁":7876,"齊":7877,"齋":7878,"齎":7879,"齒":7880,"齜":7881,"齟":7882,"齡":7883,"齢":7884,"齣":7885,"齦":7886,"齧":7887,"齪":7888,"齬":7889,"齲":7890,"齷":7891,"龍":7892,"龎":7893,"龐":7894,"龔":7895,"龕":7896,"龙":7897,"龜":7898,"龢":7899,"龥":7900,"꜆":7901,"가":7902,"각":7903,"갈":7904,"감":7905,"갑":7906,"강":7907,"같":7908,"개":7909,"갱":7910,"거":7911,"걱":7912,"건":7913,"걷":7914,"걸":7915,"검":7916,"것":7917,"겉":7918,"게":7919,"겐":7920,"겨":7921,"격":7922,"겸":7923,"겼":7924,"경":7925,"계":7926,"고":7927,"곧":7928,"공":7929,"과":7930,"곽":7931,"관":7932,"광":7933,"교":7934,"구":7935,"국":7936,"군":7937,"굴":7938,"궁":7939,"그":7940,"글":7941,"금":7942,"기":7943,"긴":7944,"길":7945,"김":7946,"깊":7947,"까":7948,"깨":7949,"꺄":7950,"꺼":7951,"께":7952,"껴":7953,"꼬":7954,"꼰":7955,"꽃":7956,"꾸":7957,"꿀":7958,"꿔":7959,"뀔":7960,"끼":7961,"낌":7962,"나":7963,"난":7964,"날":7965,"남":7966,"낮":7967,"내":7968,"냐":7969,"너":7970,"널":7971,"넘":7972,"넣":7973,"네":7974,"넹":7975,"년":7976,"녕":7977,"놈":7978,"농":7979,"누":7980,"느":7981,"는":7982,"늘":7983,"니":7984,"님":7985,"닝":7986,"다":7987,"닥":7988,"단":7989,"달":7990,"담":7991,"당":7992,"대":7993,"더":7994,"덕":7995,"데":7996,"델":7997,"도":7998,"돈":7999,"돌":8000,"동":8001,"돼":8002,"되":8003,"된":8004,"두":8005,"둘":8006,"뒷":8007,"드":8008,"득":8009,"든":8010,"들":8011,"디":8012,"따":8013,"때":8014,"땡":8015,"또":8016,"똑":8017,"뜨":8018,"뜻":8019,"라":8020,"락":8021,"람":8022,"랑":8023,"래":8024,"랙":8025,"랜":8026,"럭":8027,"런":8028,"럴":8029,"렁":8030,"렇":8031,"레":8032,"렌":8033,"려":8034,"련":8035,"령":8036,"로":8037,"록":8038,"롱":8039,"루":8040,"룸":8041,"류":8042,"률":8043,"르":8044,"를":8045,"릉":8046,"리":8047,"릭":8048,"린":8049,"릴":8050,"림":8051,"립":8052,"링":8053,"마":8054,"막":8055,"만":8056,"많":8057,"말":8058,"맛":8059,"망":8060,"맞":8061,"매":8062,"먹":8063,"멀":8064,"면":8065,"멸":8066,"명":8067,"모":8068,"목":8069,"몸":8070,"못":8071,"무":8072,"문":8073,"물":8074,"뭉":8075,"뭔":8076,"미":8077,"민":8078,"밀":8079,"바":8080,"박":8081,"밖":8082,"반":8083,"받":8084,"발":8085,"밥":8086,"방":8087,"백":8088,"뱃":8089,"범":8090,"법":8091,"벽":8092,"병":8093,"보":8094,"복":8095,"볶":8096,"본":8097,"볼":8098,"봄":8099,"봐":8100,"부":8101,"북":8102,"분":8103,"불":8104,"뷰":8105,"브":8106,"블":8107,"비":8108,"빈":8109,"빛":8110,"빠":8111,"빼":8112,"뻐":8113,"뿅":8114,"쁘":8115,"쁜":8116,"쁨":8117,"사":8118,"산":8119,"살":8120,"상":8121,"새":8122,"색":8123,"생":8124,"샷":8125,"서":8126,"석":8127,"선":8128,"설":8129,"성":8130,"세":8131,"셀":8132,"셋":8133,"셔":8134,"소":8135,"속":8136,"수":8137,"숙":8138,"순":8139,"술":8140,"쉬":8141,"슈":8142,"스":8143,"슴":8144,"습":8145,"시":8146,"식":8147,"신":8148,"실":8149,"심":8150,"십":8151,"싶":8152,"쌈":8153,"쌉":8154,"쌓":8155,"써":8156,"쏘":8157,"쏙":8158,"쓰":8159,"씨":8160,"아":8161,"악":8162,"안":8163,"않":8164,"알":8165,"았":8166,"앙":8167,"앞":8168,"애":8169,"액":8170,"앤":8171,"앨":8172,"야":8173,"양":8174,"어":8175,"언":8176,"얼":8177,"없":8178,"엇":8179,"었":8180,"엉":8181,"에":8182,"엔":8183,"엠":8184,"여":8185,"역":8186,"연":8187,"열":8188,"영":8189,"옆":8190,"예":8191,"오":8192,"옥":8193,"온":8194,"올":8195,"옷":8196,"옹":8197,"완":8198,"왔":8199,"요":8200,"용":8201,"우":8202,"욱":8203,"운":8204,"울":8205,"워":8206,"원":8207,"웨":8208,"웹":8209,"위":8210,"유":8211,"윤":8212,"율":8213,"윰":8214,"으":8215,"은":8216,"을":8217,"음":8218,"응":8219,"의":8220,"이":8221,"인":8222,"일":8223,"입":8224,"있":8225,"자":8226,"작":8227,"잖":8228,"잘":8229,"잠":8230,"장":8231,"재":8232,"잼":8233,"저":8234,"적":8235,"전":8236,"절":8237,"점":8238,"정":8239,"제":8240,"져":8241,"졌":8242,"졍":8243,"조":8244,"족":8245,"존":8246,"좋":8247,"주":8248,"준":8249,"중":8250,"즈":8251,"즘":8252,"증":8253,"지":8254,"직":8255,"진":8256,"짐":8257,"집":8258,"짜":8259,"짝":8260,"짧":8261,"짱":8262,"쩔":8263,"쭉":8264,"찌":8265,"찍":8266,"차":8267,"찬":8268,"참":8269,"찾":8270,"채":8271,"챙":8272,"척":8273,"천":8274,"초":8275,"촬":8276,"최":8277,"추":8278,"축":8279,"춥":8280,"츠":8281,"치":8282,"친":8283,"침":8284,"칭":8285,"카":8286,"컷":8287,"케":8288,"켈":8289,"코":8290,"콘":8291,"쿠":8292,"퀴":8293,"크":8294,"클":8295,"키":8296,"킷":8297,"킹":8298,"타":8299,"탁":8300,"탄":8301,"탈":8302,"태":8303,"탱":8304,"터":8305,"턱":8306,"테":8307,"텐":8308,"토":8309,"톰":8310,"통":8311,"투":8312,"툰":8313,"튜":8314,"트":8315,"티":8316,"팁":8317,"팅":8318,"팍":8319,"팜":8320,"패":8321,"편":8322,"포":8323,"품":8324,"프":8325,"픈":8326,"플":8327,"피":8328,"필":8329,"하":8330,"한":8331,"할":8332,"함":8333,"합":8334,"항":8335,"해":8336,"핵":8337,"했":8338,"행":8339,"향":8340,"햫":8341,"헬":8342,"현":8343,"혈":8344,"협":8345,"형":8346,"혜":8347,"호":8348,"홀":8349,"홍":8350,"화":8351,"확":8352,"환":8353,"회":8354,"효":8355,"후":8356,"훈":8357,"휴":8358,"흐":8359,"흔":8360,"히":8361,"힐":8362,"힣":8363,"":8364,"":8365,"":8366,"":8367,"":8368,"":8369,"":8370,"":8371,"":8372,"":8373,"":8374,"":8375,"更":8376,"車":8377,"滑":8378,"契":8379,"金":8380,"羅":8381,"邏":8382,"落":8383,"蘭":8384,"拉":8385,"來":8386,"冷":8387,"勞":8388,"擄":8389,"盧":8390,"老":8391,"路":8392,"魯":8393,"綠":8394,"錄":8395,"論":8396,"牢":8397,"樓":8398,"漏":8399,"勒":8400,"凌":8401,"讀":8402,"率":8403,"異":8404,"北":8405,"便":8406,"復":8407,"不":8408,"泌":8409,"數":8410,"索":8411,"參":8412,"塞":8413,"若":8414,"亮":8415,"兩":8416,"梁":8417,"良":8418,"量":8419,"勵":8420,"女":8421,"旅":8422,"濾":8423,"力":8424,"歷":8425,"年":8426,"練":8427,"聯":8428,"蓮":8429,"連":8430,"列":8431,"裂":8432,"說":8433,"念":8434,"令":8435,"零":8436,"領":8437,"例":8438,"了":8439,"料":8440,"樂":8441,"療":8442,"龍":8443,"暈":8444,"劉":8445,"流":8446,"留":8447,"硫":8448,"類":8449,"六":8450,"陸":8451,"輪":8452,"律":8453,"隆":8454,"利":8455,"履":8456,"易":8457,"李":8458,"泥":8459,"理":8460,"里":8461,"離":8462,"林":8463,"立":8464,"狀":8465,"識":8466,"什":8467,"度":8468,"拓":8469,"糖":8470,"宅":8471,"行":8472,"降":8473,"見":8474,"兀":8475,"﨑":8476,"益":8477,"神":8478,"祥":8479,"福":8480,"精":8481,"逸":8482,"館":8483,"︎":8484,"️":8485,"︙":8486,"︰":8487,"︱":8488,"︳":8489,"︵":8490,"︶":8491,"﹁":8492,"﹂":8493,"﹅":8494,"﹐":8495,"﹑":8496,"﹒":8497,"﹔":8498,"﹕":8499,"﹖":8500,"﹗":8501,"﹘":8502,"﹙":8503,"﹚":8504,"﹝":8505,"﹞":8506,"﹣":8507,"﹪":8508,"﻿":8509,"！":8510,"＂":8511,"＃":8512,"＄":8513,"％":8514,"＆":8515,"（":8516,"）":8517,"＊":8518,"＋":8519,"，":8520,"－":8521,"．":8522,"／":8523,"０":8524,"１":8525,"２":8526,"３":8527,"４":8528,"５":8529,"６":8530,"７":8531,"８":8532,"９":8533,"：":8534,"；":8535,"＜":8536,"＝":8537,"＞":8538,"？":8539,"＠":8540,"Ａ":8541,"Ｂ":8542,"Ｃ":8543,"Ｄ":8544,"Ｅ":8545,"Ｆ":8546,"Ｇ":8547,"Ｈ":8548,"Ｉ":8549,"Ｊ":8550,"Ｋ":8551,"Ｌ":8552,"Ｍ":8553,"Ｎ":8554,"Ｏ":8555,"Ｐ":8556,"Ｑ":8557,"Ｒ":8558,"Ｓ":8559,"Ｔ":8560,"Ｕ":8561,"Ｖ":8562,"Ｗ":8563,"Ｘ":8564,"Ｙ":8565,"Ｚ":8566,"［":8567,"＼":8568,"］":8569,"＿":8570,"｀":8571,"ｅ":8572,"ｇ":8573,"ｈ":8574,"ｉ":8575,"ｌ":8576,"ｍ":8577,"ｎ":8578,"ｏ":8579,"ｔ":8580,"ｗ":8581,"ｘ":8582,"ｙ":8583,"｜":8584,"～":8585,"｡":8586,"｢":8587,"｣":8588,"･":8589,"ｫ":8590,"ｬ":8591,"ｯ":8592,"ｰ":8593,"ｲ":8594,"ｶ":8595,"ｺ":8596,"ｻ":8597,"ｼ":8598,"ﾂ":8599,"ﾃ":8600,"ﾄ":8601,"ﾅ":8602,"ﾉ":8603,"ﾊ":8604,"ﾌ":8605,"ﾏ":8606,"ﾐ":8607,"ﾘ":8608,"ﾙ":8609,"ﾜ":8610,"ﾝ":8611,"ﾞ":8612,"ﾟ":8613,"￼":8614,"𝐞":8615,"𝐢":8616,"𝐤":8617,"𝐦":8618,"𝐫":8619,"𝐮":8620,"𝐿":8621,"𝑜":8622,"𝒟":8623,"𝒾":8624,"𝓇":8625,"𝓈":8626,"𝓊":8627,"𝓜":8628,"𝓡":8629,"𝓢":8630,"𝓪":8631,"𝓬":8632,"𝓮":8633,"𝓲":8634,"𝓴":8635,"𝓷":8636,"𝔃":8637,"𝖍":8638,"𝖘":8639,"𝖚":8640,"𝘼":8641,"𝙄":8642,"𝙉":8643,"𝙎":8644,"𝙐":8645,"𝙖":8646,"𝙚":8647,"𝙡":8648,"𝙢":8649,"𝙣":8650,"𝙤":8651,"𝙧":8652,"𝙫":8653,"𝙰":8654,"𝙴":8655,"𝙶":8656,"𝙷":8657,"𝙸":8658,"𝙻":8659,"𝙼":8660,"𝚂":8661,"𝚃":8662,"𝝱":8663,"𝟸":8664,"🆚":8665,"🇨":8666,"🇫":8667,"🇮":8668,"🇯":8669,"🇰":8670,"🇱":8671,"🇲":8672,"🇳":8673,"🇵":8674,"🇷":8675,"🇹":8676,"🇺":8677,"🇻":8678,"🇼":8679,"🇾":8680,"🌇":8681,"🌈":8682,"🌊":8683,"🌍":8684,"🌎":8685,"🌏":8686,"🌙":8687,"🌝":8688,"🌞":8689,"🌟":8690,"🌠":8691,"🌨":8692,"🌱":8693,"🌳":8694,"🌶":8695,"🌸":8696,"🌹":8697,"🌺":8698,"🌻":8699,"🌼":8700,"🍀":8701,"🍋":8702,"🍑":8703,"🍒":8704,"🍗":8705,"🍚":8706,"🍜":8707,"🍞":8708,"🍥":8709,"🍨":8710,"🍩":8711,"🎄":8712,"🎅":8713,"🎆":8714,"🎉":8715,"🎊":8716,"🎨":8717,"🎬":8718,"🎮":8719,"🎯":8720,"🎵":8721,"🏁":8722,"🏆":8723,"🏊":8724,"🏓":8725,"🏝":8726,"🏻":8727,"🏼":8728,"🏽":8729,"🐀":8730,"🐇":8731,"🐤":8732,"🐯":8733,"🐰":8734,"🐱":8735,"🐳":8736,"🐶":8737,"🐷":8738,"🐸":8739,"🐻":8740,"🐼":8741,"🐾":8742,"👀":8743,"👁":8744,"👇":8745,"👉":8746,"👊":8747,"👋":8748,"👍":8749,"👏":8750,"👘":8751,"👜":8752,"👭":8753,"👮":8754,"👸":8755,"👼":8756,"💁":8757,"💃":8758,"💉":8759,"💋":8760,"💎":8761,"💓":8762,"💔":8763,"💕":8764,"💖":8765,"💗":8766,"💘":8767,"💙":8768,"💚":8769,"💛":8770,"💝":8771,"💢":8772,"💤":8773,"💥":8774,"💦":8775,"💩":8776,"💪":8777,"💫":8778,"💭":8779,"💰":8780,"📧":8781,"📷":8782,"📸":8783,"📼":8784,"📽":8785,"🔍":8786,"🔎":8787,"🔒":8788,"🔔":8789,"🔖":8790,"🔞":8791,"🔥":8792,"🔦":8793,"🔩":8794,"🔭":8795,"🔺":8796,"🕊":8797,"🕺":8798,"🖌":8799,"🖐":8800,"🖤":8801,"🗣":8802,"🗨":8803,"🗿":8804,"😀":8805,"😁":8806,"😂":8807,"😄":8808,"😅":8809,"😆":8810,"😇":8811,"😉":8812,"😊":8813,"😋":8814,"😌":8815,"😍":8816,"😎":8817,"😏":8818,"😖":8819,"😗":8820,"😘":8821,"😙":8822,"😚":8823,"😛":8824,"😜":8825,"😝":8826,"😢":8827,"😤":8828,"😩":8829,"😫":8830,"😭":8831,"😰":8832,"😱":8833,"😳":8834,"😷":8835,"😽":8836,"😿":8837,"🙃":8838,"🙄":8839,"🙅":8840,"🙆":8841,"🙇":8842,"🙌":8843,"🙏":8844,"🚃":8845,"🚨":8846,"🚩":8847,"🚵":8848,"🚿":8849,"🛁":8850,"🟡":8851,"🟨":8852,"🤍":8853,"🤎":8854,"🤓":8855,"🤔":8856,"🤖":8857,"🤙":8858,"🤞":8859,"🤢":8860,"🤣":8861,"🤨":8862,"🤩":8863,"🤪":8864,"🤯":8865,"🤸":8866,"🤾":8867,"🥂":8868,"🥇":8869,"🥈":8870,"🥊":8871,"🥕":8872,"🥦":8873,"🥰":8874,"🥳":8875,"🥴":8876,"🥶":8877,"🥺":8878,"🦁":8879,"🦄":8880,"🦊":8881,"🦋":8882,"🦦":8883,"🦩":8884,"🦵":8885,"🦷":8886,"🧗":8887,"🧘":8888,"🧚":8889,"🧠":8890,"🧡":8891,"🧧":8892,"🧬":8893,"🧼":8894,"🪐":8895,"𠽾":8896,"𡒉":8897,"𡘙":8898,"𡚒":8899,"𢭃":8900,"𣈱":8901,"𥇦":8902,"𥌓":8903,"𥚃":8904,"𥴊":8905,"𦱾":8906,"𧄌":8907,"𨑨":8908,"𩵚":8909,"𩻸":8910,"20":8911,"10":8912,"表示":8913,"EP":8914,"確診":8915,"SEP":8916,"台灣":8917,"檢疫":8918,"症狀":8919,"多歲":8920,"11":8921,"30":8922,"採檢":8923,"」，":8924,"12":8925,"美國":8926,"19":8927,"月2":8928,"。●":8929,"00":8930,"工作":8931,"報導":8932,"入境":8933,"」、":8934,"」、「":8935,"沒有":8936,"出現":8937,"可以":8938,"自己":8939,"進行":8940,"on":8941,"。」":8942,"更多":8943,"疫情":8944,"，「":8945,"中國":8946,"21":8947,"」。":8948,"3日":8949,"新聞":8950,"個案":8951,"月1":8952,"可能":8953,"疫苗":8954,"因為":8955,"女性":8956,"男性":8957,"目前":8958,"公司":8959,"中心":8960,"提供":8961,"：「":8962,"陰性":8963,"網友":8964,"我們":8965,"一個":8966,"民眾":8967,"時間":8968,"。（":8969,"防疫":8970,"今年":8971,"政府":8972,"多歲男性":8973,"er":8974,"使用":8975,"活動":8976,"指出":8977,"就是":8978,"發現":8979,"檢驗":8980,"台北":8981,"相關":8982,"接觸":8983,"in":8984,"不過":8985,"50":8986,"今天":8987,"2021":8988,"多歲女性":8989,"人員":8990,"醫院":8991,"安排":8992,"就醫":8993,"已經":8994,"2020":8995,"因此":8996,"an":8997,"第一":8998,"其中":8999,"學生":9000,"報告":9001,"日本":9002,"記者":9003,"14":9004,"健康":9005,"認為":9006,"問題":9007,"指揮":9008,"40":9009,"他們":9010,"檢疫期":9011,"衛生":9012,"iP":9013,"其他":9014,"印度":9015,"居家":9016,"8日":9017,"5日":9018,"開始":9019,"結果":9020,"one":9021,"影響":9022,"持續":9023,"透過":9024,"發生":9025,"6日":9026,"大學":9027,"以及":9028,"國家":9029,"無症狀":9030,"ar":9031,"hone":9032,"7日":9033,"接種":9034,"什麼":9035,"不是":9036,"希望":9037,"教育":9038,"現在":9039,"18":9040,"4日":9041,"2020年":9042,"如果":9043,"去年":9044,"iPhone":9045,"22":9046,"隔離":9047,"15":9048,"單位":9049,"通報":9050,"許多":9051,"中央":9052,"需要":9053,"管理":9054,"入境後":9055,"還有":9056,"持有":9057,"全球":9058,"指揮中心":9059,"國際":9060,"調查":9061,"印尼":9062,"這樣":9063,"手機":9064,"機前":9065,"生活":9066,"le":9067,"集中":9068,"的人":9069,"這個":9070,"3月":9071,"安全":9072,"4月":9073,"同時":9074,"服務":9075,"檢驗陰性":9076,"。▲":9077,"2021年":9078,"還是":9079,"咳嗽":9080,"機師":9081,"警方":9082,"檢疫期滿":9083,"3日內":9084,"未來":9085,"60":9086,"不會":9087,"發燒":9088,"除了":9089,"學校":9090,"期間":9091,"市場":9092,"新冠":9093,"一名":9094,"en":9095,"肺炎":9096,"成為":9097,"機前3日內":9098,"甚至":9099,"部分":9100,"合作":9101,"檢驗陰性報告":9102,"大家":9103,"9日":9104,"設計":9105,"17":9106,"無法":9107,"包括":9108,"16":9109,"110":9110,"也是":9111,"都是":9112,"總統":9113,"感染":9114,"發展":9115,"推出":9116,"雖然":9117,"經濟":9118,"最後":9119,"世界":9120,"檢疫所":9121,"相當":9122,"旅遊":9123,"所以":9124,"接觸者":9125,"這些":9126,"旅館":9127,"英國":9128,"對於":9129,"al":9130,"看到":9131,"機場":9132,"真的":9133,"要求":9134,"or":9135,"接受":9136,"投資":9137,"研究":9138,"25":9139,"由於":9140,"超過":9141,"也有":9142,"PO":9143,"並確診":9144,"重要":9145,"增加":9146,"翻攝":9147,"13":9148,"是否":9149,"籍20":9150,"律賓":9151,"%，":9152,"菲律賓":9153,"根據":9154,"今日":9155,"針對":9156,"方式":9157,"功能":9158,"不同":9159,"關係":9160,"網路":9161,"oo":9162,"非常":9163,"造成":9164,"華航":9165,"臉書":9166,"運動":9167,"機會":9168,"蘋果":9169,"一次":9170,"家人":9171,"其實":9172,"口罩":9173,"為了":9174,"建議":9175,"出國":9176,"病毒":9177,"集中檢疫所":9178,"台中":9179,"北市":9180,"醫師":9181,"一起":9182,"處理":9183,"資料":9184,"社會":9185,"ro":9186,"科技":9187,"不少":9188,"入境後至":9189,"代表":9190,"知道":9191,"男子":9192,"陽性":9193,"拜登":9194,"孩子":9195,"狀況":9196,"），":9197,"公布":9198,"選擇":9199,"的是":9200,"地區":9201,"治療":9202,"特別":9203,"5月":9204,"另外":9205,"本國":9206,"分享":9207,"當地":9208,"CO":9209,"ID":9210,"4月2":9211,"at":9212,"前往":9213,"過去":9214,"應該":9215,"系統":9216,"it":9217,"萬元":9218,"個月":9219,"案11":9220,"27":9221,"來臺":9222,"完成":9223,"技術":9224,"分別":9225,"朋友":9226,"28":9227,"2019":9228,"美元":9229,"st":9230,"入境時":9231,"人的":9232,"員工":9233,"之後":9234,"計畫":9235,"喉嚨":9236,"24":9237,"當時":9238,"產品":9239,"台北市":9240,"衛生單位":9241,"企業":9242,"第二":9243,"大陸":9244,"媒體":9245,"環境":9246,"主動":9247,"高雄":9248,"嚴重":9249,"表現":9250,"直接":9251,"需求":9252,"1月":9253,"ou":9254,"el":9255,"顯示":9256,"宣布":9257,"日前":9258,"進黨":9259,"事件":9260,"強調":9261,"小時":9262,"機前3日內檢驗陰性報告":9263,"媽媽":9264,"地方":9265,"覺得":9266,"民進黨":9267,"母親":9268,"居家檢疫":9269,"防疫旅館":9270,"很多":9271,"比較":9272,"ac":9273,"所有":9274,"自費":9275,"新聞網":9276,"提醒":9277,"29":9278,"上的":9279,"內容":9280,"影片":9281,"獲得":9282,"產業":9283,"不要":9284,"VID":9285,"支持":9286,"億元":9287,"起來":9288,"23":9289,"協助":9290,"只要":9291,"翻攝自":9292,"現場":9293,"自己的":9294,"個人":9295,"ic":9296,"曝光":9297,"進入":9298,"這是":9299,"成長":9300,"說明":9301,"國民":9302,"必須":9303,"風險":9304,"只是":9305,"加上":9306,"討論":9307,"COVID":9308,"自主":9309,"大的":9310,"搭機前3日內檢驗陰性報告":9311,"醫療":9312,"導致":9313,"桃園":9314,"返國":9315,"消費":9316,"飯店":9317,"ag":9318,"情況":9319,"最高":9320,"新增":9321,"採檢並確診":9322,"不能":9323,"時候":9324,"am":9325,"時中":9326,"案10":9327,"不適":9328,"11月":9329,"陳時中":9330,"比賽":9331,"國內":9332,"受到":9333,"30日":9334,"一定":9335,"死亡":9336,"富特":9337,"70":9338,"諾富特":9339,"文化":9340,"12月":9341,"染疫":9342,"疑似":9343,"新冠肺炎":9344,"只有":9345,"200":9346,"26":9347,"持有搭機前3日內檢驗陰性報告":9348,"平台":9349,"分局":9350,"決定":9351,"一樣":9352,"pp":9353,"採檢確診":9354,"長期":9355,"om":9356,"2月":9357,"容易":9358,"方面":9359,"出國日":9360,"提升":9361,"參與":9362,"外交":9363,"月1日":9364,"本國籍":9365,"主要":9366,"專家":9367,"ir":9368,"000":9369,"分析":9370,"本土":9371,"等症狀":9372,"為陰性":9373,"情形":9374,"英文":9375,"面對":9376,"畫面":9377,")，":9378,"流鼻":9379,"參加":9380,"31":9381,"政策":9382,"都有":9383,"身體":9384,"案5":9385,"系列":9386,"來臺工作":9387,"99":9388,"照片":9389,"資訊":9390,"關鍵":9391,"國中":9392,"也會":9393,"原因":9394,"警察":9395,"es":9396,"怎麼":9397,"攝影":9398,"通過":9399,"聯盟":9400,"下午":9401,"第3":9402,"流鼻水":9403,"ay":9404,"好的":9405,"準備":9406,"開放":9407,"重點":9408,"案8":9409,"病例":9410,"一直":9411,"優惠":9412,"以上":9413,"如何":9414,"原PO":9415,"檢疫期滿前":9416,"中的":9417,"或是":9418,"一步":9419,"就學":9420,"11月2":9421,"最新":9422,"預計":9423,"ew":9424,"業者":9425,"這次":9426,"任何":9427,"出來":9428,"行動":9429,"對此":9430,"回應":9431,"教練":9432,"但是":9433,"一下":9434,"學習":9435,"能力":9436,"過程":9437,"此外":9438,"的一":9439,"保護":9440,"執行":9441,"商品":9442,"想到":9443,"聯合":9444,"數據":9445,"繼續":9446,"20日":9447,"100":9448,"閱讀":9449,"陸續":9450,"成功":9451,"品牌":9452,"案6":9453,"措施":9454,"不僅":9455,"至醫院":9456,"則是":9457,"就會":9458,"？」":9459,"5G":9460,"高中":9461,"也不":9462,"注意":9463,"綜合":9464,"紀錄":9465,"都會":9466,"了解":9467,"擴大":9468,"電子":9469,"至於":9470,"銀行":9471,"..":9472,"台幣":9473,"完全":9474,"一般":9475,"近期":9476,"健康管理":9477,"！」":9478,"發病":9479,"壓力":9480,"舉辦":9481,"國民黨":9482,"智慧":9483,"而且":9484,"加入":9485,"遊戲":9486,"歷史":9487,"電影":9488,"提出":9489,"衛生單位安排":9490,"委員":9491,"規定":9492,"30多歲男性":9493,"用戶":9494,"不到":9495,"對方":9496,"申請":9497,"ht":9498,"自行":9499,"共同":9500,"才能":9501,"目標":9502,"分鐘":9503,"整理":9504,"自主健康管理":9505,"兩人":9506,"2日":9507,"is":9508,"維持":9509,"​​":9510,"家庭":9511,"台南":9512,"老師":9513,"34":9514,"穩定":9515,"交通":9516,"團隊":9517,"異常":9518,"80":9519,"安打":9520,"他的":9521,"App":9522,"90":9523,"行政":9524,"36":9525,"ch":9526,"行為":9527,"一些":9528,"ps":9529,"努力":9530,"香港":9531,"避免":9532,"先發":9533,"法院":9534,"基金":9535,"中華":9536,"核酸":9537,"引發":9538,"專業":9539,"推薦":9540,"戴口罩":9541,"年的":9542,"改善":9543,"不斷":9544,"疾病":9545,"告知":9546,"經過":9547,"能夠":9548,"來說":9549,"這種":9550,"擁有":9551,"人數":9552,"體驗":9553,"re":9554,"駕駛":9555,"採檢後":9556,"下來":9557,"搭乘":9558,"上午":9559,"社區":9560,"ad":9561,"施打":9562,"政治":9563,"價格":9564,"幫助":9565,"減少":9566,"作為":9567,"Pro":9568,"第三":9569,"以來":9570,"全國":9571,"as":9572,"董事":9573,"臺灣":9574,"調整":9575,"空間":9576,"包含":9577,"35":9578,"45":9579,"機組":9580,"發文":9581,"喜歡":9582,"進一步":9583,"緊急":9584,"案7":9585,"2019年":9586,"透露":9587,"議員":9588,"來台":9589,"提到":9590,"沒想到":9591,"喉嚨痛":9592,"居家隔離":9593,"視新聞":9594,"追蹤":9595,"組織":9596,"人民":9597,"消息":9598,"有多":9599,"有人":9600,"文章":9601,"之一":9602,"積極":9603,"30多歲女性":9604,"掌握":9605,"流行":9606,"工程":9607,"近日":9608,"至少":9609,"貼文":9610,"il":9611,"新高":9612,"新北市":9613,"12日":9614,"由衛生單位安排":9615,"媽祖":9616,"TV":9617,"國小":9618,"發表":9619,"解決":9620,"37":9621,"全台":9622,"id":9623,"挑戰":9624,"會有":9625,"並且":9626,"線上":9627,"紛紛":9628,"住院":9629,"兒子":9630,"10月":9631,"北部":9632,"新台幣":9633,"印尼籍20":9634,"正式":9635,"年輕":9636,"//":9637,"匡列":9638,"原本":9639,"觀察":9640,"。「":9641,"呼吸":9642,"就有":9643,"蔡英文":9644,"集中檢疫所檢疫":9645,"3月2":9646,"患者":9647,"之前":9648,"再次":9649,"擔心":9650,"檢疫期滿後":9651,"利用":9652,"呼籲":9653,"更新":9654,"2人":9655,"推動":9656,"經驗":9657,"開發":9658,"意外":9659,"三立":9660,"10日":9661,"女兒":9662,"抗體":9663,"來自":9664,"台股":9665,"檢查":9666,"et":9667,"距離":9668,"電信":9669,"第4":9670,"htt":9671,"對象":9672,"立委":9673,"關注":9674,"://":9675,"另一":9676,"台積":9677,"ub":9678,"全身":9679,"萬人":9680,"移工":9681,"配合":9682,"方案":9683,"舉行":9684,"明顯":9685,"的事":9686,"會議":9687,"兄弟":9688,"最近":9689,"每天":9690,"引起":9691,"來源":9692,"年來":9693,"集團":9694,"部長":9695,"歲的":9696,"正常":9697,"是在":9698,"控制":9699,"最大":9700,"母親節":9701,"在臉書":9702,"自由":9703,"三立新聞網":9704,"生產":9705,"航空":9706,"雙方":9707,"Ct":9708,"打造":9709,"肌肉":9710,"全面":9711,"出國日期":9712,"台積電":9713,"IN":9714,"應用":9715,"38":9716,"Ct值":9717,"擔任":9718,"晚間":9719,"女子":9720,"主管":9721,"交易":9722,"這麼":9723,"的話":9724,"加強":9725,"人士":9726,"確定":9727,"的時候":9728,"群聚":9729,"指數":9730,"聲明":9731,"https":9732,"想要":9733,"訓練":9734,"澳洲":9735,"達到":9736,"價值":9737,"11日":9738,"小孩":9739,"一點":9740,"階段":9741,"1日":9742,"支援":9743,"紫色":9744,"覺異常":9745,"1月2":9746,"3月1":9747,"局長":9748,"球隊":9749,"邀請":9750,"帶來":9751,"Air":9752,"ed":9753,"然而":9754,"資源":9755,"只能":9756,"吸引":9757,"搭配":9758,"取得":9759,"委員會":9760,"正在":9761,"中央社":9762,"公開":9763,"電話":9764,"感覺":9765,"感謝":9766,"電腦":9767,"）、":9768,"有些":9769,"因應":9770,"自然":9771,"家長":9772,"檢出":9773,"再度":9774,"動物":9775,"持有登":9776,"連續":9777,"就能":9778,"拍攝":9779,"投手":9780,"了一":9781,"產生":9782,"期待":9783,"模式":9784,"數位":9785,"考試":9786,"快速":9787,"選手":9788,"法國":9789,"之外":9790,"境外":9791,"鏡頭":9792,"尤其":9793,"隨著":9794,"保持":9795,"發布":9796,"製造":9797,"課程":9798,"這樣的":9799,"至醫院自費":9800,"營收":9801,"案9":9802,"案例":9803,"留言":9804,"負責":9805,"市長":9806,"整體":9807,"晶片":9808,"購買":9809,"爆發":9810,"網站":9811,"音樂":9812,"3人":9813,"億美元":9814,"9月":9815,"供應":9816,"鼻塞":9817,"改變":9818,"）。":9819,"結果為陰性":9820,"設備":9821,"返台":9822,"效果":9823,"實際":9824,"提高":9825,"消費者":9826,"19日":9827,"BS":9828,"也能":9829,"連結":9830,"4月1":9831,"成績":9832,"了嗎":9833,"%。":9834,"看這":9835,"會考":9836,"台鐵":9837,"民視新聞":9838,"新的":9839,"根本":9840,"螢幕":9841,"得到":9842,"採用":9843,"領域":9844,"傳統":9845,"漫畫":9846,"先前":9847,"鋒面":9848,"更是":9849,"讓人":9850,"派出":9851,"第2":9852,"ing":9853,"ol":9854,"突然":9855,"500":9856,"的大":9857,"這一":9858,"員警":9859,"由衛生單位安排就醫":9860,"太空":9861,"羅斯":9862,"一次看":9863,"外界":9864,"結束":9865,"降低":9866,"疫情指揮中心":9867,"檢疫期間":9868,"ur":9869,"入境後至集中檢疫所檢疫":9870,"藝術":9871,"In":9872,"官方":9873,"幾乎":9874,"20多歲女性":9875,"基本":9876,"預期":9877,"主席":9878,"我的":9879,"成立":9880,"讀書":9881,"業務":9882,"粉絲":9883,"專案":9884,"曾於":9885,"評估":9886,"new":9887,"機構":9888,"年前":9889,"th":9890,"通知":9891,"有一":9892,"ook":9893,"規劃":9894,"考生":9895,"找到":9896,"議題":9897,"有關":9898,"老闆":9899,"痠痛":9900,"同樣":9901,"趙介":9902,"平均":9903,"金融":9904,"統計":9905,"趙介佑":9906,"昨天":9907,"符合":9908,"最終":9909,"ion":9910,"一同":9911,"消毒":9912,"出現發燒":9913,"檢測":9914,"33":9915,"照顧":9916,"NO":9917,"班機":9918,"打擊":9919,"之間":9920,"南部":9921,"授權":9922,"東西":9923,"立即":9924,"攻擊":9925,"ig":9926,"OS":9927,"印尼籍":9928,"有效":9929,"作品":9930,"後續":9931,"生命":9932,"在地":9933,"讓他":9934,"以下":9935,"勞動":9936,"如此":9937,"監視":9938,"呈現":9939,"咖啡":9940,"確認":9941,"台灣的":9942,"39":9943,"5大":9944,"競爭":9945,"危險":9946,"德國":9947,"時代":9948,"至今":9949,"頭痛":9950,"將在":9951,"2名":9952,"像是":9953,"疑似症狀":9954,"1例":9955,"規模":9956,"附近":9957,"大量":9958,"餐廳":9959,"科學":9960,"重新":9961,"民主":9962,"編輯":9963,"發言":9964,"韓國":9965,"順利":9966,"不適症狀":9967,"節目":9968,"腹瀉":9969,"機組員":9970,"反應":9971,"TVBS":9972,"後來":9973,"記者會":9974,"男童":9975,"St":9976,"限制":9977,"作業":9978,"300":9979,"機車":9980,"一年":9981,"以為":9982,"球員":9983,"高達":9984,"血清":9985,"整理包":9986,"感到":9987,"電動":9988,"消防":9989,"恢復":9990,"2例":9991,"48":9992,"俄羅斯":9993,"畢業":9994,"質疑":9995,"檢疫期滿前採檢":9996,"免費":9997,"電視":9998,"清楚":9999},"merges":["2 0","1 0","表 示","E P","確 診","S EP","台 灣","檢 疫","症 狀","多 歲","1 1","3 0","採 檢","」 ，","1 2","美 國","1 9","月 2","。 ●","0 0","工 作","報 導","入 境","」 、","」、 「","沒 有","出 現","可 以","自 己","進 行","o n","。 」","更 多","疫 情","， 「","中 國","2 1","」 。","3 日","新 聞","個 案","月 1","可 能","疫 苗","因 為","女 性","男 性","目 前","公 司","中 心","提 供","： 「","陰 性","網 友","我 們","一 個","民 眾","時 間","。 （","防 疫","今 年","政 府","多歲 男性","e r","使 用","活 動","指 出","就 是","發 現","檢 驗","台 北","相 關","接 觸","i n","不 過","5 0","今 天","20 21","多歲 女性","人 員","醫 院","安 排","就 醫","已 經","20 20","因 此","a n","第 一","其 中","學 生","報 告","日 本","記 者","1 4","健 康","認 為","問 題","指 揮","4 0","他 們","檢疫 期","衛 生","i P","其 他","印 度","居 家","8 日","5 日","開 始","結 果","on e","影 響","持 續","透 過","發 生","6 日","大 學","以 及","國 家","無 症狀","a r","h one","7 日","接 種","什 麼","不 是","希 望","教 育","現 在","1 8","4 日","2020 年","如 果","去 年","iP hone","2 2","隔 離","1 5","單 位","通 報","許 多","中 央","需 要","管 理","入境 後","還 有","持 有","全 球","指揮 中心","國 際","調 查","印 尼","這 樣","手 機","機 前","生 活","l e","集 中","的 人","這 個","3 月","安 全","4 月","同 時","服 務","檢驗 陰性","。 ▲","2021 年","還 是","咳 嗽","機 師","警 方","檢疫期 滿","3日 內","未 來","6 0","不 會","發 燒","除 了","學 校","期 間","市 場","新 冠","一 名","e n","肺 炎","成 為","機前 3日內","甚 至","部 分","合 作","檢驗陰性 報告","大 家","9 日","設 計","1 7","無 法","包 括","1 6","1 10","也 是","都 是","總 統","感 染","發 展","推 出","雖 然","經 濟","最 後","世 界","檢疫 所","相 當","旅 遊","所 以","接觸 者","這 些","旅 館","英 國","對 於","a l","看 到","機 場","真 的","要 求","o r","接 受","投 資","研 究","2 5","由 於","超 過","也 有","P O","並 確診","重 要","增 加","翻 攝","1 3","是 否","籍 20","律 賓","% ，","菲 律賓","根 據","今 日","針 對","方 式","功 能","不 同","關 係","網 路","o o","非 常","造 成","華 航","臉 書","運 動","機 會","蘋 果","一 次","家 人","其 實","口 罩","為 了","建 議","出 國","病 毒","集中 檢疫所","台 中","北 市","醫 師","一 起","處 理","資 料","社 會","r o","科 技","不 少","入境後 至","代 表","知 道","男 子","陽 性","拜 登","孩 子","狀 況","） ，","公 布","選 擇","的 是","地 區","治 療","特 別","5 月","另 外","本 國","分 享","當 地","C O","I D","4 月2","a t","前 往","過 去","應 該","系 統","i t","萬 元","個 月","案 11","2 7","來 臺","完 成","技 術","分 別","朋 友","2 8","20 19","美 元","s t","入境 時","人 的","員 工","之 後","計 畫","喉 嚨","2 4","當 時","產 品","台北 市","衛生 單位","企 業","第 二","大 陸","媒 體","環 境","主 動","高 雄","嚴 重","表 現","直 接","需 求","1 月","o u","e l","顯 示","宣 布","日 前","進 黨","事 件","強 調","小 時","機前3日內 檢驗陰性報告","媽 媽","地 方","覺 得","民 進黨","母 親","居家 檢疫","防疫 旅館","很 多","比 較","a c","所 有","自 費","新聞 網","提 醒","2 9","上 的","內 容","影 片","獲 得","產 業","不 要","V ID","支 持","億 元","起 來","2 3","協 助","只 要","翻攝 自","現 場","自己 的","個 人","i c","曝 光","進 入","這 是","成 長","說 明","國 民","必 須","風 險","只 是","加 上","討 論","CO VID","自 主","大 的","搭 機前3日內檢驗陰性報告","醫 療","導 致","桃 園","返 國","消 費","飯 店","a g","情 況","最 高","新 增","採檢 並確診","不 能","時 候","a m","時 中","案 10","不 適","11 月","陳 時中","比 賽","國 內","受 到","30 日","一 定","死 亡","富 特","7 0","諾 富特","文 化","12 月","染 疫","疑 似","新冠 肺炎","只 有","20 0","2 6","持有 搭機前3日內檢驗陰性報告","平 台","分 局","決 定","一 樣","p p","採檢 確診","長 期","o m","2 月","容 易","方 面","出國 日","提 升","參 與","外 交","月1 日","本國 籍","主 要","專 家","i r","00 0","分 析","本 土","等 症狀","為 陰性","情 形","英 文","面 對","畫 面",") ，","流 鼻","參 加","3 1","政 策","都 有","身 體","案 5","系 列","來臺 工作","9 9","照 片","資 訊","關 鍵","國 中","也 會","原 因","警 察","e s","怎 麼","攝 影","通 過","聯 盟","下 午","第 3","流鼻 水","a y","好 的","準 備","開 放","重 點","案 8","病 例","一 直","優 惠","以 上","如 何","原 PO","檢疫期滿 前","中 的","或 是","一 步","就 學","11 月2","最 新","預 計","e w","業 者","這 次","任 何","出 來","行 動","對 此","回 應","教 練","但 是","一 下","學 習","能 力","過 程","此 外","的 一","保 護","執 行","商 品","想 到","聯 合","數 據","繼 續","20 日","10 0","閱 讀","陸 續","成 功","品 牌","案 6","措 施","不 僅","至 醫院","則 是","就 會","？ 」","5 G","高 中","也 不","注 意","綜 合","紀 錄","都 會","了 解","擴 大","電 子","至 於","銀 行",". .","台 幣","完 全","一 般","近 期","健康 管理","！ 」","發 病","壓 力","舉 辦","國民 黨","智 慧","而 且","加 入","遊 戲","歷 史","電 影","提 出","衛生單位 安排","委 員","規 定","30 多歲男性","用 戶","不 到","對 方","申 請","h t","自 行","共 同","才 能","目 標","分 鐘","整 理","自主 健康管理","兩 人","2 日","i s","維 持","​ ​","家 庭","台 南","老 師","3 4","穩 定","交 通","團 隊","異 常","8 0","安 打","他 的","A pp","9 0","行 政","3 6","c h","行 為","一 些","p s","努 力","香 港","避 免","先 發","法 院","基 金","中 華","核 酸","引 發","專 業","推 薦","戴 口罩","年 的","改 善","不 斷","疾 病","告 知","經 過","能 夠","來 說","這 種","擁 有","人 數","體 驗","r e","駕 駛","採檢 後","下 來","搭 乘","上 午","社 區","a d","施 打","政 治","價 格","幫 助","減 少","作 為","P ro","第 三","以 來","全 國","a s","董 事","臺 灣","調 整","空 間","包 含","3 5","4 5","機 組","發 文","喜 歡","進 一步","緊 急","案 7","2019 年","透 露","議 員","來 台","提 到","沒 想到","喉嚨 痛","居家 隔離","視 新聞","追 蹤","組 織","人 民","消 息","有 多","有 人","文 章","之 一","積 極","30 多歲女性","掌 握","流 行","工 程","近 日","至 少","貼 文","i l","新 高","新 北市","12 日","由 衛生單位安排","媽 祖","T V","國 小","發 表","解 決","3 7","全 台","i d","挑 戰","會 有","並 且","線 上","紛 紛","住 院","兒 子","10 月","北 部","新 台幣","印尼 籍20","正 式","年 輕","/ /","匡 列","原 本","觀 察","。 「","呼 吸","就 有","蔡 英文","集中檢疫所 檢疫","3 月2","患 者","之 前","再 次","擔 心","檢疫期滿 後","利 用","呼 籲","更 新","2 人","推 動","經 驗","開 發","意 外","三 立","10 日","女 兒","抗 體","來 自","台 股","檢 查","e t","距 離","電 信","第 4","ht t","對 象","立 委","關 注",": //","另 一","台 積","u b","全 身","萬 人","移 工","配 合","方 案","舉 行","明 顯","的 事","會 議","兄 弟","最 近","每 天","引 起","來 源","年 來","集 團","部 長","歲 的","正 常","是 在","控 制","最 大","母親 節","在 臉書","自 由","三立 新聞網","生 產","航 空","雙 方","C t","打 造","肌 肉","全 面","出國日 期","台積 電","I N","應 用","3 8","Ct 值","擔 任","晚 間","女 子","主 管","交 易","這 麼","的 話","加 強","人 士","確 定","的 時候","群 聚","指 數","聲 明","htt ps","想 要","訓 練","澳 洲","達 到","價 值","11 日","小 孩","一 點","階 段","1 日","支 援","紫 色","覺 異常","1 月2","3 月1","局 長","球 隊","邀 請","帶 來","A ir","e d","然 而","資 源","只 能","吸 引","搭 配","取 得","委員 會","正 在","中央 社","公 開","電 話","感 覺","感 謝","電 腦","） 、","有 些","因 應","自 然","家 長","檢 出","再 度","動 物","持有 登","連 續","就 能","拍 攝","投 手","了 一","產 生","期 待","模 式","數 位","考 試","快 速","選 手","法 國","之 外","境 外","鏡 頭","尤 其","隨 著","保 持","發 布","製 造","課 程","這樣 的","至醫院 自費","營 收","案 9","案 例","留 言","負 責","市 長","整 體","晶 片","購 買","爆 發","網 站","音 樂","3 人","億 美元","9 月","供 應","鼻 塞","改 變","） 。","結果 為陰性","設 備","返 台","效 果","實 際","提 高","消費 者","19 日","B S","也 能","連 結","4 月1","成 績","了 嗎","% 。","看 這","會 考","台 鐵","民 視新聞","新 的","根 本","螢 幕","得 到","採 用","領 域","傳 統","漫 畫","先 前","鋒 面","更 是","讓 人","派 出","第 2","in g","o l","突 然","5 00","的 大","這 一","員 警","由衛生單位安排 就醫","太 空","羅 斯","一次 看","外 界","結 束","降 低","疫情 指揮中心","檢疫期 間","u r","入境後至 集中檢疫所檢疫","藝 術","I n","官 方","幾 乎","20 多歲女性","基 本","預 期","主 席","我 的","成 立","讀 書","業 務","粉 絲","專 案","曾 於","評 估","n ew","機 構","年 前","t h","通 知","有 一","oo k","規 劃","考 生","找 到","議 題","有 關","老 闆","痠 痛","同 樣","趙 介","平 均","金 融","統 計","趙介 佑","昨 天","符 合","最 終","i on","一 同","消 毒","出現 發燒","檢 測","3 3","照 顧","N O","班 機","打 擊","之 間","南 部","授 權","東 西","立 即","攻 擊","i g","O S","印尼 籍","有 效","作 品","後 續","生 命","在 地","讓 他","以 下","勞 動","如 此","監 視","呈 現","咖 啡","確 認","台灣 的","3 9","5 大","競 爭","危 險","德 國","時 代","至 今","頭 痛","將 在","2 名","像 是","疑似 症狀","1 例","規 模","附 近","大 量","餐 廳","科 學","重 新","民 主","編 輯","發 言","韓 國","順 利","不適 症狀","節 目","腹 瀉","機組 員","反 應","TV BS","後 來","記者 會","男 童","S t","限 制","作 業","30 0","機 車","一 年","以 為","球 員","高 達","血 清","整理 包","感 到","電 動","消 防","恢 復","2 例","4 8","俄 羅斯","畢 業","質 疑","檢疫期滿前 採檢","免 費","電 視","清 楚"]}}