{"version":"1.0","truncation":null,"padding":null,"added_tokens":[{"id":0,"special":true,"content":"[UNK]","single_word":false,"lstrip":false,"rstrip":false,"normalized":false},{"id":1,"special":true,"content":"[CLS]","single_word":false,"lstrip":false,"rstrip":false,"normalized":false},{"id":2,"special":true,"content":"[SEP]","single_word":false,"lstrip":false,"rstrip":false,"normalized":false},{"id":3,"special":true,"content":"[PAD]","single_word":false,"lstrip":false,"rstrip":false,"normalized":false},{"id":4,"special":true,"content":"[MASK]","single_word":false,"lstrip":false,"rstrip":false,"normalized":false}],"normalizer":null,"pre_tokenizer":{"type":"Whitespace"},"post_processor":null,"decoder":null,"model":{"type":"BPE","dropout":null,"unk_token":"[UNK]","continuing_subword_prefix":null,"end_of_word_suffix":null,"fuse_unk":false,"vocab":{"[UNK]":0,"[CLS]":1,"[SEP]":2,"[PAD]":3,"[MASK]":4,"\b":5,"\u001d":6,"!":7,"\"":8,"#":9,"$":10,"%":11,"&":12,"'":13,"(":14,")":15,"*":16,"+":17,",":18,"-":19,".":20,"/":21,"0":22,"1":23,"2":24,"3":25,"4":26,"5":27,"6":28,"7":29,"8":30,"9":31,":":32,";":33,"<":34,"=":35,">":36,"?":37,"@":38,"A":39,"B":40,"C":41,"D":42,"E":43,"F":44,"G":45,"H":46,"I":47,"J":48,"K":49,"L":50,"M":51,"N":52,"O":53,"P":54,"Q":55,"R":56,"S":57,"T":58,"U":59,"V":60,"W":61,"X":62,"Y":63,"Z":64,"[":65,"\\":66,"]":67,"^":68,"_":69,"`":70,"a":71,"b":72,"c":73,"d":74,"e":75,"f":76,"g":77,"h":78,"i":79,"j":80,"k":81,"l":82,"m":83,"n":84,"o":85,"p":86,"q":87,"r":88,"s":89,"t":90,"u":91,"v":92,"w":93,"x":94,"y":95,"z":96,"{":97,"|":98,"}":99,"~":100,"£":101,"©":102,"ª":103,"«":104,"¬":105,"­":106,"®":107,"°":108,"±":109,"²":110,"³":111,"´":112,"µ":113,"·":114,"º":115,"»":116,"¼":117,"½":118,"Á":119,"Â":120,"Ä":121,"Å":122,"È":123,"É":124,"Ê":125,"Ð":126,"Ó":127,"Ö":128,"×":129,"Ø":130,"Ü":131,"ß":132,"à":133,"á":134,"â":135,"ã":136,"ä":137,"å":138,"æ":139,"ç":140,"è":141,"é":142,"ë":143,"ì":144,"í":145,"î":146,"ï":147,"ñ":148,"ò":149,"ó":150,"ô":151,"õ":152,"ö":153,"÷":154,"ù":155,"ú":156,"û":157,"ü":158,"ý":159,"Ā":160,"ā":161,"ă":162,"ą":163,"ć":164,"Č":165,"č":166,"đ":167,"ē":168,"ė":169,"ę":170,"ě":171,"ğ":172,"ģ":173,"ī":174,"İ":175,"ı":176,"Ł":177,"ł":178,"ń":179,"ņ":180,"ň":181,"ŋ":182,"ō":183,"ő":184,"ř":185,"ś":186,"Ş":187,"ş":188,"Š":189,"š":190,"ū":191,"ů":192,"ű":193,"ź":194,"ż":195,"ž":196,"ƒ":197,"ư":198,"ǔ":199,"ɑ":200,"ɔ":201,"ə":202,"ɚ":203,"ɛ":204,"ɝ":205,"ɞ":206,"ɪ":207,"ʃ":208,"ʊ":209,"ʌ":210,"ʚ":211,"ˇ":212,"ˊ":213,"ˋ":214,"˘":215,"˙":216,"˚":217,"ˣ":218,"̀":219,"́":220,"̄":221,"̆":222,"̍":223,"̧":224,"͟":225,"͵":226,"Β":227,"Δ":228,"Ο":229,"Σ":230,"α":231,"β":232,"γ":233,"δ":234,"η":235,"θ":236,"μ":237,"π":238,"ω":239,"Ѕ":240,"А":241,"Б":242,"В":243,"Г":244,"Д":245,"З":246,"И":247,"К":248,"М":249,"Н":250,"О":251,"П":252,"Р":253,"С":254,"Т":255,"У":256,"Ф":257,"Х":258,"Ч":259,"Ы":260,"Э":261,"Я":262,"а":263,"б":264,"в":265,"г":266,"д":267,"е":268,"ж":269,"з":270,"и":271,"й":272,"к":273,"л":274,"м":275,"н":276,"о":277,"п":278,"р":279,"с":280,"т":281,"у":282,"ф":283,"х":284,"ц":285,"ч":286,"ш":287,"щ":288,"ы":289,"ь":290,"э":291,"ю":292,"я":293,"ё":294,"ं":295,"ई":296,"ए":297,"ग":298,"च":299,"ज":300,"भ":301,"म":302,"य":303,"र":304,"ल":305,"ा":306,"ी":307,"े":308,"ก":309,"ข":310,"ค":311,"ง":312,"จ":313,"ช":314,"ซ":315,"ด":316,"ต":317,"ท":318,"น":319,"บ":320,"ป":321,"ฟ":322,"ภ":323,"ม":324,"ย":325,"ร":326,"ล":327,"ว":328,"ส":329,"ห":330,"อ":331,"ะ":332,"ั":333,"า":334,"ิ":335,"ี":336,"ื":337,"ุ":338,"ู":339,"เ":340,"แ":341,"ไ":342,"็":343,"่":344,"้":345,"๊":346,"๋":347,"ဆ":348,"န":349,"မ":350,"လ":351,"ာ":352,"ီ":353,"ူ":354,"်":355,"ြ":356,"ბ":357,"თ":358,"ი":359,"ლ":360,"ს":361,"ᄀ":362,"ᄁ":363,"ᄂ":364,"ᄃ":365,"ᄄ":366,"ᄅ":367,"ᄆ":368,"ᄇ":369,"ᄈ":370,"ᄉ":371,"ᄊ":372,"ᄋ":373,"ᄌ":374,"ᄍ":375,"ᄎ":376,"ᄏ":377,"ᄐ":378,"ᄑ":379,"ᄒ":380,"ᅡ":381,"ᅢ":382,"ᅣ":383,"ᅥ":384,"ᅦ":385,"ᅧ":386,"ᅨ":387,"ᅩ":388,"ᅪ":389,"ᅬ":390,"ᅭ":391,"ᅮ":392,"ᅯ":393,"ᅰ":394,"ᅱ":395,"ᅲ":396,"ᅳ":397,"ᅴ":398,"ᅵ":399,"ᆨ":400,"ᆫ":401,"ᆭ":402,"ᆯ":403,"ᆷ":404,"ᆸ":405,"ᆻ":406,"ᆼ":407,"ᇂ":408,"ᐡ":409,"ᗩ":410,"ᵉ":411,"ṇ":412,"ạ":413,"Ả":414,"ấ":415,"ầ":416,"ẹ":417,"ẽ":418,"ế":419,"ề":420,"ễ":421,"ị":422,"ồ":423,"ộ":424,"ớ":425,"ờ":426,"ợ":427,"ử":428,"ữ":429,"​":430,"‌":431,"‍":432,"‎":433,"‐":434,"‑":435,"–":436,"—":437,"―":438,"‘":439,"’":440,"“":441,"”":442,"•":443,"…":444,"‧":445,"‪":446,"‬":447,"‭":448,"‰":449,"′":450,"″":451,"‵":452,"※":453,"‼":454,"⁄":455,"⁠":456,"⁣":457,"⁶":458,"⁷":459,"₂":460,"€":461,"⃟":462,"⃣":463,"℃":464,"℅":465,"ℓ":466,"℠":467,"™":468,"⅓":469,"Ⅰ":470,"Ⅱ":471,"Ⅲ":472,"Ⅹ":473,"Ↄ":474,"←":475,"↑":476,"→":477,"↓":478,"↘":479,"⇒":480,"∀":481,"−":482,"∕":483,"∞":484,"∴":485,"∶":486,"∼":487,"≈":488,"≠":489,"≤":490,"≥":491,"≦":492,"≧":493,"⊙":494,"⋯":495,"⏰":496,"①":497,"②":498,"③":499,"④":500,"⑤":501,"⑥":502,"⑦":503,"⑧":504,"⑴":505,"⑵":506,"⑶":507,"Ⓞ":508,"ⓓ":509,"─":510,"│":511,"╭":512,"╮":513,"╯":514,"╰":515,"╱":516,"╳":517,"▇":518,"█":519,"▉":520,"▊":521,"▋":522,"▌":523,"▍":524,"▎":525,"■":526,"□":527,"▪":528,"▲":529,"△":530,"▶":531,"▷":532,"▸":533,"►":534,"▼":535,"◀":536,"◆":537,"◉":538,"○":539,"◎":540,"●":541,"◢":542,"◤":543,"◯":544,"☀":545,"★":546,"☆":547,"☐":548,"☑":549,"☞":550,"☠":551,"☯":552,"☺":553,"♀":554,"♂":555,"♡":556,"♥":557,"♦":558,"♪":559,"♬":560,"♻":561,"⚖":562,"⚠":563,"⚡":564,"⛄":565,"⛔":566,"⛱":567,"⛸":568,"⛹":569,"⛽":570,"✈":571,"✊":572,"✋":573,"✌":574,"✎":575,"✔":576,"✕":577,"✝":578,"✥":579,"✦":580,"✨":581,"✸":582,"✿":583,"❄":584,"❌":585,"❔":586,"❗":587,"❘":588,"❣":589,"❤":590,"❶":591,"❷":592,"❸":593,"❹":594,"❺":595,"❻":596,"❼":597,"❽":598,"❾":599,"➊":600,"➋":601,"➔":602,"➡":603,"➤":604,"⠀":605,"⬇":606,"⭐":607,"⭕":608,"⸺":609,"⺠":610,"⻆":611,"⻑":612,"⻛":613,"⼀":614,"⼆":615,"⼈":616,"⼊":617,"⼋":618,"⼑":619,"⼒":620,"⼗":621,"⼜":622,"⼝":623,"⼟":624,"⼠":625,"⼤":626,"⼦":627,"⼩":628,"⼭":629,"⼯":630,"⼼":631,"⼾":632,"⼿":633,"⽂":634,"⽅":635,"⽇":636,"⽉":637,"⽐":638,"⽕":639,"⽗":640,"⽣":641,"⽤":642,"⽥":643,"⽩":644,"⽬":645,"⽯":646,"⽰":647,"⽴":648,"⽹":649,"⽽":650,"⾁":651,"⾃":652,"⾄":653,"⾊":654,"⾏":655,"⾓":656,"⾛":657,"⾜":658,"⾝":659,"⾦":660,"⾨":661,"⾬":662,"⾸":663,"⾼":664,"⿈":665,"⿊":666,"⿎":667,"、":668,"。":669,"々":670,"〇":671,"〈":672,"〉":673,"《":674,"》":675,"「":676,"」":677,"『":678,"』":679,"【":680,"】":681,"〒":682,"〔":683,"〕":684,"〖":685,"〗":686,"〜":687,"〝":688,"〞":689,"〡":690,"ぁ":691,"あ":692,"ぃ":693,"い":694,"う":695,"え":696,"ぉ":697,"お":698,"か":699,"が":700,"き":701,"ぎ":702,"く":703,"ぐ":704,"け":705,"げ":706,"こ":707,"ご":708,"さ":709,"ざ":710,"し":711,"じ":712,"す":713,"ず":714,"せ":715,"ぜ":716,"そ":717,"ぞ":718,"た":719,"だ":720,"ち":721,"っ":722,"つ":723,"づ":724,"て":725,"で":726,"と":727,"ど":728,"な":729,"に":730,"ぬ":731,"ね":732,"の":733,"は":734,"ば":735,"ぱ":736,"ひ":737,"び":738,"ぴ":739,"ふ":740,"ぶ":741,"ぷ":742,"へ":743,"べ":744,"ぺ":745,"ほ":746,"ぼ":747,"ぽ":748,"ま":749,"み":750,"む":751,"め":752,"も":753,"ゃ":754,"や":755,"ゅ":756,"ゆ":757,"ょ":758,"よ":759,"ら":760,"り":761,"る":762,"れ":763,"ろ":764,"わ":765,"ゐ":766,"を":767,"ん":768,"゙":769,"゚":770,"ァ":771,"ア":772,"ィ":773,"イ":774,"ウ":775,"ェ":776,"エ":777,"ォ":778,"オ":779,"カ":780,"ガ":781,"キ":782,"ギ":783,"ク":784,"グ":785,"ケ":786,"ゲ":787,"コ":788,"ゴ":789,"サ":790,"ザ":791,"シ":792,"ジ":793,"ス":794,"ズ":795,"セ":796,"ゼ":797,"ソ":798,"タ":799,"ダ":800,"チ":801,"ヂ":802,"ッ":803,"ツ":804,"テ":805,"デ":806,"ト":807,"ド":808,"ナ":809,"ニ":810,"ヌ":811,"ネ":812,"ノ":813,"ハ":814,"バ":815,"パ":816,"ヒ":817,"ビ":818,"ピ":819,"フ":820,"ブ":821,"プ":822,"ヘ":823,"ベ":824,"ペ":825,"ホ":826,"ボ":827,"ポ":828,"マ":829,"ミ":830,"ム":831,"メ":832,"モ":833,"ャ":834,"ヤ":835,"ュ":836,"ユ":837,"ョ":838,"ヨ":839,"ラ":840,"リ":841,"ル":842,"レ":843,"ロ":844,"ワ":845,"ン":846,"ヴ":847,"ヶ":848,"・":849,"ー":850,"ヽ":851,"ㄅ":852,"ㄆ":853,"ㄇ":854,"ㄈ":855,"ㄉ":856,"ㄊ":857,"ㄋ":858,"ㄌ":859,"ㄍ":860,"ㄎ":861,"ㄏ":862,"ㄐ":863,"ㄑ":864,"ㄒ":865,"ㄓ":866,"ㄔ":867,"ㄕ":868,"ㄖ":869,"ㄗ":870,"ㄘ":871,"ㄙ":872,"ㄚ":873,"ㄛ":874,"ㄜ":875,"ㄝ":876,"ㄞ":877,"ㄟ":878,"ㄠ":879,"ㄡ":880,"ㄢ":881,"ㄣ":882,"ㄤ":883,"ㄥ":884,"ㄧ":885,"ㄨ":886,"ㄩ":887,"ㅅ":888,"ㅇ":889,"ㅈ":890,"ㅋ":891,"ㅎ":892,"ㅜ":893,"ㅠ":894,"㈡":895,"㈥":896,"㊃":897,"㊅":898,"㊐":899,"㎎":900,"㖔":901,"㗎":902,"㚬":903,"㨗":904,"㩦":905,"㮔":906,"㵢":907,"㷧":908,"㷫":909,"㹴":910,"㼈":911,"䁐":912,"䅲":913,"䓬":914,"䕶":915,"䠷":916,"䡗":917,"䭲":918,"䴉":919,"一":920,"丁":921,"七":922,"丅":923,"万":924,"丈":925,"三":926,"上":927,"下":928,"不":929,"与":930,"丐":931,"丑":932,"且":933,"丕":934,"世":935,"丘":936,"丙":937,"丞":938,"丟":939,"两":940,"並":941,"丨":942,"个":943,"丫":944,"中":945,"丰":946,"串":947,"丶":948,"丸":949,"丹":950,"为":951,"主":952,"丼":953,"丿":954,"乃":955,"久":956,"么":957,"之":958,"乍":959,"乎":960,"乏":961,"乒":962,"乓":963,"乖":964,"乗":965,"乘":966,"乙":967,"九":968,"乞":969,"也":970,"乩":971,"乳":972,"乾":973,"亀":974,"亁":975,"亂":976,"了":977,"予":978,"争":979,"事":980,"二":981,"于":982,"云":983,"互":984,"五":985,"井":986,"亘":987,"亙":988,"些":989,"亜":990,"亞":991,"亟":992,"亡":993,"亢":994,"交":995,"亥":996,"亦":997,"亨":998,"享":999,"京":1000,"亭":1001,"亮":1002,"亲":1003,"亳":1004,"人":1005,"亻":1006,"什":1007,"仁":1008,"仄":1009,"仆":1010,"仇":1011,"今":1012,"介":1013,"仍":1014,"仏":1015,"仔":1016,"仕":1017,"他":1018,"仗":1019,"付":1020,"仙":1021,"仝":1022,"仞":1023,"仟":1024,"代":1025,"令":1026,"以":1027,"仨":1028,"仰":1029,"仲":1030,"件":1031,"价":1032,"任":1033,"份":1034,"仿":1035,"企":1036,"伃":1037,"伉":1038,"伊":1039,"伍":1040,"伎":1041,"伏":1042,"伐":1043,"休":1044,"伕":1045,"众":1046,"伙":1047,"会":1048,"伝":1049,"伯":1050,"估":1051,"伴":1052,"伶":1053,"伸":1054,"伺":1055,"似":1056,"伽":1057,"佃":1058,"但":1059,"佇":1060,"佈":1061,"位":1062,"低":1063,"住":1064,"佐":1065,"佑":1066,"体":1067,"佔":1068,"何":1069,"佗":1070,"佘":1071,"余":1072,"佚":1073,"佛":1074,"作":1075,"佝":1076,"佞":1077,"佟":1078,"你":1079,"佢":1080,"佣":1081,"佤":1082,"佩":1083,"佬":1084,"佮":1085,"佯":1086,"佰":1087,"佳":1088,"併":1089,"佶":1090,"佻":1091,"佼":1092,"佾":1093,"使":1094,"侃":1095,"侄":1096,"來":1097,"侈":1098,"侊":1099,"例":1100,"侍":1101,"侏":1102,"侑":1103,"侖":1104,"侗":1105,"侘":1106,"供":1107,"依":1108,"価":1109,"侮":1110,"侯":1111,"侵":1112,"侶":1113,"侷":1114,"便":1115,"俁":1116,"係":1117,"促":1118,"俄":1119,"俊":1120,"俋":1121,"俍":1122,"俎":1123,"俏":1124,"俐":1125,"俑":1126,"俗":1127,"俘":1128,"俚":1129,"保":1130,"俞":1131,"俟":1132,"俠":1133,"信":1134,"俢":1135,"俣":1136,"俤":1137,"俥":1138,"俬":1139,"修":1140,"俯":1141,"俱":1142,"俳":1143,"俵":1144,"俸":1145,"俺":1146,"俾":1147,"倆":1148,"倉":1149,"個":1150,"倌":1151,"倍":1152,"倏":1153,"們":1154,"倒":1155,"倔":1156,"倖":1157,"倘":1158,"候":1159,"倚":1160,"倜":1161,"倞":1162,"借":1163,"倡":1164,"倢":1165,"値":1166,"倦":1167,"倨":1168,"倩":1169,"倪":1170,"倫":1171,"倬":1172,"倭":1173,"倰":1174,"值":1175,"偃":1176,"假":1177,"偈":1178,"偉":1179,"偌":1180,"偎":1181,"偏":1182,"偒":1183,"偕":1184,"做":1185,"停":1186,"健":1187,"偱":1188,"偲":1189,"側":1190,"偵":1191,"偶":1192,"偷":1193,"偽":1194,"傀":1195,"傅":1196,"傈":1197,"傍":1198,"傑":1199,"傕":1200,"傘":1201,"備":1202,"傢":1203,"傣":1204,"催":1205,"傭":1206,"傲":1207,"傳":1208,"債":1209,"傷":1210,"傻":1211,"傾":1212,"僂":1213,"僅":1214,"僊":1215,"像":1216,"僑":1217,"僕":1218,"僚":1219,"僥":1220,"僧":1221,"僩":1222,"僬":1223,"僭":1224,"僮":1225,"僱":1226,"僳":1227,"僵":1228,"價":1229,"僻":1230,"僾":1231,"儀":1232,"儁":1233,"儂":1234,"億":1235,"儆":1236,"儉":1237,"儋":1238,"儎":1239,"儐":1240,"儒":1241,"儕":1242,"儘":1243,"償":1244,"儡":1245,"儣":1246,"優":1247,"儲":1248,"儷":1249,"儸":1250,"儻":1251,"儼":1252,"儿":1253,"兀":1254,"允":1255,"元":1256,"兄":1257,"充":1258,"兆":1259,"兇":1260,"先":1261,"光":1262,"克":1263,"兌":1264,"免":1265,"児":1266,"兑":1267,"兒":1268,"兔":1269,"兗":1270,"党":1271,"兜":1272,"兢":1273,"入":1274,"內":1275,"全":1276,"兩":1277,"兪":1278,"八":1279,"公":1280,"六":1281,"兮":1282,"共":1283,"关":1284,"兴":1285,"兵":1286,"其":1287,"具":1288,"典":1289,"兹":1290,"养":1291,"兼":1292,"冀":1293,"内":1294,"円":1295,"冇":1296,"冉":1297,"冊":1298,"册":1299,"再":1300,"冏":1301,"冑":1302,"冒":1303,"冕":1304,"冗":1305,"写":1306,"冚":1307,"冠":1308,"冢":1309,"冤":1310,"冥":1311,"冧":1312,"冨":1313,"冪":1314,"冬":1315,"冰":1316,"冲":1317,"决":1318,"冴":1319,"况":1320,"冶":1321,"冷":1322,"冼":1323,"冽":1324,"凃":1325,"凄":1326,"凅":1327,"准":1328,"凈":1329,"凉":1330,"凊":1331,"凋":1332,"凌":1333,"凍":1334,"减":1335,"凑":1336,"凖":1337,"凜":1338,"凝":1339,"几":1340,"凡":1341,"処":1342,"凪":1343,"凭":1344,"凰":1345,"凱":1346,"凳":1347,"凶":1348,"凸":1349,"凹":1350,"出":1351,"函":1352,"刀":1353,"刁":1354,"刃":1355,"分":1356,"切":1357,"刈":1358,"刊":1359,"刎":1360,"刑":1361,"划":1362,"列":1363,"初":1364,"判":1365,"別":1366,"刨":1367,"利":1368,"刪":1369,"别":1370,"刮":1371,"到":1372,"制":1373,"刷":1374,"券":1375,"刺":1376,"刻":1377,"剁":1378,"剃":1379,"則":1380,"剉":1381,"削":1382,"剋":1383,"剌":1384,"前":1385,"剎":1386,"剔":1387,"剖":1388,"剛":1389,"剜":1390,"剝":1391,"剥":1392,"剩":1393,"剪":1394,"剮":1395,"副":1396,"割":1397,"創":1398,"剷":1399,"剽":1400,"剿":1401,"劃":1402,"劇":1403,"劈":1404,"劉":1405,"劊":1406,"劍":1407,"劏":1408,"劑":1409,"力":1410,"功":1411,"加":1412,"劣":1413,"动":1414,"助":1415,"努":1416,"劫":1417,"劬":1418,"劭":1419,"励":1420,"労":1421,"劵":1422,"効":1423,"劾":1424,"势":1425,"勁":1426,"勃":1427,"勅":1428,"勇":1429,"勉":1430,"勍":1431,"勒":1432,"動":1433,"勗":1434,"勘":1435,"務":1436,"勛":1437,"勝":1438,"勞":1439,"募":1440,"勠":1441,"勢":1442,"勤":1443,"勧":1444,"勲":1445,"勳":1446,"勵":1447,"勸":1448,"勺":1449,"勻":1450,"勾":1451,"勿":1452,"包":1453,"匆":1454,"匈":1455,"匍":1456,"匏":1457,"匐":1458,"匕":1459,"化":1460,"北":1461,"匙":1462,"匜":1463,"匝":1464,"匠":1465,"匡":1466,"匣":1467,"匪":1468,"匭":1469,"匯":1470,"匱":1471,"匹":1472,"区":1473,"医":1474,"匾":1475,"匿":1476,"區":1477,"十":1478,"千":1479,"卅":1480,"升":1481,"午":1482,"卉":1483,"半":1484,"卍":1485,"卑":1486,"卒":1487,"卓":1488,"協":1489,"单":1490,"南":1491,"単":1492,"博":1493,"卜":1494,"卞":1495,"占":1496,"卡":1497,"卦":1498,"卧":1499,"卯":1500,"印":1501,"危":1502,"即":1503,"却":1504,"卵":1505,"卷":1506,"卸":1507,"卹":1508,"卺":1509,"卻":1510,"卿":1511,"厄":1512,"厓":1513,"厘":1514,"厚":1515,"厝":1516,"原":1517,"厠":1518,"厥":1519,"厦":1520,"厨":1521,"厭":1522,"厲":1523,"厶":1524,"去":1525,"叁":1526,"参":1527,"參":1528,"又":1529,"叉":1530,"及":1531,"友":1532,"双":1533,"反":1534,"収":1535,"发":1536,"叔":1537,"取":1538,"受":1539,"变":1540,"叙":1541,"叛":1542,"叟":1543,"叠":1544,"叡":1545,"叢":1546,"口":1547,"古":1548,"句":1549,"另":1550,"叨":1551,"叩":1552,"只":1553,"叫":1554,"召":1555,"叭":1556,"叮":1557,"可":1558,"台":1559,"叱":1560,"史":1561,"右":1562,"叵":1563,"叶":1564,"号":1565,"司":1566,"叻":1567,"叼":1568,"吁":1569,"吃":1570,"各":1571,"吆":1572,"合":1573,"吉":1574,"吊":1575,"吋":1576,"同":1577,"名":1578,"后":1579,"吏":1580,"吐":1581,"向":1582,"吒":1583,"吔":1584,"君":1585,"吝":1586,"吞":1587,"吟":1588,"吠":1589,"吡":1590,"否":1591,"吧":1592,"吩":1593,"含":1594,"吭":1595,"吮":1596,"吱":1597,"吲":1598,"吳":1599,"吵":1600,"吶":1601,"吸":1602,"吹":1603,"吻":1604,"吼":1605,"吾":1606,"吿":1607,"呀":1608,"呂":1609,"呃":1610,"呄":1611,"呆":1612,"呈":1613,"呉":1614,"告":1615,"呎":1616,"呐":1617,"呢":1618,"呣":1619,"呤":1620,"呦":1621,"周":1622,"呱":1623,"味":1624,"呵":1625,"呶":1626,"呷":1627,"呸":1628,"呻":1629,"呼":1630,"命":1631,"咀":1632,"咁":1633,"咄":1634,"咆":1635,"咋":1636,"和":1637,"咎":1638,"咏":1639,"咐":1640,"咒":1641,"咔":1642,"咕":1643,"咖":1644,"咗":1645,"咘":1646,"咚":1647,"咤":1648,"咥":1649,"咦":1650,"咧":1651,"咨":1652,"咩":1653,"咪":1654,"咫":1655,"咬":1656,"咯":1657,"咱":1658,"咲":1659,"咳":1660,"咶":1661,"咸":1662,"咻":1663,"咽":1664,"咾":1665,"咿":1666,"哀":1667,"品":1668,"哄":1669,"哆":1670,"哇":1671,"哈":1672,"哉":1673,"哋":1674,"响":1675,"哎":1676,"哏":1677,"哒":1678,"哖":1679,"哚":1680,"哞":1681,"哟":1682,"員":1683,"哥":1684,"哦":1685,"哧":1686,"哨":1687,"哩":1688,"哪":1689,"哭":1690,"哮":1691,"哲":1692,"哺":1693,"哼":1694,"哽":1695,"唁":1696,"唄":1697,"唅":1698,"唆":1699,"唇":1700,"唉":1701,"唏":1702,"唐":1703,"唑":1704,"唔":1705,"唦":1706,"唧":1707,"唬":1708,"售":1709,"唯":1710,"唰":1711,"唱":1712,"唳":1713,"唷":1714,"唸":1715,"唾":1716,"啃":1717,"啄":1718,"商":1719,"啉":1720,"啊":1721,"問":1722,"啓":1723,"啕":1724,"啖":1725,"啜":1726,"啞":1727,"啟":1728,"啡":1729,"啣":1730,"啤":1731,"啥":1732,"啦":1733,"啪":1734,"啲":1735,"啵":1736,"啶":1737,"啷":1738,"啻":1739,"啼":1740,"啾":1741,"喀":1742,"喁":1743,"喂":1744,"喃":1745,"善":1746,"喆":1747,"喇":1748,"喉":1749,"喊":1750,"喋":1751,"喎":1752,"喏":1753,"喔":1754,"喘":1755,"喙":1756,"喚":1757,"喜":1758,"喝":1759,"喧":1760,"喨":1761,"喪":1762,"喫":1763,"喬":1764,"單":1765,"喱":1766,"喲":1767,"喳":1768,"喵":1769,"営":1770,"喹":1771,"喺":1772,"喻":1773,"喽":1774,"嗄":1775,"嗅":1776,"嗆":1777,"嗇":1778,"嗎":1779,"嗑":1780,"嗒":1781,"嗓":1782,"嗔":1783,"嗖":1784,"嗚":1785,"嗜":1786,"嗝":1787,"嗡":1788,"嗣":1789,"嗤":1790,"嗦":1791,"嗨":1792,"嗩":1793,"嗯":1794,"嗰":1795,"嗲":1796,"嗶":1797,"嗷":1798,"嗽":1799,"嘀":1800,"嘅":1801,"嘆":1802,"嘈":1803,"嘉":1804,"嘌":1805,"嘍":1806,"嘎":1807,"嘒":1808,"嘔":1809,"嘖":1810,"嘗":1811,"嘛":1812,"嘜":1813,"嘞":1814,"嘟":1815,"嘧":1816,"嘩":1817,"嘮":1818,"嘯":1819,"嘰":1820,"嘲":1821,"嘴":1822,"嘶":1823,"嘸":1824,"嘹":1825,"嘻":1826,"嘿":1827,"噁":1828,"噌":1829,"噍":1830,"噎":1831,"噓":1832,"噔":1833,"噗":1834,"噘":1835,"噙":1836,"噚":1837,"噠":1838,"噢":1839,"噤":1840,"噥":1841,"器":1842,"噩":1843,"噪":1844,"噬":1845,"噯":1846,"噱":1847,"噴":1848,"噶":1849,"噸":1850,"噹":1851,"噻":1852,"嚀":1853,"嚅":1854,"嚇":1855,"嚎":1856,"嚏":1857,"嚐":1858,"嚓":1859,"嚕":1860,"嚙":1861,"嚞":1862,"嚟":1863,"嚥":1864,"嚨":1865,"嚮":1866,"嚴":1867,"嚶":1868,"嚷":1869,"嚼":1870,"囁":1871,"囂":1872,"囈":1873,"囉":1874,"囊":1875,"囍":1876,"囑":1877,"囓":1878,"囔":1879,"囚":1880,"四":1881,"囝":1882,"回":1883,"囟":1884,"因":1885,"囡":1886,"団":1887,"囤":1888,"囧":1889,"囪":1890,"囫":1891,"困":1892,"囱":1893,"囲":1894,"図":1895,"囷":1896,"囹":1897,"固":1898,"国":1899,"囿":1900,"圃":1901,"圄":1902,"圇":1903,"圈":1904,"國":1905,"圍":1906,"圏":1907,"園":1908,"圓":1909,"圖":1910,"團":1911,"圜":1912,"土":1913,"在":1914,"圩":1915,"圭":1916,"圮":1917,"地":1918,"圳":1919,"圻":1920,"圾":1921,"址":1922,"坂":1923,"均":1924,"坊":1925,"坌":1926,"坍":1927,"坎":1928,"坏":1929,"坐":1930,"坑":1931,"坡":1932,"坢":1933,"坣":1934,"坤":1935,"坦":1936,"坨":1937,"坪":1938,"坯":1939,"坳":1940,"坵":1941,"坷":1942,"垂":1943,"垃":1944,"型":1945,"垚":1946,"垛":1947,"垜":1948,"垠":1949,"垢":1950,"垣":1951,"垫":1952,"垮":1953,"垵":1954,"垻":1955,"埀":1956,"埂":1957,"埃":1958,"埆":1959,"埈":1960,"埋":1961,"城":1962,"埏":1963,"埔":1964,"埕":1965,"域":1966,"埠":1967,"埤":1968,"埨":1969,"埭":1970,"埴":1971,"執":1972,"埸":1973,"培":1974,"基":1975,"埼":1976,"堀":1977,"堂":1978,"堃":1979,"堅":1980,"堆":1981,"堇":1982,"堉":1983,"堊":1984,"堡":1985,"堤":1986,"堪":1987,"堯":1988,"堰":1989,"報":1990,"場":1991,"堵":1992,"堺":1993,"塊":1994,"塌":1995,"塍":1996,"塏":1997,"塑":1998,"塔":1999,"塗":2000,"塘":2001,"塚":2002,"塞":2003,"塡":2004,"塢":2005,"塩":2006,"填":2007,"塭":2008,"塱":2009,"塵":2010,"塹":2011,"塾":2012,"墀":2013,"境":2014,"墅":2015,"墉":2016,"墊":2017,"墓":2018,"増":2019,"墘":2020,"墜":2021,"增":2022,"墟":2023,"墣":2024,"墨":2025,"墩":2026,"墮":2027,"墳":2028,"墶":2029,"墻":2030,"墾":2031,"壁":2032,"壅":2033,"壇":2034,"壑":2035,"壓":2036,"壕":2037,"壘":2038,"壞":2039,"壟":2040,"壠":2041,"壢":2042,"壤":2043,"壩":2044,"士":2045,"壬":2046,"壮":2047,"壯":2048,"売":2049,"壶":2050,"壹":2051,"壺":2052,"壼":2053,"壽":2054,"夀":2055,"夆":2056,"変":2057,"夌":2058,"复":2059,"夏":2060,"夐":2061,"夔":2062,"夕":2063,"外":2064,"夙":2065,"多":2066,"夜":2067,"够":2068,"夠":2069,"夢":2070,"夤":2071,"夥":2072,"大":2073,"天":2074,"太":2075,"夫":2076,"夭":2077,"央":2078,"夯":2079,"失":2080,"夲":2081,"夷":2082,"夸":2083,"夾":2084,"奄":2085,"奇":2086,"奈":2087,"奉":2088,"奎":2089,"奏":2090,"奐":2091,"契":2092,"奔":2093,"奕":2094,"套":2095,"奘":2096,"奚":2097,"奠":2098,"奢":2099,"奥":2100,"奧":2101,"奨":2102,"奩":2103,"奪":2104,"奬":2105,"奮":2106,"女":2107,"奴":2108,"奶":2109,"奷":2110,"奸":2111,"她":2112,"奼":2113,"好":2114,"妁":2115,"如":2116,"妃":2117,"妄":2118,"妊":2119,"妍":2120,"妏":2121,"妒":2122,"妓":2123,"妖":2124,"妘":2125,"妙":2126,"妝":2127,"妞":2128,"妡":2129,"妣":2130,"妤":2131,"妥":2132,"妨":2133,"妮":2134,"妯":2135,"妲":2136,"妳":2137,"妹":2138,"妺":2139,"妻":2140,"妽":2141,"妾":2142,"姆":2143,"姈":2144,"姉":2145,"姊":2146,"始":2147,"姍":2148,"姐":2149,"姑":2150,"姓":2151,"委":2152,"姙":2153,"姚":2154,"姜":2155,"姝":2156,"姣":2157,"姥":2158,"姦":2159,"姨":2160,"姪":2161,"姫":2162,"姬":2163,"姮":2164,"姵":2165,"姸":2166,"姻":2167,"姼":2168,"姿":2169,"威":2170,"娃":2171,"娉":2172,"娌":2173,"娑":2174,"娓":2175,"娗":2176,"娘":2177,"娛":2178,"娜":2179,"娞":2180,"娟":2181,"娠":2182,"娣":2183,"娥":2184,"娩":2185,"娪":2186,"娳":2187,"娶":2188,"娼":2189,"婀":2190,"婁":2191,"婆":2192,"婉":2193,"婊":2194,"婌":2195,"婕":2196,"婗":2197,"婚":2198,"婞":2199,"婢":2200,"婦":2201,"婧":2202,"婪":2203,"婭":2204,"婴":2205,"婷":2206,"婿":2207,"媁":2208,"媃":2209,"媄":2210,"媒":2211,"媓":2212,"媖":2213,"媗":2214,"媚":2215,"媛":2216,"媜":2217,"媞":2218,"媠":2219,"媧":2220,"媲":2221,"媳":2222,"媽":2223,"媾":2224,"嫁":2225,"嫂":2226,"嫈":2227,"嫉":2228,"嫌":2229,"嫖":2230,"嫗":2231,"嫘":2232,"嫙":2233,"嫚":2234,"嫡":2235,"嫣":2236,"嫦":2237,"嫩":2238,"嫰":2239,"嫲":2240,"嫵":2241,"嫺":2242,"嫻":2243,"嬅":2244,"嬈":2245,"嬉":2246,"嬋":2247,"嬌":2248,"嬗":2249,"嬙":2250,"嬛":2251,"嬝":2252,"嬢":2253,"嬤":2254,"嬪":2255,"嬰":2256,"嬲":2257,"嬴":2258,"嬷":2259,"嬸":2260,"嬿":2261,"孀":2262,"孃":2263,"子":2264,"孑":2265,"孓":2266,"孔":2267,"孕":2268,"孖":2269,"字":2270,"存":2271,"孙":2272,"孚":2273,"孛":2274,"孜":2275,"孝":2276,"孟":2277,"孢":2278,"季":2279,"孤":2280,"孥":2281,"学":2282,"孩":2283,"孫":2284,"孬":2285,"孰":2286,"孱":2287,"孳":2288,"孵":2289,"學":2290,"孺":2291,"孽":2292,"孿":2293,"宀":2294,"它":2295,"宅":2296,"宇":2297,"守":2298,"安":2299,"宋":2300,"完":2301,"宏":2302,"宓":2303,"宕":2304,"宗":2305,"官":2306,"宙":2307,"定":2308,"宛":2309,"宜":2310,"宝":2311,"实":2312,"実":2313,"客":2314,"宣":2315,"室":2316,"宥":2317,"宦":2318,"宫":2319,"宮":2320,"宰":2321,"害":2322,"宴":2323,"宵":2324,"家":2325,"宸":2326,"容":2327,"宿":2328,"寀":2329,"寂":2330,"寃":2331,"寄":2332,"寅":2333,"密":2334,"寇":2335,"富":2336,"寐":2337,"寒":2338,"寓":2339,"寗":2340,"寛":2341,"寝":2342,"寞":2343,"察":2344,"寡":2345,"寢":2346,"寥":2347,"實":2348,"寧":2349,"寨":2350,"審":2351,"寫":2352,"寬":2353,"寮":2354,"寯":2355,"寰":2356,"寳":2357,"寵":2358,"寶":2359,"寸":2360,"对":2361,"寺":2362,"导":2363,"対":2364,"寿":2365,"封":2366,"専":2367,"尃":2368,"射":2369,"将":2370,"將":2371,"專":2372,"尉":2373,"尊":2374,"尋":2375,"對":2376,"導":2377,"小":2378,"少":2379,"尖":2380,"尚":2381,"尢":2382,"尤":2383,"尪":2384,"尬":2385,"就":2386,"尷":2387,"尸":2388,"尹":2389,"尺":2390,"尻":2391,"尼":2392,"尽":2393,"尾":2394,"尿":2395,"局":2396,"屁":2397,"屄":2398,"居":2399,"屆":2400,"屈":2401,"届":2402,"屋":2403,"屌":2404,"屍":2405,"屎":2406,"屏":2407,"屐":2408,"屑":2409,"展":2410,"屜":2411,"属":2412,"屠":2413,"屢":2414,"屣":2415,"層":2416,"履":2417,"屬":2418,"屯":2419,"山":2420,"屴":2421,"屹":2422,"岀":2423,"岌":2424,"岐":2425,"岑":2426,"岔":2427,"岛":2428,"岡":2429,"岩":2430,"岫":2431,"岬":2432,"岭":2433,"岱":2434,"岳":2435,"岷":2436,"岸":2437,"峇":2438,"峋":2439,"峒":2440,"峙":2441,"峟":2442,"峠":2443,"峨":2444,"峪":2445,"峭":2446,"峮":2447,"峯":2448,"峰":2449,"峱":2450,"峴":2451,"島":2452,"峸":2453,"峻":2454,"峽":2455,"崁":2456,"崇":2457,"崎":2458,"崐":2459,"崑":2460,"崔":2461,"崖":2462,"崗":2463,"崙":2464,"崚":2465,"崛":2466,"崢":2467,"崧":2468,"崩":2469,"崳":2470,"崴":2471,"崵":2472,"崽":2473,"嵂":2474,"嵄":2475,"嵇":2476,"嵋":2477,"嵌":2478,"嵎":2479,"嵐":2480,"嵓":2481,"嵗":2482,"嵙":2483,"嵜":2484,"嵩":2485,"嵬":2486,"嵵":2487,"嵿":2488,"嶂":2489,"嶄":2490,"嶇":2491,"嶋":2492,"嶔":2493,"嶙":2494,"嶝":2495,"嶢":2496,"嶸":2497,"嶺":2498,"嶼":2499,"嶽":2500,"巂":2501,"巃":2502,"巋":2503,"巍":2504,"巒":2505,"巓":2506,"巔":2507,"巖":2508,"川":2509,"州":2510,"巡":2511,"巢":2512,"巣":2513,"工":2514,"左":2515,"巧":2516,"巨":2517,"巫":2518,"差":2519,"己":2520,"已":2521,"巳":2522,"巴":2523,"巷":2524,"巹":2525,"巽":2526,"巾":2527,"巿":2528,"市":2529,"布":2530,"帆":2531,"师":2532,"希":2533,"帍":2534,"帑":2535,"帔":2536,"帕":2537,"帖":2538,"帙":2539,"帚":2540,"帛":2541,"帝":2542,"帟":2543,"帥":2544,"師":2545,"席":2546,"帯":2547,"帰":2548,"帳":2549,"帶":2550,"帷":2551,"常":2552,"帽":2553,"幀":2554,"幃":2555,"幄":2556,"幅":2557,"幇":2558,"幌":2559,"幔":2560,"幕":2561,"幗":2562,"幛":2563,"幞":2564,"幟":2565,"幡":2566,"幢":2567,"幣":2568,"幫":2569,"干":2570,"平":2571,"年":2572,"并":2573,"幷":2574,"幸":2575,"幹":2576,"幻":2577,"幼":2578,"幽":2579,"幾":2580,"庀":2581,"庁":2582,"広":2583,"庄":2584,"庇":2585,"床":2586,"庋":2587,"序":2588,"庒":2589,"底":2590,"庖":2591,"店":2592,"庚":2593,"府":2594,"庠":2595,"度":2596,"座":2597,"庫":2598,"庭":2599,"庲":2600,"庵":2601,"庶":2602,"康":2603,"庸":2604,"庹":2605,"庾":2606,"廁":2607,"廂":2608,"廃":2609,"廄":2610,"廈":2611,"廉":2612,"廊":2613,"廋":2614,"廍":2615,"廓":2616,"廔":2617,"廖":2618,"廚":2619,"廝":2620,"廟":2621,"廠":2622,"廡":2623,"廢":2624,"廣":2625,"廬":2626,"廰":2627,"廳":2628,"廵":2629,"延":2630,"廷":2631,"廸":2632,"建":2633,"廿":2634,"弁":2635,"异":2636,"弄":2637,"弈":2638,"弊":2639,"弋":2640,"弌":2641,"式":2642,"弒":2643,"弓":2644,"弔":2645,"引":2646,"弗":2647,"弘":2648,"弛":2649,"弟":2650,"弥":2651,"弦":2652,"弧":2653,"弩":2654,"弭":2655,"弱":2656,"張":2657,"強":2658,"强":2659,"弼":2660,"彆":2661,"彈":2662,"彊":2663,"彌":2664,"彎":2665,"当":2666,"彗":2667,"彙":2668,"彚":2669,"彜":2670,"彝":2671,"彞":2672,"彡":2673,"形":2674,"彣":2675,"彤":2676,"彥":2677,"彦":2678,"彧":2679,"彩":2680,"彪":2681,"彬":2682,"彭":2683,"彰":2684,"影":2685,"彳":2686,"彵":2687,"彷":2688,"役":2689,"彼":2690,"彿":2691,"往":2692,"征":2693,"徂":2694,"待":2695,"徇":2696,"很":2697,"徉":2698,"徊":2699,"律":2700,"後":2701,"徐":2702,"徑":2703,"徒":2704,"徕":2705,"得":2706,"徘":2707,"徙":2708,"徜":2709,"從":2710,"徠":2711,"御":2712,"徧":2713,"徨":2714,"復":2715,"循":2716,"徬":2717,"徭":2718,"微":2719,"徳":2720,"徵":2721,"德":2722,"徹":2723,"徽":2724,"心":2725,"忄":2726,"必":2727,"忌":2728,"忍":2729,"忐":2730,"忑":2731,"忒":2732,"忖":2733,"志":2734,"忘":2735,"忙":2736,"応":2737,"忝":2738,"忠":2739,"忡":2740,"忤":2741,"忪":2742,"快":2743,"忱":2744,"念":2745,"忸":2746,"忻":2747,"忽":2748,"忿":2749,"怀":2750,"怎":2751,"怏":2752,"怒":2753,"怔":2754,"怕":2755,"怖":2756,"怙":2757,"怜":2758,"思":2759,"怠":2760,"怡":2761,"急":2762,"怦":2763,"性":2764,"怨":2765,"怩":2766,"怪":2767,"怫":2768,"怯":2769,"怵":2770,"怹":2771,"恁":2772,"恂":2773,"恃":2774,"恆":2775,"恊":2776,"恋":2777,"恍":2778,"恐":2779,"恒":2780,"恕":2781,"恙":2782,"恢":2783,"恣":2784,"恤":2785,"恥":2786,"恨":2787,"恩":2788,"恪":2789,"恫":2790,"恬":2791,"恭":2792,"息":2793,"恰":2794,"恵":2795,"恿":2796,"悄":2797,"悅":2798,"悉":2799,"悌":2800,"悍":2801,"悒":2802,"悔":2803,"悖":2804,"悚":2805,"悛":2806,"悟":2807,"悠":2808,"患":2809,"悦":2810,"悧":2811,"您":2812,"悩":2813,"悪":2814,"悱":2815,"悲":2816,"悴":2817,"悵":2818,"悶":2819,"悸":2820,"悻":2821,"悼":2822,"悽":2823,"情":2824,"惆":2825,"惇":2826,"惋":2827,"惑":2828,"惕":2829,"惘":2830,"惚":2831,"惜":2832,"惟":2833,"惠":2834,"惡":2835,"惢":2836,"惣":2837,"惦":2838,"惨":2839,"惰":2840,"惱":2841,"想":2842,"惴":2843,"惶":2844,"惹":2845,"惺":2846,"惻":2847,"愁":2848,"愆":2849,"愈":2850,"愉":2851,"愎":2852,"意":2853,"愓":2854,"愔":2855,"愕":2856,"愚":2857,"愛":2858,"愜":2859,"感":2860,"愣":2861,"愧":2862,"愨":2863,"愫":2864,"愴":2865,"愷":2866,"愾":2867,"愿":2868,"慄":2869,"慇":2870,"慈":2871,"慉":2872,"態":2873,"慌":2874,"慍":2875,"慎":2876,"慕":2877,"慘":2878,"慚":2879,"慜":2880,"慟":2881,"慢":2882,"慣":2883,"慧":2884,"慨":2885,"慫":2886,"慬":2887,"慮":2888,"慰":2889,"慱":2890,"慵":2891,"慶":2892,"慷":2893,"慽":2894,"慾":2895,"憂":2896,"憊":2897,"憋":2898,"憎":2899,"憐":2900,"憑":2901,"憒":2902,"憓":2903,"憔":2904,"憚":2905,"憝":2906,"憤":2907,"憧":2908,"憨":2909,"憩":2910,"憫":2911,"憬":2912,"憲":2913,"憶":2914,"憾":2915,"懂":2916,"懇":2917,"懈":2918,"應":2919,"懊":2920,"懋":2921,"懐":2922,"懕":2923,"懟":2924,"懦":2925,"懨":2926,"懲":2927,"懵":2928,"懶":2929,"懷":2930,"懸":2931,"懺":2932,"懼":2933,"懾":2934,"懿":2935,"戀":2936,"戈":2937,"戊":2938,"戌":2939,"戍":2940,"戎":2941,"成":2942,"我":2943,"戒":2944,"戕":2945,"或":2946,"戚":2947,"戛":2948,"戟":2949,"戡":2950,"戦":2951,"戩":2952,"截":2953,"戮":2954,"戰":2955,"戲":2956,"戳":2957,"戴":2958,"戶":2959,"户":2960,"戸":2961,"戻":2962,"戽":2963,"戾":2964,"房":2965,"所":2966,"扁":2967,"扇":2968,"扈":2969,"扉":2970,"手":2971,"才":2972,"扎":2973,"扑":2974,"扒":2975,"打":2976,"扔":2977,"払":2978,"托":2979,"扛":2980,"扞":2981,"扣":2982,"扦":2983,"扭":2984,"扮":2985,"扯":2986,"扳":2987,"扶":2988,"批":2989,"扺":2990,"扼":2991,"找":2992,"承":2993,"技":2994,"抄":2995,"抇":2996,"抉":2997,"把":2998,"抑":2999,"抒":3000,"抓":3001,"投":3002,"抖":3003,"抗":3004,"折":3005,"抚":3006,"抛":3007,"抜":3008,"抝":3009,"报":3010,"抨":3011,"披":3012,"抬":3013,"抱":3014,"抵":3015,"抹":3016,"抺":3017,"押":3018,"抽":3019,"抿":3020,"拂":3021,"拄":3022,"担":3023,"拆":3024,"拇":3025,"拈":3026,"拉":3027,"拊":3028,"拋":3029,"拌":3030,"拍":3031,"拎":3032,"拐":3033,"拒":3034,"拓":3035,"拔":3036,"拖":3037,"拗":3038,"拘":3039,"拙":3040,"拚":3041,"招":3042,"拜":3043,"拠":3044,"括":3045,"拭":3046,"拮":3047,"拯":3048,"拱":3049,"拳":3050,"拴":3051,"拷":3052,"拼":3053,"拽":3054,"拾":3055,"拿":3056,"持":3057,"挂":3058,"指":3059,"挈":3060,"按":3061,"挑":3062,"挖":3063,"挨":3064,"挪":3065,"挫":3066,"振":3067,"挲":3068,"挵":3069,"挹":3070,"挺":3071,"挽":3072,"挾":3073,"捂":3074,"捅":3075,"捆":3076,"捉":3077,"捋":3078,"捌":3079,"捍":3080,"捎":3081,"捏":3082,"捐":3083,"捕":3084,"捜":3085,"损":3086,"换":3087,"捧":3088,"捨":3089,"捩":3090,"捫":3091,"捭":3092,"据":3093,"捱":3094,"捲":3095,"捶":3096,"捷":3097,"捺":3098,"捻":3099,"掀":3100,"掂":3101,"掃":3102,"掄":3103,"掇":3104,"授":3105,"掉":3106,"掌":3107,"掏":3108,"掐":3109,"排":3110,"掖":3111,"掘":3112,"掙":3113,"掛":3114,"掠":3115,"採":3116,"探":3117,"掣":3118,"接":3119,"掦":3120,"控":3121,"推":3122,"掩":3123,"措":3124,"掬":3125,"掮":3126,"掰":3127,"揀":3128,"揄":3129,"揆":3130,"揉":3131,"揍":3132,"描":3133,"提":3134,"插":3135,"揖":3136,"揚":3137,"換":3138,"揠":3139,"握":3140,"揣":3141,"揩":3142,"揪":3143,"揭":3144,"揮":3145,"揳":3146,"援":3147,"揶":3148,"揸":3149,"揹":3150,"揺":3151,"搆":3152,"搋":3153,"損":3154,"搏":3155,"搐":3156,"搓":3157,"搔":3158,"搖":3159,"搗":3160,"搜":3161,"搞":3162,"搡":3163,"搥":3164,"搦":3165,"搧":3166,"搪":3167,"搬":3168,"搭":3169,"搵":3170,"搶":3171,"携":3172,"搾":3173,"摀":3174,"摁":3175,"摂":3176,"摃":3177,"摄":3178,"摇":3179,"摍":3180,"摑":3181,"摒":3182,"摔":3183,"摘":3184,"摜":3185,"摞":3186,"摟":3187,"摧":3188,"摩":3189,"摮":3190,"摯":3191,"摳":3192,"摷":3193,"摸":3194,"摹":3195,"摺":3196,"摻":3197,"撂":3198,"撃":3199,"撅":3200,"撇":3201,"撈":3202,"撐":3203,"撑":3204,"撒":3205,"撓":3206,"撕":3207,"撘":3208,"撙":3209,"撚":3210,"撞":3211,"撢":3212,"撣":3213,"撤":3214,"撥":3215,"撩":3216,"撫":3217,"撬":3218,"播":3219,"撮":3220,"撰":3221,"撲":3222,"撸":3223,"撻":3224,"撼":3225,"撾":3226,"撿":3227,"擀":3228,"擁":3229,"擂":3230,"擄":3231,"擅":3232,"擇":3233,"擊":3234,"擋":3235,"操":3236,"擎":3237,"擒":3238,"擔":3239,"擕":3240,"擘":3241,"據":3242,"擠":3243,"擢":3244,"擣":3245,"擤":3246,"擦":3247,"擧":3248,"擬":3249,"擰":3250,"擱":3251,"擲":3252,"擴":3253,"擷":3254,"擺":3255,"擻":3256,"擼":3257,"擾":3258,"攀":3259,"攆":3260,"攉":3261,"攏":3262,"攔":3263,"攘":3264,"攙":3265,"攜":3266,"攝":3267,"攞":3268,"攢":3269,"攣":3270,"攤":3271,"攥":3272,"攪":3273,"攫":3274,"攬":3275,"支":3276,"攰":3277,"收":3278,"攸":3279,"改":3280,"攻":3281,"放":3282,"政":3283,"故":3284,"效":3285,"敍":3286,"敏":3287,"救":3288,"敕":3289,"敖":3290,"敗":3291,"敘":3292,"教":3293,"敝":3294,"敞":3295,"敢":3296,"散":3297,"敦":3298,"敬":3299,"数":3300,"敲":3301,"整":3302,"敵":3303,"敷":3304,"數":3305,"敻":3306,"斂":3307,"斃":3308,"文":3309,"斌":3310,"斐":3311,"斑":3312,"斕":3313,"斗":3314,"料":3315,"斛":3316,"斜":3317,"斟":3318,"斡":3319,"斤":3320,"斥":3321,"斧":3322,"斫":3323,"斬":3324,"斯":3325,"新":3326,"斷":3327,"方":3328,"於":3329,"施":3330,"旁":3331,"旂":3332,"旅":3333,"旆":3334,"旋":3335,"旌":3336,"旎":3337,"族":3338,"旖":3339,"旗":3340,"无":3341,"既":3342,"日":3343,"旦":3344,"旨":3345,"早":3346,"旬":3347,"旭":3348,"旮":3349,"旯":3350,"旱":3351,"旳":3352,"旴":3353,"时":3354,"旺":3355,"旻":3356,"旼":3357,"昀":3358,"昂":3359,"昆":3360,"昇":3361,"昉":3362,"昊":3363,"昌":3364,"昍":3365,"明":3366,"昏":3367,"易":3368,"昔":3369,"昕":3370,"昜":3371,"昝":3372,"昞":3373,"星":3374,"映":3375,"昤":3376,"春":3377,"昧":3378,"昨":3379,"昫":3380,"昭":3381,"是":3382,"昰":3383,"昱":3384,"昴":3385,"昶":3386,"昺":3387,"晁":3388,"時":3389,"晃":3390,"晉":3391,"晋":3392,"晌":3393,"晏":3394,"晒":3395,"晗":3396,"晙":3397,"晚":3398,"晛":3399,"晝":3400,"晞":3401,"晟":3402,"晢":3403,"晤":3404,"晦":3405,"晧":3406,"晨":3407,"普":3408,"景":3409,"晰":3410,"晳":3411,"晴":3412,"晶":3413,"智":3414,"晾":3415,"暁":3416,"暂":3417,"暄":3418,"暇":3419,"暈":3420,"暉":3421,"暌":3422,"暎":3423,"暐":3424,"暑":3425,"暖":3426,"暗":3427,"暘":3428,"暝":3429,"暠":3430,"暢":3431,"暦":3432,"暨":3433,"暪":3434,"暫":3435,"暮":3436,"暱":3437,"暳":3438,"暴":3439,"暸":3440,"暹":3441,"曁":3442,"曄":3443,"曆":3444,"曇":3445,"曈":3446,"曉":3447,"曕":3448,"曖":3449,"曙":3450,"曛":3451,"曜":3452,"曝":3453,"曠":3454,"曦":3455,"曨":3456,"曩":3457,"曬":3458,"曰":3459,"曲":3460,"曳":3461,"更":3462,"曷":3463,"書":3464,"曹":3465,"曺":3466,"曼":3467,"曾":3468,"替":3469,"最":3470,"會":3471,"月":3472,"有":3473,"朋":3474,"服":3475,"朔":3476,"朕":3477,"朗":3478,"朘":3479,"望":3480,"朝":3481,"期":3482,"朦":3483,"朧":3484,"木":3485,"未":3486,"末":3487,"本":3488,"札":3489,"朮":3490,"朱":3491,"朴":3492,"朵":3493,"朶":3494,"机":3495,"朽":3496,"杆":3497,"杉":3498,"杋":3499,"李":3500,"杏":3501,"材":3502,"村":3503,"杓":3504,"杖":3505,"杙":3506,"杜":3507,"杞":3508,"束":3509,"条":3510,"来":3511,"杭":3512,"杮":3513,"杯":3514,"杰":3515,"東":3516,"杳":3517,"杵":3518,"杷":3519,"松":3520,"板":3521,"枇":3522,"枉":3523,"枋":3524,"析":3525,"枒":3526,"枕":3527,"林":3528,"枘":3529,"枚":3530,"果":3531,"枝":3532,"枬":3533,"枯":3534,"枱":3535,"枳":3536,"枴":3537,"架":3538,"枷":3539,"枸":3540,"柄":3541,"柊":3542,"柏":3543,"某":3544,"柑":3545,"柒":3546,"染":3547,"柔":3548,"柘":3549,"柚":3550,"柢":3551,"查":3552,"柩":3553,"柬":3554,"柯":3555,"柱":3556,"柳":3557,"柴":3558,"柵":3559,"柺":3560,"査":3561,"柾":3562,"柿":3563,"栃":3564,"栄":3565,"栅":3566,"栒":3567,"栓":3568,"栖":3569,"栗":3570,"栞":3571,"栟":3572,"校":3573,"栢":3574,"栩":3575,"株":3576,"栭":3577,"栱":3578,"核":3579,"根":3580,"格":3581,"栽":3582,"桀":3583,"桁":3584,"桂":3585,"桃":3586,"桅":3587,"框":3588,"桇":3589,"案":3590,"桉":3591,"桌":3592,"桎":3593,"桐":3594,"桑":3595,"桓":3596,"桔":3597,"桖":3598,"桜":3599,"桮":3600,"桲":3601,"桴":3602,"桶":3603,"桿":3604,"梁":3605,"梃":3606,"梅":3607,"梆":3608,"梏":3609,"梓":3610,"梔":3611,"梗":3612,"梘":3613,"條":3614,"梟":3615,"梠":3616,"梢":3617,"梦":3618,"梧":3619,"梨":3620,"梭":3621,"梯":3622,"械":3623,"梳":3624,"梵":3625,"梶":3626,"棃":3627,"棄":3628,"棆":3629,"棉":3630,"棋":3631,"棍":3632,"棒":3633,"棓":3634,"棕":3635,"棗":3636,"棘":3637,"棚":3638,"棝":3639,"棟":3640,"棠":3641,"棣":3642,"棧":3643,"棨":3644,"棪":3645,"森":3646,"棱":3647,"棲":3648,"棵":3649,"棺":3650,"棻":3651,"棼":3652,"椅":3653,"椉":3654,"植":3655,"椎":3656,"椏":3657,"椒":3658,"椪":3659,"椬":3660,"椰":3661,"椴":3662,"椹":3663,"椿":3664,"楂":3665,"楊":3666,"楓":3667,"楔":3668,"楙":3669,"楚":3670,"楝":3671,"楞":3672,"楠":3673,"楢":3674,"楣":3675,"楨":3676,"楫":3677,"業":3678,"極":3679,"楷":3680,"楹":3681,"楽":3682,"概":3683,"榆":3684,"榊":3685,"榔":3686,"榕":3687,"榖":3688,"榛":3689,"榜":3690,"榤":3691,"榨":3692,"榫":3693,"榭":3694,"榮":3695,"榲":3696,"榳":3697,"榴":3698,"榶":3699,"榷":3700,"榻":3701,"槁":3702,"槃":3703,"構":3704,"槌":3705,"槍":3706,"槎":3707,"槐":3708,"槓":3709,"様":3710,"槤":3711,"槨":3712,"槪":3713,"槲":3714,"槳":3715,"槺":3716,"槻":3717,"槽":3718,"槿":3719,"樁":3720,"樂":3721,"樊":3722,"樋":3723,"樑":3724,"樓":3725,"標":3726,"樞":3727,"樟":3728,"模":3729,"樣":3730,"横":3731,"樫":3732,"樵":3733,"樸":3734,"樹":3735,"樺":3736,"樽":3737,"橄":3738,"橇":3739,"橈":3740,"橋":3741,"橍":3742,"橘":3743,"橙":3744,"機":3745,"橡":3746,"橢":3747,"橫":3748,"檀":3749,"檄":3750,"檎":3751,"檐":3752,"檔":3753,"檜":3754,"檟":3755,"檡":3756,"檢":3757,"檨":3758,"檬":3759,"檯":3760,"檳":3761,"檸":3762,"檻":3763,"櫂":3764,"櫃":3765,"櫆":3766,"櫈":3767,"櫓":3768,"櫚":3769,"櫛":3770,"櫟":3771,"櫥":3772,"櫧":3773,"櫪":3774,"櫫":3775,"櫳":3776,"櫸":3777,"櫺":3778,"櫻":3779,"欄":3780,"欉":3781,"權":3782,"欐":3783,"欒":3784,"欖":3785,"欠":3786,"次":3787,"欣":3788,"欲":3789,"欵":3790,"欸":3791,"欹":3792,"欺":3793,"欽":3794,"款":3795,"歆":3796,"歇":3797,"歉":3798,"歌":3799,"歎":3800,"歐":3801,"歕":3802,"歛":3803,"歡":3804,"止":3805,"正":3806,"此":3807,"步":3808,"武":3809,"歧":3810,"歩":3811,"歪":3812,"歬":3813,"歯":3814,"歲":3815,"歳":3816,"歴":3817,"歷":3818,"歸":3819,"歹":3820,"死":3821,"歿":3822,"殁":3823,"殂":3824,"殃":3825,"殄":3826,"殆":3827,"殉":3828,"殊":3829,"残":3830,"殖":3831,"殘":3832,"殛":3833,"殞":3834,"殤":3835,"殫":3836,"殭":3837,"殮":3838,"殯":3839,"殲":3840,"殴":3841,"段":3842,"殷":3843,"殺":3844,"殻":3845,"殼":3846,"殿":3847,"毀":3848,"毁":3849,"毅":3850,"毆":3851,"毋":3852,"母":3853,"毎":3854,"每":3855,"毐":3856,"毒":3857,"毓":3858,"比":3859,"毗":3860,"毘":3861,"毛":3862,"毫":3863,"毯":3864,"毽":3865,"氂":3866,"氈":3867,"氏":3868,"民":3869,"氓":3870,"氖":3871,"気":3872,"氘":3873,"氙":3874,"氚":3875,"氛":3876,"氟":3877,"氡":3878,"氣":3879,"氤":3880,"氦":3881,"氧":3882,"氨":3883,"氪":3884,"氫":3885,"氬":3886,"氮":3887,"氯":3888,"氰":3889,"氳":3890,"水":3891,"氶":3892,"氷":3893,"永":3894,"氹":3895,"氾":3896,"汀":3897,"汁":3898,"求":3899,"汆":3900,"汎":3901,"汐":3902,"汔":3903,"汕":3904,"汗":3905,"汙":3906,"汚":3907,"汛":3908,"汜":3909,"汝":3910,"汞":3911,"江":3912,"池":3913,"污":3914,"汪":3915,"汭":3916,"汯":3917,"汰":3918,"汱":3919,"汲":3920,"汴":3921,"汶":3922,"決":3923,"汽":3924,"汾":3925,"沁":3926,"沂":3927,"沃":3928,"沅":3929,"沆":3930,"沈":3931,"沉":3932,"沌":3933,"沏":3934,"沐":3935,"沒":3936,"沓":3937,"沖":3938,"沙":3939,"沛":3940,"没":3941,"沢":3942,"沫":3943,"沬":3944,"沮":3945,"沱":3946,"河":3947,"沸":3948,"油":3949,"治":3950,"沼":3951,"沽":3952,"沾":3953,"沿":3954,"況":3955,"泄":3956,"泅":3957,"泉":3958,"泊":3959,"泌":3960,"泐":3961,"泓":3962,"泔":3963,"法":3964,"泗":3965,"泛":3966,"泠":3967,"泡":3968,"波":3969,"泣":3970,"泥":3971,"注":3972,"泪":3973,"泫":3974,"泮":3975,"泯":3976,"泰":3977,"泱":3978,"泳":3979,"泵":3980,"洄":3981,"洋":3982,"洐":3983,"洒":3984,"洗":3985,"洙":3986,"洛":3987,"洞":3988,"洢":3989,"洣":3990,"津":3991,"洧":3992,"洨":3993,"洩":3994,"洪":3995,"洱":3996,"洲":3997,"洳":3998,"洵":3999,"洶":4000,"洸":4001,"洹":4002,"洺":4003,"活":4004,"洽":4005,"派":4006,"流":4007,"浄":4008,"浅":4009,"浙":4010,"浚":4011,"浜":4012,"浣":4013,"浤":4014,"浥":4015,"浦":4016,"浩":4017,"浪":4018,"浬":4019,"浮":4020,"浯":4021,"浴":4022,"海":4023,"浸":4024,"浹":4025,"涂":4026,"涅":4027,"涇":4028,"消":4029,"涉":4030,"涌":4031,"涎":4032,"涓":4033,"涔":4034,"涕":4035,"涛":4036,"涪":4037,"涮":4038,"涯":4039,"液":4040,"涵":4041,"涸":4042,"涼":4043,"淀":4044,"淂":4045,"淅":4046,"淆":4047,"淇":4048,"淋":4049,"淌":4050,"淑":4051,"淒":4052,"淖":4053,"淘":4054,"淙":4055,"淚":4056,"淝":4057,"淞":4058,"淡":4059,"淢":4060,"淤":4061,"淦":4062,"淨":4063,"淩":4064,"淪":4065,"淫":4066,"淬":4067,"淮":4068,"淯":4069,"深":4070,"淳":4071,"淵":4072,"淶":4073,"混":4074,"淸":4075,"淹":4076,"淺":4077,"添":4078,"清":4079,"渉":4080,"渕":4081,"渙":4082,"渚":4083,"減":4084,"渝":4085,"渟":4086,"渠":4087,"渡":4088,"渣":4089,"渤":4090,"渥":4091,"渦":4092,"温":4093,"測":4094,"渭":4095,"港":4096,"渰":4097,"渲":4098,"渴":4099,"游":4100,"渺":4101,"渼":4102,"渾":4103,"湃":4104,"湄":4105,"湅":4106,"湊":4107,"湋":4108,"湍":4109,"湎":4110,"湓":4111,"湖":4112,"湘":4113,"湛":4114,"湟":4115,"湧":4116,"湮":4117,"湯":4118,"湳":4119,"湼":4120,"湾":4121,"満":4122,"溉":4123,"溏":4124,"源":4125,"準":4126,"溘":4127,"溜":4128,"溝":4129,"溟":4130,"溢":4131,"溥":4132,"溪":4133,"溫":4134,"溯":4135,"溱":4136,"溶":4137,"溺":4138,"溼":4139,"滂":4140,"滄":4141,"滅":4142,"滇":4143,"滉":4144,"滋":4145,"滌":4146,"滎":4147,"滐":4148,"滑":4149,"滔":4150,"滕":4151,"滙":4152,"滚":4153,"满":4154,"滬":4155,"滯":4156,"滲":4157,"滴":4158,"滷":4159,"滸":4160,"滾":4161,"滿":4162,"漁":4163,"漂":4164,"漆":4165,"漉":4166,"漏":4167,"漓":4168,"演":4169,"漕":4170,"漙":4171,"漚":4172,"漠":4173,"漢":4174,"漣":4175,"漥":4176,"漩":4177,"漪":4178,"漫":4179,"漬":4180,"漭":4181,"漯":4182,"漱":4183,"漲":4184,"漳":4185,"漸":4186,"漾":4187,"漿":4188,"潁":4189,"潄":4190,"潑":4191,"潔":4192,"潘":4193,"潛":4194,"潟":4195,"潢":4196,"潤":4197,"潦":4198,"潭":4199,"潮":4200,"潯":4201,"潰":4202,"潸":4203,"潺":4204,"潼":4205,"潾":4206,"澀":4207,"澄":4208,"澆":4209,"澇":4210,"澈":4211,"澍":4212,"澎":4213,"澐":4214,"澔":4215,"澗":4216,"澡":4217,"澤":4218,"澧":4219,"澯":4220,"澱":4221,"澳":4222,"澹":4223,"激":4224,"濁":4225,"濂":4226,"濃":4227,"濕":4228,"濘":4229,"濛":4230,"濟":4231,"濠":4232,"濡":4233,"濤":4234,"濫":4235,"濬":4236,"濮":4237,"濯":4238,"濰":4239,"濱":4240,"濶":4241,"濺":4242,"濾":4243,"瀁":4244,"瀅":4245,"瀆":4246,"瀉":4247,"瀋":4248,"瀏":4249,"瀑":4250,"瀓":4251,"瀕":4252,"瀘":4253,"瀚":4254,"瀛":4255,"瀜":4256,"瀝":4257,"瀞":4258,"瀟":4259,"瀠":4260,"瀣":4261,"瀧":4262,"瀨":4263,"瀬":4264,"瀰":4265,"瀲":4266,"瀾":4267,"灃":4268,"灌":4269,"灑":4270,"灒":4271,"灕":4272,"灘":4273,"灜":4274,"灝":4275,"灣":4276,"灧":4277,"灩":4278,"火":4279,"灰":4280,"灶":4281,"灸":4282,"灼":4283,"災":4284,"炅":4285,"炆":4286,"炉":4287,"炊":4288,"炎":4289,"炒":4290,"炔":4291,"炖":4292,"炘":4293,"炙":4294,"炤":4295,"炩":4296,"炫":4297,"炬":4298,"炭":4299,"炮":4300,"炯":4301,"炳":4302,"炵":4303,"炷":4304,"炸":4305,"点":4306,"為":4307,"烈":4308,"烊":4309,"烏":4310,"烔":4311,"烘":4312,"烙":4313,"烚":4314,"烜":4315,"烝":4316,"烟":4317,"烤":4318,"热":4319,"烯":4320,"烱":4321,"烴":4322,"烷":4323,"烹":4324,"烽":4325,"烿":4326,"焉":4327,"焊":4328,"焌":4329,"焗":4330,"焙":4331,"焚":4332,"焜":4333,"無":4334,"焢":4335,"焦":4336,"焮":4337,"焯":4338,"焰":4339,"焱":4340,"然":4341,"焼":4342,"煅":4343,"煇":4344,"煉":4345,"煊":4346,"煋":4347,"煌":4348,"煎":4349,"煒":4350,"煕":4351,"煖":4352,"煙":4353,"煚":4354,"煜":4355,"煞":4356,"煤":4357,"煥":4358,"煦":4359,"照":4360,"煨":4361,"煩":4362,"煬":4363,"煮":4364,"煲":4365,"煸":4366,"煽":4367,"熄":4368,"熈":4369,"熊":4370,"熏":4371,"熒":4372,"熔":4373,"熖":4374,"熙":4375,"熜":4376,"熟":4377,"熠":4378,"熨":4379,"熬":4380,"熱":4381,"熵":4382,"熹":4383,"熾":4384,"燁":4385,"燃":4386,"燄":4387,"燈":4388,"燉":4389,"燊":4390,"燎":4391,"燐":4392,"燒":4393,"燕":4394,"燙":4395,"燜":4396,"營":4397,"燠":4398,"燥":4399,"燦":4400,"燧":4401,"燬":4402,"燭":4403,"燮":4404,"燴":4405,"燹":4406,"燻":4407,"燼":4408,"燾":4409,"燿":4410,"爀":4411,"爆":4412,"爈":4413,"爌":4414,"爍":4415,"爐":4416,"爚":4417,"爛":4418,"爝":4419,"爨":4420,"爪":4421,"爬":4422,"爭":4423,"爰":4424,"爱":4425,"爲":4426,"爵":4427,"父":4428,"爸":4429,"爹":4430,"爺":4431,"爻":4432,"爽":4433,"爾":4434,"牀":4435,"牂":4436,"牆":4437,"片":4438,"版":4439,"牌":4440,"牒":4441,"牖":4442,"牘":4443,"牙":4444,"牛":4445,"牟":4446,"牠":4447,"牡":4448,"牢":4449,"牧":4450,"物":4451,"牯":4452,"牲":4453,"牴":4454,"特":4455,"牽":4456,"犀":4457,"犁":4458,"犄":4459,"犇":4460,"犒":4461,"犛":4462,"犠":4463,"犡":4464,"犢":4465,"犧":4466,"犬":4467,"犮":4468,"犯":4469,"状":4470,"犽":4471,"狀":4472,"狂":4473,"狄":4474,"狎":4475,"狐":4476,"狒":4477,"狗":4478,"狙":4479,"狛":4480,"狠":4481,"狡":4482,"狨":4483,"狩":4484,"狷":4485,"狸":4486,"狹":4487,"狺":4488,"狼":4489,"狽":4490,"猁":4491,"猊":4492,"猎":4493,"猖":4494,"猗":4495,"猙":4496,"猛":4497,"猜":4498,"猝":4499,"猞":4500,"猥":4501,"猩":4502,"猪":4503,"猫":4504,"献":4505,"猴":4506,"猶":4507,"猷":4508,"猾":4509,"猿":4510,"獁":4511,"獄":4512,"獅":4513,"獎":4514,"獐":4515,"獒":4516,"獗":4517,"獠":4518,"獨":4519,"獫":4520,"獬":4521,"獮":4522,"獰":4523,"獲":4524,"獴":4525,"獵":4526,"獷":4527,"獸":4528,"獺":4529,"獻":4530,"獼":4531,"獾":4532,"玄":4533,"玆":4534,"率":4535,"玉":4536,"王":4537,"玎":4538,"玓":4539,"玖":4540,"玗":4541,"玟":4542,"玠":4543,"玢":4544,"玥":4545,"玦":4546,"玧":4547,"玨":4548,"玩":4549,"玫":4550,"玭":4551,"现":4552,"玲":4553,"玳":4554,"玷":4555,"玹":4556,"玻":4557,"玼":4558,"珀":4559,"珂":4560,"珅":4561,"珆":4562,"珈":4563,"珉":4564,"珊":4565,"珍":4566,"珏":4567,"珛":4568,"珞":4569,"珠":4570,"珣":4571,"珥":4572,"珦":4573,"珩":4574,"班":4575,"珮":4576,"珺":4577,"珽":4578,"現":4579,"琁":4580,"球":4581,"琄":4582,"琅":4583,"理":4584,"琇":4585,"琉":4586,"琊":4587,"琋":4588,"琍":4589,"琚":4590,"琛":4591,"琝":4592,"琡":4593,"琢":4594,"琤":4595,"琥":4596,"琦":4597,"琨":4598,"琪":4599,"琬":4600,"琮":4601,"琰":4602,"琲":4603,"琳":4604,"琴":4605,"琵":4606,"琶":4607,"琹":4608,"琺":4609,"瑀":4610,"瑁":4611,"瑄":4612,"瑈":4613,"瑋":4614,"瑍":4615,"瑒":4616,"瑕":4617,"瑗":4618,"瑙":4619,"瑚":4620,"瑛":4621,"瑜":4622,"瑞":4623,"瑟":4624,"瑠":4625,"瑢":4626,"瑣":4627,"瑤":4628,"瑧":4629,"瑨":4630,"瑩":4631,"瑪":4632,"瑭":4633,"瑯":4634,"瑰":4635,"瑱":4636,"瑶":4637,"瑽":4638,"瑾":4639,"璀":4640,"璁":4641,"璃":4642,"璇":4643,"璉":4644,"璋":4645,"璐":4646,"璘":4647,"璜":4648,"璞":4649,"璟":4650,"璠":4651,"璣":4652,"璥":4653,"璦":4654,"璧":4655,"璨":4656,"環":4657,"璽":4658,"璿":4659,"瓈":4660,"瓊":4661,"瓏":4662,"瓔":4663,"瓚":4664,"瓜":4665,"瓢":4666,"瓣":4667,"瓤":4668,"瓦":4669,"瓩":4670,"瓴":4671,"瓶":4672,"瓷":4673,"瓿":4674,"甄":4675,"甌":4676,"甍":4677,"甑":4678,"甕":4679,"甘":4680,"甚":4681,"甜":4682,"生":4683,"產":4684,"産":4685,"甥":4686,"甦":4687,"用":4688,"甩":4689,"甪":4690,"甫":4691,"甬":4692,"甭":4693,"甯":4694,"田":4695,"由":4696,"甲":4697,"申":4698,"男":4699,"甸":4700,"町":4701,"画":4702,"甾":4703,"畀":4704,"畇":4705,"畊":4706,"界":4707,"畏":4708,"畑":4709,"畔":4710,"留":4711,"畚":4712,"畜":4713,"畝":4714,"畢":4715,"略":4716,"畦":4717,"番":4718,"畫":4719,"畬":4720,"畯":4721,"異":4722,"畲":4723,"當":4724,"畸":4725,"畹":4726,"畿":4727,"疄":4728,"疆":4729,"疇":4730,"疊":4731,"疋":4732,"疏":4733,"疑":4734,"疔":4735,"疙":4736,"疚":4737,"疝":4738,"疣":4739,"疤":4740,"疥":4741,"疪":4742,"疫":4743,"疰":4744,"疱":4745,"疲":4746,"疵":4747,"疸":4748,"疹":4749,"疼":4750,"疽":4751,"疾":4752,"痂":4753,"痃":4754,"病":4755,"症":4756,"痊":4757,"痍":4758,"痔":4759,"痕":4760,"痘":4761,"痙":4762,"痛":4763,"痞":4764,"痟":4765,"痠":4766,"痢":4767,"痣":4768,"痤":4769,"痧":4770,"痩":4771,"痰":4772,"痱":4773,"痲":4774,"痴":4775,"痹":4776,"痺":4777,"痼":4778,"痾":4779,"痿":4780,"瘀":4781,"瘁":4782,"瘂":4783,"瘋":4784,"瘍":4785,"瘓":4786,"瘕":4787,"瘙":4788,"瘜":4789,"瘟":4790,"瘠":4791,"瘡":4792,"瘢":4793,"瘤":4794,"瘦":4795,"瘧":4796,"瘩":4797,"瘴":4798,"瘸":4799,"瘻":4800,"瘼":4801,"癀":4802,"療":4803,"癆":4804,"癇":4805,"癉":4806,"癌":4807,"癒":4808,"癖":4809,"癘":4810,"癟":4811,"癡":4812,"癢":4813,"癥":4814,"癬":4815,"癭":4816,"癮":4817,"癰":4818,"癱":4819,"癲":4820,"癸":4821,"発":4822,"登":4823,"發":4824,"白":4825,"百":4826,"皂":4827,"的":4828,"皆":4829,"皇":4830,"皈":4831,"皋":4832,"皎":4833,"皓":4834,"皖":4835,"皙":4836,"皚":4837,"皪":4838,"皮":4839,"皰":4840,"皴":4841,"皺":4842,"皿":4843,"盂":4844,"盃":4845,"盅":4846,"盆":4847,"盈":4848,"益":4849,"盎":4850,"盒":4851,"盔":4852,"盗":4853,"盙":4854,"盛":4855,"盜":4856,"盞":4857,"盟":4858,"盡":4859,"監":4860,"盤":4861,"盥":4862,"盧":4863,"盪":4864,"目":4865,"盯":4866,"盱":4867,"盲":4868,"直":4869,"相":4870,"盹":4871,"盼":4872,"盾":4873,"省":4874,"眈":4875,"眉":4876,"看":4877,"県":4878,"眛":4879,"眞":4880,"真":4881,"眠":4882,"眥":4883,"眨":4884,"眩":4885,"眭":4886,"眶":4887,"眷":4888,"眸":4889,"眺":4890,"眼":4891,"眾":4892,"着":4893,"睇":4894,"睏":4895,"睒":4896,"睚":4897,"睛":4898,"睜":4899,"睞":4900,"睡":4901,"睢":4902,"督":4903,"睥":4904,"睦":4905,"睨":4906,"睪":4907,"睫":4908,"睬":4909,"睭":4910,"睹":4911,"睽":4912,"睾":4913,"睿":4914,"瞄":4915,"瞅":4916,"瞇":4917,"瞌":4918,"瞎":4919,"瞑":4920,"瞓":4921,"瞞":4922,"瞟":4923,"瞠":4924,"瞥":4925,"瞧":4926,"瞪":4927,"瞬":4928,"瞭":4929,"瞰":4930,"瞳":4931,"瞻":4932,"瞼":4933,"瞿":4934,"矇":4935,"矌":4936,"矍":4937,"矓":4938,"矗":4939,"矚":4940,"矛":4941,"矜":4942,"矞":4943,"矢":4944,"矣":4945,"知":4946,"矧":4947,"矩":4948,"短":4949,"矮":4950,"矯":4951,"石":4952,"矸":4953,"矻":4954,"矽":4955,"砂":4956,"砌":4957,"砍":4958,"砒":4959,"研":4960,"砝":4961,"砡":4962,"砣":4963,"砥":4964,"砦":4965,"砧":4966,"砭":4967,"砰":4968,"砲":4969,"破":4970,"砷":4971,"砸":4972,"硃":4973,"硅":4974,"硏":4975,"硐":4976,"硒":4977,"硝":4978,"硫":4979,"硬":4980,"确":4981,"硯":4982,"硼":4983,"碁":4984,"碇":4985,"碉":4986,"碌":4987,"碎":4988,"碑":4989,"碗":4990,"碘":4991,"碟":4992,"碣":4993,"碧":4994,"碩":4995,"碰":4996,"碲":4997,"碳":4998,"碴":4999,"碸":5000,"確":5001,"碼":5002,"碾":5003,"磁":5004,"磅":5005,"磊":5006,"磋":5007,"磐":5008,"磕":5009,"磚":5010,"磡":5011,"磢":5012,"磨":5013,"磯":5014,"磷":5015,"磺":5016,"礁":5017,"礎":5018,"礑":5019,"礙":5020,"礡":5021,"礦":5022,"礪":5023,"礫":5024,"礴":5025,"示":5026,"礼":5027,"礽":5028,"社":5029,"祀":5030,"祁":5031,"祂":5032,"祇":5033,"祈":5034,"祉":5035,"祐":5036,"祓":5037,"祕":5038,"祖":5039,"祙":5040,"祚":5041,"祛":5042,"祜":5043,"祝":5044,"神":5045,"祟":5046,"祠":5047,"祡":5048,"祢":5049,"祥":5050,"票":5051,"祭":5052,"祺":5053,"祼":5054,"祿":5055,"禀":5056,"禁":5057,"禊":5058,"禍":5059,"禎":5060,"福":5061,"禓":5062,"禕":5063,"禛":5064,"禡":5065,"禤":5066,"禦":5067,"禧":5068,"禪":5069,"禮":5070,"禰":5071,"禱":5072,"禳":5073,"禹":5074,"禽":5075,"禾":5076,"禿":5077,"秀":5078,"私":5079,"秃":5080,"秈":5081,"秉":5082,"秋":5083,"秏":5084,"秐":5085,"科":5086,"秒":5087,"秘":5088,"秝":5089,"秞":5090,"租":5091,"秤":5092,"秦":5093,"秧":5094,"秩":5095,"秭":5096,"秸":5097,"移":5098,"稀":5099,"稅":5100,"稈":5101,"稉":5102,"程":5103,"稍":5104,"税":5105,"稔":5106,"稕":5107,"稗":5108,"稚":5109,"稜":5110,"稞":5111,"稟":5112,"稠":5113,"種":5114,"稱":5115,"稲":5116,"稷":5117,"稻":5118,"稼":5119,"稽":5120,"稿":5121,"穀":5122,"穆":5123,"穌":5124,"積":5125,"穎":5126,"穏":5127,"穗":5128,"穠":5129,"穢":5130,"穣":5131,"穩":5132,"穫":5133,"穱":5134,"穴":5135,"究":5136,"穹":5137,"空":5138,"穿":5139,"突":5140,"窄":5141,"窈":5142,"窒":5143,"窕":5144,"窖":5145,"窗":5146,"窘":5147,"窟":5148,"窠":5149,"窣":5150,"窩":5151,"窪":5152,"窮":5153,"窯":5154,"窳":5155,"窴":5156,"窸":5157,"窺":5158,"窿":5159,"竄":5160,"竅":5161,"竇":5162,"竈":5163,"竉":5164,"竊":5165,"立":5166,"竑":5167,"站":5168,"竜":5169,"竟":5170,"章":5171,"竣":5172,"童":5173,"竦":5174,"竪":5175,"竭":5176,"端":5177,"競":5178,"竸":5179,"竹":5180,"竺":5181,"竽":5182,"竿":5183,"笅":5184,"笆":5185,"笈":5186,"笏":5187,"笐":5188,"笑":5189,"笙":5190,"笛":5191,"笞":5192,"笠":5193,"符":5194,"笨":5195,"笫":5196,"第":5197,"笭":5198,"笹":5199,"笿":5200,"筆":5201,"等":5202,"筊":5203,"筋":5204,"筌":5205,"筍":5206,"筏":5207,"筐":5208,"筑":5209,"筒":5210,"答":5211,"策":5212,"筠":5213,"筢":5214,"筱":5215,"筴":5216,"筵":5217,"筶":5218,"筷":5219,"箇":5220,"箋":5221,"箍":5222,"箎":5223,"箏":5224,"箐":5225,"箔":5226,"箕":5227,"箖":5228,"算":5229,"箝":5230,"管":5231,"箬":5232,"箭":5233,"箱":5234,"箴":5235,"箸":5236,"箿":5237,"節":5238,"篁":5239,"範":5240,"篆":5241,"篇":5242,"築":5243,"篙":5244,"篝":5245,"篠":5246,"篡":5247,"篤":5248,"篩":5249,"篪":5250,"篳":5251,"篷":5252,"簇":5253,"簌":5254,"簍":5255,"簏":5256,"簑":5257,"簝":5258,"簞":5259,"簡":5260,"簣":5261,"簤":5262,"簧":5263,"簪":5264,"簫":5265,"簷":5266,"簸":5267,"簽":5268,"簾":5269,"簿":5270,"籂":5271,"籃":5272,"籌":5273,"籍":5274,"籐":5275,"籓":5276,"籟":5277,"籠":5278,"籤":5279,"籬":5280,"籮":5281,"籲":5282,"米":5283,"籽":5284,"籾":5285,"粄":5286,"粉":5287,"粑":5288,"粒":5289,"粔":5290,"粕":5291,"粗":5292,"粘":5293,"粙":5294,"粛":5295,"粟":5296,"粢":5297,"粥":5298,"粧":5299,"粱":5300,"粲":5301,"粵":5302,"粹":5303,"粼":5304,"粽":5305,"精":5306,"粿":5307,"糅":5308,"糊":5309,"糍":5310,"糕":5311,"糖":5312,"糗":5313,"糙":5314,"糜":5315,"糝":5316,"糞":5317,"糟":5318,"糠":5319,"糢":5320,"糥":5321,"糧":5322,"糨":5323,"糬":5324,"糯":5325,"糰":5326,"糶":5327,"糸":5328,"系":5329,"糾":5330,"紀":5331,"紂":5332,"約":5333,"紅":5334,"紆":5335,"紇":5336,"紈":5337,"紉":5338,"紊":5339,"紋":5340,"納":5341,"紐":5342,"紓":5343,"純":5344,"紕":5345,"紗":5346,"紘":5347,"紙":5348,"級":5349,"紛":5350,"紜":5351,"素":5352,"紡":5353,"索":5354,"紫":5355,"紬":5356,"紮":5357,"累":5358,"細":5359,"紳":5360,"紹":5361,"紺":5362,"紾":5363,"絀":5364,"終":5365,"絃":5366,"組":5367,"絆":5368,"経":5369,"結":5370,"絕":5371,"絛":5372,"絜":5373,"絝":5374,"絞":5375,"絡":5376,"絢":5377,"給":5378,"絨":5379,"絭":5380,"絮":5381,"統":5382,"絲":5383,"絳":5384,"絵":5385,"絶":5386,"絹":5387,"綁":5388,"綉":5389,"綏":5390,"綑":5391,"經":5392,"継":5393,"続":5394,"綜":5395,"綠":5396,"綢":5397,"綣":5398,"綦":5399,"綫":5400,"綬":5401,"維":5402,"綮":5403,"綰":5404,"綱":5405,"網":5406,"綴":5407,"綵":5408,"綸":5409,"綹":5410,"綺":5411,"綻":5412,"綽":5413,"綾":5414,"綿":5415,"緁":5416,"緃":5417,"緄":5418,"緊":5419,"緋":5420,"総":5421,"緑":5422,"緒":5423,"緖":5424,"緗":5425,"緘":5426,"線":5427,"緝":5428,"緞":5429,"締":5430,"緣":5431,"編":5432,"緩":5433,"緬":5434,"緯":5435,"緱":5436,"緲":5437,"練":5438,"緹":5439,"緻":5440,"縄":5441,"縈":5442,"縉":5443,"縊":5444,"縐":5445,"縑":5446,"縕":5447,"縛":5448,"縝":5449,"縞":5450,"縟":5451,"縣":5452,"縥":5453,"縦":5454,"縧":5455,"縫":5456,"縭":5457,"縮":5458,"縱":5459,"縴":5460,"縷":5461,"縹":5462,"總":5463,"績":5464,"繁":5465,"繃":5466,"繆":5467,"繇":5468,"繋":5469,"繒":5470,"織":5471,"繕":5472,"繚":5473,"繞":5474,"繡":5475,"繩":5476,"繪":5477,"繫":5478,"繭":5479,"繳":5480,"繹":5481,"繻":5482,"繼":5483,"繽":5484,"繾":5485,"纂":5486,"纇":5487,"續":5488,"纍":5489,"纏":5490,"纓":5491,"纔":5492,"纖":5493,"纘":5494,"纜":5495,"红":5496,"级":5497,"纪":5498,"纯":5499,"纸":5500,"纾":5501,"组":5502,"细":5503,"终":5504,"结":5505,"给":5506,"绝":5507,"统":5508,"绣":5509,"绰":5510,"缅":5511,"缐":5512,"缓":5513,"缘":5514,"缝":5515,"缩":5516,"缷":5517,"缸":5518,"缺":5519,"缽":5520,"罄":5521,"罈":5522,"罌":5523,"罍":5524,"罐":5525,"罔":5526,"罕":5527,"罘":5528,"罝":5529,"罟":5530,"罠":5531,"罡":5532,"罣":5533,"罨":5534,"罩":5535,"罪":5536,"置":5537,"罰":5538,"署":5539,"罵":5540,"罷":5541,"罹":5542,"羅":5543,"羈":5544,"羊":5545,"羋":5546,"羌":5547,"美":5548,"羔":5549,"羚":5550,"羞":5551,"羡":5552,"羢":5553,"羣":5554,"群":5555,"羥":5556,"羨":5557,"義":5558,"羮":5559,"羯":5560,"羲":5561,"羶":5562,"羸":5563,"羹":5564,"羼":5565,"羽":5566,"羿":5567,"翀":5568,"翁":5569,"翃":5570,"翅":5571,"翊":5572,"翌":5573,"翎":5574,"習":5575,"翔":5576,"翘":5577,"翟":5578,"翠":5579,"翡":5580,"翩":5581,"翬":5582,"翰":5583,"翱":5584,"翳":5585,"翹":5586,"翻":5587,"翼":5588,"耀":5589,"老":5590,"考":5591,"耄":5592,"者":5593,"耆":5594,"耋":5595,"而":5596,"耍":5597,"耐":5598,"耕":5599,"耗":5600,"耘":5601,"耙":5602,"耦":5603,"耳":5604,"耶":5605,"耽":5606,"耿":5607,"聆":5608,"聊":5609,"聎":5610,"聒":5611,"联":5612,"聖":5613,"聘":5614,"聚":5615,"聞":5616,"聯":5617,"聰":5618,"聲":5619,"聳":5620,"聴":5621,"聶":5622,"職":5623,"聼":5624,"聽":5625,"聾":5626,"聿":5627,"肄":5628,"肅":5629,"肆":5630,"肇":5631,"肉":5632,"肋":5633,"肌":5634,"肓":5635,"肖":5636,"肘":5637,"肚":5638,"肛":5639,"肝":5640,"股":5641,"肢":5642,"肥":5643,"肩":5644,"肪":5645,"肫":5646,"肯":5647,"肱":5648,"育":5649,"肴":5650,"肺":5651,"肽":5652,"胃":5653,"胄":5654,"胆":5655,"背":5656,"胎":5657,"胕":5658,"胖":5659,"胗":5660,"胚":5661,"胛":5662,"胜":5663,"胝":5664,"胞":5665,"胡":5666,"胤":5667,"胥":5668,"胭":5669,"胯":5670,"胰":5671,"胱":5672,"胳":5673,"胴":5674,"胸":5675,"胺":5676,"胼":5677,"能":5678,"脂":5679,"脅":5680,"脆":5681,"脇":5682,"脈":5683,"脉":5684,"脊":5685,"脒":5686,"脖":5687,"脘":5688,"脚":5689,"脛":5690,"脢":5691,"脣":5692,"脧":5693,"脩":5694,"脫":5695,"脯":5696,"脱":5697,"脲":5698,"脹":5699,"脾":5700,"腆":5701,"腈":5702,"腋":5703,"腎":5704,"腐":5705,"腑":5706,"腓":5707,"腔":5708,"腕":5709,"腠":5710,"腥":5711,"腦":5712,"腩":5713,"腫":5714,"腮":5715,"腰":5716,"腱":5717,"腳":5718,"腴":5719,"腸":5720,"腹":5721,"腺":5722,"腻":5723,"腿":5724,"膀":5725,"膈":5726,"膊":5727,"膏":5728,"膕":5729,"膚":5730,"膛":5731,"膜":5732,"膝":5733,"膠":5734,"膨":5735,"膩":5736,"膳":5737,"膴":5738,"膺":5739,"膻":5740,"膽":5741,"膾":5742,"膿":5743,"臀":5744,"臂":5745,"臃":5746,"臆":5747,"臉":5748,"臊":5749,"臍":5750,"臏":5751,"臗":5752,"臘":5753,"臚":5754,"臟":5755,"臣":5756,"臥":5757,"臧":5758,"臨":5759,"自":5760,"臬":5761,"臭":5762,"至":5763,"致":5764,"臺":5765,"臻":5766,"臼":5767,"臾":5768,"舀":5769,"舄":5770,"舅":5771,"舆":5772,"與":5773,"興":5774,"舉":5775,"舊":5776,"舋":5777,"舌":5778,"舍":5779,"舐":5780,"舒":5781,"舔":5782,"舖":5783,"舗":5784,"舘":5785,"舛":5786,"舜":5787,"舞":5788,"舟":5789,"舢":5790,"舨":5791,"航":5792,"舫":5793,"般":5794,"舵":5795,"舶":5796,"舷":5797,"船":5798,"舺":5799,"艇":5800,"艉":5801,"艋":5802,"艏":5803,"艘":5804,"艙":5805,"艤":5806,"艦":5807,"艮":5808,"良":5809,"艱":5810,"色":5811,"艷":5812,"艸":5813,"艾":5814,"芃":5815,"芊":5816,"芋":5817,"芍":5818,"芎":5819,"芐":5820,"芒":5821,"芓":5822,"芙":5823,"芛":5824,"芝":5825,"芠":5826,"芡":5827,"芢":5828,"芥":5829,"芧":5830,"芨":5831,"芩":5832,"芪":5833,"芫":5834,"芬":5835,"芭":5836,"芮":5837,"芯":5838,"花":5839,"芳":5840,"芷":5841,"芸":5842,"芹":5843,"芻":5844,"芽":5845,"芾":5846,"苑":5847,"苒":5848,"苓":5849,"苔":5850,"苕":5851,"苖":5852,"苗":5853,"苙":5854,"苛":5855,"苜":5856,"苞":5857,"苟":5858,"苡":5859,"苣":5860,"若":5861,"苦":5862,"苧":5863,"苯":5864,"英":5865,"苳":5866,"苷":5867,"苹":5868,"苺":5869,"苻":5870,"苾":5871,"苿":5872,"茁":5873,"茂":5874,"范":5875,"茄":5876,"茅":5877,"茉":5878,"茗":5879,"茜":5880,"茨":5881,"茫":5882,"茬":5883,"茭":5884,"茯":5885,"茱":5886,"茲":5887,"茴":5888,"茵":5889,"茶":5890,"茸":5891,"茹":5892,"茻":5893,"茼":5894,"荀":5895,"荃":5896,"荅":5897,"荇":5898,"草":5899,"荊":5900,"荏":5901,"荐":5902,"荒":5903,"荔":5904,"荖":5905,"荣":5906,"荳":5907,"荷":5908,"荸":5909,"荻":5910,"荼":5911,"荽":5912,"莆":5913,"莉":5914,"莊":5915,"莎":5916,"莒":5917,"莓":5918,"莖":5919,"莘":5920,"莛":5921,"莞":5922,"莠":5923,"莢":5924,"莧":5925,"莨":5926,"莪":5927,"莫":5928,"莽":5929,"莿":5930,"菀":5931,"菁":5932,"菅":5933,"菇":5934,"菈":5935,"菉":5936,"菊":5937,"菌":5938,"菏":5939,"菓":5940,"菖":5941,"菘":5942,"菜":5943,"菟":5944,"菠":5945,"菡":5946,"菩":5947,"菫":5948,"華":5949,"菰":5950,"菱":5951,"菲":5952,"菸":5953,"萁":5954,"萃":5955,"萄":5956,"萊":5957,"萌":5958,"萍":5959,"萎":5960,"萓":5961,"萜":5962,"萣":5963,"萩":5964,"萬":5965,"萱":5966,"萵":5967,"萼":5968,"落":5969,"萾":5970,"葆":5971,"葇":5972,"葉":5973,"葑":5974,"葒":5975,"著":5976,"葚":5977,"葛":5978,"葡":5979,"董":5980,"葦":5981,"葩":5982,"葫":5983,"葬":5984,"葭":5985,"葯":5986,"葱":5987,"葳":5988,"葵":5989,"葶":5990,"葷":5991,"葺":5992,"蒂":5993,"蒐":5994,"蒑":5995,"蒔":5996,"蒖":5997,"蒙":5998,"蒜":5999,"蒝":6000,"蒞":6001,"蒟":6002,"蒡":6003,"蒨":6004,"蒲":6005,"蒸":6006,"蒻":6007,"蒼":6008,"蒽":6009,"蒿":6010,"蓀":6011,"蓁":6012,"蓄":6013,"蓆":6014,"蓉":6015,"蓊":6016,"蓋":6017,"蓑":6018,"蓒":6019,"蓓":6020,"蓬":6021,"蓮":6022,"蓳":6023,"蓽":6024,"蓿":6025,"蔑":6026,"蔓":6027,"蔔":6028,"蔗":6029,"蔘":6030,"蔚":6031,"蔡":6032,"蔣":6033,"蔥":6034,"蔦":6035,"蔫":6036,"蔬":6037,"蔭":6038,"蔴":6039,"蔻":6040,"蔽":6041,"蕁":6042,"蕃":6043,"蕈":6044,"蕉":6045,"蕊":6046,"蕎":6047,"蕓":6048,"蕗":6049,"蕙":6050,"蕞":6051,"蕨":6052,"蕩":6053,"蕪":6054,"蕫":6055,"蕭":6056,"蕯":6057,"蕷":6058,"蕾":6059,"薀":6060,"薄":6061,"薅":6062,"薇":6063,"薈":6064,"薊":6065,"薏":6066,"薑":6067,"薔":6068,"薛":6069,"薦":6070,"薨":6071,"薩":6072,"薪":6073,"薫":6074,"薬":6075,"薯":6076,"薰":6077,"薹":6078,"薺":6079,"薾":6080,"藉":6081,"藍":6082,"藏":6083,"藐":6084,"藔":6085,"藕":6086,"藜":6087,"藝":6088,"藤":6089,"藥":6090,"藩":6091,"藪":6092,"藴":6093,"藷":6094,"藹":6095,"藺":6096,"藻":6097,"藼":6098,"藿":6099,"蘅":6100,"蘆":6101,"蘇":6102,"蘊":6103,"蘋":6104,"蘑":6105,"蘖":6106,"蘚":6107,"蘩":6108,"蘭":6109,"蘸":6110,"蘺":6111,"蘿":6112,"虌":6113,"虎":6114,"虐":6115,"虔":6116,"處":6117,"虚":6118,"虛":6119,"虜":6120,"虞":6121,"號":6122,"虢":6123,"虧":6124,"虫":6125,"虬":6126,"虯":6127,"虱":6128,"虹":6129,"虻":6130,"蚊":6131,"蚋":6132,"蚌":6133,"蚓":6134,"蚜":6135,"蚣":6136,"蚤":6137,"蚩":6138,"蚪":6139,"蚯":6140,"蚱":6141,"蚴":6142,"蚵":6143,"蚶":6144,"蛀":6145,"蛄":6146,"蛆":6147,"蛇":6148,"蛋":6149,"蛙":6150,"蛛":6151,"蛞":6152,"蛟":6153,"蛤":6154,"蛭":6155,"蛸":6156,"蛹":6157,"蛻":6158,"蛾":6159,"蜀":6160,"蜂":6161,"蜃":6162,"蜆":6163,"蜇":6164,"蜈":6165,"蜉":6166,"蜊":6167,"蜍":6168,"蜑":6169,"蜒":6170,"蜓":6171,"蜘":6172,"蜚":6173,"蜜":6174,"蜢":6175,"蜥":6176,"蜱":6177,"蜴":6178,"蜷":6179,"蜻":6180,"蜿":6181,"蝌":6182,"蝎":6183,"蝓":6184,"蝕":6185,"蝗":6186,"蝙":6187,"蝞":6188,"蝟":6189,"蝠":6190,"蝣":6191,"蝦":6192,"蝨":6193,"蝮":6194,"蝴":6195,"蝶":6196,"蝸":6197,"蝽":6198,"螂":6199,"螃":6200,"螄":6201,"螈":6202,"融":6203,"螞":6204,"螟":6205,"螢":6206,"螨":6207,"螫":6208,"螭":6209,"螯":6210,"螳":6211,"螵":6212,"螺":6213,"螻":6214,"蟀":6215,"蟄":6216,"蟋":6217,"蟎":6218,"蟑":6219,"蟒":6220,"蟠":6221,"蟬":6222,"蟲":6223,"蟳":6224,"蟹":6225,"蟻":6226,"蟾":6227,"蠃":6228,"蠅":6229,"蠊":6230,"蠋":6231,"蠍":6232,"蠑":6233,"蠓":6234,"蠔":6235,"蠕":6236,"蠟":6237,"蠢":6238,"蠣":6239,"蠱":6240,"蠵":6241,"蠶":6242,"蠻":6243,"血":6244,"衆":6245,"衊":6246,"行":6247,"衍":6248,"術":6249,"衕":6250,"街":6251,"衙":6252,"衛":6253,"衝":6254,"衞":6255,"衡":6256,"衢":6257,"衣":6258,"表":6259,"衩":6260,"衪":6261,"衫":6262,"衰":6263,"衷":6264,"衹":6265,"衽":6266,"衿":6267,"袁":6268,"袂":6269,"袈":6270,"袋":6271,"袍":6272,"袐":6273,"袒":6274,"袓":6275,"袖":6276,"袞":6277,"袤":6278,"袪":6279,"被":6280,"袱":6281,"袽":6282,"裁":6283,"裂":6284,"装":6285,"裊":6286,"裎":6287,"裏":6288,"裔":6289,"裕":6290,"裘":6291,"裙":6292,"補":6293,"裝":6294,"裟":6295,"裡":6296,"裨":6297,"裩":6298,"裪":6299,"裬":6300,"裱":6301,"裳":6302,"裴":6303,"裵":6304,"裸":6305,"裹":6306,"製":6307,"裾":6308,"褀":6309,"褂":6310,"複":6311,"褐":6312,"褒":6313,"褓":6314,"褔":6315,"褕":6316,"褘":6317,"褙":6318,"褚":6319,"褥":6320,"褪":6321,"褫":6322,"褲":6323,"褵":6324,"褶":6325,"褸":6326,"褻":6327,"襁":6328,"襄":6329,"襎":6330,"襖":6331,"襝":6332,"襟":6333,"襠":6334,"襤":6335,"襦":6336,"襪":6337,"襬":6338,"襯":6339,"襲":6340,"西":6341,"要":6342,"覃":6343,"覆":6344,"見":6345,"規":6346,"覓":6347,"視":6348,"覚":6349,"覡":6350,"覦":6351,"覧":6352,"親":6353,"覬":6354,"覲":6355,"観":6356,"覷":6357,"覺":6358,"覽":6359,"觀":6360,"见":6361,"角":6362,"觔":6363,"解":6364,"觥":6365,"觫":6366,"觳":6367,"觴":6368,"觸":6369,"言":6370,"訂":6371,"訃":6372,"計":6373,"訊":6374,"訌":6375,"討":6376,"訐":6377,"訒":6378,"訓":6379,"訕":6380,"訖":6381,"託":6382,"記":6383,"訛":6384,"訝":6385,"訟":6386,"訢":6387,"訣":6388,"訥":6389,"訪":6390,"設":6391,"許":6392,"訳":6393,"訴":6394,"訶":6395,"診":6396,"註":6397,"証":6398,"訾":6399,"詆":6400,"詎":6401,"詐":6402,"詑":6403,"詒":6404,"詔":6405,"評":6406,"詛":6407,"詞":6408,"詠":6409,"詡":6410,"詢":6411,"詣":6412,"試":6413,"詩":6414,"詫":6415,"詬":6416,"詭":6417,"詮":6418,"詰":6419,"話":6420,"該":6421,"詳":6422,"詹":6423,"詼":6424,"誅":6425,"誆":6426,"誇":6427,"誌":6428,"認":6429,"誒":6430,"誓":6431,"誔":6432,"誕":6433,"誘":6434,"語":6435,"誠":6436,"誡":6437,"誣":6438,"誤":6439,"誥":6440,"誦":6441,"誨":6442,"說":6443,"説":6444,"読":6445,"誰":6446,"課":6447,"誹":6448,"誼":6449,"調":6450,"諂":6451,"諄":6452,"談":6453,"諉":6454,"請":6455,"諍":6456,"諏":6457,"諒":6458,"論":6459,"諗":6460,"諛":6461,"諜":6462,"諠":6463,"諡":6464,"諤":6465,"諦":6466,"諧":6467,"諫":6468,"諭":6469,"諮":6470,"諱":6471,"諳":6472,"諴":6473,"諶":6474,"諷":6475,"諸":6476,"諺":6477,"諼":6478,"諾":6479,"謀":6480,"謁":6481,"謂":6482,"謄":6483,"謅":6484,"謊":6485,"謎":6486,"謐":6487,"謔":6488,"謖":6489,"謗":6490,"謙":6491,"講":6492,"謝":6493,"謠":6494,"謢":6495,"謦":6496,"謨":6497,"謫":6498,"謬":6499,"謳":6500,"謹":6501,"謾":6502,"譁":6503,"證":6504,"譎":6505,"譏":6506,"譖":6507,"識":6508,"譙":6509,"譚":6510,"譜":6511,"譞":6512,"譟":6513,"警":6514,"譫":6515,"譬":6516,"譭":6517,"譯":6518,"議":6519,"譴":6520,"護":6521,"譽":6522,"讀":6523,"讃":6524,"變":6525,"讎":6526,"讒":6527,"讓":6528,"讖":6529,"讚":6530,"讞":6531,"诉":6532,"诊":6533,"说":6534,"谢":6535,"谷":6536,"谿":6537,"豁":6538,"豆":6539,"豇":6540,"豈":6541,"豉":6542,"豊":6543,"豋":6544,"豌":6545,"豎":6546,"豐":6547,"豔":6548,"豚":6549,"象":6550,"豢":6551,"豪":6552,"豫":6553,"豬":6554,"豸":6555,"豹":6556,"豺":6557,"貂":6558,"貅":6559,"貉":6560,"貌":6561,"貍":6562,"貎":6563,"貓":6564,"貔":6565,"貘":6566,"貝":6567,"貞":6568,"負":6569,"財":6570,"貢":6571,"貧":6572,"貨":6573,"販":6574,"貪":6575,"貫":6576,"責":6577,"貯":6578,"貰":6579,"貲":6580,"貳":6581,"貴":6582,"貶":6583,"買":6584,"貸":6585,"貹":6586,"費":6587,"貼":6588,"貽":6589,"貿":6590,"賀":6591,"賁":6592,"賂":6593,"賃":6594,"賄":6595,"賅":6596,"資":6597,"賈":6598,"賊":6599,"賑":6600,"賒":6601,"賓":6602,"賚":6603,"賜":6604,"賝":6605,"賞":6606,"賠":6607,"賡":6608,"賢":6609,"賣":6610,"賤":6611,"賦":6612,"質":6613,"賬":6614,"賭":6615,"賴":6616,"賸":6617,"賺":6618,"購":6619,"賽":6620,"贅":6621,"贈":6622,"贊":6623,"贋":6624,"贍":6625,"贏":6626,"贓":6627,"贖":6628,"贗":6629,"贛":6630,"财":6631,"费":6632,"赔":6633,"赢":6634,"赤":6635,"赦":6636,"赧":6637,"赫":6638,"赭":6639,"赯":6640,"走":6641,"赳":6642,"赴":6643,"赶":6644,"起":6645,"趁":6646,"超":6647,"越":6648,"趕":6649,"趙":6650,"趟":6651,"趣":6652,"趨":6653,"足":6654,"趴":6655,"趺":6656,"趾":6657,"趿":6658,"跆":6659,"跋":6660,"跌":6661,"跎":6662,"跑":6663,"跘":6664,"跚":6665,"跛":6666,"距":6667,"跟":6668,"跡":6669,"跣":6670,"跤":6671,"跨":6672,"跩":6673,"跪":6674,"跫":6675,"路":6676,"跳":6677,"践":6678,"跺":6679,"踅":6680,"踉":6681,"踊":6682,"踏":6683,"踐":6684,"踝":6685,"踞":6686,"踟":6687,"踢":6688,"踩":6689,"踪":6690,"踫":6691,"踮":6692,"踰":6693,"踱":6694,"踴":6695,"踵":6696,"踹":6697,"蹂":6698,"蹄":6699,"蹇":6700,"蹈":6701,"蹉":6702,"蹊":6703,"蹋":6704,"蹌":6705,"蹓":6706,"蹕":6707,"蹟":6708,"蹠":6709,"蹣":6710,"蹤":6711,"蹦":6712,"蹩":6713,"蹬":6714,"蹭":6715,"蹲":6716,"蹴":6717,"蹶":6718,"蹺":6719,"蹼":6720,"躁":6721,"躂":6722,"躄":6723,"躅":6724,"躇":6725,"躉":6726,"躊":6727,"躋":6728,"躍":6729,"躑":6730,"躕":6731,"躝":6732,"躡":6733,"躥":6734,"躦":6735,"躪":6736,"身":6737,"躬":6738,"躱":6739,"躲":6740,"躹":6741,"躺":6742,"躼":6743,"軀":6744,"車":6745,"軋":6746,"軌":6747,"軍":6748,"軒":6749,"軔":6750,"軚":6751,"軛":6752,"軟":6753,"転":6754,"軫":6755,"軮":6756,"軰":6757,"軸":6758,"軻":6759,"軼":6760,"軽":6761,"軾":6762,"較":6763,"載":6764,"輊":6765,"輒":6766,"輓":6767,"輔":6768,"輕":6769,"輚":6770,"輛":6771,"輜":6772,"輝":6773,"輟":6774,"輦":6775,"輩":6776,"輪":6777,"輯":6778,"輳":6779,"輸":6780,"輻":6781,"輾":6782,"輿":6783,"轂":6784,"轄":6785,"轅":6786,"轆":6787,"轉":6788,"轍":6789,"轎":6790,"轟":6791,"车":6792,"轻":6793,"辛":6794,"辜":6795,"辟":6796,"辣":6797,"辦":6798,"辧":6799,"辨":6800,"辭":6801,"辮":6802,"辯":6803,"辰":6804,"辱":6805,"農":6806,"辵":6807,"辶":6808,"辺":6809,"辻":6810,"込":6811,"达":6812,"迂":6813,"迄":6814,"迅":6815,"迌":6816,"迎":6817,"近":6818,"迓":6819,"返":6820,"还":6821,"这":6822,"迢":6823,"迤":6824,"迥":6825,"迦":6826,"迨":6827,"迪":6828,"迫":6829,"迭":6830,"述":6831,"迴":6832,"迷":6833,"迸":6834,"迹":6835,"迺":6836,"追":6837,"退":6838,"送":6839,"逃":6840,"逅":6841,"逆":6842,"逍":6843,"透":6844,"逐":6845,"递":6846,"途":6847,"逕":6848,"逗":6849,"逘":6850,"這":6851,"通":6852,"逛":6853,"逝":6854,"逞":6855,"速":6856,"造":6857,"逡":6858,"逢":6859,"連":6860,"逭":6861,"逮":6862,"週":6863,"進":6864,"逵":6865,"逶":6866,"逸":6867,"逹":6868,"逼":6869,"逾":6870,"遁":6871,"遂":6872,"遅":6873,"遇":6874,"遊":6875,"運":6876,"遍":6877,"過":6878,"遏":6879,"遐":6880,"遑":6881,"道":6882,"達":6883,"違":6884,"遙":6885,"遛":6886,"遜":6887,"遝":6888,"遞":6889,"遠":6890,"遢":6891,"遣":6892,"遥":6893,"遨":6894,"適":6895,"遭":6896,"遮":6897,"遲":6898,"遴":6899,"遵":6900,"遶":6901,"遷":6902,"選":6903,"遺":6904,"遼":6905,"遽":6906,"避":6907,"邀":6908,"邁":6909,"邂":6910,"邃":6911,"還":6912,"邇":6913,"邈":6914,"邉":6915,"邊":6916,"邋":6917,"邏":6918,"邐":6919,"邑":6920,"邕":6921,"邙":6922,"邢":6923,"那":6924,"邦":6925,"邨":6926,"邪":6927,"邯":6928,"邰":6929,"邱":6930,"邳":6931,"邵":6932,"邸":6933,"郁":6934,"郃":6935,"郅":6936,"郊":6937,"郎":6938,"郗":6939,"郝":6940,"郡":6941,"郢":6942,"郤":6943,"部":6944,"郭":6945,"郵":6946,"郷":6947,"都":6948,"鄂":6949,"鄆":6950,"鄉":6951,"鄒":6952,"鄔":6953,"鄕":6954,"鄙":6955,"鄞":6956,"鄢":6957,"鄧":6958,"鄭":6959,"鄰":6960,"鄱":6961,"鄲":6962,"鄴":6963,"鄺":6964,"酇":6965,"酈":6966,"酉":6967,"酊":6968,"酋":6969,"酌":6970,"配":6971,"酐":6972,"酒":6973,"酔":6974,"酗":6975,"酚":6976,"酡":6977,"酢":6978,"酣":6979,"酥":6980,"酩":6981,"酪":6982,"酬":6983,"酮":6984,"酯":6985,"酰":6986,"酳":6987,"酵":6988,"酶":6989,"酷":6990,"酸":6991,"醂":6992,"醃":6993,"醇":6994,"醉":6995,"醋":6996,"醌":6997,"醍":6998,"醐":6999,"醒":7000,"醖":7001,"醚":7002,"醛":7003,"醜":7004,"醞":7005,"醣":7006,"醫":7007,"醬":7008,"醮":7009,"醯":7010,"醰":7011,"醱":7012,"醴":7013,"醸":7014,"醺":7015,"釀":7016,"釁":7017,"釅":7018,"釆":7019,"采":7020,"釉":7021,"釋":7022,"里":7023,"重":7024,"野":7025,"量":7026,"釐":7027,"金":7028,"釔":7029,"釕":7030,"釗":7031,"釘":7032,"釜":7033,"針":7034,"釣":7035,"釦":7036,"釧":7037,"釨":7038,"釩":7039,"釵":7040,"釹":7041,"鈀":7042,"鈁":7043,"鈅":7044,"鈈":7045,"鈉":7046,"鈊":7047,"鈍":7048,"鈎":7049,"鈐":7050,"鈑":7051,"鈔":7052,"鈕":7053,"鈜":7054,"鈞":7055,"鈣":7056,"鈥":7057,"鈦":7058,"鈴":7059,"鈷":7060,"鈸":7061,"鈺":7062,"鈽":7063,"鈾":7064,"鈿":7065,"鉀":7066,"鉄":7067,"鉅":7068,"鉆":7069,"鉉":7070,"鉍":7071,"鉑":7072,"鉗":7073,"鉚":7074,"鉛":7075,"鉢":7076,"鉤":7077,"鉦":7078,"鉬":7079,"鉭":7080,"鉸":7081,"鉻":7082,"鉾":7083,"鉿":7084,"銀":7085,"銃":7086,"銅":7087,"銈":7088,"銍":7089,"銑":7090,"銓":7091,"銖":7092,"銘":7093,"銜":7094,"銠":7095,"銣":7096,"銦":7097,"銨":7098,"銩":7099,"銪":7100,"銫":7101,"銬":7102,"銲":7103,"銳":7104,"銷":7105,"銹":7106,"銻":7107,"銼":7108,"鋁":7109,"鋃":7110,"鋅":7111,"鋉":7112,"鋌":7113,"鋏":7114,"鋐":7115,"鋒":7116,"鋕":7117,"鋗":7118,"鋤":7119,"鋪":7120,"鋬":7121,"鋭":7122,"鋯":7123,"鋰":7124,"鋸":7125,"鋼":7126,"錂":7127,"錄":7128,"錆":7129,"錐":7130,"錘":7131,"錙":7132,"錚":7133,"錛":7134,"錞":7135,"錠":7136,"錡":7137,"錢":7138,"錤":7139,"錦":7140,"錧":7141,"錨":7142,"錩":7143,"錫":7144,"錬":7145,"錮":7146,"錯":7147,"錱":7148,"録":7149,"錳":7150,"錶":7151,"錸":7152,"錼":7153,"鍀":7154,"鍇":7155,"鍊":7156,"鍋":7157,"鍍":7158,"鍘":7159,"鍚":7160,"鍛":7161,"鍠":7162,"鍥":7163,"鍬":7164,"鍮":7165,"鍰":7166,"鍵":7167,"鍶":7168,"鍺":7169,"鍼":7170,"鍾":7171,"鎂":7172,"鎊":7173,"鎌":7174,"鎏":7175,"鎔":7176,"鎖":7177,"鎗":7178,"鎘":7179,"鎚":7180,"鎢":7181,"鎧":7182,"鎩":7183,"鎬":7184,"鎮":7185,"鎯":7186,"鎰":7187,"鎳":7188,"鎵":7189,"鎿":7190,"鏃":7191,"鏈":7192,"鏑":7193,"鏖":7194,"鏗":7195,"鏘":7196,"鏜":7197,"鏞":7198,"鏟":7199,"鏡":7200,"鏢":7201,"鏤":7202,"鏽":7203,"鐐":7204,"鐔":7205,"鐘":7206,"鐙":7207,"鐠":7208,"鐡":7209,"鐧":7210,"鐫":7211,"鐮":7212,"鐲":7213,"鐳":7214,"鐵":7215,"鐶":7216,"鐸":7217,"鐹":7218,"鐺":7219,"鐽":7220,"鑄":7221,"鑊":7222,"鑌":7223,"鑑":7224,"鑒":7225,"鑛":7226,"鑠":7227,"鑢":7228,"鑣":7229,"鑫":7230,"鑭":7231,"鑰":7232,"鑲":7233,"鑴":7234,"鑷":7235,"鑼":7236,"鑽":7237,"鑾":7238,"鑿":7239,"钾":7240,"锐":7241,"错":7242,"镁":7243,"镜":7244,"長":7245,"門":7246,"閃":7247,"閆":7248,"閉":7249,"開":7250,"閎":7251,"閏":7252,"閑":7253,"閒":7254,"間":7255,"閔":7256,"閘":7257,"閡":7258,"関":7259,"閣":7260,"閤":7261,"閥":7262,"閨":7263,"閩":7264,"閭":7265,"閱":7266,"閲":7267,"閵":7268,"閹":7269,"閻":7270,"閾":7271,"闀":7272,"闃":7273,"闆":7274,"闇":7275,"闈":7276,"闊":7277,"闌":7278,"闍":7279,"闓":7280,"闔":7281,"闕":7282,"闖":7283,"闗":7284,"闘":7285,"關":7286,"闡":7287,"闢":7288,"门":7289,"问":7290,"闻":7291,"阆":7292,"阜":7293,"阠":7294,"阡":7295,"阪":7296,"阮":7297,"阱":7298,"防":7299,"阶":7300,"阻":7301,"阿":7302,"陀":7303,"陃":7304,"附":7305,"陋":7306,"陌":7307,"降":7308,"限":7309,"陔":7310,"陛":7311,"陜":7312,"陝":7313,"陞":7314,"陡":7315,"院":7316,"陣":7317,"除":7318,"险":7319,"陪":7320,"陰":7321,"陲":7322,"陳":7323,"陵":7324,"陶":7325,"陷":7326,"陸":7327,"険":7328,"陽":7329,"隅":7330,"隆":7331,"隈":7332,"隊":7333,"隋":7334,"隍":7335,"階":7336,"随":7337,"隔":7338,"隕":7339,"隘":7340,"隙":7341,"際":7342,"障":7343,"隠":7344,"隣":7345,"隧":7346,"隨":7347,"險":7348,"隱":7349,"隴":7350,"隷":7351,"隸":7352,"隻":7353,"隼":7354,"隽":7355,"雀":7356,"雁":7357,"雃":7358,"雄":7359,"雅":7360,"集":7361,"雇":7362,"雉":7363,"雋":7364,"雌":7365,"雍":7366,"雕":7367,"雖":7368,"雙":7369,"雛":7370,"雜":7371,"雞":7372,"離":7373,"難":7374,"雨":7375,"雩":7376,"雪":7377,"雫":7378,"雯":7379,"雱":7380,"雲":7381,"零":7382,"雷":7383,"雹":7384,"電":7385,"需":7386,"霄":7387,"霆":7388,"震":7389,"霈":7390,"霉":7391,"霊":7392,"霍":7393,"霎":7394,"霏":7395,"霑":7396,"霓":7397,"霖":7398,"霙":7399,"霜":7400,"霞":7401,"霠":7402,"霧":7403,"霰":7404,"露":7405,"霸":7406,"霹":7407,"霾":7408,"靂":7409,"靄":7410,"靆":7411,"靈":7412,"靉":7413,"青":7414,"靓":7415,"靖":7416,"静":7417,"靚":7418,"靛":7419,"靜":7420,"非":7421,"靠":7422,"靡":7423,"面":7424,"靣":7425,"靦":7426,"靨":7427,"革":7428,"靭":7429,"靳":7430,"靴":7431,"靶":7432,"靼":7433,"鞄":7434,"鞅":7435,"鞋":7436,"鞍":7437,"鞏":7438,"鞕":7439,"鞘":7440,"鞠":7441,"鞣":7442,"鞦":7443,"鞭":7444,"鞮":7445,"韁":7446,"韃":7447,"韆":7448,"韋":7449,"韌":7450,"韓":7451,"韙":7452,"韜":7453,"韞":7454,"韡":7455,"韭":7456,"音":7457,"韵":7458,"韶":7459,"韻":7460,"韾":7461,"響":7462,"頁":7463,"頂":7464,"頃":7465,"項":7466,"順":7467,"頇":7468,"須":7469,"頌":7470,"頎":7471,"頏":7472,"預":7473,"頑":7474,"頒":7475,"頓":7476,"頔":7477,"頗":7478,"領":7479,"頜":7480,"頡":7481,"頣":7482,"頤":7483,"頭":7484,"頰":7485,"頴":7486,"頷":7487,"頸":7488,"頹":7489,"頻":7490,"頽":7491,"顆":7492,"題":7493,"額":7494,"顎":7495,"顏":7496,"顔":7497,"顗":7498,"願":7499,"顙":7500,"顛":7501,"類":7502,"顢":7503,"顥":7504,"顧":7505,"顫":7506,"顯":7507,"顰":7508,"顱":7509,"顳":7510,"顴":7511,"项":7512,"顾":7513,"领":7514,"颕":7515,"额":7516,"風":7517,"颯":7518,"颱":7519,"颳":7520,"颶":7521,"颺":7522,"颼":7523,"飄":7524,"飆":7525,"飇":7526,"飈":7527,"飛":7528,"食":7529,"飢":7530,"飧":7531,"飩":7532,"飪":7533,"飭":7534,"飮":7535,"飯":7536,"飲":7537,"飴":7538,"飼":7539,"飽":7540,"飾":7541,"餃":7542,"餅":7543,"餉":7544,"養":7545,"餌":7546,"餐":7547,"餑":7548,"餒":7549,"餓":7550,"餔":7551,"餘":7552,"餚":7553,"餛":7554,"餞":7555,"餡":7556,"館":7557,"餬":7558,"餵":7559,"餽":7560,"餾":7561,"餿":7562,"饀":7563,"饃":7564,"饅":7565,"饈":7566,"饉":7567,"饋":7568,"饌":7569,"饑":7570,"饒":7571,"饕":7572,"饗":7573,"饜":7574,"饞":7575,"首":7576,"馗":7577,"香":7578,"馥":7579,"馨":7580,"馬":7581,"馭":7582,"馮":7583,"馱":7584,"馳":7585,"馴":7586,"駁":7587,"駄":7588,"駅":7589,"駐":7590,"駑":7591,"駒":7592,"駕":7593,"駙":7594,"駛":7595,"駝":7596,"駡":7597,"駪":7598,"駭":7599,"駱":7600,"駿":7601,"騁":7602,"騂":7603,"騄":7604,"騅":7605,"騉":7606,"騎":7607,"騏":7608,"騒":7609,"験":7610,"騖":7611,"騙":7612,"騥":7613,"騫":7614,"騮":7615,"騰":7616,"騷":7617,"驀":7618,"驁":7619,"驃":7620,"驄":7621,"驅":7622,"驊":7623,"驍":7624,"驒":7625,"驕":7626,"驗":7627,"驚":7628,"驛":7629,"驟":7630,"驢":7631,"驥":7632,"驪":7633,"驫":7634,"骨":7635,"骯":7636,"骰":7637,"骷":7638,"骸":7639,"骺":7640,"骼":7641,"髂":7642,"髄":7643,"髎":7644,"髏":7645,"髒":7646,"髓":7647,"體":7648,"髕":7649,"髖":7650,"髗":7651,"高":7652,"髙":7653,"髦":7654,"髪":7655,"髭":7656,"髮":7657,"髯":7658,"髻":7659,"鬃":7660,"鬆":7661,"鬍":7662,"鬚":7663,"鬟":7664,"鬢":7665,"鬣":7666,"鬥":7667,"鬧":7668,"鬨":7669,"鬩":7670,"鬪":7671,"鬰":7672,"鬱":7673,"鬼":7674,"魁":7675,"魂":7676,"魄":7677,"魅":7678,"魍":7679,"魎":7680,"魏":7681,"魑":7682,"魔":7683,"魘":7684,"魚":7685,"魛":7686,"魟":7687,"魠":7688,"魨":7689,"魩":7690,"魯":7691,"魷":7692,"鮋":7693,"鮑":7694,"鮟":7695,"鮪":7696,"鮫":7697,"鮭":7698,"鮮":7699,"鮸":7700,"鯁":7701,"鯃":7702,"鯉":7703,"鯊":7704,"鯓":7705,"鯔":7706,"鯖":7707,"鯛":7708,"鯡":7709,"鯢":7710,"鯤":7711,"鯧":7712,"鯨":7713,"鯪":7714,"鯮":7715,"鯰":7716,"鯷":7717,"鯽":7718,"鰆":7719,"鰈":7720,"鰍":7721,"鰓":7722,"鰡":7723,"鰣":7724,"鰤":7725,"鰥":7726,"鰩":7727,"鰭":7728,"鰱":7729,"鰲":7730,"鰷":7731,"鰹":7732,"鰺":7733,"鰻":7734,"鱂":7735,"鱅":7736,"鱇":7737,"鱈":7738,"鱉":7739,"鱒":7740,"鱔":7741,"鱗":7742,"鱘":7743,"鱝":7744,"鱟":7745,"鱧":7746,"鱪":7747,"鱲":7748,"鱷":7749,"鱸":7750,"鱺":7751,"鱻":7752,"鲁":7753,"鲍":7754,"鲜":7755,"鲨":7756,"鲭":7757,"鲵":7758,"鳥":7759,"鳧":7760,"鳩":7761,"鳯":7762,"鳳":7763,"鳴":7764,"鳶":7765,"鴆":7766,"鴉":7767,"鴐":7768,"鴒":7769,"鴕":7770,"鴛":7771,"鴞":7772,"鴟":7773,"鴣":7774,"鴦":7775,"鴨":7776,"鴯":7777,"鴴":7778,"鴻":7779,"鴿":7780,"鵑":7781,"鵜":7782,"鵝":7783,"鵟":7784,"鵠":7785,"鵡":7786,"鵪":7787,"鵬":7788,"鵯":7789,"鵰":7790,"鵲":7791,"鶇":7792,"鶉":7793,"鶓":7794,"鶘":7795,"鶚":7796,"鶩":7797,"鶯":7798,"鶴":7799,"鶻":7800,"鶼":7801,"鶿":7802,"鷂":7803,"鷄":7804,"鷈":7805,"鷓":7806,"鷗":7807,"鷥":7808,"鷲":7809,"鷴":7810,"鷸":7811,"鷹":7812,"鷺":7813,"鷿":7814,"鸕":7815,"鸚":7816,"鸛":7817,"鸝":7818,"鸞":7819,"鹵":7820,"鹹":7821,"鹼":7822,"鹽":7823,"鹿":7824,"麂":7825,"麃":7826,"麋":7827,"麒":7828,"麓":7829,"麗":7830,"麝":7831,"麟":7832,"麥":7833,"麩":7834,"麴":7835,"麵":7836,"麻":7837,"麼":7838,"麽":7839,"麾":7840,"黃":7841,"黄":7842,"黍":7843,"黎":7844,"黏":7845,"黐":7846,"黑":7847,"黒":7848,"黔":7849,"默":7850,"黛":7851,"黜":7852,"黝":7853,"點":7854,"黠":7855,"黥":7856,"黦":7857,"黧":7858,"黨":7859,"黯":7860,"黴":7861,"黷":7862,"黻":7863,"鼇":7864,"鼎":7865,"鼐":7866,"鼓":7867,"鼔":7868,"鼠":7869,"鼩":7870,"鼬":7871,"鼯":7872,"鼻":7873,"鼽":7874,"鼾":7875,"齁":7876,"齊":7877,"齋":7878,"齎":7879,"齒":7880,"齜":7881,"齟":7882,"齡":7883,"齢":7884,"齣":7885,"齦":7886,"齧":7887,"齪":7888,"齬":7889,"齲":7890,"齷":7891,"龍":7892,"龎":7893,"龐":7894,"龔":7895,"龕":7896,"龙":7897,"龜":7898,"龢":7899,"龥":7900,"꜆":7901,"가":7902,"각":7903,"갈":7904,"감":7905,"갑":7906,"강":7907,"같":7908,"개":7909,"갱":7910,"거":7911,"걱":7912,"건":7913,"걷":7914,"걸":7915,"검":7916,"것":7917,"겉":7918,"게":7919,"겐":7920,"겨":7921,"격":7922,"겸":7923,"겼":7924,"경":7925,"계":7926,"고":7927,"곧":7928,"공":7929,"과":7930,"곽":7931,"관":7932,"광":7933,"교":7934,"구":7935,"국":7936,"군":7937,"굴":7938,"궁":7939,"그":7940,"글":7941,"금":7942,"기":7943,"긴":7944,"길":7945,"김":7946,"깊":7947,"까":7948,"깨":7949,"꺄":7950,"꺼":7951,"께":7952,"껴":7953,"꼬":7954,"꼰":7955,"꽃":7956,"꾸":7957,"꿀":7958,"꿔":7959,"뀔":7960,"끼":7961,"낌":7962,"나":7963,"난":7964,"날":7965,"남":7966,"낮":7967,"내":7968,"냐":7969,"너":7970,"널":7971,"넘":7972,"넣":7973,"네":7974,"넹":7975,"년":7976,"녕":7977,"놈":7978,"농":7979,"누":7980,"느":7981,"는":7982,"늘":7983,"니":7984,"님":7985,"닝":7986,"다":7987,"닥":7988,"단":7989,"달":7990,"담":7991,"당":7992,"대":7993,"더":7994,"덕":7995,"데":7996,"델":7997,"도":7998,"돈":7999,"돌":8000,"동":8001,"돼":8002,"되":8003,"된":8004,"두":8005,"둘":8006,"뒷":8007,"드":8008,"득":8009,"든":8010,"들":8011,"디":8012,"따":8013,"때":8014,"땡":8015,"또":8016,"똑":8017,"뜨":8018,"뜻":8019,"라":8020,"락":8021,"람":8022,"랑":8023,"래":8024,"랙":8025,"랜":8026,"럭":8027,"런":8028,"럴":8029,"렁":8030,"렇":8031,"레":8032,"렌":8033,"려":8034,"련":8035,"령":8036,"로":8037,"록":8038,"롱":8039,"루":8040,"룸":8041,"류":8042,"률":8043,"르":8044,"를":8045,"릉":8046,"리":8047,"릭":8048,"린":8049,"릴":8050,"림":8051,"립":8052,"링":8053,"마":8054,"막":8055,"만":8056,"많":8057,"말":8058,"맛":8059,"망":8060,"맞":8061,"매":8062,"먹":8063,"멀":8064,"면":8065,"멸":8066,"명":8067,"모":8068,"목":8069,"몸":8070,"못":8071,"무":8072,"문":8073,"물":8074,"뭉":8075,"뭔":8076,"미":8077,"민":8078,"밀":8079,"바":8080,"박":8081,"밖":8082,"반":8083,"받":8084,"발":8085,"밥":8086,"방":8087,"백":8088,"뱃":8089,"범":8090,"법":8091,"벽":8092,"병":8093,"보":8094,"복":8095,"볶":8096,"본":8097,"볼":8098,"봄":8099,"봐":8100,"부":8101,"북":8102,"분":8103,"불":8104,"뷰":8105,"브":8106,"블":8107,"비":8108,"빈":8109,"빛":8110,"빠":8111,"빼":8112,"뻐":8113,"뿅":8114,"쁘":8115,"쁜":8116,"쁨":8117,"사":8118,"산":8119,"살":8120,"상":8121,"새":8122,"색":8123,"생":8124,"샷":8125,"서":8126,"석":8127,"선":8128,"설":8129,"성":8130,"세":8131,"셀":8132,"셋":8133,"셔":8134,"소":8135,"속":8136,"수":8137,"숙":8138,"순":8139,"술":8140,"쉬":8141,"슈":8142,"스":8143,"슴":8144,"습":8145,"시":8146,"식":8147,"신":8148,"실":8149,"심":8150,"십":8151,"싶":8152,"쌈":8153,"쌉":8154,"쌓":8155,"써":8156,"쏘":8157,"쏙":8158,"쓰":8159,"씨":8160,"아":8161,"악":8162,"안":8163,"않":8164,"알":8165,"았":8166,"앙":8167,"앞":8168,"애":8169,"액":8170,"앤":8171,"앨":8172,"야":8173,"양":8174,"어":8175,"언":8176,"얼":8177,"없":8178,"엇":8179,"었":8180,"엉":8181,"에":8182,"엔":8183,"엠":8184,"여":8185,"역":8186,"연":8187,"열":8188,"영":8189,"옆":8190,"예":8191,"오":8192,"옥":8193,"온":8194,"올":8195,"옷":8196,"옹":8197,"완":8198,"왔":8199,"요":8200,"용":8201,"우":8202,"욱":8203,"운":8204,"울":8205,"워":8206,"원":8207,"웨":8208,"웹":8209,"위":8210,"유":8211,"윤":8212,"율":8213,"윰":8214,"으":8215,"은":8216,"을":8217,"음":8218,"응":8219,"의":8220,"이":8221,"인":8222,"일":8223,"입":8224,"있":8225,"자":8226,"작":8227,"잖":8228,"잘":8229,"잠":8230,"장":8231,"재":8232,"잼":8233,"저":8234,"적":8235,"전":8236,"절":8237,"점":8238,"정":8239,"제":8240,"져":8241,"졌":8242,"졍":8243,"조":8244,"족":8245,"존":8246,"좋":8247,"주":8248,"준":8249,"중":8250,"즈":8251,"즘":8252,"증":8253,"지":8254,"직":8255,"진":8256,"짐":8257,"집":8258,"짜":8259,"짝":8260,"짧":8261,"짱":8262,"쩔":8263,"쭉":8264,"찌":8265,"찍":8266,"차":8267,"찬":8268,"참":8269,"찾":8270,"채":8271,"챙":8272,"척":8273,"천":8274,"초":8275,"촬":8276,"최":8277,"추":8278,"축":8279,"춥":8280,"츠":8281,"치":8282,"친":8283,"침":8284,"칭":8285,"카":8286,"컷":8287,"케":8288,"켈":8289,"코":8290,"콘":8291,"쿠":8292,"퀴":8293,"크":8294,"클":8295,"키":8296,"킷":8297,"킹":8298,"타":8299,"탁":8300,"탄":8301,"탈":8302,"태":8303,"탱":8304,"터":8305,"턱":8306,"테":8307,"텐":8308,"토":8309,"톰":8310,"통":8311,"투":8312,"툰":8313,"튜":8314,"트":8315,"티":8316,"팁":8317,"팅":8318,"팍":8319,"팜":8320,"패":8321,"편":8322,"포":8323,"품":8324,"프":8325,"픈":8326,"플":8327,"피":8328,"필":8329,"하":8330,"한":8331,"할":8332,"함":8333,"합":8334,"항":8335,"해":8336,"핵":8337,"했":8338,"행":8339,"향":8340,"햫":8341,"헬":8342,"현":8343,"혈":8344,"협":8345,"형":8346,"혜":8347,"호":8348,"홀":8349,"홍":8350,"화":8351,"확":8352,"환":8353,"회":8354,"효":8355,"후":8356,"훈":8357,"휴":8358,"흐":8359,"흔":8360,"히":8361,"힐":8362,"힣":8363,"":8364,"":8365,"":8366,"":8367,"":8368,"":8369,"":8370,"":8371,"":8372,"":8373,"":8374,"":8375,"更":8376,"車":8377,"滑":8378,"契":8379,"金":8380,"羅":8381,"邏":8382,"落":8383,"蘭":8384,"拉":8385,"來":8386,"冷":8387,"勞":8388,"擄":8389,"盧":8390,"老":8391,"路":8392,"魯":8393,"綠":8394,"錄":8395,"論":8396,"牢":8397,"樓":8398,"漏":8399,"勒":8400,"凌":8401,"讀":8402,"率":8403,"異":8404,"北":8405,"便":8406,"復":8407,"不":8408,"泌":8409,"數":8410,"索":8411,"參":8412,"塞":8413,"若":8414,"亮":8415,"兩":8416,"梁":8417,"良":8418,"量":8419,"勵":8420,"女":8421,"旅":8422,"濾":8423,"力":8424,"歷":8425,"年":8426,"練":8427,"聯":8428,"蓮":8429,"連":8430,"列":8431,"裂":8432,"說":8433,"念":8434,"令":8435,"零":8436,"領":8437,"例":8438,"了":8439,"料":8440,"樂":8441,"療":8442,"龍":8443,"暈":8444,"劉":8445,"流":8446,"留":8447,"硫":8448,"類":8449,"六":8450,"陸":8451,"輪":8452,"律":8453,"隆":8454,"利":8455,"履":8456,"易":8457,"李":8458,"泥":8459,"理":8460,"里":8461,"離":8462,"林":8463,"立":8464,"狀":8465,"識":8466,"什":8467,"度":8468,"拓":8469,"糖":8470,"宅":8471,"行":8472,"降":8473,"見":8474,"兀":8475,"﨑":8476,"益":8477,"神":8478,"祥":8479,"福":8480,"精":8481,"逸":8482,"館":8483,"︎":8484,"️":8485,"︙":8486,"︰":8487,"︱":8488,"︳":8489,"︵":8490,"︶":8491,"﹁":8492,"﹂":8493,"﹅":8494,"﹐":8495,"﹑":8496,"﹒":8497,"﹔":8498,"﹕":8499,"﹖":8500,"﹗":8501,"﹘":8502,"﹙":8503,"﹚":8504,"﹝":8505,"﹞":8506,"﹣":8507,"﹪":8508,"﻿":8509,"！":8510,"＂":8511,"＃":8512,"＄":8513,"％":8514,"＆":8515,"（":8516,"）":8517,"＊":8518,"＋":8519,"，":8520,"－":8521,"．":8522,"／":8523,"０":8524,"１":8525,"２":8526,"３":8527,"４":8528,"５":8529,"６":8530,"７":8531,"８":8532,"９":8533,"：":8534,"；":8535,"＜":8536,"＝":8537,"＞":8538,"？":8539,"＠":8540,"Ａ":8541,"Ｂ":8542,"Ｃ":8543,"Ｄ":8544,"Ｅ":8545,"Ｆ":8546,"Ｇ":8547,"Ｈ":8548,"Ｉ":8549,"Ｊ":8550,"Ｋ":8551,"Ｌ":8552,"Ｍ":8553,"Ｎ":8554,"Ｏ":8555,"Ｐ":8556,"Ｑ":8557,"Ｒ":8558,"Ｓ":8559,"Ｔ":8560,"Ｕ":8561,"Ｖ":8562,"Ｗ":8563,"Ｘ":8564,"Ｙ":8565,"Ｚ":8566,"［":8567,"＼":8568,"］":8569,"＿":8570,"｀":8571,"ｅ":8572,"ｇ":8573,"ｈ":8574,"ｉ":8575,"ｌ":8576,"ｍ":8577,"ｎ":8578,"ｏ":8579,"ｔ":8580,"ｗ":8581,"ｘ":8582,"ｙ":8583,"｜":8584,"～":8585,"｡":8586,"｢":8587,"｣":8588,"･":8589,"ｫ":8590,"ｬ":8591,"ｯ":8592,"ｰ":8593,"ｲ":8594,"ｶ":8595,"ｺ":8596,"ｻ":8597,"ｼ":8598,"ﾂ":8599,"ﾃ":8600,"ﾄ":8601,"ﾅ":8602,"ﾉ":8603,"ﾊ":8604,"ﾌ":8605,"ﾏ":8606,"ﾐ":8607,"ﾘ":8608,"ﾙ":8609,"ﾜ":8610,"ﾝ":8611,"ﾞ":8612,"ﾟ":8613,"￼":8614,"𝐞":8615,"𝐢":8616,"𝐤":8617,"𝐦":8618,"𝐫":8619,"𝐮":8620,"𝐿":8621,"𝑜":8622,"𝒟":8623,"𝒾":8624,"𝓇":8625,"𝓈":8626,"𝓊":8627,"𝓜":8628,"𝓡":8629,"𝓢":8630,"𝓪":8631,"𝓬":8632,"𝓮":8633,"𝓲":8634,"𝓴":8635,"𝓷":8636,"𝔃":8637,"𝖍":8638,"𝖘":8639,"𝖚":8640,"𝘼":8641,"𝙄":8642,"𝙉":8643,"𝙎":8644,"𝙐":8645,"𝙖":8646,"𝙚":8647,"𝙡":8648,"𝙢":8649,"𝙣":8650,"𝙤":8651,"𝙧":8652,"𝙫":8653,"𝙰":8654,"𝙴":8655,"𝙶":8656,"𝙷":8657,"𝙸":8658,"𝙻":8659,"𝙼":8660,"𝚂":8661,"𝚃":8662,"𝝱":8663,"𝟸":8664,"🆚":8665,"🇨":8666,"🇫":8667,"🇮":8668,"🇯":8669,"🇰":8670,"🇱":8671,"🇲":8672,"🇳":8673,"🇵":8674,"🇷":8675,"🇹":8676,"🇺":8677,"🇻":8678,"🇼":8679,"🇾":8680,"🌇":8681,"🌈":8682,"🌊":8683,"🌍":8684,"🌎":8685,"🌏":8686,"🌙":8687,"🌝":8688,"🌞":8689,"🌟":8690,"🌠":8691,"🌨":8692,"🌱":8693,"🌳":8694,"🌶":8695,"🌸":8696,"🌹":8697,"🌺":8698,"🌻":8699,"🌼":8700,"🍀":8701,"🍋":8702,"🍑":8703,"🍒":8704,"🍗":8705,"🍚":8706,"🍜":8707,"🍞":8708,"🍥":8709,"🍨":8710,"🍩":8711,"🎄":8712,"🎅":8713,"🎆":8714,"🎉":8715,"🎊":8716,"🎨":8717,"🎬":8718,"🎮":8719,"🎯":8720,"🎵":8721,"🏁":8722,"🏆":8723,"🏊":8724,"🏓":8725,"🏝":8726,"🏻":8727,"🏼":8728,"🏽":8729,"🐀":8730,"🐇":8731,"🐤":8732,"🐯":8733,"🐰":8734,"🐱":8735,"🐳":8736,"🐶":8737,"🐷":8738,"🐸":8739,"🐻":8740,"🐼":8741,"🐾":8742,"👀":8743,"👁":8744,"👇":8745,"👉":8746,"👊":8747,"👋":8748,"👍":8749,"👏":8750,"👘":8751,"👜":8752,"👭":8753,"👮":8754,"👸":8755,"👼":8756,"💁":8757,"💃":8758,"💉":8759,"💋":8760,"💎":8761,"💓":8762,"💔":8763,"💕":8764,"💖":8765,"💗":8766,"💘":8767,"💙":8768,"💚":8769,"💛":8770,"💝":8771,"💢":8772,"💤":8773,"💥":8774,"💦":8775,"💩":8776,"💪":8777,"💫":8778,"💭":8779,"💰":8780,"📧":8781,"📷":8782,"📸":8783,"📼":8784,"📽":8785,"🔍":8786,"🔎":8787,"🔒":8788,"🔔":8789,"🔖":8790,"🔞":8791,"🔥":8792,"🔦":8793,"🔩":8794,"🔭":8795,"🔺":8796,"🕊":8797,"🕺":8798,"🖌":8799,"🖐":8800,"🖤":8801,"🗣":8802,"🗨":8803,"🗿":8804,"😀":8805,"😁":8806,"😂":8807,"😄":8808,"😅":8809,"😆":8810,"😇":8811,"😉":8812,"😊":8813,"😋":8814,"😌":8815,"😍":8816,"😎":8817,"😏":8818,"😖":8819,"😗":8820,"😘":8821,"😙":8822,"😚":8823,"😛":8824,"😜":8825,"😝":8826,"😢":8827,"😤":8828,"😩":8829,"😫":8830,"😭":8831,"😰":8832,"😱":8833,"😳":8834,"😷":8835,"😽":8836,"😿":8837,"🙃":8838,"🙄":8839,"🙅":8840,"🙆":8841,"🙇":8842,"🙌":8843,"🙏":8844,"🚃":8845,"🚨":8846,"🚩":8847,"🚵":8848,"🚿":8849,"🛁":8850,"🟡":8851,"🟨":8852,"🤍":8853,"🤎":8854,"🤓":8855,"🤔":8856,"🤖":8857,"🤙":8858,"🤞":8859,"🤢":8860,"🤣":8861,"🤨":8862,"🤩":8863,"🤪":8864,"🤯":8865,"🤸":8866,"🤾":8867,"🥂":8868,"🥇":8869,"🥈":8870,"🥊":8871,"🥕":8872,"🥦":8873,"🥰":8874,"🥳":8875,"🥴":8876,"🥶":8877,"🥺":8878,"🦁":8879,"🦄":8880,"🦊":8881,"🦋":8882,"🦦":8883,"🦩":8884,"🦵":8885,"🦷":8886,"🧗":8887,"🧘":8888,"🧚":8889,"🧠":8890,"🧡":8891,"🧧":8892,"🧬":8893,"🧼":8894,"🪐":8895,"𠽾":8896,"𡒉":8897,"𡘙":8898,"𡚒":8899,"𢭃":8900,"𣈱":8901,"𥇦":8902,"𥌓":8903,"𥚃":8904,"𥴊":8905,"𦱾":8906,"𧄌":8907,"𨑨":8908,"𩵚":8909,"𩻸":8910,"20":8911,"10":8912,"表示":8913,"EP":8914,"確診":8915,"SEP":8916,"台灣":8917,"檢疫":8918,"症狀":8919,"多歲":8920,"11":8921,"30":8922,"採檢":8923,"」，":8924,"12":8925,"美國":8926,"19":8927,"月2":8928,"。●":8929,"00":8930,"工作":8931,"報導":8932,"入境":8933,"」、":8934,"」、「":8935,"沒有":8936,"出現":8937,"可以":8938,"自己":8939,"進行":8940,"on":8941,"。」":8942,"更多":8943,"疫情":8944,"，「":8945,"中國":8946,"21":8947,"」。":8948,"3日":8949,"新聞":8950,"個案":8951,"月1":8952,"可能":8953,"疫苗":8954,"因為":8955,"女性":8956,"男性":8957,"目前":8958,"公司":8959,"中心":8960,"提供":8961,"：「":8962,"陰性":8963,"網友":8964,"我們":8965,"一個":8966,"民眾":8967,"時間":8968,"。（":8969,"防疫":8970,"今年":8971,"政府":8972,"多歲男性":8973,"er":8974,"使用":8975,"活動":8976,"指出":8977,"就是":8978,"發現":8979,"檢驗":8980,"台北":8981,"相關":8982,"接觸":8983,"in":8984,"不過":8985,"50":8986,"今天":8987,"2021":8988,"多歲女性":8989,"人員":8990,"醫院":8991,"安排":8992,"就醫":8993,"已經":8994,"2020":8995,"因此":8996,"an":8997,"第一":8998,"其中":8999,"學生":9000,"報告":9001,"日本":9002,"記者":9003,"14":9004,"健康":9005,"認為":9006,"問題":9007,"指揮":9008,"40":9009,"他們":9010,"檢疫期":9011,"衛生":9012,"iP":9013,"其他":9014,"印度":9015,"居家":9016,"8日":9017,"5日":9018,"開始":9019,"結果":9020,"one":9021,"影響":9022,"持續":9023,"透過":9024,"發生":9025,"6日":9026,"大學":9027,"以及":9028,"國家":9029,"無症狀":9030,"ar":9031,"hone":9032,"7日":9033,"接種":9034,"什麼":9035,"不是":9036,"希望":9037,"教育":9038,"現在":9039,"18":9040,"4日":9041,"2020年":9042,"如果":9043,"去年":9044,"iPhone":9045,"22":9046,"隔離":9047,"15":9048,"單位":9049,"通報":9050,"許多":9051,"中央":9052,"需要":9053,"管理":9054,"入境後":9055,"還有":9056,"持有":9057,"全球":9058,"指揮中心":9059,"國際":9060,"調查":9061,"印尼":9062,"這樣":9063,"手機":9064,"機前":9065,"生活":9066,"le":9067,"集中":9068,"的人":9069,"這個":9070,"3月":9071,"安全":9072,"4月":9073,"同時":9074,"服務":9075,"檢驗陰性":9076,"。▲":9077,"2021年":9078,"還是":9079,"咳嗽":9080,"機師":9081,"警方":9082,"檢疫期滿":9083,"3日內":9084,"未來":9085,"60":9086,"不會":9087,"發燒":9088,"除了":9089,"學校":9090,"期間":9091,"市場":9092,"新冠":9093,"一名":9094,"en":9095,"肺炎":9096,"成為":9097,"機前3日內":9098,"甚至":9099,"部分":9100,"合作":9101,"檢驗陰性報告":9102,"大家":9103,"9日":9104,"設計":9105,"17":9106,"無法":9107,"包括":9108,"16":9109,"110":9110,"也是":9111,"都是":9112,"總統":9113,"感染":9114,"發展":9115,"推出":9116,"雖然":9117,"經濟":9118,"最後":9119,"世界":9120,"檢疫所":9121,"相當":9122,"旅遊":9123,"所以":9124,"接觸者":9125,"這些":9126,"旅館":9127,"英國":9128,"對於":9129,"al":9130,"看到":9131,"機場":9132,"真的":9133,"要求":9134,"or":9135,"接受":9136,"投資":9137,"研究":9138,"25":9139,"由於":9140,"超過":9141,"也有":9142,"PO":9143,"並確診":9144,"重要":9145,"增加":9146,"翻攝":9147,"13":9148,"是否":9149,"籍20":9150,"律賓":9151,"%，":9152,"菲律賓":9153,"根據":9154,"今日":9155,"針對":9156,"方式":9157,"功能":9158,"不同":9159,"關係":9160,"網路":9161,"oo":9162,"非常":9163,"造成":9164,"華航":9165,"臉書":9166,"運動":9167,"機會":9168,"蘋果":9169,"一次":9170,"家人":9171,"其實":9172,"口罩":9173,"為了":9174,"建議":9175,"出國":9176,"病毒":9177,"集中檢疫所":9178,"台中":9179,"北市":9180,"醫師":9181,"一起":9182,"處理":9183,"資料":9184,"社會":9185,"ro":9186,"科技":9187,"不少":9188,"入境後至":9189,"代表":9190,"知道":9191,"男子":9192,"陽性":9193,"拜登":9194,"孩子":9195,"狀況":9196,"），":9197,"公布":9198,"選擇":9199,"的是":9200,"地區":9201,"治療":9202,"特別":9203,"5月":9204,"另外":9205,"本國":9206,"分享":9207,"當地":9208,"CO":9209,"ID":9210,"4月2":9211,"at":9212,"前往":9213,"過去":9214,"應該":9215,"系統":9216,"it":9217,"萬元":9218,"個月":9219,"案11":9220,"27":9221,"來臺":9222,"完成":9223,"技術":9224,"分別":9225,"朋友":9226,"28":9227,"2019":9228,"美元":9229,"st":9230,"入境時":9231,"人的":9232,"員工":9233,"之後":9234,"計畫":9235,"喉嚨":9236,"24":9237,"當時":9238,"產品":9239,"台北市":9240,"衛生單位":9241,"企業":9242,"第二":9243,"大陸":9244,"媒體":9245,"環境":9246,"主動":9247,"高雄":9248,"嚴重":9249,"表現":9250,"直接":9251,"需求":9252,"1月":9253,"ou":9254,"el":9255,"顯示":9256,"宣布":9257,"日前":9258,"進黨":9259,"事件":9260,"強調":9261,"小時":9262,"機前3日內檢驗陰性報告":9263,"媽媽":9264,"地方":9265,"覺得":9266,"民進黨":9267,"母親":9268,"居家檢疫":9269,"防疫旅館":9270,"很多":9271,"比較":9272,"ac":9273,"所有":9274,"自費":9275,"新聞網":9276,"提醒":9277,"29":9278,"上的":9279,"內容":9280,"影片":9281,"獲得":9282,"產業":9283,"不要":9284,"VID":9285,"支持":9286,"億元":9287,"起來":9288,"23":9289,"協助":9290,"只要":9291,"翻攝自":9292,"現場":9293,"自己的":9294,"個人":9295,"ic":9296,"曝光":9297,"進入":9298,"這是":9299,"成長":9300,"說明":9301,"國民":9302,"必須":9303,"風險":9304,"只是":9305,"加上":9306,"討論":9307,"COVID":9308,"自主":9309,"大的":9310,"搭機前3日內檢驗陰性報告":9311,"醫療":9312,"導致":9313,"桃園":9314,"返國":9315,"消費":9316,"飯店":9317,"ag":9318,"情況":9319,"最高":9320,"新增":9321,"採檢並確診":9322,"不能":9323,"時候":9324,"am":9325,"時中":9326,"案10":9327,"不適":9328,"11月":9329,"陳時中":9330,"比賽":9331,"國內":9332,"受到":9333,"30日":9334,"一定":9335,"死亡":9336,"富特":9337,"70":9338,"諾富特":9339,"文化":9340,"12月":9341,"染疫":9342,"疑似":9343,"新冠肺炎":9344,"只有":9345,"200":9346,"26":9347,"持有搭機前3日內檢驗陰性報告":9348,"平台":9349,"分局":9350,"決定":9351,"一樣":9352,"pp":9353,"採檢確診":9354,"長期":9355,"om":9356,"2月":9357,"容易":9358,"方面":9359,"出國日":9360,"提升":9361,"參與":9362,"外交":9363,"月1日":9364,"本國籍":9365,"主要":9366,"專家":9367,"ir":9368,"000":9369,"分析":9370,"本土":9371,"等症狀":9372,"為陰性":9373,"情形":9374,"英文":9375,"面對":9376,"畫面":9377,")，":9378,"流鼻":9379,"參加":9380,"31":9381,"政策":9382,"都有":9383,"身體":9384,"案5":9385,"系列":9386,"來臺工作":9387,"99":9388,"照片":9389,"資訊":9390,"關鍵":9391,"國中":9392,"也會":9393,"原因":9394,"警察":9395,"es":9396,"怎麼":9397,"攝影":9398,"通過":9399,"聯盟":9400,"下午":9401,"第3":9402,"流鼻水":9403,"ay":9404,"好的":9405,"準備":9406,"開放":9407,"重點":9408,"案8":9409,"病例":9410,"一直":9411,"優惠":9412,"以上":9413,"如何":9414,"原PO":9415,"檢疫期滿前":9416,"中的":9417,"或是":9418,"一步":9419,"就學":9420,"11月2":9421,"最新":9422,"預計":9423,"ew":9424,"業者":9425,"這次":9426,"任何":9427,"出來":9428,"行動":9429,"對此":9430,"回應":9431,"教練":9432,"但是":9433,"一下":9434,"學習":9435,"能力":9436,"過程":9437,"此外":9438,"的一":9439,"保護":9440,"執行":9441,"商品":9442,"想到":9443,"聯合":9444,"數據":9445,"繼續":9446,"20日":9447,"100":9448,"閱讀":9449,"陸續":9450,"成功":9451,"品牌":9452,"案6":9453,"措施":9454,"不僅":9455,"至醫院":9456,"則是":9457,"就會":9458,"？」":9459,"5G":9460,"高中":9461,"也不":9462,"注意":9463,"綜合":9464,"紀錄":9465,"都會":9466,"了解":9467,"擴大":9468,"電子":9469,"至於":9470,"銀行":9471,"..":9472,"台幣":9473,"完全":9474,"一般":9475,"近期":9476,"健康管理":9477,"！」":9478,"發病":9479,"壓力":9480,"舉辦":9481,"國民黨":9482,"智慧":9483,"而且":9484,"加入":9485,"遊戲":9486,"歷史":9487,"電影":9488,"提出":9489,"衛生單位安排":9490,"委員":9491,"規定":9492,"30多歲男性":9493,"用戶":9494,"不到":9495,"對方":9496,"申請":9497,"ht":9498,"自行":9499,"共同":9500,"才能":9501,"目標":9502,"分鐘":9503,"整理":9504,"自主健康管理":9505,"兩人":9506,"2日":9507,"is":9508,"維持":9509,"​​":9510,"家庭":9511,"台南":9512,"老師":9513,"34":9514,"穩定":9515,"交通":9516,"團隊":9517,"異常":9518,"80":9519,"安打":9520,"他的":9521,"App":9522,"90":9523,"行政":9524,"36":9525,"ch":9526,"行為":9527,"一些":9528,"ps":9529,"努力":9530,"香港":9531,"避免":9532,"先發":9533,"法院":9534,"基金":9535,"中華":9536,"核酸":9537,"引發":9538,"專業":9539,"推薦":9540,"戴口罩":9541,"年的":9542,"改善":9543,"不斷":9544,"疾病":9545,"告知":9546,"經過":9547,"能夠":9548,"來說":9549,"這種":9550,"擁有":9551,"人數":9552,"體驗":9553,"re":9554,"駕駛":9555,"採檢後":9556,"下來":9557,"搭乘":9558,"上午":9559,"社區":9560,"ad":9561,"施打":9562,"政治":9563,"價格":9564,"幫助":9565,"減少":9566,"作為":9567,"Pro":9568,"第三":9569,"以來":9570,"全國":9571,"as":9572,"董事":9573,"臺灣":9574,"調整":9575,"空間":9576,"包含":9577,"35":9578,"45":9579,"機組":9580,"發文":9581,"喜歡":9582,"進一步":9583,"緊急":9584,"案7":9585,"2019年":9586,"透露":9587,"議員":9588,"來台":9589,"提到":9590,"沒想到":9591,"喉嚨痛":9592,"居家隔離":9593,"視新聞":9594,"追蹤":9595,"組織":9596,"人民":9597,"消息":9598,"有多":9599,"有人":9600,"文章":9601,"之一":9602,"積極":9603,"30多歲女性":9604,"掌握":9605,"流行":9606,"工程":9607,"近日":9608,"至少":9609,"貼文":9610,"il":9611,"新高":9612,"新北市":9613,"12日":9614,"由衛生單位安排":9615,"媽祖":9616,"TV":9617,"國小":9618,"發表":9619,"解決":9620,"37":9621,"全台":9622,"id":9623,"挑戰":9624,"會有":9625,"並且":9626,"線上":9627,"紛紛":9628,"住院":9629,"兒子":9630,"10月":9631,"北部":9632,"新台幣":9633,"印尼籍20":9634,"正式":9635,"年輕":9636,"//":9637,"匡列":9638,"原本":9639,"觀察":9640,"。「":9641,"呼吸":9642,"就有":9643,"蔡英文":9644,"集中檢疫所檢疫":9645,"3月2":9646,"患者":9647,"之前":9648,"再次":9649,"擔心":9650,"檢疫期滿後":9651,"利用":9652,"呼籲":9653,"更新":9654,"2人":9655,"推動":9656,"經驗":9657,"開發":9658,"意外":9659,"三立":9660,"10日":9661,"女兒":9662,"抗體":9663,"來自":9664,"台股":9665,"檢查":9666,"et":9667,"距離":9668,"電信":9669,"第4":9670,"htt":9671,"對象":9672,"立委":9673,"關注":9674,"://":9675,"另一":9676,"台積":9677,"ub":9678,"全身":9679,"萬人":9680,"移工":9681,"配合":9682,"方案":9683,"舉行":9684,"明顯":9685,"的事":9686,"會議":9687,"兄弟":9688,"最近":9689,"每天":9690,"引起":9691,"來源":9692,"年來":9693,"集團":9694,"部長":9695,"歲的":9696,"正常":9697,"是在":9698,"控制":9699,"最大":9700,"母親節":9701,"在臉書":9702,"自由":9703,"三立新聞網":9704,"生產":9705,"航空":9706,"雙方":9707,"Ct":9708,"打造":9709,"肌肉":9710,"全面":9711,"出國日期":9712,"台積電":9713,"IN":9714,"應用":9715,"38":9716,"Ct值":9717,"擔任":9718,"晚間":9719,"女子":9720,"主管":9721,"交易":9722,"這麼":9723,"的話":9724,"加強":9725,"人士":9726,"確定":9727,"的時候":9728,"群聚":9729,"指數":9730,"聲明":9731,"https":9732,"想要":9733,"訓練":9734,"澳洲":9735,"達到":9736,"價值":9737,"11日":9738,"小孩":9739,"一點":9740,"階段":9741,"1日":9742,"支援":9743,"紫色":9744,"覺異常":9745,"1月2":9746,"3月1":9747,"局長":9748,"球隊":9749,"邀請":9750,"帶來":9751,"Air":9752,"ed":9753,"然而":9754,"資源":9755,"只能":9756,"吸引":9757,"搭配":9758,"取得":9759,"委員會":9760,"正在":9761,"中央社":9762,"公開":9763,"電話":9764,"感覺":9765,"感謝":9766,"電腦":9767,"）、":9768,"有些":9769,"因應":9770,"自然":9771,"家長":9772,"檢出":9773,"再度":9774,"動物":9775,"持有登":9776,"連續":9777,"就能":9778,"拍攝":9779,"投手":9780,"了一":9781,"產生":9782,"期待":9783,"模式":9784,"數位":9785,"考試":9786,"快速":9787,"選手":9788,"法國":9789,"之外":9790,"境外":9791,"鏡頭":9792,"尤其":9793,"隨著":9794,"保持":9795,"發布":9796,"製造":9797,"課程":9798,"這樣的":9799,"至醫院自費":9800,"營收":9801,"案9":9802,"案例":9803,"留言":9804,"負責":9805,"市長":9806,"整體":9807,"晶片":9808,"購買":9809,"爆發":9810,"網站":9811,"音樂":9812,"3人":9813,"億美元":9814,"9月":9815,"供應":9816,"鼻塞":9817,"改變":9818,"）。":9819,"結果為陰性":9820,"設備":9821,"返台":9822,"效果":9823,"實際":9824,"提高":9825,"消費者":9826,"19日":9827,"BS":9828,"也能":9829,"連結":9830,"4月1":9831,"成績":9832,"了嗎":9833,"%。":9834,"看這":9835,"會考":9836,"台鐵":9837,"民視新聞":9838,"新的":9839,"根本":9840,"螢幕":9841,"得到":9842,"採用":9843,"領域":9844,"傳統":9845,"漫畫":9846,"先前":9847,"鋒面":9848,"更是":9849,"讓人":9850,"派出":9851,"第2":9852,"ing":9853,"ol":9854,"突然":9855,"500":9856,"的大":9857,"這一":9858,"員警":9859,"由衛生單位安排就醫":9860,"太空":9861,"羅斯":9862,"一次看":9863,"外界":9864,"結束":9865,"降低":9866,"疫情指揮中心":9867,"檢疫期間":9868,"ur":9869,"入境後至集中檢疫所檢疫":9870,"藝術":9871,"In":9872,"官方":9873,"幾乎":9874,"20多歲女性":9875,"基本":9876,"預期":9877,"主席":9878,"我的":9879,"成立":9880,"讀書":9881,"業務":9882,"粉絲":9883,"專案":9884,"曾於":9885,"評估":9886,"new":9887,"機構":9888,"年前":9889,"th":9890,"通知":9891,"有一":9892,"ook":9893,"規劃":9894,"考生":9895,"找到":9896,"議題":9897,"有關":9898,"老闆":9899,"痠痛":9900,"同樣":9901,"趙介":9902,"平均":9903,"金融":9904,"統計":9905,"趙介佑":9906,"昨天":9907,"符合":9908,"最終":9909,"ion":9910,"一同":9911,"消毒":9912,"出現發燒":9913,"檢測":9914,"33":9915,"照顧":9916,"NO":9917,"班機":9918,"打擊":9919,"之間":9920,"南部":9921,"授權":9922,"東西":9923,"立即":9924,"攻擊":9925,"ig":9926,"OS":9927,"印尼籍":9928,"有效":9929,"作品":9930,"後續":9931,"生命":9932,"在地":9933,"讓他":9934,"以下":9935,"勞動":9936,"如此":9937,"監視":9938,"呈現":9939,"咖啡":9940,"確認":9941,"台灣的":9942,"39":9943,"5大":9944,"競爭":9945,"危險":9946,"德國":9947,"時代":9948,"至今":9949,"頭痛":9950,"將在":9951,"2名":9952,"像是":9953,"疑似症狀":9954,"1例":9955,"規模":9956,"附近":9957,"大量":9958,"餐廳":9959,"科學":9960,"重新":9961,"民主":9962,"編輯":9963,"發言":9964,"韓國":9965,"順利":9966,"不適症狀":9967,"節目":9968,"腹瀉":9969,"機組員":9970,"反應":9971,"TVBS":9972,"後來":9973,"記者會":9974,"男童":9975,"St":9976,"限制":9977,"作業":9978,"300":9979,"機車":9980,"一年":9981,"以為":9982,"球員":9983,"高達":9984,"血清":9985,"整理包":9986,"感到":9987,"電動":9988,"消防":9989,"恢復":9990,"2例":9991,"48":9992,"俄羅斯":9993,"畢業":9994,"質疑":9995,"檢疫期滿前採檢":9996,"免費":9997,"電視":9998,"清楚":9999,"結合":10000,"各種":10001,"衝刺":10002,"com":10003,"醫學":10004,"傳出":10005,"Apple":10006,"相關新聞":10007,"協會":10008,"食物":10009,"影音":10010,"是一":10011,"都不":10012,"身分":10013,"那麼":10014,"各科":10015,"危機":10016,"降雨":10017,"經營":10018,"6月":10019,"故事":10020,"來看":10021,"變成":10022,"責任":10023,"標準":10024,"本季":10025,"歐洲":10026,"2月2":10027,"核酸檢驗陰性報告":10028,"立刻":10029,"持有登機前3日內":10030,"手術":10031,"武漢":10032,"最佳":10033,"49":10034,"知名":10035,"年度":10036,"實施":10037,"川普":10038,"累計":10039,"市府":10040,"終於":10041,"營養":10042,"主任":10043,"先生":10044,"例如":10045,"鼓勵":10046,"88":10047,"同住":10048,"我國":10049,"相信":10050,"其餘":10051,"到了":10052,"客戶":10053,"將會":10054,"訊息":10055,"當然":10056,"冠軍":10057,"送醫":10058,"左右":10059,"看更多":10060,"派出所":10061,"出現咳嗽":10062,"水庫":10063,"當天":10064,"離開":10065,"小米":10066,"40多歲男性":10067,"8月":10068,"他人":10069,"確實":10070,"出席":10071,"ab":10072,"詢問":10073,"家屬":10074,"操作":10075,"最多":10076,"事故":10077,"」（":10078,"並於":10079,"教育部":10080,"800":10081,"將於":10082,"同學":10083,"的問題":10084,"加碼":10085,"諾富特飯店":10086,"品質":10087,"嘉義":10088,"展開":10089,"而是":10090,"教學":10091,"習慣":10092,"An":10093,"購物":10094,"華航機師":10095,"od":10096,"入境後至防疫旅館":10097,"的新":10098,"適合":10099,"12月2":10100,"疫苗接種":10101,"65":10102,"歡迎":10103,"遇到":10104,"個案於":10105,"然後":10106,"旅客":10107,"方向":10108,"汽車":10109,"持有登機前3日內核酸檢驗陰性報告":10110,"展現":10111,"松山":10112,"一天":10113,"必要":10114,"移入":10115,"30秒":10116,"也在":10117,"他說":10118,"多歲至":10119,"狀態":10120,"捷運":10121,"自動":10122,"完整":10123,"成員":10124,"7月":10125,"姓男子":10126,"速度":10127,"可能會":10128,"NOW":10129,"回家":10130,"拿下":10131,"面臨":10132,"來到":10133,"如今":10134,"列為":10135,"專線":10136,"必考":10137,"un":10138,"後的":10139,"主動告知":10140,"一度":10141,"為何":10142,"到底":10143,"20多歲男性":10144,"行政院":10145,"令人":10146,"AZ":10147,"整個":10148,"教育會考":10149,"59":10150,"辦法":10151,"國中教育會考":10152,"im":10153,"銷售":10154,"受傷":10155,"尋找":10156,"範圍":10157,"辦理":10158,"還要":10159,"區域":10160,"才會":10161,"勞工":10162,"導體":10163,"所長":10164,"釐清":10165,"重點一次看":10166,"兩個":10167,"半導體":10168,"間學校":10169,"1人":10170,"us":10171,"辦公":10172,"29日":10173,"團體":10174,"東京":10175,"願意":10176,"各地":10177,"多數":10178,"大補":10179,"統一":10180,"截至":10181,"偷看":10182,"舒壓":10183,"接著":10184,"必考重點一次看":10185,"精神":10186,"防護":10187,"證實":10188,"公里":10189,"此次":10190,"竟然":10191,"40多歲女性":10192,"news":10193,"迄今":10194,"製作":10195,"中央流行":10196,"不得":10197,"十分":10198,"創新":10199,"足跡":10200,"首次":10201,"血清抗體":10202,"IG":10203,"的情況":10204,"父母":10205,"32":10206,"不可":10207,"累了嗎":10208,"人才":10209,"更加":10210,"大補帖":10211,"AI":10212,"延伸":10213,"國防":10214,"彰化":10215,"ace":10216,"各科必考重點一次看":10217,"開賣":10218,"110國中教育會考":10219,"衝刺大補帖":10220,"110國中教育會考衝刺大補帖":10221,"外送":10222,"教師":10223,"有多鬧":10224,"看這間學校":10225,"漫畫舒壓":10226,"讀書累了嗎":10227,"30秒偷看":10228,"看這間學校有多鬧":10229,"漫畫舒壓一下":10230,"30秒偷看漫畫舒壓一下":10231,"父親":10232,"LIN":10233,"居住":10234,"外交部":10235,"友人":10236,"公尺":10237,"告訴":10238,"國外":10239,"動作":10240,"董事長":10241,"你的":10242,"每年":10243,"監視器":10244,"中央流行疫情指揮中心":10245,"倦怠":10246,"新竹":10247,"研發":10248,"退休":10249,"態度":10250,"具有":10251,"Tag":10252,"落實":10253,"投入":10254,"返臺":10255,"衝突":10256,"不用":10257,"gle":10258,"事實":10259,"綜合報導":10260,"中信":10261,"開心":10262,"為主":10263,"Ch":10264,"直到":10265,"妻子":10266,"第1":10267,"敲出":10268,"屬於":10269,"AP":10270,"LINE":10271,"人生":10272,"富邦":10273,"上市":10274,"建立":10275,"遭到":10276,"旅遊史":10277,"肌肉痠痛":10278,"飲食":10279,"不滿":10280,"44":10281,"味全":10282,"首度":10283,"黨部":10284,"三立新聞網報導":10285,"。(":10286,"更多三立新聞網報導":10287,"多元":10288,"營運":10289,"考量":10290,"原來":10291,"表達":10292,"困難":10293,"影像":10294,"人口":10295,"ter":10296,"事業":10297,"基金會":10298,"北京":10299,"公共":10300,"儘管":10301,"LE":10302,"Goo":10303,"簡單":10304,"廠商":10305,"似乎":10306,"在這":10307,"她的":10308,"發言人":10309,"AirTag":10310,"藥物":10311,"即使":10312,"在家":10313,"相對":10314,"性的":10315,"軍事":10316,"1922":10317,"校長":10318,"基礎":10319,"條件":10320,"獲利":10321,"同意":10322,"小心":10323,"55":10324,"大幅":10325,"方法":10326,"iv":10327,"位置":10328,"境外移入":10329,"登場":10330,"的方式":10331,"花蓮":10332,"變化":10333,"上班":10334,"屏東":10335,"金額":10336,"地點":10337,"46":10338,"方便":10339,"ot":10340,"不只":10341,"兒童":10342,"官員":10343,"經理":10344,"凌晨":10345,"補助":10346,"事情":10347,"來越":10348,"即可":10349,"台大":10350,"的小":10351,"傳染":10352,"讓她":10353,"台中市":10354,"絕對":10355,"啟動":10356,"環保":10357,"NOWnews":10358,"在台灣":10359,"越來越":10360,"創辦":10361,"也將":10362,"科大":10363,"有機會":10364,"You":10365,"就業":10366,"案件":10367,"並不":10368,"創作":10369,"中國大陸":10370,"都在":10371,"2018":10372,"幫忙":10373,"清潔":10374,"Google":10375,"結婚":10376,"股價":10377,"使用者":10378,"法律":10379,"突破":10380,"存在":10381,"超級":10382,"傳播":10383,"地球":10384,"28日":10385,"輕微":10386,"and":10387,"ow":10388,"下的":10389,"測試":10390,"累積":10391,"為什麼":10392,"還在":10393,"證明":10394,"Ig":10395,"不足":10396,"社群":10397,"今日新聞":10398,"升級":10399,"ard":10400,"交流":10401,"ww":10402,"1100":10403,"城市":10404,"75":10405,"輕鬆":10406,"3例":10407,"出版":10408,"氣候":10409,"進行居家檢疫":10410,"上漲":10411,"領先":10412,"利率":10413,"夫妻":10414,"預購":10415,"校園":10416,"角色":10417,"考慮":10418,"工具":10419,"採取":10420,"管制":10421,"確保":10422,"威脅":10423,"爸爸":10424,"也要":10425,"收入":10426,"都能":10427,"項目":10428,"新北":10429,"召開":10430,"機關":10431,"診斷":10432,"菲律賓籍":10433,"聲音":10434,"ax":10435,"]（":10436,"公斤":10437,"離婚":10438,"匡列接觸者":10439,"傷害":10440,"店家":10441,"入境時無症狀":10442,"14天":10443,"不錯":10444,"ce":10445,"出境":10446,"教授":10447,"ia":10448,"保險":10449,"籍20多歲男性":10450,"31日":10451,"程度":10452,"強化":10453,"78":10454,"直播":10455,"79":10456,"過程中":10457,"00元":10458,"解釋":10459,"也讓":10460,"事後":10461,"車輛":10462,"74":10463,"族群":10464,"意見":10465,"成本":10466,"值得":10467,"仲介":10468,"歐盟":10469,"的高":10470,"不好":10471,"柯文":10472,"男友":10473,"山區":10474,"接種疫苗":10475,"不知道":10476,"的時間":10477,"檢出陽性":10478,"做出":10479,"NT":10480,"味覺異常":10481,"冠狀":10482,"意圖":10483,"參考":10484,"回到":10485,"社團":10486,"全新":10487,"10月2":10488,"至集中檢疫所":10489,"已有":10490,"電池":10491,"籍20多歲女性":10492,"亞洲":10493,"任務":10494,"曾經":10495,"探親":10496,"申辦":10497,"2年":10498,"以前":10499,"充電":10500,"趨勢":10501,"中央社記者":10502,"柯文哲":10503,"藉由":10504,"住處":10505,"這名":10506,"互動":10507,"經常":10508,"US":10509,"作用":10510,"介於":10511,"裝置":10512,"109":10513,"年增":10514,"溝通":10515,"主題":10516,"認識":10517,"於機場":10518,"裡面":10519,"iOS":10520,"os":10521,"並未":10522,"拒絕":10523,"委會":10524,"學院":10525,"創辦人":10526,"陳嘉":10527,"實驗":10528,"肯定":10529,"停車":10530,"一位":10531,"一路":10532,"天氣":10533,"大眾":10534,"犯罪":10535,"通常":10536,"1月1":10537,"氣象":10538,"就可以":10539,"1名":10540,"」！":10541,"公車":10542,"就在":10543,"這項":10544,"旅行":10545,"資金":10546,"類似":10547,"原始":10548,"下降":10549,"丈夫":10550,"同班機":10551,"月底":10552,"一出":10553,"關心":10554,"出的":10555,"隨後":10556,"無論":10557,"逐漸":10558,"武漢肺炎":10559,"反對":10560,"排除":10561,"晚上":10562,"務必":10563,"黑衣":10564,"可能是":10565,"BA":10566,"因素":10567,"多次":10568,"》，":10569,"場所":10570,"奧運":10571,"2021年1月":10572,"禁止":10573,"紐約":10574,"中共":10575,"和平":10576,"有網友":10577,"日起":10578,"3名":10579,"其實是":10580,"指揮官":10581,"承諾":10582,"Th":10583,"即將":10584,"來的":10585,"第一次":10586,"GB":10587,"社交":10588,"情緒":10589,"兩岸":10590,"AZ疫苗":10591,"有的":10592,"三振":10593,"公園":10594,"師生":10595,"1萬":10596,"book":10597,"嫌犯":10598,"校方":10599,"保障":10600,"樂天":10601,"提醒您":10602,"並非":10603,"自我":10604,"核心":10605,"泰國":10606,"生態":10607,"選舉":10608,"千萬":10609,"50多歲男性":10610,"加速":10611,"76":10612,"職棒":10613,"園區":10614,"老公":10615,"轉載":10616,"內的":10617,"搭載":10618,"名單":10619,"內部":10620,"股票":10621,"數量":10622,"短暫":10623,"職業":10624,"運輸":10625,"反而":10626,"感情":10627,"85":10628,"處理器":10629,"護理":10630,"不但":10631,"直呼":10632,"重視":10633,"重要的":10634,"難以":10635,"更多民視新聞":10636,"更多民視新聞報導":10637,"採檢通報":10638,"預估":10639,"冠狀病毒":10640,"公告":10641,"人氣":10642,"失去":10643,"來台工作":10644,"AR":10645,"機率":10646,"生涯":10647,"神經":10648,"因工作":10649,"收到":10650,"爭議":10651,"中部":10652,"太多":10653,"ix":10654,"台北報導":10655,"你們":10656,"官網":10657,"下一":10658,"64":10659,"衛生局":10660,"好好":10661,"時期":10662,"觀光":10663,"資格":10664,"的地方":10665,"不管":10666,"在美國":10667,"有限":10668,"tw":10669,"分別於":10670,"建設":10671,"診所":10672,"比例":10673,"體育":10674,"CP":10675,"心理":10676,"戰略":10677,"仍有":10678,"半年":10679,"他在":10680,"全部":10681,"尚未":10682,"夥伴":10683,"當中":10684,"重大":10685,"版本":10686,"檢疫人員":10687,"ut":10688,"獨立":10689,"預防":10690,"40多歲":10691,"57":10692,"到場":10693,"唯一":10694,"緊張":10695,"美食":10696,"報名":10697,"回饋":10698,"高雄市":10699,"TW":10700,"依照":10701,"司機":10702,"軟體":10703,"一定要":10704,"3年":10705,"各國":10706,"變種":10707,"熱議":10708,"工業":10709,"馬上":10710,"批評":10711,"由機場":10712,"在台":10713,"未與":10714,"生物":10715,"國人":10716,"壘打":10717,"達成":10718,"宜蘭":10719,"他也":10720,"下去":10721,"廣告":10722,"真實":10723,"記憶":10724,"返回":10725,"27日":10726,"ra":10727,"的好":10728,"發出":10729,"96":10730,"土耳":10731,"還能":10732,"本身":10733,"ik":10734,"黑衣人":10735,"違反":10736,"ud":10737,"路上":10738,"土耳其":10739,"休息":10740,"策略":10741,"大型":10742,"特殊":10743,"豐富":10744,"程序":10745,"26日":10746,"創造":10747,"緬甸":10748,"食品":10749,"特色":10750,"同事":10751,"警局":10752,"氧氣":10753,"運用":10754,"2018年":10755,"女友":10756,"就要":10757,"建築":10758,"青年":10759,"三分":10760,"民國":10761,"場比賽":10762,"年齡":10763,"投資人":10764,"力量":10765,"與案":10766,"做好":10767,"開車":10768,"58":10769,"Mac":10770,"周邊":10771,"全身倦怠":10772,"位於":10773,"很難":10774,"籃板":10775,"」[":10776,"ak":10777,"整合":10778,"病房":10779,"一張":10780,"發病日":10781,"味全龍":10782,"不明":10783,"我們的":10784,"一段":10785,"受訪":10786,"球場":10787,"該名":10788,"公司安排":10789,"優勢":10790,"均無症狀":10791,"採檢後確診":10792,"愛的":10793,"都要":10794,"ine":10795,"陳嘉昌":10796,"77":10797,"經典":10798,"而言":10799,"觀眾":10800,"確診者":10801,"真正":10802,"53":10803,"好吃":10804,"帶動":10805,"接近":10806,"立法院":10807,"推特":10808,"謝長":10809,"設定":10810,"健身":10811,"公務":10812,"se":10813,"球迷":10814,"000元":10815,"政部":10816,"身上":10817,"就算":10818,"謝長廷":10819,"崩潰":10820,"並沒有":10821,"主動通報":10822,"搭機":10823,"期滿":10824,"賽事":10825,"是因為":10826,"每個":10827,"家中":10828,"小組":10829,"AS":10830,"售價":10831,"會在":10832,"居民":10833,"中信兄弟":10834,")。":10835,"協議":10836,"辦公室":10837,"於是":10838,"看起來":10839,"最低":10840,"營業":10841,"演出":10842,"補充":10843,"也可以":10844,"立場":10845,"延伸閱讀":10846,"至美國":10847,"局上":10848,"54":10849,"APP":10850,"ah":10851,"計劃":10852,"56":10853,"初步":10854,"撥打":10855,"支付":10856,"發揮":10857,"悍將":10858,"逮捕":10859,"機制":10860,"說是":10861,"曾在":10862,"概念":10863,"轉型":10864,"給予":10865,"遊客":10866,"iPad":10867,"加坡":10868,"費用":10869,"改革":10870,"的水":10871,"耳機":10872,"關節":10873,"隨即":10874,"mm":10875,"示意圖":10876,"接下來":10877,"的重要":10878,"共有":10879,"監測":10880,"知識":10881,"86":10882,"Tub":10883,"說法":10884,"開幕":10885,"預約":10886,"專車":10887,"毒品":10888,"飲料":10889,"ov":10890,"介紹":10891,"取消":10892,"結構":10893,"規格":10894,"ri":10895,"大利":10896,"對話":10897,"ap":10898,"鳳梨":10899,"確診個案":10900,"單日":10901,"的民眾":10902,"醫生":10903,"日常":10904,"律師":10905,"或許":10906,"95":10907,"職場":10908,"真相":10909,"局部":10910,"YouTub":10911,"KE":10912,"的心":10913,"貿易":10914,"1年":10915,"制度":10916,"細胞":10917,"蛋糕":10918,"恐怕":10919,"免疫":10920,"排放":10921,"of":10922,"5月2":10923,"儘速":10924,"最大的":10925,"這裡":10926,"新加坡":10927,"ini":10928,"三星":10929,"興趣":10930,"條例":10931,"Sp":10932,"出賽":10933,"中時":10934,"放棄":10935,"不再":10936,"救援":10937,"現金":10938,"通報日":10939,"相機":10940,"部門":10941,"印尼籍20多歲至":10942,"不住":10943,"負擔":10944,"享受":10945,"好奇":10946,"嗅覺":10947,"圖片":10948,"原始連結":10949,"陸續出現":10950,"...":10951,"意識":10952,"還沒":10953,"同住家人":10954,"4例":10955,"出院":10956,"他人接觸":10957,"之下":10958,"對手":10959,"的狀況":10960,"百萬":10961,"目的":10962,"接獲":10963,"滿足":10964,"他們的":10965,"高度":10966,"黑道":10967,"許多人":10968,"同一":10969,"爭取":10970,"蘇貞":10971,"未與他人接觸":10972,"入住":10973,"堅持":10974,"曾有":10975,"蘇貞昌":10976,"是不是":10977,"海洋":10978,"密切":10979,"常見":10980,"也很":10981,"高的":10982,"52":10983,"工廠":10984,"維護":10985,"類型":10986,"台海":10987,"4人":10988,"當下":10989,"同期":10990,"收治":10991,"領導":10992,"加油":10993,"料理":10994,"感染源":10995,"或者":10996,"ul":10997,"變得":10998,"ent":10999,"不想":11000,"國會":11001,"利益":11002,"檢察":11003,"由仲介":11004,"計算":11005,"報稅":11006,"主持":11007,"病患":11008,"移動":11009,"00萬":11010,"Cl":11011,"才是":11012,"出口":11013,"學測":11014,"現代":11015,"雲林":11016,"25日":11017,"能源":11018,"月15日":11019,"修正":11020,"昨日":11021,"乘客":11022,"以後":11023,"便利":11024,"ation":11025,"少年":11026,"68":11027,"公投":11028,"幼兒":11029,"海軍":11030,"力的":11031,"相同":11032,"訪問":11033,"等人":11034,"都沒有":11035,"指揮官陳時中":11036,"帶著":11037,"成果":11038,"還會":11039,"權益":11040,"72":11041,"正確":11042,"聽到":11043,"看見":11044,"原則":11045,"道路":11046,"酒駕":11047,"聯繫":11048,"有沒有":11049,"認證":11050,"變種病毒":11051,"縣市":11052,"每日":11053,")、":11054,"者的":11055,"7例":11056,"可望":11057,"商業":11058,"也就是":11059,"仍然":11060,"爆料":11061,"人類":11062,"喪失":11063,"早餐":11064,"房屋":11065,"資產":11066,"同行":11067,"本次":11068,"別人":11069,"42":11070,"蟑螂":11071,"大樓":11072,"TT":11073,"當局":11074,"指定":11075,"更有":11076,"看了":11077,"夢想":11078,"都很":11079,"Jo":11080,"房間":11081,"一種":11082,"檢署":11083,"來了":11084,"試試":11085,"勇士":11086,"用餐":11087,"貢獻":11088,"人工":11089,"不同的":11090,"客人":11091,"法人":11092,"漁工":11093,"本土案例":11094,"基隆":11095,"廢水":11096,"血管":11097,"事務":11098,"解鎖":11099,"國立":11100,"無線":11101,"有點":11102,"警政":11103,"跟著":11104,"表演":11105,"身為":11106,"多少":11107,"理由":11108,"適當":11109,"第四":11110,"意義":11111,"5人":11112,"一家":11113,"成交":11114,"空氣":11115,"鄭文":11116,"現象":11117,"用的":11118,"起訴":11119,"1分":11120,"蛋白":11121,"規範":11122,"電動車":11123,"形成":11124,"海巡":11125,"ram":11126,"洗手":11127,"能量":11128,"形象":11129,"娛樂":11130,"放在":11131,"實現":11132,"得知":11133,"衝擊":11134,"頻道":11135,"戴上":11136,"錄取":11137,"4月30日":11138,"創意":11139,"確診病例":11140,"執行長":11141,"設置":11142,"12紫色":11143,"同步":11144,"的機會":11145,"％，":11146,"10年":11147,"21日":11148,"og":11149,"玩家":11150,"一切":11151,"延長":11152,"排名":11153,"22日":11154,"優先":11155,"全力":11156,"宿舍":11157,"美國總統":11158,"人民幣":11159,"ly":11160,"奇摩":11161,"第一季":11162,"8年":11163,"數字":11164,"當場":11165,"一場":11166,"全壘打":11167,"轉機":11168,"50多歲女性":11169,"婆婆":11170,"病人":11171,"上升":11172,"騎士":11173,"於今日":11174,"機器":11175,"皮膚":11176,"自身":11177,"入境後至防疫旅館檢疫":11178,"很大":11179,"每股":11180,"審查":11181,"抗議":11182,"拿到":11183,"白宮":11184,"魯閣":11185,"43":11186,"尺寸":11187,"實在":11188,"熱門":11189,"局下":11190,"支安打":11191,"也沒有":11192,"月1日出現":11193,"班牙":11194,"經歷":11195,"西班牙":11196,"地檢署":11197,"解除":11198,"辛苦":11199,"並在":11200,"越南":11201,"5年":11202,"89":11203,"懷疑":11204,"背景":11205,"史上":11206,"資料照":11207,"加碼送":11208,"打開":11209,"那個":11210,"基地":11211,"連勝":11212,"4名":11213,"服藥":11214,"保送":11215,"依據":11216,"土地":11217,"即日起":11218,"導演":11219,"if":11220,"想像":11221,"新功能":11222,"太魯閣":11223,"對抗":11224,"ec":11225,"於3月":11226,"等待":11227,"破壞":11228,"不敢":11229,"無疑似症狀":11230,"ry":11231,"感受":11232,"月17日":11233,"紀念":11234,"松山分局":11235,"作者":11236,"停止":11237,"太陽":11238,"這款":11239,"心臟":11240,"涉及":11241,"苗栗":11242,"市多":11243,"案110":11244,"薪資":11245,"抵達":11246,"年輕人":11247,"不夠":11248,"車禍":11249,"偵辦":11250,"友宜":11251,"評價":11252,"3天":11253,"視訊":11254,"通訊":11255,"不少人":11256,"大聯盟":11257,"2分":11258,"助攻":11259,"外籍":11260,"2萬":11261,"。《":11262,"侯友宜":11263,"時的":11264,"尊重":11265,"網紅":11266,"總經理":11267,"吳念":11268,"法官":11269,"巴西":11270,"違規":11271,"指揮中心表示":11272,"出現喉嚨":11273,"5大電信":11274,"台商":11275,"近年":11276,"指示":11277,"細節":11278,"若是":11279,"30多歲":11280,"坦言":11281,"等等":11282,"在20":11283,"NBA":11284,"不良":11285,"超商":11286,"機場攔":11287,"一開始":11288,"工作人員":11289,"你想":11290,"錯誤":11291,"創下":11292,"緩解":11293,"分別為":11294,"涉嫌":11295,"桃園市":11296,"AM":11297,"安心":11298,"排行":11299,"主委":11300,"好市多":11301,"檢討":11302,"進口":11303,"鄭文燦":11304,"110年":11305,"acebook":11306,"69":11307,"思考":11308,"申辦優惠":11309,"加拿":11310,"產能":11311,"新冠肺炎疫情":11312,"那些":11313,"中國的":11314,"月底開賣":11315,"公分":11316,"深厚":11317,"用於":11318,"親自":11319,"嗅覺異常":11320,"12紫色月底開賣":11321,"5大電信預購":11322,"申辦優惠加碼送":11323,"便宜":11324,"月13日":11325,"60多歲男性":11326,"不論":11327,"人力":11328,"5月1日":11329,"亞裔":11330,"研判":11331,"造型":11332,"op":11333,"大小":11334,"英國就學":11335,"23日":11336,"半部":11337,"每次":11338,"黃金":11339,"充滿":11340,"世代":11341,"婚姻":11342,"本來":11343,"農業":11344,"月14日":11345,"大約":11346,"感動":11347,"溫度":11348,"讓你":11349,"救護":11350,"And":11351,"工會":11352,"當日":11353,"藉此":11354,"採檢通報確診":11355,"下載":11356,"66":11357,"」：":11358,"健保":11359,"化的":11360,"不知":11361,"人物":11362,"院長":11363,"上一":11364,"容量":11365,"0800":11366,"百分":11367,"基因":11368,"可能性":11369,"股市":11370,"警告":11371,"對外":11372,"所謂":11373,"專屬":11374,"精彩":11375,"女星":11376,"得分":11377,"挑選":11378,"]▲":11379,"av":11380,"顏色":11381,"飛行":11382,"女生":11383,"就讀":11384,"不建議":11385,"出爐":11386,"證據":11387,"當年":11388,"登記":11389,"衛福":11390,"身材":11391,"由仲介安排":11392,"柔道":11393,"OP":11394,"帶領":11395,"ai":11396,"件事":11397,"開啟":11398,"大概":11399,"促進":11400,"眼睛":11401,"中山":11402,"公社":11403,"即時":11404,"國務":11405,"理解":11406,"航空公司":11407,"但在":11408,"指考":11409,"氣象局":11410,"47":11411,"於今日確診":11412,"回歸":11413,"信心":11414,"送至集中檢疫所":11415,"加拿大":11416,"中職":11417,"拍照":11418,"組合":11419,"外出":11420,"平時":11421,"120":11422,"67":11423,"一旦":11424,"事發":11425,"具備":11426,"南韓":11427,"回憶":11428,"聯邦":11429,"重量":11430,"各項":11431,"預測":11432,"希望能":11433,"執政":11434,"設施":11435,"不了":11436,"玻璃":11437,"早上":11438,"壓力大":11439,"進而":11440,"IC":11441,"總是":11442,"的事情":11443,"ob":11444,"隨時":11445,"幾天":11446,"直言":11447,"外送員":11448,"YouTube":11449,"人權":11450,"受害":11451,"暴力":11452,"詐騙":11453,"大會":11454,"2次":11455,"廣播":11456,"幸福":11457,"多的":11458,"鎖定":11459,"中午":11460,"有所":11461,"延燒":11462,"入境時主動告知":11463,"台東":11464,"連接":11465,"判斷":11466,"會員":11467,"41":11468,"嚴格":11469,"多人":11470,"入境無症狀":11471,"無人":11472,"就送":11473,"明確":11474,"理事":11475,"列居家隔離":11476,"老婆":11477,"點此":11478,"150":11479,"名的":11480,"失控":11481,"返家":11482,"住院隔離":11483,"攜手":11484,"最快":11485,"就像":11486,"皆為陰性":11487,"運作":11488,"顧問":11489,"相較":11490,"競賽":11491,"趕緊":11492,"股東":11493,"面的":11494,"出局":11495,"回來":11496,"16日":11497,"南投":11498,"是否有":11499,"上網":11500,"一個月":11501,"出生":11502,"出門":11503,"下跌":11504,"兩天":11505,"共識":11506,"採檢後送至集中檢疫所":11507,"平常":11508,"旗下":11509,"檢察官":11510,"刺激":11511,"疼痛":11512,"義大利":11513,"不佳":11514,"不太":11515,"主場":11516,"24日":11517,"Mar":11518,"很快":11519,"程式":11520,"防疫專線":11521,"所得":11522,"這段":11523,"你這樣":11524,"即便":11525,"延續":11526,"不治":11527,"阿嬤":11528,"PTT":11529,"原文":11530,"提前":11531,"其中案6":11532,"一人":11533,"主義":11534,"也說":11535,"永續":11536,"這場":11537,"判決":11538,"小朋友":11539,"推廣":11540,"議會":11541,"LED":11542,"店員":11543,"二軍":11544,"據了解":11545,"限定":11546,"淵源":11547,"而在":11548,"路線":11549,"依然":11550,"指控":11551,"聯發":11552,"三大":11553,"家的":11554,"檢方":11555,"印象":11556,"可見":11557,"學者":11558,"惡化":11559,"暫時":11560,"無奈":11561,"迅速":11562,"由公司安排":11563,"全場":11564,"」；":11565,"物品":11566,"網路上":11567,"11月29日":11568,"儀式":11569,"常常":11570,"船員":11571,"邊境":11572,"咳嗽症狀":11573,"太平":11574,"陽明":11575,"8日至":11576,"尋求":11577,"本國籍30多歲男性":11578,"障礙":11579,"已掌握":11580,"明星":11581,"畢竟":11582,"吳念庭":11583,"也被":11584,"人在":11585,"明天":11586,"記得":11587,"BL":11588,"伯斯":11589,"消失":11590,"8例":11591,"很有":11592,"同日":11593,"增長":11594,"認定":11595,"解鎖iPhone":11596,"偏愛":11597,"日介於":11598,"入境日介於":11599,"40多歲入境日介於":11600,"印尼籍20多歲至40多歲入境日介於":11601,"差異":11602,"的美":11603,"ash":11604,"6例":11605,"當地就醫":11606,"完美":11607,"就好":11608,"海外":11609,"同仁":11610,"觀看":11611,"他表示":11612,"懷孕":11613,"的部分":11614,"幾年":11615,"福利":11616,"道歉":11617,"限量":11618,"51":11619,"們的":11620,"兩年":11621,"形式":11622,"為止":11623,"無不適症狀":11624,"3個月":11625,"Al":11626,"定期":11627,"明年":11628,"至醫院自費採檢並確診":11629,"公益":11630,"論壇":11631,"刊登":11632,"各界":11633,"報案":11634,"合約":11635,"指標":11636,"時刻":11637,"4年":11638,"克蘭":11639,"嚴峻":11640,"吃到":11641,"合理":11642,"失分":11643,"水果":11644,"住處居家檢疫":11645,"戴上口罩":11646,"十大":11647,"女孩":11648,"11月27日":11649,"9例":11650,"Pl":11651,"可愛":11652,"移民":11653,"戰爭":11654,"賈伯斯":11655,"首先":11656,"過的":11657,"em":11658,"um":11659,"反映":11660,"想法":11661,"採購":11662,"大部分":11663,"住民":11664,"臨時":11665,"看看":11666,"關於":11667,"於12":11668,"ant":11669,"莊人":11670,"風格":11671,"外野":11672,"寶寶":11673,"ers":11674,"峰會":11675,"瞬間":11676,"聯發科":11677,"口味":11678,"16年":11679,"7年":11680,"莊人祥":11681,"漲幅":11682,"垃圾":11683,"新品":11684,"星座":11685,"報警":11686,"無匡列接觸者":11687,"戴口罩解鎖iPhone":11688,"AirTag追蹤":11689,"快更新":11690,"快試試":11691,"申報":11692,"同時也":11693,"有助":11694,"語言":11695,"尋找什麼":11696,"你想用":11697,"傻眼":11698,"推5大":11699,"台南市":11700,"5推5大":11701,"兩名":11702,"快新聞":11703,"蘋果不建議":11704,"你這樣用":11705,"AirTag追蹤尋找什麼":11706,"快試試戴口罩解鎖iPhone":11707,"你想用AirTag追蹤尋找什麼":11708,"5推5大新功能":11709,"蘋果不建議你這樣用":11710,"都可以":11711,"iPhone與":11712,"自菲律賓":11713,"處分":11714,"面試":11715,"ev":11716,"澄清":11717,"臨床":11718,"最好":11719,"WH":11720,"oc":11721,"的原因":11722,"63":11723,"典禮":11724,"團員":11725,"美軍":11726,"蘋果創辦人":11727,"但他":11728,"警政署":11729,"深厚淵源":11730,"%、":11731,"也沒":11732,"嘗試":11733,"封鎖":11734,"這位":11735,"蘋果創辦人賈伯斯":11736,"文學":11737,"餐飲":11738,"真的很":11739,"其實是蘋果創辦人賈伯斯":11740,"偏愛色":11741,"深厚淵源曝光":11742,"其實是蘋果創辦人賈伯斯偏愛色":11743,"依舊":11744,"白色":11745,"可是":11746,"大谷":11747,"相比":11748,"等級":11749,"再抽":11750,"剛好":11751,"西亞":11752,"▪【":11753,"大多":11754,"寵物":11755,"折起":11756,"看好":11757,"虛擬":11758,"移送":11759,"預算":11760,"體溫":11761,"由機場檢疫人員":11762,"角度":11763,"出發":11764,"演員":11765,"理想":11766,"上述":11767,"有痰":11768,"組成":11769,"多年":11770,"留意":11771,"詳細":11772,"華為":11773,"截至目前":11774,"》（":11775,"金門":11776,"嘔吐":11777,"移除":11778,"總教練":11779,"並無症狀":11780,"背後":11781,"慢慢":11782,"執法":11783,"女優":11784,"帳號":11785,"內行":11786,"追求":11787,"強烈":11788,"的工作":11789,"食材":11790,"實力":11791,"數學":11792,"黑色":11793,"本文":11794,"幾個":11795,"培養":11796,"訂單":11797,"遶境":11798,"年代":11799,"尤其是":11800,"缺乏":11801,"連假":11802,"外國":11803,"電影票":11804,"動態":11805,"特斯":11806,"荷蘭":11807,"具體":11808,"實體":11809,"固定":11810,"在此":11811,"綠色":11812,"獨自":11813,"3萬":11814,"業績":11815,"答案":11816,"居家檢疫期間":11817,"從事":11818,"不見":11819,"依法":11820,"味道":11821,"留下":11822,"PC":11823,"刪除":11824,"意思":11825,"進行檢疫":11826,"ill":11827,"The":11828,"我覺得":11829,"物資":11830,"ell":11831,"上課":11832,"下旬":11833,"14日":11834,"都沒":11835,"印度疫情":11836,"優質":11837,"及時":11838,"身心":11839,"逆轉":11840,"很多人":11841,"the":11842,"不如":11843,"在於":11844,"心情":11845,"是一個":11846,"檢視":11847,"事實上":11848,"冠狀病毒疾病":11849,"暫停":11850,"行銷":11851,"進步":11852,"於12月1日出現":11853,"合併":11854,"吳怡":11855,"ore":11856,"刑事":11857,"的前":11858,"ER":11859,"人確診":11860,"哪些":11861,"供應鏈":11862,"協調":11863,"稱為":11864,"財報":11865,"」。▲":11866,"子女":11867,"季後":11868,"的風險":11869,"長榮":11870,"per":11871,"不多":11872,"以外":11873,"恐怖":11874,"投票":11875,"血栓":11876,"資深":11877,"特定":11878,"送驗":11879,"少女":11880,"徒刑":11881,"效能":11882,"癌症":11883,"國防部":11884,"缺水":11885,"被害":11886,"車站":11887,"醫護":11888,"5例":11889,"培育":11890,"就連":11891,"ind":11892,"出貨":11893,"女網友":11894,"經費":11895,"全程":11896,"面板":11897,"習近":11898,"CN":11899,"也可":11900,"否則":11901,"奧斯":11902,"彼此":11903,"性能":11904,"老人":11905,"應該是":11906,"發表會":11907,"徐若":11908,"輔導":11909,"推出的":11910,"3分":11911,"文字":11912,"違法":11913,"長輩":11914,"特斯拉":11915,"大使":11916,"意願":11917,"打算":11918,"能在":11919,"草案":11920,"新冠疫情":11921,"長期居住":11922,"動力":11923,"時表示":11924,"過度":11925,"Inst":11926,"15日":11927,"映光":11928,"趙映光":11929,"17年":11930,"紛紛留言":11931,"人體":11932,"保證":11933,"最好的":11934,"模擬":11935,"而已":11936,"門市":11937,"11月20日":11938,"習近平":11939,"資本":11940,"長的":11941,"守護":11942,"室內":11943,"練習":11944,"言論":11945,"月18日":11946,"Sh":11947,"一半":11948,"埃及":11949,"民間":11950,"烏克蘭":11951,"陷入":11952,"本國籍20多歲女性":11953,"中華民國":11954,"信用":11955,"美中":11956,"血壓":11957,"II":11958,"再加上":11959,"植物":11960,"PS":11961,"填就送":11962,"戶外":11963,"超越":11964,"2021退休":11965,"奇摩值":11966,"壓力大調查":11967,"再抽電影票":11968,"填就送奇摩值":11969,"2021退休壓力大調查":11970,"擊出":11971,"謝謝":11972,"曝光後":11973,"味覺":11974,"不及":11975,"強勁":11976,"愛情":11977,"中崙":11978,"2021年3月":11979,"出去":11980,"ber":11981,"貨幣":11982,"新冠疫苗":11983,"排行榜":11984,"疑慮":11985,"販售":11986,"001922":11987,"吳怡農":11988,"有著":11989,"簽署":11990,"分析師":11991,"2個":11992,"觀念":11993,"過來":11994,"防禦":11995,"19陽性":11996,"ony":11997,"原始連結更多":11998,"po":11999,"兩次":12000,"是什麼":12001,"防疫措施":12002,"仍在":12003,"梅雨":12004,"水情":12005,"前次":12006,"檢驗結果":12007,"打點":12008,"法案":12009,"防範":12010,"me":12011,"世紀":12012,"房價":12013,"靠著":12014,"發生在":12015,"地位":12016,"足夠":12017,"BC":12018,"包裝":12019,"印尼籍20多歲男性":12020,"RO":12021,"北韓":12022,"引擎":12023,"61":12024,"使得":12025,"很好":12026,"5萬":12027,"最後一":12028,"中壢":12029,"主角":12030,"藝人":12031,"至醫院自費採檢":12032,"大雨":12033,"現實":12034,"裡的":12035,"平衡":12036,"電商":12037,"第一時間":12038,"LG":12039,"雲端":12040,"18日":12041,"15年":12042,"IgG":12043,"效率":12044,"進行採檢":12045,"上任":12046,"南海":12047,"外觀":12048,"91":12049,"公費":12050,"一名網友":12051,"》、":12052,"下雨":12053,"決議":12054,"縣府":12055,"午後":12056,"召集":12057,"困擾":12058,"微軟":12059,"門口":12060,"台北市黨部":12061,"www":12062,"如有":12063,"3個":12064,"一間":12065,"空軍":12066,"付費":12067,"回國":12068,"agram":12069,"滿滿":12070,"紅色":12071,"上場":12072,"基於":12073,"婦人":12074,"打疫苗":12075,"開季":12076,"五月":12077,"攝取":12078,"公民":12079,"體重":12080,"」。（":12081,"分局長":12082,"交往":12083,"對應":12084,"照護":12085,"的影響":12086,"7月2":12087,"無須":12088,"身體不適":12089,"穿著":12090,"站在":12091,"60多歲女性":12092,"ne":12093,"筆電":12094,"領袖":12095,"也表示":12096,"電競":12097,"人們":12098,"旗艦":12099,"日期":12100,"當初":12101,"程車":12102,"日報":12103,"IgM":12104,"出一":12105,"深夜":12106,"讀者":12107,"財務":12108,"制裁":12109,"創新高":12110,"也都":12111,"好友":12112,"指導":12113,"火箭":12114,"全數":12115,"國安":12116,"成了":12117,"賣場":12118,"北投":12119,"房務":12120,"酒店":12121,"雜誌":12122,"的關係":12123,"短缺":12124,"計程車":12125,"Facebook":12126,"ge":12127,"嗅味覺異常":12128,"關閉":12129,"IKE":12130,"son":12131,"終場":12132,"隊友":12133,"以往":12134,"新頭":12135,"好像":12136,"等到":12137,"因檢出陽性":12138,"新型":12139,"衣服":12140,"陪伴":12141,"調查中":12142,"社交距離":12143,"全民":12144,"獲報":12145,"上傳":12146,"兩大":12147,"宣傳":12148,"損失":12149,"關懷":12150,"2019冠狀病毒疾病":12151,"介入":12152,"陣雨":12153,"十年":12154,"熱烈":12155,"的不":12156,"管道":12157,"衛福部":12158,"新頭殼":12159,"住宿":12160,"生的":12161,"眾多":12162,"時間為":12163,"以上的":12164,"於美國":12165,"晶圓":12166,"棒球":12167,"先發投手":12168,"無力":12169,"檢疫期滿前採檢並確診":12170,"由衛生單位安排就醫採檢並確診":12171,"400":12172,"並將":12173,"兩國":12174,"笑說":12175,"諮詢":12176,"高層":12177,"7人":12178,"共和":12179,"雇主":12180,"台灣人":12181,"art":12182,"化學":12183,"我是":12184,"抱怨":12185,"捷克":12186,"她說":12187,"心的":12188,"獎金":12189,"作戰":12190,"志工":12191,"不少網友":12192,"疾管":12193,"舒適":12194,"市民":12195,"搶救":12196,"種族":12197,"記錄":12198,"mini":12199,"實習":12200,"封面":12201,"西哥":12202,"上海":12203,"子的":12204,"小姐":12205,"良好":12206,"遠傳":12207,"皆無症狀":12208,"視為":12209,"bit":12210,"收在":12211,"脂肪":12212,"退場":12213,"ES":12214,"文件":12215,"墨西哥":12216,"所幸":12217,"林志":12218,"也有人":12219,"MI":12220,"並無":12221,"升溫":12222,"飛機":12223,"ie":12224,"全世界":12225,"上有":12226,"秘書":12227,"錄影":12228,"13日":12229,"年紀":12230,"證券":12231,"月16日":12232,"出了":12233,"材質":12234,"重症":12235,"的國家":12236,"哪裡":12237,"家族":12238,"的照片":12239,"廁所":12240,"生日":12241,"自印尼":12242,"英語":12243,"近來":12244,"MO":12245,"從小":12246,"百貨":12247,"睡眠":12248,"」？":12249,"也不會":12250,"國軍":12251,"平安":12252,"成分":12253,"時報":12254,"參賽":12255,"是個":12256,"澎湖":12257,"轎車":12258,"前次自":12259,"時尚":12260,"現身":12261,"的情況下":12262,"CC":12263,"可惜":12264,"民調":12265,"白沙":12266,"縣長":12267,"1000":12268,"一看":12269,"第一個":12270,"試圖":12271,"太平洋":12272,"定位":12273,"記者劉":12274,"ast":12275,"司法":12276,"書展":12277,"今天表示":12278,"大批":12279,"將近":12280,"慢性":12281,"親友":12282,"下車":12283,"寫下":12284,"專利":12285,"葡萄":12286,"使用的":12287,"三個":12288,"千元":12289,"斯特":12290,"無出國":12291,"稍早":12292,"評論":12293,"防止":12294,"打破":12295,"是有":12296,"核廢水":12297,"火星":12298,"發燒症狀":12299,"後確診":12300,"保留":12301,"循環":12302,"隔天":12303,"研究所":12304,"體系":12305,"菲律賓籍20多歲男性":12306,"92":12307,"攜帶":12308,"生肖":12309,"用水":12310,"看法":12311,"眾人":12312,"觸控":12313,"一個人":12314,"itter":12315,"abay":12316,"98":12317,"阿富":12318,"去年同期":12319,"行業":12320,"鋼鐵":12321,"中旬":12322,"少數":12323,"快訊":12324,"智能":12325,"聊天":12326,"身邊":12327,"北港":12328,"新疆":12329,"獨家":12330,"執勤":12331,"於4月2":12332,"罕見":12333,"個性":12334,"級分":12335,"。・":12336,"承認":12337,"早期":12338,"當事":12339,"62":12340,"罹患":12341,"自覺":12342,"航運":12343,"Hz":12344,"外資":12345,"查詢":12346,"海域":12347,"篩檢":12348,"聯絡":12349,"話題":12350,"New":12351,"啟臣":12352,"桃猿":12353,"納入":12354,"首季":12355,"阿富汗":12356,"湖人":12357,"​​​​":12358,"忍不住":12359,"驚人":12360,"自行服藥":12361,"是要":12362,"江啟臣":12363,"約新台幣":12364,"薪水":12365,"限時":12366,"僅有":12367,"列車":12368,"的生活":12369,"糾紛":12370,"面積":12371,"翻攝畫面":12372,"ixabay":12373,"太魯閣號":12374,"Le":12375,"熱情":12376,"處於":12377,"過敏":12378,"2020年1月":12379,"roid":12380,"入境後至住處居家檢疫":12381,"DR":12382,"一口":12383,"掀起":12384,"不起":12385,"外媒":12386,"進度":12387,"的朋友":12388,"喜愛":12389,"宣告":12390,"提案":12391,"有望":12392,"水準":12393,"ate":12394,"不動":12395,"前的":12396,"句話":12397,"許多網友":12398,"受惠":12399,"擊敗":12400,"71":12401,"中正":12402,"全聯":12403,"回報":12404,"房子":12405,"ok":12406,"有可能":12407,"Android":12408,"在今年":12409,"釋出":12410,"！[":12411,"分為":12412,"聯賽":12413,"腫瘤":12414,"賠償":12415,"路透":12416,"長達":12417,"路邊":12418,"Gal":12419,"保育":12420,"區的":12421,"名額":12422,"艦隊":12423,"認真":12424,"部隊":12425,"白沙屯":12426,"這也是":12427,"美國總統拜登":12428,"保養":12429,"東森":12430,"旅遊團":12431,"勤洗手":12432,"設立":12433,"星期":12434,"理念":12435,"2020年12月":12436,"天宮":12437,"實測":12438,"幸運":12439,"複雜":12440,"題目":12441,"ouse":12442,"%；":12443,"大選":12444,"警察局":12445,"ET":12446,"打者":12447,"單純":12448,"材料":12449,"入境迄今":12450,"疫情影響":12451,"究竟":12452,"航班":12453,"美國的":12454,"提告":12455,"替代":12456,"總統府":12457,"人潮":12458,"否認":12459,"生育":12460,"總計":12461,"口感":12462,"賽後":12463,"108":12464,"每月":12465,"6年":12466,"97":12467,"她們":12468,"]【":12469,"。※":12470,"不當":12471,"快樂":12472,"擔憂":12473,"次三振":12474,"重返":12475,"ANT":12476,"天然":12477,"意味":12478,"注射":12479,"不然":12480,"優秀":12481,"勝利":12482,"趕快":12483,"逐步":12484,"由衛生單位安排就醫採檢確診":12485,"徐若熙":12486,"取自":12487,"遠距":12488,"女神":12489,"現行":12490,"疫調":12491,"純益":12492,"第1季":12493,"住所":12494,"只好":12495,"我想":12496,"美日":12497,"安排就醫":12498,"醫師旅遊史":12499,"疾管署":12500,"Max":12501,"住家":12502,"展示":12503,"接到":12504,"伊朗":12505,"所需":12506,"擴散":12507,"規則":12508,"行程":12509,"點此看更多":12510,"一輛":12511,"多個":12512,"有局部":12513,"儘速就醫":12514,"一代":12515,"全案":12516,"團結":12517,"失誤":12518,"深入":12519,"選項":12520,"高級":12521,"基層":12522,"才發現":12523,"三年":12524,"又有":12525,"步驟":12526,"拜登政府":12527,"中間":12528,"案4":12529,"隊長":12530,"？」、「":12531,"ph":12532,"不容易":12533,"檢出COVID":12534,"財產":12535,"菲律賓工作":12536,"按摩":12537,"攻下":12538,"過往":12539,"搭乘專車":12540,"並不是":12541,"中文":12542,"應對":12543,"更好":12544,"新聞報導":12545,"真的是":12546,"分數":12547,"名為":12548,"地下":12549,"精準":12550,"2022":12551,"atch":12552,"各大":12553,"會不會":12554,"權利":12555,"監督":12556,"案1120":12557,"近年來":12558,"馬來":12559,"呼吸道":12560,"貼出":12561,"名字":12562,"泡泡":12563,"est":12564,"帳戶":12565,"弱勢":12566,"案3":12567,"驚見":12568,"黨員":12569,"中華職棒":12570,"季後賽":12571,"Ar":12572,"IS":12573,"普遍":12574,"紅燈":12575,"三立新聞網提醒您":12576,"110050":12577,"把握":12578,"是由":12579,"變異":12580,"CTW":12581,"允許":12582,"施打疫苗":12583,"CTWANT":12584,"cc":12585,"一波":12586,"不一樣":12587,"東半部":12588,"清晨":12589,"急診":12590,"若有":12591,"發文表示":12592,"回答":12593,"性別":12594,"喉嚨癢":12595,"自行就醫":12596,"華航機師染疫":12597,"藻礁":12598,"遺體":12599,"還原":12600,"黨主席":12601,"2016年":12602,"因工作需要":12603,"公所":12604,"爆出":12605,"萬噸":12606,"81":12607,"加州":12608,"大廠":12609,"的主":12610,"》、《":12611,"修法":12612,"印太":12613,"總理":12614,"透明":12615,"多名":12616,"籍30多歲男性":12617,"較為":12618,"這起":12619,"探索":12620,"麵包":12621,"接觸者共":12622,"目前已":12623,"救護車":12624,")。●":12625,"認同":12626,"之間的":12627,"授權轉載":12628,"方的":12629,"入境均無症狀":12630,"通報日3":12631,"因檢出陽性並確診":12632,"AN":12633,"商務":12634,"在一起":12635,"物理":12636,"30分":12637,"營養師":12638,"往往":12639,"糖尿":12640,"戀愛":12641,"施工":12642,"測驗":12643,"規畫":12644,"sh":12645,"兩位":12646,"商店":12647,"女童":12648,"11004":12649,"card":12650,"一致":12651,"後症狀":12652,"相關的":12653,"94":12654,"強制":12655,"最強":12656,"路口":12657,"2天":12658,"有趣":12659,"焦點":12660,"上下":12661,"大甲":12662,"資安":12663,"科技大學":12664,"打完":12665,"流程":12666,"失敗":12667,"森林":12668,"華視新聞":12669,"號碼":12670,"德里":12671,"有症狀":12672,"的目標":12673,"第5":12674,"籃網":12675,"長照":12676,"無出國史":12677,"Br":12678,"清真":12679,"育成":12680,"至其他":12681,"還可以":12682,"騷擾":12683,"均為":12684,"高階":12685,"貼文一出":12686,"二壘":12687,"發電":12688,"點多":12689,"CD":12690,"不可能":12691,"家裡":12692,"入境時無不適症狀":12693,"返國後":12694,"一定會":12695,"旁邊":12696,"永遠":12697,"肇事":12698,"作家":12699,"海上":12700,"輝瑞":12701,"高鐵":12702,"勞動節":12703,"。【":12704,"做到":12705,"多種":12706,"就被":12707,"ang":12708,"84":12709,"大多數":12710,"蓋茲":12711,"理事長":12712,"博士":12713,"對戰":12714,"縣政府":12715,"美味":12716,"辨識":12717,"顯然":12718,"公司的":12719,"杜拜":12720,"皆為":12721,"車上":12722,"農民":12723,"經濟部":12724,"5000":12725,"6人":12726,"MV":12727,"仔細":12728,"等於":12729,"部署":12730,"已經有":12731,"推薦影音":12732,"糖尿病":12733,"一份":12734,"中和":12735,"亮眼":12736,"害怕":12737,"機械":12738,"iz":12739,"以色":12740,"學年度":12741,"現有":12742,"鴻海":12743,"充分":12744,"兩種":12745,"地震":12746,"副作用":12747,"感冒":12748,"？[":12749,"2017年":12750,"武器":12751,"英雄":12752,"雞蛋":12753,"Instagram":12754,"廚房":12755,"貨機":12756,"歷史新高":12757,"試驗":12758,"適當防護":12759,"82":12760,"io":12761,"前後":12762,"時許":12763,"聯合新聞網":12764,"只見":12765,"案60":12766,"案70":12767,"案34":12768,"此事":12769,"瞭解":12770,"採檢送驗":12771,"由機場檢疫人員安排":12772,"87":12773,"AV":12774,"卻被":12775,"ort":12776,"孩子的":12777,"ike":12778,"清真寺":12779,"將持續":12780,"axy":12781,"三重":12782,"儲存":12783,"劑疫苗":12784,"另有":12785,"坐在":12786,"本週":12787,"至5":12788,"流鼻水及":12789,"今晚":12790,"天使":12791,"立法":12792,"財政部":12793,"長時間":12794,"風暴":12795,"失智":12796,"浪費":12797,"董事會":12798,"人為":12799,"做的":12800,"回收":12801,"已在":12802,"度的":12803,"提及":12804,"禮物":12805,"部落":12806,"Club":12807,"Galaxy":12808,"Dcard":12809,"大戰":12810,"24小時":12811,"報到":12812,"檔案":12813,"短短":12814,"護理師":12815,"開打":12816,"3月17日":12817,"上路":12818,"春季":12819,"的手":12820,"幼兒園":12821,"以色列":12822,"house":12823,"一邊":12824,"中有":12825,"的關鍵":12826,"震盪":12827,"龍頭":12828,"弟弟":12829,"微博":12830,"飲酒":12831,"5月3日":12832,"CI":12833,"共計":12834,"每個人":12835,"Pod":12836,"……":12837,"中南部":12838,"接受檢疫期滿前採檢":12839,"因症狀":12840,"座位":12841,"的機率":12842,"落後":12843,"EN":12844,"出血":12845,"核酸檢測":12846,"喉嚨痛症狀":12847,"鄰居":12848,"匯流":12849,"商機":12850,"外型":12851,"延後":12852,"監控":12853,"上面":12854,"信任":12855,"先進":12856,"內政部":12857,"投球":12858,"的表現":12859,"網友們":12860,"4月29日":12861,"停車場":12862,"因有":12863,"提早":12864,"較高":12865,"總統蔡英文":12866,"一大":12867,"！「":12868,"新款":12869,"中時新聞網":12870,"乾淨":12871,"低於":12872,"參選":12873,"正面":12874,"歧視":12875,"點名":12876,"它的":12877,"軍方":12878,"4月22日":12879,"上週":12880,"亞太":12881,"熟悉":12882,"熱量":12883,"蔡總統":12884,"大眾運輸":12885,"05":12886,"保存":12887,"壓制":12888,"業界":12889,"支出":12890,"翻譯":12891,"款式":12892,"華視新聞報導":12893,"他認為":12894,"舒服":12895,"進去":12896,"新冠病毒":12897,"統一獅":12898,"上訴":12899,"送到":12900,"2000":12901,"原始連結更多華視新聞報導":12902,"17日":12903,"Co":12904,"下殺":12905,"他是":12906,"公平":12907,"投出":12908,"決心":12909,"自家":12910,"期間並無症狀":12911,"our":12912,"卻是":12913,"捐贈":12914,"泡麵":12915,"列自主健康管理":12916,"的學生":12917,"盡快":12918,"科醫師":12919,"一片":12920,"大規模":12921,"機身":12922,"奧斯卡":12923,"ail":12924,"決賽":12925,"開除":12926,"不易":12927,"外推":12928,"美方":12929,"黨籍":12930,"集中檢疫":12931,"防禦率":12932,"小說":12933,"形容":12934,"水量":12935,"祭出":12936,"賺錢":12937,"都被":12938,"食用":12939,"Re":12940,"不願":12941,"主辦":12942,"只會":12943,"應變":12944,"罹難":12945,"5名":12946,"半場":12947,"委託":12948,"彈性":12949,"車道":12950,"配備":12951,"主要是":12952,"to":12953,"中美":12954,"出面":12955,"樣的":12956,"水利":12957,"看來":12958,"還是要":12959,"ity":12960,"馬來西亞":12961,"01":12962,"估計":12963,"博物":12964,"她也":12965,"宣導":12966,"運算":12967,"友善":12968,"合法":12969,"國文":12970,"聯電":12971,"財經":12972,"199":12973,"——":12974,"合計":12975,"洗衣":12976,"輔助":12977,"wan":12978,"張育成":12979,"運勢":12980,"一旁":12981,"演唱":12982,"一隻":12983,"急救":12984,"按照":12985,"發動":12986,"吃飯":12987,"故無匡列接觸者":12988,"麻煩":12989,"富邦悍將":12990,"小學":12991,"發行":12992,"顧客":12993,"不需要":12994,"培訓":12995,"更為":12996,"配件":12997,"頭部":12998,"14天內":12999,"之際":13000,"了一個":13001,"用來":13002,"百年":13003,"信用卡":13004,"算是":13005,"結帳":13006,"路段":13007,"長者":13008,"15人":13009,"在臉書社團":13010,"召集人":13011,"南非":13012,"排隊":13013,"金控":13014,"付出":13015,"恐嚇":13016,"政府的":13017,"勞動部":13018,"腹瀉等症狀":13019,"發射":13020,"婦女":13021,"盡量":13022,"義偉":13023,"翔平":13024,"舞台":13025,"菅義偉":13026,"年底":13027,"扮演":13028,"近期無出國史":13029,"04":13030,"比利":13031,"車主":13032,"門檻":13033,"for":13034,"慶祝":13035,"有時":13036,"籃球":13037,"拿出":13038,"期徒刑":13039,"粉專":13040,"藍牙":13041,"不小心":13042,"吸收":13043,"新生":13044,"新鮮":13045,"物質":13046,"白天":13047,"短期":13048,"特別是":13049,"取代":13050,"10萬":13051,"入學":13052,"境內":13053,"旅宿":13054,"面上":13055,"1個":13056,"主張":13057,"元的":13058,"黃承":13059,"另一個":13060,"氧化":13061,"當沖":13062,"稅後":13063,"變遷":13064,"送往":13065,"適用":13066,"）▲":13067,"出境時間為":13068,"在外":13069,"機能":13070,"犯案":13071,"的東西":13072,"逃逸":13073,"關切":13074,"出國日期為":13075,"搜尋":13076,"有了":13077,"海峽":13078,"ess":13079,"Clubhouse":13080,"co":13081,"樂觀":13082,"法規":13083,"第五":13084,"配置":13085,"金屬":13086,"阿里":13087,"採檢結果為陰性":13088,"互相":13089,"差距":13090,"狗狗":13091,"罪嫌":13092,"車的":13093,"額外":13094,"ich":13095,"IP":13096,"五一":13097,"未經":13098,"藍色":13099,"中華電信":13100,"學會":13101,"代謝":13102,"打擊率":13103,"te":13104,"只剩":13105,"談判":13106,"開設":13107,"於1月2":13108,"西武":13109,"上前":13110,"啟用":13111,"獨特":13112,"行經":13113,"預定":13114,"被害人":13115,"分手":13116,"學年":13117,"放寬":13118,"福島":13119,"製程":13120,"內湖":13121,"警分局":13122,"進帳":13123,"PO文":13124,"則表示":13125,"可說是":13126,"戰機":13127,"暐瀚":13128,"服用":13129,"破口":13130,"處長":13131,"be":13132,"家電":13133,"貓咪":13134,"還好":13135,"app":13136,"不在":13137,"做法":13138,"至防疫旅館":13139,"還沒有":13140,"不幸":13141,"住在":13142,"國勇":13143,"期盼":13144,"的貼文":13145,"的感覺":13146,"進場":13147,"靜脈":13148,"哥哥":13149,"時機":13150,"起火":13151,"通路":13152,"三分球":13153,"刊登於":13154,"大谷翔平":13155,"力挺":13156,"視覺":13157,"超前":13158,"轉換":13159,"分配":13160,"場景":13161,"夫婦":13162,"小的":13163,"架構":13164,"象徵":13165,"19人":13166,"嚴重的":13167,"M1":13168,"創業":13169,"情勢":13170,"我就":13171,"洋基":13172,"加劇":13173,"成年":13174,"景點":13175,"本人":13176,"，《":13177,"14年":13178,"pl":13179,"圖書":13180,"房地":13181,"的需求":13182,"網絡":13183,"徐國勇":13184,"林口":13185,"死者":13186,"與其他":13187,"西蘭":13188,"聯合國":13189,"假日":13190,"漂亮":13191,"追查":13192,"信義":13193,"好幾":13194,"對台灣":13195,"首例":13196,"印尼籍20多歲男性漁工":13197,"4萬":13198,"居然":13199,"隊伍":13200,"ahoo":13201,"73":13202,"危害":13203,"為本國籍":13204,"男女":13205,"闖入":13206,"ack":13207,"交通部":13208,"NA":13209,"TO":13210,"教室":13211,"哪個":13212,"嬌生":13213,"私人":13214,"指揮中心指出":13215,"應該要":13216,"東京奧運":13217,"住宅":13218,"國道":13219,"也有網友":13220,"博物館":13221,"宗教":13222,"甜點":13223,"當作":13224,"消防局":13225,"期滿前":13226,"常見的":13227,"機場攔檢":13228,"單身":13229,"安裝":13230,"感受到":13231,"聯名":13232,"衛星":13233,"高速":13234,"自費採檢並確診":13235,"ue":13236,"公路":13237,"各式":13238,"致力":13239,"4月26日":13240,"嗅覺喪失":13241,"讓我":13242,"部位":13243,"20年":13244,"4個":13245,"但這":13246,"女王":13247,"日子":13248,"血糖":13249,"負責人":13250,"採檢後送至集中檢疫所隔離":13251,"代理":13252,"但也":13253,"專題":13254,"復甦":13255,"9月2":13256,"休旅":13257,"夜市":13258,"敏感":13259,"標示":13260,"賽前":13261,"分別是":13262,"★★":13263,"戰力":13264,"法辦":13265,"球團":13266,"教育局":13267,"會談":13268,"此時":13269,"殺人":13270,"地方政府":13271,"黃承國":13272,"到案":13273,"喝酒":13274,"搜索":13275,"的行為":13276,"酒精":13277,"瑞士":13278,"解析":13279,"長大":13280,"防治":13281,"正是":13282,"重申":13283,"天的":13284,"她在":13285,"引來":13286,"打數":13287,"撞上":13288,"有什麼":13289,"請撥打":13290,"進駐":13291,"alk":13292,"600":13293,"住戶":13294,"合照":13295,"上周":13296,"詐欺":13297,"財政":13298,"黃暐瀚":13299,"入黨":13300,"發炎":13301,"總裁":13302,"高於":13303,"本土病例":13304,"匯流新聞網":13305,"太大":13306,"該公司":13307,"中崙派出所":13308,"93":13309,"hn":13310,"一中":13311,"招生":13312,"畫素":13313,"國泰":13314,"在PTT":13315,"帶回":13316,"早已":13317,"查獲":13318,"台電":13319,"東部":13320,"的可能性":13321,"纖維":13322,"老翁":13323,"日月":13324,"迎接":13325,"出現疑似症狀":13326,"Yahoo":13327,"助理":13328,"某些":13329,"用品":13330,"普通":13331,"聯手":13332,"跡象":13333,"首相":13334,"偏鄉":13335,"出手":13336,"太太":13337,"期望":13338,"的態度":13339,"繳稅":13340,"檢驗中":13341,"oun":13342,"傷口":13343,"忘記":13344,"退出":13345,"還說":13346,"！」、「":13347,"記者陳":13348,"改為":13349,"有利":13350,"週刊":13351,"隱私":13352,"關節痛":13353,"南亞":13354,"坦承":13355,"得以":13356,"選購":13357,"all":13358,"記憶體":13359,"也曾":13360,"NAS":13361,"之亂":13362,"單場":13363,"新機":13364,"睡覺":13365,"祝福":13366,"美麗":13367,"開出":13368,"高溫":13369,"一軍":13370,"再生":13371,"於2020年":13372,"盤中":13373,"誇張":13374,"其他人":13375,"現在的":13376,"ip":13377,"利亞":13378,"妹妹":13379,"戰績":13380,"深度":13381,"這波":13382,"進行檢疫期滿前採檢":13383,"活動史":13384,"基本上":13385,"一週":13386,"之中":13387,"有許多":13388,"本月":13389,"難度":13390,"aiwan":13391,"ian":13392,"以免":13393,"何時":13394,"回覆":13395,"查看":13396,"比特":13397,"語音":13398,"電廠":13399,"高齡":13400,"修復":13401,"在中國":13402,"技巧":13403,"歲以上":13404,"自助":13405,"興奮":13406,"親子":13407,"13年":13408,"局長陳嘉昌":13409,"不久":13410,"成熟":13411,"毫米":13412,"火腿":13413,"美股":13414,"街頭":13415,"台灣大":13416,"當事人":13417,"比利時":13418,"5元":13419,"成的":13420,"打電話":13421,"肚子":13422,"但因":13423,"出動":13424,"布里":13425,"沒辦法":13426,"激烈":13427,"現任":13428,"肥皂":13429,"出現喉嚨不適症狀":13430,"ust":13431,"一對":13432,"優異":13433,"專注":13434,"正妹":13435,"警員":13436,"非洲":13437,"民主黨":13438,"Watch":13439,"不受":13440,"仇恨":13441,"協定":13442,"年級":13443,"採訪":13444,"爸媽":13445,"與中國":13446,"塑膠":13447,"學童":13448,"遵守":13449,"出售":13450,"這件事":13451,"非法":13452,"劉德":13453,"原料":13454,"外長":13455,"成就":13456,"課綱":13457,"不慎":13458,"事態":13459,"例行":13460,"各位":13461,"找出":13462,"被問":13463,"顯著":13464,"血清抗體IgM":13465,"百分點":13466,"起陸續出現":13467,"陳姓":13468,"由於個案":13469,"更好的":13470,"深刻":13471,"為例":13472,"的就是":13473,"出現在":13474,"4月19日":13475,"但仍":13476,"原住民":13477,"多了":13478,"大阪":13479,"沒人":13480,"相互":13481,"社報導":13482,"發票":13483,"血液":13484,"日本政府":13485,"蛋白質":13486,"一條":13487,"包商":13488,"如同":13489,"5日至":13490,"8人":13491,"債務":13492,"禮拜":13493,"蔬菜":13494,"頭暈":13495,"做了":13496,"將是":13497,"看完":13498,"看過":13499,"科系":13500,"轉移":13501,"配戴口罩":13502,"群聚感染":13503,"83":13504,"不停":13505,"動脈":13506,"後方":13507,"滿意":13508,"漲價":13509,"瑞莎":13510,"登上":13511,"空中":13512,"今天在":13513,"工程師":13514,"到的":13515,"愛爾":13516,"無失分":13517,"跟我":13518,"動物園":13519,"成人":13520,"路人":13521,"。」▲":13522,"今日推薦影音":13523,"無論是":13524,"相處":13525,"間的":13526,"印度的":13527,"保持社交距離":13528,"主持人":13529,"徹底":13530,"10多歲女性":13531,"民進黨台北市黨部":13532,"下滑":13533,"每人":13534,"營造":13535,"的她":13536,"身亡":13537,"白沙屯媽祖":13538,"職缺":13539,"國家的":13540,"有限公司":13541,"udn":13542,"放鬆":13543,"減輕":13544,"飛彈":13545,"圖片來源":13546,"貨車":13547,"20多歲":13548,"30年":13549,"。》":13550,"嬰兒":13551,"牛肉":13552,"表態":13553,"生意":13554,"留在":13555,"聯網":13556,"雙語":13557,"PD":13558,"來愈":13559,"檢舉":13560,"12月3日":13561,"小型":13562,"機種":13563,"演說":13564,"見面":13565,"軍人":13566,"地區的":13567,"平日":13568,"新興":13569,"秘密":13570,"警報":13571,"診所就醫":13572,"教官":13573,"條款":13574,"痛批":13575,"的台灣":13576,"的設計":13577,"院所":13578,"類股":13579,"英國工作":13580,"公布的":13581,"Fi":13582,"前進":13583,"對比":13584,"新人":13585,"開會":13586,"就可":13587,"技能":13588,"登錄":13589,"親王":13590,"讓民眾":13591,"軌道":13592,"風波":13593,"設計的":13594,"ive":13595,"02":13596,"Un":13597,"愈來愈":13598,"明明":13599,"痛苦":13600,"胸悶":13601,"華人":13602,"餐點":13603,"疫苗的":13604,"由衛生單位安排就醫採檢":13605,"平板":13606,"2020年11月":13607,"經濟學":13608,"印尼籍20至":13609,"De":13610,"毫無":13611,"男生":13612,"當前":13613,"落在":13614,"進行期滿前":13615,"樂天桃猿":13616,"仍是":13617,"會被":13618,"約有":13619,"讓大家":13620,"ox":13621,"不對":13622,"數十":13623,"稅率":13624,"一項":13625,"三壘":13626,"敦睦":13627,"署長":13628,"解答":13629,"連敗":13630,"雨量":13631,"John":13632,"03":13633,"IA":13634,"作法":13635,"司令":13636,"過量":13637,"更多的":13638,"敦睦艦隊":13639,"6局":13640,"比爾":13641,"輸入":13642,"這邊":13643,"NASA":13644,"3成":13645,"展望":13646,"昨晚":13647,"會是":13648,"適應":13649,"接觸史":13650,"age":13651,"5月2日":13652,"dr":13653,"始終":13654,"校內":13655,"就是要":13656,"ome":13657,"專訪":13658,"接連":13659,"直升":13660,"請先":13661,"陳家":13662,"8日及":13663,"便當":13664,"竟是":13665,"花旗":13666,"足球":13667,"防衛":13668,"檢驗結果為陰性":13669,"秘書長":13670,"增強":13671,"大讚":13672,"布局":13673,"後再":13674,"玩具":13675,"西方":13676,"列為居家隔離":13677,"CH":13678,"不代表":13679,"偵查":13680,"全校":13681,"因而":13682,"在臺":13683,"最重要":13684,"歷程":13685,"未滿":13686,"看著":13687,"讓他們":13688,"Te":13689,"加護":13690,"工人":13691,"手套":13692,"減肥":13693,"美術":13694,"聲稱":13695,"學長":13696,"還不":13697,"工作的":13698,"ina":13699,"機組人員":13700,"原文刊登於":13701,"情報":13702,"清晰":13703,"認知":13704,"驚喜":13705,"合作媒體":13706,"醫護人員":13707,"出軌":13708,"零售":13709,"出來的":13710,"不管是":13711,"az":13712,"獲授權轉載":13713,"瘋狂":13714,"陌生":13715,"飼主":13716,"vs":13717,"上演":13718,"偵測":13719,"導入":13720,"說話":13721,"聯合新聞網獲授權轉載":13722,"倫敦":13723,"出入":13724,"加工":13725,"大漲":13726,"對決":13727,"我也":13728,"時常":13729,"更高":13730,"發起":13731,"給我":13732,"重啟":13733,"原文刊登於合作媒體":13734,"一壘":13735,"不必":13736,"中醫":13737,"保健":13738,"清空":13739,"集結":13740,"做為":13741,"廣角":13742,"捐款":13743,"30萬":13744,"小時候":13745,"af":13746,"line":13747,"副所長":13748,"建置":13749,"未就醫":13750,"正義":13751,"王柏":13752,"菲律賓籍20多歲女性":13753,"多久":13754,"添加":13755,"ight":13756,"下半年":13757,"二十":13758,"man":13759,"但卻":13760,"喊話":13761,"巴拉":13762,"播放":13763,"權力":13764,"比起":13765,"無關":13766,"的確":13767,"皆持有搭機前3日內檢驗陰性報告":13768,"硬體":13769,"買房":13770,"遊行":13771,"霸凌":13772,"Bl":13773,"原價":13774,"橡皮":13775,"而非":13776,"所有的":13777,"自行車":13778,"結束後":13779,"CE":13780,"下週":13781,"不只是":13782,"列入":13783,"欣賞":13784,"用途":13785,"表明":13786,"連線":13787,"呼吸困難":13788,"愛爾蘭":13789,"pe":13790,"共享":13791,"初期":13792,"均有":13793,"好手":13794,"市值":13795,"是為了":13796,"歲男童":13797,"遭遇":13798,"味覺異常等症狀":13799,"人工智慧":13800,"上限":13801,"完工":13802,"我要":13803,"車子":13804,"量測":13805,"Am":13806,"要有":13807,"今年1月":13808,"出現咳嗽症狀":13809,"Car":13810,"為此":13811,"的支持":13812,"盤查":13813,"談到":13814,"開盤":13815,"難道":13816,"案1129":13817,"告知醫師旅遊史":13818,"檢疫期間未與他人接觸":13819,"診斷為":13820,"維修":13821,"至11月27日":13822,"新莊":13823,"於11月29日":13824,"目擊":13825,"許書":13826,"通緝":13827,"大家都":13828,"檢疫期滿前採檢確診":13829,"其餘19人":13830,"74於11月29日":13831,"發病日3":13832,"其中案674於11月29日":13833,"印尼籍20多歲至40多歲入境日介於11月20日":13834,"其餘19人入境無症狀":13835,"其中案674於11月29日出現喉嚨不適症狀":13836,"印尼籍20多歲至40多歲入境日介於11月20日至11月27日":13837,"反彈":13838,"命中":13839,"才有":13840,"才知道":13841,"進展":13842,"金錢":13843,"搭乘大眾運輸":13844,"無限":13845,"職務":13846,"股利":13847,"重建":13848,"青少年":13849,"1次":13850,"人家":13851,"公眾":13852,"前來":13853,"清水":13854,"盧秀":13855,"20萬":13856,"end":13857,"全館":13858,"大考":13859,"抑制":13860,"火車":13861,"機器人":13862,"以北":13863,"免付費":13864,"及其":13865,"打線":13866,"洋投":13867,"繁星":13868,"自信":13869,"10多歲男性":13870,"2021年1月2":13871,"菲律賓籍30多歲女性":13872,"美聯":13873,"錯過":13874,"7天":13875,"DI":13876,"G7":13877,"在場":13878,"涵蓋":13879,"示威":13880,"裝備":13881,"這類":13882,"開槍":13883,"風味":13884,"首位":13885,"第二季":13886,"妨害":13887,"子宮":13888,"爆炸":13889,"理論":13890,"貸款":13891,"可以在":13892,"4日至":13893,"99元":13894,"5天":13895,"打出":13896,"於11月":13897,"秩序":13898,"讓學生":13899,"質詢":13900,"不容":13901,"全年":13902,"模樣":13903,"老實":13904,"門診":13905,"氣候變遷":13906,"3D":13907,"出處":13908,"子座":13909,"很高":13910,"模組":13911,"次數":13912,"調閱":13913,"身份":13914,"大生":13915,"引進":13916,"是以":13917,"最重要的":13918,"表情":13919,"吃到飽":13920,"新型冠狀病毒":13921,"ML":13922,"」(":13923,"四大":13924,"版權":13925,"眼淚":13926,"聚焦":13927,"許可":13928,"（@":13929,"盧秀燕":13930,"7局":13931,"並以":13932,"的第一":13933,")[":13934,"gs":13935,"一日":13936,"收益":13937,"能否":13938,"花了":13939,"太空人":13940,"不出":13941,"惡意":13942,"斯坦":13943,"紐西蘭":13944,"訊號":13945,"不應":13946,"也可能":13947,"到來":13948,"帶有":13949,"的產品":13950,"研議":13951,"防守":13952,"馬祖":13953,"4月27日":13954,"午餐":13955,"各自":13956,"在疫情":13957,"潛艦":13958,"火力":13959,"開罰":13960,"％。":13961,"相關新聞影音":13962,"不動產":13963,"主播":13964,"遼寧":13965,"酒吧":13966,"結果皆為陰性":13967,"ord":13968,"台新":13969,"在全球":13970,"專門":13971,"模範":13972,"而不是":13973,"走向":13974,"靠近":13975,"12人":13976,"就醫時":13977,"一顆":13978,"不排除":13979,"內政":13980,"占比":13981,"地圖":13982,"支撐":13983,"更大":13984,"會長":13985,"有很多":13986,"12年":13987,"本國籍20多歲男性":13988,"流鼻水症狀":13989,"USB":13990,"250":13991,"5局":13992,"內心":13993,"其次":13994,"考題":13995,"舉動":13996,"過世":13997,"實驗室":13998,"再來":13999,"樣子":14000,"財運":14001,"送辦":14002,"進香":14003,"門票":14004,"開箱":14005,"4月25日":14006,"入境時主動通報":14007,"有助於":14008,"也因此":14009,"傳遞":14010,"展覽":14011,"未能":14012,"歷經":14013,"溫暖":14014,"第6":14015,"給他":14016,"世界衛生":14017,"Int":14018,"行政院長":14019,"巨大":14020,"援助":14021,"本周":14022,"2015年":14023,"主管機關":14024,"所謂的":14025,"IgG陽性":14026,"心裡":14027,"時事":14028,"火鍋":14029,"的他":14030,"頻繁":14031,"如果你":14032,"2局":14033,"上線":14034,"彥池":14035,"毛利率":14036,"水電":14037,"肥胖":14038,"華盛":14039,"記者劉彥池":14040,"貨機機師":14041,"在網路上":14042,"房市":14043,"視頻":14044,"鄰近":14045,"野生":14046,"一款":14047,"宣佈":14048,"屆時":14049,"引述":14050,"心中":14051,"曾與":14052,"痊癒":14053,"眼鏡":14054,"美國工作":14055,"Book":14056,"單一":14057,"廣泛":14058,"義務":14059,"聚會":14060,"途中":14061,"進攻":14062,"部份":14063,"鍵盤":14064,"確診日":14065,"int":14066,"ank":14067,"分享的貼文":14068,"機場攔截":14069,"三接":14070,"中火":14071,"主打":14072,"多項":14073,"廣場":14074,"的商品":14075,"這兩":14076,"頭髮":14077,"128":14078,"全家":14079,"刻意":14080,"已於":14081,"愛心":14082,"戲劇":14083,"的能力":14084,"看出":14085,"陪同":14086,"麥當":14087,"高中生":14088,"出現發燒症狀":14089,"民族":14090,"火警":14091,"登山":14092,"興建":14093,"貨櫃":14094,"零星":14095,"WHO":14096,"華盛頓":14097,"慈濟":14098,"理財":14099,"男人":14100,"花費":14101,"還可":14102,"阻止":14103,"機場攔截發現":14104,"全美":14105,"女人":14106,"政黨":14107,"比重":14108,"表揚":14109,"解放":14110,"訂閱":14111,"智慧型":14112,"麥當勞":14113,"WS":14114,"對台":14115,"後面":14116,"4月18日":14117,"特爾":14118,"經紀":14119,"融入":14120,"媒體報導":14121,"國務院":14122,"一事":14123,"一處":14124,"地說":14125,"早就":14126,"演藝":14127,"的環境":14128,"豆腐":14129,"風景":14130,"驅逐":14131,"6萬":14132,"9元":14133,"MA":14134,"中表示":14135,"事宜":14136,"傷勢":14137,"協商":14138,"往返":14139,"管制措施":14140,"ON":14141,"交換":14142,"傳產":14143,"學術":14144,"強勢":14145,"物料":14146,"稍微":14147,"重複":14148,"自己是":14149,"網友熱議":14150,"4月20日":14151,"未來的":14152,"後送":14153,"拍下":14154,"游泳":14155,"腦死":14156,"虧損":14157,"電力":14158,"2月3日":14159,"巴拉圭":14160,"下周":14161,"找不到":14162,"邊緣":14163,"國內新增":14164,"撥打防疫專線":14165,"已掌握個案":14166,"停辦":14167,"動手":14168,"吃的":14169,"布林":14170,"度過":14171,"會讓":14172,"若身體不適":14173,"除此":14174,"VR":14175,"加盟":14176,"動保":14177,"又是":14178,"含有":14179,"婚禮":14180,"尷尬":14181,"幸好":14182,"此舉":14183,"獎勵":14184,"超市":14185,"如果是":14186,"免付費防疫專線":14187,"ff":14188,"成效":14189,"推進":14190,"生素":14191,"....":14192,"實際上":14193,"長期居住美國":14194,"肥皂勤洗手":14195,"力道":14196,"型態":14197,"林佳":14198,"精選":14199,"達人":14200,"民進黨立委":14201,"持有登機前3日內檢驗陰性報告":14202,"比特幣":14203,"ct":14204,"一件":14205,"了吧":14206,"候選":14207,"和其他":14208,"在去年":14209,"領航":14210,"住所自主健康管理":14211,"三天":14212,"學系":14213,"工地":14214,"更能":14215,"3次":14216,"享有":14217,"人妻":14218,"10人":14219,"11年":14220,"4月28日":14221,"ton":14222,"少康":14223,"氣氛":14224,"的那":14225,"試題":14226,"週年":14227,"面向":14228,"死亡人數":14229,"之處":14230,"故意":14231,"有肺炎":14232,"立院":14233,"級的":14234,"群組":14235,"賓士":14236,"踴躍":14237,"帶來的":14238,"務必告知醫師旅遊史":14239,"4G":14240,"信息":14241,"均為陰性":14242,"景氣":14243,"槍擊":14244,"比如":14245,"籍40多歲男性":14246,"ung":14247,"IKEA":14248,"中常":14249,"優於":14250,"到現在":14251,"定義":14252,"很大的":14253,"有時候":14254,"KY":14255,"iew":14256,"企圖":14257,"俄國":14258,"兩隊":14259,"將有":14260,"收購":14261,"機型":14262,"犧牲":14263,"王國":14264,"病情":14265,"第10":14266,"雙北":14267,"出色":14268,"守備":14269,"歌手":14270,"的活動":14271,"總共":14272,"行駛":14273,"警消":14274,"一台":14275,"天堂":14276,"林姓":14277,"知情":14278,"稽查":14279,"首都":14280,"第一線":14281,"DA":14282,"GO":14283,"憂心":14284,"才剛":14285,"率先":14286,"色彩":14287,"藥品":14288,"請勿":14289,"國家安全":14290,"5分":14291,"在大":14292,"手段":14293,"拿著":14294,"搶先":14295,"服員":14296,"第11":14297,"3大":14298,"也許":14299,"冷凍":14300,"局勢":14301,"承擔":14302,"的比賽":14303,"2020年2月":14304,"最新報導":14305,"除此之外":14306,"亮點":14307,"後於":14308,"加護病房":14309,"8萬":14310,"四月":14311,"效益":14312,"行車":14313,"這就是":14314,"目前的":14315,"4月21日":14316,"另一方面":14317,"Play":14318,"共和黨":14319,"位的":14320,"研院":14321,"防疫旅宿":14322,"ams":14323,"不懂":14324,"師大":14325,"過後":14326,"隊史":14327,"2成":14328,"抗疫":14329,"效應":14330,"民生":14331,"通通":14332,"50萬":14333,"07":14334,"1億":14335,"一時":14336,"原先":14337,"玩笑":14338,"20歲":14339,"out":14340,"電子股":14341,"ass":14342,"的外":14343,"的說法":14344,"第19":14345,"繳出":14346,"被告":14347,"趙少康":14348,"過於":14349,"受害者":14350,"ris":14351,"世衛":14352,"台科大":14353,"周年":14354,"孩童":14355,"英特爾":14356,"馬斯":14357,"至醫院自費採檢確診":14358,"巡邏":14359,"決策":14360,"租屋":14361,"腎臟":14362,"見到":14363,"議院":14364,"隱藏":14365,"檢出陽性確診":14366,"無須匡列接觸者":14367,"案701":14368,"機場攔檢發現":14369,"PU":14370,"不大":14371,"光是":14372,"差不多":14373,"折扣":14374,"有個":14375,"有意":14376,"民宅":14377,"鏡週刊":14378,"電梯":14379,"布林肯":14380,"交給":14381,"伴侶":14382,"國籍":14383,"校友":14384,"案發":14385,"特性":14386,"現階段":14387,"甄嬛":14388,"能讓":14389,"ay1":14390,"元素":14391,"大師":14392,"媽咪":14393,"日公布":14394,"是最":14395,"漏洞":14396,"離職":14397,"500元":14398,"直升機":14399,"Pay":14400,"Sony":14401,"並戴上口罩":14402,"停課":14403,"3000":14404,"造成的":14405,"王柏融":14406,"0元":14407,"傳媒":14408,"判刑":14409,"平等":14410,"指甲":14411,"請主動通報":14412,"青春":14413,"高峰":14414,"前往集中檢疫所":14415,"回國若身體不適":14416,"14天內出現疑似症狀":14417,"請先撥打防疫專線":14418,"並戴上口罩儘速就醫":14419,"回國若身體不適請主動通報":14420,"14天內出現疑似症狀請先撥打防疫專線":14421,"4分":14422,"生技":14423,"考驗":14424,"警覺":14425,"37gs":14426,"移工2021年":14427,"37gsay1":14428,"爆紅":14429,"與台灣":14430,"賽季":14431,"演唱會":14432,"Intel":14433,"備受":14434,"則有":14435,"多位":14436,"差點":14437,"拍賣":14438,"撞擊":14439,"昏迷":14440,"有期徒刑":14441,"污染":14442,"種類":14443,"註冊":14444,"農委會":14445,"骨折":14446,"提供的":14447,"一堆":14448,"的發展":14449,"賽車":14450,"陳時中表示":14451,"下班":14452,"冰箱":14453,"大隊":14454,"富豪":14455,"有一個":14456,"的中":14457,"續航":14458,"聚集":14459,"被打":14460,"黃偉":14461,"里長":14462,"黨內":14463,"可以看到":14464,"布里悍":14465,"700":14466,"下令":14467,"代工":14468,"入侵":14469,"公主":14470,"奇怪":14471,"房東":14472,"的內容":14473,"看似":14474,"該校":14475,"驗證":14476,"第一名":14477,"Sn":14478,"X光":14479,"多達":14480,"就已經":14481,"麥克":14482,"40萬":14483,"綜合評價":14484,"twitter":14485,"的重要性":14486,"人事":14487,"回台":14488,"是台灣":14489,"求職":14490,"浪漫":14491,"球星":14492,"彰化縣":14493,"ey":14494,"主權":14495,"大數據":14496,"幅度":14497,"擴張":14498,"的故事":14499,"福原":14500,"體內":14501,"怎麼辦":14502,"中央流行疫情指揮中心今":14503,"8點":14504,"9年":14505,"傳輸":14506,"勇敢":14507,"很容易":14508,"行情":14509,"評比":14510,"驚呼":14511,"影響力":14512,"防範新冠肺炎":14513,"厲害":14514,"組長":14515,"半夜":14516,"場域":14517,"多樣":14518,"大獎":14519,"投稿":14520,"曾到":14521,"檢驗確診":14522,"代表處":14523,"科學家":14524,"前總統":14525,"就不":14526,"是他":14527,"識別":14528,"財富":14529,"集體":14530,"千人":14531,"回去":14532,"在內":14533,"大學生":14534,"批准":14535,"涉案":14536,"牛奶":14537,"謹慎":14538,"一段時間":14539,"久的":14540,"喇叭":14541,"多雲":14542,"我會":14543,"果粉":14544,"的疫苗":14545,"精采":14546,"雨勢":14547,"震撼":14548,"10名":14549,"3月16日":14550,"輕微咳嗽":14551,"夢想家":14552,"大考中心":14553,"Ad":14554,"不料":14555,"相隔":14556,"訊後":14557,"贏得":14558,"頭的":14559,"ink":14560,"有些人":14561,"競爭力":14562,"地理":14563,"推測":14564,"起陸續":14565,"預告":14566,"如果有":14567,"意味著":14568,"不禁":14569,"巧克":14570,"承受":14571,"攻勢":14572,"更換":14573,"此役":14574,"治安":14575,"贏球":14576,"連鎖":14577,"更多東森":14578,"身分證":14579,"CDC":14580,"事項":14581,"動能":14582,"困境":14583,"於當地":14584,"的影片":14585,"頻率":14586,"上班族":14587,"陳家欽":14588,"1元":14589,"內建":14590,"將以":14591,"的功能":14592,"的聲音":14593,"駭客":14594,"日報報導":14595,"許書桓":14596,"MLB":14597,"元件":14598,"加密":14599,"同團":14600,"監管":14601,"腳步":14602,"響應":14603,"進行接觸者":14604,"所有人":14605,"至醫院就醫":14606,"Tr":14607,"各個":14608,"哈哈":14609,"央行":14610,"干擾":14611,"的孩子":14612,"等地":14613,"TS":14614,"一周":14615,"中方":14616,"佩戴口罩":14617,"全中":14618,"將由":14619,"為台灣":14620,"致死":14621,"驗出":14622,"ond":14623,"70多歲男性":14624,"衛生單位安排就醫":14625,"4月16日":14626,"威廉":14627,"完善":14628,"審理":14629,"捕手":14630,"氣炸":14631,"現況":14632,"與美國":14633,"列為接觸者":14634,"Po":14635,"中油":14636,"法新":14637,"第27":14638,"這張":14639,"）（":14640,"UN":14641,"。▼":14642,"個百分點":14643,"過了":14644,"驅動":14645,"下方":14646,"加拉":14647,"可在":14648,"宣稱":14649,"彷彿":14650,"求助":14651,"洗澡":14652,"的經驗":14653,"相似":14654,"觀點":14655,"這時":14656,"200萬":14657,"服飾":14658,"案50":14659,"氛圍":14660,"縮短":14661,"總監":14662,"今天上午":14663,"99於12月1日出現":14664,"11月28日至":14665,"其餘15人":14666,"其中案699於12月1日出現":14667,"印尼籍20多歲至40多歲入境日介於11月28日至":14668,"於12月1日出現肌肉痠痛":14669,"案701於12月1日出現肌肉痠痛":14670,"其餘15人入境均無症狀":14671,"其中案699於12月1日出現鼻塞":14672,"印尼籍20多歲至40多歲入境日介於11月28日至12月3日":14673,"oy":14674,"公寓":14675,"兼顧":14676,"對流":14677,"獎項":14678,"註明":14679,"！▲":14680,"ies":14681,"名人":14682,"天天":14683,"是誰":14684,"會後":14685,"美的":14686,"今年的":14687,"市場的":14688,"印尼籍30多歲女性":14689,"是一種":14690,"1個月":14691,"全都":14692,"副總統":14693,"日職":14694,"解決方案":14695,"東北":14696,"第12":14697,"讓我們":14698,"台北市長":14699,"聯合聲明":14700,"熱烈討論":14701,"密碼":14702,"手法":14703,"描述":14704,"簽約":14705,"終結":14706,"要注意":14707,"這份":14708,"這對":14709,"2020年12月2":14710,"安全的":14711,"itch":14712,"休旅車":14713,"也希望":14714,"個資":14715,"既然":14716,"時光":14717,"柯瑞":14718,"的研究":14719,"素養":14720,"表面":14721,"都市":14722,"短暫陣雨":14723,"中獎":14724,"位數":14725,"同班":14726,"奶茶":14727,"射手":14728,"收盤":14729,"演講":14730,"至5月":14731,"走路":14732,"馬路":14733,"更多相關新聞":14734,"igi":14735,"不變":14736,"休閒":14737,"反覆":14738,"合一":14739,"在日本":14740,"它們":14741,"少了":14742,"評委":14743,"騰訊":14744,"50多歲":14745,"BBC":14746,"可達":14747,"打席":14748,"深受":14749,"50元":14750,"甚至還":14751,"嘉義縣":14752,"單季":14753,"太過":14754,"真是":14755,"防水":14756,"公務員":14757,"09":14758,"SD":14759,"』，":14760,"公佈":14761,"原物料":14762,"忘了":14763,"智庫":14764,"開學":14765,"ice":14766,"la":14767,"出遊":14768,"寫道":14769,"模糊":14770,"監獄":14771,"罰款":14772,"至菲律賓工作":14773,"部的":14774,"本土個案":14775,"福原愛":14776,"依賴":14777,"修改":14778,"印地":14779,"最愛":14780,"車廂":14781,"發病前":14782,"以利":14783,"宣言":14784,"小三":14785,"底下":14786,"流量":14787,"焦慮":14788,"的效果":14789,"遠離":14790,"黨團":14791,"記者會上":14792,"cm":14793,"偶像":14794,"卻在":14795,"好禮":14796,"好轉":14797,"最危險":14798,"每週":14799,"盟友":14800,"筆記":14801,"讓自己":14802,"環保局":14803,"109年":14804,"圖書館":14805,"並表示":14806,"但她":14807,"姓名":14808,"將他":14809,"心動":14810,"探視":14811,"施壓":14812,"站上":14813,"遺憾":14814,"陳其":14815,"飾演":14816,"疫情監測":14817,"出版社":14818,"一一":14819,"冷氣":14820,"德納":14821,"潛在":14822,"總會":14823,"視察":14824,"說的":14825,"沒有任何":14826,"2020年10月":14827,"RC":14828,"Wi":14829,"主人":14830,"從來":14831,"氣喘":14832,"金牌":14833,"電源":14834,"記者王":14835,"情況下":14836,"日常生活":14837,"勢力":14838,"實用":14839,"旱象":14840,"王子":14841,"報導指出":14842,"緊急事態":14843,"短暫雨":14844,"領航猿":14845,"SE":14846,"大火":14847,"帶給":14848,"式的":14849,"期限":14850,"試場":14851,"買賣":14852,"選秀":14853,"金河":14854,"金管":14855,"今年3月":14856,"經濟成長":14857,"十足":14858,"林子":14859,"的相關":14860,"股份":14861,"處置":14862,"負面":14863,"呼吸道症狀":14864,"巧克力":14865,"印地安":14866,"制定":14867,"國產":14868,"實質":14869,"據悉":14870,"新創":14871,"發聲":14872,"致詞":14873,"買了":14874,"18歲":14875,"旅遊泡泡":14876,"另一半":14877,"陳其邁":14878,"4K":14879,"6名":14880,"talk":14881,"克斯":14882,"全體":14883,"嚇壞":14884,"型的":14885,"感的":14886,"討厭":14887,"確定病例":14888,"一整":14889,"不妨":14890,"位在":14891,"入海":14892,"夜間":14893,"手上":14894,"有民眾":14895,"此戰":14896,"每一":14897,"派遣":14898,"特價":14899,"第六":14900,"考場":14901,"難得":14902,"不行":14903,"與其":14904,"與家人":14905,"首勝":14906,"豐富的":14907,"記者劉彥池攝影":14908,"波疫情":14909,"爺爺":14910,"福建":14911,"第18":14912,"販毒":14913,"通車":14914,"食慾":14915,"＿＿":14916,"入境台灣":14917,"進行自主健康管理":14918,"搭乘同班機":14919,"傳承":14920,"升高":14921,"可透過":14922,"尼亞":14923,"本書":14924,"板橋":14925,"的三":14926,"的安全":14927,"長庚":14928,"騎車":14929,"是否會":14930,"agon":14931,"動機":14932,"的方法":14933,"蔓延":14934,"視角":14935,"陳偉":14936,"驚訝":14937,"供應商":14938,"有肺炎情形":14939,"360":14940,"ex":14941,"引導":14942,"案90":14943,"發佈":14944,"美金":14945,"迎來":14946,"點出":14947,"ance":14948,"4月15日":14949,"但因為":14950,"後就":14951,"後才":14952,"有一名":14953,"東南亞":14954,"選民":14955,"雷達":14956,"更多世界":14957,"國民黨立委":14958,"以為是":14959,"MVP":14960,"候選人":14961,"2個月":14962,"倒數":14963,"堅定":14964,"大專":14965,"大麻":14966,"美女":14967,"落差":14968,"過失":14969,"魅力":14970,"自費採檢確診":14971,"林志誠":14972,"TA":14973,"digi":14974,"◢👉":14975,"從未":14976,"找回":14977,"比亞":14978,"產學":14979,"的過程":14980,"終止":14981,"訴求":14982,"重創":14983,"鐵路":14984,"頒獎":14985,"馬遜":14986,"2014年":14987,"監視器畫面":14988,"更多世界日報報導":14989,"Cur":14990,"乾旱":14991,"洛杉":14992,"淨利":14993,"激勵":14994,"露出":14995,"美國就學":14996,"Pixabay":14997,"且有":14998,"亞馬遜":14999,"友達":15000,"有無":15001,"空服員":15002,"返國入境時":15003,"自印尼來臺工作":15004,"印尼籍20至40多歲女性":15005,"06":15006,"DP":15007,"mash":15008,"上了":15009,"再見":15010,"大人":15011,"我在":15012,"水氣":15013,"當成":15014,"講座":15015,"mashdigi":15016,"噁心":15017,"日後":15018,"漢堡":15019,"HK":15020,"不合":15021,"亮相":15022,"偷渡":15023,"傷亡":15024,"動畫":15025,"受邀":15026,"徵才":15027,"新光":15028,"績效":15029,"震驚":15030,"高血壓":15031,"原文刊登於合作媒體mashdigi":15032,"1月1日":15033,"5折起":15034,"一面":15035,"信託":15036,"大盤":15037,"失蹤":15038,"手感":15039,"打了":15040,"重摔":15041,"隊員":15042,"Snap":15043,"ure":15044,"推文":15045,"減重":15046,"至診所就醫":15047,"過年":15048,"台灣時間":15049,"認為是":15050,"3月30日":15051,"下午2":15052,"url":15053,"何姓":15054,"可怕":15055,"居檢":15056,"庫存":15057,"所在":15058,"蒐集":15059,"更多人":15060,"因應新冠肺炎疫情":15061,"Mini":15062,"實踐":15063,"特地":15064,"要不要":15065,"ick":15066,"洛杉磯":15067,"8月2":15068,"受損":15069,"廢棄":15070,"捍衛":15071,"格式":15072,"漲停":15073,"生存":15074,"笑翻":15075,"轉變":15076,"發展的":15077,"印尼籍20多歲女性":15078,"Con":15079,"分泌":15080,"朝天宮":15081,"100萬":15082,"][":15083,"不該":15084,"或無法":15085,"據點":15086,"查核":15087,"經由":15088,"釋放":15089,"也不是":15090,"後發現":15091,"揭露":15092,"攀升":15093,"求救":15094,"的車":15095,"罰金":15096,"與會":15097,"訴訟":15098,"還是會":15099,"主機":15100,"奈米":15101,"抵台":15102,"普親王":15103,"私立":15104,"莫德納":15105,"豬肉":15106,"連環":15107,"5月4日":15108,"應用程式":15109,"製造業":15110,"Qu":15111,"打氣":15112,"時段":15113,"盡速":15114,"蔡政府":15115,"輩子":15116,"遭受":15117,"類的":15118,"體質":15119,"咳嗽等症狀":15120,"170":15121,"不讓":15122,"保守":15123,"和解":15124,"在當地":15125,"夏天":15126,"大關":15127,"孟加拉":15128,"很少":15129,"情境":15130,"會中":15131,"舉例":15132,"華裔":15133,"跌幅":15134,"通膨":15135,"不會有":15136,"林佳龍":15137,"BO":15138,"不利":15139,"入口":15140,"完畢":15141,"新一代":15142,"日媒":15143,"月薪":15144,"災難":15145,"西門":15146,"駐日":15147,"newtalk":15148,"Ste":15149,"新頭殼newtalk":15150,"一陣":15151,"傍晚":15152,"季節":15153,"巴黎":15154,"百科":15155,"甚至是":15156,"並依":15157,"分子":15158,"多年來":15159,"對中國":15160,"民意":15161,"琳達":15162,"當選":15163,"聲量":15164,"台灣是":15165,"4月9日":15166,"菲律賓籍30多歲男性":15167,"一口氣":15168,"陳偉殷":15169,"LO":15170,"受影響":15171,"孕婦":15172,"撤離":15173,"核四":15174,"火勢":15175,"藝文":15176,"體操":15177,"影響到":15178,"3月24日":15179,"3月29日":15180,"上千":15181,"傾向":15182,"吃緊":15183,"專頁":15184,"很久":15185,"收納":15186,"熱鬧":15187,"獅隊":15188,"的同時":15189,"的主要":15190,"精緻":15191,"與邊境":15192,"華府":15193,"難免":15194,"案1112":15195,"大腦":15196,"漸漸":15197,"生理":15198,"精品":15199,"」，「":15200,"支持者":15201,"最高的":15202,"ames":15203,"關鍵字":15204,"不論是":15205,"智慧型手機":15206,"2月1日":15207,"淇淋":15208,"清華":15209,"必須要":15210,"一審":15211,"休假":15212,"名稱":15213,"收藏":15214,"洽公":15215,"清洗":15216,"獲獎":15217,"羈押":15218,"自美國":15219,"與人":15220,"裁判":15221,"選出":15222,"金牛":15223,"9人":15224,"900":15225,"Dr":15226,"不分":15227,"加班":15228,"專欄":15229,"左投":15230,"急性":15231,"招牌":15232,"腸胃":15233,"30歲":15234,"數據顯示":15235,"Space":15236,"收治住院":15237,"劉德華":15238,"RE":15239,"不上":15240,"生氣":15241,"記者黃":15242,"Net":15243,"俱樂":15244,"公頃":15245,"或其他":15246,"求償":15247,"湧入":15248,"補習":15249,"2021年1月1":15250,"太空站":15251,"電視台":15252,"解除隔離":15253,"aily":15254,"更多東森新聞報導":15255,"3C":15256,"上壘":15257,"則說":15258,"回顧":15259,"姿勢":15260,"巫師":15261,"慘遭":15262,"提名":15263,"是很":15264,"爆廢":15265,"的首":15266,"盈餘":15267,"被迫":15268,"較低":15269,"更多新頭殼":15270,"不錯的":15271,"ETF":15272,"更多新頭殼報導":15273,"流傳":15274,"聰明":15275,"臺北":15276,"個案因":15277,"3月25日":15278,"ower":15279,"杜拜轉機":15280,"行政院長蘇貞昌":15281,"優化":15282,"入場":15283,"實務":15284,"挹注":15285,"水源":15286,"煞車":15287,"碰到":15288,"黃偉哲":15289,"OK":15290,"一帶":15291,"含量":15292,"心跳":15293,"正當":15294,"第8":15295,"給付":15296,"負壓":15297,"沒有人":15298,"金管會":15299,"4大":15300,"Be":15301,"Pr":15302,"傳說":15303,"動員":15304,"張貼":15305,"懶人":15306,"波蘭":15307,"融合":15308,"譯者":15309,"頻頻":15310,"相當於":15311,"國務卿":15312,"中斷":15313,"中興":15314,"二採":15315,"單獨":15316,"性侵":15317,"應使用":15318,"梅琳達":15319,"比率":15320,"熱愛":15321,"的一個":15322,"國際社會":15323,"日月潭":15324,"7萬":15325,"iMac":15326,"出身":15327,"台美":15328,"在這個":15329,"套餐":15330,"玫瑰":15331,"資費":15332,"跌倒":15333,"180":15334,"還有人":15335,"reurl":15336,"前次自台灣":15337,"兩者":15338,"媳婦":15339,"強大":15340,"拿來":15341,"群體":15342,"自稱":15343,"這場比賽":15344,"驚傳":15345,"On":15346,"​（":15347,"也相當":15348,"四個":15349,"夢幻":15350,"條文":15351,"發放":15352,"百人":15353,"的美國":15354,"車內":15355,"降至":15356,"12日入境":15357,"解放軍":15358,"全隊":15359,"季增":15360,"將與":15361,"悲劇":15362,"打卡":15363,"楊姓":15364,"清理":15365,"私下":15366,"舞蹈":15367,"請見":15368,"這也":15369,"其中有":15370,"發言人莊人祥":15371,"前次自臺灣":15372,"CA":15373,"Tw":15374,"」「":15375,"不已":15376,"低調":15377,"出戰":15378,"加快":15379,"受困":15380,"展出":15381,"情感":15382,"會上":15383,"珍惜":15384,"給你":15385,"說要":15386,"北市黨部":15387,"160":15388,"Sw":15389,"主流":15390,"場合":15391,"核准":15392,"為求":15393,"學生的":15394,"3月13日":15395,"務必戴上口罩":15396,"上門":15397,"主力":15398,"效力":15399,"設有":15400,"雙重":15401,"養成":15402,"保護力":15403,"舉辦的":15404,"怎樣":15405,"思維":15406,"校慶":15407,"歌曲":15408,"海底":15409,"的情形":15410,"與先前":15411,"落地":15412,"譴責":15413,"財神":15414,"非裔":15415,"最新的":15416,"old":15417,"迄今無症狀":15418,"疾管署持續":15419,"保持社交距離時":15420,"疫情監測與邊境":15421,"疫情監測與邊境管制措施":15422,"也因為":15423,"保全":15424,"繳納":15425,"跟團":15426,"銷量":15427,"4月23日":15428,"水利署":15429,"嬌生疫苗":15430,"BM":15431,"回溯":15432,"時30分":15433,"期貨":15434,"東奧":15435,"洋將":15436,"牛排":15437,"的畫面":15438,"科目":15439,"術後":15440,"被發現":15441,"的人生":15442,"搭乘大眾運輸或無法":15443,"應使用肥皂勤洗手":15444,"搭乘大眾運輸或無法保持社交距離時":15445,"08":15446,"uc":15447,"一群":15448,"中風":15449,"天后":15450,"好了":15451,"改造":15452,"樂團":15453,"每位":15454,"自述":15455,"處女":15456,"通話":15457,"機場防疫旅館":15458,"人氣排行榜":15459,"ear":15460,"不孕":15461,"不舒服":15462,"收費":15463,"珍貴":15464,"硬碟":15465,"網頁":15466,"職員":15467,"阿公":15468,"阿拉":15469,"確診的":15470,"ong":15471,"4月24日":15472,"ows":15473,"罹難者":15474,"不喜歡":15475,"很重要":15476,"放大":15477,"有肌":15478,"標的":15479,"水瓶":15480,"病床":15481,"美好":15482,"256":15483,"4月17日":15484,"傳播鏈":15485,"6個月":15486,"LA":15487,"嚴防":15488,"恐懼":15489,"時程":15490,"有發燒":15491,"林威":15492,"混合":15493,"獲選":15494,"用心":15495,"。」「":15496,"期滿後":15497,"至其他住所自主健康管理":15498,"8名":15499,"TC":15500,"下架":15501,"對上":15502,"得很":15503,"此案":15504,"臉部":15505,"見證":15506,"EPS":15507,"大流行":15508,"慎重":15509,"收容":15510,"早在":15511,"派員":15512,"穿上":15513,"花東":15514,"今天下午":15515,"ath":15516,"OPPO":15517,"Su":15518,"假期":15519,"周圍":15520,"專用":15521,"有興趣":15522,"治理":15523,"要在":15524,"追平":15525,"送餐":15526,"部會":15527,"都已經":15528,"酒後":15529,"喉嚨痛及":15530,"學期":15531,"強的":15532,"的價格":15533,"豪宅":15534,"轉為":15535,"還得":15536,"高等":15537,"Curry":15538,"供給":15539,"信眾":15540,"加熱":15541,"國的":15542,"戰鬥":15543,"無罪":15544,"轉向":15545,"傷者":15546,"出道":15547,"小客":15548,"法務":15549,"輸出":15550,"邏輯":15551,"集會":15552,"我們會":15553,"長期於":15554,"消防員":15555,"受訪時":15556,"ife":15557,"CNN":15558,"傳聞":15559,"到處":15560,"口角":15561,"大安":15562,"對待":15563,"本案":15564,"的狀態":15565,"的位置":15566,"網上":15567,"頂級":15568,"4月13日":15569,"變異株":15570,"AG":15571,"VO":15572,"巨人":15573,"情侶":15574,"拍到":15575,"田中":15576,"疫苗施打":15577,"合作的":15578,"腹瀉症狀":15579,"dragon":15580,"信徒":15581,"因疫情":15582,"地址":15583,"損害":15584,"火燒":15585,"紅包":15586,"關聯":15587,"ood":15588,"ide":15589,"醫學系":15590,"5成":15591,"場先發":15592,"宛如":15593,"志願":15594,"是我":15595,"甜蜜":15596,"立體":15597,"該如何":15598,"跑到":15599,"運送":15600,"有肌勵":15601,"並與":15602,"前夕":15603,"剛剛":15604,"將其":15605,"往來":15606,"成大":15607,"王美":15608,"珊珊":15609,"畫質":15610,"老虎":15611,"腦部":15612,"遊玩":15613,"新北市長":15614,"製造商":15615,"9點":15616,"Ser":15617,"克里":15618,"強度":15619,"為北部":15620,"論文":15621,"醫藥":15622,"隱形":15623,"ern":15624,"世界衛生組織":15625,"例確診":15626,"加重":15627,"去做":15628,"在印度":15629,"地利":15630,"得獎":15631,"復健":15632,"恐慌":15633,"招募":15634,"普及":15635,"減煤":15636,"火災":15637,"自己在":15638,"多歲至30多歲":15639,"找來":15640,"榮獲":15641,"防制":15642,"領取":15643,"！（":15644,"10天":15645,"ist":15646,"下場":15647,"則為":15648,"合適":15649,"女士":15650,"對他":15651,"德州":15652,"搜救":15653,"比數":15654,"爆怨":15655,"祈福":15656,"親戚":15657,"讓使用者":15658,"贊助":15659,"高國":15660,"高通":15661,"are":15662,"len":15663,"4月10日":15664,"專案小組":15665,"召開記者會":15666,"2022年":15667,"主因":15668,"但由於":15669,"去過":15670,"地院":15671,"失望":15672,"就開始":15673,"憂鬱":15674,"打臉":15675,"肌膚":15676,"院方":15677,"第二次":15678,"領導人":15679,"美聯社":15680,"1局":15681,"lt":15682,"不法":15683,"判定":15684,"應考":15685,"挑釁":15686,"汙染":15687,"演習":15688,"為期":15689,"的消息":15690,"等相關":15691,"美洲":15692,"10億":15693,"採檢陰性":15694,"新聞稿":15695,"社群平台":15696,"中繼":15697,"但我":15698,"商圈":15699,"心血管":15700,"於1月":15701,"海岸":15702,"結石":15703,"前往防疫旅館":15704,"案1153":15705,"生育率":15706,"比爾蓋茲":15707,"Com":15708,"偶爾":15709,"則在":15710,"前方":15711,"場地":15712,"好處":15713,"期許":15714,"樂園":15715,"民航":15716,"關卡":15717,"除非":15718,"陽春":15719,"題材":15720,"餐敘":15721,"家庭群聚":15722,"鋒面通過":15723,"藝術家":15724,"保單":15725,"報考":15726,"大三":15727,"工藝":15728,"幫派":15729,"店內":15730,"擺脫":15731,"案38":15732,"瀏覽":15733,"物流":15734,"莫迪":15735,"難過":15736,"本國籍40多歲男性":15737,"相較於":15738,"予以":15739,"全新的":15740,"創立":15741,"器官":15742,"如下":15743,"層樓":15744,"文創":15745,"清德":15746,"聚餐":15747,"行的":15748,"訂定":15749,"30分鐘":15750,"Snapdragon":15751,"前次自台灣出境時間為":15752,"HD":15753,"、「":15754,"參議員":15755,"復出":15756,"東區":15757,"江宏":15758,"燃燒":15759,"的健康":15760,"融資":15761,"視野":15762,"走出":15763,"那邊":15764,"發生的":15765,"本國籍40多歲女性":15766,"3點":15767,"不便":15768,"偽造":15769,"同校":15770,"存款":15771,"寫作":15772,"扣除":15773,"等問題":15774,"網址":15775,"裁定":15776,"該旅遊團":15777,"顯得":15778,"進行檢疫期滿前採檢並確診":15779,"單日新增":15780,"案607":15781,"俱樂部":15782,"受歡迎":15783,"天蠍":15784,"手指":15785,"第14":15786,"走到":15787,"安全性":15788,"制止":15789,"場面":15790,"授課":15791,"籍男性":15792,"舅舅":15793,"調節":15794,"高檔":15795,"黃色":15796,"黃珊珊":15797,"可能有":15798,"ite":15799,"當時的":15800,"3月18日":15801,"und":15802,"ect":15803,"之子":15804,"二審":15805,"周遭":15806,"活躍":15807,"第24":15808,"贈送":15809,"4月2日":15810,"前往醫院":15811,"滿滿的":15812,"As":15813,"但有":15814,"入手":15815,"會計":15816,"請求":15817,"較去年同期":15818,"隊的":15819,"抗體陽性":15820,"公共場所":15821,"ake":15822,"到5":15823,"多家":15824,"專區":15825,"翻轉":15826,"讓台灣":15827,"起司":15828,"進出":15829,"健康監測":15830,"不去":15831,"信仰":15832,"她表示":15833,"婚後":15834,"彩券":15835,"影視":15836,"所屬":15837,"明日":15838,"永慶":15839,"而來":15840,"賴清德":15841,"進到":15842,"都將":15843,"重的":15844,"溫度計":15845,"Tim":15846,"Ult":15847,"fl":15848,"凸顯":15849,"反擊":15850,"封城":15851,"投信":15852,"氣溫":15853,"汽油":15854,"法說":15855,"緊密":15856,"軍艦":15857,"一名男子":15858,"文化部":15859,"被問到":15860,"He":15861,"介面":15862,"來不及":15863,"審慎":15864,"審議":15865,"核電廠":15866,"的投資":15867,"細菌":15868,"維生素":15869,"胸痛":15870,"走勢":15871,"近況":15872,"確診機師":15873,"Mod":15874,"並進行":15875,"名譽":15876,"會再":15877,"構成":15878,"西區":15879,"讓原PO":15880,"颱風":15881,"更多鏡週刊":15882,"隔離病房":15883,"3月14日":15884,"2月26日":15885,"CPBL":15886,"密切接觸者":15887,"味覺喪失":15888,"更多鏡週刊報導":15889,"my":15890,"各校":15891,"幾個月":15892,"果然":15893,"災害":15894,"螞蟻":15895,"買到":15896,"貼心":15897,"黑幫":15898,"2020年9月":15899,"提醒民眾":15900,"收治住院隔離":15901,"EWS":15902,"克服":15903,"匯率":15904,"壟斷":15905,"張姓":15906,"朱立":15907,"歐美":15908,"第28":15909,"台灣旅行":15910,"採檢結果":15911,"懶人包":15912,"Wind":15913,"也提到":15914,"幹部":15915,"請註明":15916,"配戴":15917,"還是有":15918,"5月5日":15919,"穩定的":15920,"第2季":15921,"中央流行疫情指揮中心指揮官陳時中":15922,"印地安人":15923,"En":15924,"不堪":15925,"女學生":15926,"感嘆":15927,"打到":15928,"捕捉":15929,"明白":15930,"棒球場":15931,"自從":15932,"要去":15933,"鄉民":15934,"預警":15935,"11月11日":15936,"推薦十大":15937,"呼籲民眾":15938,"何姓教練":15939,"4000":15940,"光電":15941,"嚇到":15942,"在台北":15943,"堪稱":15944,"滿壘":15945,"25年":15946,"檢疫期滿前採檢結果為陰性":15947,"Fl":15948,"中學":15949,"刷卡":15950,"常態":15951,"接送":15952,"有錢":15953,"溫馨":15954,"質感":15955,"管理局":15956,"橡皮艇":15957,"也指出":15958,"仍未":15959,"劇烈":15960,"在機場":15961,"攻城":15962,"滿額":15963,"第7":15964,"約為":15965,"過多":15966,"稅後純益":15967,"負壓隔離病房":15968,"OLED":15969,"一系列":15970,"個別":15971,"債券":15972,"劇情":15973,"勢必":15974,"吞下":15975,"形狀":15976,"待釐清":15977,"新制":15978,"比照":15979,"處罰":15980,"香氣":15981,"iPhone12":15982,"韓國瑜":15983,"全中運":15984,"台北市長柯文哲":15985,"朱立倫":15986,"IM":15987,"Sc":15988,"人心":15989,"併發":15990,"座的":15991,"撞死":15992,"產量":15993,"第17":15994,"讓網友":15995,"發燒及":15996,"梅雨季":15997,"如有疑似症狀":15998,"不符":15999,"之所以":16000,"北檢":16001,"南下":16002,"客家":16003,"延遲":16004,"擴充":16005,"理賠":16006,"登板":16007,"讓孩子":16008,"頂尖":16009,"飼養":16010,"不要再":16011,"最新數據":16012,"轉載請註明":16013,"轉載請註明出處":16014,"主導":16015,"代言":16016,"停在":16017,"感恩":16018,"有線":16019,"篩選":16020,"結局":16021,"缺席":16022,"隨便":16023,"高風險":16024,"網路溫度計":16025,"小米11":16026,"也已":16027,"再創":16028,"啤酒":16029,"布魯":16030,"往前":16031,"打工":16032,"環團":16033,"總體":16034,"走了":16035,"跑步":16036,"連署":16037,"重傷":16038,"陣容":16039,"2019年12月":16040,"追蹤報導":16041,"王國材":16042,"El":16043,"大增":16044,"屋主":16045,"按鍵":16046,"此前":16047,"台灣旅行趣":16048,"FB":16049,"GDP":16050,"ml":16051,"上架":16052,"不清楚":16053,"嚇得":16054,"大方":16055,"契約":16056,"市政府":16057,"日表示":16058,"消化":16059,"身穿":16060,"這家":16061,"已經是":16062,"一名女網友":16063,"80元":16064,"全身痠痛":16065,"畢業生":16066,"上去":16067,"備詢":16068,"到現場":16069,"已是":16070,"廣大":16071,"攔截":16072,"約1":16073,"總部":16074,"美式":16075,"行徑":16076,"補貼":16077,"警戒":16078,"警示":16079,"零食":16080,"聯合品牌":16081,"3月15日":16082,"阿里山":16083,"經濟學人":16084,"]「":16085,"uk":16086,"一支":16087,"上映":16088,"丹麥":16089,"也成為":16090,"他就":16091,"勒索":16092,"泡沫":16093,"約會":16094,"開轟":16095,"雙魚":16096,"馬達":16097,"疫情爆發":16098,"第三方":16099,"必要的":16100,"完整的":16101,"後症狀緩解":16102,"Ed":16103,"前面":16104,"拉警報":16105,"文書":16106,"更重要":16107,"更容易":16108,"最美":16109,"查緝":16110,"租金":16111,"等情形":16112,"老年":16113,"觀賞":16114,"超高":16115,"適時":16116,"里程":16117,"雙邊":16118,"電量":16119,"首日":16120,"2024":16121,"相關人員":16122,"因此在":16123,"社區感染":16124,"4月1日":16125,"一早":16126,"乖乖":16127,"勇氣":16128,"減碳":16129,"現狀":16130,"球季":16131,"碩士":16132,"變動":16133,"去年底":16134,"60歲":16135,"200元":16136,"成交量":16137,"PCR":16138,"獲報後":16139,"不定":16140,"出海":16141,"在推特":16142,"大致":16143,"學子":16144,"師傅":16145,"我認為":16146,"拓展":16147,"於2月":16148,"爵士":16149,"犯嫌":16150,"生長":16151,"的公司":16152,"航母":16153,"ee":16154,"另一名":16155,"機上":16156,"滋味":16157,"珊瑚":16158,"登入":16159,"的長":16160,"穿越":16161,"自治":16162,"釣魚":16163,"更多追蹤報導":16164,"11月10日":16165,"境外移入個案":16166,"至美國就學":16167,"8日及29日":16168,"Go":16169,"Taiwan":16170,"pixabay":16171,"一舉":16172,"在野":16173,"奶奶":16174,"將來":16175,"從中":16176,"放心":16177,"桃花":16178,"發作":16179,"陶德":16180,"馬拉":16181,"ork":16182,"喜歡的":16183,"GT":16184,"來得":16185,"回頭":16186,"地上":16187,"娃娃":16188,"有感":16189,"第13":16190,"罰鍰":16191,"調漲":16192,"這次的":16193,"在這裡":16194,"機密":16195,"步道":16196,"潛力":16197,"濃度":16198,"石門":16199,"稱讚":16200,"第16":16201,"若要":16202,"護照":16203,"ley":16204,"4月6日":16205,"越來越多":16206,"封面圖":16207,"3局":16208,"mi":16209,"傳奇":16210,"兆豐":16211,"天秤":16212,"忽略":16213,"曾出現":16214,"案49":16215,"案46":16216,"的結果":16217,"第七":16218,"第23":16219,"角落":16220,"首波":16221,"生活中心":16222,"屏東縣":16223,"One":16224,"pic":16225,"並檢出陽性確診":16226,"中捷":16227,"但其實":16228,"十二":16229,"報復":16230,"天下":16231,"心態":16232,"於檢疫期滿前採檢":16233,"毀損":16234,"熱銷":16235,"的防疫":16236,"要把":16237,"雙手":16238,"雙雙":16239,"電機":16240,"靈活":16241,"記者林":16242,"全球疫情":16243,"公布案607":16244,"國內外":16245,"36例":16246,"這麼多":16247,"入境後至防疫旅館居家檢疫":16248,"不得不":16249,"入境迄今均無症狀":16250,"進行期滿前採檢送驗":16251,"印尼籍20至40多歲女性於11月":16252,"與先前公布案607":16253,"江宏傑":16254,"於檢疫期滿前採檢並檢出陽性確診":16255,"與先前公布案607同班機":16256,"一生":16257,"下次":16258,"外線":16259,"大同":16260,"憲法":16261,"會持續":16262,"激增":16263,"王維":16264,"省水":16265,"至3月":16266,"遲遲":16267,"面前":16268,"傳染病":16269,"Cost":16270,"Wh":16271,"三種":16272,"五年":16273,"但現在":16274,"但如果":16275,"內野":16276,"出差":16277,"勝投":16278,"巨蟹":16279,"核定":16280,"滅證":16281,"漁船":16282,"看得":16283,"，」":16284,"第一階段":16285,"警方表示":16286,"集中檢疫所進行檢疫":16287,"附近的":16288,"創作者":16289,"ock":16290,"交付":16291,"停電":16292,"放入":16293,"第9":16294,"請問":16295,"走進":16296,"足以":16297,"辣椒":16298,"道奇":16299,"還被":16300,"那種":16301,"世界上":16302,"--":16303,"且檢疫期間未與他人接觸":16304,"冰淇淋":16305,"多半":16306,"實境":16307,"的手機":16308,"示範":16309,"簽訂":16310,"販賣":16311,"這回":16312,"部桃":16313,"入境後至集中檢疫所進行檢疫":16314,"在家中":16315,"林威助":16316,"之同住家人":16317,"但目前":16318,"命運":16319,"失聯":16320,"格局":16321,"熱心":16322,"的說":16323,"的食物":16324,"講話":16325,"隧道":16326,"食道":16327,"提出的":16328,"主辦單位":16329,"5個":16330,"下一個":16331,"不高":16332,"碰撞":16333,"機師染疫":16334,"擴大採檢":16335,"宣示":16336,"強生":16337,"得點":16338,"車用":16339,"鑰匙":16340,"首席":16341,"les":16342,"2021年2月":16343,"媽祖遶境":16344,"1月22日":16345,"Joe":16346,"amsung":16347,"新北市長侯友宜":16348,"Xper":16349,"姊妹":16350,"差別":16351,"引爆":16352,"懂得":16353,"我都":16354,"殖利率":16355,"的媽媽":16356,"支持台灣":16357,"案1078":16358,"WHA":16359,"命中率":16360,"不願意":16361,"公會":16362,"拆除":16363,"有機":16364,"有不少":16365,"未改善":16366,"牛棚":16367,"自製":16368,"農曆":16369,"順暢":16370,"民眾黨":16371,"日本的":16372,"本國籍50多歲女性":16373,"真正的":16374,"up":16375,"圖為":16376,"大力":16377,"次長":16378,"的現象":16379,"藥廠":16380,"行列":16381,"10點":16382,"中央氣象局":16383,"雲林縣":16384,"海巡署":16385,"一來":16386,"一句":16387,"又被":16388,"官兵":16389,"就這樣":16390,"為由":16391,"燃煤":16392,"特徵":16393,"現今":16394,"種種":16395,"良好的":16396,"警界":16397,"Red":16398,"SO":16399,"也對":16400,"兌換":16401,"命令":16402,"外洩":16403,"強迫":16404,"性感":16405,"指稱":16406,"揭曉":16407,"期的":16408,"水位":16409,"瓦斯":16410,"的兩":16411,"神明":16412,"肢體":16413,"解讀":16414,"國民黨主席":16415,"Samsung":16416,"aw":16417,"上季":16418,"大於":16419,"奶油":16420,"座談":16421,"投訴":16422,"永和":16423,"羨慕":16424,"脫離":16425,"重回":16426,"網友紛紛":16427,"40歲":16428,"案1136":16429,"後症狀改善":16430,"Xperia":16431,"Ph":16432,"已被":16433,"憤怒":16434,"我很":16435,"手中":16436,"排黑":16437,"提問":16438,"破裂":16439,"笑容":16440,"108年":16441,"4月4日":16442,"警方調查":16443,"原PO在":16444,"便利性":16445,"佳績":16446,"向上":16447,"奧地利":16448,"學家":16449,"寶貝":16450,"投影":16451,"東元":16452,"極端":16453,"海鮮":16454,"瑞典":16455,"看護":16456,"4月11日":16457,"日前在":16458,"領域的":16459,"畢業後":16460,"老實說":16461,"James":16462,"下單":16463,"充足":16464,"先是":16465,"原廠":16466,"哈利":16467,"外包商":16468,"對策":16469,"拉開":16470,"搖頭":16471,"攝護":16472,"會出現":16473,"甜甜":16474,"縮小":16475,"聯幫":16476,"衣物":16477,"西瓜":16478,"西半部":16479,"請假":16480,"隔日":16481,"10萬元":16482,"4月12日":16483,"oro":16484,"研究員":16485,"不適合":16486,"房地產":16487,"攻城獅":16488,"攝護腺":16489,"7成":16490,"入選":16491,"及早":16492,"實的":16493,"工商":16494,"懲處":16495,"晚餐":16496,"為案8":16497,"的老":16498,"號召":16499,"軍隊":16500,"降到":16501,"50歲":16502,"發生一起":16503,"設計師":16504,"任何人":16505,"老闆娘":16506,"中正大學":16507,"SpaceX":16508,"4點":16509,"My":16510,"來臨":16511,"做得":16512,"口腔":16513,"大聲":16514,"好運":16515,"康復":16516,"戴維":16517,"於9月":16518,"晉級":16519,"案99":16520,"波及":16521,"燃料":16522,"神秘":16523,"萬七":16524,"豪華":16525,"高點":16526,"確診後":16527,"4月8日":16528,"一直在":16529,"一般人":16530,"居家隔離期間":16531,"案1102":16532,"Windows":16533,"不像":16534,"奪冠":16535,"掉了":16536,"流動":16537,"涉毒":16538,"滅火":16539,"的中國":16540,"稅局":16541,"第15":16542,"身高":16543,"退役":16544,"麗菜":16545,"11月23日":16546,"100元":16547,"呼吸喘":16548,"一再":16549,"上次":16550,"停留":16551,"分成":16552,"大賽":16553,"好評":16554,"最早":16555,"檸檬":16556,"水分":16557,"看待":16558,"超夯":16559,"順序":16560,"無人機":16561,"SP":16562,"三十":16563,"上台":16564,"交接":16565,"區間":16566,"可用":16567,"因子":16568,"失業":16569,"好事":16570,"市區":16571,"探討":16572,"會將":16573,"煩惱":16574,"男星":16575,"番茄":16576,"的空間":16577,"零件":16578,"；「":16579,"表示自己":16580,"華航諾富特":16581,"CP值":16582,"不安":16583,"不時":16584,"他指出":16585,"口水":16586,"德基":16587,"抵制":16588,"迷你":16589,"影片中":16590,"刑事局":16591,"III":16592,"三月":16593,"各縣市":16594,"在內的":16595,"大爆發":16596,"建構":16597,"待遇":16598,"抱著":16599,"極為":16600,"第25":16601,"買超":16602,"車款":16603,"體力":16604,"20分":16605,"11月13日":16606,"omo":16607,"蔡英文總統":16608,"鼻塞症狀":16609,"自我健康監測":16610,"Ah":16611,"不下去":16612,"之餘":16613,"參觀":16614,"各類":16615,"很可能":16616,"情人":16617,"既有":16618,"校院":16619,"樂趣":16620,"的對象":16621,"皆有":16622,"般的":16623,"邊界":16624,"陽光":16625,"入境臺灣":16626,"未來將":16627,"在臉書上":16628,"每股純益":16629,"列為居家隔離對象":16630,"Costco":16631,"AT":16632,"出示":16633,"商家":16634,"墾丁":16635,"姆斯":16636,"會造成":16637,"未在":16638,"珍珠":16639,"競選":16640,"萬美元":16641,"車頭":16642,"雙城":16643,"104":16644,"10分":16645,"市長鄭文燦":16646,"VA":16647,"box":16648,"cast":16649,"上月":16650,"你要":16651,"冒險":16652,"受理":16653,"品項":16654,"安置":16655,"師資":16656,"政院":16657,"武力":16658,"眼前":16659,"精進":16660,"菲立":16661,"近距離":16662,"長官":16663,"11人":16664,"生活的":16665,"4月3日":16666,"搭乘同一":16667,"產生的":16668,"ROG":16669,"RCEP":16670,"三名":16671,"不應該":16672,"利康":16673,"前一天":16674,"波動":16675,"由醫院":16676,"第29":16677,"籍50多歲男性":16678,"結節":16679,"美容":16680,"聲請":16681,"著手":16682,"親密":16683,"送給":16684,"逼近":16685,"鑽石":16686,"限水":16687,"黃國":16688,"已經在":16689,"注意到":16690,"中部以北":16691,"8成":16692,"上個月":16693,"單車":16694,"小弟":16695,"我嚴防":16696,"截圖":16697,"案12":16698,"歷年":16699,"流浪":16700,"為題":16701,"金山":16702,"疫情升溫":16703,"140":16704,"準備好":16705,"時代的":16706,"ational":16707,"健保卡":16708,"我嚴防新冠肺炎":16709,"一連":16710,"全文":16711,"在他":16712,"沒事":16713,"熱潮":16714,"皇帝":16715,"青睞":16716,"一同返國":16717,"入境後至防疫旅館進行檢疫":16718,"NF":16719,"We":16720,"ain":16721,"例外":16722,"分區":16723,"別再":16724,"在意":16725,"就以":16726,"就沒有":16727,"手臂":16728,"放置":16729,"未料":16730,"的愛":16731,"的選擇":16732,"迎戰":16733,"首長":16734,"已經痊癒":16735,"完全沒有":16736,"社群媒體":16737,"診斷有肺炎情形":16738,"4名個案":16739,"6點":16740,"7為":16741,"8元":16742,"事先":16743,"君璋":16744,"持股":16745,"收集":16746,"每個月":16747,"破千":16748,"組件":16749,"葉君璋":16750,"說出":16751,"谷歌":16752,"跑者":16753,"跟他":16754,"進來":16755,"鑑定":16756,"？」，":16757,"運動影音":16758,"警察局長陳嘉昌":16759,"3月26日":16760,"明顯的":16761,"房務部":16762,"BMW":16763,"搭乘同一班機":16764,"2億":16765,"7名":16766,"Op":16767,"下半":16768,"主投":16769,"也強調":16770,"五大":16771,"來講":16772,"供水":16773,"刷新":16774,"我愛":16775,"播出":16776,"擦撞":16777,"服裝":16778,"混亂":16779,"爾蒙":16780,"膝蓋":16781,"調高":16782,"談話":16783,"ith":16784,"比較好":16785,"real":16786,"qu":16787,"人選":16788,"代價":16789,"依規定":16790,"傳達":16791,"南港":16792,"大道":16793,"寫著":16794,"工資":16795,"強大的":16796,"心力":16797,"手的":16798,"最為":16799,"的3":16800,"第20":16801,"航行":16802,"阿姨":16803,"衛生部":16804,"2確診":16805,"7歲":16806,"DNA":16807,"中小":16808,"從去年":16809,"林女":16810,"案37":16811,"用了":16812,"秉持":16813,"肺癌":16814,"與案5":16815,"衝撞":16816,"超廣角":16817,"趙婷":16818,"遊覽":16819,"邁入":16820,"覺得很":16821,"方面的":16822,"精彩運動影音":16823,"印尼籍20至40多歲女性於11月12日入境":16824,"搭乘同一班機來臺工作":16825,"上旬":16826,"任內":16827,"像素":16828,"公噸":16829,"大氣":16830,"拉斯":16831,"書店":16832,"標籤":16833,"派系":16834,"總數":16835,"老舊":16836,"草莓":16837,"被敲":16838,"還需要":16839,"為了讓":16840,"觸控的":16841,"News":16842,"by":16843,"一共":16844,"且未與他人接觸":16845,"個股":16846,"國稅局":16847,"增添":16848,"市議員":16849,"戰術":16850,"無緣":16851,"轉播":16852,"鄭麗":16853,"雷雨":16854,"目前在":16855,"6成":16856,"侵犯":16857,"大膽":16858,"怡翔":16859,"政權":16860,"案情":16861,"每周":16862,"無安打":16863,"產檢":16864,"瘋傳":16865,"華爾":16866,"號的":16867,"觀測":16868,"跳舞":16869,"週五":16870,"難怪":16871,"資料庫":16872,"資料來源":16873,"Har":16874,"ny":16875,"不確定":16876,"也無法":16877,"各方":16878,"大大":16879,"媒合":16880,"掃描":16881,"放下":16882,"早盤":16883,"酒測":16884,"釣出":16885,"難題":16886,"接受檢疫期滿前採檢確診":16887,"醫師表示":16888,"流鼻水等症狀":16889,"王維中":16890,"ment":16891,"人人":16892,"國王":16893,"小編":16894,"帶走":16895,"廟宇":16896,"復興":16897,"抗旱":16898,"接收":16899,"監察":16900,"祈求":16901,"芒果":16902,"覆蓋":16903,"龐大":16904,"12系列":16905,"目前已經":16906,"研究院":16907,"本國籍30多歲女性":16908,"北投分局":16909,"三個月":16910,"公升":16911,"報酬":16912,"尼克":16913,"後悔":16914,"推升":16915,"活力":16916,"的使用":16917,"節奏":16918,"綠營":16919,"至集中檢疫所檢疫":16920,"諸多":16921,"車廠":16922,"都不會":16923,"量產":16924,"台灣海峽":16925,"感染風險":16926,"粉絲專頁":16927,"血清抗體陽性":16928,"公務人員":16929,"房屋稅":16930,"評委召集人":16931,"緊急事態宣言":16932,"三人":16933,"乳癌":16934,"原po":16935,"囂張":16936,"多款":16937,"審核":16938,"小吃":16939,"崛起":16940,"換上":16941,"的經濟":16942,"股權":16943,"請辭":16944,"量的":16945,"其他地區":16946,"For":16947,"下台":16948,"來做":16949,"大腸":16950,"安慰":16951,"手搖":16952,"指引":16953,"書籍":16954,"會以":16955,"東海":16956,"率為":16957,"百度":16958,"萬名":16959,"10分鐘":16960,"希望透過":16961,"個人申請":16962,"解決問題":16963,"加油站":16964,"均有適當防護":16965,"Zen":16966,"你是":16967,"外面":16968,"建商":16969,"日益":16970,"模型":16971,"著重":16972,"這間":16973,"：「(":16974,"6月2":16975,"──":16976,"上看":16977,"不怕":16978,"伺服":16979,"兼具":16980,"判處":16981,"各有":16982,"天數":16983,"實作":16984,"最有":16985,"的速度":16986,"禁令":16987,"默默":16988,"10月29日":16989,"CNEWS":16990,"則以":16991,"壽司":16992,"學金":16993,"安定":16994,"志偉":16995,"抓到":16996,"按讚":16997,"深化":16998,"清明":16999,"王室":17000,"王男":17001,"用藥":17002,"超標":17003,"重心":17004,"確診人數":17005,"系統的":17006,"二次":17007,"圖像":17008,"年薪":17009,"建造":17010,"謝金河":17011,"）」":17012,"，(":17013,"60多歲":17014,"前往美國":17015,"顯示器":17016,"2月22日":17017,"駐日代表":17018,"2小時":17019,"侵害":17020,"劇場":17021,"多加":17022,"大礙":17023,"天母":17024,"子彈":17025,"完封":17026,"少子":17027,"水平":17028,"獲准":17029,"當晚":17030,"的精神":17031,"缺貨":17032,"趁著":17033,"金塊":17034,"關稅":17035,"上任後":17036,"上榜":17037,"任職":17038,"先行":17039,"在哪":17040,"屍體":17041,"民視":17042,"獨行":17043,"第26":17044,"聲響":17045,"雞肉":17046,"其他國家":17047,"說明會":17048,"演藝圈":17049,"馬斯克":17050,"華爾街":17051,"享用":17052,"你可以":17053,"可愛的":17054,"回升":17055,"客場":17056,"就知道":17057,"打球":17058,"查證":17059,"火葬":17060,"留學":17061,"西南":17062,"都已":17063,"雷射":17064,"運動員":17065,"受到影響":17066,"TE":17067,"假的":17068,"兩款":17069,"化妝":17070,"女方":17071,"對我":17072,"就診":17073,"樂福":17074,"檢警":17075,"沒什麼":17076,"浴室":17077,"淡水":17078,"玉米":17079,"療法":17080,"較多":17081,"輕易":17082,"那是":17083,"陽台":17084,"110學年度":17085,"一塊":17086,"主嫌":17087,"兩地":17088,"台語":17089,"圖擷":17090,"姓女子":17091,"對焦":17092,"對著":17093,"底前":17094,"徵文":17095,"撤軍":17096,"撤銷":17097,"救治":17098,"教士":17099,"文忠":17100,"機的":17101,"牙醫":17102,"直擊":17103,"簡直":17104,"繁殖":17105,"霸氣":17106,"接種後":17107,"入境後即":17108,"產品的":17109,"航空器":17110,"利潤":17111,"啦啦":17112,"地面":17113,"孫子":17114,"巨蛋":17115,"神奇":17116,"節省":17117,"誤會":17118,"跑道":17119,"今年2月":17120,"服務的":17121,"資料顯示":17122,"原本的":17123,"3月23日":17124,"民航局":17125,"HBL":17126,"不穩定":17127,"好消息":17128,"想說":17129,"有更多":17130,"次日":17131,"網購":17132,"老鼠":17133,"這件":17134,"隨身":17135,"革命":17136,"正確的":17137,"ogoro":17138,"br":17139,"停水":17140,"外部":17141,"校系":17142,"櫃檯":17143,"的角色":17144,"缺點":17145,"肺部":17146,"落網":17147,"觸身":17148,"貴人":17149,"錄音":17150,"開玩笑":17151,"進行採檢確診":17152,"健康的":17153,"4局":17154,"kg":17155,"。★":17156,"不捨":17157,"人壽":17158,"傳言":17159,"再增":17160,"周末":17161,"已採檢":17162,"港口":17163,"炸雞":17164,"短時間":17165,"稅額":17166,"職涯":17167,"萬劑":17168,"被視為":17169,"較少":17170,"較去年":17171,"餵食":17172,"10元":17173,"相關單位":17174,"後送就醫":17175,"Twitter":17176,"Gogoro":17177,"到達":17178,"外電":17179,"客服":17180,"將從":17181,"已達":17182,"後果":17183,"搭機前3日內":17184,"於10月":17185,"有1":17186,"的合作":17187,"私校":17188,"約2":17189,"群眾":17190,"至法國":17191,"致命":17192,"艦艇":17193,"荷包":17194,"跟你":17195,"跨國":17196,"輻射":17197,"2020年12":17198,"上一軍":17199,"失智症":17200,"解析度":17201,"血清抗體IgM陰性":17202,"在臺期間並無症狀":17203,"伺服器":17204,"5億":17205,"FO":17206,"上半":17207,"分布":17208,"化解":17209,"善用":17210,"幹嘛":17211,"想起":17212,"所學校":17213,"新娘":17214,"比對":17215,"病逝":17216,"的症狀":17217,"的iPhone":17218,"的兒子":17219,"督導":17220,"福斯":17221,"輪胎":17222,"辦事":17223,"111":17224,"工作者":17225,"國防部長":17226,"執政黨":17227,"Q1":17228,"中研院":17229,"也提醒":17230,"佈局":17231,"及接觸史":17232,"吃了":17233,"在國際":17234,"夏季":17235,"指責":17236,"服役":17237,"為陽性":17238,"職人":17239,"預報":17240,"台北市議員":17241,"移送法辦":17242,"不限":17243,"你會":17244,"天王":17245,"心聲":17246,"忙碌":17247,"情事":17248,"操控":17249,"早日":17250,"次的":17251,"產後":17252,"眼神":17253,"腸道":17254,"見狀":17255,"超跑":17256,"頭皮":17257,"題型":17258,"119":17259,"130":17260,"中鋼":17261,"子公司":17262,"宇宙":17263,"新任":17264,"綠能":17265,"芝麻":17266,"貼近":17267,"113":17268,"ans":17269,"過去的":17270,"本土感染":17271,"致力於":17272,"MS":17273,"不完":17274,"包包":17275,"半小時":17276,"巴克":17277,"幕後":17278,"抱歉":17279,"方位":17280,"特點":17281,"的網友":17282,"皇家":17283,"種植":17284,"自拍":17285,"至英國就學":17286,"要點":17287,"週四":17288,"美國人":17289,"台北國際":17290,"6分":17291,"並採檢":17292,"份子":17293,"性質":17294,"景觀":17295,"環球":17296,"的你":17297,"結論":17298,"賣壓":17299,"那就是":17300,"els":17301,"交通部長":17302,"自動駕駛":17303,"原來是":17304,"年齡介於":17305,"Sch":17306,"一杯":17307,"分流":17308,"到醫院":17309,"則貼文":17310,"只需":17311,"單月":17312,"客運":17313,"局表示":17314,"日在":17315,"流感":17316,"減緩":17317,"的力量":17318,"石頭":17319,"約談":17320,"繼承":17321,"老饕":17322,"聽見":17323,"起跳":17324,"跌破":17325,"遇上":17326,"關係的":17327,"注意的是":17328,"失去嗅覺":17329,"六都":17330,"善意":17331,"密集":17332,"是對":17333,"樓梯":17334,"毆打":17335,"每一個":17336,"沙發":17337,"無數":17338,"第22":17339,"能見":17340,"賣超":17341,"轄區":17342,"連帶":17343,"遊樂":17344,"高端":17345,"龍蝦":17346,"個案曾於":17347,"1500":17348,"以來的":17349,"6000":17350,"Dav":17351,"Mag":17352,"ug":17353,"不等":17354,"參訪":17355,"大哥":17356,"慈善":17357,"的技術":17358,"的過程中":17359,"稱的":17360,"印尼籍30多歲男性":17361,"9時":17362,"NIKE":17363,"一併":17364,"也不能":17365,"但若":17366,"八卦":17367,"剩下":17368,"咖哩":17369,"專長":17370,"小小":17371,"就怕":17372,"屋內":17373,"強力":17374,"暴露":17375,"清大":17376,"管控":17377,"縮減":17378,"船隻":17379,"處所":17380,"被警方":17381,"辜仲":17382,"鑾轎":17383,"台北地檢署":17384,"他們在":17385,"桃園市長鄭文燦":17386,"太陽能":17387,"南投縣":17388,"味覺及":17389,"飲酒過量":17390,"外電報導":17391,"不需":17392,"交手":17393,"先後":17394,"共軍":17395,"別人的":17396,"固醇":17397,"壓迫":17398,"已完成":17399,"攔檢":17400,"暑假":17401,"滾地球":17402,"滿月":17403,"男孩":17404,"病史":17405,"等罪":17406,"紅襪":17407,"因為疫情":17408,"國民黨團":17409,"住院治療":17410,"ivo":17411,"Mark":17412,"辜仲諒":17413,"mAh":17414,"上半場":17415,"也特別":17416,"個國家":17417,"光學":17418,"切換":17419,"升學":17420,"四處":17421,"局面":17422,"房客":17423,"於菲律賓":17424,"暗示":17425,"核稿":17426,"案45":17427,"海南":17428,"激動":17429,"甄選":17430,"疲勞":17431,"的作品":17432,"耳朵":17433,"腳踏":17434,"與另":17435,"號稱":17436,"買的":17437,"開刀":17438,"美國政府":17439,"出現了":17440,"個案12月":17441,"持續延燒":17442,"印尼工作":17443,"出國日2019":17444,"曾有症狀":17445,"或者是":17446,"由機場檢疫人員安排採檢後送至集中檢疫所隔離":17447,"已經痊癒出院":17448,"RA":17449,"供稱":17450,"將成為":17451,"從此":17452,"必備":17453,"朝鮮":17454,"滲透":17455,"王牌":17456,"的基礎":17457,"神器":17458,"製品":17459,"飆升":17460,"個案檢疫期滿後":17461,"萬元的":17462,"同班機前":17463,"1小時":17464,"2位":17465,"低溫":17466,"函送":17467,"卻沒有":17468,"增設":17469,"好物":17470,"張男":17471,"月亮":17472,"潛水":17473,"療癒":17474,"？「":17475,"3月28日":17476,"在臉書發文":17477,"詐騙集團":17478,"清華大學":17479,"請見諒":17480,"ron":17481,"他命":17482,"到5月":17483,"參議院":17484,"器材":17485,"市集":17486,"感測":17487,"清單":17488,"的壓力":17489,"自撞":17490,"蔬果":17491,"詭異":17492,"較大":17493,"附上":17494,"持續擴大":17495,"3月10日":17496,"陳時中說":17497,"文章轉載請註明出處":17498,"免疫力":17499,"Plus":17500,"觸身球":17501,"一方面":17502,"亮度":17503,"南京":17504,"卻發現":17505,"心靈":17506,"我有":17507,"更要":17508,"期刊":17509,"求學":17510,"津貼":17511,"清除":17512,"游擊":17513,"田壘":17514,"茶葉":17515,"萬畫素":17516,"詮釋":17517,"說道":17518,"讓媽媽":17519,"買一":17520,"點數":17521,"台北清真寺":17522,"員工確診":17523,"3月22日":17524,"Mc":17525,"之路":17526,"兩個月":17527,"專機":17528,"就不會":17529,"年初":17530,"想不到":17531,"拍板":17532,"更大的":17533,"水餃":17534,"法令":17535,"潘文忠":17536,"蘆洲":17537,"該國":17538,"翻攝自Pixabay":17539,"iden":17540,"打造的":17541,"長照機構":17542,"No":17543,"一家人":17544,"劈腿":17545,"喪命":17546,"天文":17547,"天量":17548,"女大生":17549,"店的":17550,"注重":17551,"溫泉":17552,"館長":17553,"2023":17554,"更多生活":17555,"4日來臺工作":17556,"案530":17557,"政治人物":17558,"來台就學":17559,"出現發燒及":17560,"股份有限公司":17561,"5分鐘":17562,"一把":17563,"串流":17564,"也為":17565,"兩周":17566,"區塊":17567,"命題":17568,"投顧":17569,"有3":17570,"萊豬":17571,"追究":17572,"都需要":17573,"開跑":17574,"去年12月":17575,"真的有":17576,"外交部長":17577,"東京都":17578,"王美花":17579,"二度":17580,"傑出":17581,"卻不":17582,"在網路":17583,"客製":17584,"密度":17585,"或0800":17586,"提起":17587,"擅長":17588,"於19":17589,"版的":17590,"的歷史":17591,"線條":17592,"花錢":17593,"陳建":17594,"預訂":17595,"19疫苗":17596,"更多社會":17597,"2020年7月":17598,"小客車":17599,"獨行俠":17600,"更多生活相關新聞":17601,"2樓":17602,"facebook":17603,"作出":17604,"家樂福":17605,"是非常":17606,"烘焙":17607,"的醫療":17608,"第45":17609,"而出":17610,"調度":17611,"途徑":17612,"陳男":17613,"願景":17614,"馬英":17615,"高麗菜":17616,"出現頭痛":17617,"ert":17618,"因此無匡列接觸者":17619,"不僅是":17620,"廣播電":17621,"SU":17622,"上車":17623,"但未":17624,"告別":17625,"學科":17626,"已將":17627,"張志":17628,"強硬":17629,"歡慶":17630,"深耕":17631,"準確":17632,"牠們":17633,"裡頭":17634,"靈魂":17635,"類別":17636,"生活中":17637,"案1090":17638,"北部地區":17639,"數位轉型":17640,"馬英九":17641,"Pa":17642,"de":17643,"之星":17644,"吐司":17645,"拍片":17646,"新德里":17647,"的努力":17648,"胎兒":17649,"都可":17650,"點擊":17651,"集中在":17652,"168":17653,"1922專線":17654,"初步掌握":17655,"能見度":17656,"Fed":17657,"Xbox":17658,"其它":17659,"擴增":17660,"敲安":17661,"歲女童":17662,"的要求":17663,"的母親":17664,"的行動":17665,"色的":17666,"該怎麼":17667,"疫情嚴峻":17668,"2月28日":17669,"2021年3月5日":17670,"ource":17671,"補習班":17672,"為求慎重":17673,"4成":17674,"VS":17675,"乾脆":17676,"台日":17677,"吵架":17678,"四年":17679,"心疼":17680,"性格":17681,"應試":17682,"新建":17683,"水資源":17684,"流出":17685,"的動作":17686,"目的是":17687,"給了":17688,"自衛":17689,"防堵":17690,"靈感":17691,"體積":17692,"anc":17693,"許多民眾":17694,"調查結果":17695,"3月5日":17696,"機師確診":17697,"4天":17698,"一提":17699,"不下":17700,"公衛":17701,"吃完":17702,"外的":17703,"微信":17704,"我不":17705,"更快":17706,"極限":17707,"海報":17708,"爭執":17709,"獅子座":17710,"紓困":17711,"線的":17712,"耐心":17713,"育兒":17714,"超音":17715,"開門":17716,"體制":17717,"甚至有":17718,"照片中":17719,"冠軍賽":17720,"路透社":17721,"Podcast":17722,"Mus":17723,"人際":17724,"她是":17725,"往上":17726,"往年":17727,"球衣":17728,"的家人":17729,"的重點":17730,"示警":17731,"腹痛":17732,"葬禮":17733,"被稱為":17734,"親人":17735,"風潮":17736,"接受檢疫期滿前採檢並確診":17737,"不少民眾":17738,"內政部長":17739,"進行接觸者採檢":17740,"記者王怡翔":17741,"Ben":17742,"Mich":17743,"yout":17744,"外科":17745,"大喊":17746,"搶購":17747,"時任":17748,"流失":17749,"源頭":17750,"無效":17751,"熱點":17752,"猶豫":17753,"種子":17754,"要讓":17755,"起駕":17756,"長年":17757,"來臺就學":17758,"這段時間":17759,"續航力":17760,"遊覽車":17761,"Dis":17762,"Gre":17763,"Par":17764,"hi":17765,"之地":17766,"嚴謹":17767,"大腿":17768,"拜託":17769,"提議":17770,"改寫":17771,"模特":17772,"的數據":17773,"羅一":17774,"考選":17775,"邁向":17776,"都相當":17777,"10時":17778,"2021年1月1日":17779,"咳嗽及":17780,"增加了":17781,"宣告不治":17782,"供電":17783,"偏高":17784,"北約":17785,"多月":17786,"大門":17787,"將可":17788,"放射":17789,"的遊戲":17790,"穩健":17791,"能不能":17792,"自責":17793,"萬一":17794,"買氣":17795,"這不是":17796,"避開":17797,"陳女":17798,"問題的":17799,"3月12日":17800,"綜合外電報導":17801,"仇恨犯罪":17802,"realme":17803,"更多社會相關新聞":17804,"2度":17805,"9成":17806,"Sm":17807,"Uber":17808,"交由":17809,"人次":17810,"依序":17811,"分隊":17812,"刑法":17813,"前年":17814,"在2021年":17815,"子賢":17816,"射擊":17817,"抽獎":17818,"生病":17819,"第30":17820,"美景":17821,"購入":17822,"90元":17823,"ube":17824,"為主題":17825,"事務所":17826,"內行人":17827,"例行賽":17828,"少子化":17829,"Bal":17830,"之聲":17831,"內幕":17832,"包裹":17833,"士尼":17834,"外海":17835,"書中":17836,"會面":17837,"滑手機":17838,"潮流":17839,"登陸":17840,"的國際":17841,"的男子":17842,"真心":17843,"移植":17844,"簡訊":17845,"給她":17846,"聆聽":17847,"脖子":17848,"自來":17849,"起飛":17850,"預售":17851,"飛球":17852,"飲品":17853,"高分":17854,"時間點":17855,"2020年8月":17856,"安全帽":17857,"就有網友":17858,"足夠的":17859,"氧化碳":17860,"防疫旅宿進行居家檢疫":17861,"7點":17862,"MP":17863,"Ne":17864,"不吃":17865,"來回":17866,"做什麼":17867,"兆美元":17868,"北美":17869,"地板":17870,"塞爾":17871,"宮廟":17872,"案的":17873,"熱絡":17874,"當你":17875,"經檢驗":17876,"而這":17877,"複製":17878,"開口":17879,"首批":17880,"101":17881,"11月25日":17882,"教練團":17883,"Ct值34":17884,"黑衣人闖入":17885,"共產":17886,"劑量":17887,"加以":17888,"地的":17889,"守住":17890,"總額":17891,"肆虐":17892,"荳荳":17893,"通行":17894,"離島":17895,"目前為止":17896,"活動的":17897,"PO出":17898,"ats":17899,"桃園機場":17900,"3月2日":17901,"根本是":17902,"意識到":17903,"連環爆":17904,"Gr":17905,"所致":17906,"散熱":17907,"旅程":17908,"自認":17909,"被人":17910,"課題":17911,"遺產":17912,"陳明":17913,"魔術":17914,"點心":17915,"2013年":17916,"發現有":17917,"檢疫所集中檢疫":17918,"研究團隊":17919,"鄭麗文":17920,"評委召集人趙映光":17921,"AC":17922,"也開始":17923,"他強調":17924,"加大":17925,"就很":17926,"得主":17927,"振興":17928,"是全球":17929,"法庭":17930,"畏寒":17931,"育仁":17932,"致敬":17933,"舒緩":17934,"萬安":17935,"迪士尼":17936,"送出":17937,"駁回":17938,"鬆懈":17939,"2011年":17940,"因為他":17941,"孩子們":17942,"YouTuber":17943,"執勤至美國":17944,"因症狀持續":17945,"知情人士":17946,"Bar":17947,"並針對":17948,"保住":17949,"前所長":17950,"國營":17951,"廣達":17952,"快艇":17953,"擴展":17954,"是從":17955,"無辜":17956,"落跑":17957,"闖紅燈":17958,"首選":17959,"鮭魚":17960,"更多新聞":17961,"女性移工":17962,"一起來":17963,"icro":17964,"12月9日":17965,"染疫機師":17966,"紐約市":17967,"羅一鈞":17968,"UR":17969,"並由":17970,"也未":17971,"加持":17972,"務局":17973,"卻又":17974,"四海":17975,"大立":17976,"就說":17977,"就像是":17978,"市占":17979,"測量":17980,"睽違":17981,"粉紅":17982,"變更":17983,"香蕉":17984,"可能在":17985,"我們在":17986,"12月2日":17987,"出現喉嚨癢":17988,"外媒報導":17989,"切除":17990,"則可":17991,"台獨":17992,"吳釗":17993,"喬治":17994,"抵抗":17995,"持刀":17996,"掉落":17997,"掌控":17998,"政變":17999,"暴動":18000,"最初":18001,"溫柔":18002,"火車站":18003,"的想法":18004,"開展":18005,"黃子":18006,"網友紛紛留言":18007,"返台後":18008,"苗栗縣":18009,"身心障礙":18010,"嗅味覺異常症狀":18011,"於美國工作":18012,"併發症":18013,"菲立普親王":18014,"吳釗燮":18015,"Phone":18016,"Qoo":18017,"交保":18018,"偷偷":18019,"因發燒":18020,"學位":18021,"快閃":18022,"歐元":18023,"納瓦":18024,"義警":18025,"能有":18026,"重挫":18027,"陸軍":18028,"零組件":18029,"疫情期間":18030,"死亡率":18031,"一直是":18032,"預計在":18033,"現代人":18034,"菲律賓籍20多歲女性移工":18035,"起陸續出現咳嗽":18036,"不出來":18037,"交大":18038,"付款":18039,"制服":18040,"吸睛":18041,"在過去":18042,"士頓":18043,"妥善":18044,"帛琉":18045,"毫不":18046,"的服務":18047,"的患者":18048,"終身":18049,"趨緩":18050,"發生了":18051,"英國變異株":18052,"作業系統":18053,"台北國際書展":18054,"1萬元":18055,"MC":18056,"Man":18057,"不實":18058,"出租":18059,"加薪":18060,"區公所":18061,"又要":18062,"商場":18063,"學員":18064,"巴馬":18065,"最重":18066,"由校方":18067,"的概念":18068,"福特":18069,"週六":18070,"遭移除":18071,"隔壁":18072,"出現症狀":18073,"ens":18074,"地方法院":18075,"攝影師":18076,"新竹縣":18077,"實在太":18078,"人力銀行":18079,"北港朝天宮":18080,"麥克風":18081,"2大":18082,"不被":18083,"但要":18084,"倒地":18085,"分開":18086,"原定":18087,"呼應":18088,"在2019年":18089,"抖音":18090,"改編":18091,"田徑":18092,"發光":18093,"的可能":18094,"短線":18095,"老化":18096,"蔣萬安":18097,"超大":18098,"躺在":18099,"遺失":18100,"隨意":18101,"更多國際":18102,"翻攝自台灣旅行趣":18103,"國內累計":18104,"最多的":18105,"2021年1月5日":18106,"ull":18107,"洗衣機":18108,"Me":18109,"中止":18110,"之旅":18111,"也紛紛":18112,"分的":18113,"命理":18114,"外表":18115,"折疊":18116,"搶1":18117,"撞到":18118,"日上午":18119,"暴增":18120,"有不適症狀":18121,"有必要":18122,"朝野":18123,"查出":18124,"槍枝":18125,"男網友":18126,"的決定":18127,"皆持有登機前3日內核酸檢驗陰性報告":18128,"直指":18129,"育嬰":18130,"說到":18131,"）「":18132,"確診數":18133,"出現流鼻水":18134,"安排採檢":18135,"嗅覺異常症狀":18136,"美術館":18137,"遼寧號":18138,"Online":18139,"Ultra":18140,"1點":18141,"份量":18142,"到貨":18143,"寬鬆":18144,"巴基":18145,"後者":18146,"探病":18147,"教訓":18148,"替補":18149,"最具":18150,"月球":18151,"有名":18152,"狀腺":18153,"界的":18154,"直覺":18155,"空姐":18156,"細緻":18157,"首場":18158,"早餐店":18159,"更多新聞推薦":18160,"Fr":18161,"一座":18162,"不一定":18163,"主治":18164,"他會":18165,"兩度":18166,"就曾":18167,"幫你":18168,"比去年":18169,"牙齒":18170,"玉山":18171,"理工":18172,"算法":18173,"腹部":18174,"與案8":18175,"遺傳":18176,"金正":18177,"鳥類":18178,"30通報":18179,"出國日1":18180,"出國日3":18181,"案586":18182,"原因是":18183,"案61":18184,"交易量":18185,"10月28日及29日":18186,"76人":18187,"自印尼搭機":18188,"出國日期為1":18189,"flix":18190,"Qooah":18191,"5至":18192,"900元":18193,"ib":18194,"不振":18195,"促銷":18196,"兆元":18197,"募款":18198,"多處":18199,"大跌":18200,"奪下":18201,"最長":18202,"槍手":18203,"正好":18204,"氣得":18205,"氣體":18206,"水的":18207,"生殖":18208,"甲狀腺":18209,"發明":18210,"評審":18211,"請大家":18212,"證照":18213,"跨越":18214,"逃離":18215,"這幾":18216,"遊艇":18217,"顏敏":18218,"黃立":18219,"今天的":18220,"第二波":18221,"igh":18222,"百分之":18223,"出貨量":18224,"加密貨幣":18225,"Netflix":18226,"前次自臺灣出境時間為":18227,"大三元":18228,"火葬場":18229,"Biden":18230,"也非常":18231,"優點":18232,"均衡":18233,"市面上":18234,"教導":18235,"智傑":18236,"月租":18237,"油價":18238,"舉重":18239,"這部":18240,"配色":18241,"頁面":18242,"相關報導":18243,"希望大家":18244,"手機的":18245,"合作夥伴":18246,"一樣的":18247,"正常的":18248,"所得稅":18249,"天然氣":18250,"匯流新聞網報導":18251,"CEO":18252,"法務部":18253,"巴基斯坦":18254,"2公社":18255,"EL":18256,"momo":18257,"不順":18258,"則認為":18259,"劇中":18260,"南區":18261,"多年的":18262,"康橋":18263,"很好的":18264,"文中":18265,"日式":18266,"日方":18267,"理性":18268,"看不到":18269,"笑稱":18270,"警力":18271,"逐年":18272,"錢包":18273,"提供了":18274,"健康狀況":18275,"這些人":18276,"產業的":18277,"最新版":18278,"回應了":18279,"考試院":18280,"廢棄物":18281,"Core":18282,"IT":18283,"Tok":18284,"保拉":18285,"再添":18286,"冷靜":18287,"前一":18288,"副市長":18289,"包圍":18290,"只想":18291,"女主角":18292,"庫克":18293,"急促":18294,"手續":18295,"正向":18296,"武裝":18297,"界線":18298,"筆錄":18299,"週末":18300,"露營":18301,"：《":18302,"10大":18303,"衛生紙":18304,"無法接受":18305,"死亡個案":18306,"皆為陽性":18307,"》。":18308,"他還":18309,"備戰":18310,"劇本":18311,"名列":18312,"嚇傻":18313,"外帶":18314,"起床":18315,"工作室":18316,"可以透過":18317,"中心主任":18318,"這樣做":18319,"4月初":18320,"Ct值33":18321,"不良事件":18322,"一人一":18323,"房務主管":18324,"動保處":18325,"金牛座":18326,"Home":18327,"一輩子":18328,"何孟":18329,"促使":18330,"即刻":18331,"及血清抗體":18332,"可行":18333,"嚴正":18334,"因預計":18335,"壽命":18336,"快充":18337,"手環":18338,"拿起":18339,"接軌":18340,"民俗":18341,"演練":18342,"為你":18343,"病友":18344,"的方向":18345,"移轉":18346,"管處":18347,"經杜拜轉機":18348,"賣出":18349,"軍機":18350,"進軍":18351,"陣子":18352,"）；":18353,"其中包括":18354,"ign":18355,"陽春砲":18356,"2出局":18357,"Ver":18358,"ial":18359,"pr":18360,"全市":18361,"北上":18362,"匿名":18363,"多頭":18364,"復發":18365,"惡性":18366,"文在":18367,"有別":18368,"民宿":18369,"為自己":18370,"社工":18371,"羯座":18372,"臨檢":18373,"襲擊":18374,"視力":18375,"追問":18376,"首創":18377,"報告指出":18378,"衛生福利":18379,"其他網友":18380,"現在是":18381,"社會大眾":18382,"開發者":18383,"群聚事件":18384,"至醫院自費採檢後確診":18385,"3人確診":18386,"南部地區":18387,"簡單的":18388,"開幕戰":18389,"PDT":18390,"爆怨2公社":18391,"2元":18392,"IV":18393,"二代":18394,"作答":18395,"勤務":18396,"噪音":18397,"巴巴":18398,"數百":18399,"的政策":18400,"的責任":18401,"盤點":18402,"目光":18403,"罷免":18404,"起跑":18405,"農場":18406,"這隻":18407,"駕車":18408,"台大醫院":18409,"太魯閣號事故":18410,"大立光":18411,"切割":18412,"划算":18413,"奔喪":18414,"就職":18415,"幽默":18416,"德保拉":18417,"應援":18418,"救災":18419,"曾接觸":18420,"會比較":18421,"照曝光":18422,"症候":18423,"的1":18424,"的女性":18425,"與日本":18426,"補償":18427,"諷刺":18428,"閨密":18429,"預料":18430,"高市":18431,"105":18432,"手機報稅":18433,"3月20日":18434,"最高可":18435,"comm":18436,"氧氣瓶":18437,"4次":18438,"6個":18439,"上來":18440,"人文":18441,"伴隨":18442,"但對":18443,"但也有":18444,"分離":18445,"加權":18446,"就此":18447,"層面":18448,"巴士":18449,"感應":18450,"接手":18451,"改裝":18452,"景象":18453,"海邊":18454,"為人":18455,"牛結節":18456,"率領":18457,"走在":18458,"附加":18459,"確診再":18460,"可以讓":18461,"自己也":18462,"進行居家隔離":18463,"這樣子":18464,"紀錄片":18465,"4月14日":18466,"絕對是":18467,"Gu":18468,"交代":18469,"以便":18470,"口氣":18471,"四強":18472,"威爾":18473,"模仿":18474,"狂飆":18475,"病變":18476,"白人":18477,"的理由":18478,"科長":18479,"評委會":18480,"運轉":18481,"金斯":18482,"鐵道":18483,"開了":18484,"離譜":18485,"駐印度":18486,"購物中心":18487,"護理人員":18488,"觀光局":18489,"永續發展":18490,"臨床試驗":18491,"更多國際相關新聞":18492,"(@":18493,"HO":18494,"不清":18495,"列出":18496,"利多":18497,"前景":18498,"向來":18499,"後疫情":18500,"有超過":18501,"水區":18502,"的日子":18503,"胸部":18504,"裝潢":18505,"見的":18506,"規律":18507,"這讓":18508,"離岸":18509,"高科技":18510,"鬧事":18511,"4月7日":18512,"資料照片":18513,"衛生單位已":18514,"更新率":18515,"億美元的":18516,"至美國工作":18517,"由仲介安排專車":18518,"128GB":18519,"何孟遠":18520,"內衣":18521,"半島":18522,"奇蹟":18523,"官媒":18524,"有4":18525,"檢調":18526,"火速":18527,"爾夫":18528,"產地":18529,"花園":18530,"證件":18531,"跟蹤":18532,"陷阱":18533,"首款":18534,"107":18535,"提供給":18536,"醫療資源":18537,"Station":18538,"消防人員":18539,"千萬不要":18540,"即日起至":18541,"5次":18542,"__":18543,"之道":18544,"及其他":18545,"失1分":18546,"心肌":18547,"春訓":18548,"約定":18549,"超狂":18550,"車手":18551,"遭人":18552,"進一步調查":18553,"image":18554,"警政署長":18555,"Yahoo奇摩":18556,"啦啦隊":18557,"240":18558,"Med":18559,"二館":18560,"仰賴":18561,"作收":18562,"供參考":18563,"倡議":18564,"停靠":18565,"受限":18566,"弱陽性":18567,"投保":18568,"新課綱":18569,"施政":18570,"會先":18571,"濃煙":18572,"班級":18573,"疏失":18574,"疲倦":18575,"空域":18576,"緩慢":18577,"考上":18578,"聽力":18579,"要先":18580,"調理":18581,"車牌":18582,"遭逮":18583,"醫事":18584,"靠山":18585,"首戰":18586,"檢驗報告":18587,"其中1":18588,"需要的":18589,"專業的":18590,"發表聲明":18591,"呼吸急促":18592,"嘉義市":18593,"宿舍自主健康管理":18594,"圖擷自":18595,"6搶1":18596,"ST":18597,"一律":18598,"也應":18599,"以此":18600,"原創":18601,"天生":18602,"對中":18603,"後仍":18604,"更在":18605,"會影響":18606,"棒的":18607,"椅子":18608,"清爽":18609,"燃氣":18610,"營利":18611,"的路":18612,"籌碼":18613,"網民":18614,"變形":18615,"賽道":18616,"間接":18617,"其中1人":18618,"大學指考":18619,"重點整理":18620,"至醫院採檢並確診":18621,"Bank":18622,"Cor":18623,"Ex":18624,"Will":18625,"一部":18626,"但還是":18627,"入門":18628,"兩家":18629,"卡在":18630,"吳男":18631,"實名":18632,"居留":18633,"愛上":18634,"房貸":18635,"方公尺":18636,"日圓":18637,"沒了":18638,"目睹":18639,"確幸":18640,"約翰":18641,"自願":18642,"藍營":18643,"輕忽":18644,"退化":18645,"阪神":18646,"鞋款":18647,"今天宣布":18648,"大家的":18649,"案1134":18650,"攝影機":18651,"學習歷程":18652,"飲料店":18653,"也就是說":18654,"9萬":18655,"並要求":18656,"並強調":18657,"情節":18658,"接續":18659,"推估":18660,"故障":18661,"新手":18662,"星巴克":18663,"林男":18664,"泌尿":18665,"的專業":18666,"石油":18667,"空調":18668,"與前":18669,"菜單":18670,"記載":18671,"連任":18672,"週一":18673,"還未":18674,"陳俊":18675,"新竹市":18676,"及時診斷":18677,"牛結節疹":18678,"Nike":18679,"一級":18680,"便是":18681,"增進":18682,"尋獲":18683,"有問題":18684,"李男":18685,"為機場防疫旅館":18686,"玩遊戲":18687,"童年":18688,"等因素":18689,"終盤":18690,"自殺":18691,"芯片":18692,"警訊":18693,"貨運":18694,"阻塞":18695,"記者李":18696,"11月28日":18697,"全身無力":18698,"並依指示":18699,"超音波":18700,"gram":18701,"一線":18702,"交出":18703,"動線":18704,"名義":18705,"想知道":18706,"棉花":18707,"榮譽":18708,"檢體":18709,"消除":18710,"為1":18711,"獲取":18712,"的世界":18713,"蘿蔔":18714,"詳見":18715,"詹姆斯":18716,"運氣":18717,"開的":18718,"ins":18719,"研究人員":18720,"ach":18721,"的一部分":18722,"入境後至防疫旅館進行居家檢疫":18723,"充電器":18724,"CPU":18725,"種族歧視":18726,"日公布國內新增":18727,"模特兒":18728,"症候群":18729,"中毒":18730,"主廚":18731,"例子":18732,"周四":18733,"在19":18734,"套房":18735,"姊姊":18736,"對美國":18737,"屏幕":18738,"序列":18739,"慶生":18740,"滅絕":18741,"研討":18742,"缺失":18743,"親民":18744,"送上":18745,"11點":18746,"19確定病例":18747,"中國國家":18748,"和平穩定":18749,"96秒":18750,"雙魚座":18751,"年齡介於20":18752,"9名":18753,"Ren":18754,"UE":18755,"ld":18756,"ty":18757,"。”":18758,"之接觸者":18759,"叔叔":18760,"實地":18761,"正值":18762,"消耗":18763,"澳門":18764,"猜測":18765,"那就":18766,"本國籍50多歲男性":18767,"外界質疑":18768,"在地上":18769,"ivers":18770,"大甲媽":18771,"二壘安打":18772,"1天":18773,"5萬元":18774,"不符合":18775,"僅次":18776,"優雅":18777,"周三":18778,"在未來":18779,"堅決":18780,"大媽":18781,"對台灣的":18782,"年華":18783,"戰場":18784,"有一些":18785,"業的":18786,"游戲":18787,"特權":18788,"行人":18789,"要是":18790,"試辦":18791,"起初":18792,"超強":18793,"骨頭":18794,"over":18795,"rip":18796,"自來水":18797,"7於":18798,"一採":18799,"下了":18800,"保有":18801,"價位":18802,"及通報":18803,"反觀":18804,"喝水":18805,"四肢":18806,"搭車":18807,"於8月":18808,"有任何":18809,"東方":18810,"林明":18811,"此一":18812,"死因":18813,"的角度":18814,"皇后":18815,"而他":18816,"船上":18817,"若能":18818,"菜色":18819,"蝦皮":18820,"都說":18821,"長住":18822,"關說":18823,"頻傳":18824,"10月15日":18825,"通報衛生單位":18826,"那麼多":18827,"256GB":18828,"主治醫師":18829,"三項":18830,"上岸":18831,"上半年":18832,"做事":18833,"則會":18834,"卡片":18835,"右外野":18836,"型號":18837,"太久":18838,"已出院":18839,"框架":18840,"流暢":18841,"的運動":18842,"糖世代":18843,"納稅":18844,"街口":18845,"被依":18846,"貝爾":18847,"輿論":18848,"配息":18849,"阿根":18850,"雨水":18851,"電線":18852,"公司要求":18853,"3月31日":18854,"是否能":18855,"華航機組員":18856,"桃園醫院":18857,"缺水危機":18858,"Qual":18859,"2點":18860,"8時":18861,"兩棲":18862,"分裂":18863,"前提":18864,"博覽":18865,"家鄉":18866,"已成為":18867,"帶頭":18868,"從沒":18869,"控管":18870,"改名":18871,"暖心":18872,"最少":18873,"樣貌":18874,"沒多久":18875,"片商":18876,"特質":18877,"的黑":18878,"的治療":18879,"盛行":18880,"終端":18881,"虐待":18882,"軌跡":18883,"騎兵":18884,"50萬元":18885,"健康網":18886,"分享自己":18887,"技術的":18888,"70多歲女性":18889,"之一的":18890,"必要時":18891,"出境需要":18892,"首相菅義偉":18893,"槍擊案":18894,"格式化":18895,"Res":18896,"之內":18897,"也與":18898,"人間":18899,"分類":18900,"吃法":18901,"必然":18902,"會對":18903,"有心":18904,"段時間":18905,"淮南":18906,"清查":18907,"為一起":18908,"犯行":18909,"的樣子":18910,"緊繃":18911,"該案":18912,"調味":18913,"議長":18914,"路過":18915,"連網":18916,"道理":18917,"oom":18918,"企業的":18919,"70歲":18920,"優惠價":18921,"11月26日":18922,"再次採檢":18923,"2名個案":18924,"東半部地區":18925,"金正恩":18926,"4個月":18927,"ti":18928,"三角":18929,"串聯":18930,"專心":18931,"巡迴":18932,"應付":18933,"改成":18934,"文物":18935,"於7月2":18936,"曖昧":18937,"更具":18938,"油脂":18939,"火化":18940,"的錢":18941,"第21":18942,"約3":18943,"臺中":18944,"臺北市":18945,"這點":18946,"鏽鋼":18947,"隻蟑螂":18948,"風向":18949,"鼻子":18950,"12月14日":18951,"15分":18952,"自費採檢後確診":18953,"12月7日":18954,"範圍內":18955,"傳染力":18956,"水電工":18957,"野生動物":18958,"衛生福利部":18959,"阿根廷":18960,"3位":18961,"Day":18962,"三讀":18963,"之家":18964,"制憲":18965,"回鑾":18966,"國手":18967,"就把":18968,"層次":18969,"巨頭":18970,"巨大的":18971,"把關":18972,"桌上":18973,"滅證據":18974,"物聯網":18975,"科興":18976,"詹子賢":18977,"買進":18978,"通信":18979,"郵件":18980,"體會":18981,"麻痺":18982,"黃育仁":18983,"臉書社團":18984,"蘋果發表會":18985,"健身房":18986,"嗅味覺異常等症狀":18987,"法新社":18988,"7月1日":18989,"KO":18990,"便能":18991,"到台灣":18992,"十五":18993,"學業":18994,"救出":18995,"斷層":18996,"桐花":18997,"生前":18998,"田澤":18999,"的成績":19000,"相近":19001,"蘭嶼":19002,"衍生":19003,"陸委會":19004,"顏值":19005,"5月6日":19006,"台北市警察局長陳嘉昌":19007,"返臺探親":19008,"過來人":19009,"Tech":19010,"考選部":19011,"7時":19012,"ELE":19013,"ez":19014,"上百":19015,"也認為":19016,"他對":19017,"合歡":19018,"唱歌":19019,"天空":19020,"小龍":19021,"患有":19022,"救印度":19023,"新版":19024,"曾至":19025,"校區":19026,"橡膠":19027,"股息":19028,"華語":19029,"處的":19030,"評鑑":19031,"這幾天":19032,"那裡":19033,"確診COVID":19034,"197":19035,"防疫計程車":19036,"指揮中心提供":19037,"咳嗽有痰":19038,"警察局長":19039,"Yout":19040,"基隆市":19041,"ESG":19042,"戴維斯":19043,"Rob":19044,"ael":19045,"bps":19046,"不敵":19047,"停工":19048,"契機":19049,"封閉":19050,"格蘭":19051,"櫻桃":19052,"為空":19053,"的我":19054,"菜鳥":19055,"訂購":19056,"適逢":19057,"那時":19058,"音質":19059,"餅乾":19060,"高三":19061,"高出":19062,"鬆綁":19063,"生活品質":19064,"自費採檢":19065,"醫療口罩":19066,"ame":19067,"12月4日":19068,"第4季":19069,"德國之聲":19070,"2月21日":19071,"花蓮縣":19072,"Open":19073,"不算":19074,"也呼籲":19075,"人道":19076,"僅供參考":19077,"在中":19078,"場次":19079,"州的":19080,"已超過":19081,"幾次":19082,"很開心":19083,"房產":19084,"曾任":19085,"櫃台":19086,"永久":19087,"洗腎":19088,"活化":19089,"熱度":19090,"突發":19091,"老鷹":19092,"警紀":19093,"週三":19094,"那時候":19095,"陳情":19096,"oll":19097,"外籍機師":19098,"大使館":19099,"敦睦艦隊案":19100,"。▼▲":19101,"5倍":19102,"taiwan":19103,"並採檢通報確診":19104,"低潮":19105,"入圍":19106,"北北":19107,"去買":19108,"延期":19109,"彭淮南":19110,"微燒":19111,"性騷擾":19112,"悠遊":19113,"戴著":19114,"指紋":19115,"曾文":19116,"查看這":19117,"的訊息":19118,"簽下":19119,"精華":19120,"網美":19121,"荷爾蒙":19122,"薯條":19123,"被控":19124,"被敲出":19125,"解渴":19126,"說自己":19127,"證書":19128,"長久":19129,"阻擋":19130,"降落":19131,"雙子座":19132,"食藥":19133,"點選":19134,"因此無須匡列接觸者":19135,"北市府":19136,"恢復正常":19137,"半導體產業":19138,"確診個案中":19139,"衛福部長":19140,"自行服藥未就醫":19141,"查看這則貼文":19142,"1女":19143,"3月1日":19144,"8000":19145,"保羅":19146,"分署":19147,"單價":19148,"嚴厲":19149,"寶島":19150,"接待":19151,"書寫":19152,"格外":19153,"毛巾":19154,"獲勝":19155,"現年":19156,"的政治":19157,"紅火":19158,"走高":19159,"車型":19160,"這部分":19161,"首發":19162,"驚呆":19163,"驚覺":19164,"可以說是":19165,"個案12月2":19166,"活動期間":19167,"維持在":19168,"晶片短缺":19169,"Spot":19170,"五一勞動節":19171,"航空器感染":19172,"Qualcomm":19173,"7分":19174,"也已經":19175,"公職":19176,"卻有":19177,"向警方":19178,"商城":19179,"寫真":19180,"抽菸":19181,"指令":19182,"散步":19183,"此項":19184,"氏症":19185,"發酵":19186,"的事件":19187,"矛盾":19188,"轉彎":19189,"這兩個":19190,"飛航":19191,"我們要":19192,"lex":19193,"1月19日":19194,"媽媽的":19195,"提高警覺":19196,"大量的":19197,"來看看":19198,"防護衣":19199,"值得一提":19200,"4家":19201,"不成":19202,"周一":19203,"嫌疑":19204,"安撫":19205,"察覺":19206,"專班":19207,"小確幸":19208,"展演":19209,"放榜":19210,"氣勢":19211,"準則":19212,"發熱":19213,"符號":19214,"誠意":19215,"通勤":19216,"還將":19217,"量體溫":19218,"領土":19219,"首爾":19220,"驕傲":19221,"黃姓":19222,"沒有辦法":19223,"40分":19224,"死亡病例":19225,"外交官":19226,"身體狀況":19227,"ade":19228,"音樂會":19229,"鋒面接近":19230,"何志偉":19231,"克爾":19232,"內外":19233,"共機":19234,"創始":19235,"在哪裡":19236,"家具":19237,"對她":19238,"履歷":19239,"往後":19240,"找尋":19241,"收視":19242,"氣的":19243,"無可":19244,"的女":19245,"的海":19246,"絕佳":19247,"過濾":19248,"鄭明":19249,"酥雞":19250,"降噪":19251,"182":19252,"需求的":19253,"翻攝自百度":19254,"一定的":19255,"來自於":19256,"生命危險":19257,"300萬":19258,"路上觀察":19259,"修正草案":19260,"處女座":19261,"在野黨":19262,"1確診":19263,"8分":19264,"Ge":19265,"La":19266,"Mer":19267,"NCC":19268,"多多":19269,"天價":19270,"改進":19271,"教會":19272,"漁民":19273,"潤發":19274,"球的":19275,"科主任":19276,"篇文章":19277,"美學":19278,"翻覆":19279,"行使":19280,"認可":19281,"諮商":19282,"辛龍":19283,"逃生":19284,"都無法":19285,"2012年":19286,"50年":19287,"隔離採檢":19288,"案1145":19289,"發布的":19290,"只剩下":19291,"ound":19292,"發病前2日":19293,"RI":19294,"Sir":19295,"一向":19296,"上銬":19297,"中說":19298,"人行":19299,"光芒":19300,"公克":19301,"厚度":19302,"原能":19303,"地雷":19304,"大都會":19305,"布萊":19306,"店面":19307,"思議":19308,"接任":19309,"無需":19310,"燈光":19311,"碼頭":19312,"綠線":19313,"超車":19314,"邁進":19315,"醬油":19316,"離世":19317,"飆漲":19318,"確診武漢肺炎":19319,"病毒株":19320,"科技公司":19321,"引發熱議":19322,"有多少":19323,"至少有":19324,"資格賽":19325,"搭機返台":19326,"未經同意":19327,"天蠍座":19328,"9月17日":19329,"vivo":19330,"南市":19331,"只不過":19332,"吃過":19333,"回復":19334,"基準":19335,"把它":19336,"拉克":19337,
[...]
