{"version":"1.0","truncation":null,"padding":null,"added_tokens":[{"id":0,"special":true,"content":"<unk>","single_word":false,"lstrip":false,"rstrip":false,"normalized":false},{"id":1,"special":true,"content":"[CLS]","single_word":false,"lstrip":false,"rstrip":false,"normalized":false},{"id":2,"special":true,"content":"[SEP]","single_word":false,"lstrip":false,"rstrip":false,"normalized":false},{"id":3,"special":true,"content":"[PAD]","single_word":false,"lstrip":false,"rstrip":false,"normalized":false},{"id":4,"special":true,"content":"[MASK]","single_word":false,"lstrip":false,"rstrip":false,"normalized":false},{"id":5,"special":true,"content":"[TITLE]","single_word":false,"lstrip":false,"rstrip":false,"normalized":false},{"id":6,"special":true,"content":"[ARTICLE]","single_word":false,"lstrip":false,"rstrip":false,"normalized":false},{"id":7,"special":true,"content":"[REF]","single_word":false,"lstrip":false,"rstrip":false,"normalized":false},{"id":8,"special":true,"content":"[END]","single_word":false,"lstrip":false,"rstrip":false,"normalized":false},{"id":9,"special":true,"content":"<en>","single_word":false,"lstrip":false,"rstrip":false,"normalized":false},{"id":10,"special":true,"content":"<num>","single_word":false,"lstrip":false,"rstrip":false,"normalized":false},{"id":11,"special":true,"content":"<per0>","single_word":false,"lstrip":false,"rstrip":false,"normalized":false},{"id":12,"special":true,"content":"<per1>","single_word":false,"lstrip":false,"rstrip":false,"normalized":false},{"id":13,"special":true,"content":"<per2>","single_word":false,"lstrip":false,"rstrip":false,"normalized":false},{"id":14,"special":true,"content":"<per3>","single_word":false,"lstrip":false,"rstrip":false,"normalized":false},{"id":15,"special":true,"content":"<per4>","single_word":false,"lstrip":false,"rstrip":false,"normalized":false},{"id":16,"special":true,"content":"<per5>","single_word":false,"lstrip":false,"rstrip":false,"normalized":false},{"id":17,"special":true,"content":"<per6>","single_word":false,"lstrip":false,"rstrip":false,"normalized":false},{"id":18,"special":true,"content":"<per7>","single_word":false,"lstrip":false,"rstrip":false,"normalized":false},{"id":19,"special":true,"content":"<per8>","single_word":false,"lstrip":false,"rstrip":false,"normalized":false},{"id":20,"special":true,"content":"<per9>","single_word":false,"lstrip":false,"rstrip":false,"normalized":false},{"id":21,"special":true,"content":"<org0>","single_word":false,"lstrip":false,"rstrip":false,"normalized":false},{"id":22,"special":true,"content":"<org1>","single_word":false,"lstrip":false,"rstrip":false,"normalized":false},{"id":23,"special":true,"content":"<org2>","single_word":false,"lstrip":false,"rstrip":false,"normalized":false},{"id":24,"special":true,"content":"<org3>","single_word":false,"lstrip":false,"rstrip":false,"normalized":false},{"id":25,"special":true,"content":"<org4>","single_word":false,"lstrip":false,"rstrip":false,"normalized":false},{"id":26,"special":true,"content":"<org5>","single_word":false,"lstrip":false,"rstrip":false,"normalized":false},{"id":27,"special":true,"content":"<org6>","single_word":false,"lstrip":false,"rstrip":false,"normalized":false},{"id":28,"special":true,"content":"<org7>","single_word":false,"lstrip":false,"rstrip":false,"normalized":false},{"id":29,"special":true,"content":"<org8>","single_word":false,"lstrip":false,"rstrip":false,"normalized":false},{"id":30,"special":true,"content":"<org9>","single_word":false,"lstrip":false,"rstrip":false,"normalized":false},{"id":31,"special":true,"content":"<loc0>","single_word":false,"lstrip":false,"rstrip":false,"normalized":false},{"id":32,"special":true,"content":"<loc1>","single_word":false,"lstrip":false,"rstrip":false,"normalized":false},{"id":33,"special":true,"content":"<loc2>","single_word":false,"lstrip":false,"rstrip":false,"normalized":false},{"id":34,"special":true,"content":"<loc3>","single_word":false,"lstrip":false,"rstrip":false,"normalized":false},{"id":35,"special":true,"content":"<loc4>","single_word":false,"lstrip":false,"rstrip":false,"normalized":false},{"id":36,"special":true,"content":"<loc5>","single_word":false,"lstrip":false,"rstrip":false,"normalized":false},{"id":37,"special":true,"content":"<loc6>","single_word":false,"lstrip":false,"rstrip":false,"normalized":false},{"id":38,"special":true,"content":"<loc7>","single_word":false,"lstrip":false,"rstrip":false,"normalized":false},{"id":39,"special":true,"content":"<loc8>","single_word":false,"lstrip":false,"rstrip":false,"normalized":false},{"id":40,"special":true,"content":"<loc9>","single_word":false,"lstrip":false,"rstrip":false,"normalized":false}],"normalizer":null,"pre_tokenizer":{"type":"Whitespace"},"post_processor":null,"decoder":null,"model":{"type":"BPE","dropout":null,"unk_token":"<unk>","continuing_subword_prefix":null,"end_of_word_suffix":null,"fuse_unk":false,"vocab":{"<unk>":0,"[CLS]":1,"[SEP]":2,"[PAD]":3,"[MASK]":4,"[TITLE]":5,"[ARTICLE]":6,"[REF]":7,"[END]":8,"<en>":9,"<num>":10,"<per0>":11,"<per1>":12,"<per2>":13,"<per3>":14,"<per4>":15,"<per5>":16,"<per6>":17,"<per7>":18,"<per8>":19,"<per9>":20,"<org0>":21,"<org1>":22,"<org2>":23,"<org3>":24,"<org4>":25,"<org5>":26,"<org6>":27,"<org7>":28,"<org8>":29,"<org9>":30,"<loc0>":31,"<loc1>":32,"<loc2>":33,"<loc3>":34,"<loc4>":35,"<loc5>":36,"<loc6>":37,"<loc7>":38,"<loc8>":39,"<loc9>":40,"!":41,"+":42,",":43,"-":44,".":45,"/":46,"0":47,"1":48,"2":49,"3":50,"4":51,"5":52,"6":53,"7":54,"8":55,"9":56,":":57,"<":58,">":59,"?":60,"A":61,"C":62,"D":63,"E":64,"I":65,"L":66,"N":67,"R":68,"T":69,"[":70,"]":71,"c":72,"e":73,"g":74,"k":75,"l":76,"m":77,"n":78,"o":79,"p":80,"r":81,"u":82,"~":83,"、":84,"。":85,"《":86,"》":87,"「":88,"」":89,"㖔":90,"㗎":91,"㚬":92,"㩦":93,"㵢":94,"㹴":95,"䅲":96,"䠷":97,"䡗":98,"一":99,"丁":100,"七":101,"丅":102,"万":103,"丈":104,"三":105,"上":106,"下":107,"不":108,"丐":109,"丑":110,"且":111,"丕":112,"世":113,"丘":114,"丙":115,"丞":116,"丟":117,"並":118,"丨":119,"个":120,"丫":121,"中":122,"丰":123,"串":124,"丶":125,"丸":126,"丹":127,"为":128,"主":129,"丼":130,"丿":131,"乃":132,"久":133,"么":134,"之":135,"乍":136,"乎":137,"乏":138,"乒":139,"乓":140,"乖":141,"乗":142,"乘":143,"乙":144,"九":145,"乞":146,"也":147,"乩":148,"乳":149,"乾":150,"亀":151,"亁":152,"亂":153,"了":154,"予":155,"争":156,"事":157,"二":158,"于":159,"云":160,"互":161,"五":162,"井":163,"亙":164,"些":165,"亞":166,"亟":167,"亡":168,"亢":169,"交":170,"亥":171,"亦":172,"亨":173,"享":174,"京":175,"亭":176,"亮":177,"亲":178,"亳":179,"人":180,"亻":181,"什":182,"仁":183,"仄":184,"仆":185,"仇":186,"今":187,"介":188,"仍":189,"仏":190,"仔":191,"仕":192,"他":193,"仗":194,"付":195,"仙":196,"仟":197,"代":198,"令":199,"以":200,"仨":201,"仰":202,"仲":203,"件":204,"任":205,"份":206,"仿":207,"企":208,"伃":209,"伉":210,"伊":211,"伍":212,"伎":213,"伏":214,"伐":215,"休":216,"伕":217,"伙":218,"会":219,"伝":220,"伯":221,"估":222,"伴":223,"伶":224,"伸":225,"伺":226,"似":227,"伽":228,"佃":229,"但":230,"佇":231,"佈":232,"位":233,"低":234,"住":235,"佐":236,"佑":237,"体":238,"佔":239,"何":240,"佘":241,"余":242,"佛":243,"作":244,"佝":245,"你":246,"佢":247,"佣":248,"佩":249,"佬":250,"佮":251,"佯":252,"佰":253,"佳":254,"併":255,"佶":256,"佻":257,"佼":258,"佾":259,"使":260,"侃":261,"侄":262,"來":263,"侈":264,"侊":265,"例":266,"侍":267,"侏":268,"侑":269,"侖":270,"侗":271,"供":272,"依":273,"価":274,"侮":275,"侯":276,"侵":277,"侶":278,"侷":279,"便":280,"俁":281,"係":282,"促":283,"俄":284,"俊":285,"俍":286,"俎":287,"俏":288,"俐":289,"俑":290,"俗":291,"俘":292,"俚":293,"保":294,"俞":295,"俟":296,"俠":297,"信":298,"俢":299,"俣":300,"俤":301,"俥":302,"修":303,"俯":304,"俱":305,"俳":306,"俸":307,"俺":308,"俾":309,"倆":310,"倉":311,"個":312,"倌":313,"倍":314,"倏":315,"們":316,"倒":317,"倔":318,"倖":319,"倘":320,"候":321,"倚":322,"倜":323,"借":324,"倡":325,"倢":326,"倦":327,"倩":328,"倪":329,"倫":330,"倭":331,"倰":332,"值":333,"偃":334,"假":335,"偈":336,"偉":337,"偌":338,"偎":339,"偏":340,"偒":341,"偕":342,"做":343,"停":344,"健":345,"偲":346,"側":347,"偵":348,"偶":349,"偷":350,"偽":351,"傀":352,"傅":353,"傍":354,"傑":355,"傘":356,"備":357,"傢":358,"傣":359,"催":360,"傭":361,"傲":362,"傳":363,"債":364,"傷":365,"傻":366,"傾":367,"僂":368,"僅":369,"僊":370,"像":371,"僑":372,"僕":373,"僚":374,"僥":375,"僧":376,"僮":377,"僱":378,"僵":379,"價":380,"僻":381,"儀":382,"儂":383,"億":384,"儆":385,"儉":386,"儋":387,"儒":388,"儕":389,"儘":390,"償":391,"儡":392,"儣":393,"優":394,"儲":395,"儷":396,"儸":397,"儻":398,"儼":399,"儿":400,"兀":401,"允":402,"元":403,"兄":404,"充":405,"兆":406,"兇":407,"先":408,"光":409,"克":410,"兌":411,"免":412,"児":413,"兑":414,"兒":415,"兔":416,"兗":417,"党":418,"兜":419,"兢":420,"入":421,"內":422,"全":423,"兩":424,"八":425,"公":426,"六":427,"兮":428,"共":429,"关":430,"兴":431,"兵":432,"其":433,"具":434,"典":435,"兹":436,"养":437,"兼":438,"冀":439,"内":440,"円":441,"冇":442,"冉":443,"冊":444,"再":445,"冒":446,"冕":447,"冗":448,"写":449,"冚":450,"冠":451,"冤":452,"冥":453,"冨":454,"冪":455,"冬":456,"冰":457,"冲":458,"决":459,"冴":460,"况":461,"冶":462,"冷":463,"冽":464,"凃":465,"凄":466,"凅":467,"准":468,"凈":469,"凉":470,"凊":471,"凋":472,"凌":473,"凍":474,"减":475,"凑":476,"凖":477,"凜":478,"凝":479,"几":480,"凡":481,"凪":482,"凰":483,"凱":484,"凳":485,"凶":486,"凸":487,"凹":488,"出":489,"函":490,"刀":491,"刁":492,"刃":493,"分":494,"切":495,"刈":496,"刊":497,"刎":498,"刑":499,"划":500,"列":501,"初":502,"判":503,"別":504,"刨":505,"利":506,"刪":507,"别":508,"刮":509,"到":510,"制":511,"刷":512,"券":513,"刺":514,"刻":515,"剁":516,"剃":517,"則":518,"剉":519,"削":520,"剋":521,"剌":522,"前":523,"剎":524,"剔":525,"剖":526,"剛":527,"剝":528,"剩":529,"剪":530,"剮":531,"副":532,"割":533,"創":534,"剷":535,"剽":536,"剿":537,"劃":538,"劇":539,"劈":540,"劉":541,"劊":542,"劍":543,"劏":544,"劑":545,"力":546,"功":547,"加":548,"劣":549,"动":550,"助":551,"努":552,"劫":553,"劬":554,"劭":555,"劵":556,"効":557,"劾":558,"势":559,"勁":560,"勃":561,"勇":562,"勉":563,"勍":564,"勒":565,"動":566,"勘":567,"務":568,"勛":569,"勝":570,"勞":571,"募":572,"勢":573,"勤":574,"勳":575,"勵":576,"勸":577,"勺":578,"勻":579,"勾":580,"勿":581,"包":582,"匆":583,"匈":584,"匍":585,"匏":586,"匐":587,"匕":588,"化":589,"北":590,"匙":591,"匝":592,"匠":593,"匡":594,"匣":595,"匪":596,"匭":597,"匯":598,"匱":599,"匹":600,"医":601,"匾":602,"匿":603,"區":604,"十":605,"千":606,"卅":607,"升":608,"午":609,"卉":610,"半":611,"卍":612,"卑":613,"卒":614,"卓":615,"協":616,"单":617,"南":618,"博":619,"卜":620,"卞":621,"占":622,"卡":623,"卦":624,"卯":625,"印":626,"危":627,"即":628,"却":629,"卵":630,"卷":631,"卸":632,"卹":633,"卻":634,"卿":635,"厄":636,"厓":637,"厘":638,"厚":639,"厝":640,"原":641,"厥":642,"厦":643,"厭":644,"厲":645,"厶":646,"去":647,"叁":648,"参":649,"參":650,"又":651,"叉":652,"及":653,"友":654,"双":655,"反":656,"収":657,"叔":658,"取":659,"受":660,"叛":661,"叟":662,"叠":663,"叡":664,"叢":665,"口":666,"古":667,"句":668,"另":669,"叨":670,"叩":671,"只":672,"叫":673,"召":674,"叭":675,"叮":676,"可":677,"台":678,"叱":679,"史":680,"右":681,"叵":682,"号":683,"司":684,"叻":685,"叼":686,"吁":687,"吃":688,"各":689,"吆":690,"合":691,"吉":692,"吊":693,"吋":694,"同":695,"名":696,"后":697,"吏":698,"吐":699,"向":700,"吒":701,"吔":702,"君":703,"吝":704,"吞":705,"吟":706,"吠":707,"否":708,"吧":709,"吩":710,"含":711,"吭":712,"吮":713,"吱":714,"吳":715,"吵":716,"吶":717,"吸":718,"吹":719,"吻":720,"吼":721,"吾":722,"吿":723,"呀":724,"呂":725,"呃":726,"呆":727,"呈":728,"呉":729,"告":730,"呎":731,"呐":732,"呢":733,"呤":734,"呦":735,"周":736,"呱":737,"味":738,"呵":739,"呷":740,"呸":741,"呻":742,"呼":743,"命":744,"咀":745,"咁":746,"咄":747,"咆":748,"咋":749,"和":750,"咎":751,"咐":752,"咒":753,"咔":754,"咕":755,"咖":756,"咗":757,"咘":758,"咚":759,"咥":760,"咦":761,"咧":762,"咨":763,"咩":764,"咪":765,"咫":766,"咬":767,"咱":768,"咲":769,"咳":770,"咸":771,"咻":772,"咽":773,"咾":774,"哀":775,"品":776,"哄":777,"哆":778,"哇":779,"哈":780,"哉":781,"哋":782,"哎":783,"哏":784,"哖":785,"哞":786,"哟":787,"員":788,"哥":789,"哦":790,"哧":791,"哨":792,"哩":793,"哪":794,"哭":795,"哮":796,"哲":797,"哺":798,"哼":799,"哽":800,"唁":801,"唄":802,"唅":803,"唆":804,"唇":805,"唉":806,"唏":807,"唐":808,"唑":809,"唔":810,"唦":811,"唧":812,"唬":813,"售":814,"唯":815,"唰":816,"唱":817,"唳":818,"唷":819,"唸":820,"唾":821,"啃":822,"啄":823,"商":824,"啉":825,"啊":826,"問":827,"啓":828,"啕":829,"啖":830,"啜":831,"啞":832,"啟":833,"啡":834,"啣":835,"啤":836,"啥":837,"啦":838,"啪":839,"啲":840,"啵":841,"啷":842,"啻":843,"啼":844,"啾":845,"喀":846,"喂":847,"喃":848,"善":849,"喆":850,"喇":851,"喉":852,"喊":853,"喋":854,"喎":855,"喔":856,"喘":857,"喙":858,"喚":859,"喜":860,"喝":861,"喧":862,"喪":863,"喫":864,"喬":865,"單":866,"喱":867,"喲":868,"喳":869,"喵":870,"喹":871,"喺":872,"喻":873,"嗄":874,"嗅":875,"嗆":876,"嗇":877,"嗎":878,"嗑":879,"嗓":880,"嗔":881,"嗖":882,"嗚":883,"嗜":884,"嗝":885,"嗡":886,"嗣":887,"嗤":888,"嗦":889,"嗨":890,"嗩":891,"嗯":892,"嗰":893,"嗲":894,"嗶":895,"嗽":896,"嘀":897,"嘅":898,"嘆":899,"嘈":900,"嘉":901,"嘌":902,"嘍":903,"嘎":904,"嘔":905,"嘖":906,"嘗":907,"嘛":908,"嘜":909,"嘞":910,"嘟":911,"嘩":912,"嘮":913,"嘯":914,"嘰":915,"嘲":916,"嘴":917,"嘶":918,"嘸":919,"嘹":920,"嘻":921,"嘿":922,"噁":923,"噌":924,"噍":925,"噎":926,"噓":927,"噔":928,"噗":929,"噘":930,"噚":931,"噠":932,"噢":933,"噤":934,"噥":935,"器":936,"噩":937,"噪":938,"噬":939,"噯":940,"噱":941,"噴":942,"噶":943,"噸":944,"噹":945,"噻":946,"嚀":947,"嚅":948,"嚇":949,"嚎":950,"嚏":951,"嚐":952,"嚓":953,"嚕":954,"嚙":955,"嚟":956,"嚥":957,"嚨":958,"嚮":959,"嚴":960,"嚶":961,"嚷":962,"嚼":963,"囁":964,"囂":965,"囈":966,"囉":967,"囊":968,"囍":969,"囑":970,"囓":971,"囔":972,"囚":973,"四":974,"囝":975,"回":976,"囟":977,"因":978,"囡":979,"囤":980,"囧":981,"囪":982,"囫":983,"困":984,"囱":985,"図":986,"囹":987,"固":988,"国":989,"囿":990,"圃":991,"圄":992,"圇":993,"圈":994,"國":995,"圍":996,"圏":997,"園":998,"圓":999,"圖":1000,"團":1001,"圜":1002,"土":1003,"在":1004,"圭":1005,"圮":1006,"地":1007,"圳":1008,"圾":1009,"址":1010,"坂":1011,"均":1012,"坊":1013,"坍":1014,"坎":1015,"坏":1016,"坐":1017,"坑":1018,"坡":1019,"坢":1020,"坣":1021,"坤":1022,"坦":1023,"坨":1024,"坪":1025,"坯":1026,"坳":1027,"坵":1028,"坷":1029,"垂":1030,"垃":1031,"型":1032,"垛":1033,"垜":1034,"垠":1035,"垢":1036,"垣":1037,"垮":1038,"垵":1039,"垻":1040,"埀":1041,"埂":1042,"埃":1043,"埆":1044,"埈":1045,"埋":1046,"城":1047,"埔":1048,"埕":1049,"域":1050,"埠":1051,"埤":1052,"埨":1053,"埭":1054,"執":1055,"埸":1056,"培":1057,"基":1058,"埼":1059,"堀":1060,"堂":1061,"堅":1062,"堆":1063,"堇":1064,"堊":1065,"堡":1066,"堤":1067,"堪":1068,"堯":1069,"堰":1070,"報":1071,"場":1072,"堵":1073,"堺":1074,"塊":1075,"塌":1076,"塍":1077,"塏":1078,"塑":1079,"塔":1080,"塗":1081,"塘":1082,"塚":1083,"塞":1084,"塡":1085,"塢":1086,"塩":1087,"填":1088,"塭":1089,"塱":1090,"塵":1091,"塹":1092,"塾":1093,"境":1094,"墅":1095,"墉":1096,"墊":1097,"墓":1098,"増":1099,"墘":1100,"墜":1101,"增":1102,"墟":1103,"墨":1104,"墩":1105,"墮":1106,"墳":1107,"墶":1108,"墾":1109,"壁":1110,"壅":1111,"壇":1112,"壑":1113,"壓":1114,"壕":1115,"壘":1116,"壞":1117,"壟":1118,"壠":1119,"壢":1120,"壤":1121,"壩":1122,"士":1123,"壬":1124,"壮":1125,"壯":1126,"売":1127,"壶":1128,"壹":1129,"壺":1130,"壽":1131,"夀":1132,"夆":1133,"変":1134,"夏":1135,"夔":1136,"夕":1137,"外":1138,"夙":1139,"多":1140,"夜":1141,"夠":1142,"夢":1143,"夥":1144,"大":1145,"天":1146,"太":1147,"夫":1148,"夭":1149,"央":1150,"夯":1151,"失":1152,"夲":1153,"夷":1154,"夸":1155,"夾":1156,"奄":1157,"奇":1158,"奈":1159,"奉":1160,"奎":1161,"奏":1162,"奐":1163,"契":1164,"奔":1165,"奕":1166,"套":1167,"奚":1168,"奠":1169,"奢":1170,"奥":1171,"奧":1172,"奨":1173,"奪":1174,"奬":1175,"奮":1176,"女":1177,"奴":1178,"奶":1179,"奸":1180,"她":1181,"奼":1182,"好":1183,"妁":1184,"如":1185,"妃":1186,"妄":1187,"妊":1188,"妍":1189,"妏":1190,"妒":1191,"妓":1192,"妖":1193,"妘":1194,"妙":1195,"妝":1196,"妞":1197,"妡":1198,"妣":1199,"妤":1200,"妥":1201,"妨":1202,"妮":1203,"妯":1204,"妲":1205,"妳":1206,"妹":1207,"妺":1208,"妻":1209,"妽":1210,"妾":1211,"姆":1212,"姈":1213,"姊":1214,"始":1215,"姍":1216,"姐":1217,"姑":1218,"姓":1219,"委":1220,"姚":1221,"姜":1222,"姝":1223,"姣":1224,"姥":1225,"姦":1226,"姨":1227,"姪":1228,"姬":1229,"姸":1230,"姻":1231,"姿":1232,"威":1233,"娃":1234,"娌":1235,"娑":1236,"娓":1237,"娗":1238,"娘":1239,"娛":1240,"娜":1241,"娟":1242,"娠":1243,"娥":1244,"娩":1245,"娶":1246,"娼":1247,"婀":1248,"婁":1249,"婆":1250,"婉":1251,"婊":1252,"婕":1253,"婚":1254,"婞":1255,"婢":1256,"婦":1257,"婧":1258,"婪":1259,"婭":1260,"婷":1261,"婿":1262,"媄":1263,"媒":1264,"媗":1265,"媚":1266,"媛":1267,"媜":1268,"媧":1269,"媲":1270,"媳":1271,"媽":1272,"嫁":1273,"嫂":1274,"嫉":1275,"嫌":1276,"嫖":1277,"嫗":1278,"嫚":1279,"嫡":1280,"嫣":1281,"嫦":1282,"嫩":1283,"嫰":1284,"嫲":1285,"嫵":1286,"嫻":1287,"嬅":1288,"嬈":1289,"嬉":1290,"嬋":1291,"嬌":1292,"嬛":1293,"嬢":1294,"嬤":1295,"嬪":1296,"嬰":1297,"嬲":1298,"嬴":1299,"嬷":1300,"嬸":1301,"嬿":1302,"孀":1303,"孃":1304,"子":1305,"孑":1306,"孓":1307,"孔":1308,"孕":1309,"字":1310,"存":1311,"孚":1312,"孛":1313,"孜":1314,"孝":1315,"孟":1316,"孢":1317,"季":1318,"孤":1319,"孥":1320,"学":1321,"孩":1322,"孫":1323,"孬":1324,"孰":1325,"孱":1326,"孳":1327,"孵":1328,"學":1329,"孺":1330,"孽":1331,"孿":1332,"宀":1333,"它":1334,"宅":1335,"宇":1336,"守":1337,"安":1338,"宋":1339,"完":1340,"宏":1341,"宕":1342,"宗":1343,"官":1344,"宙":1345,"定":1346,"宛":1347,"宜":1348,"宝":1349,"实":1350,"実":1351,"客":1352,"宣":1353,"室":1354,"宥":1355,"宦":1356,"宫":1357,"宮":1358,"宰":1359,"害":1360,"宴":1361,"宵":1362,"家":1363,"宸":1364,"容":1365,"宿":1366,"寂":1367,"寃":1368,"寄":1369,"寅":1370,"密":1371,"寇":1372,"富":1373,"寐":1374,"寒":1375,"寓":1376,"寗":1377,"寛":1378,"寞":1379,"察":1380,"寡":1381,"寢":1382,"寥":1383,"實":1384,"寧":1385,"寨":1386,"審":1387,"寫":1388,"寬":1389,"寮":1390,"寰":1391,"寵":1392,"寶":1393,"寸":1394,"寺":1395,"寿":1396,"封":1397,"専":1398,"尃":1399,"射":1400,"将":1401,"將":1402,"專":1403,"尉":1404,"尊":1405,"尋":1406,"對":1407,"導":1408,"小":1409,"少":1410,"尖":1411,"尚":1412,"尤":1413,"尪":1414,"尬":1415,"就":1416,"尷":1417,"尸":1418,"尹":1419,"尺":1420,"尻":1421,"尼":1422,"尾":1423,"尿":1424,"局":1425,"屁":1426,"居":1427,"屆":1428,"屈":1429,"届":1430,"屋":1431,"屌":1432,"屍":1433,"屎":1434,"屏":1435,"屐":1436,"屑":1437,"展":1438,"屜":1439,"属":1440,"屠":1441,"屢":1442,"層":1443,"履":1444,"屬":1445,"屯":1446,"山":1447,"屹":1448,"岀":1449,"岌":1450,"岐":1451,"岑":1452,"岔":1453,"岡":1454,"岩":1455,"岬":1456,"岱":1457,"岳":1458,"岸":1459,"峇":1460,"峋":1461,"峒":1462,"峙":1463,"峠":1464,"峨":1465,"峪":1466,"峭":1467,"峮":1468,"峯":1469,"峰":1470,"峴":1471,"島":1472,"峻":1473,"峽":1474,"崁":1475,"崇":1476,"崎":1477,"崑":1478,"崔":1479,"崖":1480,"崗":1481,"崙":1482,"崛":1483,"崢":1484,"崩":1485,"崴":1486,"崽":1487,"嵄":1488,"嵋":1489,"嵌":1490,"嵎":1491,"嵐":1492,"嵓":1493,"嵙":1494,"嵜":1495,"嵩":1496,"嵬":1497,"嵵":1498,"嵿":1499,"嶂":1500,"嶄":1501,"嶇":1502,"嶋":1503,"嶙":1504,"嶝":1505,"嶸":1506,"嶺":1507,"嶼":1508,"嶽":1509,"巂":1510,"巋":1511,"巍":1512,"巒":1513,"巔":1514,"巖":1515,"川":1516,"州":1517,"巡":1518,"巢":1519,"工":1520,"左":1521,"巧":1522,"巨":1523,"巫":1524,"差":1525,"己":1526,"已":1527,"巳":1528,"巴":1529,"巷":1530,"巽":1531,"巾":1532,"巿":1533,"市":1534,"布":1535,"帆":1536,"师":1537,"希":1538,"帑":1539,"帔":1540,"帕":1541,"帖":1542,"帙":1543,"帚":1544,"帛":1545,"帝":1546,"帥":1547,"師":1548,"席":1549,"帯":1550,"帰":1551,"帳":1552,"帶":1553,"帷":1554,"常":1555,"帽":1556,"幀":1557,"幄":1558,"幅":1559,"幇":1560,"幌":1561,"幔":1562,"幕":1563,"幗":1564,"幛":1565,"幟":1566,"幡":1567,"幢":1568,"幣":1569,"幫":1570,"干":1571,"平":1572,"年":1573,"并":1574,"幸":1575,"幹":1576,"幻":1577,"幼":1578,"幽":1579,"幾":1580,"庁":1581,"広":1582,"庄":1583,"庇":1584,"床":1585,"序":1586,"庒":1587,"底":1588,"庖":1589,"店":1590,"庚":1591,"府":1592,"度":1593,"座":1594,"庫":1595,"庭":1596,"庲":1597,"庵":1598,"庶":1599,"康":1600,"庸":1601,"庹":1602,"廁":1603,"廂":1604,"廃":1605,"廈":1606,"廉":1607,"廊":1608,"廋":1609,"廍":1610,"廓":1611,"廔":1612,"廖":1613,"廚":1614,"廝":1615,"廟":1616,"廠":1617,"廡":1618,"廢":1619,"廣":1620,"廬":1621,"廳":1622,"廵":1623,"延":1624,"廷":1625,"廸":1626,"建":1627,"廿":1628,"弄":1629,"弈":1630,"弊":1631,"弋":1632,"式":1633,"弒":1634,"弓":1635,"弔":1636,"引":1637,"弗":1638,"弘":1639,"弛":1640,"弟":1641,"弦":1642,"弧":1643,"弩":1644,"弭":1645,"弱":1646,"張":1647,"強":1648,"强":1649,"弼":1650,"彆":1651,"彈":1652,"彊":1653,"彌":1654,"彎":1655,"当":1656,"彗":1657,"彙":1658,"彚":1659,"彜":1660,"彝":1661,"彡":1662,"形":1663,"彣":1664,"彤":1665,"彥":1666,"彦":1667,"彩":1668,"彪":1669,"彬":1670,"彭":1671,"彰":1672,"影":1673,"彵":1674,"彷":1675,"役":1676,"彼":1677,"彿":1678,"往":1679,"征":1680,"待":1681,"徇":1682,"很":1683,"徉":1684,"徊":1685,"律":1686,"後":1687,"徐":1688,"徑":1689,"徒":1690,"得":1691,"徘":1692,"徙":1693,"徜":1694,"從":1695,"徠":1696,"御":1697,"徧":1698,"徨":1699,"復":1700,"循":1701,"徬":1702,"微":1703,"徳":1704,"徵":1705,"德":1706,"徹":1707,"徽":1708,"心":1709,"忄":1710,"必":1711,"忌":1712,"忍":1713,"忐":1714,"忑":1715,"忒":1716,"忖":1717,"志":1718,"忘":1719,"忙":1720,"忝":1721,"忠":1722,"忡":1723,"忤":1724,"忪":1725,"快":1726,"忱":1727,"念":1728,"忸":1729,"忻":1730,"忽":1731,"忿":1732,"怀":1733,"怎":1734,"怏":1735,"怒":1736,"怔":1737,"怕":1738,"怖":1739,"怙":1740,"怜":1741,"思":1742,"怠":1743,"怡":1744,"急":1745,"怦":1746,"性":1747,"怨":1748,"怩":1749,"怪":1750,"怫":1751,"怯":1752,"怵":1753,"恁":1754,"恂":1755,"恃":1756,"恆":1757,"恊":1758,"恋":1759,"恍":1760,"恐":1761,"恒":1762,"恕":1763,"恙":1764,"恢":1765,"恣":1766,"恤":1767,"恥":1768,"恨":1769,"恩":1770,"恪":1771,"恫":1772,"恬":1773,"恭":1774,"息":1775,"恰":1776,"恵":1777,"恿":1778,"悄":1779,"悅":1780,"悉":1781,"悌":1782,"悍":1783,"悔":1784,"悖":1785,"悚":1786,"悛":1787,"悟":1788,"悠":1789,"患":1790,"悦":1791,"悧":1792,"您":1793,"悩":1794,"悲":1795,"悴":1796,"悵":1797,"悶":1798,"悸":1799,"悻":1800,"悼":1801,"悽":1802,"情":1803,"惆":1804,"惋":1805,"惑":1806,"惕":1807,"惘":1808,"惚":1809,"惜":1810,"惟":1811,"惠":1812,"惡":1813,"惢":1814,"惦":1815,"惰":1816,"惱":1817,"想":1818,"惴":1819,"惶":1820,"惹":1821,"惺":1822,"惻":1823,"愁":1824,"愆":1825,"愈":1826,"愉":1827,"意":1828,"愓":1829,"愕":1830,"愚":1831,"愛":1832,"愜":1833,"感":1834,"愣":1835,"愧":1836,"愫":1837,"愴":1838,"愷":1839,"愾":1840,"愿":1841,"慄":1842,"慈":1843,"慉":1844,"態":1845,"慌":1846,"慍":1847,"慎":1848,"慕":1849,"慘":1850,"慚":1851,"慟":1852,"慢":1853,"慣":1854,"慧":1855,"慨":1856,"慫":1857,"慬":1858,"慮":1859,"慰":1860,"慵":1861,"慶":1862,"慷":1863,"慽":1864,"慾":1865,"憂":1866,"憊":1867,"憋":1868,"憎":1869,"憐":1870,"憑":1871,"憒":1872,"憔":1873,"憚":1874,"憝":1875,"憤":1876,"憧":1877,"憨":1878,"憩":1879,"憫":1880,"憬":1881,"憲":1882,"憶":1883,"憾":1884,"懂":1885,"懇":1886,"懈":1887,"應":1888,"懊":1889,"懋":1890,"懐":1891,"懟":1892,"懦":1893,"懨":1894,"懲":1895,"懵":1896,"懶":1897,"懷":1898,"懸":1899,"懺":1900,"懼":1901,"懾":1902,"懿":1903,"戀":1904,"戈":1905,"戊":1906,"戌":1907,"戍":1908,"戎":1909,"成":1910,"我":1911,"戒":1912,"戕":1913,"或":1914,"戚":1915,"戛":1916,"戟":1917,"戡":1918,"截":1919,"戮":1920,"戰":1921,"戲":1922,"戳":1923,"戴":1924,"戶":1925,"户":1926,"戸":1927,"戻":1928,"戽":1929,"戾":1930,"房":1931,"所":1932,"扁":1933,"扇":1934,"扈":1935,"扉":1936,"手":1937,"才":1938,"扎":1939,"扒":1940,"打":1941,"扔":1942,"托":1943,"扛":1944,"扞":1945,"扣":1946,"扭":1947,"扮":1948,"扯":1949,"扳":1950,"扶":1951,"批":1952,"扺":1953,"扼":1954,"找":1955,"承":1956,"技":1957,"抄":1958,"抉":1959,"把":1960,"抑":1961,"抒":1962,"抓":1963,"投":1964,"抖":1965,"抗":1966,"折":1967,"抚":1968,"抛":1969,"抜":1970,"报":1971,"抨":1972,"披":1973,"抬":1974,"抱":1975,"抵":1976,"抹":1977,"抺":1978,"押":1979,"抽":1980,"抿":1981,"拂":1982,"拄":1983,"担":1984,"拆":1985,"拇":1986,"拈":1987,"拉":1988,"拊":1989,"拋":1990,"拌":1991,"拍":1992,"拎":1993,"拐":1994,"拒":1995,"拓":1996,"拔":1997,"拖":1998,"拗":1999,"拘":2000,"拙":2001,"拚":2002,"招":2003,"拜":2004,"括":2005,"拭":2006,"拮":2007,"拯":2008,"拱":2009,"拳":2010,"拴":2011,"拷":2012,"拼":2013,"拽":2014,"拾":2015,"拿":2016,"持":2017,"挂":2018,"指":2019,"挈":2020,"按":2021,"挑":2022,"挖":2023,"挨":2024,"挪":2025,"挫":2026,"振":2027,"挵":2028,"挹":2029,"挺":2030,"挽":2031,"挾":2032,"捂":2033,"捅":2034,"捆":2035,"捉":2036,"捋":2037,"捌":2038,"捍":2039,"捎":2040,"捏":2041,"捐":2042,"捕":2043,"捜":2044,"损":2045,"换":2046,"捧":2047,"捨":2048,"捩":2049,"捫":2050,"捭":2051,"据":2052,"捱":2053,"捲":2054,"捶":2055,"捷":2056,"捺":2057,"捻":2058,"掀":2059,"掂":2060,"掃":2061,"掄":2062,"掇":2063,"授":2064,"掉":2065,"掌":2066,"掏":2067,"掐":2068,"排":2069,"掖":2070,"掘":2071,"掙":2072,"掛":2073,"掠":2074,"採":2075,"探":2076,"掣":2077,"接":2078,"掦":2079,"控":2080,"推":2081,"掩":2082,"措":2083,"掬":2084,"掮":2085,"掰":2086,"揀":2087,"揄":2088,"揆":2089,"揉":2090,"揍":2091,"描":2092,"提":2093,"插":2094,"揖":2095,"揚":2096,"換":2097,"揠":2098,"握":2099,"揣":2100,"揩":2101,"揪":2102,"揭":2103,"揮":2104,"援":2105,"揶":2106,"揸":2107,"揹":2108,"揺":2109,"損":2110,"搏":2111,"搐":2112,"搓":2113,"搔":2114,"搖":2115,"搗":2116,"搜":2117,"搞":2118,"搡":2119,"搥":2120,"搧":2121,"搪":2122,"搬":2123,"搭":2124,"搵":2125,"搶":2126,"携":2127,"搾":2128,"摀":2129,"摃":2130,"摇":2131,"摍":2132,"摑":2133,"摒":2134,"摔":2135,"摘":2136,"摜":2137,"摞":2138,"摟":2139,"摧":2140,"摩":2141,"摯":2142,"摳":2143,"摷":2144,"摸":2145,"摹":2146,"摺":2147,"摻":2148,"撂":2149,"撃":2150,"撇":2151,"撈":2152,"撐":2153,"撒":2154,"撓":2155,"撕":2156,"撘":2157,"撙":2158,"撞":2159,"撢":2160,"撣":2161,"撤":2162,"撥":2163,"撩":2164,"撫":2165,"撬":2166,"播":2167,"撮":2168,"撰":2169,"撲":2170,"撸":2171,"撻":2172,"撼":2173,"撿":2174,"擀":2175,"擁":2176,"擂":2177,"擄":2178,"擅":2179,"擇":2180,"擊":2181,"擋":2182,"操":2183,"擎":2184,"擒":2185,"擔":2186,"擘":2187,"據":2188,"擠":2189,"擢":2190,"擣":2191,"擤":2192,"擦":2193,"擬":2194,"擰":2195,"擱":2196,"擲":2197,"擴":2198,"擷":2199,"擺":2200,"擻":2201,"擼":2202,"擾":2203,"攀":2204,"攆":2205,"攉":2206,"攏":2207,"攔":2208,"攘":2209,"攙":2210,"攜":2211,"攝":2212,"攞":2213,"攢":2214,"攣":2215,"攤":2216,"攪":2217,"攫":2218,"攬":2219,"支":2220,"攰":2221,"收":2222,"攸":2223,"改":2224,"攻":2225,"放":2226,"政":2227,"故":2228,"效":2229,"敍":2230,"敏":2231,"救":2232,"敕":2233,"敗":2234,"敘":2235,"教":2236,"敝":2237,"敞":2238,"敢":2239,"散":2240,"敦":2241,"敬":2242,"数":2243,"敲":2244,"整":2245,"敵":2246,"敷":2247,"數":2248,"敻":2249,"斂":2250,"斃":2251,"文":2252,"斌":2253,"斐":2254,"斑":2255,"斕":2256,"斗":2257,"料":2258,"斛":2259,"斜":2260,"斟":2261,"斡":2262,"斤":2263,"斥":2264,"斧":2265,"斬":2266,"斯":2267,"新":2268,"斷":2269,"方":2270,"於":2271,"施":2272,"旁":2273,"旂":2274,"旅":2275,"旋":2276,"旎":2277,"族":2278,"旖":2279,"旗":2280,"无":2281,"既":2282,"日":2283,"旦":2284,"旨":2285,"早":2286,"旬":2287,"旭":2288,"旮":2289,"旯":2290,"旱":2291,"旳":2292,"时":2293,"旺":2294,"旼":2295,"昀":2296,"昂":2297,"昆":2298,"昇":2299,"昊":2300,"昌":2301,"明":2302,"昏":2303,"易":2304,"昔":2305,"昕":2306,"昜":2307,"星":2308,"映":2309,"昤":2310,"春":2311,"昧":2312,"昨":2313,"昫":2314,"昭":2315,"是":2316,"昰":2317,"昱":2318,"昴":2319,"昶":2320,"時":2321,"晃":2322,"晉":2323,"晏":2324,"晒":2325,"晗":2326,"晚":2327,"晛":2328,"晝":2329,"晟":2330,"晤":2331,"晦":2332,"晧":2333,"晨":2334,"普":2335,"景":2336,"晰":2337,"晳":2338,"晴":2339,"晶":2340,"智":2341,"晾":2342,"暄":2343,"暇":2344,"暈":2345,"暉":2346,"暌":2347,"暐":2348,"暑":2349,"暖":2350,"暗":2351,"暘":2352,"暝":2353,"暢":2354,"暦":2355,"暨":2356,"暫":2357,"暮":2358,"暱":2359,"暳":2360,"暴":2361,"暸":2362,"暹":2363,"曁":2364,"曄":2365,"曆":2366,"曇":2367,"曈":2368,"曉":2369,"曕":2370,"曖":2371,"曙":2372,"曚":2373,"曜":2374,"曝":2375,"曠":2376,"曦":2377,"曨":2378,"曩":2379,"曬":2380,"曰":2381,"曲":2382,"曳":2383,"更":2384,"曷":2385,"書":2386,"曹":2387,"曼":2388,"曾":2389,"替":2390,"最":2391,"會":2392,"月":2393,"有":2394,"朋":2395,"服":2396,"朔":2397,"朕":2398,"朗":2399,"望":2400,"朝":2401,"期":2402,"朦":2403,"朧":2404,"木":2405,"未":2406,"末":2407,"本":2408,"札":2409,"朮":2410,"朱":2411,"朴":2412,"朵":2413,"机":2414,"朽":2415,"杆":2416,"杉":2417,"李":2418,"杏":2419,"材":2420,"村":2421,"杓":2422,"杖":2423,"杙":2424,"杜":2425,"杞":2426,"束":2427,"来":2428,"杭":2429,"杮":2430,"杯":2431,"杰":2432,"東":2433,"杳":2434,"杵":2435,"杷":2436,"松":2437,"板":2438,"枇":2439,"枉":2440,"枋":2441,"析":2442,"枕":2443,"林":2444,"枚":2445,"果":2446,"枝":2447,"枬":2448,"枯":2449,"枰":2450,"枱":2451,"枳":2452,"枴":2453,"架":2454,"枷":2455,"枸":2456,"柄":2457,"柊":2458,"柏":2459,"某":2460,"柑":2461,"柒":2462,"染":2463,"柔":2464,"柘":2465,"柚":2466,"柢":2467,"查":2468,"柩":2469,"柬":2470,"柯":2471,"柱":2472,"柳":2473,"柴":2474,"柵":2475,"査":2476,"柾":2477,"柿":2478,"栃":2479,"栓":2480,"栖":2481,"栗":2482,"栞":2483,"校":2484,"栢":2485,"栩":2486,"株":2487,"核":2488,"根":2489,"格":2490,"栽":2491,"桀":2492,"桁":2493,"桂":2494,"桃":2495,"桅":2496,"框":2497,"案":2498,"桉":2499,"桌":2500,"桎":2501,"桐":2502,"桑":2503,"桓":2504,"桔":2505,"桖":2506,"桜":2507,"桮":2508,"桶":2509,"桿":2510,"梁":2511,"梃":2512,"梅":2513,"梆":2514,"梏":2515,"梓":2516,"梔":2517,"梗":2518,"條":2519,"梟":2520,"梠":2521,"梢":2522,"梦":2523,"梧":2524,"梨":2525,"梭":2526,"梯":2527,"械":2528,"梳":2529,"梵":2530,"梶":2531,"棄":2532,"棉":2533,"棋":2534,"棍":2535,"棒":2536,"棕":2537,"棗":2538,"棘":2539,"棚":2540,"棟":2541,"棠":2542,"棣":2543,"棧":2544,"棪":2545,"森":2546,"棱":2547,"棲":2548,"棵":2549,"棺":2550,"棻":2551,"椅":2552,"植":2553,"椎":2554,"椏":2555,"椒":2556,"椪":2557,"椬":2558,"椰":2559,"椴":2560,"椿":2561,"楂":2562,"楊":2563,"楓":2564,"楔":2565,"楚":2566,"楝":2567,"楞":2568,"楠":2569,"楣":2570,"楨":2571,"楫":2572,"業":2573,"極":2574,"楷":2575,"楹":2576,"楽":2577,"概":2578,"榆":2579,"榔":2580,"榕":2581,"榖":2582,"榛":2583,"榜":2584,"榨":2585,"榫":2586,"榭":2587,"榮":2588,"榴":2589,"榶":2590,"榷":2591,"榻":2592,"槁":2593,"構":2594,"槌":2595,"槍":2596,"槐":2597,"槓":2598,"様":2599,"槤":2600,"槨":2601,"槳":2602,"槽":2603,"槿":2604,"樁":2605,"樂":2606,"樊":2607,"樋":2608,"樑":2609,"樓":2610,"標":2611,"樞":2612,"樟":2613,"模":2614,"樣":2615,"横":2616,"樸":2617,"樹":2618,"樺":2619,"樽":2620,"橄":2621,"橇":2622,"橈":2623,"橋":2624,"橍":2625,"橘":2626,"橙":2627,"機":2628,"橡":2629,"橢":2630,"橫":2631,"檀":2632,"檄":2633,"檎":2634,"檐":2635,"檔":2636,"檜":2637,"檢":2638,"檨":2639,"檬":2640,"檯":2641,"檳":2642,"檸":2643,"檻":2644,"櫂":2645,"櫃":2646,"櫈":2647,"櫓":2648,"櫚":2649,"櫛":2650,"櫟":2651,"櫥":2652,"櫪":2653,"櫫":2654,"櫳":2655,"櫸":2656,"櫺":2657,"櫻":2658,"欄":2659,"欉":2660,"權":2661,"欐":2662,"欒":2663,"欖":2664,"欠":2665,"次":2666,"欣":2667,"欲":2668,"欸":2669,"欹":2670,"欺":2671,"欽":2672,"款":2673,"歇":2674,"歉":2675,"歌":2676,"歎":2677,"歐":2678,"歛":2679,"歡":2680,"止":2681,"正":2682,"此":2683,"步":2684,"武":2685,"歧":2686,"歩":2687,"歪":2688,"歬":2689,"歲":2690,"歳":2691,"歷":2692,"歸":2693,"歹":2694,"死":2695,"歿":2696,"殁":2697,"殂":2698,"殃":2699,"殆":2700,"殉":2701,"殊":2702,"残":2703,"殖":2704,"殘":2705,"殞":2706,"殤":2707,"殫":2708,"殭":2709,"殮":2710,"殯":2711,"殲":2712,"段":2713,"殷":2714,"殺":2715,"殻":2716,"殼":2717,"殿":2718,"毀":2719,"毁":2720,"毅":2721,"毆":2722,"毋":2723,"母":2724,"毎":2725,"每":2726,"毐":2727,"毒":2728,"毓":2729,"比":2730,"毗":2731,"毛":2732,"毫":2733,"毯":2734,"毽":2735,"氂":2736,"氈":2737,"氏":2738,"民":2739,"氓":2740,"氖":2741,"気":2742,"氙":2743,"氚":2744,"氛":2745,"氟":2746,"氣":2747,"氤":2748,"氦":2749,"氧":2750,"氨":2751,"氪":2752,"氫":2753,"氬":2754,"氮":2755,"氯":2756,"氰":2757,"水":2758,"永":2759,"氹":2760,"氾":2761,"汀":2762,"汁":2763,"求":2764,"汆":2765,"汎":2766,"汐":2767,"汔":2768,"汕":2769,"汗":2770,"汙":2771,"汚":2772,"汛":2773,"汝":2774,"汞":2775,"江":2776,"池":2777,"污":2778,"汪":2779,"汰":2780,"汱":2781,"汲":2782,"汴":2783,"汶":2784,"決":2785,"汽":2786,"汾":2787,"沁":2788,"沂":2789,"沃":2790,"沅":2791,"沆":2792,"沈":2793,"沉":2794,"沌":2795,"沐":2796,"沒":2797,"沓":2798,"沖":2799,"沙":2800,"沛":2801,"没":2802,"沢":2803,"沫":2804,"沬":2805,"沮":2806,"沱":2807,"河":2808,"沸":2809,"油":2810,"治":2811,"沼":2812,"沽":2813,"沾":2814,"沿":2815,"況":2816,"泄":2817,"泉":2818,"泊":2819,"泌":2820,"泐":2821,"泓":2822,"法":2823,"泗":2824,"泛":2825,"泡":2826,"波":2827,"泣":2828,"泥":2829,"注":2830,"泪":2831,"泫":2832,"泮":2833,"泯":2834,"泰":2835,"泱":2836,"泳":2837,"泵":2838,"洄":2839,"洋":2840,"洐":2841,"洗":2842,"洙":2843,"洛":2844,"洞":2845,"洢":2846,"津":2847,"洨":2848,"洩":2849,"洪":2850,"洱":2851,"洲":2852,"洵":2853,"洶":2854,"活":2855,"洽":2856,"派":2857,"流":2858,"浄":2859,"浙":2860,"浚":2861,"浜":2862,"浣":2863,"浤":2864,"浥":2865,"浦":2866,"浩":2867,"浪":2868,"浬":2869,"浮":2870,"浯":2871,"浴":2872,"海":2873,"浸":2874,"浹":2875,"涂":2876,"涅":2877,"涇":2878,"消":2879,"涉":2880,"涌":2881,"涎":2882,"涓":2883,"涕":2884,"涪":2885,"涮":2886,"涯":2887,"液":2888,"涵":2889,"涸":2890,"涼":2891,"淀":2892,"淂":2893,"淄":2894,"淅":2895,"淆":2896,"淇":2897,"淋":2898,"淌":2899,"淑":2900,"淒":2901,"淖":2902,"淘":2903,"淚":2904,"淡":2905,"淢":2906,"淤":2907,"淦":2908,"淨":2909,"淩":2910,"淪":2911,"淫":2912,"淬":2913,"淮":2914,"淯":2915,"深":2916,"淳":2917,"淵":2918,"淶":2919,"混":2920,"淸":2921,"淹":2922,"淺":2923,"添":2924,"清":2925,"渉":2926,"渙":2927,"減":2928,"渝":2929,"渟":2930,"渠":2931,"渡":2932,"渣":2933,"渤":2934,"渥":2935,"渦":2936,"温":2937,"測":2938,"渭":2939,"港":2940,"渲":2941,"渴":2942,"游":2943,"渺":2944,"渼":2945,"渾":2946,"湃":2947,"湄":2948,"湊":2949,"湍":2950,"湖":2951,"湘":2952,"湛":2953,"湟":2954,"湧":2955,"湮":2956,"湯":2957,"湳":2958,"湾":2959,"満":2960,"溉":2961,"溏":2962,"源":2963,"準":2964,"溜":2965,"溝":2966,"溢":2967,"溥":2968,"溪":2969,"溫":2970,"溯":2971,"溱":2972,"溶":2973,"溺":2974,"溼":2975,"滂":2976,"滄":2977,"滅":2978,"滇":2979,"滉":2980,"滋":2981,"滌":2982,"滎":2983,"滑":2984,"滔":2985,"滕":2986,"滙":2987,"满":2988,"滬":2989,"滯":2990,"滲":2991,"滴":2992,"滷":2993,"滸":2994,"滾":2995,"滿":2996,"漁":2997,"漂":2998,"漆":2999,"漉":3000,"漏":3001,"漓":3002,"演":3003,"漠":3004,"漢":3005,"漣":3006,"漥":3007,"漩":3008,"漪":3009,"漫":3010,"漬":3011,"漱":3012,"漲":3013,"漳":3014,"漸":3015,"漾":3016,"漿":3017,"潁":3018,"潄":3019,"潑":3020,"潔":3021,"潘":3022,"潛":3023,"潟":3024,"潢":3025,"潤":3026,"潦":3027,"潭":3028,"潮":3029,"潯":3030,"潰":3031,"潸":3032,"潺":3033,"潼":3034,"澀":3035,"澄":3036,"澆":3037,"澇":3038,"澈":3039,"澍":3040,"澎":3041,"澐":3042,"澔":3043,"澗":3044,"澡":3045,"澤":3046,"澧":3047,"澱":3048,"澳":3049,"澹":3050,"激":3051,"濁":3052,"濂":3053,"濃":3054,"濕":3055,"濘":3056,"濛":3057,"濟":3058,"濠":3059,"濡":3060,"濤":3061,"濫":3062,"濬":3063,"濯":3064,"濰":3065,"濱":3066,"濶":3067,"濺":3068,"濾":3069,"瀁":3070,"瀆":3071,"瀉":3072,"瀋":3073,"瀏":3074,"瀑":3075,"瀓":3076,"瀕":3077,"瀚":3078,"瀛":3079,"瀜":3080,"瀝":3081,"瀟":3082,"瀣":3083,"瀧":3084,"瀨":3085,"瀬":3086,"瀰":3087,"瀲":3088,"瀾":3089,"灃":3090,"灌":3091,"灑":3092,"灒":3093,"灕":3094,"灘":3095,"灝":3096,"灣":3097,"灧":3098,"灩":3099,"火":3100,"灰":3101,"灶":3102,"灸":3103,"灼":3104,"災":3105,"炆":3106,"炊":3107,"炎":3108,"炒":3109,"炔":3110,"炖":3111,"炘":3112,"炙":3113,"炤":3114,"炫":3115,"炬":3116,"炭":3117,"炮":3118,"炯":3119,"炳":3120,"炷":3121,"炸":3122,"点":3123,"為":3124,"烈":3125,"烊":3126,"烏":3127,"烘":3128,"烙":3129,"烚":3130,"烝":3131,"烤":3132,"热":3133,"烯":3134,"烴":3135,"烷":3136,"烹":3137,"烽":3138,"烿":3139,"焉":3140,"焊":3141,"焌":3142,"焗":3143,"焙":3144,"焚":3145,"無":3146,"焢":3147,"焦":3148,"焯":3149,"焰":3150,"然":3151,"焼":3152,"煉":3153,"煊":3154,"煌":3155,"煎":3156,"煕":3157,"煙":3158,"煜":3159,"煞":3160,"煤":3161,"煥":3162,"煦":3163,"照":3164,"煨":3165,"煩":3166,"煬":3167,"煮":3168,"煲":3169,"煸":3170,"煽":3171,"熄":3172,"熊":3173,"熏":3174,"熒":3175,"熔":3176,"熖":3177,"熙":3178,"熜":3179,"熟":3180,"熠":3181,"熨":3182,"熬":3183,"熱":3184,"熹":3185,"熾":3186,"燁":3187,"燃":3188,"燄":3189,"燈":3190,"燉":3191,"燎":3192,"燐":3193,"燒":3194,"燕":3195,"燙":3196,"燜":3197,"營":3198,"燠":3199,"燥":3200,"燦":3201,"燧":3202,"燬":3203,"燭":3204,"燴":3205,"燻":3206,"燼":3207,"燿":3208,"爀":3209,"爆":3210,"爈":3211,"爌":3212,"爍":3213,"爐":3214,"爚":3215,"爛":3216,"爪":3217,"爬":3218,"爭":3219,"爰":3220,"爱":3221,"爲":3222,"爵":3223,"父":3224,"爸":3225,"爹":3226,"爺":3227,"爽":3228,"爾":3229,"牀":3230,"牂":3231,"牆":3232,"片":3233,"版":3234,"牌":3235,"牒":3236,"牖":3237,"牘":3238,"牙":3239,"牛":3240,"牟":3241,"牠":3242,"牡":3243,"牢":3244,"牧":3245,"物":3246,"牲":3247,"牴":3248,"特":3249,"牽":3250,"犀":3251,"犁":3252,"犄":3253,"犇":3254,"犒":3255,"犛":3256,"犠":3257,"犡":3258,"犢":3259,"犧":3260,"犬":3261,"犮":3262,"犯":3263,"狀":3264,"狂":3265,"狄":3266,"狎":3267,"狐":3268,"狒":3269,"狗":3270,"狙":3271,"狛":3272,"狠":3273,"狡":3274,"狨":3275,"狩":3276,"狸":3277,"狹":3278,"狺":3279,"狼":3280,"狽":3281,"猁":3282,"猊":3283,"猖":3284,"猗":3285,"猙":3286,"猛":3287,"猜":3288,"猝":3289,"猞":3290,"猥":3291,"猩":3292,"猪":3293,"猫":3294,"猴":3295,"猶":3296,"猷":3297,"猾":3298,"猿":3299,"獁":3300,"獄":3301,"獅":3302,"獎":3303,"獒":3304,"獗":3305,"獠":3306,"獨":3307,"獫":3308,"獬":3309,"獮":3310,"獰":3311,"獲":3312,"獴":3313,"獵":3314,"獷":3315,"獸":3316,"獺":3317,"獻":3318,"獼":3319,"獾":3320,"玄":3321,"玆":3322,"率":3323,"玉":3324,"王":3325,"玖":3326,"玟":3327,"玢":3328,"玥":3329,"玧":3330,"玩":3331,"玫":3332,"现":3333,"玲":3334,"玳":3335,"玷":3336,"玹":3337,"玻":3338,"玼":3339,"珀":3340,"珂":3341,"珅":3342,"珈":3343,"珊":3344,"珍":3345,"珞":3346,"珠":3347,"珥":3348,"珩":3349,"班":3350,"珮":3351,"珺":3352,"現":3353,"琁":3354,"球":3355,"琄":3356,"琅":3357,"理":3358,"琉":3359,"琋":3360,"琚":3361,"琢":3362,"琥":3363,"琦":3364,"琪":3365,"琬":3366,"琮":3367,"琲":3368,"琳":3369,"琴":3370,"琵":3371,"琶":3372,"琹":3373,"琺":3374,"瑀":3375,"瑁":3376,"瑄":3377,"瑈":3378,"瑋":3379,"瑍":3380,"瑕":3381,"瑗":3382,"瑙":3383,"瑚":3384,"瑛":3385,"瑜":3386,"瑞":3387,"瑟":3388,"瑠":3389,"瑣":3390,"瑤":3391,"瑧":3392,"瑨":3393,"瑩":3394,"瑪":3395,"瑯":3396,"瑰":3397,"瑾":3398,"璀":3399,"璃":3400,"璇":3401,"璉":3402,"璋":3403,"璘":3404,"璜":3405,"璞":3406,"璟":3407,"璣":3408,"璦":3409,"璧":3410,"璨":3411,"環":3412,"璽":3413,"瓈":3414,"瓊":3415,"瓏":3416,"瓔":3417,"瓜":3418,"瓢":3419,"瓣":3420,"瓤":3421,"瓦":3422,"瓩":3423,"瓴":3424,"瓶":3425,"瓷":3426,"甄":3427,"甌":3428,"甍":3429,"甕":3430,"甘":3431,"甚":3432,"甜":3433,"生":3434,"產":3435,"産":3436,"甥":3437,"甦":3438,"用":3439,"甩":3440,"甪":3441,"甫":3442,"甬":3443,"甭":3444,"甯":3445,"田":3446,"由":3447,"甲":3448,"申":3449,"男":3450,"甸":3451,"町":3452,"画":3453,"畀":3454,"畇":3455,"界":3456,"畏":3457,"畔":3458,"留":3459,"畚":3460,"畜":3461,"畝":3462,"畢":3463,"略":3464,"畦":3465,"番":3466,"畫":3467,"畬":3468,"畯":3469,"異":3470,"畲":3471,"當":3472,"畸":3473,"畹":3474,"畿":3475,"疆":3476,"疇":3477,"疊":3478,"疋":3479,"疏":3480,"疑":3481,"疔":3482,"疙":3483,"疚":3484,"疝":3485,"疣":3486,"疤":3487,"疫":3488,"疰":3489,"疱":3490,"疲":3491,"疵":3492,"疸":3493,"疹":3494,"疼":3495,"疽":3496,"疾":3497,"痂":3498,"病":3499,"症":3500,"痊":3501,"痍":3502,"痔":3503,"痕":3504,"痘":3505,"痙":3506,"痛":3507,"痞":3508,"痠":3509,"痢":3510,"痣":3511,"痤":3512,"痧":3513,"痰":3514,"痱":3515,"痲":3516,"痴":3517,"痹":3518,"痺":3519,"痼":3520,"痾":3521,"痿":3522,"瘀":3523,"瘁":3524,"瘋":3525,"瘍":3526,"瘓":3527,"瘜":3528,"瘟":3529,"瘠":3530,"瘡":3531,"瘤":3532,"瘦":3533,"瘧":3534,"瘩":3535,"瘴":3536,"瘸":3537,"瘻":3538,"瘼":3539,"癀":3540,"療":3541,"癆":3542,"癇":3543,"癌":3544,"癒":3545,"癖":3546,"癘":3547,"癟":3548,"癡":3549,"癢":3550,"癥":3551,"癬":3552,"癮":3553,"癰":3554,"癱":3555,"癲":3556,"癸":3557,"発":3558,"登":3559,"發":3560,"白":3561,"百":3562,"皂":3563,"的":3564,"皆":3565,"皇":3566,"皈":3567,"皎":3568,"皐":3569,"皓":3570,"皖":3571,"皙":3572,"皚":3573,"皪":3574,"皮":3575,"皰":3576,"皴":3577,"皺":3578,"皿":3579,"盂":3580,"盃":3581,"盅":3582,"盆":3583,"盈":3584,"益":3585,"盎":3586,"盒":3587,"盔":3588,"盗":3589,"盙":3590,"盛":3591,"盜":3592,"盞":3593,"盟":3594,"盡":3595,"監":3596,"盤":3597,"盥":3598,"盧":3599,"盪":3600,"目":3601,"盯":3602,"盱":3603,"盲":3604,"直":3605,"相":3606,"盹":3607,"盼":3608,"盾":3609,"省":3610,"眈":3611,"眉":3612,"看":3613,"県":3614,"眛":3615,"眞":3616,"真":3617,"眠":3618,"眨":3619,"眩":3620,"眭":3621,"眶":3622,"眷":3623,"眸":3624,"眺":3625,"眼":3626,"眾":3627,"着":3628,"睇":3629,"睏":3630,"睒":3631,"睛":3632,"睜":3633,"睞":3634,"睡":3635,"睢":3636,"督":3637,"睥":3638,"睦":3639,"睨":3640,"睪":3641,"睫":3642,"睬":3643,"睹":3644,"睽":3645,"睾":3646,"睿":3647,"瞄":3648,"瞇":3649,"瞌":3650,"瞎":3651,"瞑":3652,"瞓":3653,"瞞":3654,"瞟":3655,"瞠":3656,"瞥":3657,"瞧":3658,"瞪":3659,"瞬":3660,"瞭":3661,"瞰":3662,"瞳":3663,"瞻":3664,"瞼":3665,"矇":3666,"矍":3667,"矓":3668,"矗":3669,"矚":3670,"矛":3671,"矜":3672,"矢":3673,"矣":3674,"知":3675,"矧":3676,"矩":3677,"短":3678,"矮":3679,"矯":3680,"石":3681,"矸":3682,"矻":3683,"矽":3684,"砂":3685,"砌":3686,"砍":3687,"砒":3688,"研":3689,"砝":3690,"砥":3691,"砦":3692,"砧":3693,"砭":3694,"砰":3695,"砲":3696,"破":3697,"砷":3698,"砸":3699,"硃":3700,"硅":3701,"硏":3702,"硐":3703,"硒":3704,"硝":3705,"硫":3706,"硬":3707,"确":3708,"硯":3709,"硼":3710,"碁":3711,"碇":3712,"碉":3713,"碌":3714,"碎":3715,"碑":3716,"碗":3717,"碘":3718,"碟":3719,"碧":3720,"碩":3721,"碰":3722,"碲":3723,"碳":3724,"碴":3725,"碸":3726,"確":3727,"碼":3728,"碾":3729,"磁":3730,"磅":3731,"磊":3732,"磋":3733,"磐":3734,"磕":3735,"磚":3736,"磡":3737,"磨":3738,"磯":3739,"磷":3740,"磺":3741,"礁":3742,"礎":3743,"礑":3744,"礙":3745,"礡":3746,"礦":3747,"礪":3748,"礫":3749,"礴":3750,"示":3751,"社":3752,"祀":3753,"祂":3754,"祇":3755,"祈":3756,"祉":3757,"祐":3758,"祓":3759,"祕":3760,"祖":3761,"祛":3762,"祜":3763,"祝":3764,"神":3765,"祟":3766,"祠":3767,"祢":3768,"祥":3769,"票":3770,"祭":3771,"祺":3772,"祼":3773,"祿":3774,"禀":3775,"禁":3776,"禊":3777,"禍":3778,"禎":3779,"福":3780,"禓":3781,"禕":3782,"禛":3783,"禤":3784,"禦":3785,"禧":3786,"禩":3787,"禪":3788,"禮":3789,"禰":3790,"禱":3791,"禳":3792,"禹":3793,"禽":3794,"禾":3795,"禿":3796,"秀":3797,"私":3798,"秃":3799,"秉":3800,"秋":3801,"秏":3802,"秐":3803,"科":3804,"秒":3805,"秘":3806,"秞":3807,"租":3808,"秤":3809,"秦":3810,"秧":3811,"秩":3812,"移":3813,"稀":3814,"稅":3815,"稈":3816,"稉":3817,"程":3818,"稍":3819,"税":3820,"稔":3821,"稕":3822,"稗":3823,"稚":3824,"稜":3825,"稟":3826,"稠":3827,"種":3828,"稱":3829,"稲":3830,"稷":3831,"稻":3832,"稼":3833,"稽":3834,"稿":3835,"穀":3836,"穆":3837,"穌":3838,"積":3839,"穎":3840,"穏":3841,"穗":3842,"穠":3843,"穢":3844,"穩":3845,"穫":3846,"穴":3847,"究":3848,"穹":3849,"空":3850,"穿":3851,"突":3852,"窄":3853,"窈":3854,"窒":3855,"窕":3856,"窖":3857,"窗":3858,"窘":3859,"窟":3860,"窠":3861,"窣":3862,"窩":3863,"窪":3864,"窮":3865,"窯":3866,"窴":3867,"窸":3868,"窺":3869,"窿":3870,"竄":3871,"竅":3872,"竇":3873,"竈":3874,"竉":3875,"竊":3876,"立":3877,"竑":3878,"站":3879,"竜":3880,"竟":3881,"章":3882,"竣":3883,"童":3884,"竭":3885,"端":3886,"競":3887,"竸":3888,"竹":3889,"竺":3890,"竿":3891,"笅":3892,"笈":3893,"笑":3894,"笙":3895,"笛":3896,"笠":3897,"符":3898,"笨":3899,"笫":3900,"第":3901,"笭":3902,"笹":3903,"筆":3904,"等":3905,"筊":3906,"筋":3907,"筍":3908,"筏":3909,"筐":3910,"筑":3911,"筒":3912,"答":3913,"策":3914,"筠":3915,"筢":3916,"筱":3917,"筴":3918,"筶":3919,"筷":3920,"箇":3921,"箋":3922,"箍":3923,"箏":3924,"箔":3925,"箕":3926,"算":3927,"箝":3928,"管":3929,"箬":3930,"箭":3931,"箱":3932,"箴":3933,"箸":3934,"節":3935,"範":3936,"篆":3937,"篇":3938,"築":3939,"篝":3940,"篠":3941,"篡":3942,"篤":3943,"篩":3944,"篳":3945,"篷":3946,"簇":3947,"簌":3948,"簍":3949,"簏":3950,"簑":3951,"簝":3952,"簡":3953,"簣":3954,"簧":3955,"簫":3956,"簷":3957,"簸":3958,"簽":3959,"簾":3960,"簿":3961,"籃":3962,"籌":3963,"籍":3964,"籐":3965,"籟":3966,"籠":3967,"籤":3968,"籬":3969,"籮":3970,"籲":3971,"米":3972,"籽":3973,"籾":3974,"粄":3975,"粉":3976,"粑":3977,"粒":3978,"粕":3979,"粗":3980,"粘":3981,"粙":3982,"粛":3983,"粟":3984,"粥":3985,"粧":3986,"粱":3987,"粵":3988,"粹":3989,"粼":3990,"粽":3991,"精":3992,"粿":3993,"糅":3994,"糊":3995,"糍":3996,"糕":3997,"糖":3998,"糗":3999,"糙":4000,"糜":4001,"糞":4002,"糟":4003,"糠":4004,"糢":4005,"糥":4006,"糧":4007,"糨":4008,"糬":4009,"糯":4010,"糰":4011,"糶":4012,"糸":4013,"系":4014,"糾":4015,"紀":4016,"紂":4017,"約":4018,"紅":4019,"紆":4020,"紇":4021,"紉":4022,"紊":4023,"紋":4024,"納":4025,"紐":4026,"紓":4027,"純":4028,"紕":4029,"紗":4030,"紘":4031,"紙":4032,"級":4033,"紛":4034,"紜":4035,"素":4036,"紡":4037,"索":4038,"紫":4039,"紮":4040,"累":4041,"細":4042,"紳":4043,"紹":4044,"絀":4045,"終":4046,"絃":4047,"組":4048,"絆":4049,"経":4050,"結":4051,"絕":4052,"絛":4053,"絜":4054,"絞":4055,"絡":4056,"絢":4057,"給":4058,"絨":4059,"絮":4060,"統":4061,"絲":4062,"絳":4063,"絶":4064,"絹":4065,"綁":4066,"綉":4067,"綏":4068,"綑":4069,"經":4070,"継":4071,"続":4072,"綜":4073,"綠":4074,"綢":4075,"綣":4076,"綫":4077,"綬":4078,"維":4079,"綰":4080,"綱":4081,"網":4082,"綴":4083,"綵":4084,"綸":4085,"綹":4086,"綺":4087,"綻":4088,"綽":4089,"綾":4090,"綿":4091,"緃":4092,"緊":4093,"緋":4094,"総":4095,"緑":4096,"緒":4097,"緘":4098,"線":4099,"緝":4100,"緞":4101,"締":4102,"緣":4103,"編":4104,"緩":4105,"緬":4106,"緯":4107,"緱":4108,"緲":4109,"練":4110,"緹":4111,"緻":4112,"縈":4113,"縉":4114,"縊":4115,"縐":4116,"縛":4117,"縝":4118,"縣":4119,"縧":4120,"縫":4121,"縭":4122,"縮":4123,"縱":4124,"縴":4125,"縷":4126,"縹":4127,"總":4128,"績":4129,"繁":4130,"繃":4131,"繆":4132,"繋":4133,"織":4134,"繕":4135,"繚":4136,"繞":4137,"繡":4138,"繩":4139,"繪":4140,"繫":4141,"繭":4142,"繳":4143,"繹":4144,"繼":4145,"繽":4146,"繾":4147,"纂":4148,"續":4149,"纍":4150,"纏":4151,"纓":4152,"纔":4153,"纖":4154,"纘":4155,"纜":4156,"红":4157,"级":4158,"纪":4159,"纯":4160,"纸":4161,"纾":4162,"组":4163,"细":4164,"结":4165,"给":4166,"统":4167,"绰":4168,"缐":4169,"缓":4170,"缘":4171,"缷":4172,"缸":4173,"缺":4174,"缽":4175,"罄":4176,"罈":4177,"罍":4178,"罐":4179,"网":4180,"罔":4181,"罕":4182,"罘":4183,"罟":4184,"罨":4185,"罩":4186,"罪":4187,"置":4188,"罰":4189,"署":4190,"罵":4191,"罷":4192,"罹":4193,"羅":4194,"羈":4195,"羊":4196,"羌":4197,"美":4198,"羔":4199,"羚":4200,"羞":4201,"羡":4202,"群":4203,"羥":4204,"羨":4205,"義":4206,"羮":4207,"羯":4208,"羲":4209,"羶":4210,"羸":4211,"羹":4212,"羽":4213,"羿":4214,"翀":4215,"翁":4216,"翅":4217,"翊":4218,"翌":4219,"翎":4220,"習":4221,"翔":4222,"翟":4223,"翠":4224,"翡":4225,"翩":4226,"翬":4227,"翰":4228,"翱":4229,"翹":4230,"翻":4231,"翼":4232,"耀":4233,"老":4234,"考":4235,"耄":4236,"者":4237,"耆":4238,"耋":4239,"而":4240,"耍":4241,"耐":4242,"耕":4243,"耗":4244,"耘":4245,"耙":4246,"耦":4247,"耳":4248,"耶":4249,"耽":4250,"耿":4251,"聆":4252,"聊":4253,"聎":4254,"聒":4255,"联":4256,"聖":4257,"聘":4258,"聚":4259,"聞":4260,"聯":4261,"聰":4262,"聲":4263,"聳":4264,"聴":4265,"聶":4266,"職":4267,"聼":4268,"聽":4269,"聾":4270,"聿":4271,"肄":4272,"肅":4273,"肆":4274,"肇":4275,"肉":4276,"肋":4277,"肌":4278,"肓":4279,"肖":4280,"肘":4281,"肚":4282,"肛":4283,"肝":4284,"股":4285,"肢":4286,"肥":4287,"肩":4288,"肪":4289,"肫":4290,"肯":4291,"肱":4292,"育":4293,"肴":4294,"肺":4295,"肽":4296,"胃":4297,"胄":4298,"胆":4299,"背":4300,"胎":4301,"胖":4302,"胗":4303,"胚":4304,"胛":4305,"胜":4306,"胝":4307,"胞":4308,"胡":4309,"胤":4310,"胥":4311,"胭":4312,"胯":4313,"胰":4314,"胱":4315,"胳":4316,"胴":4317,"胸":4318,"胺":4319,"胼":4320,"能":4321,"脂":4322,"脅":4323,"脆":4324,"脇":4325,"脈":4326,"脉":4327,"脊":4328,"脖":4329,"脘":4330,"脚":4331,"脛":4332,"脢":4333,"脣":4334,"脧":4335,"脩":4336,"脫":4337,"脯":4338,"脱":4339,"脹":4340,"脾":4341,"腆":4342,"腈":4343,"腋":4344,"腎":4345,"腐":4346,"腑":4347,"腓":4348,"腔":4349,"腕":4350,"腠":4351,"腥":4352,"腦":4353,"腩":4354,"腫":4355,"腮":4356,"腰":4357,"腱":4358,"腳":4359,"腴":4360,"腸":4361,"腹":4362,"腺":4363,"腻":4364,"腿":4365,"膀":4366,"膈":4367,"膊":4368,"膏":4369,"膕":4370,"膚":4371,"膛":4372,"膜":4373,"膝":4374,"膠":4375,"膨":4376,"膩":4377,"膳":4378,"膴":4379,"膺":4380,"膻":4381,"膽":4382,"膾":4383,"膿":4384,"臀":4385,"臂":4386,"臃":4387,"臆":4388,"臉":4389,"臊":4390,"臍":4391,"臗":4392,"臘":4393,"臚":4394,"臟":4395,"臣":4396,"臥":4397,"臧":4398,"臨":4399,"自":4400,"臬":4401,"臭":4402,"至":4403,"致":4404,"臺":4405,"臻":4406,"臼":4407,"舀":4408,"舅":4409,"舆":4410,"與":4411,"興":4412,"舉":4413,"舊":4414,"舌":4415,"舍":4416,"舐":4417,"舒":4418,"舔":4419,"舖":4420,"舗":4421,"舘":4422,"舛":4423,"舜":4424,"舞":4425,"舟":4426,"舢":4427,"舨":4428,"航":4429,"般":4430,"舵":4431,"舶":4432,"舷":4433,"船":4434,"舺":4435,"艇":4436,"艉":4437,"艋":4438,"艏":4439,"艘":4440,"艙":4441,"艤":4442,"艦":4443,"良":4444,"艱":4445,"色":4446,"艷":4447,"艸":4448,"艾":4449,"芃":4450,"芊":4451,"芋":4452,"芍":4453,"芎":4454,"芒":4455,"芙":4456,"芛":4457,"芝":4458,"芠":4459,"芡":4460,"芢":4461,"芥":4462,"芧":4463,"芩":4464,"芫":4465,"芬":4466,"芭":4467,"芮":4468,"芯":4469,"花":4470,"芳":4471,"芷":4472,"芸":4473,"芹":4474,"芻":4475,"芽":4476,"苑":4477,"苒":4478,"苓":4479,"苔":4480,"苖":4481,"苗":4482,"苙":4483,"苛":4484,"苜":4485,"苞":4486,"苟":4487,"苡":4488,"苣":4489,"若":4490,"苦":4491,"苧":4492,"苯":4493,"英":4494,"苳":4495,"苷":4496,"苺":4497,"苿":4498,"茁":4499,"茂":4500,"范":4501,"茄":4502,"茅":4503,"茉":4504,"茗":4505,"茜":4506,"茨":4507,"茫":4508,"茭":4509,"茯":4510,"茱":4511,"茲":4512,"茴":4513,"茵":4514,"茶":4515,"茸":4516,"茹":4517,"茼":4518,"荀":4519,"荃":4520,"草":4521,"荊":4522,"荏":4523,"荐":4524,"荒":4525,"荔":4526,"荖":4527,"荳":4528,"荷":4529,"荸":4530,"荻":4531,"荼":4532,"荽":4533,"莆":4534,"莉":4535,"莊":4536,"莎":4537,"莒":4538,"莓":4539,"莖":4540,"莘":4541,"莛":4542,"莞":4543,"莠":4544,"莢":4545,"莧":4546,"莪":4547,"莫":4548,"莽":4549,"莿":4550,"菀":4551,"菁":4552,"菅":4553,"菇":4554,"菈":4555,"菉":4556,"菊":4557,"菌":4558,"菏":4559,"菓":4560,"菖":4561,"菘":4562,"菜":4563,"菟":4564,"菠":4565,"菩":4566,"華":4567,"菰":4568,"菱":4569,"菲":4570,"菸":4571,"萁":4572,"萃":4573,"萄":4574,"萊":4575,"萌":4576,"萍":4577,"萎":4578,"萓":4579,"萜":4580,"萣":4581,"萬":4582,"萱":4583,"萵":4584,"萼":4585,"落":4586,"葆":4587,"葉":4588,"葑":4589,"葒":4590,"著":4591,"葚":4592,"葛":4593,"葡":4594,"董":4595,"葦":4596,"葩":4597,"葫":4598,"葬":4599,"葭":4600,"葯":4601,"葱":4602,"葳":4603,"葵":4604,"葶":4605,"葷":4606,"葺":4607,"蒂":4608,"蒐":4609,"蒔":4610,"蒙":4611,"蒜":4612,"蒞":4613,"蒟":4614,"蒡":4615,"蒲":4616,"蒸":4617,"蒻":4618,"蒼":4619,"蒽":4620,"蒿":4621,"蓁":4622,"蓄":4623,"蓆":4624,"蓉":4625,"蓊":4626,"蓋":4627,"蓓":4628,"蓬":4629,"蓮":4630,"蓿":4631,"蔑":4632,"蔓":4633,"蔔":4634,"蔗":4635,"蔘":4636,"蔚":4637,"蔡":4638,"蔣":4639,"蔥":4640,"蔦":4641,"蔫":4642,"蔬":4643,"蔭":4644,"蔴":4645,"蔻":4646,"蔽":4647,"蕁":4648,"蕃":4649,"蕈":4650,"蕉":4651,"蕊":4652,"蕎":4653,"蕗":4654,"蕙":4655,"蕨":4656,"蕩":4657,"蕪":4658,"蕫":4659,"蕭":4660,"蕯":4661,"蕷":4662,"蕾":4663,"薄":4664,"薇":4665,"薈":4666,"薊":4667,"薏":4668,"薑":4669,"薔":4670,"薛":4671,"薦":4672,"薨":4673,"薩":4674,"薪":4675,"薫":4676,"薯":4677,"薰":4678,"薺":4679,"薾":4680,"藉":4681,"藍":4682,"藏":4683,"藐":4684,"藕":4685,"藜":4686,"藝":4687,"藤":4688,"藥":4689,"藩":4690,"藪":4691,"藴":4692,"藷":4693,"藹":4694,"藺":4695,"藻":4696,"藿":4697,"蘅":4698,"蘆":4699,"蘇":4700,"蘊":4701,"蘋":4702,"蘑":4703,"蘩":4704,"蘭":4705,"蘸":4706,"蘿":4707,"虌":4708,"虎":4709,"虐":4710,"虔":4711,"處":4712,"虚":4713,"虛":4714,"虜":4715,"虞":4716,"號":4717,"虧":4718,"虫":4719,"虬":4720,"虯":4721,"虱":4722,"虹":4723,"虻":4724,"蚊":4725,"蚋":4726,"蚌":4727,"蚓":4728,"蚜":4729,"蚣":4730,"蚤":4731,"蚪":4732,"蚯":4733,"蚱":4734,"蚴":4735,"蚵":4736,"蚶":4737,"蛀":4738,"蛆":4739,"蛇":4740,"蛋":4741,"蛔":4742,"蛙":4743,"蛛":4744,"蛞":4745,"蛟":4746,"蛤":4747,"蛭":4748,"蛹":4749,"蛻":4750,"蛾":4751,"蜀":4752,"蜂":4753,"蜆":4754,"蜇":4755,"蜈":4756,"蜊":4757,"蜍":4758,"蜒":4759,"蜓":4760,"蜘":4761,"蜚":4762,"蜜":4763,"蜢":4764,"蜥":4765,"蜴":4766,"蜷":4767,"蜻":4768,"蜿":4769,"蝌":4770,"蝎":4771,"蝓":4772,"蝕":4773,"蝗":4774,"蝙":4775,"蝞":4776,"蝟":4777,"蝠":4778,"蝦":4779,"蝨":4780,"蝮":4781,"蝴":4782,"蝶":4783,"蝸":4784,"蝽":4785,"螂":4786,"螃":4787,"螄":4788,"螈":4789,"融":4790,"螞":4791,"螟":4792,"螢":4793,"螨":4794,"螫":4795,"螭":4796,"螯":4797,"螳":4798,"螺":4799,"螻":4800,"蟀":4801,"蟄":4802,"蟋":4803,"蟎":4804,"蟑":4805,"蟒":4806,"蟠":4807,"蟬":4808,"蟲":4809,"蟳":4810,"蟹":4811,"蟻":4812,"蟾":4813,"蠃":4814,"蠅":4815,"蠊":4816,"蠍":4817,"蠑":4818,"蠓":4819,"蠔":4820,"蠕":4821,"蠟":4822,"蠢":4823,"蠣":4824,"蠱":4825,"蠵":4826,"蠶":4827,"蠻":4828,"血":4829,"衆":4830,"衊":4831,"行":4832,"衍":4833,"術":4834,"街":4835,"衙":4836,"衛":4837,"衝":4838,"衞":4839,"衡":4840,"衢":4841,"衣":4842,"表":4843,"衩":4844,"衪":4845,"衫":4846,"衰":4847,"衷":4848,"衹":4849,"袁":4850,"袂":4851,"袈":4852,"袋":4853,"袍":4854,"袒":4855,"袓":4856,"袖":4857,"袞":4858,"袤":4859,"袪":4860,"被":4861,"袱":4862,"裁":4863,"裂":4864,"装":4865,"裊":4866,"裎":4867,"裏":4868,"裔":4869,"裕":4870,"裘":4871,"裙":4872,"補":4873,"裝":4874,"裟":4875,"裡":4876,"裨":4877,"裩":4878,"裬":4879,"裱":4880,"裳":4881,"裴":4882,"裵":4883,"裸":4884,"裹":4885,"製":4886,"褂":4887,"複":4888,"褐":4889,"褒":4890,"褓":4891,"褔":4892,"褕":4893,"褚":4894,"褥":4895,"褪":4896,"褫":4897,"褲":4898,"褵":4899,"褶":4900,"褸":4901,"褻":4902,"襁":4903,"襄":4904,"襎":4905,"襖":4906,"襝":4907,"襟":4908,"襠":4909,"襤":4910,"襪":4911,"襬":4912,"襯":4913,"襲":4914,"西":4915,"要":4916,"覃":4917,"覆":4918,"見":4919,"規":4920,"覓":4921,"視":4922,"覚":4923,"覦":4924,"覧":4925,"親":4926,"覬":4927,"覲":4928,"覷":4929,"覺":4930,"覽":4931,"觀":4932,"见":4933,"角":4934,"觔":4935,"解":4936,"觥":4937,"觴":4938,"觸":4939,"言":4940,"訂":4941,"訃":4942,"計":4943,"訊":4944,"訌":4945,"討":4946,"訐":4947,"訓":4948,"訕":4949,"訖":4950,"託":4951,"記":4952,"訛":4953,"訝":4954,"訟":4955,"訢":4956,"訣":4957,"訥":4958,"訪":4959,"設":4960,"許":4961,"訴":4962,"訶":4963,"診":4964,"註":4965,"証":4966,"訾":4967,"詆":4968,"詐":4969,"詑":4970,"詔":4971,"評":4972,"詛":4973,"詞":4974,"詠":4975,"詡":4976,"詢":4977,"詣":4978,"試":4979,"詩":4980,"詫":4981,"詬":4982,"詭":4983,"詮":4984,"詰":4985,"話":4986,"該":4987,"詳":4988,"詹":4989,"詼":4990,"誅":4991,"誆":4992,"誇":4993,"誌":4994,"認":4995,"誒":4996,"誓":4997,"誔":4998,"誕":4999,"誘":5000,"語":5001,"誠":5002,"誡":5003,"誣":5004,"誤":5005,"誥":5006,"誦":5007,"誨":5008,"說":5009,"説":5010,"読":5011,"誰":5012,"課":5013,"誹":5014,"誼":5015,"調":5016,"諄":5017,"談":5018,"諉":5019,"請":5020,"諏":5021,"諒":5022,"論":5023,"諗":5024,"諛":5025,"諜":5026,"諠":5027,"諡":5028,"諦":5029,"諧":5030,"諫":5031,"諭":5032,"諮":5033,"諱":5034,"諳":5035,"諴":5036,"諶":5037,"諷":5038,"諸":5039,"諺":5040,"諼":5041,"諾":5042,"謀":5043,"謁":5044,"謂":5045,"謄":5046,"謅":5047,"謊":5048,"謎":5049,"謐":5050,"謔":5051,"謖":5052,"謗":5053,"謙":5054,"講":5055,"謝":5056,"謠":5057,"謢":5058,"謦":5059,"謨":5060,"謫":5061,"謬":5062,"謳":5063,"謹":5064,"謾":5065,"譁":5066,"證":5067,"譎":5068,"譏":5069,"識":5070,"譙":5071,"譚":5072,"譜":5073,"譟":5074,"警":5075,"譬":5076,"譯":5077,"議":5078,"譴":5079,"護":5080,"譽":5081,"讀":5082,"讃":5083,"讉":5084,"變":5085,"讒":5086,"讓":5087,"讖":5088,"讚":5089,"讞":5090,"诉":5091,"诊":5092,"说":5093,"谢":5094,"谷":5095,"谿":5096,"豁":5097,"豆":5098,"豇":5099,"豈":5100,"豉":5101,"豊":5102,"豌":5103,"豎":5104,"豐":5105,"豔":5106,"豚":5107,"象":5108,"豢":5109,"豪":5110,"豫":5111,"豬":5112,"豹":5113,"豺":5114,"貂":5115,"貅":5116,"貉":5117,"貌":5118,"貍":5119,"貎":5120,"貓":5121,"貔":5122,"貘":5123,"貝":5124,"貞":5125,"負":5126,"財":5127,"貢":5128,"貧":5129,"貨":5130,"販":5131,"貪":5132,"貫":5133,"責":5134,"貯":5135,"貲":5136,"貳":5137,"貴":5138,"貶":5139,"買":5140,"貸":5141,"費":5142,"貼":5143,"貽":5144,"貿":5145,"賀":5146,"賁":5147,"賂":5148,"賃":5149,"賄":5150,"賅":5151,"資":5152,"賈":5153,"賊":5154,"賑":5155,"賒":5156,"賓":5157,"賚":5158,"賜":5159,"賞":5160,"賠":5161,"賡":5162,"賢":5163,"賣":5164,"賤":5165,"賦":5166,"質":5167,"賬":5168,"賭":5169,"賴":5170,"賸":5171,"賺":5172,"購":5173,"賽":5174,"贅":5175,"贈":5176,"贊":5177,"贋":5178,"贍":5179,"贏":5180,"贓":5181,"贖":5182,"贗":5183,"贛":5184,"赢":5185,"赤":5186,"赦":5187,"赫":5188,"赭":5189,"走":5190,"赳":5191,"赴":5192,"起":5193,"趁":5194,"超":5195,"越":5196,"趕":5197,"趙":5198,"趟":5199,"趣":5200,"趨":5201,"足":5202,"趴":5203,"趾":5204,"跆":5205,"跋":5206,"跌":5207,"跎":5208,"跑":5209,"跘":5210,"跚":5211,"跛":5212,"距":5213,"跟":5214,"跡":5215,"跣":5216,"跤":5217,"跨":5218,"跩":5219,"跪":5220,"路":5221,"跳":5222,"跺":5223,"踉":5224,"踏":5225,"踐":5226,"踝":5227,"踞":5228,"踢":5229,"踩":5230,"踪":5231,"踫":5232,"踮":5233,"踰":5234,"踱":5235,"踴":5236,"踵":5237,"踹":5238,"蹂":5239,"蹄":5240,"蹇":5241,"蹈":5242,"蹉":5243,"蹊":5244,"蹋":5245,"蹌":5246,"蹓":5247,"蹕":5248,"蹟":5249,"蹣":5250,"蹤":5251,"蹦":5252,"蹩":5253,"蹬":5254,"蹭":5255,"蹲":5256,"蹴":5257,"蹶":5258,"蹺":5259,"蹼":5260,"躁":5261,"躄":5262,"躇":5263,"躉":5264,"躊":5265,"躋":5266,"躍":5267,"躑":5268,"躡":5269,"躥":5270,"躦":5271,"躪":5272,"身":5273,"躬":5274,"躲":5275,"躺":5276,"軀":5277,"車":5278,"軋":5279,"軌":5280,"軍":5281,"軒":5282,"軔":5283,"軚":5284,"軛":5285,"軟":5286,"転":5287,"軫":5288,"軮":5289,"軰":5290,"軸":5291,"軻":5292,"軼":5293,"軽":5294,"軾":5295,"較":5296,"載":5297,"輊":5298,"輒":5299,"輓":5300,"輔":5301,"輕":5302,"輚":5303,"輛":5304,"輜":5305,"輝":5306,"輟":5307,"輦":5308,"輩":5309,"輪":5310,"輯":5311,"輸":5312,"輻":5313,"輾":5314,"輿":5315,"轂":5316,"轄":5317,"轅":5318,"轆":5319,"轉":5320,"轍":5321,"轎":5322,"轟":5323,"车":5324,"辛":5325,"辜":5326,"辟":5327,"辣":5328,"辦":5329,"辧":5330,"辨":5331,"辭":5332,"辮":5333,"辯":5334,"辰":5335,"辱":5336,"農":5337,"辶":5338,"辺":5339,"辻":5340,"込":5341,"达":5342,"迂":5343,"迄":5344,"迅":5345,"迌":5346,"迎":5347,"近":5348,"迓":5349,"返":5350,"还":5351,"这":5352,"迢":5353,"迥":5354,"迦":5355,"迪":5356,"迫":5357,"迭":5358,"述":5359,"迴":5360,"迷":5361,"迸":5362,"迹":5363,"迺":5364,"追":5365,"退":5366,"送":5367,"逃":5368,"逅":5369,"逆":5370,"逍":5371,"透":5372,"逐":5373,"途":5374,"逕":5375,"逗":5376,"這":5377,"通":5378,"逛":5379,"逝":5380,"逞":5381,"速":5382,"造":5383,"逡":5384,"逢":5385,"連":5386,"逭":5387,"逮":5388,"週":5389,"進":5390,"逵":5391,"逸":5392,"逹":5393,"逼":5394,"逾":5395,"遁":5396,"遂":5397,"遇":5398,"遊":5399,"運":5400,"遍":5401,"過":5402,"遏":5403,"遐":5404,"遑":5405,"道":5406,"達":5407,"違":5408,"遙":5409,"遛":5410,"遜":5411,"遝":5412,"遞":5413,"遠":5414,"遢":5415,"遣":5416,"遥":5417,"遨":5418,"適":5419,"遭":5420,"遮":5421,"遲":5422,"遴":5423,"遵":5424,"遶":5425,"遷":5426,"選":5427,"遺":5428,"遼":5429,"遽":5430,"避":5431,"邀":5432,"邁":5433,"邂":5434,"邃":5435,"還":5436,"邇":5437,"邈":5438,"邉":5439,"邊":5440,"邋":5441,"邏":5442,"邑":5443,"邕":5444,"邙":5445,"邢":5446,"那":5447,"邦":5448,"邨":5449,"邪":5450,"邯":5451,"邰":5452,"邱":5453,"邳":5454,"邵":5455,"邸":5456,"郁":5457,"郊":5458,"郎":5459,"郗":5460,"郝":5461,"郡":5462,"部":5463,"郭":5464,"郵":5465,"郷":5466,"都":5467,"鄂":5468,"鄆":5469,"鄉":5470,"鄒":5471,"鄔":5472,"鄕":5473,"鄙":5474,"鄞":5475,"鄧":5476,"鄭":5477,"鄰":5478,"鄲":5479,"鄴":5480,"鄺":5481,"酈":5482,"酉":5483,"酊":5484,"酋":5485,"酌":5486,"配":5487,"酒":5488,"酗":5489,"酚":5490,"酣":5491,"酥":5492,"酩":5493,"酪":5494,"酬":5495,"酮":5496,"酯":5497,"酵":5498,"酶":5499,"酷":5500,"酸":5501,"醂":5502,"醃":5503,"醇":5504,"醉":5505,"醋":5506,"醌":5507,"醍":5508,"醐":5509,"醒":5510,"醛":5511,"醜":5512,"醞":5513,"醣":5514,"醫":5515,"醬":5516,"醮":5517,"醯":5518,"醱":5519,"醴":5520,"醸":5521,"醺":5522,"釀":5523,"釁":5524,"采":5525,"釉":5526,"釋":5527,"里":5528,"重":5529,"野":5530,"量":5531,"釐":5532,"金":5533,"釔":5534,"釕":5535,"釗":5536,"釘":5537,"釜":5538,"針":5539,"釣":5540,"釦":5541,"釧":5542,"釨":5543,"釩":5544,"釵":5545,"鈀":5546,"鈅":5547,"鈈":5548,"鈉":5549,"鈊":5550,"鈍":5551,"鈎":5552,"鈐":5553,"鈑":5554,"鈔":5555,"鈕":5556,"鈞":5557,"鈣":5558,"鈦":5559,"鈴":5560,"鈷":5561,"鈺":5562,"鈽":5563,"鈾":5564,"鈿":5565,"鉀":5566,"鉄":5567,"鉅":5568,"鉉":5569,"鉍":5570,"鉑":5571,"鉗":5572,"鉚":5573,"鉛":5574,"鉢":5575,"鉤":5576,"鉬":5577,"鉭":5578,"鉸":5579,"鉻":5580,"鉾":5581,"鉿":5582,"銀":5583,"銃":5584,"銅":5585,"銑":5586,"銓":5587,"銖":5588,"銘":5589,"銜":5590,"銠":5591,"銥":5592,"銨":5593,"銪":5594,"銫":5595,"銬":5596,"銲":5597,"銳":5598,"銷":5599,"銹":5600,"銻":5601,"銼":5602,"鋁":5603,"鋅":5604,"鋉":5605,"鋌":5606,"鋏":5607,"鋐":5608,"鋒":5609,"鋗":5610,"鋤":5611,"鋪":5612,"鋯":5613,"鋰":5614,"鋸":5615,"鋼":5616,"錄":5617,"錆":5618,"錐":5619,"錘":5620,"錙":5621,"錚":5622,"錛":5623,"錠":5624,"錡":5625,"錢":5626,"錤":5627,"錦":5628,"錧":5629,"錨":5630,"錩":5631,"錫":5632,"錮":5633,"錯":5634,"録":5635,"錳":5636,"錶":5637,"錸":5638,"錼":5639,"鍊":5640,"鍋":5641,"鍍":5642,"鍘":5643,"鍚":5644,"鍛":5645,"鍠":5646,"鍥":5647,"鍬":5648,"鍮":5649,"鍰":5650,"鍵":5651,"鍶":5652,"鍾":5653,"鎂":5654,"鎊":5655,"鎏":5656,"鎔":5657,"鎖":5658,"鎗":5659,"鎘":5660,"鎚":5661,"鎢":5662,"鎧":5663,"鎩":5664,"鎮":5665,"鎯":5666,"鎰":5667,"鎳":5668,"鎵":5669,"鏃":5670,"鏈":5671,"鏑":5672,"鏖":5673,"鏗":5674,"鏘":5675,"鏞":5676,"鏟":5677,"鏡":5678,"鏢":5679,"鏤":5680,"鏽":5681,"鐐":5682,"鐔":5683,"鐘":5684,"鐠":5685,"鐡":5686,"鐧":5687,"鐫":5688,"鐮":5689,"鐲":5690,"鐵":5691,"鐶":5692,"鐸":5693,"鐹":5694,"鐺":5695,"鑄":5696,"鑊":5697,"鑑":5698,"鑒":5699,"鑛":5700,"鑠":5701,"鑢":5702,"鑣":5703,"鑫":5704,"鑰":5705,"鑲":5706,"鑴":5707,"鑷":5708,"鑼":5709,"鑽":5710,"鑾":5711,"鑿":5712,"钾":5713,"错":5714,"镁":5715,"镜":5716,"長":5717,"門":5718,"閃":5719,"閆":5720,"閉":5721,"開":5722,"閎":5723,"閏":5724,"閑":5725,"閒":5726,"間":5727,"閔":5728,"閘":5729,"閡":5730,"関":5731,"閣":5732,"閤":5733,"閥":5734,"閨":5735,"閩":5736,"閭":5737,"閱":5738,"閲":5739,"閵":5740,"閹":5741,"閻":5742,"閾":5743,"闆":5744,"闇":5745,"闈":5746,"闊":5747,"闌":5748,"闓":5749,"闔":5750,"闕":5751,"闖":5752,"闗":5753,"關":5754,"闡":5755,"闢":5756,"问":5757,"阜":5758,"阠":5759,"阪":5760,"阮":5761,"阱":5762,"防":5763,"阻":5764,"阿":5765,"陀":5766,"陃":5767,"附":5768,"陋":5769,"陌":5770,"降":5771,"限":5772,"陛":5773,"陝":5774,"陞":5775,"陡":5776,"院":5777,"陣":5778,"除":5779,"险":5780,"陪":5781,"陰":5782,"陲":5783,"陳":5784,"陵":5785,"陶":5786,"陷":5787,"陸":5788,"陽":5789,"隅":5790,"隆":5791,"隈":5792,"隊":5793,"隋":5794,"隍":5795,"階":5796,"随":5797,"隔":5798,"隕":5799,"隘":5800,"隙":5801,"際":5802,"障":5803,"隣":5804,"隧":5805,"隨":5806,"險":5807,"隰":5808,"隱":5809,"隴":5810,"隷":5811,"隸":5812,"隻":5813,"隼":5814,"雀":5815,"雁":5816,"雃":5817,"雄":5818,"雅":5819,"集":5820,"雇":5821,"雉":5822,"雋":5823,"雌":5824,"雍":5825,"雕":5826,"雖":5827,"雙":5828,"雛":5829,"雜":5830,"雞":5831,"離":5832,"難":5833,"雨":5834,"雩":5835,"雪":5836,"雫":5837,"雯":5838,"雲":5839,"零":5840,"雷":5841,"雹":5842,"電":5843,"需":5844,"霄":5845,"霆":5846,"震":5847,"霈":5848,"霉":5849,"霊":5850,"霍":5851,"霎":5852,"霏":5853,"霑":5854,"霓":5855,"霖":5856,"霙":5857,"霜":5858,"霞":5859,"霧":5860,"霰":5861,"露":5862,"霸":5863,"霹":5864,"霾":5865,"靂":5866,"靄":5867,"靈":5868,"青":5869,"靖":5870,"静":5871,"靚":5872,"靛":5873,"靜":5874,"非":5875,"靠":5876,"靡":5877,"面":5878,"靦":5879,"靨":5880,"革":5881,"靭":5882,"靱":5883,"靳":5884,"靴":5885,"靶":5886,"鞄":5887,"鞅":5888,"鞋":5889,"鞍":5890,"鞏":5891,"鞕":5892,"鞘":5893,"鞠":5894,"鞣":5895,"鞦":5896,"鞭":5897,"韁":5898,"韆":5899,"韋":5900,"韌":5901,"韓":5902,"韙":5903,"韜":5904,"韞":5905,"韭":5906,"音":5907,"韶":5908,"韻":5909,"韾":5910,"響":5911,"頁":5912,"頂":5913,"頃":5914,"項":5915,"順":5916,"頇":5917,"須":5918,"頌":5919,"頎":5920,"預":5921,"頑":5922,"頒":5923,"頓":5924,"頔":5925,"頗":5926,"領":5927,"頜":5928,"頡":5929,"頣":5930,"頤":5931,"頭":5932,"頰":5933,"頷":5934,"頸":5935,"頹":5936,"頻":5937,"頽":5938,"顆":5939,"題":5940,"額":5941,"顎":5942,"顏":5943,"顔":5944,"願":5945,"顛":5946,"類":5947,"顢":5948,"顥":5949,"顧":5950,"顫":5951,"顯":5952,"顰":5953,"顱":5954,"顳":5955,"顴":5956,"项":5957,"顾":5958,"领":5959,"额":5960,"風":5961,"颯":5962,"颱":5963,"颳":5964,"颶":5965,"颼":5966,"飄":5967,"飆":5968,"飛":5969,"食":5970,"飢":5971,"飧":5972,"飩":5973,"飪":5974,"飭":5975,"飯":5976,"飲":5977,"飴":5978,"飼":5979,"飽":5980,"飾":5981,"餃":5982,"餅":5983,"養":5984,"餌":5985,"餐":5986,"餒":5987,"餓":5988,"餔":5989,"餘":5990,"餚":5991,"餛":5992,"餞":5993,"餡":5994,"館":5995,"餬":5996,"餵":5997,"餽":5998,"餾":5999,"餿":6000,"饀":6001,"饅":6002,"饈":6003,"饋":6004,"饌":6005,"饑":6006,"饒":6007,"饕":6008,"饗":6009,"饞":6010,"首":6011,"馗":6012,"香":6013,"馥":6014,"馨":6015,"馬":6016,"馭":6017,"馮":6018,"馱":6019,"馳":6020,"馴":6021,"駁":6022,"駄":6023,"駐":6024,"駑":6025,"駒":6026,"駕":6027,"駙":6028,"駛":6029,"駝":6030,"駡":6031,"駭":6032,"駱":6033,"駿":6034,"騁":6035,"騅":6036,"騎":6037,"騏":6038,"騒":6039,"騖":6040,"騙":6041,"騫":6042,"騰":6043,"騷":6044,"驀":6045,"驁":6046,"驃":6047,"驅":6048,"驊":6049,"驍":6050,"驒":6051,"驕":6052,"驗":6053,"驚":6054,"驛":6055,"驟":6056,"驢":6057,"驥":6058,"驪":6059,"驫":6060,"骨":6061,"骯":6062,"骰":6063,"骷":6064,"骸":6065,"骺":6066,"骼":6067,"髂":6068,"髃":6069,"髄":6070,"髎":6071,"髏":6072,"髒":6073,"髓":6074,"體":6075,"髕":6076,"髖":6077,"高":6078,"髙":6079,"髦":6080,"髪":6081,"髭":6082,"髮":6083,"髯":6084,"髻":6085,"鬃":6086,"鬆":6087,"鬍":6088,"鬚":6089,"鬟":6090,"鬢":6091,"鬣":6092,"鬥":6093,"鬧":6094,"鬨":6095,"鬩":6096,"鬱":6097,"鬼":6098,"魁":6099,"魂":6100,"魄":6101,"魅":6102,"魏":6103,"魔":6104,"魘":6105,"魚":6106,"魛":6107,"魟":6108,"魠":6109,"魨":6110,"魩":6111,"魯":6112,"魷":6113,"鮋":6114,"鮑":6115,"鮟":6116,"鮪":6117,"鮫":6118,"鮭":6119,"鮮":6120,"鯃":6121,"鯉":6122,"鯊":6123,"鯓":6124,"鯖":6125,"鯛":6126,"鯡":6127,"鯢":6128,"鯤":6129,"鯧":6130,"鯨":6131,"鯪":6132,"鯰":6133,"鯷":6134,"鯽":6135,"鰆":6136,"鰈":6137,"鰍":6138,"鰓":6139,"鰡":6140,"鰣":6141,"鰤":6142,"鰥":6143,"鰩":6144,"鰭":6145,"鰱":6146,"鰲":6147,"鰹":6148,"鰺":6149,"鰻":6150,"鱂":6151,"鱅":6152,"鱇":6153,"鱈":6154,"鱉":6155,"鱒":6156,"鱔":6157,"鱗":6158,"鱘":6159,"鱝":6160,"鱟":6161,"鱧":6162,"鱪":6163,"鱲":6164,"鱷":6165,"鱸":6166,"鱺":6167,"鲁":6168,"鲭":6169,"鲵":6170,"鳥":6171,"鳧":6172,"鳩":6173,"鳯":6174,"鳳":6175,"鳴":6176,"鳶":6177,"鴆":6178,"鴉":6179,"鴐":6180,"鴒":6181,"鴕":6182,"鴛":6183,"鴞":6184,"鴟":6185,"鴦":6186,"鴨":6187,"鴯":6188,"鴴":6189,"鴻":6190,"鴿":6191,"鵑":6192,"鵜":6193,"鵝":6194,"鵟":6195,"鵠":6196,"鵡":6197,"鵪":6198,"鵬":6199,"鵯":6200,"鵰":6201,"鵲":6202,"鶉":6203,"鶓":6204,"鶘":6205,"鶩":6206,"鶯":6207,"鶴":6208,"鶻":6209,"鶼":6210,"鶿":6211,"鷂":6212,"鷄":6213,"鷈":6214,"鷗":6215,"鷥":6216,"鷲":6217,"鷴":6218,"鷸":6219,"鷹":6220,"鷺":6221,"鷿":6222,"鸕":6223,"鸚":6224,"鸛":6225,"鸝":6226,"鸞":6227,"鹵":6228,"鹹":6229,"鹼":6230,"鹽":6231,"鹿":6232,"麂":6233,"麒":6234,"麓":6235,"麗":6236,"麝":6237,"麟":6238,"麥":6239,"麩":6240,"麴":6241,"麵":6242,"麻":6243,"麼":6244,"麽":6245,"麾":6246,"黃":6247,"黄":6248,"黍":6249,"黎":6250,"黏":6251,"黑":6252,"黒":6253,"黔":6254,"默":6255,"黛":6256,"黜":6257,"黝":6258,"點":6259,"黥":6260,"黦":6261,"黨":6262,"黯":6263,"黴":6264,"黷":6265,"鼇":6266,"鼎":6267,"鼓":6268,"鼠":6269,"鼩":6270,"鼬":6271,"鼯":6272,"鼻":6273,"鼽":6274,"鼾":6275,"齁":6276,"齊":6277,"齋":6278,"齎":6279,"齒":6280,"齜":6281,"齟":6282,"齡":6283,"齣":6284,"齦":6285,"齧":6286,"齪":6287,"齬":6288,"齲":6289,"齷":6290,"龍":6291,"龎":6292,"龐":6293,"龔":6294,"龕":6295,"龜":6296,"﨑":6297,"𠽾":6298,"𡚒":6299,"𢭃":6300,"𥚃":6301,"𥴊":6302,"𨑨":6303,"𩻸":6304,"nu":6305,"num":6306,"er":6307,"per":6308,"or":6309,"org":6310,"en":6311,"per0":6312,",<":6313,"LE":6314,"TI":6315,"org0":6316,"per1":6317,"。<":6318,"表示":6319,"AR":6320,"CLE":6321,"EN":6322,"TLE":6323,"TICLE":6324,"TITLE":6325,"ARTICLE":6326,"END":6327,"org1":6328,">.":6329,"、<":6330,">,":6331,"台灣":6332,">.<":6333,"」、":6334,"」、「":6335,"per2":6336,"」,":6337,"><":6338,"報導":6339,",「":6340,"沒有":6341,"。」":6342,"org2":6343,"更多":6344,"]<":6345,"自己":6346,"網友":6347,"疫情":6348,">、<":6349,"」。":6350,"可以":6351,"疫苗":6352,"per3":6353,"民眾":6354,"美國":6355,"目前":6356,":「":6357,"因為":6358,"新聞":6359,"中國":6360,"可能":6361,"lo":6362,"loc":6363,"nk":6364,"unk":6365,"今天":6366,"指出":6367,"。[":6368,"今年":6369,"不過":6370,"確診":6371,"中心":6372,"org3":6373,"活動":6374,"進行":6375,"發現":6376,"一個":6377,"「<":6378,"相關":6379,"防疫":6380,"時間":6381,"學生":6382,"我們":6383,"就是":6384,"已經":6385,"今日":6386,"人員":6387,"第一":6388,":<":6389,"認為":6390,"工作":6391,"提供":6392,"政府":6393,"警方":6394,"北市":6395,"per4":6396,"發生":6397,"公司":6398,"loc0":6399,"使用":6400,"一名":6401,"因此":6402,"..":6403,"接種":6404,"/<":6405,"日本":6406,"出現":6407,"指揮":6408,"希望":6409,">-":6410,"影響":6411,"問題":6412,"持續":6413,"去年":6414,"其中":6415,"印度":6416,"他們":6417,">、":6418,"現在":6419,"開始":6420,"調查":6421,"不是":6422,"還有":6423,"!<":6424,"其他":6425,"透過":6426,"學校":6427,"以及":6428,"什麼":6429,"org4":6430,"機師":6431,"這樣":6432,"安全":6433,"記者":6434,"許多":6435,"男子":6436,"國家":6437,"新冠":6438,"還是":6439,"真的":6440,"這個":6441,"大家":6442,"未來":6443,"全球":6444,"看到":6445,"手機":6446,"服務":6447,"最後":6448,"如果":6449,"不會":6450,"指揮中心":6451,"也有":6452,"健康":6453,"要求":6454,"包括":6455,"相當":6456,"部分":6457,"生活":6458,"都是":6459,"per5":6460,"國際":6461,"無法":6462,"甚至":6463,">,<":6464,"根據":6465,"日前":6466,"除了":6467,"合作":6468,"臉書":6469,"不少":6470,"同時":6471,"雖然":6472,"也是":6473,"成為":6474,"口罩":6475,"肺炎":6476,"的人":6477,"超過":6478,"萬元":6479,"總統":6480,"市場":6481,"造成":6482,"所以":6483,">。":6484,"感染":6485,"一次":6486,"發展":6487,">」":6488,"地區":6489,"是否":6490,"增加":6491,"狀況":6492,"分享":6493,"針對":6494,"對於":6495,"為了":6496,"推出":6497,"台中":6498,"需要":6499,"結果":6500,"?<":6501,"機會":6502,"個月":6503,">:":6504,"當時":6505,"現場":6506,"曝光":6507,"一起":6508,"計畫":6509,"知道":6510,"應該":6511,"非常":6512,"另外":6513,"員工":6514,"教育":6515,"公布":6516,"宣布":6517,"強調":6518,"提醒":6519,"這些":6520,"代表":6521,"母親":6522,"比賽":6523,"期間":6524,"其實":6525,"事件":6526,"朋友":6527,"投資":6528,"完成":6529,"媽媽":6530,"社會":6531,"醫師":6532,"設計":6533,"由於":6534,"經濟":6535,"管理":6536,"孩子":6537,"之後":6538,"網路":6539,"特別":6540,"處理":6541,"方式":6542,"接觸":6543,"病毒":6544,"重要":6545,"檢疫":6546,"世界":6547,"org5":6548,"億元":6549,"過去":6550,"建議":6551,"不要":6552,"安打":6553,"採檢":6554,"嚴重":6555,"直接":6556,"醫院":6557,"對此":6558,"運動":6559,"新冠肺炎":6560,"大陸":6561,"影片":6562,"地方":6563,"人的":6564,"染疫":6565,"覺得":6566,"說明":6567,"關係":6568,"台北市":6569,"接受":6570,"支持":6571,"症狀":6572,"小時":6573,"的是":6574,">/":6575,"第二":6576,"協助":6577,"比較":6578,"媒體":6579,"」<":6580,"討論":6581,"高雄":6582,">:<":6583,"想到":6584,"蘋果":6585,"不同":6586,"表現":6587,"起來":6588,"回應":6589,"美元":6590,"這是":6591,"進入":6592,"成長":6593,"環境":6594,"per6":6595,"飯店":6596,"先發":6597,"教練":6598,"下午":6599,"系統":6600,"加上":6601,"個人":6602,"隔離":6603,"照片":6604,"很多":6605,"桃園":6606,"企業":6607,"導致":6608,">-<":6609,"所有":6610,">[":6611,"決定":6612,"獲得":6613,"新增":6614,"富特":6615,"功能":6616,"諾富特":6617,"不能":6618,"大學":6619,"研究":6620,"治療":6621,"選擇":6622,"只是":6623,"一定":6624,"一下":6625,"參與":6626,"中央":6627,"產業":6628,"需求":6629,"台北":6630,"只有":6631,"原因":6632,"資料":6633,"以上":6634,"產品":6635,"準備":6636,"發文":6637,"面對":6638,"風險":6639,"情況":6640,"自己的":6641,"死亡":6642,"只要":6643,"都有":6644,"沒想到":6645,"受到":6646,"重點":6647,"出來":6648,"家人":6649,"必須":6650,"參加":6651,"顯示":6652,"疑似":6653,"時候":6654,"醫療":6655,"內容":6656,"紀錄":6657,"駕駛":6658,"擴大":6659,"這次":6660,"業者":6661,"舉辦":6662,"對方":6663,"預計":6664,"措施":6665,"個案":6666,"國內":6667,"怎麼":6668,"規定":6669,"專家":6670,"了解":6671,"提升":6672,"開放":6673,"?」":6674,"通過":6675,"最高":6676,"一樣":6677,"技術":6678,"。」<":6679,"近日":6680,"國中":6681,">/<":6682,"紛紛":6683,"透露":6684,"引發":6685,"大的":6686,"消費":6687,"至於":6688,"一直":6689,"科技":6690,"前往":6691,"資訊":6692,"上午":6693,"申請":6694,"也會":6695,"一步":6696,"執行":6697,"都會":6698,"主要":6699,"則是":6700,"繼續":6701,"警察":6702,"身體":6703,"施打":6704,"議員":6705,"通報":6706,"...":6707,"在臉書":6708,"貼文":6709,"畫面":6710,"過程":6711,"!」":6712,"政策":6713,"不到":6714,"新聞報導":6715,"上的":6716,"任何":6717,"居家":6718,"關鍵":6719,"提出":6720,"消息":6721,"平台":6722,"最新":6723,"病例":6724,"單位":6725,"此外":6726,"社區":6727,"行為":6728,"分析":6729,"旅館":6730,"報告":6731,"新聞網":6732,"近期":6733,"也不":6734,"完全":6735,"行動":6736,"他的":6737,"整理":6738,"經過":6739,"緊急":6740,"人數":6741,"歲的":6742,"老師":6743,"分鐘":6744,"有多":6745,"成功":6746,"優惠":6747,"方面":6748,"共同":6749,"好的":6750,"保護":6751,"新高":6752,"org6":6753,"注意":6754,"分別":6755,"留言":6756,"台南":6757,"兩人":6758,"電影":6759,"兄弟":6760,"女子":6761,"努力":6762,"學習":6763,"用戶":6764,"就會":6765,"提到":6766,"意外":6767,"有人":6768,"全國":6769,"維持":6770,"兒子":6771,"當地":6772,"不僅":6773,"電子":6774,"呼籲":6775,"不斷":6776,"台股":6777,"旅遊":6778,"立委":6779,"但是":6780,"安排":6781,"就有":6782,"加入":6783,"壓力":6784,"目標":6785,"英國":6786,"的一":6787,"而且":6788,"下來":6789,"聯盟":6790,"女兒":6791,"團隊":6792,"per7":6793,"董事":6794,"歷史":6795,"本土":6796,"穩定":6797,"投手":6798,"員警":6799,"戴口罩":6800,"能力":6801,"品牌":6802,"才能":6803,"避免":6804,"年的":6805,"工程":6806,"積極":6807,"鋒面":6808,"機組":6809,"容易":6810,"舉行":6811,"中的":6812,"進一步":6813,"以來":6814,"雙方":6815,"距離":6816,"系列":6817,"至少":6818,"追蹤":6819,"一般":6820,"萬人":6821,"三立":6822,"高中":6823,"引起":6824,"如何":6825,"就醫":6826,"專業":6827,"第三":6828,"原本":6829,"這種":6830,"昨天":6831,"最近":6832,"有一":6833,"價格":6834,"感謝":6835,"包含":6836,"主管":6837,"調整":6838,"新北市":6839,"小孩":6840,"了一":6841,"觀察":6842,"月底":6843,"之前":6844,"女性":6845,"委員":6846,"市長":6847,"家長":6848,"母親節":6849,"加強":6850,"選手":6851,"正式":6852,"三立新聞網":6853,"全台":6854,"家庭":6855,"作為":6856,"球隊":6857,"人士":6858,"會議":6859,"一次看":6860,"幫助":6861,"文化":6862,"連續":6863,"突然":6864,"擔任":6865,"或是":6866,"loc1":6867,"了嗎":6868,"聲明":6869,"減少":6870,"看這":6871,"挑戰":6872,"附近":6873,"晚間":6874,"擔心":6875,"日起":6876,"考試":6877,"讓他":6878,"電話":6879,"關注":6880,"人民":6881,"局長":6882,"喜歡":6883,"推動":6884,"發表":6885,"配合":6886,"降雨":6887,"年輕":6888,"之一":6889,"再度":6890,"姓男子":6891,"監視":6892,"讀書":6893,"數據":6894,"利用":6895,"營收":6896,"機車":6897,">「":6898,"全面":6899,"智慧":6900,"打擊":6901,"能夠":6902,"老闆":6903,"確定":6904,"正常":6905,"外交":6906,"更新":6907,"流行":6908,"這麼":6909,"本季":6910,"年來":6911,"漫畫":6912,"專線":6913,"遊戲":6914,"主動":6915,"立即":6916,"解決":6917,"根本":6918,"會有":6919,"傳出":6920,"明顯":6921,"香港":6922,"公開":6923,"是在":6924,"昨日":6925,"政治":6926,"綜合":6927,"負責":6928,">:「":6929,"正在":6930,"發布":6931,"立刻":6932,"外界":6933,"消毒":6934,"敲出":6935,"線上":6936,"成績":6937,"最終":6938,"各科":6939,"經驗":6940,"吸引":6941,"文章":6942,"訓練":6943,"男童":6944,"主席":6945,"取得":6946,"方案":6947,"水庫":6948,"連結":6949,"爆發":6950,"空間":6951,"因應":6952,"考生":6953,"衝刺":6954,"最大":6955,"檢查":6956,"邀請":6957,"事情":6958,"結束":6959,"入境":6960,"改善":6961,"推薦":6962,"保持":6963,"拜登":6964,"衛生":6965,"每天":6966,"並且":6967,"將在":6968,"體驗":6969,"派出":6970,"階段":6971,"」。<":6972,"動物":6973,"課程":6974,"擁有":6975,"記者會":6976,"交通":6977,"送醫":6978,"在地":6979,"指數":6980,"只能":6981,"感覺":6982,"所長":6983,"陰性":6984,"餐廳":6985,"商品":6986,"事故":6987,"台幣":6988,"詢問":6989,"生產":6990,"的時候":6991,"銀行":6992,"節目":6993,"相關新聞":6994,"球員":6995,"粉絲":6996,"發言":6997,"交易":6998,"攻擊":6999,"整理包":7000,"質疑":7001,"危險":7002,"紫色":7003,"長期":7004,"開發":7005,"以為":7006,"另一":7007,"期待":7008,"」[":7009,"供應":7010,"的話":7011,"檢驗":7012,"南部":7013,"通知":7014,"必考":7015,"對象":7016,"成立":7017,"打造":7018,"掌握":7019,"間學校":7020,"偷看":7021,"辦理":7022,"晶片":7023,"畢業":7024,"年前":7025,"拿下":7026,"重點一次看":7027,"自主":7028,"大補":7029,"統計":7030,"聯合":7031,"身分":7032,"必考重點一次看":7033,"來說":7034,"接觸者":7035,"作業":7036,"機構":7037,"這樣的":7038,"受傷":7039,"舒壓":7040,"公尺":7041,"順利":7042,"累了嗎":7043,"航空":7044,"資源":7045,"考衝刺":7046,"大補帖":7047,"竟然":7048,"設備":7049,"來自":7050,"各科必考重點一次看":7051,"秒偷看":7052,"有多鬧":7053,"看這間學校":7054,"讀書累了嗎":7055,"漫畫舒壓":7056,"考衝刺大補帖":7057,"秒偷看漫畫舒壓":7058,"看這間學校有多鬧":7059,"秒偷看漫畫舒壓一下":7060,"疾病":7061,"終於":7062,"規劃":7063,"達到":7064,"提高":7065,"患者":7066,"電腦":7067,"這一":7068,"預期":7069,"外送":7070,"影音":7071,"想要":7072,"群聚":7073,"責任":7074,"後續":7075,"org7":7076,"照顧":7077,"然而":7078,"實施":7079,"一度":7080,"業務":7081,"更是":7082,"製造":7083,"價值":7084,"年度":7085,"當天":7086,"per8":7087,"一些":7088,"凌晨":7089,"情形":7090,"東西":7091,"有關":7092,"離開":7093,"遭到":7094,"監視器":7095,"出席":7096,"評估":7097,"符合":7098,"生命":7099,"家屬":7100,"自由":7101,"澳洲":7102,"媽祖":7103,"先前":7104,"隨著":7105,"後來":7106,"恢復":7107,"攝影":7108,"防疫旅館":7109,"證實":7110,"回家":7111,"得到":7112,"不適":7113,"尤其":7114,"官方":7115,"疫情指揮中心":7116,"疫苗接種":7117,"也在":7118,"事後":7119,"億美元":7120,"應用":7121,"網站":7122,"確認":7123,"足跡":7124,"三振":7125,"告知":7126,"陽性":7127,"至今":7128,"機組員":7129,"才會":7130,"控制":7131,"不滿":7132,"北部":7133,"組織":7134,"購買":7135,"讓人":7136,"議題":7137,"音樂":7138,"找到":7139,"知名":7140,"展開":7141,"山區":7142,"消防":7143,"平均":7144,"規模":7145,"來到":7146,"電動":7147,"台灣的":7148,"市府":7149,"我的":7150,"整體":7151,"機場":7152,"帶來":7153,"最多":7154,"清楚":7155,"一點":7156,"搭乘":7157,"累計":7158,"讓她":7159,"諾富特飯店":7160,"陸續":7161,"男友":7162,"將於":7163,"有些":7164,"鼓勵":7165,"都不":7166,"主任":7167,"藝術":7168,"幾乎":7169,"訊息":7170,"重新":7171,"各地":7172,"法院":7173,"冠軍":7174,"一出":7175,"高達":7176,"原來":7177,"太空":7178,"釐清":7179,"就能":7180,"左右":7181,"務必":7182,"他說":7183,"感到":7184,"金融":7185,"統一":7186,"之外":7187,"接著":7188,"免費":7189,"反應":7190,"消費者":7191,"自然":7192,"先生":7193,"境外":7194,"日在":7195,"公里":7196,"還要":7197,"教學":7198,"結婚":7199,"嫌犯":7200,"大量":7201,"確實":7202,"這名":7203,"店家":7204,"有網友":7205,"專案":7206,"首度":7207,"落實":7208,"更多三立新聞網":7209,"更多三立新聞網報導":7210,"嘉義":7211,"快速":7212,"遇到":7213,"新冠肺炎疫情":7214,"將會":7215,"檢測":7216,"發言人":7217,"新的":7218,"中華":7219,"我國":7220,"男性":7221,"營運":7222,"像是":7223,"到底":7224,"領域":7225,"數位":7226,"停車":7227,"印尼":7228,"為何":7229,"電信":7230,"基本":7231,"幫忙":7232,"直呼":7233,"變成":7234,"傳統":7235,"案件":7236,"同樣":7237,"的大":7238,"一年":7239,"限制":7240,"。「":7241,"局上":7242,"實際":7243,"汽車":7244,"領先":7245,"提醒您":7246,"直到":7247,"教育會":7248,"危機":7249,"結合":7250,"同學":7251,"酒駕":7252,"黑衣":7253,"社團":7254,"職棒":7255,"開心":7256,"壘打":7257,"離婚":7258,"加碼":7259,"方向":7260,"辦法":7261,"人才":7262,"如今":7263,"好吃":7264,"新台幣":7265,"退休":7266,"教師":7267,"競爭":7268,"到場":7269,"爸爸":7270,"改變":7271,"國中教育會":7272,"有效":7273,"今日新聞":7274,"味全":7275,"作品":7276,"必要":7277,"東京":7278,"區域":7279,"拍攝":7280,"標準":7281,"事實":7282,"派出所":7283,"一天":7284,"支援":7285,"董事長":7286,"客戶":7287,"展現":7288,"召開":7289,"降低":7290,"成員":7291,"」。[":7292,"就業":7293,"校長":7294,"妻子":7295,"態度":7296,"還在":7297,"不得":7298,"到了":7299,"女友":7300,"相信":7301,"國中教育會考衝刺大補帖":7302,"年增":7303,"老公":7304,"車輛":7305,"再次":7306,"視新聞報導":7307,"考量":7308,"勞工":7309,"樂天":7310,"登場":7311,"公車":7312,"手術":7313,"開車":7314,"她的":7315,"金額":7316,"願意":7317,"如此":7318,"首次":7319,"國小":7320,"事業":7321,"多歲":7322,"捷運":7323,"蟑螂":7324,"也將":7325,"彰化":7326,"機關":7327,"經營":7328,"不用":7329,"然後":7330,"來源":7331,"十分":7332,"父母":7333,"閱讀":7334,"來看":7335,"原始":7336,"自行":7337,"師生":7338,"補助":7339,"校園":7340,"食物":7341,"產生":7342,"表達":7343,"廠商":7344,"衝突":7345,"委員會":7346,"天氣":7347,"整個":7348,"都在":7349,"父親":7350,"也讓":7351,"公告":7352,"更多民":7353,"地點":7354,"尋找":7355,"搭配":7356,"小心":7357,"行政":7358,"辦公":7359,"隨後":7360,"更多民視新聞報導":7361,"韓國":7362,"歡迎":7363,"以下":7364,"而是":7365,"上班":7366,"之間":7367,"獲利":7368,"動作":7369,"似乎":7370,"黑衣人":7371,"大眾":7372,"每年":7373,"集團":7374,"場比賽":7375,"局下":7376,"面臨":7377,"導體":7378,"半導體":7379,"令人":7380,"他也":7381,"儘管":7382,"品質":7383,"公斤":7384,"新竹":7385,"生涯":7386,"裡面":7387,"此次":7388,"看更多":7389,"勞動":7390,"最佳":7391,"奧運":7392,"接種疫苗":7393,"拒絕":7394,"毒品":7395,"那麼":7396,"受訪":7397,"精神":7398,"啟動":7399,"科學":7400,"抗體":7401,"時中":7402,"管制":7403,"公共":7404,"股價":7405,"是一":7406,"傷害":7407,"熱議":7408,"羅斯":7409,"關心":7410,"電視":7411,"發出":7412,"完整":7413,"撥打":7414,"不知道":7415,"支安打":7416,"告訴":7417,"在家":7418,"基金":7419,"官員":7420,"也能":7421,"運輸":7422,"條件":7423,"兩個":7424,"咖啡":7425,"不好":7426,"犯罪":7427,"上漲":7428,"範圍":7429,"球場":7430,"黨部":7431,"可能會":7432,"出賽":7433,"人口":7434,"開賣":7435,"一路":7436,"多元":7437,"集中":7438,"就在":7439,"晚上":7440,"有機會":7441,"後的":7442,"違反":7443,"陳時中":7444,"逮捕":7445,"解釋":7446,"銷售":7447,"指揮官":7448,"上市":7449,"也要":7450,"案例":7451,"戴上":7452,"的情況":7453,"團體":7454,"中央流行":7455,"不只":7456,"![":7457,"籃板":7458,"報名":7459,"球迷":7460,"台中市":7461,"投入":7462,"呈現":7463,"回到":7464,"突破":7465,"保送":7466,"司機":7467,"資格":7468,"採用":7469,"悍將":7470,"創辦":7471,"崩潰":7472,"收到":7473,"截至":7474,"為主":7475,"好奇":7476,"中央流行疫情指揮中心":7477,"俄羅斯":7478,"製作":7479,"證明":7480,"不可":7481,"原始連結":7482,"儘速":7483,"並未":7484,"預估":7485,"呼吸":7486,"採取":7487,"下一":7488,"傳播":7489,"千萬":7490,"第一次":7491,"旅客":7492,"直播":7493,"短暫":7494,"購物":7495,"局部":7496,"居家隔離":7497,"中信":7498,"各種":7499,"民主":7500,"絕對":7501,"鏡頭":7502,"創新":7503,"公園":7504,"累積":7505,"的問題":7506,"園區":7507,"多數":7508,"名單":7509,"地球":7510,"超級":7511,"以前":7512,"同意":7513,"當然":7514,"大幅":7515,"時代":7516,"per9":7517,"新北":7518,"狀態":7519,"過程中":7520,"這項":7521,"他在":7522,"威脅":7523,"意見":7524,"國外":7525,"經理":7526,"當場":7527,"」!":7528,"確保":7529,"保險":7530,"花蓮":7531,"位置":7532,"影像":7533,"的新":7534,"接獲":7535,">。<":7536,"營養":7537,"社群":7538,"強化":7539,"不明":7540,"傳染":7541,"認識":7542,"一位":7543,"的小":7544,"習慣":7545,"多次":7546,"法律":7547,"利率":7548,"屏東":7549,"屬於":7550,"勇士":7551,"隨即":7552,"中國大陸":7553,"做出":7554,"來越":7555,"馬上":7556,"救援":7557,"夫妻":7558,"看了":7559,"不錯":7560,"尚未":7561,"場所":7562,"考慮":7563,"部長":7564,"族群":7565,"發燒":7566,"申辦":7567,"模式":7568,"越來越":7569,"全壘打":7570,"工具":7571,"居民":7572,"車禍":7573,"騎士":7574,"社交":7575,"交流":7576,"故事":7577,"該名":7578,"校方":7579,"建立":7580,"org8":7581,"創辦人":7582,"不住":7583,"偵辦":7584,"保障":7585,"小組":7586,"收入":7587,"研發":7588,"真相":7589,"這裡":7590,"速度":7591,"富邦":7592,"的方式":7593,"你們":7594,"肯定":7595,"類似":7596,"股票":7597,"來的":7598,"加油":7599,"在台灣":7600,"方便":7601,"國人":7602,"反對":7603,"做好":7604,"全部":7605,"出局":7606,"預購":7607,"三分":7608,"防疫專線":7609,"居家檢疫":7610,"一張":7611,"當下":7612,"休息":7613,"建設":7614,"更加":7615,"洗手":7616,"職業":7617,"軍事":7618,"公務":7619,"營業":7620,"爭議":7621,"道路":7622,"其實是":7623,"綜合報導":7624,"戴上口罩":7625,"半年":7626,"機率":7627,"基礎":7628,"乘客":7629,"變化":7630,"為什麼":7631,"的民眾":7632,"重大":7633,"任務":7634,"錄取":7635,"效果":7636,"已有":7637,"操作":7638,"排除":7639,"日晚間":7640,"緊張":7641,"中部":7642,"下降":7643,"仍有":7644,"經常":7645,"可能是":7646,"於是":7647,"據了解":7648,"兒童":7649,"相對":7650,"鳳梨":7651,"人在":7652,"北京":7653,"移入":7654,"超商":7655,"選舉":7656,"即將":7657,"承諾":7658,"爆料":7659,"泰國":7660,"演出":7661,"一段":7662,"升級":7663,"遊客":7664,"內的":7665,"學測":7666,"溝通":7667,"二軍":7668,"中信兄弟":7669,"就要":7670,"起訴":7671,"國籍":7672,"大型":7673,"同期":7674,"婆婆":7675,"初步":7676,"都要":7677,"下去":7678,"維護":7679,"不但":7680,"逐漸":7681,"違規":7682,"程序":7683,"帶動":7684,"生態":7685,"開幕":7686,">」,":7687,"人生":7688,"各國":7689,"創作":7690,"螢幕":7691,"並不":7692,"曾經":7693,"角色":7694,"防護":7695,"批評":7696,"半部":7697,"飲料":7698,"並非":7699,"廣告":7700,"成本":7701,"涉嫌":7702,"達成":7703,"客人":7704,"一定要":7705,"助攻":7706,"取消":7707,"共有":7708,"建築":7709,"互動":7710,"還沒":7711,"不足":7712,"的地方":7713,"身上":7714,"太多":7715,"看起來":7716,"和平":7717,"醫學":7718,"內部":7719,"外送員":7720,"城市":7721,"賽事":7722,"項目":7723,"每股":7724,"可望":7725,"現金":7726,"位於":7727,"的時間":7728,"失分":7729,"律師":7730,"健康管理":7731,"味全龍":7732,"氣候":7733,"百萬":7734,"資金":7735,"主題":7736,"大樓":7737,"有的":7738,"下的":7739,"事發":7740,"得知":7741,"都沒有":7742,"禁止":7743,"黑道":7744,"全力":7745,"報警":7746,"接近":7747,"等人":7748,"可愛":7749,"值得":7750,"路上":7751,"美食":7752,"簡單":7753,"坦言":7754,"宜蘭":7755,"方法":7756,"不少人":7757,"主持":7758,"數量":7759,"是不是":7760,"檢察":7761,"貢獻":7762,"」,<":7763,"加速":7764,"公投":7765,"權益":7766,"藥物":7767,"爭取":7768,"說法":7769,"都能":7770,"救護":7771,"自動":7772,"並沒有":7773,"女星":7774,"是因為":7775,"報案":7776,"存在":7777,"不管":7778,"外野":7779,"教授":7780,"境外移入":7781,"即可":7782,"困難":7783,"測試":7784,"確診者":7785,"主場":7786,"機制":7787,"當中":7788,"改革":7789,"藉由":7790,"重視":7791,"唯一":7792,"工業":7793,"趨勢":7794,"周邊":7795,"聽到":7796,"天內":7797,"就可以":7798,"會在":7799,"老婆":7800,"縣市":7801,"作用":7802,"例如":7803,"依照":7804,"趕緊":7805,"青年":7806,"延長":7807,"擊出":7808,"具有":7809,"護理":7810,"拿到":7811,"檢討":7812,"丈夫":7813,"廢水":7814,"傻眼":7815,"協會":7816,"裝置":7817,"修正":7818,"對手":7819,"有沒有":7820,"一家":7821,"匡列":7822,"觀眾":7823,"不治":7824,"因素":7825,"德國":7826,"尊重":7827,"單日":7828,"直言":7829,"詐騙":7830,"聲音":7831,"英文":7832,"成交":7833,"接下來":7834,"的水":7835,"真實":7836,"檢方":7837,"變種":7838,"夥伴":7839,"氧氣":7840,"監測":7841,"來了":7842,"即使":7843,"紐約":7844,"適合":7845,"協議":7846,"觀光":7847,"部門":7848,"抗議":7849,"機師染疫":7850,"住院":7851,"的高":7852,"上一":7853,"報稅":7854,"家中":7855,"反而":7856,"恐怕":7857,"阿嬤":7858,"紛紛留言":7859,"中職":7860,"法人":7861,"好好":7862,"律賓":7863,"情緒":7864,"菲律賓":7865,"疑似症狀":7866,"電動車":7867,"審查":7868,"以後":7869,"移送":7870,"給予":7871,"都很":7872,"出爐":7873,"全場":7874,"友人":7875,"帶著":7876,"軟體":7877,"幼兒":7878,"不敢":7879,"快新聞":7880,"性的":7881,"放棄":7882,"訪問":7883,"不想":7884,"冠狀":7885,"」:":7886,"形象":7887,"得分":7888,"特殊":7889,"次三振":7890,"你的":7891,"有點":7892,"抵達":7893,"辦公室":7894,"警局":7895,"制度":7896,"店員":7897,"費用":7898,"感情":7899,"預約":7900,"法官":7901,"的狀況":7902,"程度":7903,"投資人":7904,"出國":7905,"曝光後":7906,"暴力":7907,"清潔":7908,"真的很":7909,"延燒":7910,"指考":7911,"柔道":7912,"工廠":7913,"規範":7914,"設置":7915,"飲食":7916,"基隆":7917,"難以":7918,"許多人":7919,"也很":7920,"海洋":7921,"連勝":7922,"涉及":7923,"主委":7924,"內行":7925,"分局":7926,"女網友":7927,"時期":7928,"聯繫":7929,"史上":7930,"懷疑":7931,"最低":7932,"自主健康管理":7933,"+<":7934,"來台":7935,"全新":7936,"夢想":7937,"無奈":7938,"通常":7939,"還能":7940,"成果":7941,"工作人員":7942,"對話":7943,"辛苦":7944,"支付":7945,"環保":7946,"輕鬆":7947,"指示":7948,"還會":7949,"堅持":7950,"親自":7951,"看見":7952,"用餐":7953,"優勢":7954,"外籍":7955,"第一季":7956,"同仁":7957,"一名網友":7958,"實在":7959,"同住":7960,"使用者":7961,"小朋友":7962,"策略":7963,"創下":7964,"總教練":7965,"血清":7966,"判決":7967,"實驗":7968,"排放":7969,"旅遊史":7970,"出的":7971,"也沒有":7972,"魯閣":7973,"網紅":7974,"也說":7975,"道歉":7976,"意識":7977,"整合":7978,"明天":7979,"的好":7980,"的心":7981,"自我":7982,"冠狀病毒":7983,"特色":7984,"太魯閣":7985,"失控":7986,"登記":7987,"婦人":7988,"萬噸":7989,"產能":7990,"中午":7991,"per10":7992,"當局":7993,"的事":7994,"便宜":7995,"身材":7996,"力量":7997,"房屋":7998,"試試":7999,"大電信":8000,"高雄市":8001,"發揮":8002,"出口":8003,"獲報":8004,"緬甸":8005,"之下":8006,"轉型":8007,"希望能":8008,"執行長":8009,"處分":8010,"體育":8011,"徒刑":8012,"生物":8013,"就算":8014,"打點":8015,"本來":8016,"南韓":8017,"少年":8018,"雲林":8019,"核心":8020,"身為":8021,"醫生":8022,"多人":8023,"比例":8024,"跟著":8025,"不良":8026,"檢察官":8027,"一場":8028,"也被":8029,"百分":8030,"運用":8031,"我們的":8032,"壓力大":8033,"就送":8034,"房間":8035,"新功能":8036,"持有":8037,"補充":8038,"打開":8039,"解鎖":8040,"原則":8041,"不少網友":8042,"鎖定":8043,"網路上":8044,"加碼送":8045,"亞裔":8046,"經典":8047,"美國總統":8048,"早上":8049,"高度":8050,"基地":8051,"年後":8052,"破壞":8053,"證據":8054,"他表示":8055,"停止":8056,"重要的":8057,"折起":8058,"日下午":8059,"轎車":8060,"別人":8061,"才是":8062,"放在":8063,"這場":8064,"版本":8065,"曾在":8066,"公分":8067,"薪資":8068,"受害":8069,"負擔":8070,"利益":8071,"兩天":8072,"臺灣":8073,"原始連結更多":8074,"上升":8075,"最快":8076,"提前":8077,"合約":8078,"電池":8079,"排名":8080,"法國":8081,"被害":8082,"開季":8083,"社交距離":8084,"陣雨":8085,"在台":8086,"參考":8087,"幾天":8088,"終場":8089,"越南":8090,"防範":8091,"視訊":8092,"loc2":8093,",「<":8094,"指定":8095,"今天表示":8096,"深厚":8097,"苗栗":8098,"警告":8099,"同步":8100,"漲幅":8101,"並在":8102,"依法":8103,"優先":8104,"感動":8105,"指控":8106,"移動":8107,"申辦優惠":8108,"料理":8109,"回來":8110,"最大的":8111,"每個":8112,"目的":8113,"自費":8114,"一同":8115,"嚴峻":8116,"條例":8117,"帶領":8118,"病患":8119,"月底開賣":8120,"申辦優惠加碼送":8121,"逆轉":8122,"紫色月底開賣":8123,"大電信預購":8124,"理由":8125,"變種病毒":8126,"同事":8127,"執法":8128,"職場":8129,"回歸":8130,"立場":8131,"競賽":8132,"近年":8133,"org9":8134,"早餐":8135,"但他":8136,"說是":8137,"預防":8138,"午後":8139,"年輕人":8140,"一切":8141,"剛好":8142,"國民":8143,"衝擊":8144,"那個":8145,"紀念":8146,"密切":8147,"無論":8148,"的重要":8149,"豐富":8150,"人民幣":8151,"飛行":8152,"多少":8153,"水情":8154,"概念":8155,"娛樂":8156,"不知":8157,"戰略":8158,"第一時間":8159,"正確":8160,"也有人":8161,"並無":8162,"各項":8163,"瞬間":8164,"興趣":8165,"」、「<":8166,"下雨":8167,"推特":8168,"明年":8169,"股市":8170,"這段":8171,"創意":8172,"月中":8173,"加坡":8174,"台商":8175,"獨立":8176,"第四":8177,"告知醫師":8178,"澄清":8179,"嚴格":8180,"武漢":8181,"上網":8182,"診所":8183,"認定":8184,"對外":8185,"感染源":8186,"各界":8187,"電影票":8188,"想用":8189,"計算":8190,"再抽":8191,"梅雨":8192,"錯誤":8193,"一看":8194,"旅行":8195,"時表示":8196,"上場":8197,"大雨":8198,"一開始":8199,"下車":8200,"打者":8201,"~<":8202,"住民":8203,"垃圾":8204,"每次":8205,"設施":8206,"食品":8207,"一間":8208,"女生":8209,"攻下":8210,"知識":8211,"門口":8212,"季後":8213,"更有":8214,"遶境":8215,"官網":8216,"糾紛":8217,"貿易":8218,"新加坡":8219,"延伸":8220,"很難":8221,"熱門":8222,"貼出":8223,"不夠":8224,"不建議":8225,"空氣":8226,"總經理":8227,"肇事":8228,"無人":8229,"相同":8230,"土地":8231,"所幸":8232,"邊境":8233,"大概":8234,"懷孕":8235,"都沒":8236,"精彩":8237,"勤洗手":8238,"付費":8239,"刪除":8240,"擊敗":8241,"時許":8242,"即時":8243,"也可以":8244,"領導":8245,"民國":8246,"表演":8247,"認證":8248,"典禮":8249,"背景":8250,"賣場":8251,"人力":8252,"院長":8253,"發文表示":8254,"就讀":8255,"安心":8256,"白色":8257,"解除":8258,"信心":8259,"出門":8260,"賽後":8261,"發生在":8262,"仍然":8263,"暫時":8264,"真正":8265,"許多網友":8266,"你這樣":8267,"對抗":8268,"謝謝":8269,"進口":8270,"不再":8271,"就好":8272,"防禦":8273,"?」、「":8274,"不多":8275,"創造":8276,"回憶":8277,"面試":8278,"拍照":8279,"神經":8280,"可見":8281,"填就送":8282,"工會":8283,"退休壓力大":8284,"再抽電影票":8285,"退休壓力大調查":8286,"全案":8287,"健身":8288,"心理":8289,"稍早":8290,"路線":8291,"車站":8292,"缺水":8293,"他們的":8294,"確診病例":8295,"兩名":8296,"靠著":8297,"於今日":8298,"深夜":8299,"經歷":8300,"訂單":8301,"賠償":8302,"一個月":8303,"形成":8304,"連假":8305,"經費":8306,"路口":8307,"預測":8308,"儘速就醫":8309,"]「":8310,"下載":8311,"有局部":8312,"純益":8313,"臨時":8314,"違法":8315,"先發投手":8316,"貼文一出":8317,"能源":8318,"藉此":8319,"高的":8320,"應該是":8321,"婚姻":8322,"日上午":8323,"看好":8324,"告知醫師旅遊史":8325,"也沒":8326,"奇摩":8327,"蛋糕":8328,"回國":8329,"失去":8330,"搶救":8331,"車上":8332,"迅速":8333,"淵源":8334,"自身":8335,"共識":8336,"即日起":8337,"及時":8338,"偏愛":8339,"只見":8340,"打算":8341,"物品":8342,"物資":8343,"過來":8344,"健保":8345,"會員":8346,"決議":8347,"熱烈":8348,"的機會":8349,"防疫措施":8350,"身體不適":8351,">!":8352,"一輛":8353,"二壘":8354,"仍在":8355,"大批":8356,"印度疫情":8357,"提告":8358,"造型":8359,"隊友":8360,"也就是":8361,"回饋":8362,"笑說":8363,"點多":8364,"也表示":8365,"資產":8366,"路邊":8367,"常見":8368,"台東":8369,"永續":8370,"召集":8371,"名的":8372,"意義":8373,"收在":8374,"華航":8375,"驚見":8376,"武漢肺炎":8377,"北韓":8378,"平常":8379,"忍不住":8380,"投出":8381,"醫護":8382,"延續":8383,"本身":8384,"現象":8385,"依據":8386,"公費":8387,"暫停":8388,"演員":8389,"觀看":8390,"返台":8391,"桃園市":8392,"出貨":8393,"大使":8394,"的照片":8395,"是否有":8396,"便利":8397,"執政":8398,"大約":8399,"退場":8400,"件事":8401,"打疫苗":8402,"等等":8403,"旗下":8404,"湖人":8405,"為止":8406,"紅燈":8407,"這位":8408,"但在":8409,"大會":8410,"年級":8411,"很大":8412,"多歲男性":8413,"玻璃":8414,"不了":8415,"太陽":8416,"平時":8417,"房子":8418,"黨員":8419,"戴口罩解鎖":8420,"大新功能":8421,"幸福":8422,"眾人":8423,"?[":8424,"廁所":8425,"不及":8426,"協調":8427,"抱怨":8428,"桃猿":8429,"結構":8430,"東半部":8431,"出生":8432,"強勁":8433,"追蹤尋找":8434,"你這樣用":8435,"你想用":8436,"所得":8437,"搭載":8438,"不建議你這樣用":8439,"追蹤尋找什麼":8440,"快更新":8441,"快試試":8442,"快試試戴口罩解鎖":8443,"交往":8444,"這起":8445,"全身":8446,"惡化":8447,"詳細":8448,"通訊":8449,"顧問":8450,"首季":8451,"享受":8452,"介紹":8453,"全聯":8454,"業績":8455,"下跌":8456,"南投":8457,"接到":8458,"日的":8459,"理事":8460,"隊長":8461,"黑色":8462,"就連":8463,"藝人":8464,"輔導":8465,"深厚淵源":8466,"人工":8467,"反映":8468,"滿足":8469,"者的":8470,"網友們":8471,"台北報導":8472,"投球":8473,"在臉書社團":8474,"大眾運輸":8475,"偏愛色":8476,"深厚淵源曝光":8477,"上傳":8478,"我覺得":8479,"明確":8480,"推廣":8481,"數學":8482,"水果":8483,"申報":8484,"級分":8485,"黃金":8486,"外媒":8487,"等待":8488,"分析師":8489,"喜愛":8490,"查詢":8491,"售價":8492,"大聯盟":8493,"當年":8494,"檢疫所":8495,"寫下":8496,"有所":8497,"等到":8498,"股東":8499,"上課":8500,"免疫":8501,"失誤":8502,"縣長":8503,"記憶":8504,"年齡":8505,"採購":8506,"一人":8507,"用的":8508,"可能性":8509,"血清抗體":8510,"平安":8511,"攜手":8512,"逃逸":8513,"小姐":8514,"住在":8515,"宣告":8516,"尋求":8517,"日凌晨":8518,"每日":8519,"竟是":8520,"海軍":8521,"餐飲":8522,"論壇":8523,"蘋果不建議你這樣用":8524,"子女":8525,"授權":8526,"分別為":8527,"三星":8528,"獎金":8529,"目前已":8530,"中華職棒":8531,"培育":8532,"家的":8533,"很快":8534,"撞上":8535,"日常":8536,"障礙":8537,"市民":8538,"才發現":8539,"掀起":8540,"棒球":8541,"航班":8542,"一半":8543,"而言":8544,"儀式":8545,"志工":8546,"機器":8547,"意願":8548,"三立新聞網提醒您":8549,"消失":8550,"依舊":8551,"很好":8552,"不見":8553,"吃到":8554,"現代":8555,"變得":8556,"他人":8557,"或者":8558,"保育":8559,"海域":8560,"充電":8561,"出去":8562,"老人":8563,"草案":8564,"促進":8565,"對戰":8566,"犯案":8567,"不太":8568,"帳號":8569,"檢視":8570,"相較":8571,"參賽":8572,"只好":8573,"或許":8574,"有限":8575,"用水":8576,"女孩":8577,"留下":8578,"行經":8579,"人氣":8580,"不佳":8581,"人類":8582,"否認":8583,"近來":8584,"恐怖":8585,"最後一":8586,"公社":8587,"導演":8588,"資深":8589,"去年同期":8590,"罪嫌":8591,"並將":8592,"出發":8593,"議會":8594,"隨時":8595,"鄰居":8596,"飛機":8597,"商業":8598,"在這":8599,"處理器":8600,"疑慮":8601,"的部分":8602,"言論":8603,"名額":8604,"封鎖":8605,"而已":8606,"判斷":8607,"穿著":8608,"很有":8609,"現身":8610,"列車":8611,"籃網":8612,"公益":8613,"長輩":8614,"....":8615,"中南部":8616,"千元":8617,"好幾":8618,"味道":8619,"喝酒":8620,"創新高":8621,"火箭":8622,"計劃":8623,"打數":8624,"站在":8625,"縣府":8626,"合理":8627,"爆出":8628,"總計":8629,"優質":8630,"升溫":8631,"多名":8632,"多年":8633,"專屬":8634,"金門":8635,"同時也":8636,"太魯閣號":8637,"全數":8638,"分局長":8639,"多的":8640,"指導":8641,"清晨":8642,">~<":8643,"打完":8644,"過的":8645,"印象":8646,"異常":8647,"秘書":8648,"外推":8649,"感受":8650,"防禦率":8651,"上訴":8652,"也都":8653,"今晚":8654,"如有":8655,"若是":8656,"衣服":8657,"填就送奇摩":8658,"填就送奇摩值":8659,"家裡":8660,"海外":8661,"長照":8662,"定期":8663,"出一":8664,"供應鏈":8665,"事務":8666,"好像":8667,"本國籍":8668,"組成":8669,"中國的":8670,"人權":8671,"充滿":8672,"兩岸":8673,"旁邊":8674,"萬劑":8675,"航運":8676,"真的是":8677,"人潮":8678,"財報":8679,"加拿":8680,"無失分":8681,"紅色":8682,"泡麵":8683,"當初":8684,"受惠":8685,"外出":8686,"本次":8687,"眼睛":8688,"移工":8689,"疫情影響":8690,"也有網友":8691,"一旁":8692,"戶外":8693,"販售":8694,"賽前":8695,"進而":8696,"高層":8697,"台北市黨部":8698,"大生":8699,"守護":8700,"心臟":8701,"數字":8702,"有望":8703,"練習":8704,"程式":8705,"年底":8706,"核廢水":8707,"黨主席":8708,"-<":8709,"月初":8710,"簽署":8711,"三大":8712,"不然":8713,"卻被":8714,"薪水":8715,"血栓":8716,"台南市":8717,"事實上":8718,"施工":8719,"空軍":8720,"疫苗的":8721,"上前":8722,"力的":8723,"否則":8724,"常常":8725,"診斷":8726,"超越":8727,"實現":8728,"恐嚇":8729,"頻道":8730,"室內":8731,"病人":8732,"罕見":8733,"停車場":8734,"此事":8735,"法辦":8736,"主動通報":8737,"統一獅":8738,"不論":8739,"慢慢":8740,"能量":8741,"面板":8742,"救護車":8743,"外國":8744,"心情":8745,"意思":8746,"思考":8747,"可是":8748,"新品":8749,"月份":8750,"細節":8751,"報到":8752,"生日":8753,"研判":8754,"壓制":8755,"天的":8756,"泡泡":8757,"現行":8758,"聯絡":8759,"住戶":8760,"指標":8761,"而在":8762,"肥皂":8763,"天使":8764,"峰會":8765,"急救":8766,"所謂":8767,"提案":8768,"開啟":8769,"領袖":8770,"驚人":8771,"介入":8772,"合併":8773,"少女":8774,"我是":8775,"追查":8776,"季後賽":8777,"一軍":8778,"具體":8779,"地下":8780,"小米":8781,"想像":8782,"綠色":8783,"送往":8784,"顏色":8785,"的原因":8786,"per11":8787,"單場":8788,"身心":8789,"出面":8790,"外資":8791,"她說":8792,"進帳":8793,"遺體":8794,"!」、「":8795,"將近":8796,"損失":8797,"管道":8798,"關閉":8799,"運作":8800,"陷入":8801,"動力":8802,"記得":8803,"上任":8804,"延後":8805,"時刻":8806,"期徒刑":8807,"財產":8808,"打擊率":8809,"就像":8810,"趕快":8811,"學年度":8812,"老翁":8813,"震盪":8814,"台灣人":8815,"實習":8816,"晶圓":8817,"氣象":8818,"滿滿":8819,"總是":8820,"請先":8821,"預算":8822,"修法":8823,"設定":8824,"他是":8825,"明星":8826,"納入":8827,"規畫":8828,"還原":8829,"帳戶":8830,"最好":8831,"海巡":8832,"良好":8833,"面的":8834,"可惜":8835,"保持社交距離":8836,"釋出":8837,"冠狀病毒疾病":8838,"軍方":8839,"一口":8840,"中間":8841,"房務":8842,"核酸":8843,"起火":8844,"寵物":8845,"諮詢":8846,"關懷":8847,"飲酒":8848,"入住":8849,"強烈":8850,"藻礁":8851,"西武":8852,"車主":8853,"幼兒園":8854,"中壢":8855,"國防":8856,"罹難":8857,"進度":8858,"錄影":8859,"加拿大":8860,"一隻":8861,"看看":8862,"困擾":8863,"培養":8864,"長的":8865,"不當":8866,"基層":8867,"元的":8868,"分數":8869,"留意":8870,"背後":8871,"這款":8872,"點名":8873,"出現疑似症狀":8874,"宣導":8875,"推薦影音":8876,"一旦":8877,"大部分":8878,"的前":8879,"評委":8880,"勞動節":8881,"大多":8882,"學者":8883,"就被":8884,"稅後":8885,"都可以":8886,"重症":8887,"航空公司":8888,"不起":8889,"兩年":8890,"到案":8891,"半場":8892,"闖入":8893,"區的":8894,"想法":8895,"的事情":8896,"黨籍":8897,"列為":8898,"團結":8899,"組合":8900,"雞蛋":8901,"被害人":8902,"休旅":8903,"口味":8904,"寶寶":8905,"從事":8906,"文件":8907,"注射":8908,"搭乘大眾運輸":8909,"免付費":8910,"動態":8911,"將持續":8912,"擴散":8913,"限定":8914,"世代":8915,"廣播":8916,"開打":8917,"頭部":8918,"一壘":8919,"人物":8920,"全民":8921,"從小":8922,"看法":8923,"腫瘤":8924,"不同的":8925,"名字":8926,"理想":8927,"歷史新高":8928,"畢竟":8929,"遠距":8930,"帶回":8931,"民調":8932,"路段":8933,"全程":8934,"參選":8935,"坦承":8936,"例本土":8937,"短缺":8938,"能在":8939,"結帳":8940,"很多人":8941,"勝利":8942,"後方":8943,"重返":8944,"召集人":8945,"學院":8946,"行銷":8947,"觀念":8948,"還好":8949,"食材":8950,"弱勢":8951,"開出":8952,"以外":8953,"哪裡":8954,"昨晚":8955,"查獲":8956,"用於":8957,"規格":8958,"計程":8959,"宣傳":8960,"務必告知醫師旅遊史":8961,"保證":8962,"兩國":8963,"的美":8964,"車道":8965,"會不會":8966,"五一":8967,"名為":8968,"咳嗽":8969,"限量":8970,"今天在":8971,"女神":8972,"年紀":8973,"強制":8974,"落後":8975,"詐欺":8976,"在美國":8977,"她也":8978,"搜索":8979,"是要":8980,"水量":8981,"不慎":8982,"哥哥":8983,"火腿":8984,"短短":8985,"又有":8986,"進去":8987,"一波":8988,"不如":8989,"幾年":8990,"民間":8991,"。」[":8992,"主角":8993,"入學":8994,"形式":8995,"正妹":8996,"盤中":8997,"等級":8998,"答案":8999,"撥打防疫專線":9000,"大小":9001,"清真":9002,"測驗":9003,"好友":9004,"實力":9005,"松山":9006,"長達":9007,"計程車":9008,"例確診":9009,"天宮":9010,"目擊":9011,"貨車":9012,"開除":9013,"org10":9014,"最新報導":9015,"制裁":9016,"有助":9017,"農民":9018,"蘋果創辦人":9019,"以往":9020,"投票":9021,"疼痛":9022,"騷擾":9023,"國道":9024,"的工作":9025,"試圖":9026,"另有":9027,"拿出":9028,"洋基":9029,"生育":9030,"發表會":9031,"其實是蘋果創辦人":9032,"免付費防疫專線":9033,"三壘":9034,"合計":9035,"設立":9036,"新冠疫情":9037,"肥皂勤洗手":9038,"最好的":9039,"臨床":9040,"若身體不適":9041,"超前":9042,"施打疫苗":9043,"們的":9044,"大戰":9045,"引來":9046,"皮膚":9047,"路人":9048,"關於":9049,"顧客":9050,"並戴上口罩":9051,"依然":9052,"克蘭":9053,"其餘":9054,"逐步":9055,"嘗試":9056,"請主動通報":9057,"天內出現疑似症狀":9058,"回國若身體不適":9059,"請先撥打防疫專線":9060,"並戴上口罩儘速就醫":9061,"天內出現疑似症狀請先撥打防疫專線":9062,"回國若身體不適請主動通報":9063,"上週":9064,"時的":9065,"照護":9066,"信用":9067,"則表示":9068,"力挺":9069,"在今年":9070,"大利":9071,"委託":9072,"理解":9073,"承認":9074,"排隊":9075,"模擬":9076,"清真寺":9077,"圖片":9078,"盡快":9079,"一定會":9080,"連敗":9081,"那些":9082,"體溫":9083,"一種":9084,"債務":9085,"打破":9086,"農業":9087,"鋼鐵":9088,"防範新冠肺炎":9089,"坐在":9090,"破口":9091,"高溫":9092,"人確診":9093,"弟弟":9094,"完美":9095,"彼此":9096,"眾多":9097,"車子":9098,"出動":9099,"打電話":9100,"的風險":9101,"這也是":9102,"警員":9103,"慶祝":9104,"招生":9105,"監督":9106,"移民":9107,"關切":9108,"兩位":9109,"合照":9110,"快訊":9111,"愛的":9112,"成了":9113,"死者":9114,"號碼":9115,"調閱":9116,"兩大":9117,"句話":9118,"浪費":9119,"球團":9120,"大選":9121,"特定":9122,"稱為":9123,"若有":9124,"面積":9125,"實體":9126,"專利":9127,"誇張":9128,"個性":9129,"在此":9130,"房價":9131,"隔天":9132,"同住家人":9133,"百分點":9134,"於今日確診":9135,"公所":9136,"回答":9137,"的學生":9138,"請撥打":9139,"進步":9140,"尤其是":9141,"基於":9142,"現有":9143,"理念":9144,"東京奧運":9145,"篩檢":9146,"司法":9147,"身邊":9148,"上述":9149,"作戰":9150,"打線":9151,"生肖":9152,"行程":9153,"都被":9154,"上有":9155,"也可":9156,"亮眼":9157,"居然":9158,"每月":9159,"返回":9160,"進場":9161,"龍頭":9162,"即便":9163,"夜市":9164,"檢舉":9165,"細胞":9166,"美中":9167,"認真":9168,"不幸":9169,"個百分點":9170,"限時":9171,"題目":9172,"風格":9173,"例行":9174,"不一樣":9175,"並於":9176,"三分球":9177,"仔細":9178,"他認為":9179,"心的":9180,"提早":9181,"病房":9182,"陪伴":9183,"雨量":9184,"伊朗":9185,"應變":9186,"福利":9187,"防止":9188,"公民":9189,"外包":9190,"大讚":9191,"家族":9192,"替代":9193,"第一個":9194,"職缺":9195,"肌肉":9196,"還是要":9197,"董事會":9198,"不小心":9199,"全世界":9200,"水準":9201,"規則":9202,"不動":9203,"化的":9204,"年代":9205,"期滿":9206,"視為":9207,"痛批":9208,"門市":9209,"高級":9210,":「<":9211,"理事長":9212,"下週":9213,"具備":9214,"固定":9215,"送到":9216,"幸運":9217,"把握":9218,"本人":9219,"美方":9220,"身亡":9221,"上海":9222,"地位":9223,"英語":9224,"上面":9225,"地震":9226,"是什麼":9227,"東部":9228,"疫調":9229,"財務":9230,"長者":9231,"新冠疫苗":9232,"北港":9233,"熱情":9234,"被問":9235,"重申":9236,"已經有":9237,"車的":9238,"不願":9239,"在外":9240,"烏克蘭":9241,"祝福":9242,"話題":9243,"還說":9244,"一片":9245,"傷勢":9246,"僅有":9247,"洋投":9248,"興奮":9249,"開罰":9250,"集中檢疫所":9251,"少數":9252,"星座":9253,"星期":9254,"有可能":9255,"玩家":9256,"的情況下":9257,"不容易":9258,"優秀":9259,"副所長":9260,"戰機":9261,"調查中":9262,"富邦悍將":9263,"狗狗":9264,"相比":9265,"風暴":9266,"主義":9267,"啟用":9268,"妨害":9269,"群聚感染":9270,"一致":9271,"以色":9272,"出血":9273,"刺激":9274,"回收":9275,"幾個":9276,"記錄":9277,"歲以上":9278,"血管":9279,"部隊":9280,"負責人":9281,"姓女子":9282,"開槍":9283,"的影響":9284,"禮物":9285,"送辦":9286,"也不會":9287,"化學":9288,"資本":9289,"雲端":9290,"上路":9291,"使得":9292,"哪些":9293,"追求":9294,"這波":9295,"全校":9296,"副作用":9297,"訊後":9298,"的機率":9299,"三重":9300,"她在":9301,"火星":9302,"非法":9303,"以色列":9304,"付出":9305,"戰績":9306,"擔憂":9307,"透明":9308,"全館":9309,"嬌生":9310,"打出":9311,"期盼":9312,"法案":9313,"高階":9314,"按照":9315,"新疆":9316,"樂天桃猿":9317,"是由":9318,"警消":9319,"了一個":9320,"女童":9321,"學長":9322,"已在":9323,"接連":9324,"查看":9325,"人死亡":9326,"或無法":9327,"白天":9328,"一大":9329,"海上":9330,"聯賽":9331,"確診個案":9332,"例境外移入":9333,"入黨":9334,"景點":9335,"電廠":9336,"只剩":9337,"對決":9338,"成年":9339,"植物":9340,"焦點":9341,"籃球":9342,"繁星":9343,"親友":9344,"何時":9345,"好手":9346,"放寬":9347,"讓你":9348,"以北":9349,"保留":9350,"歧視":9351,"監控":9352,"總理":9353,"一邊":9354,"吃飯":9355,"是有":9356,"此役":9357,"禮拜":9358,"近年來":9359,"中和":9360,"偵查":9361,"再加上":9362,"分打點":9363,"商店":9364,"喊話":9365,"的行為":9366,"跡象":9367,"長榮":9368,"培訓":9369,"挑選":9370,"美日":9371,"應該要":9372,"允許":9373,"外觀":9374,"完工":9375,"小學":9376,"最強":9377,"法規":9378,"下殺":9379,"分手":9380,"單純":9381,"定位":9382,"應使用":9383,"自家":9384,"風波":9385,"出軌":9386,"權利":9387,"正面":9388,"麵包":9389,"大廠":9390,"萬美元":9391,"害怕":9392,"攜帶":9393,"沒人":9394,"!」<":9395,"學童":9396,"的關係":9397,"評論":9398,"務必戴上口罩":9399,"土耳":9400,"差異":9401,"拍下":9402,"貨幣":9403,"質詢":9404,"上下":9405,"人妻":9406,"增長":9407,"我想":9408,"有趣":9409,"一個人":9410,"保持社交距離時":9411,"回覆":9412,"日至":9413,"有著":9414,"演唱":9415,"語言":9416,"通緝":9417,"隊伍":9418,"高鐵":9419,"土耳其":9420,"之亂":9421,"住宅":9422,"公平":9423,"展望":9424,"春季":9425,"搭乘大眾運輸或無法":9426,"應使用肥皂勤洗手":9427,"搭乘大眾運輸或無法保持社交距離時":9428,"事態":9429,"在場":9430,"教官":9431,"涉案":9432,"變異":9433,"進駐":9434,"麻煩":9435,"上周":9436,"互相":9437,"人為":9438,"加州":9439,"多個":9440,"當事":9441,"盡量":9442,"直升":9443,"行駛":9444,"部署":9445,"三個":9446,"估計":9447,"危害":9448,"早期":9449,"主要是":9450,"友善":9451,"生的":9452,"男女":9453,"發動":9454,"類股":9455,"兩隊":9456,"商機":9457,"按摩":9458,"聯邦":9459,"過度":9460,"體重":9461,"今天上午":9462,"!「":9463,"上演":9464,"外長":9465,"此戰":9466,"聊天":9467,"今日推薦影音":9468,"合法":9469,"哪個":9470,"殺人":9471,"蛋白":9472,"解答":9473,"推出的":9474,"但仍":9475,"快樂":9476,"偏鄉":9477,"失敗":9478,"會談":9479,"繳出":9480,"認同":9481,"不料":9482,"乾淨":9483,"巴西":9484,"教室":9485,"決心":9486,"per12":9487,"相關的":9488,"小時候":9489,"基金會":9490,"不可能":9491,"市值":9492,"打席":9493,"校內":9494,"案發":9495,"看完":9496,"證券":9497,"出入":9498,"我就":9499,"百年":9500,"的國家":9501,"行車":9502,"零星":9503,"潛艦":9504,"的她":9505,"足夠":9506,"日本政府":9507,"了吧":9508,"前後":9509,"戰爭":9510,"才知道":9511,"日期":9512,"缺乏":9513,"處於":9514,"適當":9515,"開會":9516,"餐點":9517,"首位":9518,">..":9519,"主辦":9520,"包裝":9521,"居住":9522,"展示":9523,"文字":9524,"深入":9525,"相機":9526,"開設":9527,"提及":9528,"民宅":9529,"電梯":9530,"分配":9531,"妹妹":9532,"惡意":9533,"癌症":9534,"等於":9535,"粉專":9536,"地方政府":9537,"撞擊":9538,"改為":9539,"財經":9540,"一事":9541,"便當":9542,"子的":9543,"守備":9544,"種族":9545,"買房":9546,"主播":9547,"情勢":9548,"是一個":9549,"水電":9550,"媒體報導":9551,"假日":9552,"戰力":9553,"毛利率":9554,"的目標":9555,"罹患":9556,"舞台":9557,"萬名":9558,"主持人":9559,"大谷":9560,"幸好":9561,"物理":9562,"給我":9563,"義大利":9564,"門檻":9565,"大規模":9566,"當沖":9567,"還沒有":9568,"在於":9569,"更好":9570,"研議":9571,"角度":9572,"賺錢":9573,"這邊":9574,"短暫陣雨":9575,"基因":9576,"學年":9577,"發行":9578,"瞭解":9579,"讓民眾":9580,"還可以":9581,"驚呼":9582,"住家":9583,"充分":9584,"多雲":9585,"婦女":9586,"應對":9587,"的朋友":9588,"看過":9589,"祭出":9590,"選項":9591,"大甲":9592,"東森":9593,"決賽":9594,"處長":9595,"中崙":9596,"在一起":9597,"月的":9598,"聲稱":9599,"街頭":9600,"急診":9601,"試驗":9602,"護理師":9603,"國務":9604,"復甦":9605,"性別":9606,"武器":9607,"玩具":9608,"第五":9609,"股利":9610,"一處":9611,"三接":9612,"各大":9613,"巡邏":9614,"捐贈":9615,"樂觀":9616,"火警":9617,"發射":9618,"資安":9619,"代表處":9620,"保存":9621,"她們":9622,"所需":9623,"普通":9624,"事宜":9625,"太大":9626,"的生活":9627,"的比賽":9628,"的態度":9629,"移除":9630,"跟我":9631,"領航":9632,"不對":9633,"引擎":9634,"效率":9635,"新莊":9636,"立法":9637,"警報":9638,"遵守":9639,"醫護人員":9640,"一條":9641,"也曾":9642,"的東西":9643,"贏球":9644,"首勝":9645,"休旅車":9646,"不停":9647,"傷口":9648,"機械":9649,"舒服":9650,"電商":9651,"驚喜":9652,"高齡":9653,"台灣大":9654,"一份":9655,"搜尋":9656,"普遍":9657,"福島":9658,"高速":9659,"之際":9660,"前來":9661,"只會":9662,"外型":9663,"百貨":9664,"空中":9665,"搭機":9666,"森林":9667,"聯手":9668,"工人":9669,"手套":9670,"有民眾":9671,"氣炸":9672,"溫度":9673,"現任":9674,"腦死":9675,"霸凌":9676,"夢想家":9677,"不排除":9678,"先進":9679,"前方":9680,"國軍":9681,"在網路上":9682,"槍擊":9683,"為陰性":9684,"看來":9685,"給他":9686,"表揚":9687,"野生":9688,"靠近":9689,"不久":9690,"做到":9691,"失蹤":9692,"筆電":9693,"雨勢":9694,"餐敘":9695,"差點":9696,"是個":9697,"有期徒刑":9698,"模範":9699,"為本國籍":9700,"發票":9701,"的表現":9702,"這件事":9703,"本週":9704,"熟悉":9705,"示威":9706,"讓學生":9707,"台北市長":9708,">」、「":9709,"口感":9710,"平衡":9711,"永遠":9712,"見面":9713,"熱烈討論":9714,"仇恨":9715,"做的":9716,"塑膠":9717,"差距":9718,"廚房":9719,"忘記":9720,"貨機":9721,"org11":9722,"低於":9723,"時常":9724,"模樣":9725,"美味":9726,"過世":9727,"首先":9728,"人家":9729,"原住民":9730,"大阪":9731,"火力":9732,"登上":9733,"知情":9734,"豆腐":9735,"賓士":9736,"門票":9737,"難度":9738,"短暫雨":9739,"並不是":9740,"出了":9741,"對台灣":9742,"文學":9743,"漲價":9744,"發病":9745,"科醫師":9746,"頭痛":9747,"馬路":9748,"今天下午":9749,"孩子的":9750,"上壘":9751,"主張":9752,"形容":9753,"新生":9754,"相隔":9755,"複雜":9756,"貓咪":9757,"雙北":9758,"分別是":9759,"監視器畫面":9760,"兩次":9761,"卻是":9762,"命中":9763,"昏迷":9764,"英雄":9765,"貨櫃":9766,">+":9767,"一週":9768,"盤查":9769,"這場比賽":9770,"新型":9771,"但也":9772,"優異":9773,"將他":9774,"房東":9775,"故意":9776,"主管機關":9777,"秘書長":9778,"左投":9779,"支出":9780,"玩笑":9781,"隱私":9782,"相關新聞影音":9783,"上千":9784,"卻在":9785,"旗艦":9786,"沒辦法":9787,"營養師":9788,"信用卡":9789,"生意":9790,"當日":9791,"等症狀":9792,"致力":9793,"長大":9794,"院所":9795,"難道":9796,"體系":9797,"以免":9798,"出售":9799,"執勤":9800,"容量":9801,"約有":9802,"被打":9803,"該公司":9804,"過往":9805,"前的":9806,"流程":9807,"漂亮":9808,"私人":9809,"酒店":9810,"飼主":9811,"不在":9812,"不容":9813,"分為":9814,"女王":9815,"工地":9816,"有一名":9817,"毫米":9818,"笑翻":9819,"變遷":9820,"審理":9821,"落在":9822,"防治":9823,"但因":9824,"助理":9825,"大漲":9826,"數十":9827,"時尚":9828,"舉動":9829,"飛彈":9830,"下周":9831,"受影響":9832,"排行":9833,"激烈":9834,"總共":9835,"公布的":9836,"嚇壞":9837,"每個人":9838,"裁判":9839,"機組人員":9840,"下半年":9841,"代理":9842,"差不多":9843,"愛情":9844,"明明":9845,"治安":9846,"西亞":9847,"隊史":9848,"騎車":9849,"網友在":9850,"出現在":9851,"單身":9852,"國文":9853,"尷尬":9854,"後面":9855,"步驟":9856,"火車":9857,"超市":9858,"過失":9859,"顯然":9860,"太太":9861,"日職":9862,"翻攝":9863,"課綱":9864,"雜誌":9865,"食用":9866,"大家都":9867,"多久":9868,"期望":9869,"演藝":9870,"火鍋":9871,"藍色":9872,"讓原":9873,"高於":9874,"網友熱議":9875,"美國的":9876,"大考":9877,"我也":9878,"早已":9879,"的他":9880,"公路":9881,"判刑":9882,"秘密":9883,"羈押":9884,"軌道":9885,"辨識":9886,"延伸閱讀":9887,"領航猿":9888,"修復":9889,"拿著":9890,"澎湖":9891,"退出":9892,"人都":9893,"反彈":9894,"撞死":9895,"材料":9896,"火勢":9897,"談判":9898,"全年":9899,"的手":9900,"科系":9901,"耳機":9902,"報導指出":9903,"新冠病毒":9904,"直升機":9905,"出戰":9906,"同一":9907,"屆時":9908,"捐款":9909,"洗衣":9910,"前進":9911,"對流":9912,"會中":9913,"算是":9914,"談到":9915,"請勿":9916,"工程師":9917,"新款":9918,"有什麼":9919,"象徵":9920,"重啟":9921,"指揮中心表示":9922,"才剛":9923,"製程":9924,"試場":9925,"讓我":9926,"迎接":9927,"更多新":9928,"中繼":9929,"做法":9930,"是他":9931,"求償":9932,"爆炸":9933,"男生":9934,"週刊":9935,"印度的":9936,"位在":9937,"境內":9938,"失智":9939,"旱象":9940,"表態":9941,"驅逐":9942,"嚴重的":9943,"一堆":9944,"有利":9945,"洋將":9946,"罰金":9947,"較為":9948,"遊行":9949,"陌生":9950,"出手":9951,"各式":9952,"捕手":9953,"睡覺":9954,"停辦":9955,"回報":9956,"建置":9957,"離職":9958,"動物園":9959,"仍是":9960,"信任":9961,"天然":9962,"的不":9963,"主人":9964,"慘遭":9965,"看不":9966,"許可":9967,"酒測":9968,"雙語":9969,"第一線":9970,"到現在":9971,"後就":9972,"據悉":9973,"求救":9974,"求職":9975,"酒精":9976,"使用的":9977,"太空人":9978,"半夜":9979,"探索":9980,"比數":9981,"瘋狂":9982,"的支持":9983,"稽查":9984,"親王":9985,"」?":9986,"不禁":9987,"保養":9988,"見到":9989,"販毒":9990,"其他人":9991,"名機師":9992,"場先發":9993,"技能":9994,"攻勢":9995,"罰款":9996,"並表示":9997,"月間":9998,"演說":9999,"職務":10000,"部落":10001,"首例":10002,"一代":10003,"世紀":10004,"吃的":10005,"本周":10006,"用品":10007,"肚子":10008,"遭遇":10009,"一時":10010,"新人":10011,"滿壘":10012,"短期":10013,"表情":10014,"試題":10015,"記者會上":10016,"哈哈":10017,"愛心":10018,"買了":10019,"復出":10020,"日媒":10021,"爆紅":10022,"爸媽":10023,"追平":10024,"重摔":10025,"印尼籍":10026,"專訪":10027,"有許多":10028,"秩序":10029,"車廂":10030,"酒吧":10031,"頭殼":10032,"第二季":10033,"下滑":10034,"內湖":10035,"新鮮":10036,"痛苦":10037,"的確":10038,"踴躍":10039,"就是要":10040,"博士":10041,"小客":10042,"房地":10043,"發起":10044,"陽明":10045,"本季第":10046,"占比":10047,"型的":10048,"是為了":10049,"曾到":10050,"看著":10051,"花了":10052,"衛星":10053,"過量":10054,"旅遊泡泡":10055,"主因":10056,"月起":10057,"租屋":10058,"血壓":10059,"阿富":10060,"首相":10061,"更多東森":10062,"高中生":10063,"將是":10064,"留在":10065,"繳稅":10066,"興建":10067,"讓大家":10068,"但這":10069,"冷氣":10070,"徵才":10071,"性能":10072,"意味":10073,"署長":10074,"老實":10075,"裡的":10076,"迄今":10077,"還不":10078,"更多新頭殼":10079,"更多新頭殼報導":10080,"中方":10081,"作法":10082,"回去":10083,"小三":10084,"林口":10085,"此舉":10086,"漲停":10087,"開學":10088,"陪同":10089,"管制措施":10090,"將由":10091,"比特":10092,"配戴口罩":10093,"骨折":10094,"阿富汗":10095,"人次":10096,"出版":10097,"受困":10098,"單季":10099,"日到":10100,"早就":10101,"登板":10102,"的影片":10103,"行業":10104,"印地":10105,"布局":10106,"才有":10107,"標示":10108,"被告":10109,"偷渡":10110,"多了":10111,"我要":10112,"求助":10113,"派員":10114,"白沙":10115,"虧損":10116,"通通":10117,"更多相關新聞":10118,"自己是":10119,"政府的":10120,"交給":10121,"共計":10122,"再生":10123,"奇怪":10124,"微博":10125,"的活動":10126,"陽春":10127,"入境後":10128,"?」<":10129,"富豪":10130,"水氣":10131,"游泳":10132,"為此":10133,"義務":10134,"重創":10135,"國家的":10136,"受訪時":10137,"下令":10138,"停課":10139,"日報":10140,"會被":10141,"每人":10142,"親子":10143,"防衛":10144,"巫師":10145,"引述":10146,"後再":10147,"憂心":10148,"登錄":10149,"緩解":10150,"美股":10151,"群組":10152,"車內":10153,"可以看到":10154,"不需要":10155,"俄國":10156,"全家":10157,"動手":10158,"座位":10159,"校友":10160,"球星":10161,"相互":10162,"致死":10163,"甚至還":10164,"一顆":10165,"列入":10166,"加盟":10167,"的貼文":10168,"簽約":10169,"劑疫苗":10170,"季增":10171,"循環":10172,"會長":10173,"的就是":10174,"精準":10175,"專案小組":10176,"房市":10177,"政黨":10178,"鄰近":10179,"阻止":10180,"loc3":10181,"警方調查":10182,"獲報後":10183,"印地安":10184,"人體":10185,"企圖":10186,"住宿":10187,"宗教":10188,"歷經":10189,"總裁":10190,"貸款":10191,"連鎖":10192,"工作的":10193,"多種":10194,"底下":10195,"有意":10196,"維修":10197,"補習":10198,"部位":10199,"預告":10200,"馬來":10201,"驗出":10202,"一名男子":10203,"緊急事態":10204,"截至目前":10205,"個資":10206,"再見":10207,"天後":10208,"抗疫":10209,"時機":10210,"獅隊":10211,"獨家":10212,"酒後":10213,"隊員":10214,"住處":10215,"停在":10216,"又是":10217,"大麻":10218,"心中":10219,"物料":10220,"重建":10221,"人們":10222,"傷亡":10223,"徹底":10224,"聚集":10225,"警方表示":10226,"以為是":10227,"名學生":10228,"扮演":10229,"美麗":10230,"要有":10231,"跑到":10232,"之間的":10233,"不應":10234,"也希望":10235,"但卻":10236,"但她":10237,"到的":10238,"援助":10239,"收容":10240,"組長":10241,"過了":10242,"一名女網友":10243,"傳產":10244,"優於":10245,"全美":10246,"則說":10247,"口角":10248,"大多數":10249,"新機":10250,"牛肉":10251,"的感覺":10252,"途中":10253,"結束後":10254,"中山":10255,"嚇得":10256,"大火":10257,"幅度":10258,"找不到":10259,"日表示":10260,"營造":10261,"黨內":10262,"電子股":10263,"不法":10264,"犧牲":10265,"福建":10266,"跌幅":10267,"還有人":10268,"身分證":10269,"大考中心":10270,"全都":10271,"批准":10272,"但因為":10273,"和解":10274,"日後":10275,"用來":10276,"警覺":10277,"金牌":10278,"三年":10279,"下旬":10280,"地說":10281,"婚禮":10282,"幫派":10283,"次數":10284,"清空":10285,"今日表示":10286,"白沙屯":10287,"協商":10288,"圖書":10289,"會後":10290,"有時":10291,"比重":10292,"獎勵":10293,"馬祖":10294,"地區的":10295,"中華民國":10296,">。[":10297,"一審":10298,"下班":10299,"取代":10300,"視察":10301,"顯著":10302,">、、":10303,"追蹤報導":10304,"自行車":10305,"情侶":10306,"日子":10307,"明日":10308,"智能":10309,"樣子":10310,"欣賞":10311,"里長":10312,"重量":10313,"公寓":10314,"女學生":10315,"宿舍":10316,"就可":10317,"罰鍰":10318,"過後":10319,"震驚":10320,"早在":10321,"睡眠":10322,"虛擬":10323,"輝瑞":10324,"開轟":10325,"動能":10326,"很高":10327,"得以":10328,"煞車":10329,"賽季":10330,"身份":10331,"衛生單位":10332,"位數":10333,"冷凍":10334,"家電":10335,"專門":10336,"巨大":10337,"此時":10338,"海底":10339,"盡速":10340,"不行":10341,"全隊":10342,"周年":10343,"對上":10344,"廢棄":10345,"月薪":10346,"漏洞":10347,"考題":10348,"處置":10349,"通車":10350,"驚傳":10351,"中表示":10352,"原先":10353,"大專":10354,"歌手":10355,"考場":10356,"這兩":10357,"更多追蹤報導":10358,"聯合品牌":10359,"並以":10360,"刻意":10361,"已於":10362,"年起":10363,"校慶":10364,"被敲":10365,"額外":10366,"點出":10367,"疫苗施打":10368,"外交部":10369,"下場":10370,"不大":10371,"再來":10372,"協定":10373,"將有":10374,"成就":10375,"景氣":10376,"湧入":10377,"特地":10378,"與中國":10379,"達人":10380,"間的":10381,"集結":10382,"網友紛紛":10383,"安全的":10384,"彰化縣":10385,"做了":10386,"勝投":10387,"嬰兒":10388,"打了":10389,"滿意":10390,"終止":10391,"觸控":10392,"金屬":10393,"馬來西亞":10394,"下方":10395,"刑事":10396,"有了":10397,"福原":10398,"站上":10399,"華為":10400,"輸入":10401,"開盤":10402,"受害者":10403,"一件":10404,"五月":10405,"人事":10406,"吃緊":10407,"大盤":10408,"始終":10409,"得點":10410,"以上的":10411,"不易":10412,"乾旱":10413,"小的":10414,"成熟":10415,"洗澡":10416,"當作":10417,"讓他們":10418,"露出":10419,"嬌生疫苗":10420,"一項":10421,"另一個":10422,"最危險":10423,"橡皮":10424,"無線":10425,"犯嫌":10426,"足球":10427,"適用":10428,"預定":10429,"首都":10430,"體操":10431,"現在的":10432,"前總統":10433,"我會":10434,"效益":10435,"氣氛":10436,"當前":10437,"裝備":10438,"豪宅":10439,"遼寧":10440,"鋒面通過":10441,"氣候變遷":10442,"傷者":10443,"多達":10444,"拍到":10445,"未能":10446,"甜點":10447,"的關鍵":10448,"美女":10449,"梅雨季":10450,">+<":10451,"國安":10452,"在中國":10453,"很久":10454,"德里":10455,"找出":10456,"有很多":10457,"眼鏡":10458,"驚訝":10459,"一台":10460,"到來":10461,"則有":10462,"南下":10463,"日出現":10464,"服飾":10465,"樣的":10466,"涵蓋":10467,"電競":10468,"頭髮":10469,"飾演":10470,"新北市長":10471,"月中旬":10472,"罹難者":10473,"動機":10474,"台鐵":10475,"寫道":10476,"推進":10477,"期限":10478,"東北":10479,"相處":10480,"稍微":10481,"自稱":10482,"致詞":10483,"討厭":10484,"稅後純益":10485,"制止":10486,"商圈":10487,"在疫情":10488,"時事":10489,"溫暖":10490,"車頭":10491,"選人":10492,"怎麼辦":10493,"傍晚":10494,"多項":10495,"也因此":10496,"女方":10497,"會再":10498,"深刻":10499,"不管是":10500,"將與":10501,"拍賣":10502,"會是":10503,"花東":10504,"返家":10505,"日前在":10506,"二審":10507,"入侵":10508,"內野":10509,"堅定":10510,"大關":10511,"打氣":10512,"棒球場":10513,"業界":10514,"更多東森新聞報導":10515,"公佈":10516,"嚇到":10517,"多位":10518,"彈性":10519,"挹注":10520,"施壓":10521,"條款":10522,"火燒":10523,"無關":10524,"說要":10525,"創業":10526,"博物":10527,"的需求":10528,"表明":10529,"西哥":10530,"震撼":10531,"一對":10532,"因而":10533,"媳婦":10534,"尺寸":10535,"找來":10536,"查緝":10537,"氣溫":10538,"現況":10539,"雷達":10540,"新聞稿":10541,"婚後":10542,"孩童":10543,"手法":10544,"收盤":10545,"效能":10546,"日內":10547,"更好的":10548,"紅包":10549,"職員":10550,"近況":10551,"部份":10552,">》":10553,"原物料":10554,"墨西哥":10555,"技巧":10556,"探視":10557,"權力":10558,"熱量":10559,"究竟":10560,"能否":10561,"加工":10562,"打到":10563,"推測":10564,"此案":10565,"率先":10566,"與會":10567,"行情":10568,"語音":10569,"發生一起":10570,"經濟成長":10571,"嘉義縣":10572,"當事人":10573,"主投":10574,"加護":10575,"就不":10576,"悲劇":10577,"檢警":10578,"無安打":10579,"的疫苗":10580,"舒適":10581,"說話":10582,"機師確診":10583,"個小時":10584,"全中":10585,"全體":10586,"屋主":10587,"應考":10588,"模組":10589,"歷程":10590,"的說法":10591,"防守":10592,"接觸史":10593,"下架":10594,"吞下":10595,"小型":10596,"度過":10597,"打臉":10598,"敏感":10599,"斯拉":10600,"的防疫":10601,"特別是":10602,"出來的":10603,"福原愛":10604,"中文":10605,"原料":10606,"大三":10607,"奶茶":10608,"後發現":10609,"現階段":10610,"的台灣":10611,"聯名":10612,"輔助":10613,"轉移":10614,"返國":10615,"都市":10616,"光是":10617,"共享":10618,"戲劇":10619,"的可能性":10620,"駭客":10621,"提醒民眾":10622,"因應新冠肺炎疫情":10623,"一陣":10624,"保全":10625,"冰箱":10626,"出遊":10627,"勇敢":10628,"大師":10629,"那邊":10630,"鄉民":10631,"面上":10632,"公司的":10633,"不動產":10634,"演唱會":10635,"三天":10636,"交換":10637,"十大":10638,"國會":10639,"將以":10640,"就已經":10641,"感受到":10642,"成人":10643,"更大":10644,"蔓延":10645,"註冊":10646,"財政":10647,"關節":10648,"今年的":10649,"第一名":10650,"拜登政府":10651,"中有":10652,"來愈":10653,"傳遞":10654,"千人":10655,"司令":10656,"捍衛":10657,"更為":10658,"最重要":10659,"核准":10660,"水源":10661,"無限":10662,"科目":10663,"稅率":10664,"終結":10665,"網上":10666,"駐日":10667,"印地安人":10668,"可怕":10669,"女大生":10670,"毀損":10671,"淨利":10672,"是否會":10673,"呼籲民眾":10674,"一周":10675,"偵測":10676,"小弟":10677,"居檢":10678,"廣場":10679,"毫無":10680,"現實":10681,"祈福":10682,"要不要":10683,"週年":10684,"阿公":10685,"博物館":10686,"來不及":10687,"入海":10688,"公頃":10689,"力道":10690,"行徑":10691,"通路":10692,"鏡週刊":10693,"如果是":10694,"以利":10695,"做為":10696,"到現場":10697,"有時候":10698,"核四":10699,"正義":10700,"監獄":10701,"看出":10702,"身穿":10703,"疫情監測":10704,"生活中心":10705,"在全球":10706,"愈來愈":10707,"收購":10708,"聚會":10709,"華裔":10710,"頻頻":10711,"其中有":10712,"運動影音":10713,"公務員":10714,"偽造":10715,"商務":10716,"學期":10717,"年間":10718,"戀愛":10719,"放鬆":10720,"檔案":10721,"無力":10722,"牛棚":10723,"特斯拉":10724,"集體":10725,"表示自己":10726,"每股純益":10727,"精彩運動影音":10728,"及其":10729,"安裝":10730,"展覽":10731,"污染":10732,"減輕":10733,"生氣":10734,"豬肉":10735,"核酸檢測":10736,"被問到":10737,"橡皮艇":10738,"不變":10739,"中美":10740,"完畢":10741,"慢性":10742,"民生":10743,"漢堡":10744,"繳納":10745,"藥品":10746,"上門":10747,"主權":10748,"偶像":10749,"則在":10750,"台新":10751,"後才":10752,"收費":10753,"派遣":10754,"買賣":10755,"黑幫":10756,"基本上":10757,"不合":10758,"北投":10759,"同行":10760,"強勢":10761,"心裡":10762,"成效":10763,"滾地球":10764,"該校":10765,"年內":10766,"往往":10767,"裁定":10768,"連接":10769,"類的":10770,"陰性報告":10771,"一面":10772,"中火":10773,"初期":10774,"可說是":10775,"台大":10776,"在內":10777,"太過":10778,"成的":10779,"牛奶":10780,"連署":10781,"進攻":10782,"頒獎":10783,"高檔":10784,"一段時間":10785,"正是":10786,"水區":10787,"汽油":10788,"西瓜":10789,"響應":10790,"聯合聲明":10791,"召開記者會":10792,"機器人":10793,"依規定":10794,"備詢":10795,"很大的":10796,"所屬":10797,"瓦斯":10798,"私立":10799,"迎來":10800,"這對":10801,"點半":10802,"如果有":10803,"失聯":10804,"最愛":10805,"服員":10806,"真是":10807,"雙城":10808,"常見的":10809,"官兵":10810,"宣言":10811,"志願":10812,"成分":10813,"招牌":10814,"攻城":10815,"滅證":10816,"落差":10817,"比特幣":10818,"供稱":10819,"倒數":10820,"動畫":10821,"厲害":10822,"完善":10823,"對台":10824,"幹部":10825,"搜救":10826,"擦撞":10827,"有個":10828,"的畫面":10829,"支持者":10830,"中斷":10831,"之子":10832,"入場":10833,"拿來":10834,"氧化":10835,"獨特":10836,"用途":10837,"見狀":10838,"一口氣":10839,"上線":10840,"不已":10841,"作家":10842,"列居家隔離":10843,"吸收":10844,"四大":10845,"我都":10846,"效力":10847,"波及":10848,"的車":10849,"的相關":10850,"較去年同期":10851,"在臉書上":10852,"主力":10853,"午餐":10854,"受理":10855,"各校":10856,"增強":10857,"搶先":10858,"本月":10859,"果粉":10860,"獨自":10861,"產學":10862,"釣出":10863,"難得":10864,"雷雨":10865,"不要再":10866,"上一軍":10867,"並與":10868,"各自":10869,"回台":10870,"專頁":10871,"對應":10872,"導入":10873,"搖頭":10874,"有無":10875,"有一個":10876,"發電":10877,"百人":10878,"西半部":10879,"隱藏":10880,"確診的":10881,"吃到飽":10882,"並依":10883,"子宮":10884,"店內":10885,"性侵":10886,"未料":10887,"比照":10888,"除此":10889,"雇主":10890,"亮相":10891,"報考":10892,"推文":10893,"歲男":10894,"租金":10895,"訴求":10896,"這份":10897,"這時":10898,"台灣是":10899,"國內新增":10900,"不讓":10901,"副總統":10902,"去過":10903,"手上":10904,"最美":10905,"朝天宮":10906,"監管":10907,"缺席":10908,"請求":10909,"財運":10910,"未來的":10911,"事項":10912,"娃娃":10913,"挑釁":10914,"改造":10915,"萬例":10916,"per13":10917,"今日上午":10918,"老闆娘":10919,"邊境管制措施":10920,"亮點":10921,"其次":10922,"出院":10923,"奧斯":10924,"姓教練":10925,"存款":10926,"宣稱":10927,"登山":10928,"總監":10929,"不懂":10930,"主嫌":10931,"反擊":10932,"在去年":10933,"大礙":10934,"完封":10935,"找回":10936,"檢出":10937,"獲選":10938,"王子":10939,"發放":10940,"的安全":10941,"美金":10942,"警戒":10943,"譴責":10944,"長時間":10945,"移送法辦":10946,"一帶":10947,"一早":10948,"時程":10949,"最重要的":10950,"核定":10951,"為台灣":10952,"珍惜":10953,"融入":10954,"讓網友":10955,"送餐":10956,"進展":10957,"遺憾":10958,"量測":10959,"予以":10960,"勢力":10961,"深度":10962,"的消息":10963,"落網":10964,"請問":10965,"跑者":10966,"遠離":10967,"陳男":10968,"之中":10969,"性感":10970,"感嘆":10971,"日舉行":10972,"男人":10973,"發炎":10974,"等相關":10975,"經紀":10976,"舅舅":10977,"訴訟":10978,"降至":10979,"隨便":10980,"研究所":10981,"外包商":10982,"備受":10983,"平日":10984,"恐慌":10985,"版權":10986,"的經驗":10987,"盈餘":10988,"碰到":10989,"聚焦":10990,"自信":10991,"花費":10992,"沒有任何":10993,"影片中":10994,"死亡人數":10995,"一整":10996,"客場":10997,"層樓":10998,"心跳":10999,"招募":11000,"撤離":11001,"台灣時間":11002,"傳播鏈":11003,"除此之外":11004,"也已":11005,"判處":11006,"如同":11007,"專注":11008,"日公布":11009,"是誰":11010,"條文":11011,"縮短":11012,"進到":11013,"關卡":11014,"更多鏡週刊":11015,"中部以北":11016,"更多鏡週刊報導":11017,"修改":11018,"十年":11019,"囂張":11020,"場域":11021,"大學生":11022,"奶奶":11023,"好轉":11024,"洛杉":11025,"熱心":11026,"穿上":11027,"迎戰":11028,"中常":11029,"代工":11030,"拉開":11031,"會持續":11032,"班機":11033,"發聲":11034,"這回":11035,"都已經":11036,"重複":11037,"難過":11038,"青少年":11039,"類型":11040,"上去":11041,"前夕":11042,"嚴防":11043,"天母":11044,"激勵":11045,"軍人":11046,"這張":11047,"重傷":11048,"門診":11049,"阿里":11050,"」,「":11051,"加油站":11052,"不堪":11053,"日進行":11054,"日宣布":11055,"是以":11056,"是台灣":11057,"滅火":11058,"而不是":11059,"色的":11060,"衝撞":11061,"還被":11062,"限水":11063,"檢疫期滿":11064,"的重要性":11065,"上次":11066,"台美":11067,"姓名":11068,"據點":11069,"深受":11070,"溫馨":11071,"瘋傳":11072,"西蘭":11073,"要在":11074,"販賣":11075,"競爭力":11076,"公務人員":11077,"洛杉磯":11078,"仍未":11079,"承擔":11080,"指稱":11081,"支撐":11082,"等地":11083,"遊覽":11084,"活動史":11085,"攻城獅":11086,"不出":11087,"也提到":11088,"受損":11089,"和其他":11090,"引進":11091,"減肥":11092,"連環":11093,"不必":11094,"他就":11095,"函送":11096,"夏天":11097,"復健":11098,"案情":11099,"被發現":11100,"跌倒":11101,"風景":11102,"高峰":11103,"供應商":11104,"宣告不治":11105,"一款":11106,"傳聞":11107,"利亞":11108,"可達":11109,"往前":11110,"擴張":11111,"攀升":11112,"歲男童":11113,"波疫情":11114,"脂肪":11115,"與邊境管制措施":11116,"走到":11117,"飼養":11118,"第一階段":11119,"舉辦的":11120,"保護力":11121,"疫情監測與邊境管制措施":11122,"候選人":11123,"停電":11124,"圖擷":11125,"地上":11126,"多樣":11127,"大人":11128,"救治":11129,"東奧":11130,"次保送":11131,"涉毒":11132,"為例":11133,"紐西蘭":11134,"要去":11135,"走勢":11136,"配備":11137,"目前已經":11138,"國際社會":11139,"社區感染":11140,"加護病房":11141,"一日":11142,"保單":11143,"報復":11144,"對他":11145,"拉警報":11146,"查核":11147,"格式":11148,"櫃檯":11149,"認知":11150,"轄區":11151,"自己在":11152,"變異株":11153,"一群":11154,"分的":11155,"加班":11156,"啦啦":11157,"時段":11158,"架構":11159,"給付":11160,"謹慎":11161,"遊樂":11162,"適應":11163,"網友紛紛留言":11164,"其他地區":11165,"附近的":11166,"交保":11167,"另一名":11168,"名譽":11169,"多年來":11170,"寫著":11171,"引導":11172,"採訪":11173,"演習":11174,"火災":11175,"視覺":11176,"輩子":11177,"遭受":11178,"支持台灣":11179,"一中":11180,"上限":11181,"人選":11182,"場面":11183,"市議員":11184,"德州":11185,"播放":11186,"果然":11187,"相似":11188,"等罪":11189,"讓台灣":11190,"通膨":11191,"還是會":11192,"也指出":11193,"信眾":11194,"動保":11195,"取自":11196,"既然":11197,"正當":11198,"比率":11199,"物質":11200,"獎項":11201,"私下":11202,"邊緣":11203,"提供的":11204,"好了":11205,"平等":11206,"熱鬧":11207,"被警方":11208,"說的":11209,"預報":11210,"飛球":11211,"在臉書發文":11212,"?」,":11213,"不舒服":11214,"先是":11215,"場地":11216,"外洩":11217,"密碼":11218,"庫存":11219,"意圖":11220,"水位":11221,"蔬菜":11222,"設有":11223,"贏得":11224,"配置":11225,"可以在":11226,"有一些":11227,"低調":11228,"國產":11229,"局勢":11230,"浪漫":11231,"臉部":11232,"運送":11233,"也可能":11234,"兩種":11235,"更高":11236,"板橋":11237,"破千":11238,"這就是":11239,"配件":11240,"颱風":11241,"智慧型":11242,"消防局":11243,"不便":11244,"克力":11245,"大方":11246,"毆打":11247,"比起":11248,"游擊":11249,"無罪":11250,"的女":11251,"美術":11252,"與台灣":11253,"訊號":11254,"非裔":11255,"擴大採檢":11256,"學子":11257,"巨人":11258,"投稿":11259,"球季":11260,"發佈":11261,"而非":11262,"訂定":11263,"走向":11264,"檢驗中":11265,"無論是":11266,"不受":11267,"代言":11268,"假期":11269,"內心":11270,"兼顧":11271,"在大":11272,"專區":11273,"屋內":11274,"機密":11275,"治理":11276,"石門":11277,"自小客":11278,"再創":11279,"參議員":11280,"或其他":11281,"打卡":11282,"投訴":11283,"敲安":11284,"智庫":11285,"法第":11286,"當選":11287,"編輯":11288,"進出":11289,"闖紅燈":11290,"不少民眾":11291,"一舉":11292,"不只是":11293,"供水":11294,"按讚":11295,"教士":11296,"的情形":11297,"羨慕":11298,"處罰":11299,"財神":11300,"賽車":11301,"驗證":11302,"org12":11303,"疫情升溫":11304,"台北市議員":11305,"照片中":11306,"另一半":11307,"不實":11308,"新興":11309,"東區":11310,"歌曲":11311,"爺爺":11312,"理賠":11313,"當成":11314,"自助":11315,"萬戶":11316,"訂閱":11317,"講座":11318,"鐵路":11319,"難免":11320,"高等":11321,"但有":11322,"分區":11323,"地面":11324,"實務":11325,"審慎":11326,"度的":11327,"手段":11328,"揭露":11329,"這類":11330,"上個月":11331,"享有":11332,"剛剛":11333,"折扣":11334,"獅子":11335,"環團":11336,"病情":11337,"老虎":11338,"辣椒":11339,"選民":11340,"學生的":11341,"所有的":11342,"人工智慧":11343,"中崙派出所":11344,"下次":11345,"休閒":11346,"分之":11347,"因疫情":11348,"在野":11349,"審議":11350,"牛排":11351,"獲准":11352,"稱讚":11353,"西區":11354,"警界":11355,"適時":11356,"防制":11357,"製造業":11358,"太空站":11359,"排行榜":11360,"判定":11361,"到處":11362,"可透過":11363,"名稱":11364,"契約":11365,"方男":11366,"更換":11367,"為題":11368,"結局":11369,"聲請":11370,"西方":11371,"買到":11372,"面向":11373,"影響力":11374,"分享的貼文":11375,"國務卿":11376,"交手":11377,"夜間":11378,"客家":11379,"廣大":11380,"曾有":11381,"次長":11382,"獨行":11383,"用心":11384,"的聲音":11385,"船員":11386,"隻蟑螂":11387,"預警":11388,"宛如":11389,"打工":11390,"花旗":11391,"超標":11392,"銷量":11393,"沒有人":11394,"去年底":11395,"個人申請":11396,"倒地":11397,"停水":11398,"公升":11399,"升高":11400,"場景":11401,"她表示":11402,"氣得":11403,"老饕":11404,"自從":11405,"舞蹈":11406,"目前的":11407,"我們會":11408,"說明會":11409,"內政":11410,"單月":11411,"地圖":11412,"外面":11413,"車用":11414,"開玩笑":11415,"造成的":11416,"詐騙集團":11417,"陽春砲":11418,"夫婦":11419,"廣泛":11420,"提名":11421,"決策":11422,"腳步":11423,"走了":11424,"部會":11425,"多歲女性":11426,"假的":11427,"入口":11428,"型態":11429,"它的":11430,"局投球":11431,"屍體":11432,"授課":11433,"效應":11434,"流量":11435,"碰撞":11436,"觸身":11437,"進香":11438,"所謂的":11439,"評委召集人":11440,"不該":11441,"也強調":11442,"困境":11443,"感恩":11444,"持刀":11445,"期許":11446,"未經":11447,"警示":11448,"趁著":11449,"較高":11450,"目前在":11451,"關鍵字":11452,"數據顯示":11453,"信義":11454,"新制":11455,"月下旬":11456,"演講":11457,"病床":11458,"篩選":11459,"荷蘭":11460,"詭異":11461,"走出":11462,"轉換":11463,"那種":11464,"發展的":11465,"即日起至":11466,"健保卡":11467,"遊覽車":11468,"也不是":11469,"儲存":11470,"孕婦":11471,"對比":11472,"後悔":11473,"我在":11474,"描述":11475,"有錢":11476,"波鋒面":11477,"災難":11478,"為期":11479,"石頭":11480,"美式":11481,"轉播":11482,"送給":11483,"阿姨":11484,"生育率":11485,"劈腿":11486,"台積":11487,"季節":11488,"展出":11489,"幹嘛":11490,"很少":11491,"損害":11492,"收益":11493,"期貨":11494,"汙染":11495,"淇淋":11496,"生存":11497,"看似":11498,"芒果":11499,"要注意":11500,"霸氣":11501,"領取":11502,"最高的":11503,"日報報導":11504,"」「":11505,"中正":11506,"他指出":11507,"元素":11508,"就以":11509,"得很":11510,"抓到":11511,"流傳":11512,"空服員":11513,"行列":11514,"要把":11515,"車廠":11516,"隱形":11517,"採檢結果":11518,"也因為":11519,"壟斷":11520,"小吃":11521,"局無失分":11522,"巧克力":11523,"帶有":11524,"查證":11525,"每一":11526,"法說":11527,"燃燒":11528,"爆廢":11529,"男的":11530,"的網友":11531,"聯網":11532,"見證":11533,"調漲":11534,"金錢":11535,"頻繁":11536,"確診機師":11537,"認為是":11538,"市場的":11539,"也相當":11540,"代謝":11541,"信徒":11542,"大獎":11543,"天天":11544,"日開始":11545,"有感":11546,"水餃":11547,"的第":11548,"美髮":11549,"蒐集":11550,"運算":11551,"還得":11552,"高點":11553,"二壘安打":11554,"久的":11555,"出身":11556,"又被":11557,"國立":11558,"大聲":11559,"媒合":11560,"子彈":11561,"廟宇":11562,"情事":11563,"早盤":11564,"潛在":11565,"班牙":11566,"級的":11567,"素養":11568,"西班牙":11569,"長官":11570,"零售":11571,"最新的":11572,"畢業生":11573,"有助於":11574,"乖乖":11575,"交接":11576,"到醫院":11577,"卻發現":11578,"從未":11579,"比利":11580,"海岸":11581,"硬體":11582,"約談":11583,"與其他":11584,"補貼":11585,"請辭":11586,"部桃":11587,"體內":11588,"今日公布":11589,"設計的":11590,"實際上":11591,"上班族":11592,"動員":11593,"就這樣":11594,"怎樣":11595,"核電廠":11596,"清理":11597,"的能力":11598,"老舊":11599,"跑道":11600,"這間":11601,"過於":11602,"已經在":11603,"還是有":11604,"未來將":11605,"內行人":11606,"觸身球":11607,"加快":11608,"就怕":11609,"想說":11610,"是最":11611,"本案":11612,"球衣":11613,"產檢":11614,"自撞":11615,"賣壓":11616,"鑑定":11617,"首長":11618,"比較好":11619,"下半":11620,"不定":11621,"少了":11622,"排黑":11623,"漁船":11624,"老鼠":11625,"萬七":11626,"葡萄":11627,"頭的":11628,"這次的":11629,"獨行俠":11630,"上了":11631,"主打":11632,"也成為":11633,"交付":11634,"出道":11635,"大流行":11636,"心聲":11637,"情報":11638,"的說":11639,"祈求":11640,"網址":11641,"考驗":11642,"肢體":11643,"親戚":11644,"識別":11645,"贊助":11646,"遲遲":11647,"上月":11648,"勒索":11649,"可在":11650,"失望":11651,"帶給":11652,"拆除":11653,"會讓":11654,"機型":11655,"熱愛":11656,"聰明":11657,"被迫":11658,"軍艦":11659,"錯過":11660,"更多的":11661,"國家安全":11662,"覺得很":11663,"桃園市長":11664,"警察局":11665,"公共場所":11666,"一共":11667,"上架":11668,"客運":11669,"的孩子":11670,"自責":11671,"不會有":11672,"萬元的":11673,"成交量":11674,"長照機構":11675,"信託":11676,"加密":11677,"右外野":11678,"回升":11679,"干擾":11680,"幾個月":11681,"很容易":11682,"從來":11683,"懲處":11684,"收藏":11685,"會上":11686,"流浪":11687,"獲獎":11688,"被擊出":11689,"相關單位":11690,"北部地區":11691,"地理":11692,"寶貝":11693,"對著":11694,"彩券":11695,"提問":11696,"放心":11697,"清水":11698,"為由":11699,"的設計":11700,"繁殖":11701,"財富":11702,"進來":11703,"龍蝦":11704,"冠軍賽":11705,"上映":11706,"十足":11707,"學會":11708,"學術":11709,"往來":11710,"心動":11711,"林女":11712,"槍手":11713,"總部":11714,"黨團":11715,"更多人":11716,"今日下午":11717,"安全帽":11718,"補習班":11719,"一連":11720,"上車":11721,"傳承":11722,"八卦":11723,"分砲":11724,"刷新":11725,"回頭":11726,"回顧":11727,"宣佈":11728,"無緣":11729,"理論":11730,"的位置":11731,"雙邊":11732,"黃色":11733,"不穩定":11734,"分子":11735,"大氣":11736,"實質":11737,"局失":11738,"平板":11739,"槍枝":11740,"每位":11741,"沒事":11742,"皆為":11743,"重回":11744,"隧道":11745,"房屋稅":11746,"外媒報導":11747,"下台":11748,"不去":11749,"單一":11750,"好消息":11751,"帶走":11752,"引爆":11753,"扣除":11754,"的環境":11755,"盟友":11756,"督導":11757,"笑容":11758,"負面":11759,"連線":11760,"雙雙":11761,"全球疫情":11762,"消防員":11763,"啦啦隊":11764,"一一":11765,"不清楚":11766,"巨蛋":11767,"的男子":11768,"群體":11769,"跟他":11770,"通行":11771,"高風險":11772,"影響到":11773,"...<":11774,"原來是":11775,"但目前":11776,"分流":11777,"周遭":11778,"大道":11779,"奈米":11780,"安置":11781,"已達":11782,"更能":11783,"服役":11784,"災害":11785,"的過程":11786,"轉為":11787,"出國史":11788,"不捨":11789,"二壘打":11790,"倫敦":11791,"制定":11792,"心疼":11793,"手中":11794,"拍板":11795,"未滿":11796,"視角":11797,"里程":11798,"更多社會":11799,"可能有":11800,"其他網友":11801,"演藝圈":11802,"上半場":11803,"不分":11804,"優化":11805,"在哪":11806,"大喊":11807,"大爆發":11808,"歷年":11809,"激動":11810,"破裂":11811,"穿越":11812,"貼心":11813,"遠傳":11814,"駐印度":11815,"更多世界":11816,"已經是":11817,"大三元":11818,"一句":11819,"不應該":11820,"公噸":11821,"名人":11822,"就開始":11823,"憤怒":11824,"掉了":11825,"撞到":11826,"斯坦":11827,"添加":11828,"產量":11829,"的外":11830,"跌破":11831,"輕微":11832,"教練團":11833,"所有人":11834,"黑衣人闖入":11835,"命中率":11836,"佳績":11837,"公眾":11838,"凸顯":11839,"參觀":11840,"向警方":11841,"往返":11842,"抗旱":11843,"抱歉":11844,"查出":11845,"校院":11846,"格局":11847,"無症狀":11848,"男星":11849,"網頁":11850,"螞蟻":11851,"超跑":11852,"過敏":11853,"點此":11854,"必須要":11855,"這麼多":11856,"媽祖遶境":11857,"如有疑似症狀":11858,"緊急事態宣言":11859,"圖書館":11860,"更多世界日報報導":11861,"受邀":11862,"合一":11863,"我有":11864,"早日":11865,"第六":11866,"腦部":11867,"金塊":11868,"雙手":11869,"不上":11870,"去做":11871,"吳男":11872,"太平":11873,"宮廟":11874,"已被":11875,"漸漸":11876,"的健康":11877,"能讓":11878,"請假":11879,"買的":11880,"重的":11881,"電力":11882,"青春":11883,"今天宣布":11884,"情況下":11885,"更多社會相關新聞":11886,">」。":11887,"侵害":11888,"募款":11889,"各位":11890,"啤酒":11891,"學金":11892,"攝取":11893,"繼承":11894,"翻譯":11895,"落跑":11896,"被敲出":11897,"確診人數":11898,"呼吸道":11899,"不利":11900,"任職":11901,"個多":11902,"新娘":11903,"暴動":11904,"皇帝":11905,"草莓":11906,"遊艇":11907,"重挫":11908,"鑾轎":11909,"除非":11910,"發現有":11911,"注意到":11912,"應用程式":11913,"有些人":11914,"不等":11915,"保健":11916,"大跌":11917,"將其":11918,"年初":11919,"換上":11920,"減煤":11921,"甄選":11922,"男方":11923,"的內容":11924,"能見":11925,"與美國":11926,"舉例":11927,"運勢":11928,"鑰匙":11929,"持續延燒":11930,"提出的":11931,"根本是":11932,"檢驗陰性報告":11933,"藝術家":11934,"也紛紛":11935,"別再":11936,"增設":11937,"大門":11938,"封面":11939,"很重要":11940,"撤銷":11941,"滿月":11942,"王牌":11943,"的第一":11944,"省水":11945,"職涯":11946,"西門":11947,"遭逮":11948,"零件":11949,"就有網友":11950,"作者":11951,"各縣市":11952,"天后":11953,"對待":11954,"忘了":11955,"我嚴防":11956,"珍貴":11957,"看得":11958,"義警":11959,"與人":11960,"資費":11961,"接種後":11962,"社群媒體":11963,"社群平台":11964,"滿滿的":11965,"全中運":11966,"我嚴防新冠肺炎":11967,"元件":11968,"動脈":11969,"匯流":11970,"彷彿":11971,"所在":11972,"日將":11973,"李男":11974,"的兒子":11975,"結節":11976,"行的":11977,"較去年":11978,"今年第":11979,"預計在":11980,"另一方面":11981,"例行賽":11982,">?":11983,"上榜":11984,"也特別":11985,"前面":11986,"各個":11987,"喉嚨":11988,"地址":11989,"姓女":11990,"專題":11991,"步道":11992,"民意":11993,"流出":11994,"滿額":11995,"笑稱":11996,"號召":11997,"退役":11998,"集會":11999,"持續擴大":12000,"回應了":12001,"單日新增":12002,"東半部地區":12003,"駐日代表":12004,"圖擷自":12005,"刊登":12006,"加重":12007,"北上":12008,"參訪":12009,"在日本":12010,"多處":12011,"手感":12012,"拜託":12013,"文創":12014,"晉級":12015,"模糊":12016,"永和":12017,"的三":12018,"簽訂":12019,"買超":12020,"傳說":12021,"商家":12022,"喪命":12023,"已完成":12024,"市區":12025,"文書":12026,"材質":12027,"犯行":12028,"狂飆":12029,"的合作":12030,"的發展":12031,"筆記":12032,"終盤":12033,"通話":12034,"開門":12035,"關聯":12036,"指揮中心指出":12037,"南投縣":12038,"一支":12039,"也對":12040,"二十":12041,"出租":12042,"原廠":12043,"後仍":12044,"捕捉":12045,"榮獲":12046,"櫃台":12047,"津貼":12048,"的媽媽":12049,"還可":12050,"首日":12051,"合作的":12052,"個月的":12053,"一生":12054,"上岸":12055,"份子":12056,"供給":12057,"創立":12058,"吃法":12059,"國營":12060,"宣示":12061,"是我":12062,"給你":12063,"經由":12064,"號的":12065,"被依":12066,"轉向":12067,"駁回":12068,"在地上":12069,"科學家":12070,"上來":12071,"人包":12072,"人心":12073,"入選":12074,"前年":12075,"匯率":12076,"含有":12077,"嚇傻":12078,"大增":12079,"奪冠":12080,"文一出":12081,"殘骸":12082,"珍珠":12083,"約會":12084,"評價":12085,"警力":12086,"車牌":12087,"追問":12088,"遭人":12089,"還需要":12090,"防堵":12091,"騎兵":12092,"生命危險":12093,"飲料店":12094,"件事情":12095,"剩下":12096,"夢幻":12097,"姊妹":12098,"已是":12099,"打球":12100,"抵制":12101,"殖利率":12102,"紅襪":12103,"駕車":12104,"和平穩定":12105,"雲林縣":12106,"槍擊案":12107,"不喜歡":12108,"之處":12109,"加劇":12110,"安慰":12111,"座談":12112,"張男":12113,"生理":12114,"田壘":12115,"睽違":12116,"碩士":12117,"神秘":12118,"腳踏":12119,"超夯":12120,"釋放":12121,"陳女":12122,"記憶體":12123,"心態":12124,"截圖":12125,"手指":12126,"的特":12127,"船隻":12128,"調度":12129,"送出":12130,"這家":12131,"逼近":12132,"陽台":12133,"手機報稅":12134,"相當於":12135,"搭機前":12136,"能見度":12137,"上季":12138,"不願意":12139,"化解":12140,"向上":12141,"嚴正":12142,"大賽":12143,"孫子":12144,"已掌握":12145,"年薪":12146,"承受":12147,"時光":12148,"會計":12149,"火速":12150,"爭執":12151,"率領":12152,"而來":12153,"這輛":12154,"選秀":12155,"確診再":12156,"北市黨部":12157,"發生的":12158,"帶來的":12159,"不良事件":12160,"執政黨":12161,"也太":12162,"人行":12163,"名嘴":12164,"待遇":12165,"得獎":12166,"是很":12167,"甜蜜":12168,"病逝":12169,"這隻":12170,"週四":12171,"選出":12172,"關說":12173,"離譜":12174,"驚呆":12175,"疫情嚴峻":12176,"駕駛座":12177,"日常生活":12178,"白沙屯媽祖":12179,"智慧型手機":12180,"。「<":12181,"不符":12182,"在他":12183,"多家":12184,"師傅":12185,"師資":12186,"應援":12187,"應試":12188,"新建":12189,"本壘":12190,"的母親":12191,"示警":12192,"精進":12193,"纖維":12194,"跳舞":12195,"開刀":12196,"無法接受":12197,"為了讓":12198,"屏東縣":12199,"中止":12200,"但我":12201,"分差":12202,"吵架":12203,"周末":12204,"國王":12205,"壽司":12206,"大哥":12207,"天數":12208,"套餐":12209,"姿勢":12210,"守住":12211,"年多":12212,"強迫":12213,"珊瑚":12214,"聲響":12215,"若要":12216,"觀賞":12217,"資料顯示":12218,"受到影響":12219,"中央流行疫情指揮中心指揮官":12220,"也提醒":12221,"你是":12222,"保住":12223,"偷拍":12224,"國的":12225,"墜落":12226,"審核":12227,"日曾":12228,"機種":12229,"減碳":12230,"的故事":12231,"說道":12232,"議長":12233,"贈送":12234,"路過":12235,"都不會":12236,"面前":12237,"更多生活":12238,"今日在":12239,"更多生活相關新聞":12240,"不像":12241,"冰淇淋":12242,"則為":12243,"單車":12244,"大腿":12245,"對策":12246,"探病":12247,"放大":12248,"有不少":12249,"沒什麼":12250,"浴室":12251,"激增":12252,"翔平":12253,"遺產":12254,"鬆懈":12255,"更多新聞":12256,"大家一起":12257,"受訪時表示":12258,"持有搭機前":12259,"......":12260,"一再":12261,"前一天":12262,"及早":12263,"吐司":12264,"失業":12265,"女人":12266,"日圓":12267,"無出國史":12268,"績效":12269,"誤會":12270,"降到":12271,"首戰":12272,"孩子們":12273,"引發熱議":12274,"資格賽":12275,"一律":12276,"不時":12277,"主流":12278,"交由":12279,"但現在":12280,"勤務":12281,"大膽":12282,"年以來":12283,"新一代":12284,"火車站":12285,"玉米":12286,"甜美":12287,"萬張":12288,"遊玩":12289,"遊騎兵":12290,"餐會":12291,"鬧事":12292,"魅力":12293,"許多民眾":12294,"粉絲專頁":12295,"必要的":12296,"奧斯卡":12297,"比利時":12298,"上看":12299,"在網路":12300,"多頭":12301,"少子":12302,"就曾":12303,"左外野":12304,"年在":12305,"建商":12306,"掉落":12307,"接手":12308,"擺脫":12309,"機身":12310,"沙發":12311,"競選":12312,"較低":12313,"量體溫":12314,"雨水":12315,"更多國際":12316,"總統府":12317,"畢業後":12318,"消防人員":12319,"主機":12320,"乾脆":12321,"他強調":12322,"先後":12323,"外海":12324,"媽咪":12325,"小學生":12326,"救出":12327,"春訓":12328,"燃料":12329,"糖尿":12330,"翻轉":12331,"茶葉":12332,"首轟":12333,"個月內":12334,"在家中":12335,"豐富的":12336,"一系列":12337,"並強調":12338,"伯斯":12339,"克服":12340,"南非":12341,"堪稱":12342,"方公尺":12343,"最重":12344,"有興趣":12345,"科大":12346,"筆錄":12347,"等問題":12348,"網曝":12349,"總體":12350,"過年":12351,"黃男":12352,"抗體陽性":12353,"廢棄物":12354,"日內檢驗陰性報告":12355,"一把":12356,"不代表":12357,"劇情":12358,"台海":12359,"在印度":12360,"場合":12361,"從去年":12362,"我愛":12363,"照曝光":12364,"登入":12365,"縮小":12366,"航母":12367,"試辦":12368,"讓媽媽":12369,"民眾說":12370,"感染風險":12371,"新型冠狀病毒":12372,"制服":12373,"加熱":12374,"反覆":12375,"吃完":12376,"好禮":12377,"工資":12378,"快艇":12379,"拿起":12380,"替補":12381,"次的":12382,"每週":12383,"氛圍":12384,"用了":12385,"神明":12386,"萬的":12387,"讀者":12388,"走進":12389,"起飛":12390,"遇上":12391,"飲酒過量":12392,"個國家":12393,"四處":12394,"專用":12395,"手臂":12396,"整起":12397,"當晚":12398,"秉持":12399,"蓄水":12400,"解析":12401,"講話":12402,"跑步":12403,"重心":12404,"陣容":12405,"難怪":12406,"首局":12407,"員工確診":12408,"英國變異株":12409,"大谷翔平":12410,"更多新聞推薦":12411,"前所長":12412,"去買":12413,"天文":12414,"天量":12415,"慶生":12416,"旅宿":12417,"深化":12418,"理財":12419,"的中":12420,"肺癌":12421,"解渴":12422,"賣超":12423,"走路":12424,"近距離":12425,"送回":12426,"館長":12427,"龍象":12428,"per14":12429,"因為疫情":12430,"引起網友":12431,"電視台":12432,"越來越多":12433,"六都":12434,"大媽":12435,"大致":12436,"對中國":12437,"就學":12438,"推升":12439,"暑假":12440,"某些":12441,"比對":12442,"熱絡":12443,"男網友":12444,"疏失":12445,"的方法":12446,"直擊":12447,"簽下":12448,"罰單":12449,"而他":12450,"視野":12451,"調高":12452,"請點此":12453,"鞋款":12454,"首場":12455,"桃園機場":12456,"大學指考":12457,"製造商":12458,">「<":12459,"上發文":12460,"不敵":12461,"不確定":12462,"偶爾":12463,"分布":12464,"升學":12465,"噁心":12466,"好物":12467,"我很":12468,"景觀":12469,"會面":12470,"標的":12471,"清查":12472,"滅證據":12473,"眼神":12474,"示範":12475,"神奇":12476,"股權":12477,"該如何":12478,"身高":12479,"逃離":12480,"連帶":12481,"疫情爆發":12482,"第三方":12483,"仇恨犯罪":12484,"下單":12485,"偷偷":12486,"傑出":12487,"傾向":12488,"再增":12489,"外的":12490,"大安":12491,"將來":12492,"就說":12493,"抑制":12494,"模仿":12495,"氣喘":12496,"混亂":12497,"近期無出國史":12498,"通緝犯":12499,"觸控的":12500,"台積電":12501,"匯流新聞網":12502,"但其實":12503,"共和":12504,"副市長":12505,"在這個":12506,"布里":12507,"改裝":12508,"月亮":12509,"有名":12510,"服用":12511,"熱潮":12512,"球數":12513,"田徑":12514,"給她":12515,"繳交":12516,"長打":12517,"預售":12518,"頻率":12519,"貼文曝光後":12520,"完全沒有":12521,"就醫採檢":12522,"貨機機師":12523,"知情人士":12524,"老實說":12525,"更多國際相關新聞":12526,"糖尿病":12527,"也許":12528,"信息":12529,"兩周":12530,"出色":12531,"勢必":12532,"半小時":12533,"卻沒有":12534,"周圍":12535,"就沒有":12536,"接見":12537,"控訴":12538,"提起":12539,"救印度":12540,"爵士":12541,"現狀":12542,"直指":12543,"腸胃":12544,"舉重":12545,"裡頭":12546,"希望透過":12547,"解決方案":12548,"受訪表示":12549,"開幕戰":12550,"實驗室":12551,"領導人":12552,"下一個":12553,"客服":12554,"封城":12555,"就知道":12556,"播出":12557,"改名":12558,"放榜":12559,"死因":12560,"種類":12561,"精品":12562,"華人":12563,"趨緩":12564,"週五":12565,"閨密":12566,"雙重":12567,"頂尖":12568,"染疫機師":12569,"任何人":12570,"中外野":12571,"之所以":12572,"停工":12573,"吃了":12574,"命令":12575,"地的":12576,"將從":12577,"心力":12578,"搶購":12579,"構成":12580,"潑灑":12581,"王室":12582,"禁見":12583,"科長":12584,"聚餐":12585,"真的有":12586,"匡列接觸者":12587,"物資救印度":12588,"出貨量":12589,"水電工":12590,"個別":12591,"卡在":12592,"吃過":12593,"外線":12594,"定義":12595,"實用":12596,"就把":12597,"常態":12598,"打撈":12599,"日於":12600,"林男":12601,"海鮮":12602,"自治":12603,"血糖":12604,"當時的":12605,"南部地區":12606,"住院隔離":12607,"阿里山":12608,"任內":12609,"備戰":12610,"再添":12611,"則以":12612,"德基":12613,"攝護":12614,"月營收":12615,"歲以下":12616,"無辜":12617,"考上":12618,"融合":12619,"談話":12620,"論文":12621,"責失":12622,"轉變":12623,"麗菜":12624,"自己也":12625,"因為他":12626,"健康監測":12627,"房務主管":12628,"攝護腺":12629,"不高":12630,"在台北":12631,"夏季":12632,"大於":12633,"實作":12634,"想不到":12635,"救災":12636,"新創":12637,"月開始":12638,"目睹":12639,"簡訊":12640,"網絡":12641,"脖子":12642,"說出":12643,"輪胎":12644,"驅動":12645,"甚至是":12646,"本土病例":12647,"外界質疑":12648,"東京相隔":12649,"傳染病":12650,"過來人":12651,"也呼籲":12652,"佩戴口罩":12653,"冷靜":12654,"半局":12655,"可上訴":12656,"大隊":12657,"密集":12658,"幕後":12659,"店的":12660,"急捐":12661,"想起":12662,"未成年":12663,"每個月":12664,"比去年":12665,"濃煙":12666,"現今":12667,"色彩":12668,"著手":12669,"這幾天":12670,"。」「":12671,"個月確診再":12672,"各國急捐":12673,"個月確診再破千":12674,"各國急捐物資救印度":12675,"一塊":12676,"但也有":12677,"切除":12678,"在內的":12679,"奪下":12680,"接送":12681,"新任":12682,"有問題":12683,"牠們":12684,"率為":12685,"眼淚":12686,"讓自己":12687,"賣出":12688,"第二次":12689,"一壘手":12690,"休假":12691,"動線":12692,"南港":12693,"媒報導":12694,"年減":12695,"抱著":12696,"拓展":12697,"洗車":12698,"活躍":12699,"的產品":12700,"的精神":12701,"空域":12702,"管控":12703,"都已":12704,"飆升":12705,"鮭魚":12706,"生命跡象":12707,"血清抗體陽性":12708,"不論是":12709,"多雲到":12710,"下秒":12711,"不孕":12712,"不怕":12713,"刺青":12714,"前科":12715,"墾丁":12716,"實名":12717,"式的":12718,"德納":12719,"或雷雨":12720,"房貸":12721,"曾於":12722,"最有":12723,"檢調":12724,"歡慶":12725,"獲勝":12726,"被逮":12727,"賈伯斯":12728,"邁入":12729,"題材":12730,"其中一名":12731,"紐約市":12732,"這段時間":12733,"野生動物":12734,"三名":12735,"中獎":12736,"台日":12737,"年時":12738,"往年":12739,"拘役":12740,"書展":12741,"模特":12742,"燃煤":12743,"等罪嫌":12744,"緊密":12745,"華盛":12746,"被人":12747,"量產":12748,"附上":12749,"養成":12750,"原本的":12751,"嘉義市":12752,"身心障礙":12753,"來臨":12754,"來講":12755,"侵犯":12756,"保守":12757,"個股":12758,"做得":12759,"到達":12760,"又要":12761,"將依":12762,"工藝":12763,"極端":12764,"櫻桃":12765,"沒了":12766,"的天氣":12767,"紓困":12768,"缺貨":12769,"考選":12770,"蓄水量":12771,"送上":12772,"這讓":12773,"驚覺":12774,"今天公布":12775,"分享自己":12776,"喜歡的":12777,"必要時":12778,"機師染疫案":12779,"賈伯斯偏愛色":12780,"並由":12781,"二度":12782,"你要":12783,"兆元":12784,"利潤":12785,"器材":12786,"國泰":12787,"女士":12788,"強大":12789,"循線":12790,"懶人包":12791,"擴增":12792,"景象":12793,"椅子":12794,"滑手機":12795,"潛力":12796,"炸雞":12797,"焦慮":12798,"的同時":12799,"美景":12800,"艦艇":12801,"落地":12802,"追究":12803,"隔壁":12804,"驚險":12805,"希望大家":12806,"臉書社團":12807,"修正草案":12808,"實在太":12809,"其實是蘋果創辦人賈伯斯偏愛色":12810,"華盛頓":12811,"上半":12812,"來得":12813,"傳奇":12814,"傳達":12815,"全新的":12816,"包裹":12817,"單局":12818,"姓婦人":12819,"廟方":12820,"急性":12821,"探討":12822,"既有":12823,"日晚上":12824,"比亞":12825,"生技":12826,"稅額":12827,"簡直":12828,"聲量":12829,"胸部":12830,"能有":12831,"腎臟":12832,"要讓":12833,"親密":12834,"請大家":12835,"陣子":12836,"民眾的":12837,"loc4":12838,"運動員":12839,"出局後":12840,"基隆市":12841,"大使館":12842,"龍象大戰":12843,"並要求":12844,"主導":12845,"來做":12846,"出示":12847,"告別":12848,"大力":12849,"手搖":12850,"會造成":12851,"月至":12852,"美容":12853,"莫德納":12854,"變更":12855,"都將":12856,"陳情":12857,"青睞":12858,"一直在":12859,"發表聲明":12860,"例本土病例":12861,"蛋白質":12862,"多雲到晴":12863,"亞洲":12864,"依賴":12865,"光芒":12866,"各類":12867,"學系":12868,"實境":12869,"手槍":12870,"投保":12871,"政變":12872,"教訓":12873,"普及":12874,"有零星":12875,"期的":12876,"此前":12877,"法令":12878,"爆怨":12879,"空姐":12880,"翻覆":12881,"老年":12882,"角落":12883,"首波":12884,"美國人":12885,"媽媽的":12886,"台北清真寺":12887,"確定病例":12888,"主辦單位":12889,"中毒":12890,"人犯":12891,"來回":12892,"全市":12893,"包包":12894,"口腔":12895,"各方":12896,"吞敗":12897,"射擊":12898,"市占":12899,"強的":12900,"投案":12901,"提議":12902,"每周":12903,"終身":12904,"而出":12905,"臺北":12906,"荷包":12907,"躺在":12908,"車款":12909,"輪值":12910,"開了":12911,"電源":12912,"org13":12913,"接受媒體":12914,"機場防疫旅館":12915,"一名網友在":12916,"太魯閣號事故":12917,"格式化":12918,"公然":12919,"好事":12920,"學科":12921,"就很":12922,"康復":12923,"日正式":12924,"樂園":12925,"樂團":12926,"標籤":12927,"海南":12928,"瀏覽":12929,"牛結節":12930,"瑞典":12931,"的價格":12932,"臨檢":12933,"該案":12934,"較多":12935,"過馬路":12936,"都相當":12937,"醬油":12938,"離去":12939,"鳥類":12940,">,「":12941,"持續加強":12942,"甚至有":12943,"小時內":12944,"新竹縣":12945,"完整的":12946,"可愛的":12947,"!」,":12948,"二代":12949,"人受傷":12950,"但還是":12951,"停留":12952,"內幕":12953,"博覽":12954,"卻不":12955,"嫌疑":12956,"專長":12957,"尋獲":12958,"局面":12959,"強度":12960,"情感":12961,"戰術":12962,"房客":12963,"故障":12964,"校系":12965,"民族":12966,"沒多久":12967,"版的":12968,"綠營":12969,"網購":12970,"蘆洲":12971,"血液":12972,"行人":12973,"貼圖":12974,"這不是":12975,"體力":12976,"龐大":12977,"確診數":12978,"日本媒體":12979,"這樣子":12980,"諾富特群聚":12981,"事發後":12982,"依序":12983,"持股":12984,"撲滅":12985,"有必要":12986,"死刑":12987,"的一個":12988,"表面":12989,"解讀":12990,"警紀":12991,"變動":12992,"豪華":12993,"走高":12994,"超車":12995,"軍機":12996,"順序":12997,"首席":12998,"解決問題":12999,"東京都":13000,"酒測值":13001,"少子化":13002,"之餘":13003,"也透露":13004,"僅剩":13005,"劇烈":13006,"區間":13007,"好運":13008,"建造":13009,"從中":13010,"思維":13011,"揭曉":13012,"擴充":13013,"明白":13014,"會出現":13015,"第七":13016,"約為":13017,"肆虐":13018,"補償":13019,"討債":13020,"證書":13021,"超狂":13022,"離岸":13023,"時間點":13024,"設計師":13025,"上任後":13026,"遼寧號":13027,"在野黨":13028,"件數":13029,"加權":13030,"均為":13031,"大腸":13032,"天堂":13033,"如下":13034,"官媒":13035,"暖心":13036,"會將":13037,"有位":13038,"查扣":13039,"犯規":13040,"的要求":13041,"能不能":13042,"自來":13043,"貨物":13044,"超高":13045,"過多":13046,"五一勞動節":13047,"。」,":13048,"但由於":13049,"傳單":13050,"公鹿":13051,"各有":13052,"在現場":13053,"將可":13054,"尼亞":13055,"指責":13056,"活力":13057,"深耕":13058,"潛水":13059,"烘焙":13060,"發作":13061,"看待":13062,"隨意":13063,"雞肉":13064,"經濟學":13065,"敲出安打":13066,"二館":13067,"但如果":13068,"前一":13069,"廠房":13070,"恐懼":13071,"抹黑":13072,"水瓶":13073,"綠能":13074,"罷免":13075,"自製":13076,"被控":13077,"要是":13078,"載著":13079,"金控":13080,"陽光":13081,"聲明中":13082,"且有":13083,"交出":13084,"兩者":13085,"包圍":13086,"喇叭":13087,"外帶":13088,"天價":13089,"就近":13090,"履歷":13091,"店面":13092,"建案":13093,"強力":13094,"後果":13095,"折疊":13096,"持槍":13097,"最少":13098,"服裝":13099,"朝聖":13100,"殺害":13101,"火葬":13102,"的那":13103,"的醫療":13104,"皇家":13105,"觀點":13106,"起跑":13107,"週六":13108,"金牛":13109,"今天的":13110,"房務部":13111,"交代":13112,"享用":13113,"代價":13114,"位的":13115,"低溫":13116,"充足":13117,"內衣":13118,"南區":13119,"台語":13120,"在推特":13121,"專欄":13122,"從沒":13123,"有礙":13124,"疑惑":13125,"百元":13126,"種植":13127,"縮減":13128,"虐待":13129,"雞排":13130,"頻傳":13131,"首批":13132,"大家的":13133,"是一種":13134,"集中在":13135,"無人機":13136,"外推方案":13137,"氧化碳":13138,"牛結節疹":13139,"上台":13140,"上廁所":13141,"分泌":13142,"台獨":13143,"帶頭":13144,"收押":13145,"更在":13146,"棒的":13147,"氣憤":13148,"牙醫":13149,"的公司":13150,"短時間":13151,"稱的":13152,"股息":13153,"育兒":13154,"腦壓":13155,"術後":13156,"被視為":13157,"諷刺":13158,"證照":13159,"賭場":13160,"這也":13161,"邊坡":13162,"顯得":13163,"月底前":13164,"」!<":13165,"中風":13166,"他命":13167,"先馳":13168,"分開":13169,"勇氣":13170,"及其他":13171,"受歡迎":13172,"吸睛":13173,"國手":13174,"工讀":13175,"挨轟":13176,"接收":13177,"收集":13178,"時起":13179,"無須":13180,"現年":13181,"節奏":13182,"精緻":13183,"綠線":13184,"致敬":13185,"與其":13186,"荳荳":13187,"足以":13188,"進行採檢":13189,"調查釐清":13190,"安全性":13191,"社會大眾":13192,"嚴重影響":13193,"準備好":13194,"為主題":13195,"相較於":13196,"先馳得點":13197,",,":13198,"上銬":13199,"不完":13200,"事先":13201,"口氣":13202,"嗆聲":13203,"四個":13204,"學弟":13205,"射手":13206,"已將":13207,"延期":13208,"心碎":13209,"我不":13210,"投進":13211,"抵台":13212,"接任":13213,"猜測":13214,"的國際":13215,"神器":13216,"種種":13217,"組件":13218,"衝進":13219,"裝潢":13220,"觀測":13221,"護照":13222,"輸球":13223,"追撞":13224,"阿伯":13225,"預料":13226,"疫情期間":13227,"過去的":13228,"鋒面接近":13229,"基礎建設":13230,"苗栗縣":13231,"遠距教學":13232,"博覽會":13233,"也未":13234,"兩度":13235,"兩棲":13236,"分左右":13237,"匯款":13238,"多加":13239,"安平":13240,"很開心":13241,"攻佔":13242,"政院":13243,"月租":13244,"猶豫":13245,"用藥":13246,"發明":13247,"節水":13248,"約定":13249,"群眾":13250,"育嬰":13251,"膝蓋":13252,"辱罵":13253,"隨身":13254,"電線":13255,"靜脈":13256,"風味":13257,"首爾":13258,"首選":13259,"目前正":13260,"還有待":13261,"衛生紙":13262,"億美元的":13263,"有網友在":13264,"不錯的":13265,"調閱監視器":13266,"中捷":13267,"伺服":13268,"例為":13269,"傳言":13270,"傳輸":13271,"副局長":13272,"合適":13273,"名義":13274,"場次":13275,"外套":13276,"大都會":13277,"就不會":13278,"幽默":13279,"情人":13280,"投信":13281,"校區":13282,"機能":13283,"波動":13284,"淨空":13285,"生素":13286,"男大生":13287,"的錢":13288,"缺失":13289,"賞花":13290,"鈔票":13291,"錄音":13292,"相關報導":13293,"國內外":13294,"本土個案":13295,"模特兒":13296,"中醫":13297,"也已經":13298,"人夫":13299,"介面":13300,"保母":13301,"卡片":13302,"即刻":13303,"名列":13304,"唱歌":13305,"嚴謹":13306,"委會":13307,"左轉":13308,"巴黎":13309,"市集":13310,"廣達":13311,"暗示":13312,"海邊":13313,"理性":13314,"產後":13315,"脫離":13316,"艦隊":13317,"讓我們":13318,"跟你":13319,"身價":13320,"金山":13321,"開辦":13322,"目前為止":13323,"報告指出":13324,"不適症狀":13325,"黑衣人闖":13326,"外籍機師":13327,"目擊者":13328,"人染疫":13329,"套房":13330,"巡迴":13331,"文中":13332,"日止":13333,"日中午":13334,"油價":13335,"用手":13336,"的角色":13337,"萬一":13338,"要到":13339,"解放":13340,"開跑":13341,"開高":13342,"日本的":13343,"政治人物":13344,"主審":13345,"他還":13346,"前妻":13347,"及接觸史":13348,"在當地":13349,"堅決":13350,"大勝":13351,"將成為":13352,"帛琉":13353,"性騷擾":13354,"挫傷":13355,"放置":13356,"政權":13357,"教導":13358,"會以":13359,"物流":13360,"的狀態":13361,"突發":13362,"航行":13363,"被撞":13364,"跨越":13365,"軍隊":13366,"高端":13367,"美髮師":13368,"三個月":13369,"傳喚":13370,"天下":13371,"妥善":13372,"情境":13373,"戰鬥":13374,"港口":13375,"熱點":13376,"起跳":13377,"連任":13378,"重點整理":13379,"航空器":13380,"這起事件":13381,"也無法":13382,"共機":13383,"取締":13384,"外科":13385,"太久":13386,"實地":13387,"年第":13388,"建構":13389,"我家":13390,"放入":13391,"暴龍":13392,"漲勢":13393,"菜鳥":13394,"警政":13395,"酥雞":13396,"飆漲":13397,"目前正在":13398,"電子煙":13399,"至少有":13400,"模範母親":13401,"三度":13402,"作收":13403,"反觀":13404,"同場":13405,"好投":13406,"好球":13407,"差別":13408,"往上":13409,"投顧":13410,"日與":13411,"民俗":13412,"清明":13413,"玫瑰":13414,"甄試":13415,"番茄":13416,"的你":13417,"自殺":13418,"菜色":13419,"街口":13420,"貨運":13421,"起初":13422,"遺失":13423,"零食":13424,"類別":13425,"高麗菜":13426,"麻痺":13427,"可能在":13428,"出現了":13429,"一般人":13430,"意味著":13431,"有礙健康":13432,"一館":13433,"一家人":13434,"也不能":13435,"低潮":13436,"劉男":13437,"地板":13438,"對她":13439,"憂鬱":13440,"更重要":13441,"牛隻":13442,"的事件":13443,"的努力":13444,"相驗":13445,"竊取":13446,"給了":13447,"薯條":13448,"證件":13449,"辦事":13450,"農曆":13451,"集水區":13452,"馬達":13453,"活動的":13454,"醫師表示":13455,"消息人士":13456,"提高警覺":13457,"駐印度代表處":13458,"一座":13459,"不下":13460,"人是":13461,"兌換":13462,"到過":13463,"加大":13464,"好處":13465,"如期":13466,"小小":13467,"戴著":13468,"日益":13469,"海報":13470,"濃度":13471,"無效":13472,"無數":13473,"的員工":13474,"直說":13475,"萊豬":13476,"藍牙":13477,"車手":13478,"迷你":13479,"運氣":13480,"還將":13481,"離世":13482,"難題":13483,"外交官":13484,"一線":13485,"不穩":13486,"乳癌":13487,"他有":13488,"僅供":13489,"北台灣":13490,"天王":13491,"專班":13492,"小聯盟":13493,"懷念":13494,"最早":13495,"會先":13496,"朝野":13497,"款項":13498,"源頭":13499,"班級":13500,"的服務":13501,"的結果":13502,"的對象":13503,"砂石":13504,"確幸":13505,"至醫院":13506,"融資":13507,"走在":13508,"較少":13509,"邏輯":13510,"頂級":13511,"顏值":13512,"默默":13513,"送醫後":13514,"救護人員":13515,"正確的":13516,"缺水危機":13517,"永續發展":13518,"臨床試驗":13519,"衛生單位安排":13520,"伺服器":13521,"公主":13522,"則認為":13523,"善意":13524,"增添":13525,"定序":13526,"年半":13527,"幼童":13528,"情節":13529,"改成":13530,"放下":13531,"數百":13532,"水資源":13533,"畫素":13534,"的手機":13535,"真心":13536,"碼頭":13537,"網民":13538,"華語":13539,"這幾":13540,"這部分":13541,"適逢":13542,"還未":13543,"鋼琴":13544,"錦標":13545,"不過在":13546,"現在是":13547,"指揮中心指揮官":13548,"世界上":13549,"自主管理":13550,"早餐店":13551,"聯合品牌運動":13552,"上衣":13553,"不符合":13554,"代打":13555,"出場":13556,"出沒":13557,"原文":13558,"商場":13559,"安定":13560,"年僅":13561,"是對":13562,"最長":13563,"檳榔":13564,"獎學金":13565,"男孩":13566,"的經濟":13567,"的主要":13568,"的責任":13569,"皆有":13570,"研討":13571,"聲押":13572,"腹部":13573,"良好的":13574,"花錢":13575,"開的":13576,"高三":13577,"服務的":13578,">」<":13579,"影片請點此":13580,"萬人次":13581,"例外":13582,"信仰":13583,"倉庫":13584,"原訂":13585,"品項":13586,"執照":13587,"奶油":13588,"廠區":13589,"張貼":13590,"捷克":13591,"摺疊":13592,"洲際":13593,"湮滅證據":13594,"甜甜":13595,"的功能":13596,"皇后":13597,"要做":13598,"要先":13599,"跟進":13600,"跨國":13601,"釀成":13602,"頭皮":13603,"音樂會":13604,"終場以":13605,"自小客車":13606,"刷卡":13607,"可行":13608,"救命":13609,"斯特":13610,"比如":13611,"混合":13612,"竊盜":13613,"被捕":13614,"視力":13615,"途徑":13616,"週三":13617,"邀集":13618,"首節":13619,"高血壓":13620,"點擊":13621,"活動中心":13622,"防疫規定":13623,"外交部長":13624,"山區有局部":13625,"體育館":13626,"不成":13627,"仍待":13628,"兩個月":13629,"印太":13630,"卻有":13631,"周四":13632,"帥氣":13633,"年開始":13634,"挖角":13635,"日方":13636,"的中國":13637,"的資訊":13638,"的食物":13639,"答應":13640,"美軍":13641,"聽見":13642,"胎兒":13643,"脫困":13644,"藍營":13645,"號稱":13646,"該怎麼":13647,"開口":13648,"院方":13649,"雙殺":13650,"餅乾":13651,"因此在":13652,"注意的是":13653,"真正的":13654,"妨害公務":13655,"種族歧視":13656,"、「":13657,"一輩子":13658,"三讀":13659,"也應":13660,"也認為":13661,"公職":13662,"劑量":13663,"包商":13664,"吃起來":13665,"名師生":13666,"含量":13667,"因子":13668,"外銷":13669,"姊姊":13670,"家具":13671,"改選":13672,"施政":13673,"極為":13674,"沿海":13675,"當機":13676,"訪台":13677,"豈料":13678,"車身":13679,"通風":13680,"台灣鳳梨":13681,"網友留言":13682,"資料庫":13683,"一樣的":13684,"紛紛表示":13685,"晶片短缺":13686,"不適合":13687,"自我健康監測":13688,"及時診斷":13689,"替代役":13690,"致力於":13691,"並依指示":13692,"也為":13693,"也跟著":13694,"付款":13695,"兩家":13696,"公文":13697,"別人的":13698,"口水":13699,"只想":13700,"大大":13701,"女警":13702,"好評":13703,"家暴":13704,"幫他":13705,"很可能":13706,"恭喜":13707,"曾任":13708,"校舍":13709,"極限":13710,"淡水":13711,"漁港":13712,"球的":13713,"男嬰":13714,"而這":13715,"葬禮":13716,"讓孩子":13717,"買氣":13718,"震怒":13719,"驚嚇":13720,"台灣在":13721,"消息一出":13722,"確實有":13723,"或者是":13724,"上百":13725,"下水":13726,"他和":13727,"劇中":13728,"報酬":13729,"拉圭":13730,"晚餐":13731,"最為":13732,"正好":13733,"空調":13734,"續航":13735,"自願":13736,"誠意":13737,"逐年":13738,"遭爆":13739,"關稅":13740,"馬力":13741,"鴻海":13742,"相關人員":13743,"機車騎士":13744,"檢驗結果":13745,"傳染力":13746,"布里悍":13747,"並列":13748,"人有":13749,"作出":13750,"分發":13751,"到貨":13752,"到台灣":13753,"外表":13754,"我真的":13755,"改進":13756,"更要":13757,"會比較":13758,"武裝":13759,"特報":13760,"發問":13761,"的研究":13762,"的訊息":13763,"的現象":13764,"結論":13765,"美好":13766,"蒐證":13767,"覆蓋":13768,"買家":13769,"車速":13770,"輕生":13771,"鄉長":13772,"陸軍":13773,"鬆綁":13774,"網友看了":13775,"比賽中":13776,"現金股利":13777,"北港朝天宮":13778,"入境後至":13779,"不顧":13780,"之虞":13781,"人間":13782,"他與":13783,"出海":13784,"受不了":13785,"嚴厲":13786,"女主角":13787,"對不起":13788,"恰恰":13789,"截止":13790,"收下":13791,"收視":13792,"改寫":13793,"是全球":13794,"樓梯":13795,"武力":13796,"水管":13797,"派系":13798,"清洗":13799,"生長":13800,"眼前":13801,"砲轟":13802,"萬個":13803,"藍綠":13804,"讓使用者":13805,"這筆":13806,"目前有":13807,"便利商店":13808,"冠狀病毒疾病疫情":13809,"房地產":13810,"海底撈":13811,"全被":13812,"出境":13813,"均有":13814,"奇蹟":13815,"學員":13816,"實踐":13817,"州的":13818,"往後":13819,"慘死":13820,"時報":13821,"桐花":13822,"消化":13823,"滿貫":13824,"無視":13825,"營利":13826,"的過程中":13827,"社工":13828,"票房":13829,"童年":13830,"總數":13831,"聽完":13832,"著重":13833,"被稱為":13834,"起司":13835,"載運":13836,"這部":13837,"驅離":13838,"高壓":13839,"媒體人":13840,"高雄市長":13841,"一直以來":13842,"排黑條款":13843,"一部":13844,"上方":13845,"不限":13846,"兒女":13847,"卻因":13848,"可憐":13849,"可疑":13850,"可處":13851,"名男子":13852,"層級":13853,"床上":13854,"後援":13855,"懂得":13856,"放到":13857,"曾與":13858,"有心":13859,"柴油":13860,"清晰":13861,"目的是":13862,"相近":13863,"研擬":13864,"碰上":13865,"等因素":13866,"聽聞":13867,"被封":13868,"路旁":13869,"躲避":13870,"輻射":13871,"轉載":13872,"迴轉":13873,"進軍":13874,"配套":13875,"阻擋":13876,"雙位數":13877,"頭獎":13878,"願景":13879,"一名女子":13880,"萬元以下":13881,"一定是":13882,"梅雨鋒面":13883,"產學合作":13884,"僅供參考":13885,"依違反":13886,"分至":13887,"創歷史新高":13888,"匿名":13889,"在校":13890,"報請":13891,"忽略":13892,"推估":13893,"暴增":13894,"減緩":13895,"甘霖":13896,"的原":13897,"的長":13898,"的父親":13899,"看護":13900,"絕不":13901,"袋子":13902,"買一":13903,"電機":13904,"靠山":13905,"他們在":13906,"世界紀錄":13907,"身體狀況":13908,"本土案例":13909,"最多的":13910,"解除隔離":13911,"值班":13912,"器官":13913,"姐姐":13914,"委屈":13915,"它們":13916,"將人":13917,"小確幸":13918,"就此":13919,"工商":13920,"新低":13921,"日舉辦":13922,"樂趣":13923,"測謊":13924,"漁民":13925,"王男":13926,"的概念":13927,"節約":13928,"綠燈":13929,"致命":13930,"致歉":13931,"說自己":13932,"購屋":13933,"醫事":13934,"險勝":13935,"今天凌晨":13936,"其中包括":13937,"原因是":13938,"開發者":13939,"到底是":13940,"新竹市":13941,"氣象局":13942,"無安打比賽":13943,"火葬場":13944,"錦標賽":13945,"並提供":13946,"之旅":13947,"加薪":13948,"台籍":13949,"回溫":13950,"增雨":13951,"大數據":13952,"她是":13953,"感測":13954,"披薩":13955,"改判":13956,"時至":13957,"民宿":13958,"煩惱":13959,"發全壘打":13960,"的決定":13961,"的動作":13962,"網美":13963,"說到":13964,"超大":13965,"逃生":13966,"週末":13967,"道奇":13968,"邊界":13969,"首創":13970,"魔術":13971,"工作者":13972,"好吃的":13973,"不得不":13974,"夫妻倆":13975,"成交值":13976,"氧氣瓶":13977,"一面倒":13978,"石門水庫":13979,"、、":13980,"三人":13981,"下了":13982,"不清":13983,"作答":13984,"債券":13985,"出事":13986,"安撫":13987,"年年":13988,"後座":13989,"想吃":13990,"手環":13991,"接軌":13992,"時發現":13993,"某天":13994,"汐止":13995,"澳門":13996,"盜壘":13997,"盡力":13998,"總額":13999,"致電":14000,"醫藥":14001,"餵食":14002,"高科技":14003,"美國政府":14004,"分鐘後":14005,"考選部":14006,".<":14007,"也開始":14008,"他會":14009,"借提":14010,"先行":14011,"公公":14012,"划算":14013,"化妝":14014,"原能":14015,"可用":14016,"嚴肅":14017,"察覺":14018,"左側":14019,"年華":14020,"影劇":14021,"患有":14022,"想過":14023,"慈善":14024,"把他":14025,"拉麵":14026,"每公升":14027,"烏龍":14028,"產地":14029,"腳踝":14030,"舞場":14031,"視障":14032,"跨領域":14033,"開工":14034,"開賽":14035,"隊的":14036,"領軍":14037,"第一天":14038,"警方在":14039,"健康狀況":14040,"下降到":14041,"中市":14042,"但若":14043,"傷重":14044,"屏幕":14045,"已超過":14046,"抽菸":14047,"拿去":14048,"準則":14049,"滋味":14050,"登陸":14051,"的老":14052,"花生":14053,"處女":14054,"認了":14055,"輸出":14056,"電台":14057,"負責任":14058,"發布的":14059,"延長賽":14060,"不安":14061,"並指出":14062,"包庇":14063,"場上":14064,"多半":14065,"姓駕駛":14066,"就直接":14067,"急忙":14068,"救人":14069,"末節":14070,"流動":14071,"無照":14072,"生前":14073,"用電":14074,"甲狀":14075,"的專業":14076,"神山":14077,"穩健":14078,"細菌":14079,"縱火":14080,"美的":14081,"起床":14082,"靈活":14083,"驚悚":14084,"鮪魚":14085,"如果你":14086,"高中職":14087,"恢復正常":14088,"不算":14089,"串聯":14090,"個保送":14091,"制憲":14092,"升值":14093,"同框":14094,"增進":14095,"外部":14096,"字頭":14097,"將大":14098,"專輯":14099,"導師":14100,"小龍":14101,"房租":14102,"新秀":14103,"會考":14104,"樓的":14105,"正值":14106,"滲透":14107,"白襪":14108,"籌備":14109,"被網友":14110,"要選":14111,"諸多":14112,"護國":14113,"賽程":14114,"辯稱":14115,"降落":14116,"零組件":14117,"確診案例":14118,"日本職棒":14119,"這樣做":14120,"的人生":14121,"千萬不要":14122,"太陽能":14123,"!!":14124,"不服":14125,"主演":14126,"之戰":14127,"也宣布":14128,"兆美元":14129,"副院長":14130,"單價":14131,"在第":14132,"夜店":14133,"天秤":14134,"天蠍":14135,"巴拉圭":14136,"得主":14137,"從此":14138,"我方":14139,"活潑":14140,"滯留":14141,"瑞士":14142,"生病":14143,"發送":14144,"的樣子":14145,"目光":14146,"相親":14147,"禁令":14148,"窗戶":14149,"節省":14150,"缺點":14151,"聖火":14152,"起駕":14153,"路面":14154,"較大":14155,"輕傷":14156,"邁進":14157,"都說":14158,"量能":14159,"韻律":14160,"提供給":14161,"調查結果":14162,"研究員":14163,"緊急送醫":14164,"正常的":14165,"接觸者採檢":14166,"排名第":14167,"娛樂中心":14168,"航運股":14169,"西武獅":14170,"財經相關新聞":14171,"甲狀腺":14172,"中小":14173,"兩款":14174,"則貼文":14175,"劇本":14176,"合格":14177,"周三":14178,"在意":14179,"場出賽":14180,"大地":14181,"學位":14182,"學業":14183,"寫作":14184,"廣東":14185,"慰問":14186,"暫緩":14187,"暴露":14188,"書記":14189,"板凳":14190,"溫泉":14191,"濫用":14192,"父子":14193,"疏忽":14194,"發光":14195,"科罰金":14196,"籌碼":14197,"與他人":14198,"跳出來":14199,"輪流":14200,"避開":14201,"邁向":14202,"頭上":14203,"騎機車":14204,"驕傲":14205,"高興":14206,"龍隊":14207,"沒有辦法":14208,"更多財經相關新聞":14209,"感染者":14210,"專業的":14211,"發出後":14212,"所得稅":14213,"連環爆":14214,"//":14215,"一來":14216,"並有":14217,"串流":14218,"公報":14219,"卻遭":14220,"卻突然":14221,"又在":14222,"口服":14223,"單獨":14224,"宣判":14225,"局數":14226,"性質":14227,"指引":14228,"放射":14229,"斷層":14230,"火辣":14231,"特點":14232,"的愛":14233,"臉上":14234,"英里":14235,"相關規定":14236,"學校的":14237,"幫助球隊":14238,"創作者":14239,"不平":14240,"也與":14241,"也非常":14242,"五大":14243,"仲介":14244,"供電":14245,"兩人的":14246,"區公所":14247,"反駁":14248,"土城":14249,"對台灣的":14250,"平手":14251,"年以上":14252,"幼稚":14253,"復興":14254,"惡性":14255,"房產":14256,"控球":14257,"攤位":14258,"是一名":14259,"更大的":14260,"有任何":14261,"短線":14262,"裁罰":14263,"評鑑":14264,"證人":14265,"車型":14266,"長賜":14267,"間接":14268,"日本首相":14269,"生活中":14270,"分享了":14271,"第二階段":14272,"用戶觀看":14273,"那麼多":14274,"超前部署":14275,"失智症":14276,"叔叔":14277,"同日":14278,"性格":14279,"把它":14280,"抽獎":14281,"撤軍":14282,"率達":14283,"的紀錄":14284,"的看法":14285,"納稅":14286,"緊繃":14287,"衝上":14288,"陷阱":14289,"離島":14290,"美國職棒":14291,"不過他":14292,"真的太":14293,"健康的":14294,"市場需求":14295,"國內累計":14296,"送往醫院":14297,"一提":14298,"不需":14299,"再起":14300,"分成":14301,"多歲的":14302,"季減":14303,"展演":14304,"州長":14305,"把關":14306,"曬出":14307,"會更":14308,"桃花":14309,"樓層":14310,"海運":14311,"滾動":14312,"為人":14313,"祝賀":14314,"立體":14315,"職災":14316,"舒緩":14317,"西南":14318,"身影":14319,"點心":14320,"所以我們":14321,"不同意":14322,"明顯的":14323,"文章來源":14324,"柔道館":14325,"人力銀行":14326,"公費接種":14327,"不可以":14328,"付錢":14329,"份量":14330,"北北":14331,"吸毒":14332,"多年的":14333,"奇景":14334,"契機":14335,"小黃":14336,"序列":14337,"想知道":14338,"掃描":14339,"擴產":14340,"日間":14341,"是非常":14342,"會場":14343,"水的":14344,"猛獅":14345,"的路":14346,"社福":14347,"與前":14348,"花園":14349,"調薪":14350,"辦案":14351,"那時候":14352,"都可":14353,"開球":14354,"隨機":14355,"雷射":14356,"食道":14357,">-,":14358,"機師的":14359,"病毒株":14360,"產業的":14361,"不僅是":14362,"呼吸心跳":14363,"外長會議":14364,"過失致死":14365,"不出來":14366,"入園":14367,"冒險":14368,"前提":14369,"及通報":14370,"命理":14371,"外遇":14372,"屋頂":14373,"手錶":14374,"日式":14375,"服刑":14376,"業的":14377,"樂部":14378,"氣質":14379,"滿級分":14380,"獨居":14381,"生效":14382,"盤點":14383,"種子":14384,"簽名":14385,"續約":14386,"訂購":14387,"認養":14388,"輿論":14389,"這群":14390,"這兩天":14391,"除罪":14392,"風向":14393,"甚至在":14394,"是否為":14395,"第二波":14396,"醫療口罩":14397,"意外發現":14398,"產生的":14399,"醫學系":14400,"一頭":14401,"三項":14402,"主計":14403,"其它":14404,"再擴大":14405,"分領先":14406,"加以":14407,"右側":14408,"外國人":14409,"屁股":14410,"我還":14411,"手續":14412,"攻堅":14413,"新課綱":14414,"日由":14415,"是從":14416,"有更多":14417,"歐元":14418,"毅力":14419,"毫不":14420,"清除":14421,"痕跡":14422,"耐心":14423,"被騙":14424,"轉戰":14425,"頁面":14426,"項鍊":14427,"餘元":14428,"高價":14429,"外送平台":14430,"日晚間在":14431,"就好了":14432,"大阪府":14433,"群體免疫":14434,"上修":14435,"上頭":14436,"下半場":14437,"伴侶":14438,"卻又":14439,"女優":14440,"寬鬆":14441,"專心":14442,"小說":14443,"思議":14444,"悠遊":14445,"成大":14446,"搞笑":14447,"書面":14448,"曾文":14449,"療癒":14450,"移轉":14451,"買進":14452,"追緝":14453,"追逐":14454,"違停":14455,"那是":14456,"鄉鎮":14457,"點數":14458,"今天是":14459,"還有網友":14460,"合作夥伴":14461,"地方法院":14462,"看這裡":14463,"砂石車":14464,"不雅":14465,"但要":14466,"保佑":14467,"刑警":14468,"升空":14469,"學費":14470,"崛起":14471,"所致":14472,"技藝":14473,"抄截":14474,"拉扯":14475,"新光":14476,"新住民":14477,"派人":14478,"生殖":14479,"看不到":14480,"石虎":14481,"稅務":14482,"自住":14483,"補強":14484,"調節":14485,"超強":14486,"運河":14487,"長相":14488,"香蕉":14489,"發生了":14490,"系統的":14491,"腳踏車":14492,"韻律體操":14493,"一杯":14494,"中等":14495,"俱樂部":14496,"利多":14497,"友好":14498,"呼應":14499,"嘉年華":14500,"好不容易":14501,"家鄉":14502,"導覽":14503,"就像是":14504,"川普":14505,"巨蟹":14506,"後衛":14507,"微笑":14508,"忘錄":14509,"惡煞":14510,"技職":14511,"控管":14512,"改建":14513,"新店":14514,"時任":14515,"最初":14516,"每一個":14517,"民代":14518,"準確":14519,"火山":14520,"無期徒刑":14521,"當街":14522,"的兩":14523,"相約":14524,"硬碟":14525,"確切":14526,"粉紅":14527,"警車":14528,"買了一":14529,"超音":14530,"身障":14531,"per15":14532,"今年初":14533,"其他國家":14534,"新冠肺炎疫苗":14535,"研究團隊":14536,"醫療院所":14537,"之一的":14538,"備忘錄":14539,"好嗎":14540,"季營收":14541,"客製":14542,"封閉":14543,"尖叫":14544,"影視":14545,"後也":14546,"成以上":14547,"氣勢":14548,"演練":14549,"燈號":14550,"的行動":14551,"竹苗":14552,"總會":14553,"老鷹":14554,"聽了":14555,"萬多":14556,"衍生":14557,"謀殺":14558,"轉彎":14559,"飛航":14560,"體質":14561,"學生在":14562,"經驗老實說":14563,"呼吸器":14564,"初步調查":14565,"空氣品質":14566,"優質先發":14567,"只剩下":14568,"洗衣機":14569,"原能會":14570,"一級":14571,"不忍":14572,"人文":14573,"仍以":14574,"他要":14575,"借錢":14576,"及東":14577,"受疫情影響":14578,"名黑衣人":14579,"增多":14580,"天生":14581,"子公司":14582,"就沒":14583,"座椅":14584,"強硬":14585,"很好的":14586,"我認為":14587,"戴好":14588,"手部":14589,"是真的":14590,"熊貓":14591,"的想法":14592,"胞胎":14593,"自爆":14594,"裁決":14595,"這條":14596,"這篇":14597,"韓職":14598,"增加了":14599,"企業的":14600,"醫療資源":14601,"引發網友":14602,"人才培育":14603,"範圍內":14604,"自費接種":14605,"合併營收":14606,"評委會":14607,"大甲媽":14608,"持續加強疫情監測與邊境管制措施":14609,"之家":14610,"善用":14611,"在未來":14612,"將繼續":14613,"就診":14614,"年以下":14615,"幾次":14616,"接力":14617,"收治":14618,"有別":14619,"歹徒":14620,"燃氣":14621,"界線":14622,"督察":14623,"砸電腦":14624,"立院":14625,"等候":14626,"自認":14627,"詮釋":14628,"調味":14629,"變形":14630,"負荷":14631,"購入":14632,"同時主動":14633,"貼文發出後":14634,"學習歷程":14635,"不可思議":14636,"上千隻蟑螂":14637,"配戴口罩儘速就醫":14638,"以利及時診斷":14639,"並依指示配戴口罩儘速就醫":14640,"以利及時診斷及通報":14641,"下課":14642,"公會":14643,"刀流":14644,"劇場":14645,"千金":14646,"去看":14647,"及相關":14648,"向法院":14649,"吸入":14650,"在二軍":14651,"場均":14652,"壓迫":14653,"女的":14654,"年至":14655,"拖吊":14656,"整個人":14657,"日來":14658,"旺季":14659,"是因":14660,"案的":14661,"法庭":14662,"潮流":14663,"為空":14664,"為避免":14665,"的方向":14666,"空品":14667,"簡報":14668,"聯制":14669,"自備":14670,"衣物":14671,"褲子":14672,"視線":14673,"達標":14674,"開箱":14675,"顏面":14676,"飆出":14677,"首要":14678,"相關資訊":14679,"工作室":14680,"這些人":14681,"期間並無":14682,"死亡病例":14683,"受訪者":14684,"有局部短暫雨":14685,"經濟成長率":14686,"爆廢公社":14687,"航空器感染":14688,"?「":14689,"上學":14690,"不准":14691,"也因":14692,"修訂":14693,"偏少":14694,"兩週":14695,"出清":14696,"到校":14697,"北方":14698,"可樂":14699,"善款":14700,"嘴巴":14701,"回溯":14702,"堅強":14703,"大臣":14704,"失掉":14705,"密度":14706,"快閃":14707,"房仲":14708,"撕裂":14709,"攔查":14710,"散布":14711,"有機":14712,"注重":14713,"為基礎":14714,"生了":14715,"的球員":14716,"精選":14717,"緩慢":14718,"考區":14719,"聽說":14720,"賭博":14721,"輕易":14722,"郵件":14723,"長征":14724,"開展":14725,"離奇":14726,"警方到場":14727,"社會責任":14728,"公里處":14729,"晶圓代工":14730,"自助餐":14731,"實名制":14732,"人列居家隔離":14733,"但也有人":14734,"低收入":14735,"光電":14736,"卡車":14737,"向來":14738,"在大陸":14739,"外傳":14740,"奉獻":14741,"左手":14742,"恐龍":14743,"是被":14744,"有超過":14745,"派對":14746,"火化":14747,"熱度":14748,"特性":14749,"甚麼":14750,"的力量":14751,"的立場":14752,"砸毀":14753,"街道":14754,"要將":14755,"配戴":14756,"鑽石":14757,"開著":14758,"風潮":14759,"點的":14760,"今日宣布":14761,"指揮中心統計":14762,"維持在":14763,"第三節":14764,"根本沒":14765,"水情拉警報":14766,"自責分":14767,"!」。":14768,"上游":14769,"上半年":14770,"下手":14771,"例不明":14772,"例航空器感染":14773,"侮辱":14774,"做事":14775,"共鳴":14776,"刑法":14777,"受限":14778,"四年":14779,"國考":14780,"徐男":14781,"打過":14782,"新德里":14783,"活化":14784,"用路人":14785,"等方式":14786,"管管":14787,"結石":14788,"處所":14789,"警訊":14790,"貼近":14791,"配上":14792,"今年第一季":14793,"警方獲報":14794,"希望可以":14795,"告知醫師旅遊史及接觸史":14796,"人行道":14797,"同時主動告知醫師旅遊史及接觸史":14798,"一句話":14799,"之道":14800,"人檢驗中":14801,"位居":14802,"促銷":14803,"停靠":14804,"勇奪":14805,"反正":14806,"命運":14807,"士頓":14808,"外流":14809,"外站":14810,"將提供":14811,"帶到":14812,"延遲":14813,"忙碌":14814,"放送":14815,"永慶":14816,"沒收":14817,"發聲明":14818,"的政策":14819,"的挑戰":14820,"皇上":14821,"繳費":14822,"萬畫素":14823,"認罪":14824,"讓不少":14825,"還不錯":14826,"都無法":14827,"陰影":14828,"首發":14829,"服務處":14830,"是否能":14831,"另外還有":14832,"只要有":14833,"怎麼會":14834,"一直是":14835,"警察局長":14836,"考試院":14837,"節目中":14838,"打造的":14839,"再抽電影票相關新聞影音":14840,"限時下殺":14841,"驅逐艦":14842,"收容人":14843,"一到":14844,"不認識":14845,"不合理":14846,"入手":14847,"分裂":14848,"四月":14849,"在國際":14850,"埃及":14851,"多起":14852,"學家":14853,"對我":14854,"強大的":14855,"攔截":14856,"於今年":14857,"歸隊":14858,"泡沫":14859,"流感":14860,"清單":14861,"潑蟑":14862,"牙齒":14863,"的女性":14864,"的效果":14865,"趁機":14866,"跑去":14867,"輕忽":14868,"都需要":14869,"難關":14870,"馬拉":14871,"民眾對":14872,"今天舉行":14873,"我們也":14874,"生活品質":14875,"照片來源":14876,"個案接觸者":14877,"怎麼樣":14878,"...」、「":14879,"知名的":14880,"宜蘭縣":14881,"密切接觸者":14882,"一旁的":14883,"主帥":14884,"低迷":14885,"公衛":14886,"共軍":14887,"則由":14888,"加持":14889,"十二":14890,"原價":14891,"原定":14892,"在高雄":14893,"地表":14894,"年金":14895,"後疫情":14896,"急著":14897,"您的":14898,"愛上":14899,"抨擊":14900,"拍片":14901,"救難":14902,"日早上":14903,"曖昧":14904,"氣球":14905,"洋砲":14906,"洩漏":14907,"無匡列接觸者":14908,"瑕疵":14909,"生下":14910,"的可能":14911,"的速度":14912,"看傻":14913,"繁榮":14914,"罹癌":14915,"芝麻":14916,"警局長":14917,"鍵盤":14918,"因為有":14919,"產品的":14920,"身體健康":14921,"觀察到":14922,"境外生":14923,"下一代":14924,"創新號":14925,"不良反應":14926,"確診個案中":14927,"事前":14928,"二級":14929,"人命":14930,"備起來":14931,"再現":14932,"冷血":14933,"列出":14934,"口袋":14935,"姓主嫌":14936,"學歷":14937,"必備":14938,"打得":14939,"掃黑":14940,"掌控":14941,"村民":14942,"止痛":14943,"歲童":14944,"減重":14945,"申訴":14946,"股份":14947,"落幕":14948,"藝文":14949,"蘿蔔":14950,"襲擊":14951,"課題":14952,"費城":14953,"趕到現場":14954,"辭職":14955,"農場":14956,"雞腿":14957,"離家":14958,"馬斯":14959,"特別的":14960,"死亡率":14961,"有多少":14962,"的一部分":14963,"有一位":14964,"降雨量":14965,"終於在":14966,"消防隊":14967,"生涯第":14968,"一張照片":14969,"幼稚園":14970,"中油":14971,"休養":14972,"僅次":14973,"公立":14974,"周五":14975,"和他":14976,"報價":14977,"應是":14978,"接駁":14979,"握手":14980,"新版":14981,"日登場":14982,"會對":14983,"格蘭":14984,"條規定":14985,"榮耀":14986,"樂見":14987,"檢定":14988,"水車":14989,"物價":14990,"猥褻":14991,"的學校":14992,"的資料":14993,"的空間":14994,"皆為陰性":14995,"神情":14996,"要多":14997,"要看":14998,"負起":14999,"造訪":15000,"遇過":15001,"運量":15002,"重機":15003,"野手":15004,"長得":15005,"鞭炮":15006,"高架":15007,"鼻子":15008,"民眾在":15009,"進行檢疫":15010,"小時後":15011,"第二劑":15012,"發文指出":15013,"畫面中":15014,"分鐘內":15015,"絕對是":15016,"值得一提":15017,"自動駕駛":15018,"百分之":15019,"美國總統拜登":15020,"犧牲打":15021,"匯流新聞網記者":15022,"期間並無症狀":15023,"之地":15024,"佈局":15025,"促使":15026,"南京":15027,"去了":15028,"台電":15029,"問到":15030,"在臺":15031,"在哪裡":15032,"大同":15033,"姓嫌犯":15034,"婚變":15035,"季的":15036,"平面":15037,"心靈":15038,"扶助":15039,"搜出":15040,"方位":15041,"易科罰金":15042,"模型":15043,"檸檬":15044,"歲男子":15045,"用完":15046,"緩起訴":15047,"考古":15048,"腹瀉":15049,"行使":15050,"評審":15051,"賽道":15052,"迴響":15053,"遭撞":15054,"錯了":15055,"防空":15056,"阻塞":15057,"靈感":15058,"駕照":15059,"體制":15060,"org14":15061,">.+":15062,"作業系統":15063,"攝影機":15064,"還要再":15065,"澄清湖":15066,"繁星推薦":15067,"天然氣":15068,"影劇新聞":15069,"之路":15070,"來台灣":15071,"勇於":15072,"宴會":15073,"實聯制":15074,"布袋":15075,"日召開":15076,"歐洲":15077,"特價":15078,"留學":15079,"的報導":15080,"的規定":15081,"眉角":15082,"研習":15083,"碎片":15084,"私校":15085,"管線":15086,"節能":15087,"總處":15088,"罪名":15089,"腸道":15090,"與家人":15091,"莫名":15092,"衰退":15093,"要價":15094,"質感":15095,"趴趴":15096,"載具":15097,"運價":15098,"陣中":15099,"首打席":15100,"確診新冠肺炎":15101,"什麼事":15102,"手機的":15103,"指揮中心發言人":15104,"提升守護":15105,"主場迎戰":15106,"提升守護力":15107,"一手":15108,"不下去":15109,"人道":15110,"以此":15111,"但沒想到":15112,"命題":15113,"外傷":15114,"大立":15115,"已採檢":15116,"攔下":15117,"明尼":15118,"最慘":15119,"榮譽":15120,"正向":15121,"無預警":15122,"爭吵":15123,"發給":15124,"的數據":15125,"網驚":15126,"肉品":15127,"藥廠":15128,"螢火":15129,"見過":15130,"貴人":15131,"還曾":15132,"那裡":15133,"都非常":15134,"首款":15135,"駐駕":15136,"高手":15137,"鵜鶘":15138,"黨派":15139,"出現發燒":15140,"其中一":15141,"比較多":15142,"都會有":15143,"半導體產業":15144,"確診者足跡":15145,"意識到":15146,"健身房":15147,"移除為空":15148,"一向":15149,"上揚":15150,"上空":15151,"之意":15152,"二手":15153,"併發":15154,"侵入":15155,"價差":15156,"到期":15157,"區塊":15158,"卻沒":15159,"只需":15160,"名員工":15161,"固醇":15162,"均衡":15163,"多款":15164,"導航":15165,"已無":15166,"平鎮":15167,"忍痛":15168,"更容易":15169,"校務":15170,"格外":15171,"款這裡":15172,"永久":15173,"滑梯":15174,"的美國":15175,"的最大":15176,"的作品":15177,"社宅":15178,"笑死":15179,"給自己":15180,"網笑":15181,"美技":15182,"說了":15183,"護欄":15184,"買單":15185,"跟蹤":15186,"選到":15187,"領隊":15188,"黑白":15189,"台灣人民":15190,"防疫懶人包":15191,"什麼時候":15192,"攝影師":15193,"不好意思":15194,"熱門議題":15195,"多種醫療口罩":15196,"得點圈":15197,"超夯款這裡":15198,"移除為空號":15199,"防疫懶人包備起來":15200,"超夯款這裡挑選":15201,"一番":15202,"他對":15203,"但對":15204,"你可以":15205,"原諒":15206,"幫你":15207,"心血管":15208,"擅自":15209,"散播":15210,"有信心":15211,"桌上":15212,"歡樂":15213,"歲女":15214,"決勝":15215,"海峽":15216,"炸彈":15217,"特徵":15218,"產值":15219,"眼尖":15220,"等十大":15221,"聯電":15222,"行事":15223,"被判":15224,"走入":15225,"趕抵":15226,"跑回":15227,"過關":15228,"遏止":15229,"都必須":15230,"鄉親":15231,"關門":15232,"阪神":15233,"雙子":15234,"驚艷":15235,"更多影劇新聞":15236,"發生後":15237,"希望他":15238,"生活的":15239,"朋友的":15240,"商品經驗老實說":15241,"年前的":15242,"現行犯":15243,"地下水":15244,"時事關鍵字":15245,"加密貨幣":15246,"里程碑":15247,"三角":15248,"九二":15249,"二刀流":15250,"五年":15251,"人陰性":15252,"促成":15253,"做成":15254,"億支":15255,"兩場":15256,"列自主健康管理":15257,"回復":15258,"回鑾":15259,"地主":15260,"將她":15261,"很像":15262,"復活":15263,"徵收":15264,"找尋":15265,"有夠":15266,"有能力":15267,"此一":15268,"步行":15269,"濕地":15270,"炒房":15271,"特權":15272,"球賽":15273,"當兵":15274,"的計畫":15275,"秘訣":15276,"精采":15277,"裝飾":15278,"身旁":15279,"追到":15280,"通勤":15281,"閃避":15282,"鞋子":15283,"頓時":15284,"台灣好手":15285,"真的好":15286,"施打率":15287,"至少要":15288,"成員國":15289,"時代的":15290,"富邦勇士":15291,"第四節":15292,"再抽電影票今日推薦影音":15293,"現代人":15294,"法說會":15295,"一筆":15296,"一號":15297,"之星":15298,"倡議":15299,"僑民":15300,"內外":15301,"兼具":15302,"大王":15303,"大鬧":15304,"失守":15305,"才被":15306,"掙扎":15307,"搭公車":15308,"旺盛":15309,"查明":15310,"玉山":15311,"界的":15312,"的決心":15313,"線的":15314,"肥胖":15315,"胸痛":15316,"豪門":15317,"賣家":15318,"車隊":15319,"這才":15320,"這兩個":15321,"速球":15322,"連霸":15323,"那就是":15324,"配發":15325,"鉅星":15326,"順暢":15327,"騎乘":15328,"點餐":15329,"億元的":15330,"交易量":15331,"疫苗接種假":15332,"為什麼要":15333,"保證金":15334,">!<":15335,"不吃":15336,"不著":15337,"也引起":15338,"亮麗":15339,"億劑":15340,"刑責":15341,"創傷":15342,"叫做":15343,"同業":15344,"向前":15345,"因案":15346,"墊底":15347,"天花":15348,"容忍":15349,"幕僚":15350,"應屆":15351,"撤換":15352,"教務":15353,"旗下的":15354,"暴斃":15355,"月以來":15356,"本場":15357,"橫跨":15358,"水溝":15359,"流水":15360,"熱銷":15361,"疲勞":15362,"的選擇":15363,"盛行":15364,"破獲":15365,"考前":15366,"舊金山":15367,"船長":15368,"調降":15369,"運轉":15370,"郵局":15371,"阿拉":15372,"飛犧牲打":15373,"學生們":15374,"警方獲報後":15375,"所以我":15376,"感到相當":15377,"外野手":15378,"這段期間":15379,"大雨特報":15380,"雲端發票":15381,"福島核廢水":15382,"房地合一":15383,"超音波":15384,"不開車":15385,"五十":15386,"人頭":15387,"修圖":15388,"切割":15389,"前幾天":15390,"包機":15391,"南市":15392,"反制":15393,"口號":15394,"只不過":15395,"喪失":15396,"在台中":15397,"基準":15398,"多國":15399,"奪勝":15400,"就已":15401,"張照片":15402,"教材":15403,"日夜":15404,"更具":15405,"流失":15406,"淚崩":15407,"溫柔":15408,"潑蟑螂":15409,"的成績":15410,"聯發":15411,"聯結":15412,"自拍":15413,"自去年":15414,"般的":15415,"蔬果":15416,"藍寶":15417,"裝設":15418,"警官":15419,"走上":15420,"軍政府":15421,"軟銀":15422,"農藥":15423,"這件事情":15424,"遵循":15425,"都不能":15426,"雖有":15427,"靈魂":15428,"養殖":15429,"當地的":15430,"不僅如此":15431,"一般民眾":15432,"群聚事件":15433,"護理人員":15434,"通訊軟體":15435,"游泳池":15436,"截至目前國內累計":15437,"火燒車":15438,"太平洋":15439,"值得一提的是":15440,"螢火蟲":15441,"上陣":15442,"也以":15443,"人住院隔離":15444,"仰賴":15445,"但沒有":15446,"你會":15447,"兵庫":15448,"力拚":15449,"卻因為":15450,"命名":15451,"嘉賓":15452,"好在":15453,"姓員警":15454,"將對":15455,"巴克":15456,"延誤":15457,"想辦法":15458,"抽血":15459,"揚言":15460,"更快":15461,"更進一步":15462,"最愛的":15463,"月光":15464,"波蘭":15465,"注入":15466,"測量":15467,"球速":15468,"的理由":15469,"看診":15470,"真人":15471,"秘境":15472,"符號":15473,"紅火":15474,"結算":15475,"美照":15476,"長久":15477,"顯見":15478,"可以透過":15479,"進行的":15480,"一起來":15481,"有效的":15482,"柔道童":15483,"大雨勢":15484,"印象深刻":15485,"內湖店":15486,"加權指數":15487,"鉅星匯":15488,"並向":15489,"人解除隔離":15490,"兒少":15491,"內有":15492,"化身":15493,"周一":15494,"學程":15495,"定讞":15496,"幹事":15497,"悲痛":15498,"惡劣":15499,"憲法":15500,"承辦":15501,"振興":15502,"收取":15503,"改採":15504,"最具":15505,"朝向":15506,"氣體":15507,"灰色":15508,"珠寶":15509,"競技":15510,"等同":15511,"綁定":15512,"翻黑":15513,"請來":15514,"逃兵":15515,"透天":15516,"馬路上":15517,"高通":15518,"今天說":15519,"就是在":15520,"出現的":15521,"雖然有":15522,"諾富特案":15523,"!」[":15524,"鋒面影響":15525,"當然是":15526,"值得注意的是":15527,"趴趴走":15528,"大立光":15529,"人住院隔離中":15530,"不肯":15531,"共犯":15532,"吸菸":15533,"壽命":15534,"大運":15535,"好玩":15536,"姓教官":15537,"對向":15538,"巨頭":15539,"已婚":15540,"愛吃":15541,"應徵":15542,"撤僑":15543,"曾是":15544,"案子":15545,"水中":15546,"滋事":15547,"熱火":15548,"眼看":15549,"製氧":15550,"複製":15551,"要怎麼":15552,"親民":15553,"詳情":15554,"說他":15555,"課本":15556,"豆漿":15557,"貴的":15558,"農村":15559,"速食":15560,"還算":15561,"都府":15562,"都不是":15563,"錢包":15564,"雨區":15565,"麥當":15566,"日本火腿":15567,"送醫急救":15568,"社群網站":15569,"市占率":15570,"聯發科":15571,"。」、「":15572,"一併":15573,"不一":15574,"不被":15575,"也從":15576,"也持續":15577,"仍持續":15578,"例調查中":15579,"價錢":15580,"公權力":15581,"切勿":15582,"前陣子":15583,"升上一軍":15584,"單親":15585,"大廳":15586,"大海":15587,"央行":15588,"就職":15589,"座的":15590,"拉長":15591,"放進":15592,"斥資":15593,"春天":15594,"會晤":15595,"棉花":15596,"權值":15597,"殺出":15598,"物體":15599,"的考生":15600,"紅茶":15601,"總量":15602,"被動":15603,"親人":15604,"誠實":15605,"較大雨勢":15606,"逆向":15607,"逗趣":15608,"遍布":15609,"配息":15610,"重罰":15611,"可以說是":15612,"電話號碼":15613,"傳出有":15614,"公尺的":15615,"花蓮縣":15616,"一組":15617,"不好的":15618,"不方便":15619,"並不會":15620,"人祥":15621,"分工":15622,"分隊":15623,"參拜":15624,"圓滿":15625,"幫我":15626,"感冒":15627,"掛牌":15628,"推車":15629,"搭上":15630,"擴展":15631,"擺放":15632,"收斂":15633,"改編":15634,"最嚴重":15635,"會很":15636,"會把":15637,"有成":15638,"榜首":15639,"橫濱":15640,"滅絕":15641,"灰狼":15642,"物聯網":15643,"的味道":15644,"的做法":15645,"究竟是":15646,"立夏":15647,"莊人祥":15648,"要他":15649,"記載":15650,"跑鞋":15651,"辛勞":15652,"逃亡":15653,"連連":15654,"防丟":15655,"雙魚":15656,"電費":15657,"頂樓":15658,"食慾":15659,"駐處":15660,"高低":15661,"高出":15662,"台中捷運":15663,"經濟發展":15664,"引發討論":15665,"交流道":15666,"路上觀察":15667,"診所就醫":15668,"印度疫情失控":15669,"美術館":15670,"今日公布國內新增":15671,"新型冠狀病毒肺炎":15672,"護國神山":15673,"九二共識":15674,"不解":15675,"主治":15676,"以便":15677,"企劃":15678,"偷吃":15679,"全台灣":15680,"兩隻":15681,"列印":15682,"到一半":15683,"副總":15684,"反壟斷":15685,"同志":15686,"嘲諷":15687,"國宅":15688,"國策":15689,"場的":15690,"孫女":15691,"少見":15692,"山東":15693,"市政":15694,"打回":15695,"撻伐":15696,"日期間":15697,"會影響":15698,"有待":15699,"此項":15700,"沒問題":15701,"深感":15702,"獲取":15703,"異狀":15704,"病變":15705,"的政治":15706,"禮貌":15707,"缺口":15708,"蛋黃":15709,"要用":15710,"跟大家":15711,"選戰":15712,"鐵人":15713,"靠這些":15714,"頒發":15715,"騎樓":15716,"體諒":15717,"就是因為":15718,"甚至連":15719,"第二個":15720,"也會有":15721,"共同努力":15722,"外界關注":15723,"至今已":15724,"直播主":15725,"超商買":15726,"自來水":15727,"麥當勞":15728,"也提供":15729,"亞太":15730,"以確保":15731,"倒塌":15732,"健檢":15733,"偵訊":15734,"傷兵":15735,"全是":15736,"反霸凌":15737,"嚴辦":15738,"圖案":15739,"夜晚":15740,"換新":15741,"散步":15742,"新手":15743,"會與":15744,"有肌":15745,"東方":15746,"歲時":15747,"泌尿":15748,"法治":15749,"無需":15750,"熱身":15751,"燙傷":15752,"症候":15753,"白宮":15754,"的重點":15755,"的家人":15756,"看的":15757,"私密":15758,"翻身":15759,"考取":15760,"被抓":15761,"輪到":15762,"送至":15763,"進修":15764,"邀約":15765,"阮男":15766,"希望能夠":15767,"一定的":15768,"太空船":15769,"勞工朋友":15770,"公共危險":15771,"的心情":15772,"節約用水":15773,"一團":15774,"一百":15775,"不爽":15776,"之內":15777,"人人":15778,"卸任":15779,"受災":15780,"合體":15781,"在台北市":15782,"大樹":15783,"寫真":15784,"對岸":15785,"巨大的":15786,"心肌":15787,"撿到":15788,"故無匡列接觸者":15789,"施行":15790,"死了":15791,"流鼻":15792,"為自己":15793,"生小孩":15794,"田中":15795,"畫作":15796,"的女兒":15797,"統測":15798,"與他":15799,"霸主":15800,"高山":15801,"防疫人員":15802,"關係的":15803,"一直到":15804,"就有一名":15805,"穩定的":15806,"進一步釐清":15807,"綜合外媒報導":15808,"最終以":15809,"事務所":15810,"很高興":15811,"罹難者家屬":15812,"一帶一路":15813,"傷重不治":15814,"路上觀察學院":15815,"三十":15816,"丟蟑螂":15817,"來襲":15818,"則會":15819,"則回應":15820,"又以":15821,"名嫌犯":15822,"在網上":15823,"多多":15824,"大罵":15825,"天降":15826,"存活":15827,"就因":15828,"影城":15829,"徒步":15830,"心想":15831,"念書":15832,"怒批":15833,"手持":15834,"接替":15835,"擁抱":15836,"月時":15837,"有如":15838,"有雨":15839,"極度":15840,"櫻花":15841,"江蘇":15842,"演技":15843,"無可":15844,"牠的":15845,"用力":15846,"的症狀":15847,"移植":15848,"站的":15849,"站穩":15850,"聯訪":15851,"背部":15852,"菜單":15853,"藍鳥":15854,"街上":15855,"這點":15856,"造假":15857,"過境":15858,"達比":15859,"酒醉":15860,"金馬":15861,"飲品":15862,"驚豔":15863,"疫情擴大":15864,"疫苗後":15865,"進行調查":15866,"希望在":15867,"受到疫情影響":15868,"調整為":15869,"不對勁":15870,"翻攝自":15871,"」...":15872,"一棟":15873,"一方面":15874,"下個":15875,"再爆":15876,"出水":15877,"副組長":15878,"友達":15879,"和朋友":15880,"喝水":15881,"單節":15882,"在今天":15883,"學柔道":15884,"室外":15885,"寶座":15886,"平地":15887,"年成長":15888,"康橋":15889,"恐有":15890,"憑藉":15891,"成品":15892,"才不會":15893,"捲入":15894,"搶攻":15895,"月線":15896,"有在":15897,"洗錢":15898,"現役":15899,"疑問":15900,"發酵":15901,"矚目":15902,"科主任":15903,"竄出":15904,"緩刑":15905,"聽取":15906,"肺部":15907,"製品":15908,"誤解":15909,"警衛":15910,"身上的":15911,"輛車":15912,"轉身":15913,"這支":15914,"連忙":15915,"闖進":15916,"體能":15917,"防疫破口":15918,"社會的":15919,"只要在":15920,"對方的":15921,"的話題":15922,"防護衣":15923,"年以下有期徒刑":15924,"國策顧問":15925,"一千":15926,"不來":15927,"使館":15928,"修憲":15929,"做什麼":15930,"優良":15931,"剛開始":15932,"協力":15933,"各級":15934,"在這裡":15935,"填寫":15936,"多萬":15937,"姓老翁":15938,"實戰":15939,"小港":15940,"巡防":15941,"擅長":15942,"散發":15943,"日及":15944,"春節":15945,"期刊":15946,"淪陷":15947,"湧現":15948,"痠痛":15949,"的患者":15950,"的意思":15951,"精密":15952,"翻倍":15953,"考科":15954,"英聽":15955,"訪談":15956,"請回":15957,"購票":15958,"週一":15959,"長年":15960,"電纜":15961,"可以讓":15962,"美國與":15963,"活動期間":15964,"必須在":15965,"顯示器":15966,"方面的":15967,"千萬別":15968,"接獲通報":15969,"原住民族":15970,"達比修":15971,"不影響":15972,"並透過":15973,"也證實":15974,"他將":15975,"低估":15976,"侵略":15977,"分組":15978,"前天":15979,"前景":15980,"同為":15981,"員林":15982,"堅尼":15983,"天空":15984,"娘家":15985,"官邸":15986,"年到":15987,"形狀":15988,"所學校":15989,"抖音":15990,"抵抗":15991,"拿出來":15992,"接單":15993,"撫養":15994,"旅程":15995,"會同":15996,"月子":15997,"有線":15998,"歌迷":15999,"民事":16000,"無助":16001,"的時刻":16002,"瞄準":16003,"神轎":16004,"經貿":16005,"縱放":16006,"耳朵":16007,"聖誕":16008,"若能":16009,"蘭嶼":16010,"製成":16011,"解說":16012,"返鄉":16013,"逃跑":16014,"通道":16015,"釀禍":16016,"難民":16017,"露營":16018,"馬桶":16019,"高市":16020,"麥克":16021,"點燃":16022,"國際組織":16023,"面對面":16024,"了一些":16025,"另一位":16026,"勞動部":16027,"年齡層":16028,"藻礁公投":16029,"塑膠袋":16030,"美式賣場":16031,"一樓":16032,"之同住家人":16033,"交友":16034,"凝聚":16035,"出包":16036,"卻未":16037,"在過去":16038,"大了":16039,"失靈":16040,"姐妹":16041,"將為":16042,"對中":16043,"就想":16044,"層面":16045,"年新高":16046,"捕獲":16047,"操控":16048,"日因":16049,"星巴克":16050,"最難":16051,"染黑":16052,"樣貌":16053,"法制":16054,"海面":16055,"病友":16056,"的商品":16057,"的模樣":16058,"盛舉":16059,"總價":16060,"行員":16061,"說謊":16062,"調升":16063,"證物":16064,"資政":16065,"轉帳":16066,"過當":16067,"預訂":16068,"類對象":16069,"都是在":16070,"同時也是":16071,"產業發展":16072,"兒子的":16073,"竟然是":16074,"數位化":16075,"發出聲明":16076,"在家裡":16077,"陳時中表示":16078,"一連串":16079,"一分":16080,"中學":16081,"串連":16082,"也透過":16083,"入圍":16084,"分之一":16085,"則可":16086,"各家":16087,"各隊":16088,"大事":16089,"接續":16090,"搭檔":16091,"核災":16092,"機的":16093,"演奏":16094,"熄火":16095,"營建":16096,"爭奪":16097,"的多":16098,"的壓力":16099,"的案例":16100,"綜藝":16101,"聖母":16102,"謠言":16103,"超好吃":16104,"轉發":16105,"追回":16106,"遭控":16107,"那天":16108,"進行消毒":16109,"其中包含":16110,"第二名":16111,"疑似是":16112,"保護自己":16113,"送醫不治":16114,"數位轉型":16115,"關心您":16116,"機師染疫事件":16117,"國防部長":16118,"全民省水":16119,"請勿模仿":16120,"不應求":16121,"小龍女":16122,"全民省水靠這些":16123,"不開":16124,"並對":16125,"做過":16126,"共襄":16127,"吸食":16128,"完後":16129,"小貨車":16130,"居留":16131,"後者":16132,"心得":16133,"性命":16134,"打壓":16135,"披露":16136,"搭車":16137,"極大":16138,"機上":16139,"的技術":16140,"秒懂":16141,"經查":16142,"而被":16143,"肌瘤":16144,"自有":16145,"複合":16146,"該怎麼辦":16147,"起了":16148,"起底":16149,"這台":16150,"過濾":16151,"那就":16152,"防水":16153,"題型":16154,"香氣":16155,"網友表示":16156,"持續疫情監測與邊境管制措施":16157,"經濟復甦":16158,"蘋果發表會":16159,"表現亮眼":16160,"新增的":16161,"行政區":16162,"電視劇":16163,"購物中心":16164,"台北市黨部評委召集人":16165,"債務糾紛":16166,"德基水庫":16167,"缺水危機提升守護力":16168,"超夯款這裡挑選水情拉警報":16169,"有肌勵":16170,"任期":16171,"低頭":16172,"你有":16173,"你知道":16174,"供不應求":16175,"偏高":16176,"備用":16177,"兩地":16178,"劇組":16179,"勝負":16180,"北捷":16181,"含氚":16182,"士兵":16183,"妨礙":16184,"就將":16185,"憑證":16186,"扶養":16187,"把人":16188,"拜訪":16189,"日籍":16190,"日深夜":16191,"是美國":16192,"本地":16193,"標誌":16194,"權責":16195,"水分":16196,"照常":16197,"特區":16198,"的投資":16199,"的治療":16200,"的女子":16201,"盡可能":16202,"紀律":16203,"行李":16204,"該處":16205,"買盤":16206,"重現":16207,"順便":16208,"顆三分球":16209,"餐館":16210,"因為我":16211,"第一位":16212,"機師案":16213,"也就是說":16214,"中山區":16215,"伸出":16216,"保有":16217,"入獄":16218,"名下":16219,"嘔吐":16220,"已成為":16221,"建物":16222,"復古":16223,"態勢":16224,"打下":16225,"昔日":16226,"是為":16227,"未遂":16228,"本屆":16229,"樹林":16230,"燈光":16231,"猶如":16232,"環球":16233,"的最佳":16234,"礦工":16235,"缺陣":16236,"美豬":16237,"老街":16238,"育有":16239,"船上":16240,"西部":16241,"評議":16242,"議論":16243,"趕到":16244,"路徑":16245,"追加":16246,"這天":16247,"逮人":16248,"道理":16249,"除名":16250,"陶瓷":16251,"頸部":16252,"驚爆":16253,"體型":16254,"鯊魚":16255,"防疫旅宿":16256,"的人數":16257,"個月後":16258,"提醒大家":16259,"回應表示":16260,"也不知道":16261,"入境時":16262,"下一秒":16263,"報警處理":16264,"資本支出":16265,"座談會":16266,"症候群":16267,"共襄盛舉":16268,"並說":16269,"今早":16270,"今下午":16271,"分隔":16272,"勝率":16273,"及案":16274,"反而是":16275,"受益":16276,"對自己":16277,"就表示":16278,"店裡":16279,"店長":16280,"待在":16281,"怒轟":16282,"搶下":16283,"放過":16284,"旱災":16285,"曾被":16286,"有過":16287,"爆棚":16288,"片段":16289,"的意見":16290,"的核心":16291,"私房":16292,"紅線":16293,"英鎊":16294,"製毒":16295,"跟隨":16296,"這一次":16297,"逮到":16298,"體會":16299,"可以用":16300,"我們在":16301,"已經被":16302,"北市府":16303,">-.":16304,"看到的":16305,"服務業":16306,"如果沒有":16307,"是否要":16308,"接觸到":16309,"運動家":16310,"舉行的":16311,"挑戰賽":16312,"證明文件":16313,"同期新高":16314,"水情吃緊":16315,"再生能源":16316,"一艘":16317,"下一步":16318,"不給":16319,"作客":16320,"例移除為空號":16321,"全食":16322,"列席":16323,"到位":16324,"動向":16325,"吃得":16326,"同年":16327,"哭了":16328,"國旗":16329,"場館":16330,"大橋":16331,"她和":16332,"威少":16333,"將進行":16334,"尊嚴":16335,"想問":16336,"憾事":16337,"抱持":16338,"拿鐵":16339,"擁擠":16340,"更改":16341,"會繼續":16342,"月球":16343,"檔期":16344,"水平":16345,"洋蔥":16346,"激素":16347,"瀕臨":16348,"無意":16349,"當心":16350,"的基礎":16351,"的日子":16352,"笑了":16353,"糟糕":16354,"荔枝":16355,"該國":16356,"讓更多":16357,"跌停":16358,"這句話":16359,"違背":16360,"都知道":16361,"配偶":16362,"量的":16363,"鑑別":16364,"開庭":16365,"防線":16366,"日本人":16367,"嚴重不良事件":16368,"大學學測":16369,"病例數":16370,"接獲報案":16371,"加油打氣":16372,"簡單的":16373,"工業區":16374,"全場最高":16375,"中南部山區":16376,"到案說明":16377,"圖片來源":16378,"成年人":16379,"主治醫師":16380,":[":16381,"三種":16382,"任意":16383,"作息":16384,"內建":16385,"公正":16386,"升格":16387,"反省":16388,"商標":16389,"圓夢":16390,"婚宴":16391,"將推出":16392,"就來":16393,"工安":16394,"工時":16395,"康乃":16396,"換算":16397,"攝氏":16398,"文物":16399,"明定":16400,"曼谷":16401,"標題":16402,"正視":16403,"水手":16404,"為因應":16405,"生子":16406,"的後":16407,"的網路":16408,"的足跡":16409,"編列":16410,"緩和":16411,"聲援":16412,"變換":16413,"質問":16414,"車位":16415,"車門":16416,"選在":16417,"附加":16418,"領養":16419,"駐外":16420,"甚至還有":16421,"畫面曝光":16422,"當地居民":16423,"競爭對手":16424,"三分之一":16425,"目擊民眾":16426,"偵查隊":16427,"執勤至":16428,"羈押禁見":16429,"輝瑞疫苗":16430,"總體檢":16431,"一動":16432,"一戶":16433,"不希望":16434,"假裝":16435,"偏低":16436,"優點":16437,"再加":16438,"副教授":16439,"喪禮":16440,"回台灣":16441,"地檢":16442,"地鐵":16443,"失事":16444,"奠定":16445,"干涉":16446,"復原":16447,"想買":16448,"應付":16449,"我自己":16450,"拓荒":16451,"排入海":16452,"插管":16453,"擾台":16454,"救助":16455,"早晚":16456,"沒在":16457,"液體":16458,"炒飯":16459,"然大":16460,"猛烈":16461,"的選手":16462,"相差":16463,"稀釋":16464,"立方公尺":16465,"綁架":16466,"置信":16467,"老家":16468,"螺絲":16469,"行蹤":16470,"規避":16471,"觸及":16472,"變數":16473,"變身":16474,"路況":16475,"輪椅":16476,"配料":16477,"鐵板":16478,"雷陣雨":16479,"首見":16480,"相關通報":16481,"我們要":16482,"發生意外":16483,"為了避免":16484,"運動會":16485,"偽造文書":16486,"中常會":16487,"整起事件":16488,"之稱的":16489,"也向":16490,"二次":16491,"五號":16492,"亞軍":16493,"估值":16494,"傳給":16495,"入門":16496,"再由":16497,"出勤":16498,"前瞻":16499,"取水":16500,"噴飛":16501,"回想":16502,"在後":16503,"士氣":16504,"嫩妻":16505,"左營":16506,"已向":16507,"市價":16508,"帶回家":16509,"張女":16510,"我沒有":16511,"扭曲":16512,"民進":16513,"法定":16514,"狀元":16515,"療法":16516,"的疫情":16517,"的地點":16518,"直球":16519,"看準":16520,"總冠軍賽":16521,"繽紛":16522,"肌膚":16523,"自曝":16524,"言語":16525,"賺到":16526,"趕往":16527,"道德":16528,"鎮壓":16529,"開立":16530,"開花":16531,"面目":16532,"頂標":16533,"點到":16534,"黨代表":16535,"台灣中華職棒":16536,"第一劑":16537,"公司治理":16538,"其中案":16539,"真的會":16540,"管理員":16541,"重點是":16542,"醫療體系":16543,"專家認為":16544,"引起熱議":16545,"引起網友熱議":16546,"捷運站":16547,"公共衛生":16548,"好奇詢問":16549,"超級月亮":16550,"防護力":16551,"短暫陣雨或雷雨":16552,"百貨公司":16553,"扣除額":16554,"辦事處":16555,"天花板":16556,"製氧機":16557,"一棒":16558,"上調":16559,"不打":16560,"中興":16561,"二樓":16562,"人車":16563,"但從":16564,"公道":16565,"分離":16566,"務實":16567,"半數":16568,"外匯":16569,"大叔":16570,"學分":16571,"對美國":16572,"巨型":16573,"收穫":16574,"春雨":16575,"林園":16576,"標語":16577,"殊榮":16578,"殯儀":16579,"水利":16580,"沿著":16581,"深的":16582,"溜滑梯":16583,"無價":16584,"珍愛":16585,"理髮":16586,"產線":16587,"的花":16588,"的學習":16589,"社長":16590,"維生素":16591,"聆聽":16592,"行走":16593,"試著":16594,"過大":16595,"青菜":16596,"駁斥":16597,"驚奇":16598,"髒話":16599,"疫情擴散":16600,"已經開始":16601,"發生過":16602,"資料來源":16603,"也不用":16604,"消防車":16605,"基本面":16606,"公斤的":16607,"官員表示":16608,"股東會":16609,"餐飲業":16610,"例不明及":16611,"不小":16612,"中年":16613,"了許多":16614,"倒是":16615,"出任":16616,"到第":16617,"功課":16618,"回流":16619,"地院":16620,"好成績":16621,"存摺":16622,"官司":16623,"宵夜":16624,"小編":16625,"尾盤":16626,"局用":16627,"往下":16628,"愛犬":16629,"戀情":16630,"戰場":16631,"戰局":16632,"擊中":16633,"攸關":16634,"月台":16635,"條第":16636,"標章":16637,"次高":16638,"款式":16639,"段時間":16640,"沒能":16641,"為他":16642,"疏散":16643,"痛心":16644,"發的":16645,"的價值":16646,"盛大":16647,"眼光":16648,"等議題":16649,"簡易":16650,"精華":16651,"缺料":16652,"聲浪":16653,"肉粽":16654,"被爆":16655,"贊成":16656,"逾百":16657,"配色":16658,"開局":16659,"降溫":16660,"鬥毆":16661,"點左右":16662,"應該會":16663,"諾富特員工":16664,"沒想到卻":16665,"則是在":16666,"校方表示":16667,"大批網友":16668,"陪同下":16669,"與他人接觸":16670,"除罪化":16671,"權值股":16672,"一期":16673,"不說":16674,"也感謝":16675,"仍須":16676,"保密":16677,"出問題":16678,"分類":16679,"功夫":16680,"包容":16681,"同盟":16682,"喊出":16683,"報銷":16684,"多方":16685,"將至":16686,"局被敲":16687,"巧合":16688,"拉回":16689,"拍戲":16690,"日以":16691,"日新增":16692,"日對戰":16693,"歐美":16694,"氣泡":16695,"混住":16696,"濃厚":16697,"煙火":16698,"爾夫":16699,"的最新":16700,"盛開":16701,"票價":16702,"線索":16703,"美學":16704,"自覺":16705,"認可":16706,"貼紙":16707,"運彩":16708,"都得":16709,"院校":16710,"類科":16711,"首輪":16712,"目前仍":16713,"今年度":16714,"除了有":16715,"臉書粉專":16716,"台中市長":16717,"系列賽":16718,"全面消毒":16719,"專案報告":16720,"返台後":16721,"咳嗽症狀":16722,"陌生人":16723,"藍寶堅尼":16724,"反霸凌專線":16725,"主廚":16726,"也在臉書":16727,"令他":16728,"估算":16729,"優雅":16730,"加分":16731,"包辦":16732,"古代":16733,"召回":16734,"台幹":16735,"右手":16736,"善盡":16737,"圖像":16738,"士尼":16739,"士林":16740,"就先":16741,"巴士":16742,"幫她":16743,"很喜歡":16744,"手遊":16745,"指令":16746,"排出":16747,"探究":16748,"救生":16749,"是指":16750,"是用":16751,"永康":16752,"為首":16753,"牆壁":16754,"犯下":16755,"簡章":16756,"胸口":16757,"號公車":16758,"走低":16759,"跟監":16760,"路易":16761,"返臺":16762,"遭拒":16763,"鐵道":16764,"闖關":16765,"順位":16766,"領土":16767,"高飛犧牲打":16768,"鳳山":16769,"黑暗":16770,"目前沒有":16771,"發生的機率":16772,"這個問題":16773,"高雄港":16774,"?」「":16775,"吸引不少":16776,"知名度":16777,"先生說":16778,"大量的":16779,"酒駕撞死":16780,"上升到":16781,"變種病毒株":16782,"組成的":16783,"適當防護":16784,"租屋處":16785,"殯儀館":16786,"》<":16787,"三餐":16788,"不順":16789,"中彈":16790,"也必須":16791,"介於":16792,"仍不":16793,"低薪":16794,"例新型冠狀病毒肺炎":16795,"倒臥":16796,"停放":16797,"兩黨":16798,"再創新高":16799,"勞保":16800,"周六":16801,"和台灣":16802,"增幅":16803,"外星":16804,"室友":16805,"就發現":16806,"席次":16807,"悲傷":16808,"挽回":16809,"探測":16810,"操縱":16811,"未知":16812,"未與他人接觸":16813,"水煮":16814,"無虞":16815,"猝死":16816,"用手機":16817,"的歷史":16818,"短片":16819,"破門":16820,"科興":16821,"積分":16822,"等單位":16823,"算法":16824,"老爸":16825,"肩膀":16826,"自強":16827,"自請":16828,"辭世":16829,"迪士尼":16830,"邊的":16831,"錦賽":16832,"院會":16833,"陳屍":16834,"雷霆":16835,"顱內":16836,"人員的":16837,"國家主席":16838,"指揮中心公布":16839,"根據了解":16840,"桃園領航猿":16841,"治療後":16842,"專家曝":16843,"近日在":16844,"行動支付":16845,"有人在":16846,"本土感染":16847,"母親節前夕":16848,"交通工具":16849,"監視器影像":16850,"展開調查":16851,"這名男子":16852,"領域的":16853,"接種疫苗後":16854,"毒品案":16855,"集中檢疫":16856,"不明原因":16857,"該名網友":16858,"建築物":16859,"本來就":16860,"武漢肺炎疫情":16861,"晶圓廠":16862,"看不下去":16863,"大專校院":16864,"客製化":16865,"三級":16866,"下山":16867,"並請":16868,"並進行":16869,"了一下":16870,"人群":16871,"倉儲":16872,"儀器":16873,"副董事長":16874,"合影":16875,"在澳洲":16876,"在國外":16877,"夫人":16878,"好喝":16879,"孤單":16880,"年約":16881,"幼鳥":16882,"廣角":16883,"心目":16884,"心中的":16885,"我也是":16886,"手腳":16887,"抓住":16888,"是她":16889,"是中國":16890,"書中":16891,"氣的":16892,"淪為":16893,"烤肉":16894,"玩耍":16895,"相繼":16896,"硬幣":16897,"簽證":16898,"衝破":16899,"負債":16900,"買雙":16901,"跨域":16902,"選票":16903,"都以":16904,"韓元":16905,"預言":16906,"結果出爐":16907,"最高可":16908,"訪問時":16909,"自費採檢":16910,"能源轉型":16911,"結帳再":16912,"足夠的":16913,"賓士車":16914,"滿意度":16915,"量測體溫":16916,"全球疫情大流行":16917,"解放軍":16918,"僅次於":16919,"!「<":16920,"不喝酒":16921,"並配合":16922,"之上":16923,"分店":16924,"別的":16925,"到大":16926,"吃素":16927,"回嗆":16928,"大腦":16929,"大逆轉":16930,"姑姑":16931,"季中":16932,"家園":16933,"崗位":16934,"市售":16935,"彌補":16936,"彩繪":16937,"怒了":16938,"懲罰":16939,"我跟":16940,"打扮":16941,"打炒房":16942,"招收":16943,"挖出":16944,"擦傷":16945,"政務":16946,"新郎":16947,"時隔":16948,"月到":16949,"校外":16950,"框架":16951,"歪樓":16952,"沒錯":16953,"消除":16954,"滿載":16955,"炒作":16956,"現貨":16957,"療程":16958,"的海":16959,"的機師":16960,"的案件":16961,"的承諾":16962,"租賃":16963,"肌力":16964,"與妻子":16965,"要再":16966,"規律":16967,"誕生":16968,"逝世":16969,"錄製":16970,"靠北":16971,"革命":16972,"中心主任":16973,"雖然沒有":16974,"管理局":16975,"透露自己":16976,"關鍵時刻":16977,"平台上":16978,"當地時間":16979,"台股今天":16980,"目標是":16981,"系列活動":16982,"研討會":16983,"?」。":16984,"一則":16985,"世衛":16986,"丟掉":16987,"也出現":16988,"乾燥":16989,"亂丟":16990,"信賴":16991,"傾倒":16992,"內閣":16993,"再享":16994,"品嚐":16995,"地雷":16996,"天上":16997,"年才":16998,"復發":16999,"心生":17000,"悄悄":17001,"把自己":17002,"招待":17003,"斯科":17004,"新年":17005,"日就":17006,"有害":17007,"查看這":17008,"母女":17009,"民幣":17010,"水上":17011,"沿途":17012,"深圳":17013,"爾蒙":17014,"環節":17015,"病史":17016,"的言論":17017,"秋冬":17018,"等不適症狀":17019,"給出":17020,"線條":17021,"老化":17022,"自菲律賓":17023,"號誌":17024,"行竊":17025,"車體":17026,"轄內":17027,"農會":17028,"逛街":17029,"遭黑衣人闖入":17030,"遺症":17031,"長髮":17032,"隱匿":17033,"首座":17034,"鹹酥雞":17035,"覺得自己":17036,"環境的":17037,"國內疫情":17038,"日起至":17039,"展現出":17040,"地球上":17041,"經理人":17042,"成交金額":17043,"國防部":17044,"求職者":17045,"曾文水庫":17046,"例新型冠狀病毒肺炎相關通報":17047,"查看這則貼文":17048,"上櫃":17049,"並稱":17050,"也想":17051,"也不要":17052,"事證":17053,"以致":17054,"來賓":17055,"億人":17056,"全開":17057,"凍結":17058,"升上":17059,"名叫":17060,"和牛":17061,"四強":17062,"地瓜":17063,"夏威":17064,"定案":17065,"將針對":17066,"就對":17067,"快點":17068,"忽視":17069,"指南":17070,"揭牌":17071,"擄人":17072,"水泥":17073,"滿地":17074,"火熱":17075,"災情":17076,"特考":17077,"盛事":17078,"眾議員":17079,"祖父":17080,"自嘲":17081,"解散":17082,"試營運":17083,"調職":17084,"讓許多":17085,"近幾年":17086,"過夜":17087,"銜接":17088,"零錢":17089,"黃蜂":17090,"目前已有":17091,"因為他們":17092,"不過也有網友":17093,"調查後":17094,"透過臉書":17095,"台中港":17096,"兩人在":17097,"昨日公布":17098,"評估後":17099,"研發的":17100,"營業額":17101,"初步掌握":17102,"同住者":17103,"國民黨":17104,"如有發燒":17105,"服飾出清":17106,"經紀公司":17107,"終盤上漲":17108,"聯合品牌運動服飾出清":17109,"夏威夷":17110,"聯合品牌運動服飾出清一件":17111,"下游":17112,"不開放":17113,"仍維持":17114,"低價":17115,"假設":17116,"分期":17117,"剩餘":17118,"同台":17119,"四肢":17120,"地形":17121,"地獄":17122,"增至":17123,"大笑":17124,"她認為":17125,"好久":17126,"學霸":17127,"家事":17128,"巴基":17129,"干預":17130,"得好":17131,"怒嗆":17132,"手工":17133,"揭密":17134,"教職員":17135,"敵人":17136,"更可":17137,"有幾":17138,"架次":17139,"機捷":17140,"歲女童":17141,"母子":17142,"水塔":17143,"焦糖":17144,"熱對流":17145,"理工":17146,"的同學":17147,"的形象":17148,"石油":17149,"破解":17150,"空拍":17151,"網一看":17152,"緊接著":17153,"與社會":17154,"藍委":17155,"謊言":17156,"轉診":17157,"鑑識":17158,"去年的":17159,"醫院的":17160,"影片曝光後":17161,"研究人員":17162,"南部山區":17163,"將會在":17164,"即將到來":17165,"國籍航空":17166,"史上最":17167,"輕鬆報稅":17168,"高度關注":17169,"帶領下":17170,"旅行社":17171,"三大法人":17172,"各式各":17173,"獨特的":17174,"拓荒者":17175,"三次":17176,"不走":17177,"也得":17178,"了幾":17179,"交叉":17180,"人得分":17181,"伴隨":17182,"兩項":17183,"公克":17184,"出路":17185,"到中國":17186,"動工":17187,"友誼":17188,"各單位":17189,"哥倫":17190,"園遊":17191,"場內":17192,"女乘客":17193,"好跑鞋":17194,"對照":17195,"市的":17196,"平價":17197,"戰士":17198,"托育":17199,"按鈕":17200,"新臺":17201,"水腫":17202,"洽談":17203,"為印尼籍":17204,"痛罵":17205,"發想":17206,"的發生":17207,"紓解":17208,"美好的":17209,"自救":17210,"落淚":17211,"陪考":17212,"非洲":17213,"食安":17214,"中心的":17215,"健康一下":17216,"安打失":17217,"對此表示":17218,"飯店員工":17219,"台股今日":17220,"進一步說明":17221,"母親節買雙":17222,"每天都":17223,"開發的":17224,"老人家":17225,"讓你心動":17226,"立法委員":17227,"讓媽媽健康一下":17228,"母親節買雙好跑鞋":17229,"一聽":17230,"一身":17231,"七大":17232,"了啦":17233,"令她":17234,"佩服":17235,"偏遠":17236,"全文":17237,"全方位":17238,"再以":17239,"啟發":17240,"噪音":17241,"回來了":17242,"團員":17243,"大愛":17244,"如願":17245,"威特":17246,"娘娘":17247,"定調":17248,"尼克":17249,"急速":17250,"成這樣":17251,"挺台":17252,"接待":17253,"搭捷運":17254,"曾表示":17255,"月在":17256,"母艦":17257,"炎熱":17258,"為求":17259,"用到":17260,"異動":17261,"病故":17262,"百姓":17263,"福斯":17264,"第十":17265,"職人":17266,"職位":17267,"貼上":17268,"走過":17269,"這座":17270,"這幾年":17271,"雞翅":17272,"願望":17273,"類動物":17274,"體積":17275,"高一":17276,"台灣有":17277,"一個中國":17278,"防疫工作":17279,"今日凌晨":17280,"最後一次":17281,"需要的":17282,"染疫風險":17283,"醫療應變":17284,"有一天":17285,"電腦斷層":17286,"尤其在":17287,"裡面的":17288,"上市櫃":17289,"黑道入黨":17290,"清潔人員":17291,"人工增雨":17292,"珍惜生命":17293,"經紀人":17294,"游擊手":17295,"主計總處":17296,"三軍":17297,"不倫":17298,"不一定":17299,"也無":17300,"也推出":17301,"代工廠":17302,"供貨":17303,"倘若":17304,"去醫院":17305,"好康":17306,"委任":17307,"存股":17308,"容納":17309,"審判":17310,"寶山":17311,"小孩子":17312,"就得":17313,"師長":17314,"忍受":17315,"忙著":17316,"惹議":17317,"救濟":17318,"日有":17319,"日報導":17320,"早前":17321,"最讓你心動":17322,"東北部":17323,"為案":17324,"為目標":17325,"當家":17326,"的嗎":17327,"的比例":17328,"盜刷":17329,"等紅燈":17330,"紡織":17331,"網全":17332,"網銀":17333,"聽力":17334,"萬海":17335,"講師":17336,"越多":17337,"跟她":17338,"路肩":17339,"轉機":17340,"這塊":17341,"通電話":17342,"遠端":17343,"那樣":17344,"都認為":17345,"醒來":17346,"鑑於":17347,"間諜":17348,"阻礙":17349,"電圖":17350,"鬼滅":17351,"沒有什麼":17352,"活動中":17353,"防疫政策":17354,"國家公園":17355,"日前往":17356,"成為全球":17357,"投資者":17358,"用戶數":17359,"發布新聞稿":17360,"男童父親":17361,"派出所長":17362,"航空母艦":17363,"疫情指揮中心指揮官":17364,"至今仍":17365,"公費疫苗":17366,"新品最讓你心動":17367,"起火原因":17368,"開除黨籍":17369,"哪個新品最讓你心動":17370,"傳產股":17371,"不孕症":17372,"轉載自":17373,"止痛藥":17374,"巴基斯坦":17375,"一查":17376,"一道":17377,"三雄":17378,"不勝":17379,"丹麥":17380,"乙級":17381,"也於":17382,"也都是":17383,"二氧化碳":17384,"偷走":17385,"克斯":17386,"公約":17387,"冒出":17388,"勝選":17389,"北海":17390,"原型":17391,"古蹟":17392,"合歡":17393,"品種":17394,"哥大":17395,"商城":17396,"喬治":17397,"在學校":17398,"影后":17399,"必看":17400,"才會有":17401,"新車":17402,"日是":17403,"是沒有":17404,"時就":17405,"桌球":17406,"演變成":17407,"熊熊":17408,"片中":17409,"疑遭":17410,"發威":17411,"的電影":17412,"組副組長":17413,"給人":17414,"被罵":17415,"要如何":17416,"要小心":17417,"說過":17418,"譽為":17419,"輸給":17420,"連戰":17421,"鎮瀾":17422,"開銷":17423,"難忘":17424,"飛往":17425,"飽受":17426,"高分":17427,"高職":17428,"點選":17429,"第一節":17430,"萬元交保":17431,"母親的":17432,"駕駛人":17433,"積極推動":17434,"以來的":17435,"第三季":17436,"交通事故":17437,"鼓勵民眾":17438,"拒絕暴力":17439,"藥物治療":17440,"夥伴關係":17441,"高等法院":17442,"大安區":17443,"手搖飲":17444,"金牛座":17445,"聯結車":17446,"不起訴":17447,"也請":17448,"也都有":17449,"也引發":17450,"仍可":17451,"仍需":17452,"保拉":17453,"傳送":17454,"僅能":17455,"公教":17456,"吐槽":17457,"哪種":17458,"善良":17459,"塞車":17460,"壞球":17461,"多一點":17462,"奪金":17463,"尚在":17464,"很棒":17465,"接殺":17466,"推案":17467,"損壞":17468,"擺設":17469,"收拾":17470,"放閃":17471,"敦促":17472,"新一波":17473,"斷裂":17474,"日再":17475,"最主要":17476,"期程":17477,"機動":17478,"求學":17479,"沒看到":17480,"男神":17481,"百日":17482,"的未來":17483,"的企業":17484,"的標準":17485,"穿戴":17486,"維吾":17487,"腫脹":17488,"蜂蜜":17489,"醜聞":17490,"金曲":17491,"開鍘":17492,"齊聚":17493,"per16":17494,"沒有大礙":17495,"中國政府":17496,"可能會有":17497,"手機市場":17498,"非常好":17499,"醫療物資":17500,"預計今年":17501,"...」":17502,"進一步調查":17503,"符合資格":17504,"停車位":17505,"中央流行疫情指揮中心今日公布國內新增":17506,"時代力量":17507,"營業時間":17508,"中部地區":17509,"主題日":17510,"執法過當":17511,"保育員":17512,"有趣的是":17513,"模範勞工":17514,"頒獎典禮":17515,"茶葉蛋":17516,"交出手機":17517,"育嬰留":17518,"有別於":17519,"新臺幣":17520,">。」":17521,"一聲":17522,"三成":17523,"上街":17524,"下跪":17525,"仍會":17526,"但對於":17527,"倒在":17528,"停下":17529,"停招":17530,"公股":17531,"南方":17532,"又不":17533,"叫囂":17534,"在美":17535,"外人":17536,"大意":17537,"好想":17538,"子裡":17539,"學區":17540,"安靜":17541,"就讓":17542,"引用":17543,"或缺":17544,"戶籍":17545,"拉抬":17546,"挨了":17547,"挨批":17548,"擴及":17549,"收納":17550,"改口":17551,"旋轉":17552,"會報":17553,"月才":17554,"朝著":17555,"止血":17556,"歲生日":17557,"死傷":17558,"溜馬":17559,"無所":17560,"無疑":17561,"物種":17562,"膀胱":17563,"萬餘元":17564,"蒙古":17565,"觸犯":17566,"賭客":17567,"走紅":17568,"跳出":17569,"轉往":17570,"還會有":17571,"那時":17572,"重疊":17573,"長程":17574,"門外":17575,"黨職":17576,"自己有":17577,"接種率":17578,"教育訓練":17579,"這是一個":17580,"產品線":17581,"只要是":17582,"醫療機構":17583,"駕駛的":17584,"工程車":17585,"大幅提升":17586,"擊出安打":17587,"資深媒體人":17588,"稅後淨利":17589,"不一樣的":17590,"替代方案":17591,"全校師生":17592,"質詢時":17593,"三接外推":17594,"遊樂區":17595,"動保處":17596,"兵庫縣":17597,"例調查中另":17598,"防丟神器":17599,"維吾爾":17600,"一命":17601,"上節目":17602,"丟棄":17603,"也要求":17604,"了不少":17605,"假訊息":17606,"加拉":17607,"喝醉":17608,"回事":17609,"圓形":17610,"奧客":17611,"好心":17612,"安卓":17613,"將再":17614,"專機":17615,"已連續":17616,"市政府":17617,"很好吃":17618,"打掃":17619,"投注":17620,"放上":17621,"放學":17622,"敗給":17623,"日文":17624,"暢旺":17625,"核子":17626,"清淤":17627,"漁業":17628,"用地":17629,"發育":17630,"白飯":17631,"的議題":17632,"的習慣":17633,"的原則":17634,"看他":17635,"秀出":17636,"約在":17637,"聽過":17638,"菁英":17639,"菸品":17640,"裝修":17641,"視頻":17642,"變天":17643,"讓粉絲":17644,"豐原":17645,"財物":17646,"買下":17647,"跑車":17648,"退貨":17649,"都覺得":17650,"鄉公所":17651,"風水":17652,"骨頭":17653,"高喊":17654,"麻醉":17655,"點作收":17656,"民眾可":17657,"可能造成":17658,"今天也":17659,"警方也":17660,"完成後":17661,"過去在":17662,"一年多":17663,"年增率":17664,"累積雨量":17665,"不良行為":17666,"不知情":17667,"代言人":17668,"一股":17669,"一萬":17670,"一開":17671,"並肩":17672,"中時":17673,"中小學":17674,"之類的":17675,"亂象":17676,"亮燈":17677,"兼任":17678,"到最後":17679,"前線":17680,"募資":17681,"南向":17682,"司長":17683,"哀悼":17684,"品嘗":17685,"因傷":17686,"囤房":17687,"威力":17688,"守門":17689,"已要求":17690,"帳單":17691,"念頭":17692,"我媽":17693,"提報":17694,"操盤":17695,"整整":17696,"時會":17697,"更嚴重":17698,"最常":17699,"最討厭":17700,"未見":17701,"極力":17702,"死於":17703,"每一位":17704,"消耗":17705,"滷味":17706,"登機":17707,"的運動":17708,"矛盾":17709,"紅海":17710,"總算":17711,"聯會":17712,"職權":17713,"背後的":17714,"芝加":17715,"蒜頭":17716,"藉口":17717,"處境":17718,"試務":17719,"轉頭":17720,"遍及":17721,"遭警方":17722,"遴選":17723,"重度":17724,"門號":17725,"閨蜜":17726,"網友也":17727,"可能要":17728,"印度政府":17729,"結果顯示":17730,"決定將":17731,"選擇題":17732,"資料照":17733,"引發爭議":17734,"目標價":17735,"進一步指出":17736,"金融股":17737,"陳時中說":17738,"仍有待":17739,"唯一的":17740,"下雨了":17741,"台東縣":17742,"地下室":17743,"把握機會":17744,"公共場所活動史":17745,"終盤下跌":17746,"預售屋":17747,"馬拉松":17748,"鎮瀾宮":17749,">>":17750,"]「<":17751,"不做":17752,"人際":17753,"但他們":17754,"傳來":17755,"兵力":17756,"分歧":17757,"前男友":17758,"參謀":17759,"可供":17760,"四川":17761,"在桃園":17762,"地勤":17763,"她與":17764,"就因為":17765,"布丁":17766,"布魯":17767,"影展":17768,"後遺症":17769,"從業":17770,"我知道":17771,"打的":17772,"指甲":17773,"掛在":17774,"搖晃":17775,"擴建":17776,"日和":17777,"是可以":17778,"有異":17779,"機要":17780,"歡呼":17781,"流向":17782,"涉犯":17783,"渲染":17784,"當靠山":17785,"病歿":17786,"省錢":17787,"磋商":17788,"祈禱":17789,"祈雨":17790,"移到":17791,"等著":17792,"老天":17793,"處的":17794,"設廠":17795,"講述":17796,"賣掉":17797,"超出":17798,"錯愕":17799,"附設":17800,"非營利":17801,"面子":17802,"飼料":17803,"今天新增":17804,"不過也有人":17805,"今日娛樂":17806,"增加到":17807,"直接在":17808,"諾富特染疫":17809,"用戶的":17810,"女兒的":17811,"鋒面報到":17812,"群聚案":17813,"疫苗接種率":17814,"都不敢":17815,"的大型":17816,"開車不喝酒":17817,"史上第":17818,"辛苦了":17819,"喝酒不開車":17820,"所需的":17821,"跟我說":17822,"個多月":17823,"自請處分":17824,"今日娛樂推薦影音":17825,"一秒":17826,"下放":17827,"不妨":17828,"中鋒":17829,"中指出":17830,"了很多":17831,"仍要":17832,"俗稱":17833,"傳訊":17834,"僵局":17835,"前夫":17836,"副總經理":17837,"副駕駛座":17838,"北區":17839,"區長":17840,"千名":17841,"去找":17842,"嗨翻":17843,"四季":17844,"在西":17845,"在路上":17846,"堅守":17847,"多萬元":17848,"天就":17849,"太高":17850,"奪得":17851,"家人的":17852,"導向":17853,"小隊長":17854,"島嶼":17855,"引領":17856,"彩色":17857,"很不":17858,"得手":17859,"德保拉":17860,"所在地":17861,"提領":17862,"撞臉":17863,"擋風":17864,"放假":17865,"整修":17866,"文表示":17867,"旁的":17868,"暗黑":17869,"有何":17870,"東家":17871,"橫掃":17872,"此類":17873,"歸還":17874,"渴望":17875,"病況":17876,"矯正":17877,"破案":17878,"細則":17879,"羯座":17880,"老先生":17881,"衝到":17882,"表決":17883,"讚賞":17884,"買起來":17885,"防火":17886,"顯現":17887,"風氣":17888,"美國和":17889,"可能的":17890,"我們是":17891,"其他的":17892,"不會再":17893,"根據統計":17894,">」?":17895,"這是他":17896,"所有眉角":17897,"台南市長":17898,"的一些":17899,"一般的":17900,"不可或缺":17901,"的狀況下":17902,"柔道教練":17903,"時期的":17904,"咳嗽等不適症狀":17905,"松山之亂":17906,"有利於":17907,"新制小確幸":17908,"遊覽車司機":17909,"滑手機輕鬆報稅":17910,"短時間內":17911,"芝加哥":17912,"所有眉角看這裡":17913,"不宜":17914,"人和":17915,"代替":17916,"併購":17917,"元元":17918,"內戰":17919,"全教":17920,"八德":17921,"前任":17922,"助陣":17923,"卓越":17924,"原創":17925,"去世":17926,"同居":17927,"因工作":17928,"園方":17929,"外賣":17930,"少子女":17931,"已故":17932,"從頭":17933,"心房":17934,"打成":17935,"拉斯":17936,"文末":17937,"施作":17938,"本尊":17939,"杜絕":17940,"楊男":17941,"機票":17942,"洗腎":17943,"物件":17944,"科威特":17945,"稅收":17946,"紅人":17947,"素食":17948,"編隊":17949,"罰球":17950,"興起":17951,"莫斯科":17952,"視鏡":17953,"解題":17954,"註記":17955,"買不到":17956,"轉介":17957,"運抵":17958,"隨之":17959,"雙北市":17960,"雙胞胎":17961,"機師與":17962,"連續安打":17963,"年輕時":17964,"召開臨時":17965,"第一季營收":17966,"公分的":17967,"自費疫苗":17968,"攜手合作":17969,"大多為":17970,"坦承犯行":17971,"熟悉的":17972,"試題與":17973,"一陣子":17974,"中常委":17975,"毅力號":17976,"」、<":17977,"上身":17978,"保安":17979,"個字":17980,"停產":17981,"僅是":17982,"僅限":17983,"僑胞":17984,"億日圓":17985,"內褲":17986,"共度":17987,"出征":17988,"力士":17989,"勝差":17990,"北路":17991,"又能":17992,"只需要":17993,"寄生":17994,"小腿":17995,"強生":17996,"快要":17997,"思想":17998,"意象":17999,"我已經":18000,"我現在":18001,"所提":18002,"扛起":18003,"改款":18004,"放話":18005,"暴投":18006,"有兩":18007,"樹木":18008,"氏症":18009,"泳池":18010,"洽詢":18011,"清醒":18012,"潰瘍":18013,"無故":18014,"狹窄":18015,"琉球":18016,"的趨勢":18017,"窒息":18018,"言行":18019,"趣味":18020,"跨境":18021,"退伍":18022,"這艘":18023,"連同":18024,"連開":18025,"運行":18026,"過熱":18027,"遠遠":18028,"適度":18029,"還特別":18030,"郡王":18031,"難易":18032,"黨中央":18033,"今年以來":18034,"其中以":18035,"雖然是":18036,"市場殺出":18037,"完成接種":18038,"出來了":18039,"提升至":18040,"有一點":18041,"幾乎是":18042,"上市公司":18043,"製作人":18044,"能在防丟神器":18045,"打破界線":18046,"這波鋒面":18047,"案發後":18048,"大甲媽祖":18049,"蓄水率":18050,"流鼻水":18051,"達比修有":18052,"地檢署":18053,"醫療應變組副組長":18054,"能在防丟神器市場殺出":18055,"下二軍":18056,"之光":18057,"也針對":18058,"但隨著":18059,"你我":18060,"冷藏":18061,"出差":18062,"出走":18063,"升至":18064,"反撲":18065,"可靠":18066,"可觸控的":18067,"名醫":18068,"咖哩":18069,"四技":18070,"女老師":18071,"女主管":18072,"愛好":18073,"抗爭":18074,"指紋":18075,"接班":18076,"推行":18077,"日確診":18078,"日清晨":18079,"未有":18080,"槍砲":18081,"沒觸控的":18082,"流通":18083,"清朝":18084,"清算":18085,"漏水":18086,"火線":18087,"痛哭":18088,"白人":18089,"的家":18090,"的世界":18091,"福特":18092,"竟有":18093,"粉紅色":18094,"締造":18095,"縣內":18096,"與日本":18097,"艱難":18098,"評選":18099,"越野":18100,"迫使":18101,"退化":18102,"這三":18103,"進化":18104,"選修":18105,"選拔":18106,"陣營":18107,"雙贏":18108,"風吹":18109,"org15":18110,"美國在":18111,"中國在":18112,"真的要":18113,"的人才":18114,"經濟體":18115,"下來的":18116,"根本就是":18117,"昨日晚間":18118,"因應疫情":18119,"衛生局":18120,"送醫搶救":18121,"價值觀":18122,"各地的":18123,"黨部主委":18124,"出局數":18125,"一段影片":18126,"紛紛留言表示":18127,"視訊會議":18128,"娛樂圈":18129,"處理器打破界線":18130,"被問及":18131,"發病前":18132,"自治條例":18133,"紅海嗎":18134,"能在防丟神器市場殺出紅海嗎":18135,"上分享":18136,"下面":18137,"不忘":18138,"不振":18139,"之爭":18140,"他自己":18141,"伊士":18142,"住進":18143,"保費":18144,"先在":18145,"克里":18146,"免稅":18147,"再多":18148,"半世紀":18149,"南北":18150,"多為":18151,"太慢":18152,"平穩":18153,"戰隊":18154,"投奔":18155,"拘留":18156,"持平":18157,"援手":18158,"損傷":18159,"曼達":18160,"此文一出":18161,"殉職":18162,"殘酷":18163,"殺手":18164,"比分":18165,"海水":18166,"為準":18167,"球棒":18168,"的金":18169,"皆可":18170,"窮到":18171,"竊賊":18172,"紙箱":18173,"縱容":18174,"美到":18175,"股王":18176,"背包":18177,"著名":18178,"蘇達":18179,"蘇伊士":18180,"衝出":18181,"衰竭":18182,"被感染":18183,"資歷":18184,"身兼":18185,"躲在":18186,"轟出":18187,"遺傳":18188,"配送":18189,"長約":18190,"開業":18191,"電量":18192,"風光":18193,"高薪":18194,"進行接觸者採檢":18195,"發生口角":18196,"調查發現":18197,"萬元以上":18198,"之後的":18199,"運動品牌":18200,"討論後":18201,"的一種":18202,"文章授權":18203,"開發商":18204,"不滿意":18205,"判決書":18206,"物理治療":18207,"醫事人員":18208,"北海道":18209,"一套":18210,"一是":18211,"並呼籲":18212,"伸手":18213,"你在":18214,"做完":18215,"典型":18216,"勝出":18217,"北斗":18218,"即將在":18219,"受騙":18220,"同一個":18221,"增訂":18222,"壞了":18223,"大國":18224,"學士":18225,"客廳":18226,"對峙":18227,"小偷":18228,"尼泊":18229,"市面上":18230,"希臘":18231,"感應":18232,"應有":18233,"我可以":18234,"戒指":18235,"所為":18236,"扭傷":18237,"抬頭":18238,"招呼":18239,"擬定":18240,"擺在":18241,"攤販":18242,"月增":18243,"母校":18244,"沿線":18245,"浙江":18246,"準時":18247,"火大":18248,"無鉛":18249,"燒毀":18250,"獎號":18251,"用在":18252,"百億":18253,"盤後":18254,"空汙":18255,"等不到":18256,"萬件":18257,"製的":18258,"觀感":18259,"貧窮":18260,"跨界":18261,"隔年":18262,"頭暈":18263,"飛官":18264,"高爾夫":18265,"麵條":18266,"」。「":18267,"目前是":18268,"生活費":18269,"非常感謝":18270,"重要性":18271,"媒體詢問":18272,"這是我":18273,"完全沒":18274,"電子菸":18275,"萬人民幣":18276,"就業機會":18277,"大幅成長":18278,"黑道背景":18279,"機師染疫風暴":18280,"受惠於":18281,"狗狗幣":18282,"植物人":18283,"示威者":18284,"收容所":18285,"遼寧艦":18286,"入境後至防疫旅館":18287,"燃氣機組":18288,"併發症":18289,"康乃馨":18290,"尼泊爾":18291,">?<":18292,"上山":18293,"下體":18294,"丟臉":18295,"中日":18296,"來吃":18297,"健全":18298,"到目前為止":18299,"前鋒":18300,"副校長":18301,"十五":18302,"半個月":18303,"只在":18304,"喝了":18305,"四名":18306,"在與":18307,"女婿":18308,"定價":18309,"專責":18310,"專車":18311,"年與":18312,"徵求":18313,"心電圖":18314,"怎料":18315,"感激":18316,"把我":18317,"拜拜":18318,"換成":18319,"改用":18320,"日才":18321,"是好":18322,"時空":18323,"某航空公司":18324,"槍械":18325,"求婚":18326,"法拉":18327,"清消":18328,"照明":18329,"特使":18330,"率的":18331,"當他":18332,"禁忌":18333,"笑話":18334,"而不":18335,"與國際":18336,"荒謬":18337,"讓外界":18338,"路跑":18339,"還包括":18340,"防災":18341,"集合":18342,"頭份":18343,"頭期":18344,"高額":18345,"點頭":18346,"因為是":18347,"進行了":18348,"宣布將":18349,"分別在":18350,"留言表示":18351,"本季首勝":18352,"成立的":18353,"來自於":18354,"五一連假":18355,"最危險的地方":18356,">》<":18357,"學弟妹":18358,"可行性":18359,"低收入戶":18360,"天降甘霖":18361,"蘋果發表會重點整理":18362,"擋風玻璃":18363,"九太":18364,"但也有網友":18365,"信號":18366,"儘快":18367,"兇手":18368,"合力":18369,"在新":18370,"威爾":18371,"字樣":18372,"家門":18373,"度假":18374,"弱的":18375,"後又":18376,"後將":18377,"打火":18378,"找人":18379,"挖礦":18380,"捐助":18381,"提交":18382,"摩斯":18383,"撇步":18384,"日為":18385,"是我們":18386,"暗藏":18387,"曾赴":18388,"有需要":18389,"標榜":18390,"氣到":18391,"治癒":18392,"法式":18393,"海嘯":18394,"生菌":18395,"發達":18396,"的使用":18397,"第八":18398,"筆試":18399,"紛爭":18400,"組員":18401,"統治":18402,"網傳":18403,"繪本":18404,"自衛":18405,"衛教":18406,"被列為":18407,"觀音":18408,"許久":18409,"請民眾":18410,"譁然":18411,"贏家":18412,"踩踏":18413,"身手":18414,"適用於":18415,"那斯":18416,"雙人":18417,"雙向":18418,"靈異":18419,"飆罵":18420,"目前仍在":18421,"學生會":18422,"發生衝突":18423,"調查局":18424,"這些都是":18425,"需求強勁":18426,"預計將":18427,"優惠活動":18428,"根本沒有":18429,"陰性證明":18430,"機組員檢疫":18431,"更多民視新聞報導快新聞":18432,"接獲民眾":18433,"學測成績":18434,"高級中等":18435,"訊後依":18436,"高速公路":18437,"東北風":18438,"支持台灣參與":18439,"後疫情時代":18440,"明尼蘇達":18441,"不甘":18442,"人與":18443,"何況":18444,"價位":18445,"全大運":18446,"利康":18447,"化石":18448,"千隻蟑螂":18449,"反攻":18450,"召委":18451,"名接觸者":18452,"在該":18453,"多重":18454,"大街":18455,"大自然":18456,"彈藥":18457,"想想":18458,"愛爾":18459,"提款":18460,"撰寫":18461,"日為止":18462,"是哪":18463,"更二審":18464,"最嚴重的":18465,"會選擇":18466,"有意義":18467,"棍棒":18468,"油脂":18469,"治國":18470,"淘汰":18471,"源自":18472,"炫耀":18473,"狂轟":18474,"的臉":18475,"的黑":18476,"的基本":18477,"真面目":18478,"砍傷":18479,"禁區":18480,"稱號":18481,"穆斯":18482,"純網銀":18483,"羽球":18484,"育成":18485,"舞者":18486,"荷爾蒙":18487,"親近":18488,"護送":18489,"財團":18490,"車流":18491,"辭去":18492,"通信":18493,"重慶":18494,"降稅":18495,"院內":18496,"隱瞞":18497,"鞠躬":18498,"預先":18499,"美國將":18500,"工作機會":18501,"當時他":18502,"經濟部":18503,"先發輪值":18504,"研究顯示":18505,"技術的":18506,"科技業":18507,"完全不":18508,"這麼做":18509,"順利完成":18510,"第四季":18511,">../":18512,"電商平台":18513,"致詞時":18514,"最重要的是":18515,"水瓶座":18516,"工讀生":18517,"文章授權轉載自":18518,"上加":18519,"上將":18520,"今上午":18521,"以輕":18522,"住所":18523,"保鮮":18524,"典範":18525,"前立委":18526,"加值":18527,"十幾":18528,"味覺":18529,"喜好":18530,"在我":18531,"型號":18532,"埋伏":18533,"塞爾":18534,"太快":18535,"女郎":18536,"姓男童":18537,"實測":18538,"尚有":18539,"居高":18540,"微波":18541,"徹查":18542,"心律":18543,"應立即":18544,"我相信":18545,"抹茶":18546,"按鍵":18547,"掃蕩":18548,"推展":18549,"搶劫":18550,"旅外":18551,"最喜歡":18552,"本文":18553,"栽培":18554,"機隊":18555,"瀏海":18556,"疏導":18557,"疲憊":18558,"糧食":18559,"紅雀":18560,"終端":18561,"絕佳":18562,"若以":18563,"親切":18564,"貴賓":18565,"走揚":18566,"起薪":18567,"逆勢":18568,"造謠":18569,"重拾":18570,"鎮暴":18571,"鐵皮":18572,"限期":18573,"除役":18574,"集氣":18575,"雲系":18576,"電路":18577,"台灣選手":18578,"美國國務卿":18579,"今天舉辦":18580,"全球經濟":18581,"最後一天":18582,"如果要":18583,"資料照片":18584,"國中小":18585,"就會有":18586,"萬人確診":18587,"聲明表示":18588,"自主權":18589,"受傷的":18590,"應用在":18591,"電信業者":18592,"內行曝":18593,"免疫力":18594,"應變中心":18595,"聯合品牌鞋款":18596,"中時新聞網":18597,"》[":18598,"一年的":18599,"三月":18600,"上天":18601,"不理想":18602,"中古":18603,"低點":18604,"出新":18605,"分最高":18606,"勸導":18607,"千萬元":18608,"反問":18609,"大片":18610,"好表現":18611,"就分享":18612,"屬實":18613,"恩愛":18614,"慈濟":18615,"才可以":18616,"推擠":18617,"搶走":18618,"敗投":18619,"新春":18620,"是許多":18621,"普查":18622,"月全食":18623,"杜鵑":18624,"死人":18625,"混血":18626,"溫室":18627,"獸醫師":18628,"班次":18629,"的家庭":18630,"真能":18631,"禁賽":18632,"細心":18633,"緊盯":18634,"罰則":18635,"腹痛":18636,"與一般":18637,"花海":18638,"親屬":18639,"言之":18640,"課堂":18641,"課業":18642,"謊稱":18643,"變革":18644,"賣的":18645,"起身":18646,"載人":18647,"速率":18648,"還需":18649,"鍛鍊":18650,"開戶":18651,"開關":18652,"額度":18653,"不過有":18654,"已經超過":18655,"健康檢查":18656,"總統大選":18657,"採檢陰性":18658,"表現優異":18659,"產業鏈":18660,"預計於":18661,"行動電話":18662,"智慧手機":18663,"並且在":18664,"生產的":18665,"這一切":18666,"歡迎民眾":18667,"銷售額":18668,"地球日":18669,"便利性":18670,"新鮮人":18671,"近況曝光":18672,"飛球出局":18673,"熱身賽":18674,"七成":18675,"三節":18676,"不絕":18677,"也遭":18678,"二段":18679,"人中":18680,"但不":18681,"但今年":18682,"停下來":18683,"充實":18684,"公婆":18685,"分層":18686,"包廂":18687,"只差":18688,"可至":18689,"台產":18690,"喜悅":18691,"噩耗":18692,"噴發":18693,"在工作":18694,"多年前":18695,"好多":18696,"完投":18697,"害人":18698,"實況":18699,"就跟":18700,"巨星":18701,"已進入":18702,"廣州":18703,"後會":18704,"手作":18705,"排骨":18706,"日經":18707,"更讓":18708,"本國":18709,"核電":18710,"歲兒":18711,"水井":18712,"沉重":18713,"法醫":18714,"泳裝":18715,"海豚":18716,"漫遊":18717,"激戰":18718,"爆滿":18719,"玩遊戲":18720,"疑因":18721,"發售":18722,"白蟻":18723,"的我":18724,"的用戶":18725,"盡情":18726,"看板":18727,"碳排放":18728,"票選":18729,"空污":18730,"立馬":18731,"糖世代":18732,"網狂":18733,"缺錢":18734,"而有":18735,"聯想":18736,"血流":18737,"補給":18738,"補選":18739,"貴婦":18740,"跑出":18741,"路燈":18742,"較小":18743,"近視":18744,"遇見":18745,"違者":18746,"閃電":18747,"開創":18748,"驚人的":18749,"鬥爭":18750,"鱷魚":18751,"黨魁":18752,"台灣與":18753,"台灣民眾":18754,"loc5":18755,"日本網友":18756,"最後在":18757,"根據日本媒體":18758,"決定要":18759,"疑似因為":18760,"投手教練":18761,">:「<":18762,"期待的":18763,"傳統的":18764,"離婚後":18765,"表達對":18766,"自動化":18767,"報稅季":18768,"抵達現場":18769,"清潔消毒":18770,"感染源不明":18771,"感染源調查中":18772,"重啟核四":18773,"三讀通過":18774,"撕裂傷":18775,"受災戶":18776,"執勤至美國":18777,"蘇伊士運河":18778,"無鉛汽油":18779,"穆斯林":18780,"也只有":18781,"亞錦賽":18782,"交所":18783,"仍舊":18784,"低落":18785,"保羅":18786,"信箱":18787,"個孩子":18788,"偉大":18789,"先將":18790,"刀械":18791,"創高":18792,"可提供":18793,"吃掉":18794,"報紙":18795,"大排":18796,"大消毒":18797,"客氣":18798,"尾聲":18799,"尾隨":18800,"層次":18801,"履行":18802,"底部":18803,"所稅":18804,"所大學":18805,"把球":18806,"招聯會":18807,"指名":18808,"撞進":18809,"滑落":18810,"為提升":18811,"熱水":18812,"的範圍":18813,"盒子":18814,
[...]
